<unk>	0
<s>	0
</s>	0
<pad>	0
▁	-3.29503
,	-3.7295
.	-3.81497
s	-4.31877
a	-4.78516
e	-4.98437
i	-5.08578
-	-5.15982
▁de	-5.26026
:	-5.31661
t	-5.42925
▁a	-5.47907
o	-5.48594
n	-5.66101
u	-5.70124
▁-	-5.78687
en	-5.87705
)	-5.91076
▁(	-5.94418
y	-5.97922
▁in	-6.16785
/	-6.19393
d	-6.20121
m	-6.21327
er	-6.22104
▁i	-6.22128
▁e	-6.24773
r	-6.25085
▁na	-6.25914
▁la	-6.27165
▁en	-6.30993
an	-6.38254
k	-6.41487
'	-6.41883
in	-6.52208
▁A	-6.55325
▁|	-6.56648
’	-6.57718
▁sa	-6.58187
es	-6.59849
te	-6.65227
▁o	-6.66172
▁di	-6.67798
da	-6.69988
▁to	-6.72622
ta	-6.7401
na	-6.74404
h	-6.7592
g	-6.77444
▁S	-6.79191
ar	-6.79421
l	-6.80494
▁se	-6.80955
z	-6.81889
c	-6.83221
de	-6.84739
▁the	-6.84744
▁do	-6.86627
...	-6.86737
b	-6.88692
▁da	-6.888
ne	-6.91602
▁que	-6.91754
?	-6.9199
▁–	-6.94993
ing	-6.95506
le	-6.96812
ka	-6.98326
!	-6.99385
p	-6.99591
as	-7.01441
▁v	-7.01473
▁un	-7.03038
▁1	-7.0485
▁"	-7.06066
ni	-7.07574
▁of	-7.08389
re	-7.09488
et	-7.09975
▁and	-7.10087
"	-7.11075
▁d	-7.11323
li	-7.11543
x	-7.11602
al	-7.12045
la	-7.12272
▁og	-7.168
ja	-7.16998
▁s	-7.17104
to	-7.17767
ko	-7.1829
ti	-7.18534
is	-7.18562
▁I	-7.18767
▁l	-7.19251
j	-7.1955
▁at	-7.19661
▁on	-7.1977
ed	-7.20026
si	-7.20193
S	-7.20499
▁is	-7.20588
▁2	-7.20966
▁for	-7.21184
f	-7.2122
v	-7.22057
it	-7.22291
;	-7.23752
os	-7.24803
▁“	-7.25199
▁M	-7.26967
A	-7.27474
▁ka	-7.28461
w	-7.3022
▁3	-7.3053
▁/	-7.3184
▁B	-7.32578
▁на	-7.32873
▁z	-7.32917
▁te	-7.33885
а	-7.34655
at	-7.35561
▁el	-7.36148
_	-7.3615
on	-7.36178
se	-7.36207
▁je	-7.36217
no	-7.36328
▁ja	-7.36906
▁si	-7.37096
ma	-7.38155
▁per	-7.38727
ra	-7.38747
▁T	-7.38874
и	-7.38987
▁C	-7.39438
▁er	-7.39612
ga	-7.39781
▁le	-7.39913
▁E	-7.40813
”	-7.41618
▁za	-7.41691
▁të	-7.41874
ch	-7.41972
us	-7.4306
▁die	-7.44381
ak	-7.45108
▁no	-7.46401
D	-7.46944
▁K	-7.47061
▁m	-7.47407
2	-7.48667
C	-7.48686
▁van	-7.48968
com	-7.49805
▁du	-7.51082
▁4	-7.51784
▁O	-7.5188
B	-7.54848
me	-7.55389
▁ya	-7.55808
▁me	-7.55928
ki	-7.56
st	-7.56891
▁be	-7.5719
▁po	-7.58198
3	-7.58774
▁D	-7.59038
do	-7.5914
▁al	-7.59824
▁ku	-7.59951
ur	-7.60418
▁P	-7.60424
▁V	-7.60533
▁10	-7.61188
di	-7.61336
1	-7.61825
ir	-7.62259
▁u	-7.63019
ce	-7.63075
▁L	-7.63208
ve	-7.64003
je	-7.6413
id	-7.64279
ke	-7.64479
▁5	-7.65086
▁para	-7.66026
ul	-7.66846
▁ne	-7.67387
ri	-7.68487
▁pa	-7.69492
▁dan	-7.69493
▁La	-7.69862
mi	-7.70005
▁k	-7.70546
(	-7.70557
▁con	-7.70848
ge	-7.70993
▁yang	-7.71458
un	-7.72566
▁De	-7.72613
▁et	-7.72838
▁del	-7.7363
em	-7.73693
wa	-7.74392
sa	-7.74877
E	-7.74998
ro	-7.75236
kan	-7.75636
▁wa	-7.75968
|	-7.76136
q	-7.7633
F	-7.76678
ba	-7.76789
▁an	-7.76824
ca	-7.77194
ku	-7.77641
▁F	-7.77906
T	-7.78367
il	-7.79223
ci	-7.79322
▁и	-7.79564
el	-7.79858
://	-7.80184
K	-7.8024
lar	-7.80683
▁w	-7.80876
▁H	-7.80996
lo	-7.81117
be	-7.82238
的	-7.82332
va	-7.82367
▁på	-7.82612
▁til	-7.83159
▁N	-7.83239
▁за	-7.83354
▁med	-7.83576
▁G	-7.84139
ia	-7.84153
í	-7.84336
▁ve	-7.84397
tu	-7.84817
е	-7.84995
▁y	-7.85742
▁ki	-7.85841
é	-7.85891
ha	-7.86179
у	-7.86331
4	-7.86618
▁so	-7.86855
▁ng	-7.87205
ya	-7.87218
▁su	-7.87568
am	-7.88205
ی	-7.88774
▁re	-7.89149
▁R	-7.89724
ek	-7.8984
N	-7.89849
▁by	-7.89875
um	-7.90728
M	-7.90762
▁op	-7.90927
V	-7.9194
▁ma	-7.93027
▁»	-7.94439
▁«	-7.94965
▁ke	-7.95024
▁12	-7.95499
P	-7.95574
▁het	-7.96227
▁U	-7.96347
za	-7.96485
▁as	-7.97068
▁ko	-7.97079
▁6	-7.97108
▁ir	-7.97324
ten	-7.98979
▁0	-7.99415
ly	-7.99769
▁som	-7.99885
▁om	-7.99912
▁ha	-8.00003
G	-8.00255
▁20	-8.00598
ho	-8.00619
▁në	-8.00821
▁و	-8.01299
▁ta	-8.01517
W	-8.01643
▁#	-8.01771
،	-8.01789
▁:	-8.01924
▁av	-8.02173
]	-8.02308
man	-8.03399
▁ang	-8.03847
▁eta	-8.04326
ie	-8.05032
▁der	-8.05107
5	-8.05211
▁ar	-8.05451
▁15	-8.0577
or	-8.06004
▁In	-8.06343
▁11	-8.07005
mo	-8.0726
▁ni	-8.07686
co	-8.08018
ه	-8.08215
▁por	-8.08252
▁в	-8.08283
。	-8.08559
im	-8.08599
▁kan	-8.09096
ny	-8.09501
▁har	-8.10066
om	-8.10085
▁&	-8.1022
▁2019	-8.10379
▁les	-8.1058
▁va	-8.10824
▁8	-8.11408
O	-8.1164
nya	-8.12173
▁7	-8.12189
▁W	-8.12624
ng	-8.13025
▁2018	-8.13377
▁The	-8.13792
­	-8.13856
▁g	-8.1393
L	-8.14838
0	-8.15096
▁„	-8.15308
▁vi	-8.1531
pa	-8.15893
),	-8.15969
zi	-8.15991
▁den	-8.16132
▁ge	-8.16206
go	-8.16224
▁ver	-8.16367
H	-8.1642
▁och	-8.16516
▁18	-8.16584
ter	-8.16879
▁var	-8.16945
▁19	-8.17302
▁een	-8.17487
▁pe	-8.18145
▁af	-8.18251
»	-8.18448
▁bo	-8.1856
▁det	-8.18685
▁il	-8.18893
▁Na	-8.19536
6	-8.19637
=	-8.20377
▁t	-8.20523
▁2017	-8.20911
I	-8.21207
▁pre	-8.22202
8	-8.2259
ver	-8.2275
▁ال	-8.22871
ad	-8.23181
▁16	-8.23294
▁14	-8.23854
▁x	-8.23863
▁Z	-8.23872
th	-8.24297
7	-8.24312
▁€	-8.24505
ov	-8.25245
、	-8.25421
ler	-8.25541
▁á	-8.25601
du	-8.2571
▁um	-8.25887
▁13	-8.26169
ā	-8.26222
).	-8.26276
▁>	-8.26422
den	-8.26553
▁Re	-8.27223
R	-8.27334
lik	-8.2739
▁Se	-8.27804
á	-8.28062
▁[	-8.28075
т	-8.28734
на	-8.28774
▁par	-8.28806
ina	-8.29256
▁...	-8.29447
▁b	-8.29566
▁es	-8.29697
ji	-8.29918
▁li	-8.29986
ik	-8.30311
po	-8.30533
#	-8.30703
▁að	-8.3074
▁od	-8.31105
▁у	-8.31156
9	-8.31248
ju	-8.31324
м	-8.31382
ai	-8.31767
▁und	-8.31833
vi	-8.31898
▁Le	-8.32096
▁à	-8.32314
he	-8.3249
▁í	-8.3267
gi	-8.32722
bo	-8.32812
der	-8.32839
we	-8.33847
ą	-8.33931
▁17	-8.3394
▁com	-8.34346
▁met	-8.34418
▁J	-8.34504
▁pro	-8.34635
mu	-8.34747
ang	-8.34772
ze	-8.34844
с	-8.35448
ut	-8.3571
▁për	-8.35798
▁nga	-8.36067
lu	-8.36423
▁c	-8.36981
▁una	-8.37004
▁p	-8.37234
▁'	-8.37447
▁9	-8.37838
▁No	-8.38028
н	-8.3838
pe	-8.38442
“	-8.38501
ка	-8.389
▁по	-8.39131
▁да	-8.39165
▁En	-8.39515
+	-8.39522
▁n	-8.39577
▁tu	-8.39824
▁Al	-8.40016
▁with	-8.40627
я	-8.40841
▁El	-8.40846
ru	-8.40865
jo	-8.41004
ning	-8.41183
▁des	-8.41461
ни	-8.41635
ة	-8.41744
▁ה	-8.41774
▁bu	-8.41826
Z	-8.42968
ok	-8.43632
о	-8.43686
▁you	-8.4392
▁Di	-8.44015
▁em	-8.4424
▁dhe	-8.4426
▁man	-8.44509
var	-8.4477
▁2016	-8.4521
▁bi	-8.45396
▁bir	-8.45493
▁cu	-8.46031
ի	-8.46217
ty	-8.46513
ou	-8.46785
ž	-8.47415
ig	-8.47517
▁с	-8.47878
dan	-8.47971
ó	-8.48135
х	-8.48231
та	-8.48884
д	-8.49337
▁att	-8.49503
š	-8.50122
▁Be	-8.50664
▁mi	-8.5108
▁30	-8.5122
▁21	-8.51348
▁ber	-8.51474
▁Sa	-8.5163
vo	-8.52501
X	-8.52516
men	-8.53137
▁h	-8.53368
sta	-8.534
ă	-8.53478
ot	-8.53714
▁د	-8.53768
ų	-8.53776
▁ay	-8.54141
▁nie	-8.54216
▁é	-8.54996
ä	-8.55263
hi	-8.55267
ita	-8.5552
л	-8.55702
10	-8.55736
▁men	-8.56375
▁nu	-8.56439
www	-8.56554
ë	-8.57197
ы	-8.57281
J	-8.57489
ky	-8.57494
▁din	-8.57502
ada	-8.57562
▁ba	-8.57604
да	-8.57629
ren	-8.57761
▁22	-8.57949
ment	-8.5825
né	-8.58273
iz	-8.58501
gen	-8.58652
tar	-8.58671
ken	-8.58712
&	-8.59244
▁ca	-8.59283
▁24	-8.59361
ي	-8.59367
▁To	-8.59773
▁és	-8.59876
fi	-8.59977
▁or	-8.60224
ry	-8.60348
ste	-8.60404
▁‘	-8.6121
fa	-8.61349
▁Vi	-8.6169
▁An	-8.61805
‘	-8.62113
tur	-8.62606
ol	-8.62894
U	-8.63138
gu	-8.63406
▁sem	-8.63654
▁km	-8.6382
▁کے	-8.63855
▁•	-8.63916
zo	-8.64042
▁f	-8.64098
▁voor	-8.6421
▁се	-8.64277
bi	-8.6469
▁Po	-8.65114
▁mga	-8.65359
▁mu	-8.65674
▁ב	-8.66006
▁pri	-8.66007
▁+	-8.66084
।	-8.66226
ní	-8.6703
▁os	-8.67063
ung	-8.67192
ers	-8.67208
▁23	-8.67313
но	-8.67608
so	-8.67941
▁25	-8.68054
▁för	-8.68248
▁that	-8.68282
▁fa	-8.68386
▁untuk	-8.6898
га	-8.69183
▁Y	-8.69246
▁co	-8.69444
lan	-8.69498
▁2015	-8.69638
▁am	-8.69746
bu	-8.69857
▁X	-8.70047
▁az	-8.70122
ú	-8.702
ts	-8.7033
▁dengan	-8.70405
к	-8.70439
й	-8.70459
▁ini	-8.71003
tra	-8.71029
▁che	-8.71543
▁iz	-8.7158
▁was	-8.71581
sk	-8.71715
ej	-8.71949
ine	-8.72019
▁are	-8.72024
▁ob	-8.72106
▁mo	-8.72489
hu	-8.72569
▁ter	-8.72761
kin	-8.72779
г	-8.72804
are	-8.73191
nu	-8.73479
io	-8.7402
est	-8.74128
ا	-8.74538
ker	-8.74665
ini	-8.7469
Q	-8.74722
ud	-8.74789
per	-8.74939
▁tak	-8.75224
▁Per	-8.7536
▁we	-8.75374
Y	-8.75773
ari	-8.76063
>	-8.76093
і	-8.76108
▁Ne	-8.76507
ton	-8.76602
ê	-8.7661
nt	-8.76688
▁Ar	-8.77117
▁Ma	-8.77123
tion	-8.77192
▁2020	-8.77523
▁Pa	-8.78072
nie	-8.78228
▁Si	-8.7833
▁не	-8.78469
▁can	-8.78751
tor	-8.79053
ات	-8.79267
ven	-8.79399
▁з	-8.79428
▁är	-8.79552
▁http	-8.79782
▁کی	-8.7979
sen	-8.79809
▁και	-8.79921
su	-8.7993
▁în	-8.80074
ele	-8.80273
▁Bu	-8.80561
by	-8.80885
▁در	-8.80925
▁kwa	-8.80949
▁ra	-8.81015
ber	-8.81064
min	-8.81382
▁Home	-8.81614
ist	-8.81623
ll	-8.81782
▁Ka	-8.81823
ye	-8.81856
ш	-8.81878
▁Li	-8.81937
land	-8.82091
tas	-8.82208
uk	-8.82307
▁ho	-8.82372
ana	-8.82439
▁م	-8.82645
ч	-8.82791
han	-8.82817
ban	-8.83065
▁lo	-8.83243
▁2014	-8.83292
que	-8.83635
ж	-8.83672
▁Ja	-8.83875
ה	-8.8405
ę	-8.84301
ado	-8.8433
à	-8.84485
12	-8.84678
▁aan	-8.848
ý	-8.85078
▁—	-8.85183
▁her	-8.85229
ben	-8.857
ş	-8.85783
▁է	-8.85865
▁jo	-8.86056
che	-8.86187
ла	-8.86464
sh	-8.86595
pi	-8.86685
▁all	-8.8703
▁r	-8.87268
م	-8.87338
▁Ko	-8.87376
tik	-8.87433
ach	-8.87468
30	-8.87585
▁С	-8.87706
è	-8.87855
▁Da	-8.87962
ili	-8.88031
ck	-8.88039
▁kon	-8.88095
▁Pro	-8.88121
▁Co	-8.88207
ation	-8.88239
ς	-8.88371
ہ	-8.88577
▁və	-8.88599
не	-8.88692
des	-8.88732
от	-8.88755
ı	-8.88881
▁Du	-8.89046
tan	-8.89241
▁fi	-8.89644
п	-8.8969
yo	-8.89765
▁vy	-8.89936
▁ser	-8.90003
ska	-8.90117
▁100	-8.90337
▁oo	-8.90427
▁it	-8.90613
▁he	-8.90664
ти	-8.90688
net	-8.90692
asi	-8.90963
▁pas	-8.91034
▁mai	-8.91096
ran	-8.91395
mer	-8.9141
▁over	-8.91596
р	-8.91913
▁fra	-8.91935
▁online	-8.92006
ə	-8.9201
▁من	-8.9201
val	-8.92141
▁mit	-8.92297
▁amb	-8.92584
mm	-8.9262
▁2013	-8.92696
▁во	-8.92717
ant	-8.92816
▁ce	-8.92894
ab	-8.92977
】【	-8.93317
15	-8.93707
و	-8.93741
ը	-8.94048
▁Me	-8.94135
ile	-8.94409
▁Do	-8.94545
▁Za	-8.94575
org	-8.94615
▁from	-8.94736
▁50	-8.948
ez	-8.95026
bar	-8.95043
ت	-8.95178
ista	-8.95246
au	-8.95522
ks	-8.95837
cu	-8.95924
ları	-8.95954
ster	-8.95973
ere	-8.96116
▁2012	-8.96204
▁los	-8.96426
az	-8.96551
dir	-8.96575
era	-8.9665
ger	-8.96737
▁Ta	-8.96738
▁your	-8.96895
▁që	-8.97239
з	-8.97451
les	-8.97518
▁میں	-8.97709
▁Ver	-8.97747
20	-8.97804
ah	-8.97977
в	-8.98181
î	-8.98442
ndo	-8.98458
ում	-8.98486
▁dat	-8.98539
ron	-8.98558
aren	-8.98659
▁go	-8.98853
▁Ke	-8.99402
▁Pe	-8.99545
▁به	-8.99727
chi	-8.99832
ն	-8.99847
▁Mo	-8.99863
kar	-9.00069
son	-9.0024
▁Mar	-9.00325
ite	-9.00694
б	-9.00935
▁ny	-9.00943
▁ל	-9.01076
▁في	-9.01292
sti	-9.01309
cha	-9.01323
gar	-9.01495
▁Te	-9.01611
wi	-9.01707
ner	-9.01879
zu	-9.02014
dy	-9.02126
uar	-9.0216
lt	-9.02229
▁од	-9.02343
▁до	-9.02357
▁një	-9.02704
aj	-9.02748
ли	-9.0279
▁Je	-9.03332
▁Hotel	-9.03364
▁1.	-9.03386
▁Ge	-9.03509
▁au	-9.03529
▁å	-9.03676
ма	-9.04008
▁das	-9.04009
ion	-9.04013
те	-9.04101
▁von	-9.04127
▁este	-9.04685
▁ti	-9.04745
11	-9.04893
▁Con	-9.0516
ih	-9.05239
18	-9.05337
▁09	-9.05646
tal	-9.05724
▁Ba	-9.05894
▁For	-9.05929
▁ga	-9.05976
▁So	-9.05992
ים	-9.06199
ria	-9.06431
▁im	-9.06634
▁28	-9.0672
▁26	-9.06815
ic	-9.07004
▁ut	-9.07303
▁Die	-9.07437
ami	-9.07438
ç	-9.07585
ů	-9.07716
▁så	-9.07838
▁dos	-9.07873
▁ri	-9.08053
jen	-9.08298
mas	-9.08366
ки	-9.08426
tes	-9.08495
▁this	-9.086
▁Er	-9.08705
▁27	-9.08796
▁zu	-9.08857
ida	-9.09052
▁ب	-9.09471
ва	-9.09585
▁min	-9.09697
lin	-9.09866
▁non	-9.09884
ن	-9.09909
%	-9.09951
▁ju	-9.0999
▁dari	-9.10094
▁pod	-9.10141
ali	-9.10159
▁со	-9.10296
ð	-9.10393
mar	-9.10476
▁Mi	-9.10484
uri	-9.10628
α	-9.10663
▁е	-9.10684
▁Ku	-9.10755
▁Bo	-9.1084
の	-9.10956
od	-9.11083
ο	-9.11089
res	-9.111
▁have	-9.11167
▁como	-9.11326
▁sur	-9.1138
▁מ	-9.11408
▁till	-9.1144
▁от	-9.11442
▁а	-9.11557
gan	-9.11794
▁Men	-9.11857
mos	-9.11922
ية	-9.12091
▁%	-9.12124
”,	-9.12352
án	-9.12482
▁08	-9.12666
°	-9.12669
isi	-9.12972
▁post	-9.13187
Р	-9.13366
ción	-9.13467
▁ei	-9.1348
del	-9.13524
16	-9.13717
ın	-9.13794
▁Man	-9.13992
在	-9.14282
▁ap	-9.14407
▁о	-9.14621
ling	-9.1465
nin	-9.14732
14	-9.14898
",	-9.14933
人	-9.15219
nda	-9.15224
μ	-9.15227
▁·	-9.15284
fe	-9.15308
len	-9.15456
="	-9.15626
▁We	-9.15848
ap	-9.15892
▁<	-9.1592
▁tra	-9.15944
▁pour	-9.16015
▁my	-9.16148
▁ou	-9.1636
大	-9.16452
ção	-9.16471
19	-9.1649
▁mas	-9.16555
ل	-9.16573
▁Ro	-9.16575
▁Tu	-9.16642
▁το	-9.16798
▁Ki	-9.16957
ди	-9.17041
50	-9.17062
▁$	-9.17161
▁А	-9.17184
iga	-9.17202
ata	-9.17598
▁2011	-9.17634
kon	-9.17662
van	-9.17702
то	-9.17786
▁Mu	-9.17797
▁Ha	-9.17841
▁(1)	-9.17845
leri	-9.17913
▁že	-9.17941
oj	-9.17994
▁mar	-9.18237
17	-9.18308
▁29	-9.18421
一	-9.18438
sel	-9.18662
▁Det	-9.19157
▁ت	-9.19216
dar	-9.19386
cz	-9.19388
▁40	-9.19421
▁У	-9.19819
ting	-9.19988
ire	-9.2006
bet	-9.20107
▁uz	-9.20122
ите	-9.20267
lla	-9.20348
▁Bi	-9.20404
let	-9.20457
د	-9.20475
▁pi	-9.20583
up	-9.20662
ów	-9.20754
▁Su	-9.20757
▁dalam	-9.20771
tel	-9.20913
▁і	-9.20937
ici	-9.21002
▁Ho	-9.21152
nd	-9.2119
이	-9.21253
▁As	-9.21342
ь	-9.21419
▁cm	-9.21476
▁ci	-9.21503
▁will	-9.21577
▁Bar	-9.21669
00	-9.217
▁Un	-9.22154
ов	-9.22256
13	-9.22278
▁του	-9.22717
ser	-9.22924
▁not	-9.23005
▁=	-9.23109
▁vir	-9.23158
▁https	-9.23276
▁się	-9.23414
nes	-9.23662
▁Ni	-9.23754
▁Ang	-9.2378
ene	-9.23809
sz	-9.23849
ag	-9.24098
▁Il	-9.24165
▁kar	-9.24242
▁DE	-9.24319
▁San	-9.24341
▁sy	-9.24349
▁els	-9.2443
rik	-9.24475
my	-9.24521
▁01	-9.24684
ara	-9.24689
ate	-9.24697
ais	-9.24802
ен	-9.24805
ī	-9.24849
С	-9.2498
▁cho	-9.25122
lle	-9.25167
una	-9.25168
ת	-9.25243
▁wat	-9.25429
▁ein	-9.25676
*	-9.25754
con	-9.25808
ira	-9.25847
ná	-9.25895
年	-9.25903
fo	-9.25928
▁07	-9.25946
▁và	-9.25981
▁*	-9.26015
▁Car	-9.26078
▁Go	-9.26143
tt	-9.26214
▁PM	-9.26432
kt	-9.2647
kom	-9.26476
ال	-9.26817
▁ze	-9.26849
rá	-9.26872
09	-9.26914
able	-9.26991
▁care	-9.27008
ب	-9.27021
▁han	-9.27155
ila	-9.2719
ку	-9.27193
ale	-9.27333
pu	-9.27408
eg	-9.27696
lah	-9.27868
mp	-9.27993
ala	-9.28161
@	-9.28237
▁Lo	-9.2828
▁та	-9.28575
af	-9.28698
▁für	-9.28705
▁bat	-9.28756
ið	-9.28782
http	-9.28829
las	-9.28867
vu	-9.29017
▁è	-9.29021
25	-9.29105
▁Ca	-9.29157
র	-9.29181
▁pada	-9.29193
▁son	-9.29258
vis	-9.29287
▁alle	-9.29332
ě	-9.29462
▁film	-9.29479
▁tr	-9.29656
▁پر	-9.29661
▁meg	-9.29681
fer	-9.29779
uje	-9.29957
ura	-9.30092
iti	-9.30218
ati	-9.30289
▁video	-9.30354
õ	-9.30538
ان	-9.30596
▁hi	-9.30766
▁ji	-9.30884
▁کا	-9.3093
▁ist	-9.31032
▁2.	-9.31045
▁pag	-9.31062
▁2010	-9.31114
op	-9.31196
ے	-9.31227
의	-9.31373
▁са	-9.31458
ika	-9.31595
sch	-9.31697
▁est	-9.31716
for	-9.31735
ft	-9.31949
”.	-9.3203
▁Q	-9.32054
▁dit	-9.32116
▁më	-9.32371
lang	-9.32387
▁ل	-9.32482
dor	-9.32493
▁از	-9.3253
dos	-9.32619
ib	-9.32639
лар	-9.32662
▁He	-9.32689
▁ikke	-9.32744
▁?	-9.32875
ure	-9.3298
ně	-9.33198
▁als	-9.33202
pl	-9.33292
س	-9.33423
ent	-9.3348
▁из	-9.33673
tro	-9.33745
▁الم	-9.33863
▁lu	-9.33954
ac	-9.3402
▁pentru	-9.34123
ec	-9.34275
不	-9.34281
▁Pre	-9.34295
ona	-9.34527
end	-9.34839
ле	-9.34859
ão	-9.34987
tin	-9.35009
▁Jo	-9.35233
▁با	-9.35277
tre	-9.35375
das	-9.35404
br	-9.35414
▁کو	-9.3545
cia	-9.35686
ff	-9.35722
▁06	-9.35822
ė	-9.35992
▁Online	-9.36082
ide	-9.36082
▁να	-9.36094
nia	-9.36651
pan	-9.36759
▁itu	-9.36767
▁pu	-9.36772
▁News	-9.36906
을	-9.36946
▁ru	-9.36964
$	-9.36993
▁ah	-9.37015
ën	-9.37035
ity	-9.37037
ом	-9.37071
ر	-9.37141
是	-9.37167
▁Lu	-9.37383
ian	-9.37564
▁kr	-9.3759
ել	-9.37672
ný	-9.37735
sin	-9.37759
▁Wa	-9.38026
ei	-9.38035
▁31	-9.38254
有	-9.38445
san	-9.3852
▁Ri	-9.38584
ին	-9.38633
if	-9.38691
▁St	-9.38727
了	-9.38758
▁uit	-9.38875
par	-9.39088
▁mal	-9.3914
▁akan	-9.39148
▁dia	-9.39226
imi	-9.393
▁eller	-9.39302
▁ch	-9.39316
▁Ti	-9.39334
ло	-9.39369
▁cha	-9.39531
▁qui	-9.39657
ата	-9.39699
mat	-9.39722
illa	-9.39919
▁В	-9.40161
ს	-9.40215
中	-9.40278
01	-9.40463
ल	-9.40499
iem	-9.40507
▁has	-9.4058
▁ad	-9.40704
▁Fa	-9.40737
24	-9.40772
:00	-9.40777
▁kun	-9.40799
lig	-9.40866
ón	-9.40917
vin	-9.40965
▁có	-9.41073
ά	-9.4109
át	-9.41155
▁при	-9.41243
ат	-9.41257
[	-9.41347
▁02	-9.41385
▁tidak	-9.41526
न	-9.41542
ela	-9.41584
ü	-9.41644
fu	-9.41645
ش	-9.4169
▁mm	-9.41702
tek	-9.41768
▁bet	-9.41796
▁К	-9.41841
21	-9.42055
▁2009	-9.42061
ع	-9.42167
▁Dr	-9.42177
▁við	-9.42224
▁про	-9.4226
▁į	-9.42314
ske	-9.42461
▁sin	-9.4253
ende	-9.42611
də	-9.4262
▁Ber	-9.42625
▁nem	-9.42632
▁është	-9.42677
rat	-9.42796
▁mis	-9.42799
▁up	-9.42862
▁uma	-9.42873
ю	-9.42974
ului	-9.42993
xi	-9.43044
č	-9.43093
▁zijn	-9.43096
mon	-9.43145
▁με	-9.43223
vel	-9.43338
▁της	-9.43341
▁New	-9.43367
22	-9.43377
▁ў	-9.43393
मा	-9.43433
nde	-9.43446
ong	-9.4351
▁pra	-9.43873
ên	-9.44046
ό	-9.44195
▁اور	-9.44196
▁О	-9.44347
▁wy	-9.44388
▁می	-9.44389
ega	-9.44437
▁Es	-9.44642
▁kas	-9.44885
▁auto	-9.44892
▁las	-9.44949
▁ez	-9.45066
ció	-9.45118
nar	-9.45141
▁05	-9.45156
gel	-9.45225
és	-9.45226
nik	-9.45251
ola	-9.45275
▁On	-9.45278
ა	-9.4529
▁για	-9.45297
ē	-9.45361
▁την	-9.45364
yan	-9.45501
▁plan	-9.45514
▁May	-9.45542
lı	-9.4565
▁سے	-9.45704
де	-9.45751
bel	-9.45888
▁kl	-9.46089
elle	-9.46103
inn	-9.46179
▁iš	-9.46183
ны	-9.46197
ski	-9.46276
cy	-9.46294
▁ale	-9.46317
ay	-9.46374
ή	-9.46457
▁AM	-9.4676
▁vo	-9.46845
ő	-9.46896
cie	-9.47048
het	-9.47241
▁sal	-9.47331
万	-9.47492
pro	-9.47769
▁60	-9.47792
ות	-9.47799
ato	-9.47893
▁juga	-9.48032
▁của	-9.48073
har	-9.48124
▁mais	-9.4813
https	-9.48158
▁program	-9.48219
▁www	-9.48256
".	-9.48402
▁sobre	-9.4842
网	-9.48466
line	-9.4852
nak	-9.48538
▁של	-9.48593
ন	-9.48748
met	-9.48791
23	-9.48892
\	-9.48939
和	-9.49152
▁tal	-9.49548
ál	-9.49598
وں	-9.49606
▁auf	-9.49775
qui	-9.49838
ні	-9.49981
▁{	-9.50166
▁από	-9.50181
rin	-9.50204
lat	-9.50205
oni	-9.50288
wo	-9.50563
▁03	-9.50605
▁mag	-9.50624
ys	-9.50642
▁mat	-9.50707
▁tre	-9.50809
ens	-9.50814
lari	-9.50856
05	-9.51169
▁gu	-9.51305
▁Va	-9.51405
ino	-9.5145
zen	-9.51469
י	-9.51532
zione	-9.51555
tter	-9.51565
jar	-9.51636
▁iyo	-9.5178
▁ee	-9.51818
ante	-9.51835
▁della	-9.51896
40	-9.51967
▁more	-9.51995
bl	-9.52118
▁pie	-9.52154
æ	-9.5224
bra	-9.52416
▁Ru	-9.52434
▁3.	-9.52622
ep	-9.5264
▁kur	-9.52661
▁gi	-9.52717
nek	-9.52728
▁04	-9.5286
▁أ	-9.52895
▁ro	-9.53078
ert	-9.53134
ż	-9.53138
▁ا	-9.53167
▁sam	-9.53171
lər	-9.5325
age	-9.53319
▁dar	-9.53367
▁By	-9.53495
▁Ra	-9.53545
▁На	-9.53611
▁@	-9.53656
ι	-9.53742
▁tot	-9.53818
▁vil	-9.5418
din	-9.54345
ро	-9.54449
▁ook	-9.54606
▁vol	-9.54645
kat	-9.54645
ns	-9.54781
ps	-9.54852
▁Ci	-9.54976
ды	-9.55099
को	-9.55172
▁may	-9.55248
ras	-9.55296
▁Ce	-9.55365
kor	-9.55545
ación	-9.55569
hat	-9.55743
▁val	-9.55946
ò	-9.56003
▁fel	-9.56032
mes	-9.56125
shi	-9.56146
ে	-9.56211
▁sex	-9.56283
▁mer	-9.56388
▁ak	-9.56389
▁entre	-9.56568
▁bij	-9.5697
▁și	-9.57055
sko	-9.57075
tat	-9.57104
ille	-9.57118
mente	-9.57232
03	-9.57326
dal	-9.57369
ram	-9.57418
pen	-9.57434
ი	-9.57435
ия	-9.57465
ego	-9.57612
▁tan	-9.57698
kel	-9.57787
▁па	-9.57803
vol	-9.57916
ani	-9.58084
日	-9.58091
ano	-9.58166
▁→	-9.58355
▁Ve	-9.58369
▁bar	-9.5851
ко	-9.58748
र	-9.58767
ast	-9.58788
ise	-9.58789
ld	-9.58871
ک	-9.58997
ros	-9.59109
ies	-9.5915
▁sen	-9.59167
▁upp	-9.59189
η	-9.5924
▁une	-9.59278
▁dans	-9.59293
▁tai	-9.59432
ves	-9.59469
▁Kar	-9.59678
ын	-9.59769
дан	-9.59955
07	-9.59985
ې	-9.59998
ës	-9.60019
eri	-9.60021
ár	-9.60023
▁Sie	-9.6012
ական	-9.60123
tis	-9.6017
ér	-9.60189
her	-9.60224
ها	-9.60238
vad	-9.60319
▁under	-9.60856
▁All	-9.60936
ба	-9.6099
▁Т	-9.61097
red	-9.61198
▁Posted	-9.61275
上	-9.61384
use	-9.61409
tä	-9.61567
ј	-9.61635
▁uu	-9.61663
ты	-9.61667
and	-9.6168
ದ	-9.61732
▁là	-9.61774
▁Hu	-9.61838
rt	-9.62153
▁už	-9.62187
ket	-9.62259
tie	-9.6231
▁Par	-9.62364
tura	-9.62381
▁fe	-9.62391
ama	-9.62501
▁نے	-9.6253
å	-9.62629
ssa	-9.62718
27	-9.62785
lay	-9.6279
imo	-9.62796
▁ن	-9.62805
▁Ju	-9.62985
▁Her	-9.6303
","	-9.63137
▁је	-9.6318
cm	-9.63208
ν	-9.63225
▁ва	-9.63449
▁yo	-9.63451
€	-9.63578
▁bei	-9.63725
ğ	-9.63726
▁car	-9.63804
▁ten	-9.63844
ob	-9.63874
▁Б	-9.64032
60	-9.64116
gy	-9.64139
ան	-9.64188
에	-9.64216
ł	-9.64218
zer	-9.64241
▁roz	-9.64273
90	-9.64302
ру	-9.64412
tzen	-9.64415
mal	-9.64495
▁Nu	-9.64503
ito	-9.64551
▁dag	-9.64698
▁inte	-9.64711
▁ao	-9.64837
▁Az	-9.64848
cho	-9.649
sha	-9.64903
за	-9.64915
▁tur	-9.6497
▁Is	-9.64974
či	-9.65042
ex	-9.65074
▁but	-9.65075
ار	-9.65129
▁kad	-9.65162
ц	-9.65321
▁Hi	-9.6538
▁Den	-9.65444
ರ	-9.65477
▁Para	-9.65562
▁At	-9.65574
të	-9.6563
▁TV	-9.65656
▁hotel	-9.65669
▁lang	-9.65694
▁Ch	-9.65705
mb	-9.65728
ua	-9.6573
ente	-9.65808
▁nuk	-9.65903
▁את	-9.65917
▁Har	-9.65932
▁dem	-9.6603
▁}	-9.6604
08	-9.66093
▁را	-9.66095
ين	-9.66122
100	-9.66195
ip	-9.66257
▁ab	-9.66476
La	-9.66507
ble	-9.66559
ica	-9.66643
▁hogy	-9.66652
▁egy	-9.66658
php	-9.66713
gra	-9.66771
го	-9.66895
▁parte	-9.66988
ਰ	-9.67138
bat	-9.67226
▁Post	-9.67234
▁alla	-9.67235
▁seu	-9.67268
ô	-9.673
80	-9.67307
·	-9.67361
jan	-9.67393
▁200	-9.67425
sia	-9.67443
▁katika	-9.67493
▁2008	-9.67514
▁Air	-9.67561
▁jag	-9.67707
ের	-9.67712
▁It	-9.67785
ring	-9.67797
ando	-9.67837
ard	-9.67876
vat	-9.67894
uta	-9.67902
▁ada	-9.67959
ham	-9.6797
gt	-9.68008
isa	-9.68048
त	-9.68054
ish	-9.68403
set	-9.68461
mit	-9.68488
bor	-9.68516
og	-9.68579
ley	-9.68785
▁Les	-9.68807
nis	-9.68829
ча	-9.68985
sten	-9.69015
ø	-9.69056
ین	-9.6911
는	-9.6911
zy	-9.69136
▁Pu	-9.6917
bre	-9.69179
ties	-9.69185
▁ба	-9.69291
▁anda	-9.69293
▁Д	-9.69299
▁pen	-9.69322
▁ו	-9.69509
▁agus	-9.69536
ور	-9.69686
▁Dan	-9.69821
mak	-9.69871
▁vai	-9.69943
▁Kan	-9.70056
қ	-9.70079
▁است	-9.70129
▁եւ	-9.70147
▁Kon	-9.70273
са	-9.70349
aga	-9.7036
iki	-9.70385
ef	-9.70385
си	-9.70471
ам	-9.70533
bal	-9.70585
ori	-9.70712
–	-9.70775
cc	-9.70798
28	-9.70807
ри	-9.7094
ero	-9.70965
▁şi	-9.71015
ça	-9.71045
tos	-9.71069
iya	-9.71101
car	-9.71136
iko	-9.71154
▁come	-9.71199
▁internet	-9.71268
▁80	-9.71312
▁için	-9.71326
▁kita	-9.71397
▁Ter	-9.71432
▁our	-9.71513
ર	-9.71547
02	-9.71575
nos	-9.71606
usi	-9.71623
▁Pen	-9.71681
hy	-9.71705
▁zo	-9.71709
ix	-9.71725
ля	-9.71943
▁Ya	-9.71996
▁air	-9.72056
▁ש	-9.72122
asa	-9.72143
los	-9.72149
▁web	-9.72166
04	-9.72236
ła	-9.72301
är	-9.7232
▁ska	-9.72355
ով	-9.72415
uz	-9.72459
▁með	-9.72563
etan	-9.72566
`	-9.72596
市	-9.72623
▁ہے	-9.72711
ил	-9.72732
hr	-9.72765
ра	-9.72815
ator	-9.7289
▁500	-9.72952
inen	-9.72956
06	-9.72958
▁او	-9.72999
▁pot	-9.73036
نا	-9.73114
té	-9.7319
▁په	-9.73228
dra	-9.7324
29	-9.73244
新	-9.73287
99	-9.73379
▁This	-9.73412
ले	-9.73477
▁Gi	-9.7354
▁hal	-9.73557
А	-9.73607
In	-9.7362
क	-9.73671
▁jeg	-9.73761
▁û	-9.73827
dd	-9.73889
ové	-9.73895
ret	-9.73935
ice	-9.73939
ль	-9.73976
html	-9.73995
▁Ab	-9.74005
▁sau	-9.74029
US	-9.74078
▁inter	-9.74101
leg	-9.74107
▁aj	-9.74123
▁И	-9.74173
kal	-9.74179
nih	-9.74195
wan	-9.74223
▁ali	-9.74285
▁kaj	-9.74285
jpg	-9.74294
▁qu	-9.74315
▁chi	-9.74321
art	-9.74347
▁ben	-9.74376
▁kuwa	-9.74397
▁sta	-9.74417
▁Val	-9.74504
月	-9.74599
ну	-9.74624
the	-9.74646
atu	-9.74711
yn	-9.74957
▁ako	-9.74964
▁Ga	-9.75086
▁के	-9.75098
▁door	-9.75233
ів	-9.75305
▁các	-9.75324
ون	-9.75336
▁să	-9.75443
);	-9.75486
nen	-9.75549
ز	-9.75588
▁sig	-9.75627
ў	-9.75639
ના	-9.75702
น	-9.75706
rit	-9.75751
▁bil	-9.7583
idade	-9.75854
▁pat	-9.7589
ր	-9.75915
▁đ	-9.75955
가	-9.76013
▁г	-9.76103
ť	-9.76129
▁Der	-9.76183
ем	-9.76213
▁ex	-9.76226
lum	-9.76326
kov	-9.7634
num	-9.76414
▁kom	-9.76415
▁ayaa	-9.76431
one	-9.76489
▁Am	-9.76495
iv	-9.76524
▁bisa	-9.76533
vy	-9.76573
▁Gu	-9.76634
wer	-9.76635
▁nos	-9.76676
vet	-9.76801
▁ett	-9.76805
▁kor	-9.76823
ül	-9.76891
ви	-9.76892
ის	-9.76895
▁Or	-9.76995
▁365	-9.77043
▁Pi	-9.77122
▁jest	-9.77124
▁Š	-9.77143
▁niet	-9.77144
eb	-9.77167
▁Fi	-9.77216
▁და	-9.77282
war	-9.77285
gal	-9.7732
▁35	-9.7735
45	-9.77389
▁pm	-9.77468
rd	-9.77498
に	-9.77513
ub	-9.77523
ier	-9.77574
ct	-9.77597
▁Video	-9.77619
mis	-9.77619
tak	-9.77657
▁més	-9.77675
ме	-9.77695
▁oli	-9.77757
70	-9.77779
data	-9.77786
ল	-9.77881
▁skal	-9.77895
iza	-9.77897
bil	-9.7792
dig	-9.77934
▁bra	-9.77942
ich	-9.77955
ová	-9.77958
▁к	-9.78172
▁Ak	-9.78179
bb	-9.78197
▁time	-9.78213
ore	-9.78245
▁pred	-9.78245
26	-9.78342
ం	-9.78372
▁esta	-9.78386
▁Por	-9.78403
ces	-9.78483
▁plus	-9.78504
▁(1	-9.78523
▁tar	-9.78651
kas	-9.78826
Re	-9.78831
ий	-9.78833
rà	-9.78899
▁على	-9.78949
во	-9.78955
▁4.	-9.78957
mine	-9.78969
▁sp	-9.78979
▁32	-9.78981
ć	-9.79047
index	-9.79066
Г	-9.79067
ке	-9.79131
▁Ben	-9.79152
ет	-9.79157
▁που	-9.79182
▁Com	-9.79204
К	-9.79213
nej	-9.7926
ance	-9.79291
եր	-9.79321
ं	-9.79328
0%	-9.79395
мо	-9.79419
jem	-9.79567
▁j	-9.79609
Ma	-9.79676
▁По	-9.79679
ար	-9.7968
▁90	-9.79767
▁vor	-9.79822
nud	-9.79916
ev	-9.79937
dik	-9.79959
▁اس	-9.79991
dag	-9.80016
ime	-9.80035
▁You	-9.80074
aan	-9.80093
lor	-9.8013
kur	-9.80136
▁adalah	-9.80215
чи	-9.80257
▁hu	-9.80264
ى	-9.8028
▁(2)	-9.80379
▁bez	-9.80468
▁Г	-9.80637
▁out	-9.80642
▁pun	-9.80686
ก	-9.80718
▁kal	-9.80759
▁atau	-9.80849
cer	-9.80886
ف	-9.80951
via	-9.80985
bit	-9.81057
▁tri	-9.81132
▁ved	-9.81159
ми	-9.81188
kk	-9.81219
ق	-9.81312
gang	-9.81429
pt	-9.81466
rar	-9.8147
berg	-9.8155
title	-9.81631
ส	-9.81638
▁dal	-9.81648
pas	-9.81659
▁fyrir	-9.81684
itu	-9.81703
▁cap	-9.81754
une	-9.81771
▁این	-9.82057
▁us	-9.82189
▁Vo	-9.82215
▁My	-9.82238
▁Can	-9.82365
kun	-9.82468
ст	-9.82482
▁far	-9.82569
uh	-9.82611
ví	-9.82675
▁70	-9.8271
tta	-9.82744
ados	-9.82745
▁Top	-9.82749
ය	-9.82812
▁sub	-9.82865
мен	-9.8288
ו	-9.82935
ör	-9.83045
lé	-9.83057
dom	-9.8308
▁Anda	-9.83109
▁just	-9.83158
ted	-9.83193
出	-9.8323
▁được	-9.83244
▁kat	-9.83276
▁Jan	-9.83329
31	-9.83332
▁П	-9.83333
dia	-9.83417
▁EUR	-9.83418
ф	-9.8346
ți	-9.83557
▁aus	-9.83564
▁não	-9.83571
▁Black	-9.83716
▁ich	-9.83812
▁های	-9.83815
500	-9.8383
▁free	-9.83864
rea	-9.83864
stra	-9.83869
way	-9.83878
▁super	-9.83907
én	-9.83954
▁jak	-9.83982
▁bal	-9.84178
ija	-9.84215
▁sol	-9.84339
▁על	-9.84413
issa	-9.84415
tele	-9.84608
▁forma	-9.84635
▁beste	-9.84697
▁about	-9.84702
36	-9.84741
ação	-9.84876
▁За	-9.84906
lak	-9.85078
ска	-9.85158
rah	-9.85193
म	-9.85225
▁کہ	-9.85253
ם	-9.85269
dur	-9.85319
ade	-9.85353
ās	-9.85444
35	-9.85491
▁для	-9.85517
▁ré	-9.85592
hen	-9.85616
vor	-9.85664
ır	-9.85741
▁top	-9.85757
▁Op	-9.85765
▁dapat	-9.85768
ši	-9.85783
▁Auto	-9.85867
sal	-9.85873
лі	-9.85874
▁Wi	-9.85879
▁Free	-9.85911
far	-9.8599
adi	-9.86002
iva	-9.86037
enie	-9.86064
▁fer	-9.86074
ło	-9.86107
ган	-9.8613
ня	-9.86146
خ	-9.86154
П	-9.86181
lim	-9.86229
ido	-9.86231
ар	-9.86232
▁maar	-9.8627
32	-9.86328
ре	-9.86368
▁Art	-9.86385
▁Foto	-9.86427
av	-9.86543
▁new	-9.86546
▁best	-9.8655
▁45	-9.86597
pp	-9.86814
▁2007	-9.8687
▁së	-9.86944
ски	-9.86995
ক	-9.8703
▁Next	-9.87063
cal	-9.87072
▁!	-9.87143
▁ac	-9.87222
▁000	-9.87224
▁pan	-9.87263
тер	-9.87265
▁tek	-9.87324
ει	-9.87335
▁су	-9.87467
hl	-9.87552
▁آ	-9.87563
ell	-9.87575
ర్	-9.87654
▁data	-9.87664
▁euro	-9.878
ør	-9.8789
▁más	-9.87928
ži	-9.8795
▁ile	-9.87996
pur	-9.88017
▁th	-9.88065
▁soo	-9.88152
′	-9.88272
▁test	-9.88277
qu	-9.88288
▁Tra	-9.88316
ris	-9.8832
zar	-9.88346
of	-9.88455
ം	-9.8848
▁Mas	-9.88604
▁foto	-9.88604
▁War	-9.88631
че	-9.8866
▁ná	-9.88666
▁א	-9.88678
▁blog	-9.88764
can	-9.89041
tet	-9.89098
▁که	-9.8914
▁ker	-9.89152
tte	-9.89255
▁М	-9.89305
ige	-9.89308
all	-9.89327
De	-9.89362
Б	-9.89416
bol	-9.89444
▁aku	-9.89476
ima	-9.89513
▁tem	-9.89519
int	-9.89523
000	-9.8972
▁Cu	-9.89812
▁Facebook	-9.89854
ન	-9.8988
▁mil	-9.89904
ova	-9.89911
▁ik	-9.89939
का	-9.89946
mor	-9.89996
200	-9.90123
ava	-9.90162
get	-9.90238
log	-9.90271
post	-9.90286
▁Pra	-9.90325
365	-9.90562
स	-9.9058
를	-9.90669
▁raz	-9.90691
ше	-9.90701
ү	-9.90707
고	-9.90727
会	-9.90739
ан	-9.90783
▁lan	-9.90818
기	-9.90821
리	-9.90825
ند	-9.90833
′′	-9.90906
ico	-9.90937
家	-9.91015
▁má	-9.91016
iste	-9.91027
▁kap	-9.91045
▁ان	-9.91076
ʻ	-9.91133
lon	-9.91168
માં	-9.91196
ər	-9.91351
ora	-9.91373
tzeko	-9.91468
▁ud	-9.91494
▁مع	-9.9151
imin	-9.91524
ний	-9.91546
▁Van	-9.91553
ym	-9.91598
▁ي	-9.91605
▁Red	-9.91645
ding	-9.91746
▁Th	-9.91819
▁net	-9.91879
ك	-9.91965
▁στο	-9.91986
cat	-9.92124
Se	-9.9213
▁ug	-9.92171
form	-9.92181
lama	-9.92193
king	-9.922
gr	-9.92204
ement	-9.92212
ře	-9.92214
-19	-9.92221
än	-9.92223
▁olan	-9.92242
▁Bal	-9.9227
▁Chi	-9.92325
tir	-9.92414
▁pos	-9.92424
▁cre	-9.92425
app	-9.92466
▁saat	-9.92538
isti	-9.92595
rak	-9.92596
ту	-9.92641
sp	-9.92672
tr	-9.92676
Д	-9.92723
▁dé	-9.92723
▁dira	-9.92844
mba	-9.92845
▁Het	-9.9286
им	-9.92902
ول	-9.92939
до	-9.92974
▁trong	-9.92989
nte	-9.93065
eren	-9.93077
cher	-9.93102
▁کر	-9.93141
ás	-9.93186
lä	-9.93196
ม	-9.93303
pun	-9.9345
▁one	-9.93458
İ	-9.93475
은	-9.93558
oi	-9.93565
▁Fe	-9.93609
Le	-9.93641
▁Sam	-9.93649
ksi	-9.93655
യ	-9.93767
дар	-9.93775
▁Ad	-9.93866
▁س	-9.93898
▁gan	-9.93922
34	-9.93925
地	-9.93978
▁kami	-9.94019
▁với	-9.94022
ette	-9.94025
が	-9.94099
Al	-9.94136
▁unha	-9.9421
▁City	-9.94223
ની	-9.94228
ер	-9.9423
▁00	-9.94353
▁Tr	-9.94402
led	-9.94448
▁Download	-9.94472
▁σε	-9.94477
小	-9.94518
ги	-9.94614
ella	-9.94677
▁ilə	-9.94702
▁år	-9.94707
高	-9.94713
▁Park	-9.94779
uma	-9.94782
اء	-9.94809
Т	-9.94832
sion	-9.94881
ң	-9.94893
ador	-9.94922
tri	-9.95097
▁part	-9.95098
로	-9.95165
AL	-9.95166
pat	-9.95186
ге	-9.95268
▁hand	-9.95311
▁get	-9.9534
▁м	-9.95346
લ	-9.95386
ъ	-9.95411
8%	-9.95519
▁Đ	-9.95618
cs	-9.9563
を	-9.95636
sie	-9.9565
▁mes	-9.95654
为	-9.95728
▁Cor	-9.95757
▁if	-9.95769
vas	-9.9579
ट	-9.95836
▁Gar	-9.95867
dien	-9.96036
지	-9.96042
ու	-9.96078
ín	-9.96083
lam	-9.96085
▁via	-9.96153
▁ag	-9.96153
ที่	-9.9625
▁social	-9.96261
ların	-9.96274
▁gar	-9.96274
▁Super	-9.96284
▁Um	-9.96325
▁site	-9.96345
ró	-9.9635
▁mot	-9.96372
tive	-9.96399
anda	-9.96408
▁help	-9.96425
▁kui	-9.96519
▁hy	-9.96537
▁see	-9.96563
▁hor	-9.96582
stu	-9.96593
pre	-9.96616
В	-9.96664
ร	-9.9667
▁5.	-9.96684
▁Σ	-9.96736
qa	-9.96741
▁yn	-9.96797
▁også	-9.96845
▁his	-9.96874
ג	-9.97012
▁Mat	-9.97065
ých	-9.97065
ence	-9.97071
▁oleh	-9.97132
lə	-9.97143
dır	-9.97146
cht	-9.97221
מ	-9.97262
▁છે	-9.97276
▁Sport	-9.97296
▁telefon	-9.97302
▁:)	-9.97315
кі	-9.97331
▁their	-9.97345
sam	-9.97367
nut	-9.97376
ح	-9.97396
би	-9.97416
▁Ob	-9.97454
sson	-9.97492
ци	-9.9764
ության	-9.97643
cio	-9.97685
tori	-9.97691
▁naj	-9.97738
▁Previous	-9.97942
ux	-9.9796
▁[...]	-9.97974
sto	-9.97982
▁Os	-9.98021
ר	-9.98056
lap	-9.98102
ակ	-9.98125
▁Á	-9.98365
▁also	-9.98367
▁gratis	-9.98397
▁вы	-9.98404
▁China	-9.98408
dem	-9.9842
▁And	-9.98456
▁36	-9.98518
ست	-9.98541
▁Pri	-9.98556
33	-9.98591
▁Od	-9.98647
95	-9.98652
eko	-9.98802
▁بر	-9.98951
day	-9.99048
eta	-9.99207
lit	-9.99207
▁ви	-9.99211
▁Sta	-9.99228
зи	-9.99233
75	-9.99298
▁avec	-9.99433
aha	-9.99454
▁Pas	-9.99479
raz	-9.99522
▁го	-9.99559
tus	-9.996
▁то	-9.99619
▁Mon	-9.99621
▁ai	-9.99654
ә	-9.99724
ś	-9.99757
▁η	-9.9978
▁ع	-9.99824
gas	-9.99827
pon	-9.99841
▁article	-9.99846
▁nan	-9.99972
▁sich	-9.99974
oli	-9.99998
он	-10
▁Google	-10.0003
vil	-10.0005
į	-10.0006
ша	-10.0008
▁fram	-10.0014
ман	-10.0019
▁τα	-10.002
▁об	-10.002
▁nog	-10.0029
▁qo	-10.0035
се	-10.0035
ম	-10.0041
▁saya	-10.0043
▁izan	-10.0048
ins	-10.0049
ล	-10.0052
도	-10.0052
!!	-10.0056
â	-10.0057
ம்	-10.0063
ary	-10.0064
到	-10.0069
lie	-10.007
▁April	-10.007
▁zi	-10.0074
ét	-10.0081
së	-10.0087
û	-10.0091
ía	-10.0091
▁sk	-10.0092
tz	-10.0093
▁وال	-10.0093
▁II	-10.0093
don	-10.0098
asta	-10.0103
ን	-10.0104
oz	-10.0106
生	-10.0116
iden	-10.0117
це	-10.0118
awa	-10.0121
.”	-10.0122
}	-10.0124
▁ste	-10.0127
ийн	-10.0128
inin	-10.013
▁nicht	-10.0141
ал	-10.0141
▁opp	-10.0142
▁või	-10.0146
në	-10.0152
اس	-10.0155
ٹ	-10.016
mbo	-10.016
til	-10.0162
▁vous	-10.0163
ល	-10.0167
lek	-10.017
ré	-10.0172
ប	-10.0181
lis	-10.0182
▁tam	-10.0183
48	-10.0186
wy	-10.0187
-1	-10.0192
▁Em	-10.0192
ló	-10.0193
OS	-10.0195
ID	-10.0198
):	-10.0204
▁foi	-10.0204
5%	-10.0209
▁st	-10.022
umu	-10.0221
ες	-10.0237
mel	-10.0244
▁lebih	-10.0245
▁yer	-10.0246
ndi	-10.0262
ete	-10.0262
▁model	-10.0264
▁download	-10.0274
М	-10.0275
▁any	-10.028
ક	-10.0283
▁like	-10.0286
uan	-10.0291
▁昨天	-10.0295
eng	-10.0297
▁ف	-10.0298
▁home	-10.0301
▁Ur	-10.0304
▁không	-10.0307
▁dels	-10.0309
42	-10.031
▁Var	-10.0314
▁că	-10.0319
▁dis	-10.0319
મ	-10.0321
ค	-10.0336
ට	-10.0339
eur	-10.0341
ਲ	-10.0343
▁war	-10.0354
vid	-10.0354
▁mod	-10.0356
dat	-10.0357
▁eine	-10.0361
스	-10.0366
ને	-10.0366
ved	-10.0368
yi	-10.0369
iri	-10.0369
ב	-10.0369
pin	-10.0374
ām	-10.0376
اد	-10.0376
jas	-10.038
ö	-10.0381
tic	-10.0381
े	-10.0382
ple	-10.0386
ত	-10.0386
ಯ	-10.0387
gg	-10.0397
▁pr	-10.0399
ම	-10.0405
分	-10.0415
mek	-10.0429
39	-10.043
ија	-10.0432
▁Bra	-10.0451
chen	-10.0457
angan	-10.0468
▁Tags	-10.0472
▁де	-10.0473
▁LED	-10.0475
▁Ph	-10.0477
▁jou	-10.0477
sse	-10.0478
eli	-10.0487
▁tik	-10.0488
บ	-10.0491
gin	-10.0494
下	-10.0495
mann	-10.0499
▁final	-10.05
▁anti	-10.05
uni	-10.0501
sim	-10.051
ید	-10.0512
▁،	-10.0514
子	-10.0516
ա	-10.0517
ien	-10.0518
enda	-10.0521
▁π	-10.0531
▁Hal	-10.0536
ова	-10.0538
▁baş	-10.054
▁maka	-10.0544
ür	-10.0546
ор	-10.056
▁está	-10.0566
ings	-10.057
▁col	-10.0579
▁real	-10.0579
ാ	-10.0582
lega	-10.0587
▁раз	-10.0588
▁ere	-10.059
ин	-10.0596
iu	-10.061
ве	-10.0616
▁נ	-10.0627
▁అ	-10.0629
tul	-10.0631
։	-10.0632
▁san	-10.0635
▁।	-10.0637
gun	-10.0639
▁Е	-10.064
▁vel	-10.0641
لا	-10.0646
pad	-10.0647
ض	-10.0649
ן	-10.066
jet	-10.066
nych	-10.0666
nica	-10.0668
ër	-10.0672
тар	-10.0672
▁ο	-10.0675
enia	-10.0676
θ	-10.068
▁ح	-10.0686
▁ת	-10.0694
,"	-10.0696
▁пре	-10.0697
▁են	-10.0701
rë	-10.0702
▁zen	-10.0704
▁red	-10.0709
▁wie	-10.0712
tti	-10.0716
ների	-10.0717
nan	-10.0719
ρ	-10.0722
▁300	-10.0725
▁Π	-10.0726
ե	-10.0751
ป	-10.0752
fin	-10.0752
ด	-10.0752
55	-10.0753
▁Sal	-10.0758
다	-10.0764
▁dig	-10.0766
amente	-10.0766
▁İ	-10.0767
▁Av	-10.0775
ahan	-10.0778
▁33	-10.0778
rk	-10.0785
λ	-10.0792
▁orang	-10.0792
eve	-10.0793
ray	-10.0794
▁ama	-10.0798
▁edhe	-10.0799
▁pak	-10.0806
ව	-10.0816
▁›	-10.0817
▁bin	-10.0817
lí	-10.0825
▁Ze	-10.0828
PS	-10.0828
用	-10.0829
▁>>	-10.0836
jer	-10.0837
že	-10.0843
▁Kor	-10.0844
▁tudi	-10.0845
▁ole	-10.0847
▁hat	-10.0857
▁problem	-10.0861
▁Tri	-10.0871
▁המ	-10.0885
ల	-10.0886
▁set	-10.0893
anta	-10.0894
ర	-10.0897
ň	-10.0898
det	-10.0898
▁meer	-10.0902
star	-10.0903
多	-10.0918
▁Bir	-10.092
gre	-10.0924
rang	-10.0925
▁satu	-10.0928
zin	-10.0931
▁Web	-10.0931
ω	-10.0933
▁waar	-10.0939
▁sú	-10.094
我	-10.0941
▁што	-10.0944
MA	-10.0945
mail	-10.0947
ml	-10.095
▁pasi	-10.0953
ii	-10.0955
▁š	-10.0955
ust	-10.0964
า	-10.0971
ува	-10.0973
▁kes	-10.0975
nder	-10.0978
este	-10.098
ges	-10.098
-3	-10.0982
▁naar	-10.0984
▁oma	-10.0985
cí	-10.0986
▁Α	-10.0988
ج	-10.099
yl	-10.0993
mir	-10.0997
ام	-10.0998
▁لل	-10.1003
nem	-10.1006
kla	-10.1012
县	-10.1013
mus	-10.1019
lag	-10.1022
▁Star	-10.1027
▁nav	-10.1027
υ	-10.1041
ug	-10.1044
ー	-10.1049
▁sz	-10.105
▁ó	-10.1051
▁kepada	-10.1053
rio	-10.1058
▁US	-10.107
":"	-10.1078
dro	-10.108
▁Tak	-10.1082
▁gal	-10.1083
ок	-10.1084
ी	-10.1087
▁she	-10.1088
ما	-10.1093
xe	-10.1094
▁från	-10.1097
տ	-10.11
▁ty	-10.1104
▁motor	-10.1107
▁nel	-10.1109
▁6.	-10.1112
▁mereka	-10.1114
ering	-10.1115
▁под	-10.1115
pie	-10.1116
▁д	-10.1116
▁É	-10.1119
:15	-10.1121
ё	-10.1129
▁cor	-10.1129
▁Ein	-10.113
▁få	-10.1131
ស	-10.1133
▁Iz	-10.1138
pis	-10.1139
▁form	-10.1139
▁tro	-10.1144
их	-10.1147
э	-10.115
▁LA	-10.116
▁auch	-10.1161
▁38	-10.1171
▁xa	-10.1171
ných	-10.1178
tum	-10.118
ych	-10.1184
▁hier	-10.1185
fr	-10.1187
esti	-10.119
▁had	-10.1194
oldid	-10.1196
adh	-10.1197
ləri	-10.1198
ün	-10.1199
zel	-10.1202
▁nuo	-10.1202
аў	-10.1203
km	-10.1205
inu	-10.1205
▁Ş	-10.1206
stan	-10.1206
kke	-10.1208
IT	-10.121
ര	-10.1213
wikipedia	-10.1216
dis	-10.1217
300	-10.122
▁sport	-10.1221
▁Et	-10.1222
pr	-10.1226
▁prze	-10.1228
aya	-10.123
37	-10.123
▁Film	-10.1231
天	-10.1235
▁mobil	-10.1235
▁ش	-10.1236
▁Ш	-10.1238
nın	-10.124
med	-10.1243
ean	-10.1245
한	-10.1248
ী	-10.1248
uka	-10.1252
▁kot	-10.1252
లు	-10.1253
▁Ji	-10.1254
▁masa	-10.1256
▁ма	-10.1257
▁word	-10.1265
▁Tar	-10.1268
▁ye	-10.1269
yon	-10.1276
ս	-10.1279
lem	-10.1281
ย	-10.1281
▁NA	-10.1293
▁х	-10.1293
▁Of	-10.1296
ació	-10.1296
ms	-10.1297
rí	-10.1309
▁design	-10.1312
▁kā	-10.1315
če	-10.1319
rum	-10.1326
hin	-10.1327
▁ekki	-10.1327
▁կ	-10.1334
ët	-10.1336
】	-10.1336
▁Mal	-10.1337
mento	-10.134
՝	-10.1348
▁which	-10.1353
好	-10.1355
న	-10.1357
nas	-10.1358
ना	-10.1359
▁yra	-10.1367
kus	-10.1369
bin	-10.1371
▁sind	-10.1374
hal	-10.1378
▁Sun	-10.1378
▁start	-10.1383
▁fin	-10.1385
link	-10.1388
원	-10.1389
ל	-10.1391
time	-10.1391
ನ	-10.1392
ур	-10.1401
bas	-10.1403
ese	-10.1405
ula	-10.1406
▁HD	-10.1407
tom	-10.141
oma	-10.1416
TM	-10.1423
▁48	-10.1424
bri	-10.1429
tina	-10.1429
▁dy	-10.1429
▁gran	-10.1431
▁bak	-10.1431
tay	-10.1435
▁cara	-10.1436
β	-10.1437
lv	-10.144
É	-10.1448
▁Tur	-10.1449
න	-10.145
ου	-10.1455
行	-10.1461
иш	-10.1463
pil	-10.1464
▁Ban	-10.1464
lá	-10.1466
▁//	-10.1467
ей	-10.1471
44	-10.1474
▁total	-10.1476
א	-10.1482
▁Med	-10.1483
ST	-10.1484
och	-10.1485
О	-10.149
山	-10.1491
ï	-10.1494
▁Euro	-10.1499
dı	-10.1502
ש	-10.1505
isha	-10.1506
▁projekt	-10.1507
ах	-10.1508
▁sé	-10.1508
▁vý	-10.1511
ד	-10.1512
vá	-10.1513
金	-10.1517
▁Min	-10.1519
▁34	-10.1523
mme	-10.1524
▁Mag	-10.1524
Ð	-10.1525
▁150	-10.1528
▁nach	-10.1532
▁ما	-10.1535
ン	-10.1537
по	-10.1549
▁որ	-10.155
še	-10.1557
erne	-10.1564
ді	-10.1569
ો	-10.1569
▁мо	-10.1571
▁sono	-10.1574
imit	-10.1578
ος	-10.1583
apa	-10.1585
▁Mai	-10.1587
▁sama	-10.159
port	-10.159
ák	-10.1592
▁seg	-10.1598
xa	-10.1601
▁hem	-10.1602
▁ID	-10.1605
ey	-10.1609
И	-10.1611
ού	-10.1612
▁era	-10.1613
ES	-10.1617
ture	-10.1618
ì	-10.1619
▁З	-10.162
ών	-10.1621
eti	-10.1622
▁ú	-10.1624
gle	-10.1624
nä	-10.163
▁Cal	-10.1631
▁NY	-10.1633
▁bis	-10.1637
ית	-10.1638
ismo	-10.1639
▁przy	-10.164
ት	-10.1642
▁10.	-10.1645
▁Sin	-10.1645
ön	-10.1649
nta	-10.1651
ता	-10.1654
Ka	-10.1657
▁bor	-10.166
▁Om	-10.1661
▁sou	-10.1662
SS	-10.1664
▁Mac	-10.167
การ	-10.1671
▁Indonesia	-10.1673
▁Dar	-10.1674
ania	-10.1674
Me	-10.1681
2,	-10.1682
eu	-10.1683
▁Ser	-10.1684
▁Mer	-10.1686
ən	-10.1691
▁Ek	-10.1692
▁1,	-10.1692
▁ме	-10.1693
ές	-10.1695
ға	-10.1695
▁một	-10.1697
ון	-10.1698
rie	-10.17
zio	-10.17
要	-10.1701
▁public	-10.1702
put	-10.1707
▁work	-10.1707
▁അ	-10.1708
▁আ	-10.1708
▁they	-10.1711
ande	-10.1711
amento	-10.1717
88	-10.1719
▁ban	-10.1723
▁आ	-10.1723
tam	-10.1727
▁Inter	-10.1727
▁આ	-10.1731
por	-10.1737
aq	-10.1748
The	-10.1748
▁75	-10.1749
tten	-10.1751
idad	-10.1758
κ	-10.176
ਨ	-10.1762
nosti	-10.1764
Ha	-10.1764
nom	-10.1765
41	-10.1766
▁kay	-10.1769
া	-10.177
▁media	-10.1771
SA	-10.1771
ία	-10.1773
ник	-10.1779
▁में	-10.1781
▁local	-10.1788
bon	-10.179
:10	-10.1799
ර	-10.1802
▁Ny	-10.1804
ја	-10.1806
igi	-10.1811
▁ons	-10.1812
ena	-10.1812
amp	-10.1815
▁לה	-10.1819
yd	-10.1822
▁των	-10.1822
য়	-10.1822
dr	-10.1825
ရ	-10.1827
udi	-10.1827
hon	-10.184
▁pla	-10.1842
ká	-10.1844
тор	-10.1849
ace	-10.185
▁dute	-10.1854
يا	-10.1858
gue	-10.1859
▁அ	-10.187
▁hun	-10.1875
▁Max	-10.1885
▁Af	-10.1892
inta	-10.1895
nic	-10.1895
▁zá	-10.1898
▁Kal	-10.1899
▁fil	-10.1902
▁Zu	-10.1904
pet	-10.1905
ute	-10.1906
▁tersebut	-10.1906
ša	-10.1908
ಲ	-10.1914
▁Sh	-10.1914
ụ	-10.1916
:45	-10.1918
▁Nor	-10.1927
▁Х	-10.1927
▁37	-10.1932
▁Ex	-10.1938
gon	-10.1939
ių	-10.1941
tag	-10.1942
▁خ	-10.1945
amo	-10.1946
▁ham	-10.1949
ân	-10.1949
일	-10.1952
▁arī	-10.1954
ು	-10.1958
ක	-10.1961
out	-10.1964
%2	-10.1967
ée	-10.1972
▁pol	-10.1974
න්	-10.1976
▁hari	-10.1979
▁Pan	-10.198
▁Han	-10.1981
ط	-10.1981
▁nou	-10.1983
stre	-10.1993
որ	-10.1994
▁moment	-10.1998
▁kama	-10.2004
ท	-10.2004
▁Bel	-10.2005
ės	-10.2013
dio	-10.2015
azione	-10.202
low	-10.202
over	-10.2022
dí	-10.2024
olo	-10.2027
ай	-10.2027
ost	-10.203
му	-10.2031
▁42	-10.2037
ның	-10.2042
sche	-10.2044
vr	-10.2045
ला	-10.2047
▁στην	-10.2048
▁üçün	-10.2048
▁app	-10.2053
▁don	-10.2058
▁że	-10.2059
▁Mark	-10.206
本	-10.2075
▁November	-10.2077
tá	-10.2078
▁iki	-10.2078
ota	-10.2078
▁الأ	-10.2079
ί	-10.2081
rad	-10.2081
স	-10.2082
uda	-10.2083
▁art	-10.2083
lom	-10.2084
ры	-10.2085
▁tas	-10.2088
else	-10.2088
と	-10.209
лу	-10.2092
usta	-10.2096
▁Internet	-10.2099
ligt	-10.21
ht	-10.2101
сы	-10.2104
官网	-10.2106
GB	-10.2107
lash	-10.2108
▁~	-10.2115
IN	-10.2116
und	-10.212
▁nas	-10.212
®	-10.2125
水	-10.2126
pak	-10.2129
ната	-10.213
▁SA	-10.2135
▁Real	-10.2142
▁še	-10.2143
▁Fu	-10.2145
は	-10.2149
400	-10.215
▁bur	-10.2151
ive	-10.2152
▁Blog	-10.2157
▁inn	-10.2161
ια	-10.2161
▁nag	-10.2161
▁ق	-10.2162
▁الت	-10.2165
い	-10.2165
▁ago	-10.2166
ţi	-10.2166
▁ад	-10.2168
osti	-10.2171
ներ	-10.2172
▁onder	-10.2172
▁last	-10.2174
▁پ	-10.2175
uf	-10.2182
▁Tag	-10.2188
72	-10.2192
τ	-10.2194
ít	-10.2194
▁più	-10.2195
▁Son	-10.2196
▁Mor	-10.2199
▁Cha	-10.2201
pot	-10.2202
对	-10.2205
pel	-10.2208
gur	-10.2217
ु	-10.2218
定	-10.2221
合	-10.2227
ह	-10.2228
▁ind	-10.2228
▁də	-10.2228
iť	-10.2229
ją	-10.223
0.000	-10.2232
lus	-10.2237
▁alt	-10.2243
▁Des	-10.2243
IL	-10.2243
uli	-10.2246
ду	-10.2249
▁frá	-10.2251
▁2006	-10.2251
▁dr	-10.2254
rez	-10.2255
mmer	-10.2259
ọ	-10.226
aria	-10.2261
▁Tre	-10.2273
▁contra	-10.2274
ù	-10.2277
▁Fo	-10.2278
▁ها	-10.2279
гу	-10.2283
▁who	-10.2283
:30	-10.2289
۔	-10.2296
사	-10.2298
jos	-10.2302
▁meng	-10.2303
pal	-10.2303
▁list	-10.2304
▁Im	-10.2306
▁res	-10.2312
▁út	-10.2316
ssen	-10.2317
47	-10.2318
▁při	-10.2319
elt	-10.232
▁му	-10.2321
ო	-10.2329
▁pou	-10.233
news	-10.2332
▁Pod	-10.2335
▁44	-10.2335
▁tin	-10.2337
TV	-10.2339
▁Pol	-10.2345
ingen	-10.2348
ટ	-10.2349
ол	-10.2351
Be	-10.2351
nost	-10.2354
▁dell	-10.2355
ว	-10.2369
▁land	-10.237
▁kung	-10.2373
▁reg	-10.2377
65	-10.2378
प	-10.2378
▁Far	-10.2381
▁người	-10.2382
ого	-10.2383
alla	-10.2384
▁bank	-10.2384
▁Ger	-10.2389
▁Sha	-10.239
ike	-10.239
▁person	-10.2395
▁Ol	-10.2398
ità	-10.24
list	-10.2408
:20	-10.2412
Ö	-10.2416
시	-10.2426
ří	-10.2426
▁casa	-10.2434
▁star	-10.2434
oko	-10.2434
▁dla	-10.2434
机	-10.2436
▁©	-10.2436
38	-10.2439
▁fan	-10.2441
▁sul	-10.2447
tions	-10.2448
zon	-10.2448
ario	-10.2452
ող	-10.2452
tari	-10.2454
ص	-10.2457
▁sebagai	-10.2459
▁nad	-10.2461
▁Fri	-10.2461
▁7.	-10.2463
▁let	-10.2466
53	-10.2467
力	-10.2467
ạ	-10.2472
nce	-10.2472
▁personal	-10.2474
▁sch	-10.2475
rek	-10.2477
▁gr	-10.2481
heid	-10.2489
▁August	-10.2489
▁إ	-10.249
Х	-10.2491
▁Sz	-10.2491
ū	-10.2492
ēt	-10.2495
nti	-10.2495
sar	-10.2499
자	-10.2514
för	-10.2517
▁Bank	-10.2517
▁bere	-10.2518
GA	-10.252
ave	-10.2523
anna	-10.2532
▁gel	-10.2532
▁б	-10.254
▁sua	-10.2542
ış	-10.2549
ง	-10.2553
TA	-10.2554
▁Sen	-10.2556
▁mü	-10.2558
-4	-10.2559
▁telah	-10.256
pos	-10.2563
▁ning	-10.2567
nje	-10.2569
▁հ	-10.2572
ев	-10.2577
encia	-10.2577
▁бол	-10.258
▁Vol	-10.258
▁бар	-10.2588
tă	-10.2589
mise	-10.2591
Ro	-10.2592
▁بال	-10.2593
▁efter	-10.2595
tha	-10.2597
SI	-10.26
64	-10.26
ilo	-10.26
▁September	-10.2601
▁það	-10.2606
▁(3)	-10.2609
umi	-10.2612
ть	-10.262
τε	-10.2621
▁eru	-10.2622
▁kommer	-10.2624
BA	-10.2637
xo	-10.2637
اب	-10.2637
ving	-10.2641
▁grup	-10.2641
EN	-10.2641
oc	-10.2646
▁Ali	-10.2646
ojnë	-10.2648
dre	-10.265
!!!	-10.2656
▁::	-10.2658
▁Col	-10.266
ű	-10.266
မ	-10.2664
isten	-10.2666
owe	-10.2667
2019	-10.2667
▁Ж	-10.2669
▁ano	-10.2671
cre	-10.2673
yang	-10.2677
▁produkt	-10.2677
▁Κ	-10.2677
ט	-10.2678
є	-10.2679
三	-10.268
ئ	-10.268
▁Zo	-10.2683
46	-10.2686
▁Nike	-10.2688
▁tempo	-10.2688
ব	-10.2689
szt	-10.269
▁være	-10.2698
stand	-10.2698
ല	-10.2698
kum	-10.2701
လ	-10.2708
yr	-10.271
▁Bre	-10.2712
,”	-10.2714
▁most	-10.2718
tok	-10.2719
ված	-10.2719
juk	-10.272
▁stor	-10.2721
▁Sol	-10.2721
43	-10.2725
▁menjadi	-10.2727
-10	-10.2727
gor	-10.2732
like	-10.2733
лан	-10.2735
ման	-10.2736
bah	-10.274
▁egin	-10.2741
rov	-10.2745
ум	-10.2751
▁WA	-10.2751
વા	-10.2752
fan	-10.2753
sty	-10.2753
To	-10.2755
▁pal	-10.2756
▁2000	-10.2766
▁ek	-10.2767
sol	-10.2768
▁other	-10.2768
lia	-10.277
ӣ	-10.277
▁Р	-10.2771
IS	-10.2771
ង	-10.2773
cion	-10.2778
nika	-10.278
▁sun	-10.2784
▁daha	-10.2788
▁39	-10.2789
▁←	-10.2792
fen	-10.2793
ца	-10.2796
skap	-10.2798
等	-10.2802
▁những	-10.2808
▁כ	-10.2808
AD	-10.2809
▁bli	-10.2813
▁Ac	-10.2816
yen	-10.2817
ர்	-10.2817
ór	-10.2829
▁11.	-10.2833
vit	-10.2834
air	-10.2838
▁what	-10.2839
്	-10.2843
mark	-10.2843
sil	-10.2844
▁Azərbaycan	-10.2846
aal	-10.2851
шы	-10.286
kä	-10.2865
ит	-10.2865
aran	-10.2865
▁ok	-10.2866
▁Kas	-10.2867
成	-10.287
«	-10.2872
▁Č	-10.2876
▁ger	-10.2879
▁sudah	-10.288
58	-10.288
▁ml	-10.2902
▁Windows	-10.2908
ann	-10.2909
▁Kol	-10.291
hod	-10.291
▁hay	-10.2911
▁imp	-10.2914
ช	-10.2915
vé	-10.2916
Mar	-10.2917
▁ಅ	-10.2918
ža	-10.2919
aus	-10.2919
▁klo	-10.2924
syon	-10.2924
pol	-10.2932
▁että	-10.2937
են	-10.2937
Í	-10.294
▁ol	-10.2943
ે	-10.2945
▁đã	-10.2946
▁Ε	-10.295
eh	-10.2957
osa	-10.2957
pri	-10.2963
▁ziren	-10.2965
ር	-10.2965
tud	-10.2965
miz	-10.2965
эн	-10.2973
▁Sex	-10.2973
ový	-10.2974
sı	-10.2978
2.	-10.2979
top	-10.2982
▁स	-10.2982
▁deze	-10.2986
▁vid	-10.2986
▁tele	-10.2987
CA	-10.2987
▁full	-10.2992
ības	-10.2992
же	-10.2992
eiro	-10.2996
▁είναι	-10.3005
事	-10.3009
nice	-10.3012
▁Cap	-10.3014
▁55	-10.3017
alt	-10.3019
▁bol	-10.3021
▁cada	-10.3022
▁sil	-10.3023
yar	-10.3033
vers	-10.3034
īt	-10.3034
нинг	-10.3038
ction	-10.3043
▁як	-10.3044
▁ana	-10.3046
تی	-10.3046
▁مو	-10.3049
▁Hor	-10.3049
aba	-10.3051
▁vin	-10.3052
▁או	-10.3053
ју	-10.3058
▁Kom	-10.3059
сти	-10.3059
ര്‍	-10.3061
▁θα	-10.3064
LE	-10.3066
▁120	-10.3067
▁gün	-10.3068
▁service	-10.3068
AP	-10.307
▁бу	-10.3073
lad	-10.3075
▁65	-10.3076
▁ج	-10.3078
▁RE	-10.308
▁अ	-10.3083
▁mon	-10.3085
ord	-10.309
iku	-10.3093
▁8.	-10.3093
dən	-10.3096
▁pris	-10.3097
द	-10.3099
DA	-10.3099
来	-10.3101
▁(2	-10.3103
No	-10.3104
:40	-10.3107
ने	-10.3109
nim	-10.311
andi	-10.311
ther	-10.3114
▁5,	-10.3117
▁ev	-10.312
▁parti	-10.3121
时	-10.3122
ule	-10.3123
ോ	-10.3123
▁სა	-10.3123
sis	-10.3133
51	-10.3135
aw	-10.3136
ets	-10.314
2018	-10.3141
ят	-10.3151
Pro	-10.3155
▁god	-10.3156
τα	-10.3158
▁Best	-10.3163
▁Dit	-10.3164
69	-10.3165
ill	-10.3169
ament	-10.3174
oje	-10.3179
▁maj	-10.318
ു	-10.3181
▁voi	-10.3185
▁make	-10.3188
ных	-10.3188
▁12.	-10.3192
ral	-10.3194
▁пра	-10.3195
▁now	-10.3196
ල	-10.3196
▁Au	-10.3204
▁system	-10.3206
▁pela	-10.3211
ær	-10.3219
▁ر	-10.3221
aja	-10.3223
ikan	-10.3224
国	-10.3224
ń	-10.3224
bus	-10.3225
ವ	-10.3228
jes	-10.3233
▁lagu	-10.3235
▁apa	-10.3235
sku	-10.3236
▁får	-10.3242
лари	-10.3245
▁sus	-10.3245
ун	-10.3246
▁fun	-10.3246
前	-10.3251
▁website	-10.3251
▁IN	-10.3259
ség	-10.3259
▁си	-10.3269
wal	-10.3269
▁banyak	-10.3271
▁سر	-10.3275
ന	-10.3279
▁Ö	-10.3282
Н	-10.3285
▁43	-10.3287
ında	-10.3289
名	-10.329
స్	-10.3296
lic	-10.33
ume	-10.3303
인	-10.3304
▁để	-10.3306
▁comp	-10.3306
▁tahun	-10.331
rs	-10.3312
TO	-10.3313
ium	-10.3314
tó	-10.3314
▁Tan	-10.3314
▁Tor	-10.3315
▁info	-10.3319
之	-10.3322
▁mund	-10.3323
▁Martin	-10.3325
ста	-10.3326
נו	-10.3332
▁هم	-10.3335
▁τον	-10.3337
DE	-10.3338
tica	-10.3344
ো	-10.3344
info	-10.3348
run	-10.3349
ans	-10.3353
▁trans	-10.3356
▁gre	-10.3356
ните	-10.3359
▁کې	-10.3361
ավ	-10.3362
▁fu	-10.3363
▁janë	-10.3363
area	-10.3378
ต	-10.3378
▁fost	-10.338
ಾ	-10.3381
▁því	-10.3388
IC	-10.339
nou	-10.3391
TI	-10.3392
hd	-10.3394
▁Та	-10.3398
plan	-10.3399
▁Inn	-10.3402
▁oder	-10.3403
อ	-10.3408
:50	-10.3409
»,	-10.341
▁nam	-10.3411
▁Mit	-10.3425
▁ח	-10.3429
▁бер	-10.3429
ville	-10.343
:25	-10.3431
▁John	-10.3438
Na	-10.344
larda	-10.3441
▁mid	-10.3444
▁kali	-10.3445
nov	-10.3446
▁use	-10.3446
ул	-10.3447
▁би	-10.3447
2017	-10.3449
ede	-10.3449
יה	-10.345
▁jaar	-10.3452
ım	-10.3454
▁Ка	-10.3456
AM	-10.3457
▁MA	-10.346
лик	-10.3462
Ã	-10.3463
▁verk	-10.3466
56	-10.3468
fs	-10.3468
▁show	-10.3469
ਸ	-10.3477
▁cel	-10.3477
რ	-10.3477
ត	-10.3478
ük	-10.3483
▁이	-10.3484
▁ਦੇ	-10.3486
▁lahko	-10.3486
▁Android	-10.3487
▁lagi	-10.3488
▁ای	-10.349
tem	-10.349
▁အ	-10.3491
▁Mini	-10.3491
وم	-10.3493
μα	-10.3493
zioni	-10.3494
全	-10.3495
▁lei	-10.3509
ज	-10.3509
tiva	-10.3515
▁تو	-10.3519
nja	-10.3519
▁mor	-10.352
tai	-10.3522
lab	-10.3522
kra	-10.3524
ҳ	-10.3526
▁sh	-10.3527
▁دی	-10.3528
▁jy	-10.3529
▁Design	-10.3532
وا	-10.3534
49	-10.3537
ного	-10.3539
▁Bur	-10.354
▁Са	-10.3544
▁CO	-10.3548
▁tại	-10.355
96	-10.355
Ar	-10.355
anti	-10.3551
αν	-10.3554
lli	-10.3554
iye	-10.3557
ன்	-10.3557
ха	-10.3564
gli	-10.3564
▁Μ	-10.3565
ats	-10.3566
▁Ма	-10.357
āk	-10.3572
▁eng	-10.3572
▁isang	-10.3573
lık	-10.3574
▁mem	-10.3575
▁či	-10.3579
wen	-10.3579
▁place	-10.358
▁been	-10.3582
▁nak	-10.3584
▁की	-10.3584
zia	-10.3584
ી	-10.3587
ius	-10.3588
:05	-10.3589
kol	-10.3591
59	-10.3593
▁công	-10.3599
区	-10.36
▁bon	-10.3603
▁material	-10.3609
ային	-10.3609
nal	-10.3611
ência	-10.3614
чы	-10.3619
ел	-10.362
پ	-10.362
▁бо	-10.3623
▁(19	-10.3623
▁worden	-10.3627
них	-10.3627
മ	-10.363
ité	-10.3631
rus	-10.3633
▁Cre	-10.3637
中国	-10.3638
CE	-10.3642
▁pār	-10.3642
▁molt	-10.3643
▁Ф	-10.3644
Mo	-10.3645
any	-10.3647
isto	-10.3648
bur	-10.3648
."	-10.3649
ett	-10.3649
78	-10.365
ého	-10.3657
ो	-10.3657
نگ	-10.366
▁Ir	-10.366
▁τη	-10.3661
પ	-10.3662
တ	-10.3663
▁uw	-10.3667
・	-10.3668
▁shumë	-10.3668
▁gli	-10.3671
▁werden	-10.3674
“,	-10.3677
장	-10.3677
အ	-10.3681
66	-10.3684
ções	-10.3685
▁Plan	-10.3687
ث	-10.3688
▁250	-10.3695
▁400	-10.3702
▁iş	-10.3704
бо	-10.3707
IE	-10.3712
▁More	-10.3714
▁iPhone	-10.3715
法	-10.3717
TT	-10.3717
85	-10.3717
▁base	-10.3719
ո	-10.372
-5	-10.372
ím	-10.3723
▁Barcelona	-10.3725
ζ	-10.3726
र्	-10.3727
▁לא	-10.3729
لو	-10.3729
qi	-10.3731
▁link	-10.3733
rán	-10.3734
▁°	-10.3734
で	-10.3738
ِ	-10.3738
checked	-10.374
kr	-10.3745
ous	-10.3745
▁estas	-10.3745
дер	-10.3751
లో	-10.3752
:35	-10.3758
эр	-10.376
An	-10.376
7%	-10.3765
▁über	-10.3767
▁41	-10.3768
▁sie	-10.3771
zem	-10.3772
:12	-10.3779
book	-10.3781
dzie	-10.3786
▁1000	-10.3786
вер	-10.379
mana	-10.3791
▁Ste	-10.3796
kker	-10.3796
enza	-10.3801
车	-10.3801
▁46	-10.3801
▁PC	-10.3803
ries	-10.3804
aire	-10.3807
▁pl	-10.3809
cul	-10.3812
eva	-10.3818
▁Sp	-10.3822
nega	-10.3823
rap	-10.3827
▁when	-10.3828
▁Alle	-10.3831
-12	-10.3832
:11	-10.3832
lei	-10.3836
ии	-10.3838
▁Qu	-10.3838
▁EU	-10.3839
▁bilan	-10.3839
osi	-10.384
taan	-10.3841
▁modern	-10.3845
kut	-10.3848
▁प	-10.3852
な	-10.3854
ique	-10.3854
▁ק	-10.3855
ಮ	-10.3857
▁Set	-10.3858
▁Sch	-10.3859
▁Nov	-10.3862
▁olarak	-10.3863
هم	-10.3863
rij	-10.3875
ু	-10.3876
▁Don	-10.388
▁sistem	-10.3881
▁100%	-10.3884
cker	-10.3885
som	-10.3885
54	-10.3889
essa	-10.389
▁kol	-10.3893
ons	-10.3894
φ	-10.3896
వ	-10.3899
ой	-10.3901
مان	-10.3902
hor	-10.3904
▁bas	-10.3907
ș	-10.3907
RT	-10.3915
▁ре	-10.3915
ө	-10.3918
▁Aus	-10.3918
çi	-10.3919
▁One	-10.3921
▁أن	-10.3921
▁long	-10.3923
χ	-10.3924
վել	-10.3933
Do	-10.3933
:55	-10.3935
itat	-10.3935
kit	-10.3939
▁organiz	-10.3942
стан	-10.3942
心	-10.3943
:21	-10.3944
▁color	-10.3948
ಕ	-10.3948
mə	-10.3952
:14	-10.3954
व	-10.3954
ు	-10.3959
公	-10.3959
Po	-10.396
ago	-10.396
lov	-10.3961
ení	-10.3963
▁heeft	-10.3964
▁dom	-10.3966
▁Pin	-10.3968
▁pel	-10.397
nl	-10.3972
南	-10.3975
dam	-10.3975
нд	-10.3979
unk	-10.3983
▁Land	-10.3991
aka	-10.3993
▁Pla	-10.3994
▁Nam	-10.3994
itet	-10.3995
▁bạn	-10.3995
stru	-10.4001
▁first	-10.4003
ा	-10.4004
kul	-10.4005
▁tá	-10.4008
▁bus	-10.4009
-2	-10.4013
▁information	-10.4017
▁Pal	-10.4018
▁Հ	-10.4018
dores	-10.4019
غ	-10.402
Fi	-10.4021
▁ur	-10.4022
ក	-10.4023
unda	-10.4026
▁oor	-10.4027
▁है	-10.4029
▁kann	-10.403
▁bila	-10.4032
▁Comp	-10.4033
vent	-10.4034
化	-10.4036
vě	-10.4037
▁delle	-10.4045
چ	-10.4045
ர	-10.4046
美	-10.4051
▁minut	-10.4052
海	-10.4055
发	-10.4056
iş	-10.4056
▁ќе	-10.4056
▁”	-10.4057
▁sangat	-10.4059
▁Plus	-10.4061
▁Gra	-10.4062
shop	-10.4064
▁She	-10.4067
ui	-10.4067
ose	-10.4067
面	-10.4067
య	-10.4069
:18	-10.4075
▁jau	-10.4076
sky	-10.4077
后	-10.4078
▁hin	-10.4078
anza	-10.4082
▁sha	-10.4084
tia	-10.4086
ət	-10.4087
ран	-10.4087
adda	-10.4089
ھ	-10.409
▁thể	-10.4092
dri	-10.4097
就	-10.4106
▁те	-10.4106
600	-10.4108
▁gra	-10.411
:13	-10.4111
▁mata	-10.4119
GG	-10.4119
▁Yu	-10.4124
ques	-10.4125
▁cal	-10.4126
▁́	-10.4127
":	-10.4128
长	-10.4134
▁hai	-10.4137
utu	-10.4137
▁Samsung	-10.4137
安	-10.4139
mil	-10.4139
▁bara	-10.4144
▁ك	-10.4146
endo	-10.4152
▁pres	-10.4153
ರ್	-10.4155
▁Η	-10.4163
rem	-10.4165
86	-10.4166
pla	-10.4167
都	-10.4169
▁contact	-10.4171
Pa	-10.4175
sur	-10.4176
uga	-10.4178
வ	-10.4178
▁Ay	-10.4179
name	-10.4179
mist	-10.418
hol	-10.4184
대	-10.4187
ña	-10.419
ší	-10.4191
▁quan	-10.4194
ður	-10.4194
vik	-10.4195
▁AS	-10.4195
ത	-10.4195
ctor	-10.4195
cle	-10.4197
ford	-10.4198
ري	-10.4199
ै	-10.4199
▁vida	-10.42
േ	-10.4201
▁Hand	-10.4201
AA	-10.4202
52	-10.4202
jon	-10.4204
▁2019,	-10.4205
▁anche	-10.4205
▁ö	-10.4208
ovi	-10.4211
ε	-10.4212
ный	-10.4214
rada	-10.4215
Ra	-10.4216
ská	-10.4217
కు	-10.4218
手	-10.4218
ύ	-10.4223
▁Hel	-10.4225
ից	-10.4227
ako	-10.423
വ	-10.4231
lara	-10.4232
рт	-10.4233
物	-10.4233
elo	-10.4236
KA	-10.4237
▁64	-10.4238
ત	-10.4239
▁transport	-10.424
owy	-10.424
▁0.0	-10.4241
▁how	-10.4241
ਮ	-10.4248
과	-10.4248
期	-10.4249
▁pero	-10.4249
▁amin	-10.4252
:17	-10.4256
cin	-10.4258
Li	-10.4259
▁prie	-10.4261
▁loo	-10.4266
ls	-10.4267
▁تر	-10.427
lü	-10.4275
▁Mus	-10.4277
сто	-10.4278
က	-10.4282
ful	-10.4283
›	-10.4285
67	-10.4286
liga	-10.4286
▁gam	-10.4287
Ba	-10.4289
কে	-10.4292
Л	-10.43
▁bag	-10.4303
ամ	-10.4303
Sa	-10.4304
ਕ	-10.4307
π	-10.4311
▁March	-10.4319
▁від	-10.4322
▁Tele	-10.4325
▁todo	-10.4328
vir	-10.433
ная	-10.4333
▁bude	-10.4334
▁الع	-10.4336
bul	-10.4337
ல்	-10.4338
▁end	-10.4344
ք	-10.4345
特	-10.4348
gat	-10.435
▁Sy	-10.4352
57	-10.4354
lige	-10.4355
▁Das	-10.4355
▁USA	-10.4356
▁q	-10.4356
▁seperti	-10.4358
:01	-10.4359
sid	-10.4363
97	-10.4363
▁Про	-10.4371
▁को	-10.4372
win	-10.4375
▁High	-10.4378
па	-10.4378
▁sonra	-10.4383
ivo	-10.4383
▁mig	-10.4385
ル	-10.4387
▁polo	-10.4389
rim	-10.4391
ị	-10.4393
্	-10.4394
▁hindi	-10.4396
▁harga	-10.4397
jat	-10.4399
۱	-10.44
:19	-10.44
ም	-10.44
▁ד	-10.4401
外	-10.4404
▁Ap	-10.4405
▁र	-10.4414
hn	-10.4415
▁Europa	-10.4417
▁vis	-10.4421
jal	-10.4424
AC	-10.4426
('	-10.4429
:23	-10.4435
▁good	-10.4435
ని	-10.4436
UR	-10.4439
▁49	-10.444
ці	-10.4441
ס	-10.4441
▁9.	-10.4441
ظ	-10.4443
▁Sk	-10.4447
gia	-10.4454
▁Los	-10.4458
ន	-10.4463
▁Nr	-10.4463
ING	-10.4463
».	-10.4468
▁Э	-10.4469
iro	-10.4469
rod	-10.4472
▁ph	-10.4472
је	-10.4473
▁Media	-10.4476
2)	-10.4476
uj	-10.4478
▁nhà	-10.4479
vod	-10.4481
NA	-10.4481
lib	-10.4482
▁tema	-10.4484
gos	-10.4486
bes	-10.4487
▁Rus	-10.4488
:02	-10.4492
ർ	-10.4496
▁Blue	-10.4498
Bo	-10.4498
یم	-10.4499
anie	-10.4499
лен	-10.4507
▁ص	-10.4513
py	-10.4514
ää	-10.4515
nit	-10.4515
▁West	-10.4519
dz	-10.4519
▁Club	-10.4527
site	-10.4531
▁wo	-10.4533
দ	-10.4533
▁veel	-10.4533
У	-10.4534
:22	-10.4534
heim	-10.4538
▁če	-10.454
▁수	-10.4542
▁pul	-10.4543
zik	-10.4544
▁Dia	-10.4546
ల్	-10.4548
ই	-10.4549
▁kul	-10.4549
▁find	-10.4552
ները	-10.4552
/10	-10.4553
cas	-10.4556
teri	-10.4557
文	-10.4564
▁hvor	-10.4564
▁13.	-10.457
▁its	-10.4571
kah	-10.4574
▁ont	-10.4575
ກ	-10.4579
▁Ο	-10.4583
ል	-10.4587
thi	-10.4587
▁sto	-10.4587
dah	-10.4591
:16	-10.4597
▁Autor	-10.46
:42	-10.46
bnb	-10.4603
fic	-10.4603
wn	-10.4604
▁spo	-10.4604
▁Eesti	-10.4604
hus	-10.4607
િ	-10.4612
理	-10.4614
ρα	-10.4615
▁Kč	-10.4616
CI	-10.462
მ	-10.462
sor	-10.4626
▁sana	-10.4628
kka	-10.4631
ði	-10.4632
rg	-10.4638
უ	-10.464
明	-10.4644
84	-10.4647
▁අ	-10.465
ир	-10.4651
şa	-10.4651
ห	-10.4652
:03	-10.4654
▁bagi	-10.4654
вр	-10.4657
para	-10.4658
তে	-10.4661
▁Jun	-10.4662
ス	-10.4663
лық	-10.4665
部	-10.4666
لی	-10.4668
▁Cat	-10.4668
▁autor	-10.4669
▁Santa	-10.4671
▁Ed	-10.4672
czy	-10.4672
▁пред	-10.4674
ED	-10.4676
▁DA	-10.4677
▁daar	-10.4679
ында	-10.4682
▁yeni	-10.4683
త	-10.4683
▁anak	-10.4683
ग	-10.4684
▁ass	-10.4684
år	-10.4686
:26	-10.4687
ły	-10.4687
▁Paul	-10.4688
sins	-10.4692
:24	-10.4692
wel	-10.4697
թ	-10.4698
%3	-10.4703
▁day	-10.4704
bang	-10.4707
ков	-10.4707
PA	-10.4709
▁stra	-10.471
து	-10.471
រ	-10.4711
kwa	-10.4712
સ	-10.4713
eme	-10.4714
以	-10.4714
▁khi	-10.4719
:28	-10.4723
▁kg	-10.4731
77	-10.4731
▁ris	-10.4735
63	-10.4737
▁ry	-10.4738
hel	-10.4739
▁ani	-10.4739
ње	-10.474
▁له	-10.474
:58	-10.474
ské	-10.4743
▁п	-10.4745
트	-10.4745
:59	-10.4747
:29	-10.475
▁need	-10.475
:43	-10.4751
▁Mel	-10.4754
ph	-10.4755
avi	-10.4755
▁aquest	-10.4758
▁sunt	-10.4762
:27	-10.4766
▁Che	-10.4766
Е	-10.4773
▁Ag	-10.4775
▁hau	-10.4779
▁programa	-10.4779
dim	-10.478
эл	-10.478
су	-10.4781
▁Port	-10.4782
利	-10.4786
ೆ	-10.4787
▁Met	-10.4787
▁Bol	-10.4787
ase	-10.4788
sport	-10.4789
▁views	-10.479
学	-10.479
▁Ба	-10.4791
▁here	-10.4792
也	-10.4796
▁some	-10.4797
:57	-10.4797
▁PA	-10.4798
74	-10.4798
रा	-10.4799
աց	-10.4802
:51	-10.4803
-02	-10.4805
:06	-10.4807
жа	-10.4811
方	-10.4812
ُ	-10.4813
▁primer	-10.4814
isme	-10.4815
:39	-10.4816
sem	-10.4821
mbi	-10.4825
hir	-10.4828
▁ब	-10.4829
▁selv	-10.483
:33	-10.4834
▁roku	-10.4834
:31	-10.4834
ow	-10.4835
??	-10.4835
어	-10.4839
ohet	-10.4839
~	-10.484
▁want	-10.484
▁Ü	-10.4843
imas	-10.4847
▁kontakt	-10.4847
度	-10.4848
3%	-10.4849
tivo	-10.4856
maan	-10.4856
న్	-10.4861
luk	-10.4862
ων	-10.4863
бор	-10.4864
▁máis	-10.4867
79	-10.4867
▁uchun	-10.4868
TG	-10.4869
▁Spa	-10.487
sini	-10.4871
AAAAAAAAAAAAAAAA	-10.4872
▁2005	-10.4875
▁برای	-10.4879
ход	-10.4881
▁them	-10.4883
▁face	-10.4884
ách	-10.4884
▁mun	-10.4885
kle	-10.4885
76	-10.4887
inti	-10.4893
与	-10.4894
ood	-10.4895
▁love	-10.4895
▁normal	-10.4896
▁Og	-10.4896
▁tag	-10.4897
800	-10.4899
:38	-10.4901
tua	-10.4902
▁का	-10.4903
:32	-10.4905
resource	-10.4905
▁ಕ	-10.4906
▁þ	-10.4907
▁ed	-10.491
▁क	-10.4911
▁14.	-10.4912
க்க	-10.4912
▁ز	-10.4913
bla	-10.4915
თ	-10.4915
ote	-10.4916
tim	-10.4921
▁partner	-10.4923
ද	-10.4923
▁vers	-10.4926
Á	-10.4926
AG	-10.4927
TS	-10.4927
ij	-10.4928
dé	-10.4937
<	-10.4945
ડ	-10.4946
ೀ	-10.4947
:04	-10.495
▁Gr	-10.4951
stad	-10.4951
గా	-10.4952
▁With	-10.4952
("	-10.4953
▁acest	-10.496
یت	-10.4964
1%	-10.4965
hay	-10.4968
于	-10.4968
long	-10.4969
将	-10.497
Š	-10.4971
▁Па	-10.4972
ult	-10.4973
ã	-10.4973
:52	-10.4974
ische	-10.4975
▁pode	-10.4978
vä	-10.4981
gro	-10.4982
:37	-10.4985
сан	-10.4985
ым	-10.4987
▁poz	-10.499
larını	-10.4994
arna	-10.4995
2012	-10.4999
:36	-10.5
ատ	-10.5
▁(0)	-10.5003
bh	-10.5005
inde	-10.5005
Co	-10.5007
ams	-10.5008
alo	-10.5008
▁bro	-10.5012
ného	-10.5012
Ñ	-10.5012
▁عن	-10.5016
▁Apple	-10.5018
:08	-10.5018
ness	-10.5018
▁York	-10.5018
nger	-10.502
▁qua	-10.502
sat	-10.5022
ные	-10.5023
▁aby	-10.5023
dzi	-10.5024
▁mere	-10.5026
yə	-10.5029
ಿ	-10.5029
ude	-10.503
نی	-10.5031
ios	-10.5031
Vi	-10.5033
▁Casino	-10.5034
бу	-10.5041
▁control	-10.5042
CO	-10.5044
lich	-10.5045
turi	-10.5045
▁opera	-10.5045
▁len	-10.5046
ـ	-10.5047
ც	-10.505
▁World	-10.5051
▁rin	-10.5051
ғ	-10.5051
owa	-10.5053
cor	-10.5056
라	-10.506
rú	-10.506
:44	-10.506
▁Sur	-10.5061
сь	-10.5062
▁Cho	-10.5064
push	-10.5064
▁game	-10.5065
kou	-10.5065
length	-10.5066
media	-10.5072
▁pil	-10.5074
▁zł	-10.5074
:09	-10.5077
гі	-10.5078
▁kuri	-10.508
▁kanë	-10.5081
лы	-10.5082
ав	-10.5083
▁Ana	-10.5086
61	-10.5088
▁Del	-10.509
SP	-10.5092
▁से	-10.5095
▁لا	-10.5096
oja	-10.5097
▁47	-10.5097
zan	-10.5097
▁bit	-10.5098
▁Hy	-10.5098
▁into	-10.5101
ക	-10.5102
נה	-10.5107
zna	-10.5108
:46	-10.5109
taka	-10.5109
▁July	-10.5113
▁Tom	-10.5114
nk	-10.5116
▁Kap	-10.5119
▁Full	-10.5123
▁sistema	-10.5123
▁pin	-10.5124
▁کار	-10.5128
:53	-10.5129
ball	-10.513
91	-10.5132
lev	-10.5132
▁shi	-10.5134
cam	-10.5138
IP	-10.5139
▁Kur	-10.5139
ság	-10.5144
koa	-10.5144
క	-10.5144
fel	-10.5147
▁nur	-10.5151
▁White	-10.5151
▁Tro	-10.5154
yê	-10.5155
▁nä	-10.5158
band	-10.5161
yu	-10.5162
stro	-10.5165
EC	-10.5166
▁дар	-10.5168
less	-10.5169
CT	-10.5169
▁tv	-10.517
pper	-10.517
রা	-10.5171
Ü	-10.5172
▁ele	-10.5176
▁Í	-10.5177
▁Ker	-10.5178
ovat	-10.518
▁Bay	-10.5181
:47	-10.5181
:48	-10.5182
▁fund	-10.5183
▁DO	-10.5184
▁ಮ	-10.5186
ത്	-10.5189
nat	-10.5189
fat	-10.5191
tı	-10.5192
ını	-10.5194
bie	-10.5197
▁tau	-10.5197
AK	-10.5197
oso	-10.5199
yti	-10.5201
kir	-10.5204
89	-10.5204
▁lain	-10.5204
ක්	-10.5206
▁سی	-10.5207
▁hàng	-10.5207
:34	-10.5211
2016	-10.5213
▁Vor	-10.5214
jam	-10.5215
ço	-10.5216
▁52	-10.522
▁ста	-10.522
tako	-10.522
esi	-10.5222
▁Bas	-10.5222
acht	-10.5223
▁när	-10.5223
ayo	-10.5223
▁If	-10.5224
Ta	-10.5225
chu	-10.5226
bia	-10.5226
▁hanya	-10.5228
ının	-10.5229
▁Jeg	-10.5231
री	-10.5231
റ	-10.5233
uko	-10.5238
▁τους	-10.524
▁semua	-10.5242
ған	-10.5248
rzy	-10.526
71	-10.526
▁June	-10.5263
:41	-10.5264
▁16.	-10.5264
92	-10.5267
▁15.	-10.5267
▁gener	-10.527
tzea	-10.527
▁App	-10.5271
cent	-10.5272
▁Allah	-10.5274
రి	-10.5274
▁SP	-10.5277
▁Н	-10.5277
西	-10.5278
▁Ik	-10.5281
ే	-10.5285
▁മ	-10.5285
▁mé	-10.5286
▁ч	-10.5291
▁Zi	-10.5291
▁Uni	-10.5292
ड	-10.5294
ڈ	-10.5294
ono	-10.5294
▁Maria	-10.5295
َ	-10.5295
에서	-10.5297
体	-10.5302
▁giá	-10.5302
▁klub	-10.5304
▁Play	-10.5306
rup	-10.5306
ೇ	-10.5307
ња	-10.5309
ина	-10.5309
ак	-10.5309
eni	-10.5312
:07	-10.5316
▁Не	-10.5316
ח	-10.5317
ови	-10.5318
▁Ez	-10.5318
nú	-10.5318
▁SE	-10.5319
pres	-10.5324
ใน	-10.5324
▁January	-10.5326
ਦ	-10.5327
看	-10.5334
▁max	-10.5334
Ne	-10.5337
tų	-10.5338
ში	-10.5341
ations	-10.5342
▁desde	-10.5345
▁Villa	-10.5346
ulu	-10.5348
ası	-10.5348
▁(3	-10.5348
bert	-10.535
87	-10.5351
գ	-10.5353
▁wordt	-10.5355
▁Մ	-10.5356
AS	-10.5357
rom	-10.5359
▁wir	-10.5359
ishi	-10.536
▁duke	-10.536
:54	-10.5361
▁zum	-10.5366
▁mini	-10.5367
anga	-10.5367
သ	-10.5368
EA	-10.5372
▁бе	-10.5373
จ	-10.5376
Bu	-10.5376
െ	-10.5379
:49	-10.538
▁mala	-10.5387
SE	-10.5387
:56	-10.5387
▁qa	-10.5388
vert	-10.539
▁saj	-10.539
▁Twitter	-10.539
ری	-10.5391
▁بھی	-10.5395
osta	-10.5396
▁Day	-10.5397
▁Nie	-10.5397
Ə	-10.5399
▁Casa	-10.54
▁Sep	-10.5403
ុ	-10.5403
▁fo	-10.5406
{	-10.5407
▁back	-10.5407
▁kam	-10.5411
▁EN	-10.5412
▁tras	-10.5413
یر	-10.5414
98	-10.5415
ský	-10.5416
IR	-10.5418
ත්	-10.5419
드	-10.5422
▁said	-10.5423
▁seus	-10.5426
入	-10.5426
క్	-10.5427
▁ப	-10.5428
ច	-10.5431
nings	-10.5431
ijos	-10.5433
ալ	-10.5434
▁put	-10.5434
hit	-10.5435
function	-10.5437
ስ	-10.5438
▁19.	-10.5438
▁nei	-10.5438
▁mana	-10.5439
▁even	-10.5441
ير	-10.5443
▁rok	-10.5449
▁sempre	-10.5451
ması	-10.5456
▁ár	-10.5457
▁edo	-10.5459
hem	-10.5459
▁xe	-10.5459
▁hur	-10.5459
spe	-10.5467
62	-10.5468
▁House	-10.547
tí	-10.5476
ller	-10.5477
▁ble	-10.5478
▁toe	-10.5481
▁wel	-10.5482
▁çok	-10.5482
ся	-10.5483
城	-10.5484
▁International	-10.5484
tif	-10.5485
wang	-10.5485
▁Din	-10.5486
url	-10.5487
ind	-10.5487
čí	-10.5488
▁До	-10.5488
gua	-10.5489
▁nh	-10.5494
igu	-10.5495
▁Bro	-10.5495
kli	-10.5496
igen	-10.5501
▁tha	-10.5505
auto	-10.5507
að	-10.5508
1)	-10.5508
ੀ	-10.5514
RE	-10.5517
ungen	-10.552
NE	-10.5521
may	-10.5524
AB	-10.5525
▁eu	-10.5525
MB	-10.5526
ін	-10.5526
▁Ham	-10.5528
lut	-10.553
▁kata	-10.553
kala	-10.5531
ੇ	-10.5532
▁MP	-10.5533
68	-10.5535
▁sko	-10.5537
▁تا	-10.5538
gem	-10.5538
ware	-10.5539
gj	-10.554
ени	-10.5541
▁moet	-10.5542
ქ	-10.5544
▁छ	-10.5546
-6	-10.5547
oval	-10.5548
▁म	-10.5551
uti	-10.5552
▁people	-10.5552
ಂ	-10.5555
▁todos	-10.5557
സ്	-10.5561
tv	-10.5563
ေ	-10.5564
ży	-10.5566
平	-10.5566
▁USD	-10.5566
||	-10.5567
81	-10.5568
▁سو	-10.5568
▁ditu	-10.5569
し	-10.5569
daj	-10.557
▁AL	-10.5571
▁gör	-10.5572
▁team	-10.5574
▁וה	-10.5575
▁hos	-10.5575
▁there	-10.5576
▁ко	-10.5577
UM	-10.5579
▁Vis	-10.5579
▁kre	-10.5584
▁interes	-10.5587
has	-10.5587
▁Cer	-10.5589
kem	-10.5591
bí	-10.5597
ční	-10.5599
▁Last	-10.5602
य	-10.5603
▁18.	-10.5605
kh	-10.5608
bud	-10.5608
▁boleh	-10.5609
kë	-10.5611
▁qe	-10.5611
93	-10.5613
▁ž	-10.5615
aca	-10.5616
▁Bor	-10.5619
▁Ç	-10.5619
▁element	-10.562
주	-10.562
cel	-10.5622
▁direct	-10.5622
▁tuo	-10.5625
aji	-10.5627
ં	-10.5632
ék	-10.5633
ezi	-10.564
▁↑	-10.5641
▁USB	-10.5646
nye	-10.5649
лек	-10.565
主	-10.5653
▁без	-10.5653
▁մ	-10.5654
▁conta	-10.5655
HA	-10.5656
zz	-10.566
▁extra	-10.5662
▁lui	-10.5663
વ	-10.5668
最	-10.5671
UL	-10.5672
工	-10.5677
zie	-10.5682
▁từ	-10.5682
λα	-10.5683
▁October	-10.5684
可	-10.5686
▁palibot	-10.5687
tje	-10.569
ıb	-10.5693
▁indi	-10.5698
▁7,	-10.5699
11.	-10.5701
州	-10.5703
▁pus	-10.5704
recht	-10.5704
▁ту	-10.5705
ANG	-10.5707
ijo	-10.5715
▁well	-10.5715
▁David	-10.5715
▁Light	-10.5716
▁kwenye	-10.5718
тал	-10.5718
▁years	-10.5719
▁Në	-10.5719
light	-10.572
▁anos	-10.572
▁were	-10.5722
▁gir	-10.5723
▁cost	-10.5724
▁600	-10.5724
ať	-10.5725
▁17.	-10.5726
een	-10.5726
miş	-10.573
ць	-10.5731
тан	-10.5731
정	-10.5734
test	-10.5734
ген	-10.5734
ய	-10.5734
▁Comments	-10.5736
wood	-10.5739
keta	-10.5739
▁bien	-10.5741
ño	-10.5742
▁85	-10.5742
ech	-10.5744
▁6,	-10.5744
ində	-10.5746
▁document	-10.5748
▁ки	-10.5748
▁myös	-10.575
▁PRO	-10.5754
ട	-10.5756
img	-10.576
▁sm	-10.5762
nike	-10.5763
ību	-10.5763
▁nes	-10.5765
001	-10.5767
З	-10.5767
พ	-10.5768
ello	-10.577
ort	-10.577
MP	-10.5772
▁Jag	-10.5773
ян	-10.5774
▁kell	-10.5776
ès	-10.5781
kki	-10.5782
oon	-10.5782
▁gol	-10.5784
olu	-10.5788
ney	-10.5788
EK	-10.5793
▁Gen	-10.5793
IA	-10.5796
者	-10.5797
idi	-10.5798
nun	-10.5799
း	-10.58
自	-10.5801
ல	-10.5802
ේ	-10.5805
▁baru	-10.5805
DI	-10.5807
OL	-10.5809
க	-10.5816
▁DI	-10.5817
amba	-10.5817
▁aki	-10.5819
▁than	-10.5819
서	-10.5822
જ	-10.5825
adas	-10.5826
▁hon	-10.5826
▁ایک	-10.5829
ash	-10.583
бе	-10.5832
▁(4)	-10.5834
▁Hol	-10.5834
开	-10.5839
nc	-10.584
品	-10.5842
){	-10.5847
▁sẽ	-10.5848
▁Vel	-10.585
ு	-10.5851
ਾਂ	-10.5853
><	-10.5856
ство	-10.5857
EL	-10.5857
▁behar	-10.5858
بر	-10.5858
uv	-10.586
▁Mak	-10.5862
itas	-10.5866
▁ہے۔	-10.5869
路	-10.5873
▁off	-10.5881
یں	-10.5882
als	-10.5883
0000	-10.5884
hang	-10.5888
ז	-10.5889
ск	-10.5891
《	-10.5893
stri	-10.5893
▁escort	-10.5895
ब	-10.5896
个	-10.5897
uku	-10.5899
בי	-10.5899
▁ఆ	-10.5903
▁ہیں	-10.5905
zet	-10.5907
ذ	-10.591
▁pelo	-10.591
▁Trans	-10.5911
▁PS	-10.5915
▁spa	-10.5917
duk	-10.5917
atan	-10.5917
—	-10.5918
ыл	-10.5918
▁Ten	-10.592
▁кон	-10.592
TE	-10.5923
商	-10.5925
▁ক	-10.5926
▁gaan	-10.5926
▁hefur	-10.5935
▁Mad	-10.5936
▁plat	-10.5936
▁về	-10.5936
▁cam	-10.5937
▁α	-10.5937
akan	-10.594
》	-10.5941
ink	-10.5945
lot	-10.5946
ира	-10.5947
ún	-10.5948
sak	-10.595
▁بعد	-10.5955
▁mak	-10.5958
▁Model	-10.5959
AN	-10.5961
vision	-10.5961
▁bes	-10.5961
ningen	-10.5963
тай	-10.5963
点	-10.5965
NI	-10.5966
▁haar	-10.5966
▁Ky	-10.5968
part	-10.5968
▁vez	-10.5968
▁ക	-10.5969
kia	-10.597
mond	-10.5972
▁Til	-10.5974
yk	-10.5975
▁tid	-10.5978
մ	-10.5978
RI	-10.5985
▁Mur	-10.5985
צ	-10.5986
▁marca	-10.5987
▁oraz	-10.5988
ladi	-10.5989
iska	-10.5993
▁type	-10.5994
ා	-10.5995
▁prima	-10.5996
▁Cam	-10.5999
she	-10.6002
zko	-10.6003
мер	-10.6005
ા	-10.6007
aci	-10.6008
能	-10.6011
ਤ	-10.6012
دی	-10.6015
道	-10.6017
▁چې	-10.6019
lio	-10.602
ម	-10.602
▁tij	-10.602
gir	-10.6021
த	-10.6023
ೋ	-10.6025
ým	-10.6026
ħ	-10.6029
str	-10.6031
▁dha	-10.6033
ott	-10.6033
▁only	-10.6037
ыр	-10.6038
គ	-10.6038
dha	-10.6039
も	-10.604
há	-10.6041
▁svo	-10.6041
/2	-10.6045
▁YA	-10.605
tung	-10.605
ود	-10.6051
▁hebben	-10.6051
AI	-10.6052
lf	-10.6053
со	-10.6053
כ	-10.6053
ക്ക	-10.6056
建	-10.6059
▁vara	-10.606
rei	-10.606
▁këtë	-10.6062
▁té	-10.6063
կ	-10.6064
▁very	-10.6067
وی	-10.6067
col	-10.6068
ّ	-10.6069
ден	-10.607
hed	-10.6071
آ	-10.6072
öl	-10.6075
▁51	-10.6076
▁Us	-10.6076
ologi	-10.6078
лер	-10.6079
▁này	-10.6079
uro	-10.6081
ense	-10.6084
inter	-10.6084
▁zona	-10.6086
stä	-10.6089
RU	-10.6089
▁kale	-10.6091
▁nebo	-10.6092
▁жа	-10.6093
ე	-10.6097
El	-10.6098
彩	-10.6104
teko	-10.6107
ида	-10.6107
So	-10.6112
ís	-10.6112
/3	-10.6113
ER	-10.6114
γ	-10.6114
Ä	-10.6118
ా	-10.6122
▁Mari	-10.6123
同	-10.6124
▁ја	-10.6125
▁są	-10.6125
rze	-10.6126
bak	-10.6126
▁fit	-10.6127
2015	-10.6128
von	-10.6128
աս	-10.6129
inte	-10.613
▁siis	-10.6131
▁ప	-10.6131
▁bul	-10.6131
▁Mil	-10.6132
ής	-10.6133
board	-10.6135
▁karena	-10.6136
▁ann	-10.6138
ship	-10.6146
‚	-10.6146
isk	-10.6149
isht	-10.6149
▁ס	-10.615
szer	-10.6156
▁Cel	-10.6157
▁Bon	-10.6158
ព	-10.6159
али	-10.6159
tun	-10.616
Te	-10.616
ني	-10.6163
mbu	-10.6164
ア	-10.6168
ated	-10.6169
▁kup	-10.617
▁но	-10.6172
▁mir	-10.6172
▁fl	-10.6174
▁Beach	-10.6178
cca	-10.6181
▁2018,	-10.6181
ilor	-10.619
uto	-10.6191
ką	-10.6194
▁See	-10.6195
UT	-10.6198
东	-10.6199
hana	-10.6201
▁CD	-10.6205
▁Dis	-10.6209
լ	-10.621
▁water	-10.6211
▁vs	-10.6212
ూ	-10.6212
ök	-10.6214
▁ф	-10.6218
row	-10.6219
▁τις	-10.622
▁cat	-10.6224
▁এ	-10.6224
ҷ	-10.6235
zor	-10.6235
0,00	-10.6237
▁Tel	-10.6237
▁إلى	-10.6238
SC	-10.6238
▁Δ	-10.6239
82	-10.6239
گ	-10.624
च	-10.6242
▁comment	-10.6244
▁ਸ	-10.6245
▁qual	-10.625
DO	-10.625
▁God	-10.625
ildi	-10.6253
idh	-10.6254
▁dur	-10.6256
ته	-10.6256
▁leg	-10.6256
▁Saint	-10.6257
erna	-10.6258
maq	-10.6258
wie	-10.6261
▁blir	-10.6261
▁Wall	-10.6262
▁£	-10.6265
▁مر	-10.6265
▁rad	-10.6266
▁href	-10.6267
当	-10.6267
bro	-10.6267
次	-10.6267
▁nova	-10.6268
nji	-10.6269
▁Este	-10.6271
▁bulan	-10.6271
etako	-10.6272
▁Madrid	-10.6274
り	-10.6276
▁ги	-10.6277
▁eks	-10.6278
▁admin	-10.628
▁votre	-10.6281
ëve	-10.6282
ები	-10.6285
▁way	-10.6286
owych	-10.6288
▁đến	-10.6288
▁gali	-10.6291
▁prin	-10.6292
ట్	-10.6293
вар	-10.6295
ping	-10.6296
ീ	-10.6296
eks	-10.6297
▁jako	-10.6299
؟	-10.63
▁Pag	-10.6301
arı	-10.6301
▁fol	-10.6303
ants	-10.6303
“.	-10.6306
▁produk	-10.6308
sed	-10.631
shme	-10.6311
اف	-10.6314
stel	-10.6316
版	-10.6317
له	-10.6319
Ja	-10.632
ಸ	-10.632
通	-10.6323
▁wana	-10.6325
▁cena	-10.6327
pes	-10.6327
സ	-10.6327
▁mest	-10.633
eel	-10.6331
口	-10.6335
hur	-10.6339
ư	-10.6339
▁park	-10.634
из	-10.634
▁special	-10.6341
▁bre	-10.6341
▁promo	-10.6342
cial	-10.6345
اً	-10.6345
nga	-10.6349
▁hoe	-10.6351
প	-10.6351
ència	-10.6352
▁bel	-10.6355
▁live	-10.6359
uc	-10.636
▁main	-10.6364
ender	-10.6371
▁Бу	-10.6371
gh	-10.6373
amos	-10.6376
▁hiyo	-10.6377
▁izango	-10.6378
▁pala	-10.6381
▁Parti	-10.6381
ním	-10.6383
▁મ	-10.6386
▁ito	-10.6387
▁làm	-10.6389
▁қа	-10.6389
mai	-10.639
▁But	-10.6391
▁עם	-10.6391
side	-10.6394
▁MB	-10.6395
▁United	-10.6395
bot	-10.6399
дзе	-10.6399
▁Anti	-10.64
电	-10.64
ča	-10.64
▁sont	-10.64
▁56	-10.6401
0.0	-10.6401
yin	-10.6402
▁IP	-10.6405
εί	-10.6408
▁Neu	-10.6412
llo	-10.6414
ુ	-10.6417
ον	-10.6418
▁Read	-10.642
ад	-10.6421
tika	-10.6422
▁Bag	-10.6423
▁India	-10.6424
▁54	-10.6426
▁Gal	-10.6427
ciones	-10.6429
▁2004	-10.6435
▁več	-10.6441
▁mp	-10.6442
ការ	-10.6443
▁Ə	-10.6444
usa	-10.6444
▁cum	-10.6444
/5	-10.6444
▁ở	-10.6444
▁μ	-10.6445
▁ш	-10.6445
▁ди	-10.6447
▁tie	-10.6447
▁nahi	-10.6448
▁Gre	-10.6449
公司	-10.645
atie	-10.645
ף	-10.6451
ער	-10.6454
▁original	-10.6455
abil	-10.6455
Lo	-10.6457
ಗ	-10.646
ió	-10.6466
că	-10.6467
Ф	-10.6469
inių	-10.6469
▁BA	-10.647
▁Over	-10.647
ос	-10.6472
iel	-10.6476
▁ple	-10.6478
▁Hot	-10.6479
ૂ	-10.6481
▁дека	-10.6482
ուն	-10.6488
nden	-10.6488
▁inform	-10.6488
AT	-10.649
▁Green	-10.6491
imiz	-10.6492
BB	-10.6496
ligi	-10.6498
▁book	-10.6499
Э	-10.6499
bad	-10.65
得	-10.65
▁или	-10.65
în	-10.6506
▁Damen	-10.6511
cé	-10.6511
ulan	-10.6512
ema	-10.6512
bir	-10.6512
iert	-10.6515
ನ್	-10.6515
▁hij	-10.6515
-20	-10.6515
▁mula	-10.6521
ট	-10.6522
▁HP	-10.6522
isen	-10.6523
▁zuen	-10.6523
rer	-10.6526
lerin	-10.653
anka	-10.6532
ieren	-10.6539
ства	-10.6545
94	-10.6549
▁מה	-10.6549
▁hulle	-10.655
ẹ	-10.655
▁Paris	-10.6551
▁mange	-10.6551
▁Sar	-10.6552
έ	-10.6552
ция	-10.6553
igh	-10.6555
▁jam	-10.6561
TC	-10.6561
ություն	-10.6562
ric	-10.6563
mbang	-10.6568
▁cer	-10.6569
live	-10.657
St	-10.6571
▁دو	-10.6574
▁бир	-10.6577
werk	-10.6578
ουν	-10.6583
▁tə	-10.6584
ይ	-10.6584
▁ši	-10.6585
▁str	-10.6585
「	-10.6586
-8	-10.6587
tig	-10.6587
▁þess	-10.6588
back	-10.6588
▁2.0	-10.6595
▁Ú	-10.6596
号	-10.6596
pic	-10.6597
dh	-10.6597
▁nje	-10.6601
▁20.	-10.6602
▁Women	-10.6604
").	-10.6604
▁2019.	-10.6605
him	-10.6606
▁800	-10.6608
▁hel	-10.6615
ém	-10.6616
▁گ	-10.6618
▁December	-10.6624
tain	-10.6627
▁would	-10.6628
▁سال	-10.6631
▁multi	-10.6632
ของ	-10.6637
2020	-10.6638
ձ	-10.6639
rian	-10.6641
ση	-10.6641
▁nous	-10.6644
你	-10.6647
დ	-10.6649
▁trên	-10.6649
ట	-10.6651
fla	-10.6652
▁Yo	-10.6653
▁Up	-10.6654
wu	-10.6656
▁ME	-10.6658
▁hele	-10.666
▁کیا	-10.6663
sjon	-10.6664
900	-10.6664
▁ISBN	-10.6664
▁integr	-10.6667
▁support	-10.6667
ઓ	-10.6671
▁baik	-10.6673
▁21.	-10.6673
nova	-10.6674
-03	-10.6675
ස	-10.6677
ие	-10.6678
jak	-10.6679
▁pare	-10.6679
民	-10.668
▁Ev	-10.6681
▁här	-10.6682
▁Produkt	-10.6683
▁ہو	-10.6683
▁wird	-10.6683
தி	-10.6684
yer	-10.6684
ния	-10.6684
ða	-10.6685
tare	-10.6685
▁இ	-10.6686
ppen	-10.6687
▁Β	-10.6689
ame	-10.669
▁só	-10.669
▁има	-10.6696
bis	-10.6699
▁ಸ	-10.6701
▁Motor	-10.6702
mad	-10.6705
bli	-10.6707
ి	-10.6707
در	-10.6708
▁(4	-10.6711
rou	-10.6713
▁TL	-10.6713
▁Tour	-10.6714
eira	-10.6718
▁vet	-10.6719
▁Juli	-10.6723
」	-10.6725
▁já	-10.6726
borg	-10.6729
mata	-10.673
▁helt	-10.6731
rot	-10.6731
BE	-10.6734
taj	-10.6736
ред	-10.6739
▁weer	-10.6741
▁Ц	-10.6742
▁band	-10.6742
σ	-10.6743
lıq	-10.6743
▁br	-10.6746
tang	-10.6747
reg	-10.6747
یل	-10.6749
nego	-10.675
▁53	-10.6751
ె	-10.6751
73	-10.6754
dit	-10.6755
idades	-10.6755
▁fre	-10.6756
▁maga	-10.676
▁Mei	-10.676
▁chat	-10.6761
ಡ	-10.6762
را	-10.6767
▁two	-10.6769
ਟ	-10.677
oh	-10.6772
يد	-10.6773
▁ха	-10.6777
▁hann	-10.6778
6%	-10.6781
▁gy	-10.6781
Si	-10.6782
став	-10.6783
▁andre	-10.6784
yor	-10.6785
▁bun	-10.6786
MS	-10.6787
arra	-10.6789
selected	-10.6789
נת	-10.679
▁ж	-10.6792
▁cri	-10.6795
ೂ	-10.6799
▁Music	-10.6799
▁mari	-10.6802
▁Power	-10.6807
ለ	-10.6808
მა	-10.6808
ដ	-10.681
▁cas	-10.6812
▁ಬ	-10.6813
▁osa	-10.6813
fra	-10.6814
▁lot	-10.6814
▁przez	-10.6815
▁8,	-10.6816
▁BE	-10.682
или	-10.6826
તા	-10.6828
▁ST	-10.683
▁sel	-10.6832
kaz	-10.6832
▁kop	-10.6832
▁kai	-10.6833
ría	-10.6834
▁మ	-10.6836
nor	-10.6839
Con	-10.6844
ను	-10.6845
Ա	-10.6845
▁poli	-10.6848
ರು	-10.6852
▁volt	-10.6854
uba	-10.6856
ന്‍	-10.6858
dul	-10.6858
▁black	-10.6858
ன	-10.6858
plat	-10.6859
ій	-10.686
bank	-10.686
▁ти	-10.6861
▁ક	-10.6864
ND	-10.6865
web	-10.6866
▁Ал	-10.6867
▁То	-10.6867
保	-10.6869
▁Cara	-10.687
ern	-10.6872
inės	-10.6878
▁Long	-10.6882
色	-10.6882
▁Pie	-10.6883
hla	-10.6885
ог	-10.6886
eix	-10.6889
dus	-10.6891
意	-10.6892
nummer	-10.6894
mé	-10.6896
ас	-10.6897
Ш	-10.6897
▁Shi	-10.6898
ód	-10.6898
▁čas	-10.6899
pul	-10.6899
жи	-10.69
ké	-10.6902
▁Bad	-10.6905
die	-10.6906
alis	-10.6907
ټ	-10.6907
▁chu	-10.6907
▁denne	-10.6911
non	-10.6912
▁centro	-10.6914
150	-10.6919
mand	-10.692
수	-10.6921
əm	-10.6921
teen	-10.6922
▁Мо	-10.6925
▁Во	-10.6929
▁rep	-10.6932
▁nhất	-10.694
-07-	-10.6941
2%	-10.6941
άν	-10.6941
▁kont	-10.6941
▁valor	-10.6943
kes	-10.6944
▁business	-10.6945
jä	-10.6945
ус	-10.6946
▁دانلود	-10.6947
▁gen	-10.6948
▁جو	-10.6949
Ç	-10.6949
odi	-10.695
他	-10.6951
ään	-10.6952
▁хо	-10.6952
ging	-10.6952
فر	-10.6954
▁22.	-10.696
▁Gro	-10.696
▁Ко	-10.696
▁Brasil	-10.6961
ize	-10.6961
▁ս	-10.6962
▁rec	-10.6962
▁svar	-10.6963
λε	-10.6964
ած	-10.6966
▁kategori	-10.6966
▁Wy	-10.6968
لي	-10.6968
ি	-10.697
▁ор	-10.697
yle	-10.6971
0.00	-10.6972
kari	-10.6972
▁zna	-10.6972
▁գ	-10.6974
▁Yang	-10.6976
DS	-10.6977
SO	-10.6977
83	-10.6977
▁selle	-10.6978
kup	-10.6978
▁goed	-10.6981
abi	-10.6981
▁ও	-10.6983
box	-10.6983
▁werk	-10.6985
店	-10.6985
ON	-10.6986
ா	-10.6986
▁year	-10.6988
▁ग	-10.6988
nym	-10.6988
▁einen	-10.6988
OR	-10.6992
해	-10.6994
▁Ram	-10.6997
-7	-10.6998
▁95	-10.6999
larının	-10.7003
ual	-10.7004
▁general	-10.7007
▁komp	-10.7007
ಸ್	-10.7009
▁joka	-10.701
▁Wikipedia	-10.7016
▁Sub	-10.7022
▁mus	-10.7023
Pre	-10.7024
asyon	-10.7025
Ge	-10.7029
RO	-10.7029
lip	-10.703
ever	-10.7032
ám	-10.7032
▁UK	-10.7033
siya	-10.7033
нов	-10.7034
cen	-10.7035
▁úr	-10.7036
ANA	-10.7036
▁blo	-10.7038
llen	-10.7039
hotel	-10.7039
แ	-10.7039
ünk	-10.7041
▁Net	-10.7042
▁що	-10.7043
▁súa	-10.7043
▁open	-10.7047
▁Som	-10.7047
▁tip	-10.705
ី	-10.7052
En	-10.7053
화	-10.7055
▁че	-10.7056
ып	-10.7059
▁Data	-10.706
ნა	-10.7066
▁72	-10.7066
▁ಪ	-10.7068
medi	-10.7069
▁text	-10.707
▁gera	-10.7071
cions	-10.7071
▁ব	-10.7076
ា	-10.7077
sus	-10.7081
gil	-10.7082
ñ	-10.7082
గ	-10.7083
▁news	-10.7084
ای	-10.7087
mani	-10.7088
лю	-10.709
▁pře	-10.709
eria	-10.7091
▁apar	-10.7091
mā	-10.7091
动	-10.7091
fri	-10.7094
▁số	-10.7094
ningar	-10.7096
▁nhiều	-10.7098
▁Vy	-10.7099
PR	-10.7101
MO	-10.7101
▁અને	-10.7104
▁Multi	-10.7104
▁ara	-10.7105
▁xwe	-10.7106
▁т	-10.7106
chod	-10.7107
ník	-10.7107
▁【	-10.7111
▁જ	-10.7116
▁Mü	-10.7116
view	-10.7117
▁प्र	-10.7117
ích	-10.7118
位	-10.7122
gad	-10.7123
ಲ್	-10.7127
台	-10.7129
ց	-10.7133
▁hafa	-10.7135
▁gang	-10.7136
▁når	-10.7138
ू	-10.7142
ming	-10.7142
esta	-10.7146
▁آن	-10.7146
IM	-10.7148
▁Lan	-10.715
த்த	-10.7153
mission	-10.7154
tera	-10.7157
▁پی	-10.7157
▁рас	-10.7157
Α	-10.7159
hé	-10.716
▁επι	-10.7162
ξ	-10.7163
lərin	-10.7165
ण	-10.7167
مر	-10.7167
رو	-10.7169
iniai	-10.717
pra	-10.717
vez	-10.7171
×	-10.7172
▁ನ	-10.7172
▁play	-10.7172
ட	-10.7173
lás	-10.7174
ovať	-10.7175
iek	-10.7176
▁aber	-10.7178
NO	-10.7183
ać	-10.7188
▁histori	-10.7192
▁સ	-10.7192
CD	-10.7193
▁sor	-10.7194
LI	-10.7194
buru	-10.7195
ҳо	-10.7196
▁Stra	-10.72
▁look	-10.72
taa	-10.7201
▁κ	-10.7207
మ	-10.7207
▁English	-10.7208
▁بن	-10.7212
תי	-10.7212
▁mur	-10.7213
▁Ing	-10.7215
ony	-10.7216
bed	-10.7219
ane	-10.7219
δ	-10.7221
-01-	-10.7222
▁Gel	-10.7223
▁Mart	-10.7226
▁Est	-10.7226
实	-10.7232
iai	-10.7233
riz	-10.7233
▁pang	-10.7235
▁proces	-10.7236
-15	-10.7238
▁lai	-10.7238
etta	-10.7239
▁Center	-10.7239
▁Ass	-10.724
아	-10.7241
rig	-10.7242
gri	-10.7243
▁tel	-10.7245
mie	-10.7247
▁London	-10.7247
ස්	-10.7247
业	-10.7248
去	-10.725
▁take	-10.725
▁CON	-10.725
▁ora	-10.725
ugu	-10.725
રી	-10.7251
mun	-10.7252
▁Out	-10.7253
▁līdz	-10.7254
工作	-10.7256
▁zaman	-10.7257
▁ин	-10.7257
টি	-10.7259
ტ	-10.7265
rri	-10.7267
ши	-10.7274
ప	-10.7277
而	-10.7282
тен	-10.7283
igt	-10.7283
''	-10.7283
▁180	-10.7284
lk	-10.7285
▁February	-10.7289
▁pis	-10.7291
ување	-10.7292
2009	-10.7294
ਾ	-10.7294
▁Jul	-10.7295
its	-10.7296
▁partir	-10.7301
▁الا	-10.7301
Ц	-10.7301
阳	-10.7303
वा	-10.7304
ут	-10.7304
▁δια	-10.7304
▁savo	-10.7305
ջ	-10.7307
isch	-10.7307
eza	-10.7308
▁58	-10.7308
sul	-10.7314
▁shu	-10.7315
▁ע	-10.7315
mur	-10.7315
▁Ž	-10.7317
▁kum	-10.7319
PI	-10.732
vien	-10.7323
ತ	-10.7324
▁nor	-10.7326
▁የ	-10.7326
▁secara	-10.7327
пер	-10.7327
▁Part	-10.7328
kre	-10.7331
▁Radio	-10.7332
HD	-10.7334
dol	-10.7336
ώ	-10.7339
▁Ч	-10.734
▁prej	-10.7341
▁Hotels	-10.7341
gl	-10.7342
ıl	-10.7344
siz	-10.7344
ય	-10.7345
▁Nord	-10.7345
ļ	-10.7348
▁aux	-10.7351
press	-10.7354
▁প	-10.7354
ojn	-10.7354
▁Ball	-10.7356
kii	-10.7356
▁ça	-10.7357
▁Cla	-10.7358
▁kaip	-10.7362
NG	-10.7362
▁ਦੀ	-10.7364
анд	-10.7365
RA	-10.7366
ches	-10.7366
ոն	-10.7367
▁Tal	-10.7367
ได้	-10.7369
▁natural	-10.737
င္	-10.737
▁như	-10.7372
女	-10.7375
kai	-10.7375
▁Gor	-10.7375
рат	-10.7383
▁Lei	-10.7383
▁andere	-10.7385
dele	-10.7385
▁store	-10.7387
žu	-10.7392
▁dra	-10.7393
▁Þ	-10.7393
▁eftir	-10.7393
ນ	-10.7397
lė	-10.7398
▁11,	-10.7404
نے	-10.7406
kie	-10.7406
/4	-10.7407
iyo	-10.7407
▁Tá	-10.7408
▁kamp	-10.7409
▁tres	-10.7412
assa	-10.7416
▁Sant	-10.7418
▁kala	-10.7425
▁ame	-10.7427
cos	-10.7429
▁یک	-10.743
Υ	-10.7432
▁Kul	-10.7433
zim	-10.7433
IO	-10.7434
git	-10.7439
▁week	-10.744
▁samo	-10.7441
ம	-10.7441
EM	-10.7441
وب	-10.7442
ਚ	-10.7447
▁noch	-10.7448
▁Islam	-10.7448
ole	-10.7449
lja	-10.745
量	-10.7451
▁Vin	-10.7451
▁För	-10.7453
ത്ത	-10.7454
ļu	-10.7454
▁Rec	-10.7454
sä	-10.7457
▁syn	-10.746
առ	-10.7461
mä	-10.7461
▁FC	-10.7463
Com	-10.7465
▁tout	-10.7466
raj	-10.7468
▁huo	-10.7468
▁vz	-10.7469
kken	-10.747
product	-10.7472
▁Со	-10.7472
4%	-10.7473
▁high	-10.7473
报	-10.7474
正	-10.7474
重	-10.7479
শ	-10.748
ной	-10.7482
text	-10.7482
▁ז	-10.7483
▁Group	-10.7483
ава	-10.7487
▁kel	-10.7487
LA	-10.749
▁fast	-10.7491
▁você	-10.7492
istä	-10.7496
▁Bat	-10.7498
ली	-10.7499
▁я	-10.75
▁Page	-10.75
ੋ	-10.7504
pit	-10.7506
imet	-10.7507
CH	-10.7507
WA	-10.7508
▁62	-10.7508
sub	-10.7509
nam	-10.751
▁ugu	-10.7511
él	-10.7514
ده	-10.7514
▁23.	-10.7515
▁99	-10.7515
cil	-10.7516
Mi	-10.752
▁grande	-10.7521
jā	-10.7527
нес	-10.7528
دار	-10.7528
▁Mis	-10.7529
HI	-10.7533
ağı	-10.7536
ových	-10.7537
etti	-10.7539
alka	-10.7539
дин	-10.7539
▁Galicia	-10.7543
▁deur	-10.7544
ൂ	-10.7544
anya	-10.7545
▁Xa	-10.7546
ပ	-10.7549
상	-10.7549
ną	-10.755
ების	-10.755
▁Ant	-10.7555
2010	-10.7557
▁nye	-10.7559
blog	-10.7559
▁9,	-10.7564
ades	-10.7567
▁Wo	-10.7568
ική	-10.7569
мі	-10.7569
ři	-10.7571
▁solo	-10.7573
▁MI	-10.7574
content	-10.7574
rdi	-10.7575
▁peng	-10.7581
langan	-10.7583
FA	-10.7584
▁adres	-10.7584
▁CA	-10.7584
▁č	-10.7586
اح	-10.7586
▁üle	-10.7587
ност	-10.7587
▁Social	-10.7588
▁Esta	-10.7588
ār	-10.7592
▁III	-10.7598
tiv	-10.7598
spec	-10.7599
▁(5	-10.7601
ะ	-10.7604
Ko	-10.7604
加	-10.7606
▁Jak	-10.7606
回	-10.7607
LO	-10.7609
▁instal	-10.761
▁Ս	-10.7612
イ	-10.7616
UN	-10.7617
uki	-10.7618
nel	-10.7619
ttu	-10.762
ιο	-10.7621
▁અ	-10.7621
מה	-10.7626
oro	-10.7626
weg	-10.7626
ив	-10.7628
▁Ng	-10.7633
▁buvo	-10.7636
dk	-10.7636
▁dụng	-10.7638
fall	-10.7639
Jo	-10.7646
▁Forum	-10.7648
▁etc	-10.765
及	-10.765
sun	-10.7651
qo	-10.7653
vie	-10.7654
▁Que	-10.7656
Č	-10.7657
▁الح	-10.7665
ோ	-10.7666
من	-10.7668
BO	-10.7669
щ	-10.7669
▁Untuk	-10.7669
▁বি	-10.767
-18	-10.767
çı	-10.7671
tā	-10.7673
רי	-10.7675
иб	-10.7682
ມ	-10.7682
kim	-10.7685
uks	-10.7685
▁bé	-10.7687
▁ned	-10.769
▁vagy	-10.7692
Σ	-10.7695
નો	-10.7696
▁Peter	-10.7699
▁görə	-10.7701
▁προ	-10.7701
250	-10.7701
▁urte	-10.7702
▁nr	-10.7706
lē	-10.7708
▁Trump	-10.7711
▁Bak	-10.7712
▁Dom	-10.7714
мат	-10.7716
lerini	-10.7716
ders	-10.7717
▁digital	-10.772
▁cy	-10.772
▁kir	-10.7722
▁ಆ	-10.7724
▁mà	-10.7724
전	-10.7726
]]	-10.7726
▁geen	-10.7729
div	-10.7729
ហ	-10.773
▁110	-10.7731
▁Bil	-10.7735
IG	-10.7741
iet	-10.7741
اق	-10.7743
▁رو	-10.7744
内	-10.7745
▁important	-10.7745
зе	-10.7746
▁Game	-10.7746
▁aktiv	-10.7748
▁οι	-10.7748
eer	-10.7749
verk	-10.7749
ojë	-10.7757
▁Ren	-10.7757
oč	-10.7758
ый	-10.7759
Ó	-10.7762
querySelectorAll	-10.7766
▁ג	-10.7768
▁ngày	-10.7768
ві	-10.777
ına	-10.777
▁persona	-10.7771
구	-10.7773
▁alebo	-10.7775
▁ktoré	-10.7779
oti	-10.7779
▁eða	-10.778
KS	-10.7782
▁biz	-10.7782
▁kart	-10.7789
ário	-10.779
ating	-10.7793
▁porta	-10.7793
▁vit	-10.7797
▁ал	-10.7797
τη	-10.7798
▁Een	-10.7799
▁över	-10.78
AH	-10.7801
▁registr	-10.7803
лов	-10.7803
իկ	-10.7804
গ	-10.7805
▁Open	-10.7808
jó	-10.7808
roz	-10.7809
dá	-10.781
щи	-10.781
▁vill	-10.7812
▁camp	-10.7814
hold	-10.7816
▁spel	-10.7817
▁2003	-10.7817
▁bed	-10.7818
房	-10.782
аль	-10.7821
▁kunnen	-10.7827
aro	-10.7828
viet	-10.7829
ала	-10.783
ини	-10.7832
burg	-10.7832
kti	-10.7835
▁april	-10.7836
▁czy	-10.7836
700	-10.784
hra	-10.784
ვ	-10.784
ús	-10.7841
▁dokument	-10.7841
▁such	-10.7848
bare	-10.7848
▁through	-10.7851
▁VI	-10.7852
▁Rock	-10.7852
/1	-10.7853
▁Ա	-10.7855
▁տ	-10.786
ני	-10.7861
ити	-10.7861
▁може	-10.7862
▁י	-10.7863
▁diri	-10.7863
more	-10.7866
▁പ	-10.7868
▁great	-10.7868
έρ	-10.7871
ە	-10.7871
▁know	-10.7873
hari	-10.7873
dl	-10.7877
يل	-10.7877
heit	-10.7879
▁Res	-10.788
-11	-10.7881
ї	-10.7882
zza	-10.7883
:1	-10.7883
AF	-10.7885
slag	-10.7885
十	-10.7885
▁Europe	-10.789
▁disa	-10.7891
▁student	-10.7891
▁же	-10.7893
▁både	-10.7893
▁bonus	-10.7893
բ	-10.7894
▁experience	-10.7894
▁Office	-10.7895
জ	-10.7896
▁bị	-10.7898
gol	-10.7902
KO	-10.7902
성	-10.7903
▁mang	-10.7904
▁ис	-10.7906
▁ഇ	-10.7907
▁Shop	-10.7908
▁py	-10.791
▁ideal	-10.791
oka	-10.791
entes	-10.7911
fik	-10.7914
tà	-10.7916
▁ovat	-10.7918
تر	-10.7919
▁lub	-10.7922
klad	-10.7925
mont	-10.7927
▁ਹੈ	-10.7937
▁page	-10.7937
▁IT	-10.7937
▁Tam	-10.7939
lg	-10.7941
▁lin	-10.7943
maa	-10.7944
ить	-10.7944
▁lá	-10.7945
▁National	-10.7951
▁stil	-10.7952
MI	-10.7956
▁ven	-10.7956
无	-10.7957
</	-10.7957
ත	-10.7959
uu	-10.7961
▁mundo	-10.7962
וח	-10.7963
▁გა	-10.7964
ана	-10.7972
程	-10.7972
ء	-10.7975
▁samt	-10.7975
tab	-10.7977
▁vào	-10.7977
eerd	-10.798
▁hen	-10.798
asan	-10.7983
ments	-10.7983
る	-10.7984
ום	-10.7984
най	-10.7987
被	-10.7987
gio	-10.7988
▁dette	-10.7989
▁88	-10.799
▁case	-10.7991
jú	-10.7991
▁einem	-10.7992
▁Cur	-10.7994
▁brand	-10.7997
▁TO	-10.7998
▁роз	-10.7999
BC	-10.8001
▁કે	-10.8002
▁sér	-10.8002
▁Το	-10.8003
aug	-10.8004
ена	-10.8008
▁há	-10.8008
▁after	-10.8009
ща	-10.8009
lgan	-10.8011
but	-10.8011
այ	-10.8011
▁Print	-10.8012
▁ε	-10.8012
▁pur	-10.8016
بي	-10.802
▁finns	-10.8022
ទ	-10.803
ical	-10.803
▁pop	-10.8032
gno	-10.8034
▁class	-10.8034
▁popular	-10.8034
ເ	-10.8037
▁teh	-10.8037
▁parë	-10.8038
uste	-10.8039
으로	-10.8041
stav	-10.8043
▁apie	-10.8046
▁naman	-10.8048
vali	-10.8054
▁кор	-10.8055
▁Kun	-10.8056
οι	-10.8056
▁Ре	-10.8056
اج	-10.8057
▁function	-10.8061
elli	-10.8062
ಣ	-10.8062
▁Gold	-10.8065
ග	-10.8066
span	-10.8067
▁Việt	-10.8067
▁Non	-10.807
▁Island	-10.8071
های	-10.8071
CC	-10.8071
▁Big	-10.8073
ihin	-10.8074
أ	-10.8075
▁sing	-10.8075
▁năm	-10.8076
Da	-10.8076
tii	-10.8076
tze	-10.8083
-05	-10.8084
Ж	-10.8084
▁(5)	-10.8084
Ver	-10.8086
եց	-10.8089
▁Fra	-10.809
▁toimi	-10.8092
tou	-10.8094
▁process	-10.8095
liz	-10.8096
ிய	-10.8099
▁seva	-10.8104
▁vie	-10.8115
▁much	-10.8115
rp	-10.8116
▁10,	-10.8117
יות	-10.8118
ATA	-10.8118
స	-10.8119
2011	-10.812
atori	-10.8122
▁publik	-10.8123
аш	-10.8123
یه	-10.8125
PE	-10.8125
ես	-10.8125
נות	-10.8126
▁erre	-10.8127
▁đầu	-10.8127
▁59	-10.8128
▁Kara	-10.8128
▁badan	-10.8131
▁membuat	-10.8134
▁Form	-10.8135
▁Live	-10.8136
▁بی	-10.8138
▁product	-10.814
▁mara	-10.8144
▁ම	-10.8146
型	-10.8147
kl	-10.8148
lina	-10.8148
ном	-10.8149
▁momento	-10.8156
arekin	-10.8156
bran	-10.8157
▁durante	-10.8159
▁hul	-10.8159
-9	-10.816
না	-10.8161
这	-10.8161
か	-10.8164
ování	-10.8166
jung	-10.8167
▁kontrol	-10.8168
oor	-10.8169
раз	-10.817
โ	-10.8172
▁kok	-10.8173
リ	-10.8174
▁klas	-10.8175
▁pola	-10.8176
▁δ	-10.8176
▁క	-10.8177
▁Bet	-10.8178
▁Ara	-10.8179
წ	-10.818
▁Galaxy	-10.818
์	-10.8181
bek	-10.8182
▁sum	-10.8183
last	-10.8183
▁Kha	-10.8187
▁ef	-10.8193
▁Rad	-10.8194
▁ай	-10.8195
▁Mont	-10.8197
▁ने	-10.8197
ας	-10.8198
▁Kra	-10.82
平台	-10.8202
▁mult	-10.8202
lock	-10.8203
▁tun	-10.8204
Car	-10.8206
uose	-10.8208
▁stran	-10.8209
-06	-10.8209
▁66	-10.821
▁12,	-10.8211
나	-10.8211
▁gas	-10.8211
τι	-10.8212
kg	-10.8214
ті	-10.8217
▁sí	-10.8217
izi	-10.8218
器	-10.8219
▁기	-10.8224
▁dass	-10.8226
▁ide	-10.8226
▁töö	-10.8229
▁पर	-10.823
▁Show	-10.823
▁jsou	-10.8231
▁ک	-10.8232
▁nej	-10.8232
اه	-10.8232
▁69	-10.8233
▁ant	-10.8234
ism	-10.8234
▁PDF	-10.8234
▁sản	-10.8235
mini	-10.8237
ient	-10.8239
ами	-10.8239
inə	-10.8239
▁kort	-10.824
▁Dal	-10.824
▁number	-10.8241
hara	-10.8242
▁siya	-10.8243
GE	-10.8244
டி	-10.8245
цы	-10.8247
pē	-10.8248
▁GB	-10.8248
▁አ	-10.8249
baar	-10.8253
gus	-10.8253
θε	-10.8255
video	-10.8257
▁67	-10.8258
▁firma	-10.826
ಹ	-10.826
lav	-10.8261
▁teen	-10.8263
cı	-10.8263
▁نہیں	-10.8265
نس	-10.8266
nus	-10.8269
ণ	-10.8271
ME	-10.8271
iran	-10.8275
▁전	-10.8278
▁sme	-10.8279
▁Aug	-10.8279
▁Medi	-10.828
▁fet	-10.8283
రు	-10.8283
ສ	-10.8285
dt	-10.8286
prav	-10.8286
LU	-10.8288
▁Я	-10.8288
nnen	-10.829
▁Business	-10.8293
vre	-10.8293
ગ	-10.8294
nir	-10.8298
WE	-10.8298
▁Kr	-10.8299
下载	-10.83
▁MO	-10.83
▁usa	-10.8301
▁Cy	-10.8301
þ	-10.8302
▁Amb	-10.8302
▁seda	-10.8303
inis	-10.8303
hand	-10.8303
▁Kim	-10.8304
▁sezon	-10.8305
着	-10.8306
▁Τ	-10.8307
ektor	-10.8308
▁RO	-10.831
ungs	-10.831
▁φ	-10.8311
▁pré	-10.8311
▁ref	-10.8313
▁popul	-10.8314
cja	-10.8315
mış	-10.8315
▁bai	-10.8316
ιν	-10.8316
▁2017,	-10.8317
rica	-10.8317
کی	-10.8317
▁fri	-10.8317
▁כל	-10.8319
INA	-10.8319
ая	-10.832
▁poder	-10.832
ек	-10.8322
tuar	-10.8323
ດ	-10.8326
üm	-10.8327
二	-10.8328
▁propos	-10.8331
부	-10.8333
ός	-10.8333
bung	-10.8335
rata	-10.8336
▁tiek	-10.8337
Ε	-10.8342
▁many	-10.8343
요	-10.8344
▁স	-10.8347
▁57	-10.8349
stat	-10.8349
illo	-10.8349
radi	-10.8351
▁human	-10.8351
GC	-10.8352
2014	-10.8353
▁fond	-10.8354
יי	-10.8354
ائی	-10.8354
▁France	-10.8355
ír	-10.8355
▁Ft	-10.8356
šu	-10.8359
പ	-10.836
▁Latvijas	-10.8361
FF	-10.8361
кон	-10.8362
ати	-10.8362
SK	-10.8363
▁sim	-10.8364
čen	-10.8365
▁Де	-10.8366
յան	-10.8368
cara	-10.8372
▁Microsoft	-10.8375
▁Ná	-10.8376
сі	-10.8376
▁Sko	-10.8376
▁Bed	-10.8376
sio	-10.8376
▁çox	-10.8377
čio	-10.8377
mina	-10.8378
▁välja	-10.8379
ikka	-10.8379
rra	-10.838
OT	-10.8381
mul	-10.8382
▁الب	-10.8386
лык	-10.8389
tsa	-10.8394
wing	-10.8394
bab	-10.8395
bili	-10.8396
नी	-10.8398
▁Oo	-10.8399
▁går	-10.8399
gs	-10.84
▁ilk	-10.8402
jad	-10.8403
դ	-10.8403
▁gia	-10.8404
▁Camp	-10.8405
▁چ	-10.8405
bag	-10.8405
iq	-10.8406
진	-10.8406
▁Inc	-10.8408
ി	-10.841
itz	-10.841
▁sent	-10.8417
▁merupakan	-10.8417
ight	-10.842
lly	-10.842
▁ми	-10.8421
ingar	-10.8424
(":	-10.8424
iba	-10.8425
ние	-10.8425
▁ras	-10.8426
▁sar	-10.8426
▁ekonomi	-10.8427
▁gai	-10.8427
eau	-10.8428
▁hiện	-10.8429
ී	-10.8431
tö	-10.8433
▁rumah	-10.8435
▁ön	-10.8438
ορ	-10.8443
▁க	-10.8444
uran	-10.8448
့	-10.8449
אַ	-10.845
相	-10.8451
▁second	-10.8452
nza	-10.8455
ति	-10.8456
▁SO	-10.8457
okat	-10.8458
▁mehr	-10.8458
iwa	-10.8459
ał	-10.8459
▁ته	-10.8462
▁വ	-10.8465
AR	-10.8466
park	-10.8468
▁až	-10.8468
▁Fer	-10.8468
eke	-10.8468
PC	-10.8469
▁smo	-10.8471
ď	-10.8471
▁Las	-10.8471
kri	-10.8472
▁Malaysia	-10.8473
▁Qa	-10.8476
▁13,	-10.8478
▁Berlin	-10.8478
▁ਨੂੰ	-10.8478
serv	-10.8479
▁novo	-10.8479
▁standard	-10.8479
▁bad	-10.8481
liv	-10.8483
▁Program	-10.8483
sinin	-10.8484
inė	-10.8487
▁Kit	-10.8489
▁wi	-10.8492
għ	-10.8496
▁mesmo	-10.8496
▁které	-10.8496
ี	-10.8498
NS	-10.8503
▁etter	-10.8504
zwa	-10.8505
▁kuma	-10.8508
ҳои	-10.8508
▁Italia	-10.8508
▁съ	-10.851
▁kau	-10.8512
tuur	-10.8512
care	-10.8513
hti	-10.8514
kami	-10.8515
▁tom	-10.8516
fre	-10.8516
ós	-10.8517
ß	-10.8518
chy	-10.852
dė	-10.852
▁אי	-10.8521
buk	-10.8523
▁einer	-10.8523
Su	-10.8525
rib	-10.8527
▁Telefon	-10.8528
▁line	-10.8529
pus	-10.853
元	-10.853
▁аз	-10.8531
▁motiv	-10.8532
cip	-10.8535
iche	-10.8538
ဆ	-10.8538
cional	-10.8539
▁61	-10.854
情	-10.8542
▁vas	-10.8542
ല്‍	-10.8543
02.	-10.8545
saysay	-10.8545
▁lig	-10.8546
▁present	-10.8547
▁Grand	-10.8548
▁Street	-10.8548
ITA	-10.8548
▁kultur	-10.8549
wp	-10.8553
▁harus	-10.8553
▁tā	-10.8554
▁sang	-10.8555
dagi	-10.8556
▁हो	-10.8557
LT	-10.8557
▁ili	-10.8557
▁dating	-10.8557
ppe	-10.8557
سم	-10.8558
ivi	-10.8558
▁þar	-10.8558
ያ	-10.8558
")	-10.8558
▁työ	-10.8559
kı	-10.856
JE	-10.8561
kite	-10.8561
▁these	-10.8563
avo	-10.8564
sze	-10.8564
▁mutta	-10.8565
▁check	-10.8565
ара	-10.8565
▁پاکستان	-10.8565
▁Gran	-10.8571
од	-10.8572
▁һәм	-10.8573
isse	-10.8574
▁wil	-10.8574
▁động	-10.8575
作	-10.8576
▁coa	-10.8576
unu	-10.8578
.....	-10.858
ено	-10.8582
ión	-10.8582
▁informa	-10.8583
▁futbol	-10.8585
bt	-10.8586
▁barn	-10.8588
nah	-10.8588
្	-10.8588
hle	-10.8589
jn	-10.8589
šo	-10.8591
▁ég	-10.8595
▁ще	-10.8595
▁Dé	-10.8596
▁suo	-10.8601
▁say	-10.8603
▁View	-10.8604
▁muito	-10.8604
ľ	-10.8605
▁მო	-10.8605
▁email	-10.8606
Ú	-10.861
დი	-10.861
▁thu	-10.8612
▁yi	-10.8613
αρ	-10.8614
▁neu	-10.8615
IK	-10.8616
▁price	-10.8617
▁beberapa	-10.8618
lles	-10.8623
vos	-10.8624
եւ	-10.8624
öv	-10.8627
▁sə	-10.863
▁laga	-10.863
北	-10.8632
Ho	-10.8632
▁produktu	-10.8632
ват	-10.8633
▁zur	-10.8634
▁big	-10.8637
arte	-10.864
dob	-10.864
▁tap	-10.8641
▁serta	-10.8644
▁Char	-10.8645
idos	-10.8649
mia	-10.865
▁må	-10.865
jor	-10.8654
BS	-10.8655
▁شده	-10.8657
cji	-10.8657
ości	-10.8659
산	-10.8659
script	-10.866
▁वि	-10.866
▁ata	-10.8662
qe	-10.8663
▁Ken	-10.8665
એ	-10.8665
kot	-10.8669
iana	-10.867
▁Ai	-10.867
રા	-10.867
page	-10.8671
▁mint	-10.8672
PO	-10.8673
not	-10.8673
děl	-10.8674
өр	-10.8677
BI	-10.8678
04.	-10.868
▁Tai	-10.868
mě	-10.8681
▁vien	-10.8682
▁സ	-10.8683
лат	-10.8683
llä	-10.8684
▁arasında	-10.8684
minen	-10.8685
▁pad	-10.8685
▁Cab	-10.8686
▁North	-10.8687
▁Una	-10.8688
▁fakt	-10.8688
门	-10.8688
▁AC	-10.8689
lep	-10.869
▁$1	-10.869
▁Mun	-10.869
יד	-10.869
▁situa	-10.869
▁ಇ	-10.8691
schaft	-10.8691
▁made	-10.8692
UA	-10.8692
▁በ	-10.8693
igo	-10.8695
▁mg	-10.8698
▁բ	-10.87
▁yake	-10.87
▁Restaurant	-10.87
jë	-10.8701
ಗೆ	-10.8702
inni	-10.8702
▁kä	-10.8704
省	-10.8708
slu	-10.871
cri	-10.8711
ों	-10.8711
fek	-10.8712
▁狗万	-10.8713
jt	-10.8714
光	-10.8715
▁Off	-10.8716
վ	-10.8716
所	-10.8716
▁bru	-10.8717
▁Key	-10.8718
stein	-10.8718
ání	-10.8721
menti	-10.8724
▁Digital	-10.8726
▁mens	-10.8727
UP	-10.8728
SH	-10.873
▁Ви	-10.8731
▁vend	-10.8731
tada	-10.8732
▁mad	-10.8733
▁न	-10.8733
▁Wat	-10.8734
nh	-10.8735
▁Jam	-10.8735
ARA	-10.8736
jí	-10.8738
ія	-10.8739
ương	-10.874
▁caso	-10.874
ไ	-10.8741
▁Robert	-10.8741
ийг	-10.8741
label	-10.8743
ван	-10.8743
mez	-10.8743
ണ	-10.8744
▁ES	-10.8745
国际	-10.8748
লা	-10.8748
▁give	-10.8751
హ	-10.8752
동	-10.8755
uja	-10.8756
spor	-10.8756
ρε	-10.8757
হ	-10.8757
мон	-10.8757
▁Ama	-10.8758
lini	-10.8759
sum	-10.8759
tea	-10.8761
ვი	-10.8764
▁mill	-10.8765
fur	-10.8767
▁però	-10.8767
Ş	-10.8767
ggi	-10.8767
▁הת	-10.8768
▁sala	-10.8768
용	-10.8769
נ	-10.8772
tą	-10.8773
▁masih	-10.8774
ić	-10.8774
қа	-10.8774
ությունը	-10.8775
tine	-10.8779
tong	-10.8779
体育	-10.878
יק	-10.8782
ρο	-10.8782
تا	-10.8786
120	-10.8787
ř	-10.8787
说	-10.8789
▁salah	-10.8791
▁file	-10.8793
棋牌	-10.88
mod	-10.8805
elor	-10.881
▁väl	-10.8811
rə	-10.8811
▁Če	-10.8812
110	-10.8812
▁Mem	-10.8813
【	-10.8813
▁Mé	-10.8814
tech	-10.8814
▁University	-10.8815
▁68	-10.8816
▁tako	-10.8819
▁merk	-10.8819
▁På	-10.8821
▁خبر	-10.8822
信	-10.8825
čka	-10.8825
יר	-10.8827
▁Ei	-10.8831
▁δεν	-10.8831
▁record	-10.8832
dek	-10.8833
▁KA	-10.8833
çe	-10.8836
mēr	-10.8836
▁General	-10.8836
lož	-10.8839
▁Ме	-10.884
্য	-10.884
ίας	-10.8841
tza	-10.8842
jum	-10.8842
zés	-10.8842
klar	-10.8843
ստ	-10.8843
ček	-10.8843
▁AR	-10.8846
chten	-10.8848
یا	-10.8848
▁especial	-10.8849
▁đó	-10.885
يت	-10.885
▁bare	-10.885
ына	-10.885
iyor	-10.8852
KI	-10.8855
fund	-10.8856
▁berri	-10.8856
דו	-10.8857
▁ví	-10.8857
ជ	-10.8857
▁وی	-10.8858
န	-10.886
▁life	-10.8862
pdf	-10.8862
▁Apr	-10.8863
▁Wir	-10.8863
ovanie	-10.8863
▁Peng	-10.8864
lyn	-10.8868
▁nap	-10.8871
▁స	-10.8871
pha	-10.8872
պ	-10.8873
UK	-10.8876
زی	-10.8876
say	-10.8877
хи	-10.8878
oš	-10.8878
▁Love	-10.8879
▁Ale	-10.8882
▁Info	-10.8883
▁pret	-10.8883
ög	-10.8884
▁visa	-10.8885
▁27.	-10.8888
▁Festival	-10.8889
оч	-10.8889
voj	-10.889
ним	-10.889
ðu	-10.8893
VO	-10.8894
▁sale	-10.8894
马	-10.8896
▁ප	-10.8896
ім	-10.8897
ης	-10.8898
▁KU	-10.8898
▁esp	-10.8899
▁pic	-10.89
dade	-10.8901
▁пере	-10.8902
▁mah	-10.8903
▁απο	-10.8904
过	-10.8905
可以	-10.8905
lement	-10.8909
▁פ	-10.891
▁77	-10.891
txa	-10.891
EP	-10.8911
▁Spe	-10.8912
▁Main	-10.8916
2013	-10.8919
-08	-10.892
▁Archives	-10.892
menn	-10.8921
աղ	-10.8922
▁vun	-10.8923
ნი	-10.8925
▁év	-10.8926
кан	-10.8927
ελ	-10.8928
kop	-10.8929
imu	-10.893
▁access	-10.8931
▁kamu	-10.8932
▁bola	-10.8933
▁már	-10.8935
网站	-10.8936
▁nii	-10.8938
▁فر	-10.8939
-11-	-10.8942
cra	-10.8943
rna	-10.8944
▁BO	-10.8945
▁hä	-10.8947
Un	-10.8948
▁الج	-10.8948
▁Kel	-10.895
▁kraj	-10.8953
ondo	-10.8954
เป็น	-10.8954
▁tú	-10.8955
▁প্র	-10.8956
▁Sho	-10.8956
בר	-10.8957
五	-10.8958
uzi	-10.8959
гар	-10.896
יים	-10.8961
ستان	-10.8964
▁inclu	-10.8967
grad	-10.8967
▁Test	-10.8968
يات	-10.8969
▁realiz	-10.8972
▁perfect	-10.8972
}}	-10.8973
里	-10.8977
▁uku	-10.8979
ប្រ	-10.8981
▁الق	-10.8981
aldi	-10.8984
üs	-10.8985
ូ	-10.8986
fit	-10.8987
ژ	-10.8989
kort	-10.8989
▁Bri	-10.899
▁questo	-10.8991
EG	-10.8991
▁Се	-10.8992
▁эт	-10.8992
▁begin	-10.8993
▁2018.	-10.8994
▁memiliki	-10.8995
нь	-10.8996
ള	-10.8996
▁kim	-10.8997
ләр	-10.8999
▁غ	-10.9005
ība	-10.9006
▁perlu	-10.9007
IST	-10.9007
nio	-10.9007
ও	-10.901
zat	-10.9011
▁Pat	-10.9011
▁Bus	-10.9014
년	-10.9017
ії	-10.9017
esc	-10.9018
PL	-10.9019
▁LE	-10.9021
▁Բ	-10.9023
Di	-10.9025
Per	-10.9026
kata	-10.9028
▁lí	-10.9028
nna	-10.9029
kö	-10.9029
iteit	-10.903
үү	-10.9031
▁nella	-10.9032
cken	-10.9033
ộ	-10.9036
▁Price	-10.9039
aste	-10.904
ლი	-10.9041
ość	-10.9041
▁dá	-10.9041
▁suka	-10.9042
▁aga	-10.9043
▁Roman	-10.9044
▁ആ	-10.9049
▁ges	-10.9049
ור	-10.905
ավոր	-10.905
ļa	-10.905
▁rol	-10.9051
▁Gratis	-10.9053
▁Anna	-10.9054
▁14,	-10.9055
▁turn	-10.9057
▁saja	-10.9058
lardan	-10.9058
▁ç	-10.906
ု	-10.906
▁그	-10.906
elen	-10.9061
dil	-10.9064
AY	-10.9069
▁sein	-10.9073
▁King	-10.9074
ingu	-10.9078
lere	-10.9078
▁Lake	-10.9079
▁Ini	-10.908
▁Bio	-10.9082
▁Feb	-10.9082
eller	-10.9082
డ	-10.9083
می	-10.9084
פ	-10.9089
▁mam	-10.9091
lec	-10.9094
江	-10.9097
▁familie	-10.9098
▁name	-10.9098
▁аб	-10.91
▁24.	-10.9101
Man	-10.9102
arak	-10.9102
бер	-10.9103
కి	-10.9104
imento	-10.9105
▁Public	-10.9106
main	-10.9107
ំ	-10.9108
GT	-10.911
sho	-10.911
▁Win	-10.9111
▁jobb	-10.9112
vest	-10.9112
bok	-10.9113
▁како	-10.9114
্যা	-10.9115
AU	-10.9116
rika	-10.9118
යි	-10.9118
inda	-10.9119
身	-10.9121
▁bot	-10.9123
▁report	-10.9124
▁vse	-10.9124
▁před	-10.9125
ilu	-10.9125
TB	-10.9125
▁Harga	-10.9127
دا	-10.9127
Id	-10.9128
atzen	-10.9129
▁63	-10.913
มา	-10.9131
▁Afrika	-10.9131
stin	-10.9132
▁\	-10.9134
▁Br	-10.9134
ions	-10.9136
она	-10.9136
eze	-10.9137
▁الإ	-10.9138
аны	-10.9139
yw	-10.9139
க்	-10.914
▁spre	-10.9142
ကို	-10.9143
ĝ	-10.9144
▁tipo	-10.9144
▁Jen	-10.9145
RC	-10.9146
rif	-10.915
▁Dec	-10.9151
▁Michael	-10.9152
lika	-10.9152
▁kos	-10.9153
快	-10.9154
:0	-10.9154
miseks	-10.9155
hou	-10.9156
tse	-10.9156
áil	-10.9156
9%	-10.9157
▁apo	-10.9157
▁tab	-10.9157
▁ச	-10.9159
kommen	-10.916
əl	-10.916
ppi	-10.916
ush	-10.9162
alta	-10.9162
оз	-10.9162
▁hot	-10.9163
tsu	-10.9163
▁deg	-10.9165
yah	-10.9167
оп	-10.9168
▁lugar	-10.9169
▁الن	-10.9174
bide	-10.9174
▁само	-10.9177
vej	-10.9177
itt	-10.9178
▁baz	-10.9178
stup	-10.9179
ско	-10.918
▁mel	-10.918
▁energi	-10.9182
čių	-10.9182
▁വി	-10.9182
▁Krist	-10.9184
▁ndi	-10.9184
ره	-10.9185
JA	-10.9185
els	-10.9185
kap	-10.9186
üü	-10.9188
▁room	-10.919
▁Soomaaliya	-10.9191
▁skr	-10.9195
▁Mobil	-10.9197
▁stop	-10.9198
▁tym	-10.9198
tě	-10.9203
room	-10.9204
▁98	-10.9206
ահ	-10.9207
vra	-10.9211
દ	-10.9212
▁jika	-10.9212
▁South	-10.9213
▁למ	-10.9214
▁album	-10.9214
ril	-10.9216
ασ	-10.9216
▁rus	-10.9217
וי	-10.9219
▁där	-10.9219
▁روز	-10.922
об	-10.9221
yje	-10.9222
ວ	-10.9222
І	-10.9222
inga	-10.9222
▁пры	-10.9223
式	-10.9225
ści	-10.9225
四	-10.9226
▁dire	-10.9227
▁جا	-10.9227
▁די	-10.9228
▁کرد	-10.9232
제	-10.9232
ēs	-10.9233
ρι	-10.9233
dina	-10.9235
▁due	-10.9237
▁Γ	-10.9241
▁blev	-10.9243
table	-10.9245
cn	-10.9246
dum	-10.9246
▁Daniel	-10.9246
ALI	-10.9247
OC	-10.9248
niz	-10.9249
数	-10.925
▁available	-10.925
had	-10.9251
▁Dra	-10.9251
katu	-10.9252
off	-10.9252
▁Կ	-10.9252
▁anmeldelser	-10.9252
▁yol	-10.9254
stig	-10.9254
▁Auf	-10.9257
င္း	-10.9259
하	-10.9261
ове	-10.9261
▁પ	-10.9261
花	-10.9262
rink	-10.9263
▁são	-10.9263
уд	-10.9264
▁kara	-10.927
ப	-10.9271
ката	-10.9272
തി	-10.9272
्या	-10.9274
ೊ	-10.9275
▁pole	-10.9276
pass	-10.9277
itza	-10.9278
وي	-10.9278
▁dugu	-10.9278
▁porno	-10.9278
▁Mid	-10.9281
▁seks	-10.9282
▁نا	-10.9282
sies	-10.9284
▁casino	-10.9284
娱乐	-10.9286
ekin	-10.9287
-17	-10.9291
▁gara	-10.9292
▁25.	-10.9293
=1	-10.9294
յ	-10.9294
bru	-10.9294
က္	-10.9296
▁76	-10.9297
▁Ltd	-10.9298
▁fal	-10.9299
▁Мар	-10.93
▁nó	-10.93
▁97	-10.9302
▁Ven	-10.9305
ик	-10.9305
zbekiston	-10.9307
▁PR	-10.9307
პ	-10.9314
▁duen	-10.9316
球	-10.9317
博	-10.9317
▁Not	-10.9318
▁Ye	-10.9318
▁should	-10.9319
FE	-10.9319
▁PO	-10.932
schen	-10.9323
▁bla	-10.9324
ર્	-10.9326
▁event	-10.9328
CU	-10.9331
өн	-10.9331
▁ան	-10.9332
rok	-10.9333
ุ	-10.9333
maz	-10.9333
Ad	-10.9333
CAT	-10.9335
antes	-10.9335
ээ	-10.934
film	-10.9342
rado	-10.9343
▁ky	-10.9343
στ	-10.9344
mt	-10.9344
ðar	-10.9345
ors	-10.9345
▁Kwa	-10.9345
▁kus	-10.9346
ધ	-10.9348
bere	-10.935
▁roman	-10.935
gui	-10.9351
/8	-10.9352
čia	-10.9353
رس	-10.9354
▁iba	-10.9356
▁Ok	-10.9357
COM	-10.9358
▁tant	-10.9358
ស្	-10.9358
▁firm	-10.936
кер	-10.936
sent	-10.9361
▁gaz	-10.9364
▁NO	-10.9365
NY	-10.9367
▁thành	-10.9367
▁район	-10.9368
Ч	-10.9368
▁fir	-10.937
dad	-10.937
uoti	-10.937
mah	-10.937
اک	-10.9372
aksi	-10.9372
лаш	-10.9375
▁یہ	-10.9376
▁28.	-10.9377
代	-10.9377
▁fara	-10.9378
▁kry	-10.9378
▁Roma	-10.9379
вод	-10.938
▁Voor	-10.9383
▁eigen	-10.9384
бы	-10.9386
原	-10.9386
tuk	-10.9387
▁Mah	-10.939
▁egun	-10.9391
▁Ut	-10.9393
▁Berg	-10.9393
▁gibi	-10.9394
rel	-10.9395
▁час	-10.9395
▁yet	-10.9397
ק	-10.9398
▁Team	-10.9398
ndar	-10.94
យ	-10.9401
და	-10.9404
-14	-10.9406
▁jeho	-10.941
רים	-10.941
▁Sand	-10.9411
jin	-10.9415
お	-10.9416
сон	-10.9418
eurs	-10.9418
制	-10.9419
▁día	-10.9419
▁kri	-10.9421
ged	-10.9426
പ്പ	-10.9428
▁Nga	-10.943
öt	-10.9432
▁aasta	-10.9434
ദ	-10.9435
▁pli	-10.9435
▁wij	-10.9436
와	-10.9436
ným	-10.9439
▁pia	-10.9439
▁verið	-10.944
unta	-10.944
larni	-10.9441
▁کل	-10.9442
Õ	-10.9444
gó	-10.9445
ZI	-10.9447
接	-10.9447
вен	-10.9451
▁Ó	-10.9452
tid	-10.9452
inio	-10.9454
▁dol	-10.9456
▁Els	-10.9456
▁cao	-10.9458
ക്	-10.9458
نه	-10.9458
II	-10.946
▁sot	-10.9462
bio	-10.9464
lou	-10.9466
▁pří	-10.9467
ך	-10.9472
ól	-10.9473
▁world	-10.9475
▁Color	-10.9475
▁kadar	-10.9475
▁print	-10.9476
▁так	-10.9476
lán	-10.9477
-16	-10.948
ין	-10.9481
▁भ	-10.9483
mesi	-10.9484
▁ఈ	-10.9484
▁cũng	-10.9486
▁dollar	-10.9488
▁company	-10.9489
pag	-10.949
work	-10.9492
ões	-10.9492
ਗ	-10.9493
▁kunt	-10.9494
mək	-10.9495
lės	-10.9495
αλ	-10.9495
▁style	-10.9497
awan	-10.9498
▁duhet	-10.9498
Ch	-10.9499
▁Road	-10.95
nad	-10.9501
stvo	-10.9501
▁limit	-10.9501
OM	-10.9502
▁Uz	-10.9504
אר	-10.9504
▁mark	-10.9506
▁arti	-10.9506
▁الف	-10.9506
ным	-10.9511
▁where	-10.9513
сен	-10.9513
انی	-10.9513
▁festival	-10.9513
▁Milli	-10.9514
kam	-10.9514
dere	-10.9514
▁Ah	-10.9516
▁oh	-10.9518
прав	-10.9519
▁got	-10.952
▁26.	-10.9521
ics	-10.9521
EST	-10.9523
▁29.	-10.9524
▁será	-10.9527
RY	-10.9527
jev	-10.9529
uur	-10.9529
▁flere	-10.9529
▁AK	-10.9531
jd	-10.9532
▁hava	-10.9533
▁Artikel	-10.9534
anto	-10.9534
ብ	-10.9535
ੁ	-10.9537
lö	-10.9537
▁oss	-10.9537
▁same	-10.9539
></	-10.954
bou	-10.9542
▁Да	-10.9542
▁aos	-10.9543
fon	-10.9545
tör	-10.9548
DU	-10.9548
ес	-10.9548
mmel	-10.9551
ಡಿ	-10.9552
hez	-10.9552
▁durch	-10.9554
▁haben	-10.9554
jm	-10.9554
ahkan	-10.9558
ници	-10.9561
▁pam	-10.9562
אָ	-10.9563
ът	-10.9563
טי	-10.9564
▁Φ	-10.9566
Κ	-10.9567
▁Under	-10.9567
ADA	-10.9567
cap	-10.957
线	-10.9572
કા	-10.9572
quer	-10.9572
eux	-10.9572
db	-10.9574
▁empresa	-10.9574
▁gada	-10.9576
▁klient	-10.9576
аг	-10.9576
စ	-10.9577
▁ఇ	-10.9578
▁Ada	-10.9579
▁čo	-10.9579
▁stre	-10.9579
▁Tin	-10.958
מי	-10.9581
▁84	-10.9581
▁Mir	-10.9581
▁nang	-10.9582
alan	-10.9584
tage	-10.9586
Τ	-10.9588
άρ	-10.959
haus	-10.9591
▁ਨੇ	-10.9593
た	-10.9593
lada	-10.9594
бек	-10.9594
▁2-	-10.9594
▁نو	-10.9595
ком	-10.9595
ซ	-10.9596
▁кел	-10.9599
שר	-10.96
▁arte	-10.9602
px	-10.9603
diri	-10.9604
流	-10.9604
рам	-10.9607
kė	-10.9607
▁Lang	-10.9608
▁old	-10.9613
ată	-10.9615
▁Pil	-10.9615
KE	-10.9617
IX	-10.962
我们	-10.962
HO	-10.9621
nner	-10.9623
âm	-10.9626
▁tyre	-10.9627
taja	-10.963
▁corre	-10.963
cze	-10.9633
یک	-10.9635
ald	-10.9636
өл	-10.9637
▁Fin	-10.9639
▁tim	-10.9639
tant	-10.9639
▁1-	-10.964
▁خود	-10.9641
ward	-10.9642
▁համար	-10.9642
▁aka	-10.9642
vät	-10.9643
▁gest	-10.9644
երի	-10.9644
▁Så	-10.9645
▁ime	-10.9646
▁nước	-10.9648
они	-10.9649
ారు	-10.965
▁menggunakan	-10.9651
TU	-10.9651
ész	-10.9651
Η	-10.9651
ungan	-10.9652
ச	-10.9653
▁2002	-10.9654
čni	-10.9655
ာ	-10.9655
▁svet	-10.9656
ejo	-10.9657
انه	-10.966
▁strategi	-10.966
件	-10.9661
խ	-10.9662
▁gro	-10.9663
nap	-10.9663
ეს	-10.9665
-13	-10.9666
ис	-10.9668
▁svoj	-10.9669
mada	-10.967
▁port	-10.967
رب	-10.967
▁mul	-10.967
▁marka	-10.967
νο	-10.9671
▁System	-10.9671
▁industri	-10.9675
▁Just	-10.9675
enti	-10.9677
▁Mul	-10.9679
ника	-10.9679
▁συν	-10.9682
itse	-10.9682
▁dun	-10.9682
ffe	-10.9685
▁cos	-10.9686
wr	-10.9689
▁term	-10.9689
bos	-10.969
▁Biz	-10.9693
▁State	-10.9694
▁наш	-10.9695
vus	-10.9697
omi	-10.9697
▁کہا	-10.9698
▁ವಿ	-10.9698
▁β	-10.9699
ngu	-10.9703
▁call	-10.9705
▁Dur	-10.971
pm	-10.9712
drag	-10.9715
▁importante	-10.9716
▁વ	-10.9717
▁pay	-10.9718
▁buat	-10.9719
▁3-	-10.9723
idan	-10.9725
iso	-10.9725
ப்ப	-10.9726
ця	-10.9726
く	-10.9726
▁În	-10.9726
ړ	-10.9727
سي	-10.9727
3)	-10.9729
▁disse	-10.9729
rê	-10.9729
uter	-10.9729
▁lite	-10.973
▁כי	-10.9731
▁Your	-10.9731
▁ம	-10.9732
▁mars	-10.9734
jte	-10.9737
华	-10.9737
jel	-10.9739
اع	-10.9739
▁Kami	-10.9739
េ	-10.9741
qua	-10.9741
ικό	-10.9741
რა	-10.9741
wat	-10.9742
▁над	-10.9743
▁olla	-10.9743
با	-10.9745
▁Service	-10.9746
▁vos	-10.9746
ακ	-10.9746
▁71	-10.9747
шта	-10.9749
5)	-10.9749
dung	-10.975
کر	-10.9751
ډ	-10.9751
级	-10.9754
ਜ	-10.9756
ambi	-10.9756
פי	-10.9756
소	-10.9757
niki	-10.9757
打	-10.9757
asti	-10.9759
▁refer	-10.976
회	-10.9761
▁Press	-10.9761
ött	-10.9762
▁review	-10.9762
▁ומ	-10.9763
acak	-10.9764
uit	-10.9765
▁Date	-10.9767
▁гр	-10.9768
▁سا	-10.9768
qq	-10.977
ial	-10.977
ppa	-10.9771
▁exp	-10.9771
ид	-10.9774
mic	-10.9775
۰	-10.9777
ந்த	-10.978
▁אל	-10.9782
▁سي	-10.9782
▁Pir	-10.9787
larında	-10.9788
sik	-10.9788
▁tit	-10.9788
员	-10.979
▁Poli	-10.9792
▁sv	-10.9792
olog	-10.9792
▁При	-10.9793
▁հետ	-10.9794
πο	-10.9796
▁dahil	-10.9797
ongo	-10.9797
き	-10.9798
לו	-10.9798
▁region	-10.9799
▁também	-10.98
▁hợp	-10.9802
يق	-10.9802
ffer	-10.9804
.[	-10.9804
向	-10.9805
▁light	-10.9807
▁और	-10.981
sek	-10.981
ْ	-10.9811
▁91	-10.9813
wij	-10.9813
▁godt	-10.9813
感	-10.9814
ēm	-10.9814
нг	-10.9815
kaan	-10.9815
හ	-10.9816
ತಿ	-10.9816
▁waxaa	-10.9817
▁dunia	-10.9818
▁অ	-10.982
ūs	-10.9821
ους	-10.9824
tuko	-10.9825
ої	-10.9827
▁format	-10.9832
......	-10.9832
▁club	-10.9833
▁august	-10.9835
▁Plat	-10.9837
▁vad	-10.9837
▁Rp	-10.9839
ან	-10.984
AZ	-10.9841
▁सं	-10.9841
poli	-10.9841
▁ли	-10.9843
selt	-10.9844
▁uy	-10.9847
ures	-10.9847
ප	-10.9851
Μ	-10.9854
count	-10.9855
▁domin	-10.986
▁Frank	-10.986
▁onze	-10.9862
stor	-10.9863
▁tradi	-10.9863
EE	-10.9863
▁euros	-10.9864
▁tren	-10.9864
表	-10.9864
▁spr	-10.9865
▁125	-10.9867
gine	-10.9869
რი	-10.9872
ફ	-10.9873
▁Ми	-10.9874
jf	-10.9876
oba	-10.9876
▁cá	-10.9876
র্	-10.9877
▁Ras	-10.9877
▁AN	-10.9878
▁(6)	-10.9879
Mu	-10.988
டு	-10.9881
anan	-10.9882
▁politik	-10.9882
▁Fel	-10.9883
▁bio	-10.9885
起	-10.9886
ೈ	-10.9886
▁september	-10.9891
▁olduğu	-10.9892
▁him	-10.9892
iamo	-10.9893
σε	-10.9894
▁Arm	-10.9895
▁★	-10.9896
▁sự	-10.9896
▁Pop	-10.9896
эд	-10.9897
laş	-10.9897
չ	-10.9897
▁days	-10.9898
▁ку	-10.9899
▁mare	-10.99
▁Fre	-10.9903
▁23,	-10.9905
▁doen	-10.9906
cija	-10.9907
德	-10.9908
বে	-10.9909
Sp	-10.9911
omis	-10.9911
ыя	-10.9912
MD	-10.9913
kil	-10.9915
ené	-10.9915
▁jos	-10.9915
cina	-10.9917
▁Ši	-10.9917
▁એ	-10.9919
▁must	-10.9922
uoja	-10.9924
从	-10.9924
ont	-10.9925
▁kra	-10.9927
想	-10.9928
▁შე	-10.9932
▁lại	-10.9934
▁anal	-10.9935
ળ	-10.9936
práv	-10.9939
dhi	-10.9942
house	-10.9942
进	-10.9943
rta	-10.9944
▁mikro	-10.9946
▁atas	-10.9946
кор	-10.9946
▁Bla	-10.9947
tern	-10.9952
ines	-10.9954
▁jadi	-10.9954
LY	-10.9956
stí	-10.9957
RES	-10.996
真	-10.9962
тел	-10.9962
pok	-10.9964
▁add	-10.9965
▁ა	-10.9965
▁Blu	-10.9965
场	-10.9966
▁І	-10.9966
▁kü	-10.9966
каз	-10.9967
uru	-10.9968
▁past	-10.997
OP	-10.9971
▁74	-10.9972
▁Ty	-10.9973
ದಲ್ಲಿ	-10.9974
fl	-10.9974
▁ස	-10.9975
▁αν	-10.9975
▁bukan	-10.9976
老	-10.9976
ိ	-10.9976
▁leng	-10.9977
▁sendiri	-10.9978
Ž	-10.9979
BL	-10.998
gne	-10.998
▁Sau	-10.998
防	-10.998
888	-10.998
niu	-10.9981
▁nett	-10.9981
phi	-10.9981
নে	-10.9983
▁Lin	-10.9983
▁במ	-10.9983
福	-10.9984
▁wax	-10.9985
▁cette	-10.9986
cep	-10.9987
▁[[	-10.9987
ifa	-10.9987
▁tor	-10.9991
cro	-10.9991
▁també	-10.9992
格	-10.9994
pozi	-10.9995
▁xu	-10.9995
ਪ	-10.9995
▁Má	-11.0001
▁және	-11.0003
▁map	-11.0003
old	-11.0003
▁Kre	-11.0003
zam	-11.0004
ู	-11.0005
局	-11.0006
spel	-11.0007
pia	-11.001
▁Gri	-11.0011
游戏	-11.0011
▁σ	-11.0011
▁mik	-11.0012
efni	-11.0012
hoz	-11.0015
ото	-11.0015
က်	-11.0016
skar	-11.0017
хо	-11.0017
图	-11.002
zes	-11.002
šanas	-11.0022
▁niin	-11.0022
YA	-11.0023
āt	-11.0024
ræ	-11.0025
ете	-11.0027
▁Start	-11.0027
▁Bin	-11.0028
1000	-11.0028
▁rend	-11.0028
▁ಪ್ರ	-11.0029
▁Kat	-11.0029
ске	-11.003
▁Dam	-11.003
/6	-11.0034
سر	-11.0034
ερ	-11.0036
লে	-11.0037
Je	-11.0038
▁osob	-11.0039
▁2001	-11.0039
▁yon	-11.004
itate	-11.0042
curi	-11.0042
бра	-11.0043
erte	-11.0044
otto	-11.0045
▁Kosovës	-11.0047
indi	-11.0048
tegi	-11.0048
▁tut	-11.0049
集	-11.0049
Â	-11.005
▁Views	-11.0052
-10-	-11.0057
гор	-11.0058
ums	-11.0059
Π	-11.006
lb	-11.0062
்	-11.0065
▁Cas	-11.0066
▁prav	-11.0067
ZA	-11.0067
▁frem	-11.0068
总	-11.0071
გ	-11.0072
yong	-11.0072
ಪ	-11.0073
れ	-11.008
lok	-11.0081
▁hver	-11.0081
▁jsem	-11.0082
▁fog	-11.0082
▁MAR	-11.0084
▁Audi	-11.0084
ще	-11.0085
rako	-11.0086
ministr	-11.0086
보	-11.0087
лет	-11.0089
▁jan	-11.009
()	-11.0091
تي	-11.0092
▁э	-11.0093
ában	-11.0094
ും	-11.0094
▁година	-11.0094
▁Thu	-11.0095
ила	-11.0095
▁dzi	-11.0097
▁twee	-11.0097
stop	-11.0097
ద	-11.0097
shëm	-11.01
Pe	-11.01
hä	-11.0102
دي	-11.0102
▁Nem	-11.0103
\/	-11.0104
▁SM	-11.0105
▁mie	-11.0105
▁Ul	-11.0105
god	-11.0106
▁Let	-11.0106
maks	-11.0106
▁ishte	-11.0106
isë	-11.0106
▁fá	-11.0107
/2018	-11.0109
▁ام	-11.0111
▁یا	-11.0112
▁ու	-11.0112
▁89	-11.0116
其	-11.0118
▁prote	-11.0118
▁92	-11.0118
రా	-11.0118
ვა	-11.0119
▁Reply	-11.0119
ው	-11.0119
ukan	-11.012
▁Euskal	-11.012
▁jedno	-11.0123
šie	-11.0123
▁size	-11.0123
▁140	-11.0124
▁können	-11.0124
ologia	-11.0124
▁proti	-11.0125
▁yap	-11.0126
ston	-11.0127
ақ	-11.0129
.[1]	-11.0131
omba	-11.0131
از	-11.0131
▁comme	-11.0133
2000	-11.0135
LS	-11.0136
▁november	-11.0138
xu	-11.0138
usu	-11.0139
▁Jakarta	-11.0142
kara	-11.0144
▁Ра	-11.0145
명	-11.0146
▁Product	-11.0147
▁kurs	-11.0148
SU	-11.0149
▁მ	-11.0149
▁việc	-11.015
për	-11.0151
▁tapi	-11.0151
ਿ	-11.0153
מר	-11.0154
▁estat	-11.0154
пи	-11.0155
▁skulle	-11.0156
▁нь	-11.0156
▁które	-11.0156
▁PER	-11.0159
▁Code	-11.0162
zeit	-11.0163
ând	-11.0164
TOR	-11.0166
UD	-11.0166
▁Pot	-11.0166
ère	-11.0167
▁86	-11.0167
lha	-11.0169
tino	-11.017
▁major	-11.017
▁ц	-11.0173
Δ	-11.0174
▁81	-11.0174
▁sä	-11.0175
კ	-11.0175
▁kuin	-11.0176
מו	-11.0176
लाई	-11.0176
比	-11.0176
▁Ent	-11.0177
ੂ	-11.0178
ځ	-11.0178
images	-11.0179
▁hasta	-11.018
NC	-11.018
▁adapt	-11.0181
នេះ	-11.0181
ιά	-11.0181
ト	-11.0183
มี	-11.0183
fort	-11.0183
נט	-11.0183
For	-11.0189
▁services	-11.0189
▁الله	-11.019
tec	-11.0191
्	-11.0192
DC	-11.0192
▁sheegay	-11.0195
бар	-11.0199
aux	-11.0201
▁شد	-11.0202
եղ	-11.0203
bau	-11.0203
▁bl	-11.0203
фи	-11.0205
guna	-11.0206
ister	-11.0207
▁kimi	-11.0208
▁kost	-11.0208
ഷ	-11.0211
rop	-11.0211
▁tru	-11.0212
▁baba	-11.0213
101	-11.0214
▁15,	-11.0214
▁Reg	-11.0215
ojo	-11.0219
▁Log	-11.022
▁Ан	-11.0222
ರಿ	-11.0222
type	-11.0224
▁jih	-11.0224
lais	-11.0225
BR	-11.0225
▁fait	-11.0226
cur	-11.0226
tima	-11.0227
▁fest	-11.0227
▁Arab	-11.0229
ées	-11.0236
▁محمد	-11.0236
▁học	-11.0236
▁Naj	-11.0237
▁profil	-11.0239
şi	-11.0241
agi	-11.0241
▁78	-11.0243
▁bağlı	-11.0245
▁GA	-11.0246
gut	-11.025
område	-11.0252
уш	-11.0252
rii	-11.0253
▁ਅ	-11.0254
cchi	-11.0255
管	-11.0256
ldi	-11.0256
▁dib	-11.0256
owej	-11.0257
▁Kir	-11.0258
ző	-11.0258
оў	-11.0258
▁baada	-11.0258
▁bang	-11.0261
▁Ха	-11.0261
larına	-11.0262
מח	-11.0263
▁nám	-11.0264
▁menga	-11.0264
כו	-11.0264
▁exist	-11.0265
רו	-11.0267
ible	-11.0272
לי	-11.0274
▁Hay	-11.0274
style	-11.0277
▁Vir	-11.0277
▁yıl	-11.0277
然	-11.0277
eja	-11.0278
▁anima	-11.028
▁melakukan	-11.0283
SM	-11.0284
łu	-11.0284
▁nú	-11.0284
▁temp	-11.0285
ňa	-11.0287
发展	-11.0287
▁كل	-11.0288
lur	-11.0289
▁punt	-11.0289
▁horas	-11.0292
ddi	-11.0292
,“	-11.0292
▁бор	-11.0293
зо	-11.0293
▁cur	-11.0296
fun	-11.0296
▁Pass	-11.0297
وف	-11.0298
▁máy	-11.0299
并	-11.0299
▁sinh	-11.03
jö	-11.0301
cións	-11.0303
ую	-11.0303
▁TR	-11.0303
ข	-11.0304
▁County	-11.0305
mara	-11.0306
shin	-11.0306
▁कि	-11.0306
1-	-11.0306
ਲਾ	-11.0308
계	-11.0309
וד	-11.0311
ение	-11.0311
▁ве	-11.0311
▁menu	-11.0314
▁التي	-11.0314
▁sammen	-11.0317
uji	-11.0317
។	-11.0319
▁تم	-11.0319
ható	-11.0321
▁logo	-11.0321
ուր	-11.0322
▁semana	-11.0323
▁version	-11.0324
9.00	-11.0326
▁sigur	-11.0326
liği	-11.0327
DP	-11.0328
▁הש	-11.0329
सी	-11.033
ança	-11.0331
▁Schuhe	-11.0333
גר	-11.0334
öm	-11.0335
tav	-11.0335
rac	-11.0336
▁nun	-11.0336
kho	-11.0336
зу	-11.0336
▁fem	-11.0337
pris	-11.0338
▁Hall	-11.0338
▁besar	-11.0339
▁compar	-11.0339
่	-11.0339
sang	-11.0339
取	-11.0339
▁obat	-11.034
▁který	-11.0343
uð	-11.0345
DR	-11.0345
▁шу	-11.0346
▁Resort	-11.0347
lent	-11.0347
服务	-11.0349
ért	-11.0349
▁EL	-11.035
▁Roz	-11.035
ائ	-11.0352
▁ज	-11.0353
▁ത	-11.0354
▁cui	-11.0354
▁ses	-11.0356
▁bata	-11.0357
▁read	-11.036
▁pass	-11.036
치	-11.0363
▁ম	-11.0364
KT	-11.0367
šči	-11.0367
▁#1	-11.0368
▁બ	-11.0371
▁lokal	-11.0374
ulo	-11.0374
▁dago	-11.0375
rey	-11.0376
وت	-11.0376
▁Comment	-11.0376
ரி	-11.0377
▁izle	-11.0379
▁nov	-11.038
▁1.0	-11.0382
rish	-11.0383
▁Sel	-11.0383
úc	-11.0383
istas	-11.0385
វ	-11.0385
王	-11.0385
rina	-11.0386
▁Sim	-11.0387
▁ότι	-11.039
▁bay	-11.0391
itus	-11.0393
▁Brand	-11.0393
▁Alt	-11.0393
▁خان	-11.0394
ク	-11.0394
▁sca	-11.0396
egi	-11.0396
て	-11.0397
▁used	-11.0398
▁1,5	-11.0398
▁مس	-11.04
▁(6	-11.0402
▁às	-11.0402
▁vya	-11.0404
hai	-11.0404
▁every	-11.0405
prop	-11.0406
vic	-11.0407
ssä	-11.0408
▁List	-11.0408
ndan	-11.0409
થી	-11.0413
وق	-11.0414
▁Master	-11.0415
▁مت	-11.0415
▁στα	-11.0417
▁There	-11.0417
▁Dag	-11.0419
kak	-11.0419
vere	-11.042
ौ	-11.0421
▁How	-11.0421
szy	-11.0425
▁Angel	-11.0425
▁வி	-11.0425
stå	-11.0426
rol	-11.0429
دان	-11.0431
▁στη	-11.0433
▁Via	-11.0433
▁gebruik	-11.0434
να	-11.0434
tru	-11.0434
▁problema	-11.0435
▁zich	-11.0436
▁Mos	-11.044
kulu	-11.0441
чу	-11.0443
▁project	-11.0443
▁р	-11.0444
ץ	-11.0447
lage	-11.0447
▁ન	-11.045
▁oso	-11.045
prend	-11.0457
▁Vil	-11.0457
▁Pour	-11.0459
мет	-11.0462
▁ప్ర	-11.0463
lta	-11.0463
itor	-11.0464
ked	-11.0466
кы	-11.0466
▁cru	-11.0467
▁stand	-11.0467
▁khách	-11.0468
gger	-11.0468
▁School	-11.0468
лары	-11.0468
Sh	-11.0469
2007	-11.0469
tisk	-11.0469
arri	-11.0471
▁73	-11.0473
▁zuten	-11.0473
ғы	-11.0473
▁ಹ	-11.0473
fir	-11.0474
ίν	-11.0474
XL	-11.0475
ίες	-11.0477
▁TA	-11.048
▁chỉ	-11.048
ए	-11.0482
▁mind	-11.0483
▁Watch	-11.0483
ális	-11.0484
inë	-11.0484
ບ	-11.0484
qué	-11.0486
各	-11.0488
tate	-11.0488
▁мен	-11.0488
▁Cultura	-11.0488
2-	-11.0488
▁17,	-11.0489
Ë	-11.0489
tyr	-11.0489
itev	-11.0489
▁Water	-11.049
▁KO	-11.0491
▁ਪ	-11.0493
▁Band	-11.0493
கள்	-11.0495
▁160	-11.0495
▁milli	-11.0496
lj	-11.0497
문	-11.0498
▁និង	-11.0501
TER	-11.0503
▁שה	-11.0503
ėjo	-11.0504
field	-11.0504
ös	-11.0507
▁Për	-11.0508
▁cop	-11.051
Gu	-11.0511
Or	-11.0512
▁sho	-11.0512
企业	-11.0515
ικ	-11.0515
UE	-11.0518
UB	-11.0518
takse	-11.052
▁tentang	-11.0521
үл	-11.0521
▁지	-11.0524
▁still	-11.0525
][	-11.0526
▁Wie	-11.0527
▁им	-11.0528
▁fix	-11.0531
кен	-11.0534
ecek	-11.0535
ву	-11.0535
ול	-11.0536
▁Dol	-11.0537
ժ	-11.0538
রে	-11.054
▁کرنے	-11.054
Ο	-11.054
arka	-11.0541
վում	-11.0545
▁sekä	-11.0545
做	-11.0546
▁folk	-11.0549
▁ανα	-11.0551
▁Christ	-11.0551
itel	-11.0553
▁Türkiye	-11.0553
▁Kata	-11.0555
▁sort	-11.0556
ош	-11.0557
▁parlament	-11.0557
aman	-11.0559
▁jää	-11.0559
▁Eu	-11.0559
▁nama	-11.056
160	-11.056
▁watu	-11.056
toria	-11.0561
лас	-11.0562
▁Fr	-11.0565
PM	-11.0566
▁software	-11.0567
dığı	-11.0569
▁아	-11.0573
2008	-11.0573
ማ	-11.0576
▁cen	-11.0578
رم	-11.0578
jur	-11.058
▁ша	-11.0581
▁több	-11.0581
gni	-11.0582
▁ami	-11.0582
үр	-11.0582
▁ktorý	-11.0583
جل	-11.0584
News	-11.0585
▁وا	-11.0586
▁16,	-11.0586
cl	-11.0587
▁Ré	-11.0587
api	-11.0588
▁nå	-11.0589
010	-11.059
isin	-11.0592
adores	-11.0595
mica	-11.0597
▁ар	-11.0599
Я	-11.06
▁comments	-11.06
ossa	-11.0601
24.	-11.0604
▁led	-11.0606
mbe	-11.0607
hid	-11.0608
▁pää	-11.061
dala	-11.061
▁Baby	-11.0612
▁tempat	-11.0613
▁Tab	-11.0613
▁Sat	-11.0614
थ	-11.0614
▁qal	-11.0615
viz	-11.0615
▁79	-11.0616
bach	-11.0616
▁fr	-11.0616
▁82	-11.0617
SD	-11.0619
jų	-11.0619
ków	-11.0619
وز	-11.0625
dang	-11.0625
PP	-11.0626
•	-11.0628
▁bán	-11.063
ინ	-11.063
Ы	-11.063
ให้	-11.063
edi	-11.0631
нда	-11.0631
▁kwe	-11.0631
ρά	-11.0631
▁leh	-11.0632
▁Vest	-11.0632
▁agar	-11.0632
▁mao	-11.0633
vita	-11.0633
하는	-11.0634
кар	-11.0634
▁phẩm	-11.0635
▁egiten	-11.0636
öö	-11.0636
▁nás	-11.0638
▁Bild	-11.0638
▁aange	-11.0639
דר	-11.064
nung	-11.064
now	-11.0642
ează	-11.0644
면	-11.0644
▁તે	-11.0644
▁profesional	-11.0644
▁Ly	-11.0645
лай	-11.0646
▁Nav	-11.0646
▁Time	-11.0646
արկ	-11.0647
ív	-11.0647
▁pasa	-11.0648
leme	-11.0648
fant	-11.0649
abo	-11.065
rant	-11.0654
▁micro	-11.0654
▁Mc	-11.0655
▁edib	-11.0655
ġ	-11.0657
ே	-11.0657
ēja	-11.0659
▁Dy	-11.066
▁uur	-11.0663
ias	-11.0666
ຕ	-11.0667
BD	-11.067
ું	-11.0671
▁인	-11.0671
εται	-11.0671
▁Instagram	-11.0671
▁Original	-11.0672
▁mirë	-11.0673
▁ish	-11.0673
urile	-11.0673
bij	-11.0675
cord	-11.0675
▁pon	-11.0676
ots	-11.0678
лік	-11.0679
▁DVD	-11.068
▁baina	-11.0681
▁chính	-11.0681
▁visit	-11.0682
čas	-11.0683
▁ஆ	-11.0684
▁global	-11.0685
▁cin	-11.0687
很	-11.0689
dü	-11.0689
tual	-11.069
▁96	-11.069
▁edir	-11.069
▁gri	-11.0691
▁نه	-11.0694
▁mille	-11.0697
online	-11.0701
▁hän	-11.0701
abb	-11.0701
tip	-11.0702
-04-	-11.0702
alam	-11.0704
▁سن	-11.0705
ជា	-11.0705
ција	-11.0705
选	-11.0709
tico	-11.0711
izado	-11.0712
తి	-11.0713
▁typ	-11.0715
లి	-11.0718
ပါ	-11.0718
IB	-11.0718
▁heb	-11.0721
▁વિ	-11.0722
image	-11.0724
▁93	-11.0728
teil	-11.0728
ľa	-11.0728
nici	-11.0729
▁duten	-11.073
▁maken	-11.073
zd	-11.073
▁centre	-11.0731
▁buy	-11.0732
▁թ	-11.0732
▁Door	-11.0736
▁الك	-11.0737
tien	-11.074
voor	-11.074
▁pēc	-11.0742
▁מי	-11.0744
cus	-11.0745
▁Maj	-11.0748
월	-11.0751
▁thông	-11.0751
gaan	-11.0753
▁diren	-11.0753
landi	-11.0754
▁run	-11.0756
ils	-11.0757
▁oyun	-11.0758
że	-11.0759
ന്ന	-11.0759
▁tanto	-11.076
▁ਸਿੰਘ	-11.076
▁γ	-11.0761
▁obra	-11.0762
▁પ્ર	-11.0763
白	-11.0764
uff	-11.0764
▁klik	-11.0765
▁kuni	-11.0766
▁մի	-11.0767
克	-11.0769
ology	-11.0769
دو	-11.0769
▁ра	-11.077
lje	-11.0772
dak	-11.0774
idu	-11.0774
▁hö	-11.0776
▁hit	-11.0777
周	-11.0778
má	-11.0778
ती	-11.0779
体育投注	-11.0779
יו	-11.0779
вед	-11.078
rė	-11.078
▁historia	-11.0783
շ	-11.0783
▁ένα	-11.0784
дор	-11.0784
▁suur	-11.0788
۴	-11.0788
/2019	-11.0789
▁central	-11.0789
žo	-11.0791
ove	-11.0796
▁Bau	-11.0798
▁зна	-11.0799
▁lát	-11.08
unun	-11.08
гә	-11.0801
▁ایران	-11.0802
play	-11.0806
ljen	-11.0809
▁terra	-11.081
收	-11.081
১	-11.0812
दा	-11.0812
yat	-11.0814
krat	-11.0815
κο	-11.0815
▁amp	-11.0816
:"	-11.0816
▁Sil	-11.0817
GS	-11.0819
▁Link	-11.082
ება	-11.082
▁uno	-11.0822
פו	-11.0823
NT	-11.0825
gé	-11.0825
lands	-11.0826
▁innova	-11.0827
▁fall	-11.0831
▁vita	-11.0831
uq	-11.0831
ਬ	-11.0832
ित	-11.0832
▁hard	-11.0835
дел	-11.0836
kond	-11.0837
alle	-11.0837
▁Kop	-11.0837
liche	-11.0839
▁Cup	-11.0839
▁cro	-11.0841
▁radio	-11.0846
▁tart	-11.0847
kning	-11.0848
▁prac	-11.0848
تے	-11.0848
rama	-11.0849
整	-11.085
lima	-11.0851
一个	-11.0851
▁change	-11.0851
-12-	-11.0851
▁Nova	-11.0853
▁rezerv	-11.0854
▁murah	-11.0854
שי	-11.0855
ڑ	-11.0856
▁Mp	-11.0859
mobil	-11.086
▁Nur	-11.086
etto	-11.0861
biz	-11.0862
baba	-11.0863
vio	-11.0863
ას	-11.0863
rne	-11.0863
ular	-11.0866
▁все	-11.0866
▁prezident	-11.0868
ազ	-11.0868
▁он	-11.087
▁liv	-11.087
▁XL	-11.0871
此	-11.0871
▁30.	-11.0873
▁até	-11.0873
۲	-11.0874
το	-11.0875
▁İş	-11.0877
cje	-11.0877
roll	-11.0878
▁bizi	-11.0878
code	-11.0879
▁ක	-11.0879
ισ	-11.088
hab	-11.0881
▁platform	-11.0882
▁Smart	-11.0884
ities	-11.0884
▁marketing	-11.0884
ues	-11.0885
cou	-11.0885
rut	-11.0886
وس	-11.0887
▁83	-11.0888
ความ	-11.0889
▁CE	-11.089
пе	-11.089
ラ	-11.0892
uš	-11.0892
▁wake	-11.0892
ران	-11.0893
cr	-11.0895
या	-11.0895
hala	-11.0897
▁yg	-11.0897
TR	-11.0899
▁grupo	-11.0901
lid	-11.0902
gul	-11.0904
▁19,	-11.0905
tää	-11.0905
wart	-11.0906
▁Bot	-11.0908
cke	-11.091
plo	-11.0911
▁What	-11.0911
ttä	-11.0911
▁Fan	-11.0914
vn	-11.0914
kę	-11.0914
!”	-11.0914
hun	-11.0915
GO	-11.0916
▁sector	-11.0918
char	-11.0922
mena	-11.0926
zki	-11.0926
OK	-11.0927
怎么	-11.0929
gla	-11.093
yun	-11.0932
FI	-11.0934
TH	-11.0934
tasuna	-11.0935
▁daripada	-11.0935
tais	-11.0936
▁2017.	-11.0936
▁hang	-11.0939
ხ	-11.0941
▁presta	-11.0942
stal	-11.0943
▁import	-11.0944
▁Rio	-11.0944
站	-11.0946
受	-11.0947
llis	-11.0947
▁prezent	-11.0948
และ	-11.0948
▁Ry	-11.0949
▁maa	-11.095
▁Bul	-11.0952
▁artikel	-11.0952
▁date	-11.0953
owanie	-11.0953
нар	-11.0953
▁Pred	-11.0953
▁view	-11.0954
kong	-11.0954
▁liber	-11.0954
ზე	-11.0955
opp	-11.0955
hom	-11.0956
fest	-11.0957
▁1.2	-11.0958
▁కా	-11.0959
blad	-11.0962
зар	-11.0964
▁rdf	-11.0964
hof	-11.0965
rite	-11.0965
ර්	-11.0966
رد	-11.0966
ನ್ನ	-11.0967
▁מו	-11.0968
▁vod	-11.097
▁massage	-11.097
max	-11.097
rre	-11.097
FC	-11.0971
▁kontra	-11.0972
ထ	-11.0973
▁بل	-11.0973
kali	-11.0973
▁Dor	-11.0974
▁CR	-11.0974
▁franc	-11.0974
rul	-11.0975
eksi	-11.0976
▁život	-11.0977
▁familia	-11.0977
ская	-11.0978
▁aplica	-11.0978
▁prí	-11.0981
▁21,	-11.0982
value	-11.0982
▁HA	-11.0984
ič	-11.0984
▁সা	-11.0984
ෙ	-11.0985
▁الس	-11.0985
如	-11.0986
shirt	-11.0986
▁एक	-11.0986
λι	-11.0987
▁quando	-11.0988
well	-11.0989
-30	-11.099
▁seri	-11.0991
‬	-11.0991
lni	-11.0991
тра	-11.0992
ngan	-11.0992
▁18,	-11.0993
maya	-11.0995
▁тур	-11.0997
ধ	-11.0998
merk	-11.0998
▁lalu	-11.0998
We	-11.1001
▁baie	-11.1001
zó	-11.1002
▁नि	-11.1002
▁school	-11.1006
jár	-11.1007
raf	-11.1008
▁niya	-11.1008
▁uk	-11.1009
kład	-11.101
▁sử	-11.1011
▁TE	-11.1011
রি	-11.1012
Sch	-11.1014
▁guzti	-11.1014
▁forum	-11.1015
olla	-11.1015
▁shop	-11.1016
lığı	-11.1016
▁Kong	-11.1017
▁Luc	-11.1018
tere	-11.102
送	-11.102
ální	-11.102
ület	-11.1021
يم	-11.1021
ZE	-11.1022
җ	-11.1023
گر	-11.1023
syn	-11.1025
▁đồng	-11.1026
ONE	-11.1028
▁መ	-11.1029
وان	-11.103
▁Pak	-11.1034
▁hình	-11.1035
▁kombin	-11.1037
▁הא	-11.1038
▁த	-11.1039
▁Our	-11.1041
PU	-11.1041
▁Oct	-11.1042
▁це	-11.1042
ਜ਼	-11.1043
▁22,	-11.1043
-01	-11.1044
▁saa	-11.1044
▁ни	-11.1044
');	-11.1045
▁arm	-11.1045
▁Ва	-11.1046
▁cit	-11.1048
斯	-11.1048
ниот	-11.1049
▁Bun	-11.105
▁Tanzania	-11.1051
여	-11.1053
▁Қ	-11.1053
▁מת	-11.1054
Th	-11.1054
mag	-11.1054
▁Nederland	-11.1056
Wa	-11.1057
▁Mercedes	-11.1057
▁Bonus	-11.1057
▁Eg	-11.1058
zni	-11.1058
▁Hindi	-11.1059
▁offer	-11.1059
ড	-11.106
▁ந	-11.1061
放	-11.1062
mot	-11.1062
▁huis	-11.1063
▁fins	-11.1064
▁29,	-11.1064
▁presidente	-11.1064
cks	-11.1066
ιστ	-11.1066
▁fly	-11.1067
▁Mobile	-11.1068
woord	-11.107
ӯ	-11.107
精	-11.1071
▁Bru	-11.1072
fas	-11.1072
▁bord	-11.1072
위	-11.1072
▁hơn	-11.1073
ining	-11.1075
▁1.5	-11.1076
яр	-11.1076
۵	-11.1077
key	-11.1077
▁Sky	-11.1078
▁akt	-11.1078
شن	-11.1078
▁Uhr	-11.108
▁wada	-11.1081
ät	-11.1082
▁Amazon	-11.1082
nı	-11.1082
▁26,	-11.1084
скі	-11.1085
itä	-11.1085
IZ	-11.1087
mang	-11.1088
▁premi	-11.1088
alu	-11.1089
tara	-11.1093
रे	-11.1093
שו	-11.1094
▁simple	-11.1095
▁sampai	-11.1097
град	-11.1097
udu	-11.1098
jk	-11.1099
▁porque	-11.1099
▁még	-11.11
▁Catalunya	-11.1101
').	-11.1102
ಟ	-11.1102
▁upang	-11.1103
lijk	-11.1104
ագ	-11.1104
▁gor	-11.1105
▁Nacional	-11.1105
▁yfir	-11.1108
▁öz	-11.1109
▁trường	-11.1111
tory	-11.1112
▁taga	-11.1112
▁24,	-11.1112
▁87	-11.1114
לה	-11.1114
cla	-11.1115
ók	-11.1115
▁Hari	-11.1117
etik	-11.1117
▁principal	-11.1118
vant	-11.1118
▁right	-11.1119
▁нов	-11.1121
IAN	-11.1122
▁nom	-11.1122
sión	-11.1123
שה	-11.1124
▁cerca	-11.1124
▁sens	-11.1126
▁వ	-11.1127
вы	-11.1128
▁univers	-11.1128
▁alın	-11.1129
tit	-11.1129
指	-11.1129
▁Kategori	-11.113
VI	-11.113
ować	-11.1134
ಕ್	-11.1134
▁karşı	-11.1136
▁pir	-11.1136
nə	-11.1139
дә	-11.1139
знач	-11.1139
▁Ib	-11.1139
logo	-11.1142
▁보	-11.1144
▁önce	-11.1144
▁juni	-11.1144
ही	-11.1145
▁eerste	-11.1145
▁head	-11.1145
PT	-11.1145
/06/	-11.1145
▁unter	-11.1145
ою	-11.1148
▁¿	-11.1148
mpi	-11.1149
lder	-11.115
▁Lietuvos	-11.1151
်	-11.1152
▁ә	-11.1154
▁Published	-11.1155
iño	-11.1155
▁þá	-11.1156
issä	-11.1156
ныя	-11.1156
▁دا	-11.1158
անց	-11.1159
▁loc	-11.116
▁билан	-11.1161
ijn	-11.1161
▁dah	-11.1162
▁match	-11.1162
▁savu	-11.1164
▁muda	-11.1164
ላ	-11.1164
▁THE	-11.1164
ılı	-11.1164
wit	-11.1166
▁allt	-11.1166
He	-11.1167
▁Garden	-11.1167
▁Photo	-11.1169
▁Sale	-11.1174
kro	-11.1175
▁could	-11.1175
tier	-11.1175
بل	-11.1175
▁kind	-11.1175
▁csak	-11.1176
ổ	-11.1176
风	-11.1178
ısı	-11.1179
MM	-11.118
aggio	-11.118
די	-11.1183
ific	-11.1183
lma	-11.1183
ெ	-11.1184
▁వి	-11.1186
▁area	-11.1189
▁Kui	-11.1189
▁Ø	-11.119
▁darb	-11.1191
ARI	-11.1191
ফ	-11.1191
ót	-11.1191
irt	-11.1192
िक	-11.1193
▁League	-11.1193
fal	-11.1193
清	-11.1193
▁front	-11.1194
▁tsa	-11.1195
▁ingin	-11.1195
▁Good	-11.1196
▁porn	-11.1198
▁свет	-11.1198
▁זה	-11.12
常	-11.1202
포	-11.1203
өө	-11.1203
ế	-11.1204
uhan	-11.1205
▁lý	-11.1206
空	-11.1207
▁mới	-11.1208
▁Ар	-11.1208
▁onde	-11.1208
cü	-11.1209
eka	-11.121
ENG	-11.1212
▁Spiel	-11.1212
users	-11.1213
annya	-11.1214
سا	-11.1215
ợ	-11.1216
▁mee	-11.1217
▁Tas	-11.1218
▁maz	-11.1218
രി	-11.1219
院	-11.122
▁vēl	-11.122
્	-11.1221
▁São	-11.1221
Nr	-11.1222
рав	-11.1224
rī	-11.1224
થ	-11.1225
NET	-11.1226
▁nya	-11.1228
dora	-11.1228
▁Sem	-11.1229
zal	-11.1229
uten	-11.1229
▁turi	-11.1231
星	-11.1232
ና	-11.1232
ศ	-11.1232
ENT	-11.1233
▁Article	-11.1233
▁thi	-11.1233
ճ	-11.1234
க்கு	-11.1234
▁aquesta	-11.1234
registr	-11.1235
尔	-11.1237
▁(10	-11.1237
▁nivel	-11.1239
▁gjithë	-11.1239
hil	-11.1242
▁Was	-11.1243
▁down	-11.1244
还	-11.1245
FT	-11.1246
LP	-11.1247
▁flu	-11.1248
▁Back	-11.1249
▁130	-11.1249
ıyor	-11.125
▁minu	-11.1251
▁Rom	-11.1252
▁zap	-11.1252
ых	-11.1253
DER	-11.1254
▁Те	-11.1257
▁self	-11.1258
bild	-11.1258
xan	-11.1258
装	-11.1259
ONG	-11.126
▁zem	-11.126
יל	-11.1262
nni	-11.1263
bay	-11.1264
▁finans	-11.1265
经	-11.1265
▁bri	-11.1267
▁gå	-11.1268
ਣ	-11.1269
ņu	-11.1269
xx	-11.1271
ڪ	-11.1272
श	-11.1272
▁대	-11.1272
▁lähe	-11.1274
展	-11.1275
▁AP	-11.1276
เ	-11.1277
▁bud	-11.1278
▁nieuwe	-11.1278
Pi	-11.1279
eign	-11.1282
ելու	-11.1282
▁оп	-11.1282
▁Now	-11.1282
▁ZA	-11.1283
ਡ	-11.1283
EX	-11.1284
stellen	-11.1284
▁koko	-11.1286
▁фа	-11.1287
EB	-11.1288
▁mos	-11.1288
▁사	-11.1288
▁Life	-11.1289
▁Sul	-11.129
unga	-11.129
ому	-11.1292
ull	-11.1294
▁hotell	-11.1298
▁lé	-11.1299
▁side	-11.13
dhe	-11.13
ajā	-11.1301
mg	-11.1301
ख	-11.1302
▁Nas	-11.1303
">	-11.1303
▁20,	-11.1304
date	-11.1305
▁Pad	-11.1305
▁dela	-11.1305
spekt	-11.1307
立	-11.131
▁ret	-11.1311
▁garanti	-11.1311
tige	-11.1312
rz	-11.1313
林	-11.1315
▁Kinder	-11.1316
ngkap	-11.1316
▁administra	-11.1316
utan	-11.1316
▁ತ	-11.1318
布	-11.1319
▁dhi	-11.1319
mati	-11.1319
▁Hill	-11.1322
yên	-11.1322
multiple	-11.1323
▁white	-11.1326
▁zeuden	-11.1326
▁plu	-11.1327
ška	-11.133
▁found	-11.133
우	-11.133
생	-11.133
▁sü	-11.1332
LAN	-11.1333
▁agent	-11.1334
RS	-11.1335
לת	-11.1336
▁28,	-11.1336
▁dalka	-11.1336
sök	-11.1337
▁1.1	-11.1337
dzīv	-11.1338
▁recept	-11.1339
নি	-11.1341
ome	-11.1344
▁bokep	-11.1347
תו	-11.1348
▁log	-11.135
نت	-11.1351
▁Jean	-11.1352
▁wali	-11.1352
▁vasta	-11.1353
▁Mr	-11.1354
です	-11.1354
▁prefer	-11.1355
科	-11.1358
▁94	-11.136
ả	-11.1361
▁olma	-11.1362
▁ר	-11.1363
▁Liga	-11.1364
▁εν	-11.1365
Bi	-11.1367
niec	-11.1367
DD	-11.1367
ук	-11.1368
▁favor	-11.1368
bū	-11.1368
lies	-11.1371
ونه	-11.1372
ီ	-11.1373
unan	-11.1373
rug	-11.1373
共	-11.1373
ֆ	-11.1375
▁kis	-11.1375
▁lever	-11.1376
RM	-11.1377
lā	-11.1378
лог	-11.1378
▁нас	-11.1378
אי	-11.1379
▁Nä	-11.1379
▁yil	-11.138
טר	-11.1381
punkt	-11.1381
▁Juni	-11.1382
зы	-11.1382
▁iyi	-11.1383
anje	-11.1384
▁Box	-11.1385
▁wakati	-11.1385
стра	-11.1386
▁Terra	-11.1387
▁vä	-11.1389
eket	-11.139
▁ajo	-11.1391
▁Tie	-11.1392
▁sina	-11.1393
dara	-11.14
▁hii	-11.14
ో	-11.14
客	-11.1401
证	-11.1403
kül	-11.1405
τά	-11.1406
kku	-11.1407
uza	-11.1407
рак	-11.1407
rank	-11.1408
▁volta	-11.1411
town	-11.1411
▁Publicado	-11.1412
▁mau	-11.1412
జ	-11.1412
mula	-11.1412
更	-11.1413
할	-11.1414
ድ	-11.1414
▁Classic	-11.1415
▁market	-11.1415
দের	-11.1417
ję	-11.1417
kārt	-11.1418
▁Fun	-11.142
▁ស	-11.1422
opa	-11.1422
▁Mod	-11.1423
▁NE	-11.1423
教	-11.1424
fb	-11.1424
▁metal	-11.1425
▁hori	-11.1427
جر	-11.1427
▁ži	-11.1429
▁través	-11.1429
▁before	-11.143
▁Rak	-11.143
aine	-11.1431
ён	-11.1432
▁වි	-11.1433
▁Gun	-11.1433
▁tablet	-11.1434
ნ	-11.1435
▁movie	-11.1435
▁essere	-11.1436
kita	-11.1437
▁waxa	-11.1438
cing	-11.1438
۳	-11.1438
నా	-11.1438
еж	-11.144
avad	-11.1443
적	-11.1444
▁respect	-11.1444
▁Bill	-11.1446
▁Hem	-11.1448
ыг	-11.1448
240	-11.145
▁نام	-11.1451
في	-11.1453
拉	-11.1453
terapi	-11.1455
డి	-11.1455
itatea	-11.1456
čky	-11.1457
Ex	-11.146
zh	-11.1461
ții	-11.1464
▁rob	-11.1465
VA	-11.1467
▁sku	-11.1468
▁kutoka	-11.1468
فت	-11.1468
▁tour	-11.1469
▁director	-11.1471
ācijas	-11.1471
▁temps	-11.1472
szcz	-11.1473
tique	-11.1473
oğlu	-11.1475
▁Studio	-11.1476
▁Tim	-11.1478
fn	-11.1478
▁cele	-11.1479
ախ	-11.148
bc	-11.1482
▁pomoc	-11.1482
▁بار	-11.1483
▁Royal	-11.1486
▁AB	-11.1487
▁serie	-11.1491
▁kro	-11.1491
▁Komp	-11.1491
mate	-11.1492
stic	-11.1492
宁	-11.1494
AND	-11.1494
▁σας	-11.1494
▁Му	-11.1495
вет	-11.1495
నే	-11.1496
Ru	-11.1496
רה	-11.1496
ĉ	-11.1497
рон	-11.1498
▁הוא	-11.1498
▁different	-11.1499
▁jî	-11.15
ไป	-11.15
强	-11.1501
yada	-11.1502
▁IS	-11.1502
ຍ	-11.1504
tani	-11.1504
esse	-11.1505
▁cơ	-11.1506
▁Ind	-11.1508
laki	-11.1508
招聘	-11.1508
▁Mala	-11.1508
▁objekt	-11.151
ไม่	-11.151
▁kh	-11.1512
▁Chu	-11.1512
itar	-11.1514
mart	-11.1514
kw	-11.1514
▁Express	-11.1514
ester	-11.1515
▁kullan	-11.1515
▁pap	-11.1516
▁Rose	-11.1517
▁μια	-11.1517
itti	-11.1519
▁resultat	-11.1519
▁Vä	-11.1519
კა	-11.152
▁सा	-11.152
▁sob	-11.1522
pik	-11.1522
gawa	-11.1523
▁sek	-11.1524
▁Пре	-11.1525
▁grad	-11.1525
meni	-11.1526
▁uso	-11.1528
▁رس	-11.1528
maha	-11.1529
▁Site	-11.153
▁qab	-11.1531
toj	-11.1532
mbro	-11.1533
▁FI	-11.1534
▁spot	-11.1535
બ	-11.1536
ული	-11.1536
▁kép	-11.1536
каза	-11.1537
▁ditë	-11.1537
▁жана	-11.1537
rien	-11.1538
▁Boy	-11.1539
▁nhân	-11.154
▁rot	-11.154
▁Vas	-11.1541
À	-11.1542
ží	-11.1542
ણ	-11.1542
▁Line	-11.1542
▁عمل	-11.1544
▁keer	-11.1545
▁memang	-11.1546
iser	-11.1547
▁Dalam	-11.1547
RAN	-11.1549
ି	-11.1549
▁även	-11.155
▁són	-11.1551
▁Ros	-11.1551
tasun	-11.1551
▁før	-11.1552
blo	-11.1553
dla	-11.1553
ገ	-11.1555
거	-11.1555
▁լ	-11.1555
ост	-11.1556
izo	-11.1557
▁kah	-11.1557
▁code	-11.1558
ková	-11.1559
▁termin	-11.1559
▁order	-11.1559
cell	-11.1562
▁American	-11.1562
神	-11.1564
▁ગ	-11.1564
▁bodo	-11.1565
▁kaya	-11.1565
-09-	-11.1565
dot	-11.1566
비	-11.1568
არ	-11.1568
▁Pada	-11.1568
ई	-11.1569
▁anterior	-11.157
enne	-11.1571
kuwa	-11.1576
07.	-11.1576
mene	-11.1578
бі	-11.1578
ະ	-11.1578
▁Golf	-11.1581
▁900	-11.1581
ból	-11.1581
▁tao	-11.1582
пла	-11.1585
nj	-11.1585
▁faire	-11.159
Ku	-11.1591
▁2016,	-11.1591
▁despre	-11.1591
▁Opera	-11.1593
▁Sti	-11.1595
999	-11.1596
▁prop	-11.1598
Hotel	-11.1599
ohen	-11.1599
考	-11.16
▁ਮ	-11.16
TY	-11.16
yal	-11.1601
▁Tun	-11.1601
ига	-11.1602
ক্ষ	-11.1603
пре	-11.1604
▁destina	-11.1605
▁Final	-11.1605
▁mål	-11.1606
▁rela	-11.1606
▁Amerika	-11.1606
▁700	-11.1608
gb	-11.1608
duc	-11.1609
赛	-11.1609
▁Juan	-11.1611
▁وت	-11.1612
▁Kultur	-11.1613
ních	-11.1613
▁fy	-11.1614
▁sasa	-11.1615
ລ	-11.1615
cade	-11.1615
▁''	-11.1616
▁ҳам	-11.1617
PN	-11.1617
▁chun	-11.1619
▁27,	-11.162
▁Oktober	-11.162
▁också	-11.162
▁가	-11.1622
ıcı	-11.1623
cli	-11.1624
▁tekst	-11.1625
▁vastu	-11.1625
්	-11.1625
");	-11.1625
▁101	-11.1626
anca	-11.1627
zá	-11.1627
▁då	-11.1628
ທ	-11.1629
ované	-11.1629
▁anni	-11.1631
▁Kin	-11.1633
▁Author	-11.1633
▁TH	-11.1633
graf	-11.1634
bara	-11.1635
fec	-11.1637
▁Intel	-11.1637
SL	-11.1638
erer	-11.164
▁tej	-11.164
larga	-11.1643
onder	-11.1644
വാ	-11.1645
▁Mes	-11.1647
▁own	-11.1648
rb	-11.1649
jun	-11.1649
rati	-11.1649
首	-11.165
ណ	-11.1657
LL	-11.1657
ခ	-11.1657
rc	-11.1659
▁ол	-11.1659
ො	-11.1662
ட்	-11.1662
ικά	-11.1663
▁Ann	-11.1665
▁Haus	-11.1666
৩	-11.1666
anı	-11.1668
▁પર	-11.1669
تل	-11.1671
▁possible	-11.1671
▁dua	-11.1672
▁TripAdvisor	-11.1676
mmen	-11.1676
▁BMW	-11.1676
▁polici	-11.1678
▁celebra	-11.1678
▁rész	-11.1679
▁HO	-11.1679
게	-11.168
▁alta	-11.1681
▁μας	-11.1682
▁jul	-11.1684
▁proses	-11.1685
мы	-11.1685
니	-11.1686
운	-11.1686
nico	-11.1687
tore	-11.1688
rü	-11.1688
▁card	-11.1689
▁ore	-11.1689
▁Dun	-11.1691
▁Χ	-11.1691
front	-11.1693
▁oldu	-11.1694
▁Sandal	-11.1694
zett	-11.1696
пис	-11.1696
▁bahwa	-11.1697
activ	-11.1698
▁UN	-11.1698
▁minden	-11.1699
vend	-11.17
▁під	-11.1701
ыз	-11.1701
▁Pos	-11.1702
▁Об	-11.1703
▁시	-11.1707
▁στις	-11.1707
HS	-11.1709
sız	-11.171
▁jej	-11.171
▁Դ	-11.1712
ذا	-11.1712
▁quality	-11.1712
sign	-11.1713
df	-11.1713
▁मा	-11.1715
▁lista	-11.1715
escu	-11.1716
fanya	-11.1718
▁mynd	-11.172
рес	-11.172
wiki	-11.1721
try	-11.1722
ôn	-11.1723
ров	-11.1726
ання	-11.1726
▁Pel	-11.1726
يس	-11.1726
អ	-11.1727
행	-11.1727
ач	-11.1728
CG	-11.173
män	-11.1731
Lu	-11.1732
▁Cena	-11.1733
schuhe	-11.1735
▁spi	-11.1736
ML	-11.1736
▁Бо	-11.1737
ché	-11.174
▁taip	-11.174
▁setiap	-11.1741
▁mó	-11.1741
има	-11.1743
рі	-11.1743
emos	-11.1743
oci	-11.1745
▁hil	-11.1746
▁ring	-11.1746
▁bersama	-11.1746
관	-11.1747
网址	-11.1748
tch	-11.175
▁stan	-11.1751
ੱ	-11.1751
▁país	-11.1753
▁SI	-11.1754
kast	-11.1754
▁Jack	-11.1755
▁src	-11.1755
▁centra	-11.1755
/2017	-11.1758
▁বা	-11.1758
نو	-11.1759
^	-11.1761
eus	-11.1761
▁idea	-11.1761
IF	-11.1763
Î	-11.1764
halt	-11.1767
kord	-11.1767
meter	-11.1767
▁PP	-11.1768
ků	-11.1769
ተ	-11.1769
▁Maka	-11.177
Go	-11.177
Tu	-11.1772
ног	-11.1772
sht	-11.1773
头	-11.1773
lm	-11.1773
noma	-11.1773
▁Но	-11.1775
▁Premium	-11.1775
▁ਦਾ	-11.1775
▁metu	-11.1777
gü	-11.1778
▁sehingga	-11.1779
▁mycket	-11.1779
신	-11.178
▁organis	-11.1781
▁Dengan	-11.1782
▁kunne	-11.1782
▁cách	-11.1783
▁protest	-11.1783
▁ligger	-11.1784
마	-11.1785
▁today	-11.1785
ੈ	-11.1787
▁sav	-11.1787
TP	-11.1789
▁Rosa	-11.1789
加盟	-11.1789
▁photo	-11.179
▁win	-11.179
më	-11.179
ър	-11.1792
tól	-11.1792
ელ	-11.1793
ең	-11.1794
▁studi	-11.1796
▁taas	-11.1796
ыш	-11.1796
LD	-11.1797
▁എ	-11.1798
达	-11.1798
cf	-11.1799
sted	-11.1799
▁anys	-11.1802
▁think	-11.1802
▁Central	-11.1804
▁Mga	-11.1806
▁mode	-11.1808
▁Nach	-11.1808
▁Total	-11.1808
▁мас	-11.1808
▁hom	-11.1809
وار	-11.1809
▁ਕਿ	-11.181
▁sele	-11.181
▁مج	-11.1812
320	-11.1812
ța	-11.1813
▁Centre	-11.1814
▁Pic	-11.1814
▁Ä	-11.1814
▁cấp	-11.1817
▁បាន	-11.1817
▁Ι	-11.1818
▁кои	-11.182
▁phải	-11.182
▁todas	-11.182
ага	-11.1821
▁verður	-11.1821
▁Prof	-11.1822
▁Monte	-11.1822
▁regul	-11.1823
▁fla	-11.1823
▁MU	-11.1823
imą	-11.1824
შ	-11.1826
▁Store	-11.1828
▁Modern	-11.1829
▁segui	-11.183
▁jual	-11.1831
▁šo	-11.1832
ент	-11.1832
ед	-11.1832
sdag	-11.1834
קי	-11.1834
çu	-11.1835
চ	-11.1835
/11/	-11.1838
Foto	-11.1841
veg	-11.1843
mín	-11.1843
ետ	-11.1844
tol	-11.1845
ilgan	-11.1845
ረ	-11.1846
▁alles	-11.1846
ANT	-11.1846
Hu	-11.1846
▁Hai	-11.1847
▁դ	-11.1848
▁valg	-11.1849
ière	-11.185
时间	-11.1852
▁нај	-11.1852
iau	-11.1852
OB	-11.1856
▁Sara	-11.1856
▁hra	-11.1856
吗	-11.1856
LC	-11.1857
▁Hen	-11.1858
itos	-11.186
调	-11.1861
▁(7	-11.1861
▁Qui	-11.1861
și	-11.1862
مة	-11.1864
▁న	-11.1865
▁mudah	-11.1866
▁noi	-11.1866
▁Entre	-11.1867
йн	-11.1867
ؤ	-11.1871
yg	-11.1874
들	-11.1875
▁kit	-11.1875
▁խ	-11.1879
Pri	-11.1879
▁rek	-11.188
print	-11.188
▁utan	-11.1881
ష	-11.1883
cola	-11.1883
ע	-11.1884
▁Centro	-11.1885
ہر	-11.1885
▁وي	-11.1886
264	-11.1887
금	-11.1888
▁komunik	-11.1888
▁isə	-11.1889
او	-11.1889
RP	-11.1891
▁juli	-11.1891
lè	-11.1891
şə	-11.1892
▁Chat	-11.1895
ਿਆ	-11.1895
解	-11.1896
LAR	-11.1896
rai	-11.1897
ად	-11.1898
▁kuu	-11.1901
▁кар	-11.1901
片	-11.1903
င်	-11.1903
tato	-11.1904
uche	-11.1905
▁Sala	-11.1906
lín	-11.1907
ಧ	-11.1908
ும்	-11.1908
▁Flor	-11.191
▁Ihre	-11.191
πε	-11.1911
ového	-11.1911
ិ	-11.1912
▁transfer	-11.1913
ád	-11.1914
کار	-11.1914
zak	-11.1915
▁360	-11.1916
ார்	-11.1918
ල්	-11.192
ടി	-11.192
ikat	-11.192
ռ	-11.192
▁spe	-11.1921
રો	-11.1921
пан	-11.1923
▁seorang	-11.1923
▁rest	-11.1923
ışı	-11.1924
▁dėl	-11.1924
007	-11.1925
uva	-11.1925
aad	-11.1926
▁Hier	-11.1927
нага	-11.1928
▁vind	-11.1928
▁constru	-11.1928
evi	-11.1929
ٹر	-11.1929
န္	-11.193
gov	-11.1932
ცი	-11.1932
iyay	-11.1933
▁Travel	-11.1933
ifi	-11.1934
龙	-11.1934
▁Bakı	-11.1935
▁байна	-11.1935
▁bija	-11.1935
ਰੀ	-11.1936
fj	-11.1937
cción	-11.1937
▁individual	-11.1937
▁virus	-11.1938
ัน	-11.1939
包	-11.1939
umba	-11.194
▁Λ	-11.194
▁Head	-11.1941
▁lle	-11.1943
▁tend	-11.1943
ښ	-11.1944
▁GR	-11.1947
инг	-11.1947
投	-11.1948
▁chce	-11.195
420	-11.1951
▁reklam	-11.1951
иот	-11.1951
hag	-11.1952
만	-11.1955
መ	-11.1955
color	-11.1957
06.	-11.1958
▁moi	-11.1959
лт	-11.196
On	-11.1961
▁Hit	-11.1961
pho	-11.1962
▁juu	-11.1962
▁jur	-11.1962
▁privat	-11.1962
▁MS	-11.1962
bun	-11.1962
trag	-11.1965
ີ	-11.1965
▁then	-11.1966
▁ел	-11.1969
▁মা	-11.1971
ენ	-11.1972
rry	-11.1974
▁mart	-11.1974
▁իր	-11.1974
ဖ	-11.1977
טו	-11.1977
riya	-11.1977
ellä	-11.1979
▁fat	-11.198
tah	-11.198
ינ	-11.1981
▁Dir	-11.1981
▁Polo	-11.1981
Is	-11.1981
▁SH	-11.1981
▁stol	-11.1982
▁định	-11.1982
spir	-11.1982
▁PE	-11.1983
heng	-11.1985
ευ	-11.1985
▁cả	-11.1989
▁BR	-11.1991
▁haber	-11.1994
▁Pala	-11.1995
ಲಿ	-11.1998
▁Event	-11.1999
▁vot	-11.2
tron	-11.2
رف	-11.2
adó	-11.2001
▁SKU	-11.2002
žen	-11.2002
вор	-11.2003
▁while	-11.2003
under	-11.2004
acaq	-11.2004
▁لی	-11.2007
运	-11.2007
▁απ	-11.2007
手机	-11.2009
átor	-11.2011
▁pois	-11.2012
▁Га	-11.2014
▁nasod	-11.2014
əcək	-11.2015
▁fac	-11.2018
feira	-11.2021
head	-11.2022
еш	-11.2022
mali	-11.2023
EF	-11.2024
▁Global	-11.2024
▁metro	-11.2024
▁klar	-11.2026
▁(8	-11.2026
▁Pem	-11.2027
▁25,	-11.2028
РА	-11.203
pena	-11.2032
▁Kenya	-11.2032
elles	-11.2033
nă	-11.2034
sive	-11.2037
istan	-11.2037
▁لم	-11.2037
▁memberikan	-11.2038
至	-11.2039
▁Pay	-11.204
▁מש	-11.204
pf	-11.2042
ikus	-11.2043
▁første	-11.2043
▁try	-11.2043
dica	-11.2044
▁too	-11.2044
iler	-11.2044
tut	-11.2045
▁tir	-11.2046
cular	-11.2046
stof	-11.2047
▁कर	-11.2047
rid	-11.205
▁Kontakt	-11.2051
quot	-11.2051
▁pana	-11.2052
▁organiza	-11.2053
ایی	-11.2053
ative	-11.2056
iš	-11.2057
▁libro	-11.2057
Ke	-11.2058
▁gut	-11.2059
信息	-11.2061
▁pertsona	-11.2061
аж	-11.2062
▁Eng	-11.2062
▁vu	-11.2064
αγ	-11.2065
▁ফ	-11.2066
▁waktu	-11.2066
afa	-11.2067
▁contribu	-11.2068
્યા	-11.2068
▁svoje	-11.2068
ونو	-11.2069
न्	-11.2069
/09/	-11.207
▁vụ	-11.2071
▁tutti	-11.2071
▁Diesel	-11.2071
▁Person	-11.2071
ઇ	-11.2072
▁meget	-11.2073
ಳ	-11.2074
يب	-11.2074
ење	-11.2075
ubi	-11.2075
лин	-11.2076
▁град	-11.2076
▁treball	-11.2079
chat	-11.2082
▁Kro	-11.2082
INI	-11.2082
ében	-11.2083
▁Maar	-11.2083
צי	-11.2084
▁siden	-11.2084
▁visu	-11.2085
レ	-11.2085
▁passa	-11.2085
ਸ਼	-11.2086
▁4-	-11.2088
gum	-11.2089
▁kendi	-11.209
nyi	-11.209
kó	-11.2091
mber	-11.2092
▁inspir	-11.2093
قا	-11.2093
▁kole	-11.2093
▁Fil	-11.2094
002	-11.2096
tov	-11.2097
▁nok	-11.2099
jek	-11.2102
▁vairāk	-11.2104
▁Imp	-11.2104
кт	-11.2106
▁fur	-11.2106
▁Case	-11.2106
▁princip	-11.2107
▁paket	-11.2107
▁sign	-11.2107
▁cest	-11.2107
▁(7)	-11.2108
▁Will	-11.2108
ио	-11.2109
▁yana	-11.211
וק	-11.2111
▁Ку	-11.2111
▁mac	-11.2112
▁Rama	-11.2112
αι	-11.2113
▁주	-11.2115
DM	-11.2115
▁kerana	-11.2115
▁Projekt	-11.2116
▁finde	-11.2118
ൻ	-11.2118
▁jetë	-11.2118
ி	-11.2119
少	-11.2119
▁gratuit	-11.2119
▁pet	-11.2121
bé	-11.2122
про	-11.2126
▁moja	-11.2127
▁что	-11.2127
▁Old	-11.2129
act	-11.2129
سی	-11.2129
▁Cir	-11.213
▁olduğunu	-11.213
endi	-11.213
خت	-11.213
▁Somaliland	-11.2131
xin	-11.2132
▁degli	-11.2132
▁SC	-11.2132
▁Sports	-11.2133
▁új	-11.2134
▁aba	-11.2134
kaj	-11.2135
ghi	-11.2136
カ	-11.2137
сын	-11.2137
▁düş	-11.2138
▁také	-11.2138
▁presenta	-11.2138
▁Deze	-11.2139
委	-11.214
▁Gy	-11.2141
▁Get	-11.2144
సి	-11.2147
▁Roll	-11.2147
ಗಳ	-11.2148
▁وہ	-11.2149
ില്‍	-11.2149
▁FA	-11.215
▁Sou	-11.2151
▁intens	-11.2152
▁Rais	-11.2154
▁məlumat	-11.2154
▁أو	-11.2157
TAN	-11.2158
ībā	-11.2159
▁vår	-11.216
러	-11.2162
kry	-11.2163
▁kommun	-11.2163
дын	-11.2164
140	-11.2164
▁AT	-11.2166
ို	-11.2167
▁hvis	-11.2167
▁gehiago	-11.2168
AGA	-11.217
rita	-11.217
▁Work	-11.217
งาน	-11.2171
▁الش	-11.2171
123	-11.2171
▁billig	-11.2172
ského	-11.2173
▁však	-11.2173
▁rece	-11.2173
ovej	-11.2174
hľad	-11.2177
▁tuli	-11.2178
▁presente	-11.218
িক	-11.2181
▁jūs	-11.2182
ffen	-11.2182
▁using	-11.2182
气	-11.2183
▁Tek	-11.2183
▁qar	-11.2184
GI	-11.2185
ajo	-11.2185
在线	-11.2186
▁مش	-11.2186
EU	-11.2187
▁qi	-11.2187
ուս	-11.2187
کس	-11.2188
ilan	-11.2188
tys	-11.2189
▁Pres	-11.2191
anse	-11.2192
▁będzie	-11.2195
▁30,	-11.2195
▁thời	-11.2195
▁civil	-11.2196
▁Ли	-11.2197
ప్	-11.2198
ške	-11.2198
ының	-11.2199
▁Ef	-11.22
klu	-11.2203
[/	-11.2203
▁পা	-11.2205
AV	-11.2205
נד	-11.2205
гийн	-11.2205
단	-11.2205
太	-11.2205
▁regi	-11.2207
▁paling	-11.2207
/12/	-11.2207
AJ	-11.221
식	-11.2211
rav	-11.2213
▁Honda	-11.2214
laga	-11.2214
▁جس	-11.2215
centr	-11.2215
让	-11.2215
▁oku	-11.2215
İN	-11.2216
▁Escort	-11.2217
▁aug	-11.2217
▁waa	-11.2218
▁پیش	-11.2219
eľ	-11.222
ttle	-11.2221
دم	-11.2221
▁kamera	-11.2223
ิ	-11.2224
tő	-11.2224
чин	-11.2224
يف	-11.2226
宝	-11.2227
+"	-11.2229
▁tôi	-11.223
سل	-11.2231
AAA	-11.2232
ચ	-11.2232
▁lượng	-11.2233
tors	-11.2234
ൽ	-11.2235
▁sak	-11.2235
తో	-11.2236
dong	-11.2236
ពី	-11.2237
▁būs	-11.2237
▁thì	-11.224
عة	-11.224
yna	-11.224
▁στον	-11.224
stone	-11.2241
▁ҳа	-11.2241
liq	-11.2242
enta	-11.2243
ራ	-11.2243
iak	-11.2244
DK	-11.2245
іс	-11.2245
▁Sverige	-11.2246
▁mene	-11.2246
nosť	-11.2246
show	-11.2247
ශ	-11.2249
ип	-11.2249
ಮಾ	-11.2249
▁κατα	-11.225
core	-11.225
శ	-11.2252
mut	-11.2252
▁xəbər	-11.2253
مت	-11.2254
▁Tha	-11.2255
▁cover	-11.2257
130	-11.2258
▁Ich	-11.2259
ฟ	-11.226
▁paš	-11.226
JI	-11.2261
bruk	-11.2262
▁Indi	-11.2262
▁eman	-11.2263
▁kõik	-11.2264
CR	-11.2264
Image	-11.2265
Ā	-11.2265
▁Paulo	-11.2265
▁Nh	-11.2266
▁déc	-11.2266
▁köz	-11.2266
iyyət	-11.2267
▁muy	-11.2268
▁Sab	-11.2269
λο	-11.2269
sluit	-11.227
▁Pr	-11.2272
atura	-11.2274
HE	-11.2274
ഹ	-11.2275
▁podob	-11.2276
▁Tagged	-11.2276
▁RA	-11.2276
Art	-11.2277
现	-11.2277
गा	-11.2279
▁Parlament	-11.2281
koak	-11.2282
▁perfekt	-11.2282
ულ	-11.2282
లా	-11.2284
百	-11.2285
재	-11.2286
хан	-11.2288
reng	-11.229
▁José	-11.229
atzeko	-11.2291
қи	-11.2293
▁worm	-11.2293
▁হ	-11.2294
ntu	-11.2294
foto	-11.2294
ஸ்	-11.2296
▁verdi	-11.2297
يك	-11.2297
▁Edi	-11.2298
టి	-11.2298
kje	-11.2298
nz	-11.2298
▁йил	-11.2299
▁tinggi	-11.2301
rog	-11.2301
▁seo	-11.2303
社	-11.2303
▁gla	-11.2305
▁sai	-11.2305
资	-11.2306
vl	-11.2307
yla	-11.2307
hm	-11.2307
热	-11.2307
▁Nar	-11.2309
▁automat	-11.231
ונה	-11.2312
iger	-11.2313
▁մասին	-11.2314
із	-11.2317
nyt	-11.2318
先	-11.2319
abad	-11.2319
▁segundo	-11.2319
chung	-11.232
▁mapa	-11.2321
▁áll	-11.2321
ұ	-11.2321
2006	-11.2321
▁ду	-11.2322
ഡ	-11.2322
▁না	-11.2322
▁hr	-11.2322
ძ	-11.2324
▁тө	-11.2325
ță	-11.2326
▁Manager	-11.2326
ales	-11.2326
نج	-11.2327
▁Ort	-11.2328
lise	-11.2329
ával	-11.2329
system	-11.2329
▁pem	-11.233
▁mali	-11.2331
▁Stre	-11.2332
raad	-11.2332
drž	-11.2333
ischen	-11.2335
▁Það	-11.2336
▁dalla	-11.2336
bles	-11.2337
▁ingen	-11.2337
▁ari	-11.2337
izar	-11.2338
әр	-11.2338
▁Kota	-11.2338
тро	-11.2338
יס	-11.2339
▁heel	-11.2339
党	-11.234
▁Adam	-11.2341
lice	-11.2342
tka	-11.2342
ilen	-11.2342
▁най	-11.2343
ông	-11.2343
рин	-11.2344
gata	-11.2347
▁ас	-11.2349
▁Ví	-11.235
▁گیا	-11.235
යේ	-11.2352
▁hjá	-11.2354
第	-11.2355
▁komen	-11.2355
▁ਬ	-11.2356
▁Պ	-11.2356
▁Vila	-11.2357
به	-11.2357
sť	-11.2358
ский	-11.2358
▁visita	-11.236
▁Fit	-11.2361
той	-11.2361
тэй	-11.2363
reich	-11.2363
riko	-11.2363
pata	-11.2364
یس	-11.2366
▁کم	-11.2366
ئی	-11.2367
γκ	-11.2368
▁đi	-11.2368
▁because	-11.2368
▁করে	-11.2369
003	-11.2369
▁eh	-11.2369
▁groot	-11.237
▁group	-11.2372
▁OP	-11.2373
eerde	-11.2373
▁Thomas	-11.2374
gai	-11.2375
ciu	-11.2375
▁Wood	-11.2376
тин	-11.2376
▁Gan	-11.2377
ETA	-11.2378
▁Meng	-11.2378
▁professional	-11.2378
▁vom	-11.238
▁Ле	-11.238
▁یو	-11.238
▁Kad	-11.2381
▁käy	-11.2381
▁Como	-11.2382
▁Bang	-11.2382
▁Come	-11.2383
Ι	-11.2384
▁kde	-11.2386
▁pati	-11.2387
▁Dat	-11.2388
azio	-11.2389
▁xo	-11.2389
▁jā	-11.239
▁hum	-11.239
ница	-11.239
▁aukera	-11.2391
▁кој	-11.2392
عد	-11.2394
▁moto	-11.2394
▁Carl	-11.2394
λη	-11.2396
gja	-11.2396
▁health	-11.2398
anın	-11.2398
owania	-11.2399
▁family	-11.24
pä	-11.24
iques	-11.2401
▁large	-11.2404
165	-11.2404
▁estar	-11.2405
▁dir	-11.2405
եք	-11.2408
bund	-11.241
valt	-11.241
▁KB	-11.2411
ผู้	-11.2412
ታ	-11.2412
ribu	-11.2413
하고	-11.2414
ох	-11.2414
▁being	-11.2416
▁susi	-11.2416
0.1	-11.2416
வி	-11.2416
▁Lee	-11.2418
rich	-11.242
ір	-11.2421
▁Micro	-11.2422
کن	-11.2422
ēr	-11.2423
lka	-11.2423
▁East	-11.2423
κα	-11.2423
ු	-11.2424
ায়	-11.2424
▁как	-11.2425
NN	-11.2425
▁Daar	-11.2425
LER	-11.2426
šanu	-11.2427
ности	-11.2427
ności	-11.2428
▁üzrə	-11.2429
مي	-11.2429
▁así	-11.2429
▁Ultra	-11.2431
▁España	-11.2431
кс	-11.2432
ງ	-11.2432
▁Song	-11.2432
իս	-11.2435
▁ак	-11.2436
▁Standard	-11.2437
▁James	-11.2439
单	-11.2441
რე	-11.2442
illä	-11.2443
lərinin	-11.2445
žia	-11.2445
▁RM	-11.2445
liku	-11.2446
inc	-11.2446
▁план	-11.2447
owo	-11.2448
ది	-11.2448
øk	-11.2448
Bar	-11.2448
att	-11.2448
▁banda	-11.2449
产	-11.2449
ról	-11.245
▁Ис	-11.245
▁Material	-11.245
יב	-11.245
bbi	-11.2451
▁iar	-11.2451
kula	-11.2451
egu	-11.2452
▁دي	-11.2452
GP	-11.2453
時	-11.2455
影	-11.2455
字	-11.2455
acha	-11.2456
innerHTML	-11.2456
ımı	-11.2456
keskus	-11.2459
مار	-11.2459
▁IV	-11.246
रि	-11.246
ET	-11.246
ති	-11.2461
pati	-11.2461
1.1	-11.2461
kê	-11.2462
▁Mik	-11.2463
ள	-11.2464
▁Norge	-11.2464
220	-11.2464
▁Card	-11.2465
್	-11.2465
MER	-11.2467
cut	-11.2468
રે	-11.247
▁raha	-11.2471
▁Mill	-11.2472
zare	-11.2474
vē	-11.2475
ACT	-11.2476
▁fue	-11.2476
wor	-11.2479
▁Kart	-11.2479
▁ط	-11.248
▁Spi	-11.248
misel	-11.2481
тур	-11.2481
▁stað	-11.2482
▁month	-11.2483
த்து	-11.2484
개	-11.2484
▁Å	-11.2484
zzi	-11.2485
▁été	-11.2485
oir	-11.2486
▁ఎ	-11.2487
▁server	-11.2488
lið	-11.2488
siga	-11.2489
וס	-11.2489
hled	-11.249
▁fare	-11.249
▁assist	-11.2492
▁did	-11.2492
▁maand	-11.2493
▁each	-11.2494
▁Sor	-11.2499
graph	-11.2499
▁River	-11.25
ແ	-11.25
ujú	-11.2502
▁search	-11.2502
νη	-11.2503
zí	-11.2504
▁sida	-11.2504
ຄ	-11.2506
ům	-11.2506
▁posted	-11.2507
▁europe	-11.2507
▁Rei	-11.2508
anja	-11.2509
rø	-11.251
lej	-11.251
ziona	-11.251
زي	-11.2513
fil	-11.2513
▁ই	-11.2514
▁viac	-11.2516
mid	-11.2517
▁milimetro	-11.2517
lerde	-11.2517
ղ	-11.2518
▁Franc	-11.252
bg	-11.2521
▁teknik	-11.2521
sah	-11.2522
อร์	-11.2523
▁fine	-11.2524
ration	-11.2524
▁Apa	-11.2527
▁שי	-11.2527
aliza	-11.2527
▁boy	-11.2528
▁artist	-11.2529
eret	-11.253
tish	-11.2532
师	-11.2533
▁vär	-11.2535
ать	-11.2535
▁JA	-11.2537
chter	-11.2537
▁cl	-11.254
eiros	-11.254
لم	-11.254
pod	-11.2541
▁SU	-11.2541
▁менен	-11.2542
got	-11.2543
▁Ә	-11.2543
agem	-11.2544
▁]	-11.2544
▁khu	-11.2547
▁sklad	-11.2549
▁2020,	-11.2549
▁Call	-11.255
▁paar	-11.255
חי	-11.2553
▁music	-11.2553
PG	-11.2554
▁pran	-11.2554
tuak	-11.2555
管理	-11.2555
ீ	-11.2555
VE	-11.2557
▁hanno	-11.2558
CN	-11.2558
▁puh	-11.256
LV	-11.2562
▁FOTO	-11.2562
▁кал	-11.2563
▁antara	-11.2565
INE	-11.2565
ಾಗ	-11.2566
▁सु	-11.2567
▁Glo	-11.257
▁Shu	-11.2571
▁nime	-11.2572
▁lider	-11.2573
▁sebe	-11.2573
180	-11.2574
▁(+	-11.2574
▁around	-11.2577
ncer	-11.2578
▁account	-11.2579
یو	-11.258
իր	-11.258
ATE	-11.2581
▁president	-11.2582
乐	-11.2583
▁ച	-11.2583
▁vra	-11.2585
▁Shar	-11.2587
WI	-11.2588
▁hus	-11.2588
мент	-11.2589
৫	-11.2589
Pol	-11.259
ਵ	-11.2591
▁ás	-11.2591
▁správ	-11.2591
▁Kos	-11.2591
▁Airport	-11.2591
embre	-11.2592
▁Room	-11.2592
▁gje	-11.2594
石	-11.2594
▁בש	-11.2596
新闻网	-11.2597
▁***	-11.2597
mpak	-11.2598
ILI	-11.2598
toa	-11.26
kha	-11.26
۸	-11.2601
cept	-11.2601
şı	-11.2602
▁maak	-11.2603
▁vak	-11.2604
чен	-11.2606
gay	-11.2607
ッ	-11.2608
vou	-11.2609
סט	-11.2609
lain	-11.2609
லை	-11.2609
▁Bud	-11.2609
гы	-11.2611
▁permet	-11.2612
▁metros	-11.2612
้	-11.2613
VR	-11.2614
▁pea	-11.2614
/7	-11.2616
lish	-11.2618
▁vera	-11.2618
mista	-11.2619
▁Marc	-11.2621
▁Local	-11.2623
▁zaidi	-11.2624
нос	-11.2624
▁kv	-11.2626
ಂದ	-11.2628
款	-11.2628
ि	-11.2629
acion	-11.2629
àn	-11.2629
▁Mara	-11.263
plica	-11.2632
OD	-11.2633
ាយ	-11.2633
▁össze	-11.2634
▁send	-11.2635
▁kesk	-11.2636
وع	-11.2637
pedi	-11.2638
võt	-11.2639
/01	-11.264
▁cart	-11.2641
▁ос	-11.2642
BM	-11.2642
ajn	-11.2643
▁tamén	-11.2643
▁gure	-11.2644
dov	-11.2644
▁miss	-11.2645
彩票	-11.2645
বি	-11.2646
pir	-11.2647
่า	-11.2647
АН	-11.2647
▁പ്ര	-11.2649
▁ಸಂ	-11.265
vara	-11.265
▁ўз	-11.2651
اش	-11.2651
▁יש	-11.2653
???	-11.2653
▁Ele	-11.2655
▁үз	-11.2655
ије	-11.2655
▁Bei	-11.2656
▁tad	-11.2658
rö	-11.266
tale	-11.2663
φορ	-11.2663
▁viên	-11.2664
▁lehen	-11.2666
▁sektor	-11.2667
/11	-11.2667
▁எ	-11.2667
▁leik	-11.2667
▁trình	-11.2668
▁suas	-11.2669
HU	-11.2673
Ի	-11.2675
▁primeiro	-11.2676
لة	-11.2676
enge	-11.2676
▁năng	-11.2676
▁George	-11.2677
▁Control	-11.2677
ನಾ	-11.2678
mą	-11.268
▁edil	-11.268
Մ	-11.2681
▁radi	-11.2682
handel	-11.2683
▁Sea	-11.2683
▁350	-11.2683
▁độ	-11.2683
sione	-11.2685
ಚ	-11.2685
▁biri	-11.2685
зна	-11.2685
▁gerek	-11.2687
▁À	-11.2688
ღ	-11.2688
餐	-11.269
ზ	-11.2691
cem	-11.2692
▁ketika	-11.2694
▁mendapatkan	-11.2695
▁Би	-11.2695
▁zelf	-11.2696
ക്ക്	-11.2697
▁Գ	-11.2697
▁single	-11.2699
otta	-11.27
rës	-11.2701
目	-11.2701
▁Nik	-11.2701
▁FOR	-11.2702
▁Dress	-11.2702
▁uns	-11.2702
dî	-11.2703
오	-11.2704
ებ	-11.2705
136	-11.2705
wag	-11.2707
ロ	-11.2711
ización	-11.2712
▁50%	-11.2712
usan	-11.2713
▁zdrav	-11.2713
▁lehet	-11.2713
ibi	-11.2714
▁kredit	-11.2715
う	-11.2715
▁кө	-11.2716
్	-11.2717
ори	-11.2717
bd	-11.2718
380	-11.2718
▁2016.	-11.2718
▁kini	-11.2719
▁Als	-11.272
nig	-11.2721
▁Fort	-11.2722
▁bring	-11.2723
战	-11.2724
tır	-11.2725
▁interna	-11.2726
▁پا	-11.2727
loc	-11.2727
▁Lau	-11.2728
jski	-11.2731
mol	-11.2731
skóla	-11.2732
ču	-11.2733
inha	-11.2733
▁secret	-11.2734
近	-11.2734
那	-11.2735
▁AND	-11.2735
▁between	-11.2736
▁Lamp	-11.2736
▁būti	-11.2736
▁mano	-11.2737
kide	-11.274
▁Lie	-11.2741
ref	-11.2741
gha	-11.2741
gram	-11.2742
▁než	-11.2744
▁risk	-11.2744
▁andra	-11.2744
ま	-11.2745
kuu	-11.2746
▁(0	-11.2748
▁hingga	-11.2748
▁liter	-11.2749
▁هو	-11.2749
▁box	-11.275
CHE	-11.275
ъл	-11.275
▁өз	-11.2752
由	-11.2752
lær	-11.2752
▁ද	-11.2753
▁share	-11.2753
▁cili	-11.2753
▁vetëm	-11.2754
▁très	-11.2755
sama	-11.2757
▁שמ	-11.2758
▁koncert	-11.2759
▁rất	-11.276
配	-11.2761
▁Sto	-11.2762
▁koos	-11.2763
zol	-11.2763
▁Book	-11.2766
▁sitt	-11.2766
္	-11.2767
ಗಳು	-11.2767
▁rem	-11.2767
▁ул	-11.2768
▁ball	-11.2768
شی	-11.2768
tso	-11.2768
▁Л	-11.2768
følge	-11.2768
ರೆ	-11.2769
وری	-11.277
εύ	-11.2771
▁gain	-11.2772
كي	-11.2774
zt	-11.2774
▁apr	-11.2774
eń	-11.2777
кай	-11.2779
▁disk	-11.2779
ој	-11.2779
іп	-11.278
▁Из	-11.2781
▁varia	-11.2785
iten	-11.2787
▁Baş	-11.2788
▁lip	-11.2789
ovo	-11.2789
ayaan	-11.2792
ल्	-11.2792
kant	-11.2793
CB	-11.2795
▁rasa	-11.2795
▁ise	-11.2795
ения	-11.2796
০	-11.2796
▁nên	-11.2798
фа	-11.2798
ick	-11.2799
XI	-11.28
куп	-11.2801
▁ket	-11.2801
۹	-11.2802
զ	-11.2803
체	-11.2804
▁close	-11.2805
png	-11.2806
▁mask	-11.2806
/9	-11.2807
sında	-11.2809
כל	-11.2811
יש	-11.2812
ifica	-11.2812
ੜ	-11.2812
▁staat	-11.2813
▁wala	-11.2813
▁Vend	-11.2814
▁۔	-11.2816
▁hati	-11.2816
/19	-11.2817
선	-11.2817
rier	-11.2817
ized	-11.2817
gara	-11.2818
▁daudz	-11.2818
▁От	-11.2819
lun	-11.2819
ാണ്	-11.2819
▁Xi	-11.2819
▁faz	-11.2821
▁IST	-11.2821
Ju	-11.2822
روس	-11.2822
▁automobil	-11.2826
▁ह	-11.2826
▁điều	-11.2827
▁||	-11.2829
mens	-11.2829
ones	-11.283
▁Kai	-11.2831
▁legal	-11.2832
▁nyt	-11.2832
segu	-11.2832
jón	-11.2835
guard	-11.2836
▁update	-11.2838
▁monitor	-11.284
▁Pur	-11.2841
▁dagen	-11.2841
▁Ford	-11.2842
úr	-11.2842
▁வ	-11.2843
▁Vid	-11.2843
owego	-11.2843
▁edi	-11.2844
word	-11.2844
▁Pl	-11.2845
lete	-11.2845
▁Copyright	-11.2846
scar	-11.2846
Die	-11.2846
▁flor	-11.2847
ባ	-11.285
ografi	-11.2852
▁Με	-11.2852
미	-11.2852
ీ	-11.2853
iny	-11.2854
▁pasti	-11.2855
ters	-11.2855
owane	-11.2855
每	-11.2855
▁Vý	-11.2855
jut	-11.2855
rrera	-11.2856
▁Kil	-11.2857
▁minister	-11.2857
ări	-11.2857
MC	-11.2859
▁Rod	-11.286
ีย	-11.286
▁Promo	-11.2861
արտ	-11.2861
▁ന	-11.2862
tés	-11.2862
ALA	-11.2863
ayı	-11.2864
teria	-11.2865
▁εκ	-11.2865
larini	-11.2865
▁Wil	-11.2865
▁Yeni	-11.2866
মা	-11.2866
position	-11.2867
▁Series	-11.2867
ശ	-11.2868
פת	-11.2871
▁Kab	-11.2872
▁לי	-11.2873
lung	-11.2874
▁Ori	-11.2874
صر	-11.2874
▁mira	-11.2877
▁mwaka	-11.2877
▁hold	-11.2878
ệ	-11.2881
▁menye	-11.2881
σι	-11.2881
şe	-11.2883
料	-11.2883
роб	-11.2884
速	-11.2884
酒店	-11.2884
భ	-11.2884
±	-11.2884
▁vier	-11.2886
ūr	-11.2888
ют	-11.2888
null	-11.2889
нан	-11.289
▁AD	-11.289
ା	-11.289
▁mbi	-11.289
▁pá	-11.2892
oak	-11.2892
tali	-11.2893
▁millor	-11.2893
▁qarşı	-11.2896
▁2013,	-11.2896
▁werd	-11.2897
ઈ	-11.2898
bord	-11.2898
ոլ	-11.2899
ոս	-11.2899
bú	-11.2899
ebb	-11.29
▁Kri	-11.2903
nju	-11.2903
Ј	-11.2903
uploads	-11.2904
▁PU	-11.2905
%20	-11.2906
▁Pris	-11.2907
▁tips	-11.2907
▁ہیں۔	-11.2908
ವಾ	-11.2909
[1]	-11.2909
яс	-11.2912
▁115	-11.2912
▁Nahimutang	-11.2913
▁oktober	-11.2913
▁result	-11.2914
hli	-11.2914
?”	-11.2914
专	-11.2917
▁estis	-11.2918
▁Hann	-11.2919
▁rom	-11.292
▁SK	-11.292
▁Fall	-11.2922
▁ប	-11.2923
▁Japan	-11.2923
ската	-11.2924
▁animal	-11.2924
round	-11.2925
▁spor	-11.2925
▁tarafından	-11.2925
որդ	-11.2926
וש	-11.2927
▁31.	-11.2928
▁Transport	-11.2929
超	-11.2929
▁xuất	-11.2931
▁content	-11.2931
▁From	-11.2932
цион	-11.2932
▁än	-11.2933
чка	-11.2934
ington	-11.2936
▁End	-11.2936
▁hyvä	-11.2936
▁Ե	-11.2937
эг	-11.294
даги	-11.294
tega	-11.294
▁libre	-11.2941
▁tego	-11.2941
তা	-11.2942
дон	-11.2943
▁pow	-11.2943
▁בה	-11.2945
▁Վ	-11.2945
ದು	-11.2946
▁next	-11.2946
▁🙂	-11.2946
▁tijd	-11.2948
क्	-11.2949
▁memper	-11.2949
рын	-11.2949
ordin	-11.2949
▁ده	-11.295
րա	-11.2952
üt	-11.2953
早	-11.2953
աշ	-11.2954
wir	-11.2955
▁बा	-11.2956
uses	-11.2957
▁kanssa	-11.2957
sex	-11.2958
▁grand	-11.2959
▁kuru	-11.2959
BU	-11.2959
RD	-11.296
▁fire	-11.2961
▁CH	-11.2962
posta	-11.2963
▁spar	-11.2966
▁period	-11.2966
ವಿ	-11.2968
ember	-11.297
ento	-11.2971
▁Femme	-11.2971
ț	-11.2972
▁Fond	-11.2972
dela	-11.2972
▁thế	-11.2972
▁tud	-11.2972
▁vam	-11.2973
▁updated	-11.2975
▁tho	-11.2975
inum	-11.2975
ally	-11.2977
ktu	-11.2977
ρό	-11.2979
▁ری	-11.2982
dun	-11.2982
▁masyarakat	-11.2983
▁dituzte	-11.2983
640	-11.2983
रो	-11.2986
lista	-11.2986
▁turist	-11.2987
▁selama	-11.2987
학	-11.2988
電	-11.2988
gie	-11.2989
kazi	-11.2989
▁uch	-11.299
▁сп	-11.299
youtube	-11.299
§	-11.299
pek	-11.299
වා	-11.299
▁каб	-11.2991
▁ή	-11.2991
øy	-11.2992
▁Hard	-11.2993
ப்	-11.2993
بة	-11.2993
▁Karl	-11.2994
ठ	-11.2995
▁nev	-11.2996
тыр	-11.2996
או	-11.2998
TL	-11.2999
ছে	-11.3
ţii	-11.3
wala	-11.3001
massa	-11.3001
TTC	-11.3001
CK	-11.3002
ģi	-11.3002
▁trend	-11.3003
رہ	-11.3003
gada	-11.3003
mien	-11.3003
▁OF	-11.3004
կա	-11.3004
mény	-11.3004
sını	-11.3004
▁Tä	-11.3004
ෝ	-11.3007
▁mua	-11.3008
▁suure	-11.3008
llu	-11.3009
▁sera	-11.3009
jah	-11.3009
规	-11.301
▁kasuta	-11.301
ட்ட	-11.3011
▁Cri	-11.3011
ઝ	-11.3012
▁Manchester	-11.3012
bá	-11.3013
ら	-11.3014
esha	-11.3016
talo	-11.3016
▁Oli	-11.3019
▁defini	-11.302
▁thực	-11.302
atge	-11.302
▁point	-11.3021
▁metod	-11.3021
▁viol	-11.3021
hk	-11.3021
DB	-11.3023
▁Sign	-11.3023
mh	-11.3023
voca	-11.3024
وج	-11.3024
ით	-11.3025
huis	-11.3026
▁vitamin	-11.3026
▁sans	-11.3027
ighet	-11.3027
▁tussen	-11.3027
gina	-11.3028
▁cidade	-11.3028
▁ફ	-11.3028
byt	-11.3029
▁Search	-11.3029
▁ekip	-11.303
▁Canada	-11.303
▁whaka	-11.303
ಟ್	-11.3031
▁شود	-11.3032
▁actual	-11.3032
▁تع	-11.3033
llinen	-11.3033
ਵਾ	-11.3034
▁ख	-11.3036
▁Cum	-11.3036
▁arra	-11.3037
350	-11.3038
уч	-11.3038
▁vei	-11.3038
▁EX	-11.3039
zek	-11.3039
▁mama	-11.304
פל	-11.3041
បាន	-11.3041
▁ski	-11.3041
שת	-11.3042
▁Kita	-11.3045
股	-11.3046
KAN	-11.3047
ై	-11.3048
aires	-11.3049
лам	-11.3052
▁hartu	-11.3053
물	-11.3053
ово	-11.3053
რო	-11.3054
▁LCD	-11.3055
מן	-11.3055
wear	-11.3056
čné	-11.3056
jš	-11.3057
uge	-11.3058
▁sebuah	-11.3059
▁gud	-11.3059
ার	-11.3059
▁alan	-11.3061
enzi	-11.3062
phe	-11.3062
øj	-11.3063
▁numero	-11.3063
zul	-11.3063
erat	-11.3064
▁2.5	-11.3064
labora	-11.3065
▁diverse	-11.3066
crit	-11.3067
5°	-11.3067
▁verir	-11.3067
റ്റ	-11.3069
rja	-11.3069
▁jog	-11.307
ël	-11.3071
▁puede	-11.3071
клад	-11.3071
ned	-11.3072
▁خو	-11.3072
▁tikai	-11.3073
сэн	-11.3075
اں	-11.3075
▁الص	-11.3075
▁գործ	-11.3076
ėja	-11.3076
bell	-11.3077
লি	-11.3077
▁mobile	-11.3078
seks	-11.308
SHI	-11.3081
▁mengu	-11.3081
▁شهر	-11.3082
5.000	-11.3083
diği	-11.3083
RR	-11.3087
ယ္	-11.3087
علم	-11.3088
▁inay	-11.3088
▁sier	-11.3091
▁level	-11.3091
čne	-11.3092
۶	-11.3094
▁primera	-11.3096
▁procent	-11.3097
best	-11.3097
EV	-11.3097
Θ	-11.3097
íte	-11.31
ደ	-11.31
ούν	-11.3101
▁Ray	-11.3102
▁кра	-11.3102
peri	-11.3105
助	-11.3105
思	-11.3106
tý	-11.3107
ữ	-11.3107
▁talde	-11.3109
ibu	-11.311
rade	-11.3111
=2	-11.3111
▁Masa	-11.3111
205	-11.3112
istes	-11.3113
▁cùng	-11.3113
hong	-11.3115
▁živ	-11.3116
MT	-11.3119
▁arba	-11.3119
▁menos	-11.312
.12.20	-11.312
▁бул	-11.3121
7°	-11.3121
ký	-11.3122
чки	-11.3123
▁sedang	-11.3123
▁ram	-11.3124
▁Nag	-11.3125
▁gru	-11.3126
▁hely	-11.3126
▁organ	-11.3129
จะ	-11.3129
六	-11.3129
Video	-11.3129
uel	-11.3131
gate	-11.3133
vý	-11.3133
ರಾ	-11.3133
ações	-11.3138
ácia	-11.3138
ич	-11.3139
ddy	-11.3139
cə	-11.314
oji	-11.314
ంది	-11.3142
▁Kamp	-11.3143
▁Visit	-11.3145
▁sila	-11.3147
▁DKK	-11.3147
▁sco	-11.3147
ız	-11.3148
હ	-11.3148
▁abi	-11.3149
KK	-11.3149
ಕ್ಕೆ	-11.315
▁220	-11.315
લી	-11.3151
▁бр	-11.3151
produ	-11.3154
▁osta	-11.3154
▁श	-11.3155
ndra	-11.3155
▁গ	-11.3157
ján	-11.3158
kend	-11.3158
EZ	-11.316
▁Machine	-11.3161
▁Fashion	-11.3161
▁desta	-11.3161
▁rama	-11.3163
▁ಈ	-11.3164
Auto	-11.3166
ativa	-11.3166
850	-11.3166
iški	-11.3167
▁Washington	-11.3171
▁등	-11.3171
▁Jawa	-11.3171
мін	-11.3174
зі	-11.3175
dura	-11.3177
카	-11.3177
▁þegar	-11.3177
2°	-11.3178
▁maha	-11.3178
UZ	-11.318
-21	-11.318
ō	-11.3183
▁περι	-11.3183
LM	-11.3183
▁distribu	-11.3183
asto	-11.3186
നി	-11.3186
▁ander	-11.3187
into	-11.3189
ће	-11.3189
ោ	-11.3189
ställ	-11.3191
但	-11.3191
uus	-11.3193
נים	-11.3193
۷	-11.3194
pang	-11.3196
▁Wer	-11.3196
ăm	-11.3196
▁nacional	-11.3196
חת	-11.3197
▁minn	-11.3198
स्	-11.3198
כן	-11.3198
өт	-11.3198
▁მი	-11.3199
ອ	-11.32
גו	-11.3205
队	-11.3205
▁İl	-11.3206
▁Buy	-11.3207
skie	-11.3208
الي	-11.3208
fy	-11.321
cicl	-11.321
mı	-11.3211
▁key	-11.3212
▁número	-11.3212
atti	-11.3212
▁tetapi	-11.3215
cka	-11.3216
▁dva	-11.3216
ắn	-11.3218
ināt	-11.3219
▁Health	-11.3219
▁consider	-11.3221
▁tiene	-11.3223
дам	-11.3225
اری	-11.3225
▁май	-11.3225
▁×	-11.3225
310	-11.3225
144	-11.3226
idas	-11.3226
dde	-11.3227
▁Lip	-11.323
▁PL	-11.3231
▁filtr	-11.3231
sida	-11.3231
▁1999	-11.3234
dale	-11.3234
нат	-11.3238
▁тр	-11.3238
ურ	-11.324
oca	-11.324
▁128	-11.324
mbra	-11.3241
west	-11.3241
提供	-11.3241
▁ہی	-11.3241
玩	-11.3242
▁mba	-11.3242
▁Map	-11.3242
▁Produ	-11.3243
/10/	-11.3243
▁ima	-11.3244
trum	-11.3244
▁posta	-11.3245
tiga	-11.3246
ęs	-11.3246
▁fotografi	-11.3246
ūd	-11.3247
▁body	-11.3247
住	-11.3247
▁لو	-11.3249
eyn	-11.3251
▁igen	-11.3252
▁см	-11.3252
rekin	-11.3252
аб	-11.3254
صل	-11.3255
ithe	-11.3255
▁continu	-11.3256
▁million	-11.3256
▁şe	-11.3257
▁време	-11.3258
▁hilo	-11.3259
laan	-11.326
mik	-11.326
▁điện	-11.326
unni	-11.3261
iksi	-11.3261
BY	-11.3261
ന്	-11.3262
▁elő	-11.3262
ווי	-11.3262
▁OS	-11.3263
▁Zeit	-11.3264
jang	-11.3265
▁aussi	-11.3265
▁व	-11.3266
▁december	-11.3266
jumu	-11.3267
ško	-11.3267
CM	-11.3269
▁juh	-11.3269
mari	-11.3269
▁punkt	-11.327
daki	-11.327
ља	-11.3271
크	-11.3271
▁2020.	-11.3272
ature	-11.3274
青	-11.3276
▁Prze	-11.3278
್ಯಾ	-11.3282
colo	-11.3282
komst	-11.3282
Gr	-11.3282
▁Hin	-11.3285
activitat	-11.3285
пу	-11.3285
360	-11.3286
كر	-11.3287
▁нови	-11.3287
juma	-11.3288
ド	-11.3289
৪	-11.329
ovali	-11.329
larning	-11.3292
▁kuti	-11.3293
▁Gj	-11.3293
▁terus	-11.3294
SON	-11.3296
▁vide	-11.3297
▁auk	-11.3297
HT	-11.33
▁ڈ	-11.3303
750	-11.3303
ξε	-11.3305
zil	-11.3306
已	-11.3307
▁Simon	-11.3307
▁público	-11.3307
▁Fal	-11.3308
▁söz	-11.3312
bile	-11.3312
▁105	-11.3312
引	-11.3314
▁Xu	-11.3314
▁nila	-11.3315
▁dedi	-11.3315
▁client	-11.3316
inho	-11.3317
▁έχει	-11.3317
▁రా	-11.3317
ект	-11.3318
oto	-11.3318
139	-11.332
▁kwamba	-11.3321
लि	-11.3322
▁vald	-11.3322
gge	-11.3322
▁investi	-11.3322
гүй	-11.3323
▁panel	-11.3324
▁sø	-11.3324
hair	-11.3324
▁hela	-11.3325
▁väga	-11.3325
ponent	-11.3325
Ri	-11.3326
weyn	-11.3326
▁ని	-11.3329
▁garant	-11.3331
һ	-11.3331
▁(8)	-11.3331
爱	-11.3331
▁Anne	-11.3331
▁Antonio	-11.3332
hető	-11.3333
▁elektro	-11.3333
▁Herren	-11.3334
گی	-11.3334
▁Sony	-11.3335
НИ	-11.3335
יע	-11.3338
▁mijn	-11.3339
indu	-11.334
ನೆ	-11.3342
▁tư	-11.3342
elő	-11.3343
▁negara	-11.3343
TAT	-11.3343
▁10:00	-11.3344
Ո	-11.3344
بط	-11.3346
Ω	-11.3347
▁mida	-11.3348
▁ਅਤੇ	-11.335
▁Beste	-11.335
▁Pant	-11.3352
▁considera	-11.3352
▁айт	-11.3353
▁Ou	-11.3354
AMA	-11.3356
マ	-11.3357
رت	-11.3357
▁story	-11.3358
unci	-11.3359
▁còn	-11.3359
▁Bai	-11.336
üz	-11.3361
ראש	-11.3361
gabe	-11.3362
='	-11.3362
▁immer	-11.3362
vier	-11.3364
▁instrument	-11.3364
▁شو	-11.3364
ਨਾ	-11.3366
ิน	-11.3369
ují	-11.337
ँ	-11.3372
tava	-11.3372
avimo	-11.3372
▁баш	-11.3373
▁CAR	-11.3373
OO	-11.3373
tty	-11.3374
wis	-11.3374
išk	-11.3374
ruh	-11.3374
OU	-11.3374
▁exc	-11.3375
יך	-11.3376
▁Stand	-11.3376
inci	-11.3376
▁kuch	-11.3377
еп	-11.3377
ေန	-11.3379
▁부	-11.338
▁paper	-11.338
▁белән	-11.338
▁sed	-11.3381
業	-11.3381
šti	-11.3382
cd	-11.3382
цца	-11.3383
▁both	-11.3384
oria	-11.3384
▁Nan	-11.3385
▁Lab	-11.3385
5.00	-11.3386
▁Ano	-11.3387
ดี	-11.3387
▁insan	-11.3387
▁cosa	-11.3387
▁Alex	-11.3387
ški	-11.3388
unum	-11.3388
▁zal	-11.3388
אה	-11.3388
DL	-11.3388
ថា	-11.3389
▁vores	-11.3391
phone	-11.3392
连	-11.3392
河	-11.3392
áció	-11.3392
eaza	-11.3392
GU	-11.3392
том	-11.3393
tib	-11.3393
ària	-11.3393
dür	-11.3394
▁kwi	-11.3395
beh	-11.3396
▁Stock	-11.3398
▁ہوئے	-11.3399
▁Size	-11.3399
▁Vers	-11.3401
vesti	-11.3402
機	-11.3403
▁cs	-11.3404
▁szerint	-11.3405
▁prev	-11.3405
בו	-11.3407
▁kör	-11.3408
umā	-11.3408
lp	-11.3409
景	-11.341
ητ	-11.341
▁sup	-11.341
▁Santiago	-11.3411
▁jedn	-11.3411
utus	-11.3412
מד	-11.3412
▁Jon	-11.3413
stick	-11.3413
rist	-11.3414
▁años	-11.3414
▁location	-11.3415
▁tava	-11.3416
ते	-11.3416
131	-11.3417
▁Ўзбекистон	-11.3417
▁ર	-11.3417
ják	-11.3417
hí	-11.3418
нова	-11.3418
úp	-11.342
buka	-11.342
▁Portugal	-11.3421
DN	-11.3422
▁lah	-11.3423
▁chất	-11.3424
▁musi	-11.3424
util	-11.3425
سو	-11.3426
▁Dette	-11.3427
amat	-11.3428
acağı	-11.3433
▁vám	-11.3433
Nor	-11.3433
▁(18	-11.3434
دن	-11.3435
ंग	-11.3435
▁monta	-11.3436
ното	-11.3437
тын	-11.344
▁AG	-11.344
▁estado	-11.344
游	-11.344
▁pagal	-11.344
MG	-11.3441
▁bada	-11.3442
сты	-11.3442
pé	-11.3442
▁hayo	-11.3443
▁nchini	-11.3443
▁dne	-11.3443
▁تک	-11.3444
leh	-11.3445
ijas	-11.3445
▁Term	-11.3445
102	-11.3445
ክ	-11.3447
▁gjatë	-11.3448
legt	-11.3448
ונ	-11.3448
sig	-11.3448
▁3.0	-11.3451
ტი	-11.3451
▁Ν	-11.3455
▁2,5	-11.3455
ване	-11.3455
▁Edition	-11.3458
▁Und	-11.3459
▁gaat	-11.3461
laik	-11.3461
▁saab	-11.3465
positiv	-11.3466
ონ	-11.3466
กับ	-11.3466
▁competi	-11.3466
కా	-11.3467
стро	-11.3467
▁уз	-11.3468
ама	-11.3468
▁hou	-11.3469
DEN	-11.347
▁jät	-11.3472
wl	-11.3473
▁Str	-11.3473
▁Rot	-11.3474
▁Mate	-11.3474
1.0	-11.3475
▁rast	-11.3476
voz	-11.3477
twitter	-11.3478
125	-11.3478
dic	-11.3479
▁modo	-11.3481
internet	-11.3482
شت	-11.3482
นี้	-11.3482
▁poate	-11.3484
kolo	-11.3485
▁menge	-11.3486
êm	-11.3486
▁त	-11.3488
▁yaz	-11.3489
ຊ	-11.349
▁tylko	-11.349
ші	-11.3491
▁grund	-11.3494
▁Ud	-11.3496
wah	-11.3497
jø	-11.3497
▁জ	-11.3498
ðum	-11.3498
▁manera	-11.3501
▁ՀՀ	-11.3501
▁slik	-11.3501
▁melalui	-11.3502
ίου	-11.3503
wani	-11.3503
▁national	-11.3503
▁pé	-11.3505
եկ	-11.3506
交	-11.3507
שא	-11.3508
▁hər	-11.3508
メ	-11.3508
વી	-11.3509
士	-11.3509
šana	-11.351
sett	-11.3511
gado	-11.3512
ግ	-11.3512
▁nota	-11.3513
▁small	-11.3514
▁bildir	-11.3515
▁Mode	-11.3516
meye	-11.3517
oga	-11.3517
trop	-11.3518
▁wenn	-11.3518
▁जा	-11.3518
▁state	-11.352
ped	-11.352
▁bardzo	-11.352
▁Hei	-11.352
aith	-11.3522
punt	-11.3522
рас	-11.3523
▁concert	-11.3524
Za	-11.3525
ář	-11.3526
ध	-11.353
▁those	-11.353
▁ord	-11.3533
ANI	-11.3533
▁sht	-11.3535
▁ਕਰ	-11.3535
ARD	-11.3535
lerine	-11.3537
▁kö	-11.3537
ický	-11.3537
bing	-11.3539
▁hành	-11.354
կան	-11.354
▁גם	-11.3541
▁cent	-11.3542
▁Eur	-11.3542
rung	-11.3542
▁gun	-11.3543
+1	-11.3546
▁çek	-11.3547
▁mwa	-11.3549
່	-11.3549
▁Audio	-11.355
巴	-11.355
ჩ	-11.355
dienst	-11.3551
ൈ	-11.3551
quin	-11.3551
▁dre	-11.3552
uara	-11.3553
▁medio	-11.3553
tî	-11.3554
بی	-11.3555
lade	-11.3555
▁indica	-11.3557
raya	-11.3558
▁bem	-11.3559
▁Christian	-11.3559
▁genom	-11.3562
praw	-11.3562
rse	-11.3563
بار	-11.3564
▁wame	-11.3565
▁παρ	-11.3565
▁chúng	-11.3565
▁Zá	-11.3565
▁sit	-11.3566
essä	-11.3566
370	-11.3567
▁hol	-11.3567
▁mb	-11.3568
▁κατά	-11.3568
ālā	-11.3568
neet	-11.3568
iset	-11.3569
给	-11.3569
cir	-11.357
CP	-11.357
elijk	-11.3571
▁siku	-11.3571
▁allow	-11.3571
øv	-11.3571
skih	-11.3571
▁Ла	-11.3571
】【,】【	-11.3572
▁arma	-11.3572
bei	-11.3574
▁હ	-11.3574
무	-11.3575
333	-11.3575
▁Ris	-11.3578
pada	-11.3578
סי	-11.3579
▁priser	-11.358
▁Cra	-11.3581
▁esi	-11.3581
▁Pun	-11.3583
▁PT	-11.3584
bog	-11.3584
struct	-11.3585
ரு	-11.3586
loj	-11.3586
іль	-11.3586
▁sett	-11.3587
▁terug	-11.3587
▁nepa	-11.3587
▁Region	-11.3588
_1	-11.3588
码	-11.3588
호	-11.3588
프	-11.3588
ної	-11.3589
Am	-11.3589
▁power	-11.359
feld	-11.359
רת	-11.359
▁Moto	-11.3591
ahi	-11.3592
▁Natural	-11.3592
inner	-11.3592
/12	-11.3592
fang	-11.3592
▁pár	-11.3593
或	-11.3593
සි	-11.3595
▁hab	-11.3596
▁div	-11.3598
илган	-11.3598
лд	-11.3598
ље	-11.3598
▁bax	-11.3598
LES	-11.36
▁premier	-11.36
ация	-11.36
▁İstanbul	-11.36
cky	-11.36
▁हैं	-11.3602
▁kush	-11.3602
ņ	-11.3602
▁Су	-11.3603
holder	-11.3603
ứ	-11.3603
▁Kurs	-11.3604
▁drama	-11.3605
voir	-11.3608
زا	-11.3608
ાય	-11.3609
▁marzo	-11.3611
ūn	-11.3612
▁robot	-11.3612
▁zor	-11.3612
节	-11.3613
파	-11.3613
used	-11.3614
▁Id	-11.3614
ဝ	-11.3617
▁Fire	-11.3617
▁vaja	-11.3617
▁Kam	-11.3618
šanās	-11.3619
lala	-11.362
alı	-11.3622
FS	-11.3622
ತ್ತ	-11.3622
یز	-11.3623
▁공	-11.3624
▁büyük	-11.3625
▁baby	-11.3625
TAL	-11.3626
rett	-11.3626
ими	-11.3626
cun	-11.3628
▁Gud	-11.3628
ジ	-11.3629
▁tento	-11.363
ætt	-11.363
මා	-11.363
▁¤	-11.3631
▁спорт	-11.3631
skej	-11.3632
▁జ	-11.3632
▁oficial	-11.3632
▁kohta	-11.3634
ям	-11.3634
▁мал	-11.3634
▁videos	-11.3635
▁fai	-11.3635
ņem	-11.3635
ິ	-11.3637
umo	-11.364
210	-11.3641
▁לב	-11.3642
▁לש	-11.3642
129	-11.3642
▁kalau	-11.3642
▁пи	-11.3645
öld	-11.3646
feri	-11.3646
сп	-11.3646
urinn	-11.3647
간	-11.3648
lý	-11.3649
hend	-11.3649
▁fundit	-11.3649
ੰ	-11.3649
▁และ	-11.365
▁ainda	-11.365
əh	-11.3651
ਰਾ	-11.3652
شر	-11.3653
▁nove	-11.3654
શે	-11.3655
တ္	-11.3656
դր	-11.3658
Sport	-11.3658
-2019	-11.3658
▁muri	-11.3658
ampa	-11.3658
ว่า	-11.3659
▁kod	-11.3659
וב	-11.366
▁direkt	-11.366
vand	-11.366
▁Fle	-11.366
▁dilakukan	-11.3663
▁Special	-11.3665
▁blue	-11.3665
elu	-11.3667
▁Dh	-11.3668
フ	-11.3668
▁χ	-11.3669
▁nagy	-11.3669
▁Asia	-11.3671
stva	-11.3672
▁Cro	-11.3674
▁eins	-11.3675
128	-11.3675
3.1	-11.3677
▁এক	-11.3677
iere	-11.3677
▁sense	-11.3678
▁וב	-11.3679
▁sok	-11.3679
мал	-11.368
板	-11.368
▁Movie	-11.3681
▁pool	-11.3681
flu	-11.3682
▁bili	-11.3684
sdóttir	-11.3685
▁petit	-11.3685
▁kemi	-11.3689
Net	-11.3689
iad	-11.3689
▁kjo	-11.3691
▁taka	-11.3691
▁trang	-11.3692
nö	-11.3694
یان	-11.3695
.03.20	-11.3696
zka	-11.3696
Star	-11.3697
▁wees	-11.3697
▁música	-11.3698
aði	-11.3698
▁food	-11.3699
larla	-11.3699
മാ	-11.37
▁Portal	-11.3701
▁hlav	-11.3702
დე	-11.3703
ores	-11.3703
▁Israel	-11.3703
▁act	-11.3707
ഭ	-11.3708
aldia	-11.3708
▁која	-11.3708
lica	-11.3711
▁قبل	-11.3711
iner	-11.3711
▁šal	-11.3712
▁house	-11.3712
ετε	-11.3712
▁minutes	-11.3713
stus	-11.3713
FR	-11.3717
үн	-11.3717
्र	-11.3717
મે	-11.3717
▁Tech	-11.3719
عرض	-11.3719
▁Core	-11.3719
sad	-11.372
dv	-11.3721
lú	-11.3722
▁rau	-11.3722
▁letter	-11.3723
▁^	-11.3723
țe	-11.3725
prim	-11.3725
▁2014,	-11.3726
▁شر	-11.3727
ára	-11.3727
▁లో	-11.3728
▁camera	-11.3729
两	-11.3731
toja	-11.3731
▁থেকে	-11.3731
▁yok	-11.3733
▁gau	-11.3733
ទី	-11.3734
▁talent	-11.3735
ként	-11.3736
村	-11.3737
▁maior	-11.3738
hard	-11.3738
▁terbaik	-11.3738
gian	-11.3738
▁muut	-11.3739
וע	-11.374
EUR	-11.3741
ére	-11.3741
තු	-11.3741
haya	-11.3742
lös	-11.3742
▁Ро	-11.3743
▁cab	-11.3743
您	-11.3743
yb	-11.3744
ından	-11.3745
▁EAN	-11.3745
▁Ran	-11.3748
▁Gul	-11.3748
ነ	-11.3749
▁rond	-11.375
Wi	-11.375
中心	-11.375
▁tanpa	-11.3751
iausi	-11.3751
▁দ	-11.3752
hul	-11.3752
▁hans	-11.3752
▁vali	-11.3752
▁1:	-11.3753
ție	-11.3754
9,00	-11.3755
▁meu	-11.3755
▁حال	-11.3755
▁Jika	-11.3757
▁حکومت	-11.3757
фе	-11.3757
emu	-11.3757
▁primeira	-11.3758
▁정	-11.3759
▁उ	-11.376
lite	-11.376
▁üks	-11.3762
▁capital	-11.3764
load	-11.3765
▁mail	-11.3767
▁Wal	-11.3767
▁пад	-11.3767
▁علی	-11.3768
Å	-11.3769
▁Jos	-11.3769
▁tjetër	-11.3769
Й	-11.377
MEN	-11.3771
كم	-11.3771
車	-11.3771
▁prakt	-11.3772
itud	-11.3773
жу	-11.3773
ண	-11.3774
kkel	-11.3774
▁prostor	-11.3774
thu	-11.3775
▁Aga	-11.3776
▁1.6	-11.3776
▁ком	-11.3777
ieri	-11.3778
▁Word	-11.3779
ада	-11.378
isce	-11.378
▁Project	-11.378
▁aiz	-11.3781
ಿದ್ದಾರೆ	-11.3781
dav	-11.3782
āji	-11.3782
வு	-11.3784
▁sö	-11.3785
▁palju	-11.3786
lief	-11.3787
▁Management	-11.3788
▁informacij	-11.3789
▁nome	-11.379
▁mình	-11.3791
áin	-11.3791
ták	-11.3793
▁rent	-11.3794
▁צ	-11.3794
▁mogelijk	-11.3795
▁hög	-11.3797
▁portal	-11.3798
ئے	-11.3798
チ	-11.38
▁kerja	-11.38
ték	-11.3801
▁sl	-11.3801
Γ	-11.3801
લા	-11.3802
åt	-11.3802
rill	-11.3803
lərdə	-11.3804
▁pilot	-11.3805
▁2015,	-11.3805
už	-11.3806
inas	-11.3808
erek	-11.3809
TK	-11.3809
查	-11.381
ιών	-11.381
apos	-11.381
再	-11.3812
1⁄2	-11.3813
▁þetta	-11.3814
▁Pet	-11.3815
▁sini	-11.3815
opera	-11.3815
зор	-11.3815
▁Hur	-11.3815
UC	-11.3816
ради	-11.3816
anno	-11.3817
ിയ	-11.3818
rát	-11.3818
▁kết	-11.3818
▁ndaj	-11.3819
768	-11.382
▁fazer	-11.3821
గు	-11.3821
▁Ө	-11.3821
▁Liber	-11.3824
иши	-11.3825
konna	-11.3825
▁curs	-11.3827
itan	-11.3829
▁Has	-11.3829
wali	-11.383
onia	-11.3831
▁sky	-11.3832
ely	-11.3832
▁جدید	-11.3833
▁bh	-11.3834
▁hund	-11.3836
▁really	-11.3837
▁માટે	-11.3838
ణ	-11.3838
aigh	-11.3839
▁including	-11.3839
▁says	-11.384
▁binnen	-11.3841
105	-11.3841
maður	-11.3842
áci	-11.3844
▁1.3	-11.3844
▁ans	-11.3844
▁Low	-11.3845
▁recon	-11.3845
▁Job	-11.3846
гол	-11.3846
1°	-11.3846
▁Abu	-11.3846
▁نظر	-11.3847
▁tah	-11.3847
heter	-11.3848
nimi	-11.3848
Ki	-11.3849
WW	-11.385
▁stabil	-11.3851
stoff	-11.3851
(1	-11.3853
fär	-11.3853
▁mense	-11.3855
▁Oh	-11.3855
▁sinn	-11.3856
▁(12	-11.3856
书	-11.3857
▁días	-11.3857
▁nich	-11.3858
▁Schw	-11.3859
▁multe	-11.3859
▁fie	-11.3861
ovan	-11.3861
ınız	-11.3861
▁phòng	-11.3864
▁Michel	-11.3864
▁entry	-11.3864
张	-11.3865
eken	-11.3866
stol	-11.3866
▁DJ	-11.3867
▁Ple	-11.3867
당	-11.387
▁database	-11.3871
▁lama	-11.3871
inka	-11.3872
▁komme	-11.3872
дов	-11.3873
mål	-11.3873
▁heim	-11.3873
▁Rep	-11.3874
catalog	-11.3874
▁comun	-11.3875
▁hazır	-11.3876
▁України	-11.3876
ари	-11.3878
icio	-11.3879
zone	-11.3879
PER	-11.3879
עה	-11.388
ugh	-11.388
▁Silver	-11.3881
▁reis	-11.3882
kiem	-11.3883
aç	-11.3883
้า	-11.3883
rir	-11.3884
▁Daily	-11.3885
txo	-11.3885
ivat	-11.3885
▁saman	-11.3885
út	-11.3886
▁sayı	-11.3886
kirin	-11.3887
▁ville	-11.3888
▁causa	-11.3889
ሰ	-11.3889
ulis	-11.389
Az	-11.3891
▁nin	-11.3892
gam	-11.3892
ents	-11.3893
lif	-11.3893
▁след	-11.3893
cad	-11.3893
▁przed	-11.3894
▁ilma	-11.3894
▁sehr	-11.3895
▁thiết	-11.3896
druk	-11.3896
▁суд	-11.3896
▁гар	-11.3896
ади	-11.3897
jom	-11.3897
▁modifica	-11.39
▁Rah	-11.39
ік	-11.3902
▁hoteller	-11.3903
hv	-11.3904
אל	-11.3904
340	-11.3905
▁chama	-11.3908
របស់	-11.3908
▁Like	-11.3909
▁ihan	-11.391
▁invest	-11.3911
▁лв	-11.3911
▁BU	-11.3912
产品	-11.3913
▁Är	-11.3913
Er	-11.3913
▁بو	-11.3914
▁पा	-11.3916
▁الر	-11.3917
rob	-11.3918
خر	-11.3919
▁daug	-11.3919
▁2012,	-11.392
▁Share	-11.3921
军	-11.3921
▁sosial	-11.3923
[2]	-11.3923
▁2015.	-11.3924
▁daga	-11.3924
▁הח	-11.3924
uke	-11.3925
▁First	-11.3925
修	-11.3926
وه	-11.3927
▁gw	-11.3927
▁priv	-11.3929
▁habe	-11.3929
vän	-11.3931
▁vite	-11.3932
▁Here	-11.3933
▁rezultat	-11.3933
sə	-11.3933
യും	-11.3933
isan	-11.3934
▁1.4	-11.3934
vær	-11.3936
▁શ	-11.3936
▁office	-11.3937
▁0.1	-11.3937
▁aller	-11.3938
jazd	-11.3939
тив	-11.3939
ларга	-11.3939
▁litt	-11.394
▁Costa	-11.394
720	-11.3944
тери	-11.3945
iske	-11.3945
▁Update	-11.3946
红	-11.3946
▁creat	-11.3946
Ê	-11.3947
▁pjesë	-11.3947
adka	-11.3951
▁Louis	-11.3951
gaz	-11.3951
delen	-11.3953
▁=>	-11.3953
rec	-11.3954
▁agosto	-11.3956
세	-11.396
jana	-11.396
▁Dzi	-11.396
នា	-11.396
vni	-11.3961
ides	-11.3963
▁mostra	-11.3965
▁financ	-11.3966
▁ભ	-11.3966
▁hierdie	-11.3967
▁Leg	-11.3968
સ્	-11.3968
ћи	-11.3968
▁bộ	-11.3969
▁Լ	-11.397
▁confi	-11.3971
את	-11.3972
르	-11.3972
▁сред	-11.3975
▁author	-11.3977
▁enkelt	-11.3978
출	-11.3978
▁sud	-11.3979
▁nhận	-11.3979
▁atra	-11.398
шт	-11.3984
מל	-11.3984
▁Código	-11.3985
iña	-11.3985
言	-11.3986
በ	-11.3986
new	-11.3987
▁już	-11.3987
▁city	-11.3989
▁hak	-11.3992
త్	-11.3993
▁Cart	-11.3995
viv	-11.3995
▁qə	-11.3995
▁Ком	-11.3996
▁outros	-11.3997
▁ciutat	-11.3998
ngo	-11.3999
hia	-11.4
ارت	-11.4
tiba	-11.4
гал	-11.4001
رز	-11.4002
▁Bola	-11.4002
əş	-11.4003
ალ	-11.4004
▁Saat	-11.4004
fran	-11.4004
▁stock	-11.4005
▁snel	-11.4005
etatik	-11.4006
▁ہم	-11.4006
split	-11.4006
▁geç	-11.4006
3/	-11.4007
▁wurde	-11.4008
kasi	-11.4008
▁manten	-11.4009
コ	-11.4009
rka	-11.4011
▁ਕ	-11.4012
rana	-11.4013
▁baino	-11.4013
ּ	-11.4013
even	-11.4015
▁since	-11.4015
▁Jar	-11.4015
▁metų	-11.4015
ERA	-11.4016
▁ton	-11.4017
пад	-11.4017
▁$2	-11.4017
के	-11.4019
tzaile	-11.402
▁göre	-11.4022
stęp	-11.4023
sikt	-11.4024
▁gum	-11.4024
▁göstər	-11.4024
▁Concello	-11.4024
▁உ	-11.4025
▁penge	-11.4025
▁הה	-11.4026
▁არ	-11.4026
▁hodin	-11.4027
న్న	-11.4027
▁Ни	-11.4027
666	-11.4028
իչ	-11.4028
動	-11.403
▁bú	-11.403
▁çık	-11.4031
▁provide	-11.4033
▁Maa	-11.4036
ํ	-11.4036
▁Ferr	-11.4037
лиги	-11.4037
tett	-11.4037
▁bek	-11.4038
08.	-11.4038
▁Tv	-11.4042
▁voz	-11.4044
уб	-11.4044
SN	-11.4045
▁esa	-11.4046
mpli	-11.4047
▁112	-11.4048
3⁄4	-11.405
വി	-11.405
وش	-11.4053
/01/	-11.4053
adora	-11.4054
ель	-11.4055
차	-11.4056
owym	-11.4056
▁looking	-11.4057
NH	-11.4058
ист	-11.4058
▁neste	-11.4059
▁dog	-11.406
▁sebelum	-11.406
Du	-11.4061
▁intr	-11.4061
richt	-11.4062
ź	-11.4063
acija	-11.4063
▁rap	-11.4063
▁356	-11.4064
▁Report	-11.4065
▁DU	-11.4065
▁waki	-11.4066
лган	-11.4066
▁kila	-11.4067
PH	-11.4068
वि	-11.4069
▁consulta	-11.407
فا	-11.4071
gari	-11.4072
▁daw	-11.4072
يه	-11.4073
υρ	-11.4073
мор	-11.4075
▁օր	-11.4075
кр	-11.4077
ಭ	-11.4078
▁VE	-11.4078
▁pasta	-11.4078
нал	-11.4079
";	-11.408
▁tarif	-11.4081
kirja	-11.4081
wand	-11.4082
업	-11.4082
-25	-11.4083
ную	-11.4083
▁מע	-11.4084
azioni	-11.4084
▁Mam	-11.4087
rën	-11.4087
ọn	-11.4087
Ni	-11.4088
čin	-11.4088
lī	-11.4091
стр	-11.4093
յանը	-11.4094
håll	-11.4095
▁nə	-11.4095
▁lisa	-11.4097
▁Point	-11.4097
▁Bij	-11.4098
▁vé	-11.4098
IDE	-11.41
▁grote	-11.4101
▁audio	-11.4102
forma	-11.4102
▁kvalit	-11.4102
disabled	-11.4103
מים	-11.4103
▁tul	-11.4104
tamine	-11.4104
čný	-11.4106
▁Bab	-11.4107
▁schon	-11.4108
sının	-11.4109
▁azt	-11.4109
▁malam	-11.411
▁rajon	-11.4111
▁dro	-11.4112
mper	-11.4113
▁Leave	-11.4114
▁nek	-11.4114
ител	-11.4114
▁ք	-11.4115
▁Công	-11.4116
مل	-11.4116
▁Fur	-11.4116
door	-11.4117
ndu	-11.4117
там	-11.4118
▁göz	-11.412
▁pagka	-11.4121
エ	-11.4121
তি	-11.4121
watch	-11.4123
інің	-11.4123
▁glo	-11.4125
dige	-11.4125
源	-11.4128
ické	-11.4128
ორ	-11.413
▁Bou	-11.413
tín	-11.413
▁자	-11.4131
kta	-11.4131
▁బ	-11.4131
НА	-11.4133
▁Од	-11.4133
bora	-11.4134
▁kru	-11.4134
▁stato	-11.4134
NK	-11.4134
▁esper	-11.4135
ພ	-11.4135
▁rug	-11.4136
νε	-11.4136
▁psi	-11.4137
▁Pul	-11.4137
NB	-11.4138
eye	-11.4138
નું	-11.4139
हि	-11.4139
▁Eco	-11.414
▁mei	-11.4141
мов	-11.4141
▁chan	-11.4144
పు	-11.4144
▁naka	-11.4145
▁Rob	-11.4146
jums	-11.4147
bec	-11.4147
▁oferta	-11.4148
▁Fol	-11.4151
▁Quốc	-11.4154
▁bản	-11.4154
▁Lim	-11.4155
txe	-11.4155
▁ан	-11.4156
▁Att	-11.4156
hua	-11.4157
cast	-11.4157
род	-11.4157
▁Metal	-11.4159
00.00	-11.416
터	-11.416
ovaný	-11.416
应	-11.4161
▁බ	-11.4161
▁emp	-11.4162
▁dekor	-11.4162
ologie	-11.4165
▁persones	-11.4166
▁conce	-11.4168
();	-11.4169
▁ikus	-11.4169
laka	-11.4169
IES	-11.417
▁Class	-11.417
▁jó	-11.4172
үүл	-11.4173
▁وزیر	-11.4173
▁tegen	-11.4174
▁agen	-11.4174
▁süre	-11.4174
▁kartu	-11.4174
166	-11.4175
ZO	-11.4176
▁Kä	-11.4176
▁Xo	-11.4179
ðir	-11.418
UNG	-11.418
▁Amsterdam	-11.418
gers	-11.4182
▁thai	-11.4182
▁Care	-11.4182
tè	-11.4182
▁Fly	-11.4182
eniu	-11.4183
kové	-11.4184
จาก	-11.4185
有限公司	-11.4186
San	-11.4187
108	-11.4188
▁Bez	-11.419
▁política	-11.419
shwa	-11.419
manda	-11.4191
남	-11.4193
▁Brown	-11.4194
▁Find	-11.4196
vang	-11.4197
▁gikan	-11.4197
agna	-11.4197
rî	-11.4197
▁tü	-11.4198
ratu	-11.4199
blogspot	-11.42
▁pihak	-11.42
▁muu	-11.4201
▁Friday	-11.4201
▁şey	-11.4201
σα	-11.4202
170	-11.4203
▁busca	-11.4204
іл	-11.4205
REN	-11.4205
дзі	-11.4205
▁hea	-11.4205
▁hore	-11.4206
၊	-11.4206
فق	-11.4206
ூ	-11.4208
▁perform	-11.4208
dott	-11.4208
ginn	-11.4208
▁kiel	-11.421
erade	-11.421
shë	-11.4211
走	-11.4212
sana	-11.4213
피	-11.4213
▁kazi	-11.4213
▁пос	-11.4214
▁CC	-11.4215
ény	-11.4215
▁Zen	-11.4217
гер	-11.4218
▁pale	-11.4218
技术	-11.4218
vul	-11.4219
▁Aku	-11.4219
؛	-11.4219
▁Prediksi	-11.422
▁võib	-11.4223
οί	-11.4224
wana	-11.4224
▁mix	-11.4226
قي	-11.4227
▁Ost	-11.4227
ән	-11.4228
▁នៅ	-11.4229
▁leur	-11.423
യാ	-11.4232
דה	-11.4234
▁Km	-11.4234
▁wys	-11.4234
▁kvalitet	-11.4237
bona	-11.4237
δο	-11.4239
▁naše	-11.424
رج	-11.4242
▁Adres	-11.4242
aŭ	-11.4242
atta	-11.4243
▁др	-11.4245
hrad	-11.4246
tensi	-11.4246
▁months	-11.4247
▁Mol	-11.4247
ờ	-11.4249
▁ست	-11.4249
iano	-11.4251
minister	-11.4253
▁Жа	-11.4253
▁مح	-11.4254
▁FM	-11.4255
service	-11.4255
òn	-11.4257
▁деп	-11.4258
ativ	-11.4259
▁pit	-11.4259
imp	-11.4259
足球	-11.4259
▁iç	-11.4259
ску	-11.426
বা	-11.426
▁DC	-11.426
▁игра	-11.4261
sime	-11.4261
ံ	-11.4261
▁Led	-11.4262
__	-11.4262
▁plant	-11.4262
LED	-11.4263
öll	-11.4264
ๆ	-11.4265
▁bërë	-11.4266
▁ін	-11.4266
▁bosh	-11.4267
▁pula	-11.4269
▁kişi	-11.427
联	-11.427
ikas	-11.4271
ετ	-11.4271
▁Hà	-11.4272
cev	-11.4272
▁რომ	-11.4272
▁Premier	-11.4273
▁ול	-11.4274
ről	-11.4274
arkan	-11.4275
osť	-11.4275
bě	-11.4277
▁yan	-11.4278
▁keçir	-11.4278
▁municipal	-11.4279
▁لیے	-11.428
190	-11.4281
▁fotos	-11.4282
Benz	-11.4283
ských	-11.4283
глед	-11.4283
ljiv	-11.4283
legg	-11.4285
مین	-11.4285
▁Lagu	-11.4285
▁Xe	-11.4285
▁Bitcoin	-11.4285
▁Name	-11.4285
мин	-11.4287
▁Director	-11.4287
▁Brit	-11.4287
▁viktig	-11.4287
▁Lä	-11.4287
222	-11.4287
Հ	-11.4289
CF	-11.429
▁dann	-11.4291
▁gero	-11.4291
▁گو	-11.4292
▁Municipal	-11.4292
ется	-11.4292
jde	-11.4292
lust	-11.4293
BAN	-11.4294
▁toàn	-11.4294
▁GO	-11.4294
▁Ski	-11.4294
▁phát	-11.4295
▁Kung	-11.4296
חו	-11.4296
▁boek	-11.4296
▁siz	-11.4296
▁mál	-11.4297
ニ	-11.4298
பி	-11.4298
▁alkohol	-11.4299
▁pien	-11.4299
注册	-11.4299
▁trata	-11.4299
▁CI	-11.4299
სა	-11.43
▁Danmark	-11.4301
3.2	-11.4301
pare	-11.4302
提	-11.4302
ыс	-11.4303
▁ග	-11.4303
қы	-11.4303
▁professor	-11.4306
▁Andre	-11.4306
▁mercado	-11.4307
▁precis	-11.4307
▁darba	-11.4308
▁consum	-11.4309
য়ে	-11.4312
▁pertama	-11.4313
cant	-11.4313
بع	-11.4314
▁FL	-11.4316
▁rapport	-11.4316
▁ذ	-11.4316
黄	-11.4318
▁Ring	-11.4318
국	-11.4319
ilir	-11.432
▁facebook	-11.4321
ើ	-11.4321
gerð	-11.4322
▁olur	-11.4322
▁veril	-11.4322
вал	-11.4323
sine	-11.4324
け	-11.4325
▁clients	-11.4326
ег	-11.4326
ვე	-11.4326
▁trop	-11.4327
ګ	-11.4327
▁sites	-11.433
會	-11.4331
男	-11.4331
8°	-11.4332
▁hivyo	-11.4332
ًا	-11.4332
/2016	-11.4332
▁Kü	-11.4333
malt	-11.4333
▁oro	-11.4333
Shirt	-11.4333
inger	-11.4334
উ	-11.4335
』『	-11.4335
zaj	-11.4338
уваат	-11.4339
조	-11.434
צר	-11.434
тик	-11.434
▁5-	-11.4341
انو	-11.4342
▁artean	-11.4343
UI	-11.4343
MIN	-11.4344
▁лі	-11.4345
bouw	-11.4346
▁بين	-11.4346
▁meter	-11.4346
▁سره	-11.4346
Ե	-11.4347
▁luo	-11.4347
tú	-11.4348
▁área	-11.435
▁sve	-11.4352
ළ	-11.4353
▁keep	-11.4354
IKA	-11.4355
▁сам	-11.4355
▁يوم	-11.4355
▁kodu	-11.4356
▁toki	-11.4357
يو	-11.4358
▁bütün	-11.4359
건	-11.4359
▁էր	-11.436
▁adi	-11.4362
nič	-11.4362
шу	-11.4363
onta	-11.4363
▁rub	-11.4363
▁PI	-11.4364
ψ	-11.4365
▁computer	-11.4365
▁novembre	-11.4365
lių	-11.4366
▁mejor	-11.437
▁reuni	-11.4372
▁Games	-11.4373
бат	-11.4373
▁који	-11.4374
▁skil	-11.4375
ția	-11.4376
-24	-11.4376
▁drejt	-11.4378
兴	-11.4378
106	-11.4378
ਥ	-11.4379
▁terbaru	-11.4379
-2018	-11.4379
▁kamer	-11.438
▁Produk	-11.438
ખ	-11.4382
اض	-11.4383
▁nord	-11.4384
▁bera	-11.4385
▁Wei	-11.4386
▁sound	-11.4386
▁toda	-11.4386
▁Studi	-11.4387
sien	-11.4387
▁Luis	-11.4388
▁LO	-11.439
▁minute	-11.4391
▁LI	-11.4392
ถ	-11.4393
▁Website	-11.4393
▁Ça	-11.4393
ම්	-11.4393
▁Inicio	-11.4397
mais	-11.4397
▁klima	-11.4398
▁problém	-11.4399
naj	-11.4399
TION	-11.4399
ное	-11.4399
lind	-11.44
эх	-11.4401
실	-11.4402
ۍ	-11.4403
cov	-11.4403
▁Unit	-11.4403
AE	-11.4405
▁Ska	-11.4406
▁göster	-11.4407
▁оста	-11.4407
ίσ	-11.4408
▁adult	-11.4408
改	-11.441
sinde	-11.4411
▁cần	-11.4412
▁kogu	-11.4415
ика	-11.4416
▁metr	-11.4416
▁nada	-11.4417
ovala	-11.4418
TRA	-11.4418
law	-11.4419
ország	-11.4419
اہ	-11.442
▁bayan	-11.442
▁Hon	-11.442
▁Raz	-11.4422
▁Rela	-11.4422
▁بود	-11.4423
▁solid	-11.4423
▁Manuel	-11.4424
▁PRE	-11.4425
hov	-11.4425
دة	-11.4425
acji	-11.4426
ಿದೆ	-11.4428
jär	-11.4428
▁Contact	-11.4429
ТА	-11.4429
iä	-11.443
ík	-11.443
▁Ons	-11.443
ilt	-11.4432
ຈ	-11.4432
▁هر	-11.4433
ներին	-11.4434
soo	-11.4436
▁Pack	-11.4436
jnë	-11.4437
▁ден	-11.4437
ół	-11.4437
▁ט	-11.4439
▁klein	-11.4439
▁trá	-11.444
▁czas	-11.444
▁diz	-11.444
▁орган	-11.4441
▁programma	-11.4441
ntes	-11.4442
▁Petr	-11.4443
▁190	-11.4444
▁gəl	-11.4444
英	-11.4445
亚	-11.4445
boy	-11.4445
ASI	-11.4446
168	-11.4447
▁CL	-11.4447
اك	-11.4448
▁COM	-11.4448
▁proc	-11.4449
▁masuk	-11.445
▁host	-11.4451
uze	-11.4451
▁१	-11.4452
hely	-11.4454
ėje	-11.4454
▁hoo	-11.4455
life	-11.4455
▁Ин	-11.4456
ధ	-11.4456
6°	-11.4456
▁২	-11.4456
ạn	-11.4457
▁вид	-11.4457
▁लिए	-11.4457
ை	-11.4457
シ	-11.4459
kasadpan	-11.446
▁hospital	-11.446
▁mukaan	-11.4461
▁falta	-11.4463
▁wieder	-11.4463
cké	-11.4463
glio	-11.4464
▁muzik	-11.4464
▁TU	-11.4464
ány	-11.4464
▁priprav	-11.4464
pop	-11.4465
입	-11.4466
▁đây	-11.4466
138	-11.4466
ето	-11.4467
▁inne	-11.4467
▁Cross	-11.4468
▁Mais	-11.4468
imus	-11.4469
办	-11.4469
డ్	-11.447
▁Wij	-11.447
▁cultura	-11.447
zwe	-11.4471
▁rum	-11.4472
群	-11.4472
▁pamoja	-11.4473
vern	-11.4475
?!	-11.4475
▁wan	-11.4475
▁Mass	-11.4477
▁skupin	-11.4478
▁št	-11.4479
▁MT	-11.448
▁170	-11.4481
μη	-11.4482
▁Inform	-11.4482
మా	-11.4483
▁19:00	-11.4484
▁Қа	-11.4484
▁azken	-11.4485
▁18:00	-11.4485
▁þú	-11.4485
ਖ	-11.4485
ými	-11.4486
▁Network	-11.4487
ât	-11.4488
poved	-11.4488
▁install	-11.4489
▁пар	-11.449
▁Mata	-11.449
تو	-11.4491
▁laat	-11.4492
Ber	-11.4492
▁nez	-11.4492
▁дә	-11.4492
▁little	-11.4493
जी	-11.4493
staw	-11.4495
▁products	-11.4495
4°	-11.4496
▁jir	-11.4496
▁titul	-11.4497
▁image	-11.4497
rende	-11.4497
čno	-11.4498
نده	-11.4498
nsa	-11.4498
▁mlad	-11.4499
▁short	-11.45
▁egiteko	-11.45
شه	-11.45
▁هذا	-11.45
uč	-11.4502
וו	-11.4502
על	-11.4502
▁Farm	-11.4503
bod	-11.4503
యా	-11.4503
▁бел	-11.4504
開	-11.4506
wol	-11.4506
观	-11.4506
qay	-11.4506
σης	-11.4506
voer	-11.4506
990	-11.4507
▁tutto	-11.4507
▁trí	-11.4508
гов	-11.4508
▁rozhod	-11.4509
liste	-11.451
sókn	-11.4511
▁výrob	-11.4511
spre	-11.4512
Har	-11.4512
▁job	-11.4513
▁està	-11.4514
▁бір	-11.4514
▁Rub	-11.4514
TEN	-11.4514
яв	-11.4514
▁Vai	-11.4515
▁tay	-11.4516
▁être	-11.4517
indo	-11.4517
‍	-11.4517
▁doma	-11.4518
▁`	-11.4518
▁Komun	-11.4519
▁dam	-11.4519
kko	-11.4519
kuntza	-11.4519
▁sekali	-11.4519
▁đẹp	-11.452
اي	-11.4521
▁chủ	-11.4521
▁nchi	-11.4522
▁Rib	-11.4523
orang	-11.4523
▁judi	-11.4525
▁કર	-11.4525
▁Hotell	-11.4526
把	-11.4526
BT	-11.4528
lana	-11.4529
▁дел	-11.4529
vai	-11.453
jali	-11.4533
卡	-11.4533
▁онлайн	-11.4534
香港	-11.4534
▁skor	-11.4535
▁bliver	-11.4535
zip	-11.4535
▁yapı	-11.4537
▁times	-11.4537
255	-11.4538
elser	-11.4539
▁ਵ	-11.454
lichen	-11.4541
▁beli	-11.4541
měr	-11.4542
▁nostra	-11.4542
▁750	-11.4542
स्त	-11.4542
▁ව	-11.4542
ендә	-11.4543
MU	-11.4543
▁unik	-11.4544
▁hora	-11.4544
asse	-11.4544
195	-11.4544
使	-11.4545
▁lys	-11.4545
تم	-11.4545
ђе	-11.4547
역	-11.4547
▁może	-11.4548
esh	-11.4549
▁absolut	-11.4549
stelling	-11.4549
رات	-11.455
▁Mix	-11.455
北京	-11.4551
▁Chan	-11.4551
▁ਆ	-11.4552
▁milion	-11.4552
▁dopo	-11.4553
像	-11.4553
▁Joan	-11.4553
0.6	-11.4553
▁Oslo	-11.4554
CS	-11.4554
lərə	-11.4554
▁unsere	-11.4555
▁esku	-11.4555
skrift	-11.4556
ključ	-11.4556
won	-11.4556
tional	-11.4556
-23	-11.4556
151	-11.4557
▁Տ	-11.4557
▁sure	-11.4559
quel	-11.4561
▁ساتھ	-11.4561
▁Museum	-11.4561
læg	-11.4561
▁continua	-11.4561
ária	-11.4562
▁hafi	-11.4563
▁2:	-11.4565
(1)	-11.4565
教育	-11.4567
▁Agen	-11.4568
கி	-11.4568
▁hata	-11.4569
▁durant	-11.4569
લે	-11.4569
ssy	-11.457
тон	-11.4573
handle	-11.4574
HR	-11.4574
▁BI	-11.4574
læ	-11.4574
▁Pump	-11.4574
▁تھا	-11.4574
ดู	-11.4577
rub	-11.4579
▁Hoo	-11.4579
dist	-11.458
ceb	-11.4581
▁también	-11.4581
▁bảo	-11.4581
▁Schwarz	-11.4581
пор	-11.4582
143	-11.4582
PK	-11.4583
▁Jur	-11.4584
▁mặt	-11.4585
▁gay	-11.4585
▁Wel	-11.4585
▁moda	-11.4585
▁жыл	-11.4586
▁Run	-11.4586
сад	-11.4586
اني	-11.4587
▁roll	-11.4588
ການ	-11.4588
▁Ки	-11.4589
▁další	-11.459
īgi	-11.459
▁vende	-11.4591
▁دست	-11.4591
porte	-11.4591
▁الد	-11.4591
DY	-11.4591
(2)	-11.4592
▁fot	-11.4593
elsen	-11.4595
▁hall	-11.4595
▁mungkin	-11.4596
ගේ	-11.4596
▁hitz	-11.4597
Tra	-11.4599
ủ	-11.4601
▁گفت	-11.4602
▁έ	-11.4602
▁Hil	-11.4603
rent	-11.4603
iyat	-11.4603
▁CS	-11.4603
▁thị	-11.4603
satz	-11.4604
āla	-11.4604
▁saada	-11.4604
suz	-11.4604
▁руб	-11.4606
▁Spo	-11.4607
TN	-11.4607
کور	-11.4607
▁argi	-11.4607
▁ਜ	-11.4607
▁Sig	-11.4607
▁jalan	-11.4608
후	-11.4608
▁други	-11.4609
▁deve	-11.4609
anak	-11.461
▁milyon	-11.4611
▁کن	-11.4612
ool	-11.4613
处	-11.4614
abili	-11.4615
▁kli	-11.4615
чет	-11.4616
▁trước	-11.4616
▁enn	-11.4616
/04/20	-11.4616
▁Bis	-11.4617
▁bod	-11.4618
▁RS	-11.462
tiri	-11.4623
▁Mkuu	-11.4625
ína	-11.4626
▁Great	-11.4626
경	-11.4627
▁Mars	-11.4628
설	-11.4629
ground	-11.4631
زن	-11.4632
▁які	-11.4632
ój	-11.4632
ув	-11.4632
▁нам	-11.4633
▁kuji	-11.4634
▁plast	-11.4634
▁VA	-11.4634
▁Donna	-11.4635
免费	-11.4636
ashi	-11.4637
lük	-11.4637
▁중	-11.4638
SB	-11.4638
▁JO	-11.4638
mpion	-11.4638
▁utiliza	-11.4638
MAT	-11.4639
imba	-11.4639
MENT	-11.4639
---	-11.464
▁Ак	-11.4641
rate	-11.4642
رش	-11.4642
▁lid	-11.4642
▁vähe	-11.4643
sund	-11.4643
▁ав	-11.4643
фер	-11.4645
▁deste	-11.4646
▁Hat	-11.4647
ತ್	-11.4647
▁այն	-11.465
▁echt	-11.465
फ	-11.465
▁legge	-11.465
АР	-11.465
104	-11.465
agne	-11.4651
▁training	-11.4652
▁obliga	-11.4652
▁atsi	-11.4653
corso	-11.4653
article	-11.4653
ទៅ	-11.4653
Đ	-11.4653
▁бай	-11.4654
ră	-11.4655
▁familiar	-11.4657
ування	-11.4657
市场	-11.4658
mk	-11.4658
▁hér	-11.4659
zás	-11.4659
ез	-11.4659
▁LG	-11.466
ոց	-11.4661
▁lên	-11.4661
dw	-11.4661
▁mort	-11.4662
orna	-11.4662
便	-11.4663
▁Dha	-11.4663
▁pernah	-11.4663
▁jen	-11.4664
▁oslo	-11.4665
ojmë	-11.4665
结	-11.4669
▁aja	-11.467
ỗ	-11.4671
شار	-11.4671
स्ट	-11.4671
▁Ար	-11.4674
tür	-11.4674
▁12:00	-11.4675
政府	-11.4676
ധ	-11.4677
火	-11.4677
▁tank	-11.4678
▁EM	-11.4678
كس	-11.4678
ëm	-11.4678
▁dobro	-11.4679
▁prepara	-11.468
hora	-11.4681
ლო	-11.4683
की	-11.4683
▁Marco	-11.4684
ወ	-11.4684
▁mumkin	-11.4684
USD	-11.4684
▁유	-11.4685
▁Eta	-11.4685
нең	-11.4685
▁melhor	-11.4685
rais	-11.4686
▁Lig	-11.4686
èl	-11.4687
▁Front	-11.4688
šč	-11.4688
▁230	-11.4688
entzia	-11.4689
▁Teh	-11.469
▁Base	-11.469
▁cultural	-11.469
rede	-11.4691
mál	-11.4691
▁sedan	-11.4692
מת	-11.4692
pita	-11.4692
▁orta	-11.4695
adii	-11.4695
▁Cover	-11.4695
▁Türk	-11.4696
cita	-11.4697
vig	-11.4697
▁Holiday	-11.4698
▁Software	-11.4698
each	-11.4698
▁két	-11.4699
▁waxay	-11.47
нт	-11.47
асы	-11.47
▁questa	-11.4702
liyi	-11.4702
▁בת	-11.4703
start	-11.4704
▁hasil	-11.4704
食	-11.4704
▁Note	-11.4704
ঙ্গ	-11.4705
เก	-11.4705
▁interior	-11.4705
带	-11.4706
▁relativ	-11.4708
する	-11.4709
انت	-11.471
▁Buk	-11.471
==	-11.4711
▁עו	-11.4711
uden	-11.4711
גי	-11.4711
داری	-11.4711
zien	-11.4712
▁Carlos	-11.4714
ύρ	-11.4715
5,00	-11.4715
yı	-11.4715
рэ	-11.4716
▁herri	-11.4717
▁variant	-11.4718
сов	-11.4718
ırı	-11.4718
päev	-11.4718
lát	-11.4718
って	-11.4719
▁hiệu	-11.4719
▁Marketing	-11.472
ēta	-11.472
▁dve	-11.4721
▁prov	-11.4721
▁infra	-11.4721
▁khác	-11.4722
▁Milan	-11.4723
inden	-11.4725
▁expert	-11.4725
ێ	-11.4726
NP	-11.4726
▁Add	-11.4727
න්න	-11.4728
cela	-11.4728
▁Short	-11.4729
▁spec	-11.4729
▁font	-11.4731
ật	-11.4731
春	-11.4732
▁uga	-11.4732
▁tiếp	-11.4733
¿	-11.4734
ház	-11.4734
tës	-11.4735
дом	-11.4736
дир	-11.4737
关	-11.4738
pers	-11.4739
▁Metro	-11.474
▁Natur	-11.474
гр	-11.4741
rain	-11.4741
ائل	-11.4741
ACA	-11.4742
▁hours	-11.4744
▁evento	-11.4745
tama	-11.4745
ــ	-11.4745
pti	-11.4747
صف	-11.4748
arm	-11.4748
ಕ್ಷ	-11.475
▁mij	-11.475
▁ю	-11.4751
▁deres	-11.4751
▁pacient	-11.4751
▁ganz	-11.4751
為	-11.4752
▁usu	-11.4752
HAN	-11.4753
សា	-11.4753
ża	-11.4753
▁جن	-11.4754
▁giúp	-11.4754
▁polis	-11.4755
▁enjoy	-11.4755
▁سكس	-11.4755
álne	-11.4755
▁tím	-11.4755
אות	-11.4756
при	-11.4757
رة	-11.4759
▁tahu	-11.4759
▁aika	-11.476
▁cheap	-11.476
staan	-11.476
▁Alb	-11.476
▁systém	-11.476
-22	-11.4761
ਤੇ	-11.4762
lagen	-11.4763
연	-11.4763
▁ਇਸ	-11.4764
GER	-11.4764
кой	-11.4765
▁PAS	-11.4765
▁viet	-11.4765
др	-11.4765
▁آر	-11.4766
ály	-11.4766
бан	-11.4766
song	-11.4767
▁huu	-11.4767
ធ	-11.4767
roj	-11.4768
nė	-11.4769
LK	-11.4769
Қ	-11.477
▁Kla	-11.4771
▁plo	-11.4771
твор	-11.4771
icos	-11.4772
ము	-11.4773
fak	-11.4773
iston	-11.4774
тка	-11.4775
mog	-11.4776
▁jeden	-11.4776
ант	-11.4777
bina	-11.4777
torio	-11.4778
ungu	-11.4779
too	-11.478
▁explica	-11.478
beeld	-11.4782
ācija	-11.4782
▁Tru	-11.4782
▁zon	-11.4783
ferð	-11.4784
▁Miss	-11.4785
▁오	-11.4785
▁Başkanı	-11.4785
ują	-11.4786
ంగా	-11.4787
导	-11.4787
限	-11.4787
▁spin	-11.4788
▁COVID	-11.4788
ступ	-11.4789
▁tế	-11.4789
▁skirt	-11.4789
▁وأ	-11.479
وو	-11.479
уда	-11.479
▁Eks	-11.479
pă	-11.479
cak	-11.4791
dest	-11.4791
▁ملک	-11.4793
▁nghiệp	-11.4796
vok	-11.4796
▁slot	-11.4797
▁geri	-11.4798
▁част	-11.4798
EI	-11.4799
▁rat	-11.4799
▁ngo	-11.4799
dera	-11.4799
率	-11.4801
▁Style	-11.4801
ison	-11.4802
▁They	-11.4804
לע	-11.4804
▁skin	-11.4806
▁kabel	-11.4806
body	-11.4806
▁están	-11.4809
▁kilometro	-11.4809
UND	-11.481
ηγ	-11.481
cció	-11.4811
▁Rai	-11.4812
panjang	-11.4812
▁});	-11.4813
1.9	-11.4813
▁آپ	-11.4813
▁●	-11.4813
1.5	-11.4815
▁2013.	-11.4816
토	-11.4816
▁υπο	-11.4816
▁brez	-11.4816
▁mən	-11.4818
രാ	-11.4818
▁pasar	-11.4819
technik	-11.482
▁Jesus	-11.482
▁vista	-11.4821
▁sagt	-11.4821
低	-11.4821
fyl	-11.4821
cure	-11.4821
ಕೆ	-11.4822
cours	-11.4822
▁Fair	-11.4824
ဲ	-11.4825
nesi	-11.4826
▁weg	-11.4828
▁hef	-11.4828
ają	-11.4829
▁ndër	-11.483
▁lok	-11.483
▁cầu	-11.483
home	-11.483
فو	-11.4831
▁sulla	-11.4831
▁나	-11.4831
ORE	-11.4831
▁tax	-11.4832
ácie	-11.4834
▁specific	-11.4834
▁gul	-11.4836
ाइ	-11.4837
▁sê	-11.4838
▁вер	-11.4839
rás	-11.484
dze	-11.4842
fli	-11.4843
室	-11.4844
কা	-11.4844
▁Hong	-11.4844
kull	-11.4846
こ	-11.4846
▁Кар	-11.4847
▁suk	-11.4849
▁Human	-11.4852
▁rock	-11.4854
rag	-11.4855
▁проект	-11.4856
▁SMS	-11.4857
New	-11.4858
őr	-11.4858
▁Nieuw	-11.4859
ப்பு	-11.4859
jian	-11.4859
րդ	-11.4859
▁Francisco	-11.486
159	-11.486
▁̧	-11.486
niem	-11.4861
▁الذي	-11.4862
صح	-11.4862
யா	-11.4863
▁ISO	-11.4863
రీ	-11.4863
▁mencari	-11.4867
▁soos	-11.4868
▁OR	-11.487
▁Esp	-11.4871
▁obchod	-11.4871
▁etdi	-11.4871
မ်ား	-11.4872
OV	-11.4872
BER	-11.4873
▁egen	-11.4874
290	-11.4874
ارد	-11.4875
2.5	-11.4875
▁Preis	-11.4875
▁hali	-11.4876
▁720	-11.4877
UF	-11.4879
pk	-11.4879
rab	-11.488
▁jis	-11.4881
YS	-11.4881
▁sá	-11.4882
nál	-11.4882
kod	-11.4883
pool	-11.4883
дук	-11.4883
יט	-11.4883
▁Porn	-11.4884
مه	-11.4885
▁qilish	-11.4886
ປ	-11.4886
▁peut	-11.4886
Ն	-11.4889
▁zer	-11.4889
άσ	-11.4889
dc	-11.489
▁इस	-11.489
▁belum	-11.489
rå	-11.4891
ítás	-11.4891
DF	-11.4892
ajiem	-11.4892
cate	-11.4892
▁voru	-11.4892
▁Gas	-11.4893
Ti	-11.4894
▁Bah	-11.4894
gene	-11.4898
OG	-11.4898
có	-11.4898
คุณ	-11.49
àng	-11.4902
▁ਗ	-11.4904
ėti	-11.4904
▁machine	-11.4904
ült	-11.4906
▁tốt	-11.4906
TEL	-11.4906
qan	-11.4906
জি	-11.4907
▁kaikki	-11.4907
uş	-11.4907
▁soovi	-11.4907
田	-11.4907
▁smartphone	-11.4907
했다	-11.4907
▁مل	-11.4908
▁kuulu	-11.4908
공	-11.4908
▁daugiau	-11.4909
▁photos	-11.4909
lho	-11.4909
▁moz	-11.4909
▁BBC	-11.4909
lanan	-11.491
ਧ	-11.4912
kool	-11.4913
164	-11.4914
ਤਾ	-11.4915
poz	-11.4916
▁timp	-11.4916
န္း	-11.4916
230	-11.4916
الم	-11.4919
ường	-11.4919
file	-11.492
▁0.00	-11.492
▁equipo	-11.4921
▁leis	-11.4921
▁Thai	-11.4921
ơ	-11.4922
▁Sud	-11.4923
τικό	-11.4924
▁කර	-11.4925
ráð	-11.4925
tūr	-11.4925
▁isso	-11.4927
356	-11.4927
óc	-11.4928
▁Vien	-11.4928
هن	-11.4929
▁three	-11.4929
▁foarte	-11.4929
▁esse	-11.4929
erende	-11.493
▁제	-11.493
▁elke	-11.4931
▁قرار	-11.4931
uso	-11.4932
сия	-11.4932
MAN	-11.4933
ədə	-11.4933
▁Stan	-11.4933
152	-11.4935
ily	-11.4935
▁Direct	-11.4936
исти	-11.4936
şti	-11.4937
▁Jose	-11.4937
▁ایس	-11.4937
▁gram	-11.4938
YO	-11.4938
rci	-11.4939
алар	-11.494
ονται	-11.494
古	-11.4941
рус	-11.4942
▁اب	-11.4943
▁мар	-11.4943
▁efekt	-11.4943
ুল	-11.4943
▁nær	-11.4945
▁Party	-11.4945
marin	-11.4945
čiai	-11.4947
▁tum	-11.4947
รับ	-11.4947
GGA	-11.4947
▁keli	-11.4948
ENA	-11.4948
▁interven	-11.4948
ables	-11.495
▁makan	-11.495
ből	-11.4951
ლე	-11.4952
▁natur	-11.4952
▁mateix	-11.4954
▁politika	-11.4954
▁۲	-11.4955
▁iPad	-11.4956
▁ү	-11.4957
▁اليوم	-11.4957
▁drug	-11.4957
▁status	-11.4957
▁particular	-11.4957
remos	-11.4958
▁raport	-11.4958
▁එ	-11.4959
ണ്ട	-11.4959
อน	-11.496
فی	-11.496
vista	-11.496
heden	-11.4961
137	-11.4962
158	-11.4962
оти	-11.4963
ウ	-11.4963
▁бас	-11.4964
▁Ρ	-11.4964
imeve	-11.4966
▁kuna	-11.4968
imų	-11.4968
▁Och	-11.4968
▁món	-11.4968
▁politic	-11.4969
ებს	-11.4969
ាត់	-11.497
完	-11.497
0.2	-11.497
RF	-11.497
মি	-11.4971
▁mempunyai	-11.4971
반	-11.4971
جز	-11.4971
gere	-11.4973
avan	-11.4974
All	-11.4975
▁lloc	-11.4977
dä	-11.4977
▁Arti	-11.4978
▁Kay	-11.4978
▁Adidas	-11.498
▁biết	-11.498
Class	-11.4981
▁held	-11.4981
جو	-11.4982
▁Minister	-11.4982
▁Έ	-11.4982
▁genera	-11.4982
▁2014.	-11.4983
▁sano	-11.4983
▁Ata	-11.4984
ALE	-11.4984
džio	-11.4984
ಲು	-11.4986
allo	-11.4986
όρ	-11.4987
эт	-11.4987
ապ	-11.4987
2.0	-11.4988
▁información	-11.4988
▁Ár	-11.4989
erar	-11.4989
ಶ	-11.4989
▁Qo	-11.4989
▁ए	-11.4989
ify	-11.499
తా	-11.4991
GAT	-11.4991
▁gian	-11.4992
▁biznes	-11.4992
▁note	-11.4993
▁108	-11.4994
ního	-11.4994
ბ	-11.4995
▁Food	-11.4995
tex	-11.4996
▁sap	-11.4996
▁ET	-11.4996
bier	-11.5
▁Klas	-11.5001
CZ	-11.5001
▁1998	-11.5001
รา	-11.5002
ٹی	-11.5002
▁tots	-11.5003
▁Stor	-11.5005
টে	-11.5006
▁permainan	-11.5006
▁Collection	-11.5006
छ	-11.5008
▁terve	-11.5008
▁પણ	-11.5008
▁Matt	-11.5009
▁Arte	-11.5009
venir	-11.501
game	-11.5011
כה	-11.5012
▁molto	-11.5012
▁flo	-11.5012
টা	-11.5012
փ	-11.5013
တဲ့	-11.5014
alia	-11.5014
▁URL	-11.5017
▁disp	-11.5018
ería	-11.5019
▁mok	-11.5019
еле	-11.5019
▁enda	-11.502
▁Klein	-11.502
tü	-11.502
kers	-11.5022
نش	-11.5024
▁KE	-11.5024
plass	-11.5026
ലി	-11.5028
جه	-11.5028
177	-11.5029
使用	-11.503
▁гу	-11.503
▁away	-11.503
рен	-11.503
.“	-11.5031
اخ	-11.5031
2005	-11.5031
▁(10)	-11.5032
աբ	-11.5033
quí	-11.5033
▁hadi	-11.5033
▁Beg	-11.5033
Ø	-11.5033
▁stars	-11.5034
▁magaalada	-11.5035
িয়ে	-11.5035
idagi	-11.5035
ನಿ	-11.5037
▁ծ	-11.5037
аз	-11.5038
rząd	-11.5039
eck	-11.5039
▁Disc	-11.504
▁Ton	-11.504
ários	-11.5041
תח	-11.5041
craft	-11.5042
sió	-11.5042
▁YouTube	-11.5042
▁kunst	-11.5042
▁Ди	-11.5042
hani	-11.5043
base	-11.5043
▁新	-11.5043
视频	-11.5043
]").	-11.5044
▁stat	-11.5044
acqu	-11.5045
▁kuva	-11.5046
ateur	-11.5046
▁Grande	-11.5048
深	-11.5048
σαν	-11.5048
169	-11.5049
▁Į	-11.5049
▁Македонија	-11.5049
▁Steel	-11.505
مو	-11.505
já	-11.5051
saka	-11.5054
tettu	-11.5054
▁като	-11.5055
pack	-11.5055
▁musik	-11.5056
▁return	-11.5056
교	-11.5056
디	-11.5056
▁course	-11.5056
▁hizmet	-11.5056
мар	-11.5057
ড়	-11.5057
ДА	-11.5058
ราคา	-11.5058
dlo	-11.5059
▁algo	-11.5059
▁Rome	-11.5059
tuan	-11.506
работ	-11.5061
184	-11.5062
▁kina	-11.5064
amh	-11.5064
▁gost	-11.5064
▁pensa	-11.5065
▁informasi	-11.5065
σο	-11.5065
9°	-11.5065
▁saka	-11.5067
uksia	-11.5067
▁పా	-11.5068
▁follow	-11.5068
5.5	-11.5068
2.4	-11.5069
プ	-11.507
ադր	-11.5072
sala	-11.5072
ACC	-11.5073
kura	-11.5073
оо	-11.5075
नि	-11.5075
▁TOP	-11.5076
375	-11.5077
বার	-11.5077
ΟΥ	-11.5077
korra	-11.5078
▁Richard	-11.5079
stil	-11.508
▁hệ	-11.5081
▁એક	-11.5081
όν	-11.5081
▁labai	-11.5082
ussa	-11.5082
▁Lind	-11.5082
koz	-11.5082
▁הי	-11.5082
▁Scho	-11.5083
▁fé	-11.5084
հ	-11.5085
▁abril	-11.5085
raga	-11.5085
▁antes	-11.5086
▁Services	-11.5086
▁года	-11.5086
.09.20	-11.5087
aciones	-11.5087
kraft	-11.5088
▁slu	-11.509
яз	-11.5091
maskin	-11.5091
ап	-11.5091
没有	-11.5091
▁ahal	-11.5091
իտ	-11.5092
▁بد	-11.5092
▁jsme	-11.5093
▁leta	-11.5094
▁Thi	-11.5094
ಷ	-11.5095
onda	-11.5095
ং	-11.5096
▁conven	-11.5097
050	-11.5097
▁جي	-11.5098
▁þeim	-11.5099
011	-11.51
▁laikā	-11.51
abu	-11.51
▁ඉ	-11.5102
▁Vous	-11.5102
▁πο	-11.5102
пар	-11.5102
υπ	-11.5103
▁estre	-11.5103
▁meno	-11.5104
▁kanyang	-11.5104
ulla	-11.5104
▁Mens	-11.5104
ATI	-11.5105
cik	-11.5105
pah	-11.5105
ierung	-11.5106
又	-11.5106
永	-11.5106
íme	-11.5106
▁Winter	-11.5107
▁điểm	-11.5107
▁benefici	-11.5107
&#	-11.5107
bæ	-11.5108
pression	-11.511
▁및	-11.5111
▁oz	-11.5111
视	-11.5111
یب	-11.5112
ера	-11.5113
тә	-11.5113
▁Science	-11.5114
දී	-11.5115
▁salon	-11.5115
2004	-11.5115
▁Vit	-11.5116
лад	-11.5117
▁bolj	-11.5117
جا	-11.5117
▁kasi	-11.5117
▁blanc	-11.5118
▁кара	-11.5119
ож	-11.5119
NZ	-11.5119
pid	-11.5119
ਕਾ	-11.512
7.5	-11.512
して	-11.512
кот	-11.5121
▁Say	-11.5121
päeva	-11.5121
isia	-11.5122
▁mener	-11.5123
▁regula	-11.5124
zima	-11.5124
("[	-11.5124
▁brit	-11.5127
▁кам	-11.5127
▁private	-11.5128
▁lag	-11.5129
▁superior	-11.5129
▁quả	-11.513
ડી	-11.513
cens	-11.513
туу	-11.5131
usti	-11.5131
endelea	-11.5131
/18	-11.5132
ינו	-11.5132
ował	-11.5133
тов	-11.5134
米	-11.5134
▁aut	-11.5134
PORT	-11.5137
▁restaurant	-11.5139
▁kilo	-11.514
▁ára	-11.5141
уз	-11.5141
тель	-11.5142
务	-11.5142
ষ	-11.5142
ั	-11.5142
פור	-11.5142
եմ	-11.5142
tjes	-11.5143
▁Soo	-11.5144
▁Sir	-11.5145
μο	-11.5145
iyet	-11.5145
گاه	-11.5146
ುವ	-11.5147
Her	-11.5148
▁Item	-11.5148
▁Registr	-11.515
DV	-11.515
іх	-11.5152
ghe	-11.5154
▁vain	-11.5155
▁già	-11.5156
рад	-11.5156
▁Night	-11.5158
▁women	-11.5159
▁Era	-11.5159
áš	-11.516
▁Gün	-11.516
មាន	-11.5161
▁త	-11.5162
זה	-11.5162
TAG	-11.5163
gues	-11.5164
▁performance	-11.5165
▁vizit	-11.5165
läng	-11.5166
iling	-11.5166
yum	-11.5166
kurs	-11.5167
▁versi	-11.5168
950	-11.5169
▁lamp	-11.517
ែ	-11.5171
知	-11.5171
వా	-11.5171
▁Ն	-11.5171
▁kế	-11.5171
ঘ	-11.5171
ovanje	-11.5172
▁gid	-11.5173
▁ʼ	-11.5173
▁gew	-11.5173
▁сайт	-11.5174
isko	-11.5175
▁Ari	-11.5177
▁Budapest	-11.5179
unto	-11.5179
▁always	-11.5179
*(?:	-11.518
▁loro	-11.518
▁identi	-11.518
gile	-11.5181
▁/>	-11.5181
▁application	-11.5181
ılan	-11.5181
צה	-11.5182
୍	-11.5183
▁Бе	-11.5183
009	-11.5183
քի	-11.5184
▁pier	-11.5184
▁104	-11.5186
▁Luk	-11.5186
进行	-11.5187
157	-11.5187
▁moc	-11.5188
bong	-11.519
indən	-11.5191
▁જે	-11.5191
raš	-11.5192
▁nodig	-11.5193
▁perquè	-11.5193
רות	-11.5193
▁Ekonomi	-11.5194
sip	-11.5194
маг	-11.5194
ők	-11.5194
▁Type	-11.5195
▁Donald	-11.5195
▁ন	-11.5197
▁sand	-11.5198
izz	-11.5199
ключ	-11.5199
user	-11.5199
camp	-11.52
▁blok	-11.52
hör	-11.5201
gust	-11.5202
tár	-11.5203
ння	-11.5203
▁Lauren	-11.5204
▁fase	-11.5204
3°	-11.5205
▁Kosovë	-11.5205
▁hadde	-11.5206
预	-11.5207
ndus	-11.5208
▁travel	-11.5209
খ	-11.521
than	-11.521
тек	-11.521
▁הנ	-11.521
▁све	-11.521
▁komun	-11.5211
▁When	-11.5211
down	-11.5211
ppel	-11.5211
治	-11.5214
▁yung	-11.5214
NL	-11.5214
সি	-11.5214
▁1990	-11.5217
▁kW	-11.5218
▁své	-11.5218
mų	-11.5219
tatud	-11.522
▁Spec	-11.5221
类	-11.5221
777	-11.5222
必	-11.5222
▁contract	-11.5222
から	-11.5223
▁թե	-11.5223
▁Ref	-11.5224
▁vaše	-11.5225
▁please	-11.5225
134	-11.5225
▁газ	-11.5226
beri	-11.5227
▁три	-11.5228
timo	-11.5228
园	-11.5229
real	-11.523
لك	-11.5233
▁Saya	-11.5234
dami	-11.5235
や	-11.5236
▁иш	-11.5237
free	-11.5237
ização	-11.5238
▁Një	-11.5238
▁minimal	-11.5239
ွ	-11.5239
▁Tema	-11.5239
▁few	-11.524
▁Make	-11.524
198	-11.5241
kvæm	-11.5241
▁yr	-11.5241
▁analiz	-11.5242
영	-11.5243
▁ေ	-11.5244
▁terhadap	-11.5245
▁eest	-11.5246
1.7	-11.5248
глас	-11.5249
дж	-11.525
eň	-11.525
▁Informa	-11.5252
▁Çe	-11.5252
▁cr	-11.5253
156	-11.5254
pende	-11.5254
▁GPS	-11.5255
чна	-11.5255
rock	-11.5256
ĝo	-11.5257
ết	-11.5257
▁jira	-11.5258
▁Си	-11.5258
တာ	-11.5258
품	-11.5258
ikal	-11.5259
ঠ	-11.5259
520	-11.5259
גל	-11.526
▁Please	-11.526
▁tsy	-11.526
action	-11.526
▁SD	-11.5261
▁بم	-11.5263
▁Ved	-11.5265
lamp	-11.5265
世	-11.5265
▁సినిమా	-11.5266
양	-11.5266
▁potreb	-11.5266
▁Mae	-11.5267
▁Fat	-11.5269
▁Jual	-11.527
▁filme	-11.5271
पा	-11.5272
ږ	-11.5272
▁Hoe	-11.5272
▁1997	-11.5272
▁Hoodie	-11.5272
▁sõ	-11.5273
▁Well	-11.5274
ларни	-11.5274
ээр	-11.5274
▁même	-11.5274
ený	-11.5274
-2020	-11.5275
▁fór	-11.5277
իմ	-11.5277
legen	-11.5278
▁zoek	-11.5279
▁bertan	-11.5279
▁Int	-11.5279
▁пов	-11.528
▁Porto	-11.528
кә	-11.528
৬	-11.5281
540	-11.5281
▁shko	-11.5282
tida	-11.5282
unar	-11.5283
▁Meg	-11.5283
▁Rat	-11.5284
ţă	-11.5284
▁aina	-11.5285
ismap	-11.5286
▁NI	-11.5286
▁idé	-11.5286
زم	-11.5286
Qu	-11.5287
rf	-11.5288
▁meel	-11.5288
▁Nap	-11.5288
kuva	-11.5289
▁never	-11.529
KL	-11.529
▁pravi	-11.5292
лив	-11.5292
ае	-11.5292
hui	-11.5293
Men	-11.5293
اط	-11.5295
▁Town	-11.5295
▁notre	-11.5296
AGE	-11.5297
ദ്	-11.5297
▁(9)	-11.5297
▁Unter	-11.5297
▁teng	-11.5298
▁Пе	-11.5299
▁Egy	-11.5299
▁ამ	-11.5299
▁тар	-11.5301
▁ಮಾಡ	-11.5302
loh	-11.5303
▁тоа	-11.5303
hlas	-11.5304
onto	-11.5304
▁esco	-11.5304
уу	-11.5304
ភាព	-11.5304
▁collection	-11.5304
▁unit	-11.5305
▁Episode	-11.5305
λά	-11.5306
CIA	-11.5307
volg	-11.5308
▁lige	-11.5309
营	-11.5309
▁والم	-11.5309
ELE	-11.531
▁dövlət	-11.531
▁również	-11.531
GR	-11.531
▁Bes	-11.5311
kill	-11.5311
▁without	-11.5312
▁near	-11.5312
mere	-11.5313
trieb	-11.5314
kā	-11.5314
▁tieto	-11.5315
Home	-11.5315
▁urban	-11.5315
▁aad	-11.5316
readonly	-11.5318
מות	-11.5319
▁gibt	-11.5319
▁dintre	-11.532
▁sociale	-11.532
moc	-11.5321
▁mensen	-11.5322
▁clean	-11.5322
יא	-11.5322
▁마	-11.5323
бол	-11.5323
æn	-11.5323
▁MAN	-11.5324
▁Technology	-11.5325
lez	-11.5325
ıldı	-11.5325
sider	-11.5326
▁банк	-11.5326
▁دیا	-11.5326
▁καλ	-11.5326
▁vest	-11.5326
jih	-11.5326
▁aspect	-11.5326
જી	-11.5326
▁Tot	-11.5327
间	-11.5328
ory	-11.5328
klo	-11.5329
▁viel	-11.5329
▁fokus	-11.533
▁reag	-11.533
▁106	-11.533
▁Mega	-11.5331
木	-11.5331
væ	-11.5332
▁Há	-11.5333
mend	-11.5333
▁dni	-11.5333
axe	-11.5334
▁представ	-11.5335
▁сто	-11.5335
стер	-11.5336
ème	-11.5336
óg	-11.5337
▁hug	-11.5337
SR	-11.5338
Æ	-11.5339
▁նաեւ	-11.5339
▁lange	-11.534
▁đường	-11.534
grade	-11.534
▁suma	-11.5342
▁olub	-11.5342
具	-11.5343
▁four	-11.5343
▁stad	-11.5344
тары	-11.5344
▁informatie	-11.5345
program	-11.5345
性	-11.5346
stell	-11.5346
bic	-11.5348
២	-11.5348
▁Lap	-11.5348
▁Ю	-11.5349
ttaa	-11.5349
▁Wiki	-11.5349
▁jin	-11.5349
▁gode	-11.5349
▁হয়েছে	-11.5349
造	-11.5349
▁пот	-11.5349
anne	-11.535
▁wit	-11.5351
▁ਹ	-11.5354
ေတြ	-11.5354
sole	-11.5356
▁lainnya	-11.5356
ficient	-11.5357
▁չ	-11.5357
▁הק	-11.5358
prac	-11.5359
188	-11.536
delig	-11.536
וט	-11.5361
sema	-11.5362
▁karakter	-11.5362
[...]
