#version: 0.2
Ġ .
Ġ Ð
Ġ à
Ð °
Ġ ,
a n
e n
e r
i n
á ĥ
Ġ s
Ġ d
a r
à ¸
á Ģ
Ġ p
à ¤
Ġ a
Ð ¾
Ġ t
Ð µ
Ð ¸
Ð ½
Ġ m
Ñ Ĥ
Ñ Ģ
e s
á ŀ
o n
Ġ Ø
à °
Ġ n
à ²
a t
Ġ -
a l
Ġ k
o r
Ġ c
à ¦
e l
i s
à ´
Ġ b
Ð »
Ñ ģ
e t
a s
â Ģ
Ġ 1
Ġ v
Ġ l
à ®
i t
Ġ 2
Ġ ×
Ø §
Ġ :
Ġ h
i l
Ġ âĢ
Ġ o
u n
à ª
Ñ ĥ
Ð° Ð
r e
o m
Ġ f
à ·
a m
Ġ Ù
Ġ S
à ¥
o s
Ġ A
Ð ´
à ¶
a d
¿ ½
ï ¿½
Ġà ¤
Ġ Î
e m
u r
Ġ (
Ġ g
Ġ Ã
Ñ ĭ
Ð º
t i
a k
Ġ M
Ġ i
Ġ w
ã ģ
à µ
Ġ )
c h
Ø ±
e d
Ġ P
u s
o l
Û Į
Ġd e
à ±
à ¯
Ġ C
à ³
Ù Ħ
Ġ "
Ġ e
Ã ¡
à ¨
Ð¾ Ð
i k
r o
Ù Ĩ
Õ ¡
Ġ 0
Ġ T
Ù Ī
i d
Ġ j
Ġ B
× Ļ
r a
Ñ ĸ
u l
Ġ2 0
à §
ï¿½ ï¿½
Ġ D
en t
× ķ
Ġ in
i e
i r
á Ł
a g
in g
Î ±
Ã ©
Ġ /
à ¹
Ġ Ñ
i m
u t
i c
Ð ¼
Ï Ħ
Ġ 3
Õ¡ Õ
ĠØ §
o t
Ġà ¦
Î ¿
u m
Ġ K
Ġ Õ
×ķ ×
Ġ r
i a
t a
i g
l e
Ã ¤
Ġ E
Ä ±
Î ¹
Ġ L
Ã «
Ð ²
t e
Ã Ń
Ġ Ñģ
an g
É Ļ
Ġ y
an d
à «
Ġ z
Ġ N
àµ į
Ġà °
Ð ³
Ù ħ
Ġ Â
áĥ Ĳ
Ġ H
×Ļ ×
Ø ª
Ù Ĭ
Ġà ²
Ġ I
ĠÐ ¿
e k
à¤ ¾
Ð° Ð½
Ġà ª
à¯ į
à º
Ġ R
Ñ ı
Ø ¯
ã Ĥ
Ġ20 1
Ð° ÑĢ
h e
Î µ
Ġ áĥ
á »
s t
Ú ©
ã Ģ
Ġ F
o d
ĠÐ ½
Î ½
a y
ã ĥ
Ã ³
Ġ 4
a b
Ġ G
Ġ 5
Ġc om
Ð° Ñ
a c
Ù ĩ
Ġà ¶
o v
q u
Ġ V
a p
Ġ ì
e g
a h
Ġ W
áĥĲ áĥ
ĠÐ ±
Ġ áŀ
ĠÐ º
Ġ en
Ġ '
Ð ·
àµį à´
Ġà ¨
Ö Ģ
áĥ ĺ
ĠÐ ´
Ġà ®
Ġà ´
Ðµ Ð½
. .
i on
Ï ģ
r i
Ã ¶
Ï ĥ
0 0
Ġ ÑĤ
o k
Ø ³
u d
Å ¡
Ñģ ÑĤ
ĠâĢ ĭ
u k
Ġ O
Ð° ÑĤ
à³ į
à¦ ¾
Ã ¼
à¤¾ à¤
à ©
ĠÙ ħ
Ġ un
à± į
Õ ¸
Ġn a
es t
Ð° Ð»
Ð ¿
Ġl a
Ġ ãĢ
à¥ į
Ġs e
Ġa l
ĠÐ ²
Ġ J
à¥į à¤
Ä ģ
à¯į à®
is t
Ï Ģ
Ð¸ Ñ
o g
Ñ Į
ĠÐ ¼
i v
à³į à²
Ġ u
Ġ ;
Ġ Ú©
Ġ å
Ð ±
i z
Ġ re
áĥ Ķ
t er
ä ¸
ĠÐ ¸
Ä į
Ġ á
ĠÐ ¾
Ĵ áŀ
Ð ¹
× ¨
ï ¼
Ø ¨
ĠØ§ ÙĦ
à² ¿
Õ ¥
Ġ |
a v
Ðµ ÑĢ
Ï Ĥ
e c
à¸ ²
Õ ¶
áŁ Ĵáŀ
Ï ħ
Ã °
Î ·
à±į à°
en d
o p
à° ¿
Ġ 6
à¦¾ à¦
Ġ ?
ĠÐ °
à§ ĩ
a i
er s
Ġ qu
a j
áĥĶ áĥ
Ñ į
Õ «
à¥ ĩ
Ġ an
Ġp r
× Ķ
ĠØ ¨
á º
Ġ U
áŀ ¶
Ġs t
i j
à· Ĭ
Ġ 7
Ñ Ī
e b
Ġ =
Ñ ĩ
ĠÐ ·
l a
à° ¾
àª ¾
Ġp ro
Ð¾Ð ²
à¸² à¸
Ġ ar
Ġa t
n g
Ã ¥
Å ¾
Ġt o
ï¿½ï¿½ ï¿½ï¿½
Ġ ï¼
l i
× ľ
áĢ ¹
áĥĺ áĥ
Ġd i
à´ ¿
Ġ áĢ
Ð¾ ÑĢ
Ò Ľ
Ġ 8
o w
Ġt h
Ġs a
Ġ 9
Ġ on
u b
Ð¸ Ð½
Ġ Ä
Å Ł
Ø§ Ø
à± ģ
Ġ el
Û ģ
Ð¾ Ð»
Ġ× Ķ
c i
Ö Ĥ
ĠâĢ Ļ
k a
Ġ %
Ġp ar
o b
Û Ĵ
Ġ ë
à²¿ à²
e v
à§ į
Î »
Ġ ÏĦ
à§į à¦
Ġc on
Ġ" :
à¤ ¿
o u
ĠÙ Ī
g a
n e
Ò ¯
an t
ŀ ×
á Ī
Ġ" ,
Ġ. ..
à¯ ģ
à· Ĵ
à¸ Ļ
w w
áŀ¶ áŀ
ì Ŀ
Ġt he
Ġ !
à® ¿
d e
à°¾ à°
Ðµ ÑĤ
Ð°Ð ¼
ĠÐ¿ ÑĢ
u p
Ð¾ Ð½
Ġ is
s e
a z
Î º
ä º
áĢ ¸
Ġw ww
Ø§ ÙĨ
Î ¯
à² ¾
à´¿ à´
Õ¸ ÖĤ
à³ ģ
à¤ °
Ġ1 0
i b
à¦ ¿
in e
àª¾ àª
Ġ1 9
Î ¼
Ġo f
Ñ Ĩ
Ġf or
Ð¸ ÑĤ
áĢ ¬
Ġ et
Ñ ħ
Õ¡Õ ¶
s k
e z
ĠØ ¯
Ø ¹
à²¾ à²
à¶ ±
ĠâĢ ľ
Ġt r
ĠâĢ ĵ
e p
os t
Ġ er
Ġc h
n a
o c
Ð°Ð ²
Ó ©
à®¿ à®
t t
Ġà ¸
i o
i p
Ġ æ
Ġ es
Ġd a
à¹ Ī
Ġ", "
Ó Ļ
Ġ ÑĢ
u g
n i
× ª
n d
à¤¿ à¤
à°¿ à°
Ï Į
× Ĳ
Ð° Ñģ
Ðµ Ð»
Ð°Ð ´
o j
Ø ©
y a
in d
áĥ Ŀ
Ù ģ
es s
Ġ and
áĢ º
l ar
Ġt e
Ġ x
Ã §
ĠØ ª
à¸ Ń
àµ ģ
Ġ Ñĥ
Ù Ĥ
Ä «
Ġ â
à¦ °
or t
Î ¬
Ð°Ð ¹
en g
à¥ Ģ
à« ĩ
Ã ł
ĠÐ½ Ð°
Ã º
Ġqu e
Î¿ Ïħ
Ð¾ Ð´
à³ Ĩ
à¸ £
Ġ× Ĳ
Ä ĥ
ar t
un g
el l
Ĥ à°
ĠÐ ³
Ġp er
Ñĭ Ð½
as t
Ġo g
Ġs p
Ð¾Ð ¼
Ð ¶
Ð°Ð º
Ø§ Ø±
Ġ1 2
Ã ¦
Ð¾ ÑĤ
ĠâĢ Ŀ
c e
å ı
Ġl e
ar i
à¥ ĭ
ad a
ĠØ ³
il l
áĢ¸ áĢ
Ġd o
Ġm a
Ð¸ Ð»
an a
áĢ ¯
Ã ½
à¹ ī
un d
à´ ¾
Ä ĵ
áĢ¹ áĢ
Ġ× ľ
Ġn g
j a
Ġ× ĳ
Ġs i
er e
Ġ &
à¤ ¨
h a
à· ı
à¯ģ à®
ĠÐ ¶
áĥĿ áĥ
ar e
Ø ´
Ģ à¸
w a
m a
t r
× ĳ
áĢ Ń
à¨ ¾
Ġ1 1
O M
s i
Ð¾Ð ³
Ġ Z
àµģ à´
× ¢
al l
Ġà¤ ķ
Ðµ Ð´
Õ¥ Õ
à¤ ķ
Ġ or
at e
à´¾ à´
2 0
à¶ º
Ġ q
Õ¸ÖĤ Õ
× ©
Ġ #
Ġn e
at ion
Ġ ï¿½
ģ à¸
Ø§ ÙĦ
×ķ× ª
Ðµ Ðº
Ø ²
h t
ÖĢ Õ
Ġa s
Ġa m
ĠÐ ¡
Ġà ·
p l
Ġ ÏĢ
Ġï¼ Į
å ®
an s
á ī
ĠÙ Ĩ
ĠÂ »
Ð¸ Ðº
en s
W W
in a
× ł
Ã ª
à±ģ à°
j e
Ġ Ú
Ġa d
à¦¿ à¦
Ġo p
v er
Ð°Ð ·
r u
ĠW WW
à¸ ĩ
Ġm e
×Ļ× Ŀ
Ø ¬
Ã ¸
à² °
à® ¾
Ð½ Ð¾
Ġ Ïĥ
Ġ1 5
ĠÎ º
ĠC OM
Ġ ç
t o
à« Ģ
i y
Ġ [
Ø Ń
Ñģ Ðº
ļ áŀ
Ðµ Ð¼
at a
Ġ ]
± áĢ
Ġ× ©
ĠÃ ©
Ġn o
Î Ń
Ï ī
Ġ": "
à« į
Ġk a
ar a
Ä ħ
p r
à«į àª
or d
Ġv er
Ð¸ ÑĢ
Ġ ê
ĠI n
k o
Ġj e
ĠÎ ±
h o
Ġ20 0
à¸ ±
à¶ »
k e
Ġ Y
à¹ Ģà¸
Ä Ĺ
ti on
Ġd ie
à¸ µ
ar d
Ġj a
í ķ
h i
Ġp o
Ġà ¥
ĠÑ ħ
æ ľ
ĠÙ ¾
Ġ ï¿½ï¿½ï¿½ï¿½
á ĭ
å Ī
it e
v e
Ġs k
áĢ Ħ
à®¾ à®
Ġi m
t u
Ġb e
em b
i en
à² ¦
Ġ1 6
Ġd el
on g
á Ĭ
ĠØ Į
Ð¸ Ð¹
Ð¸ Ð¼
âĢ į
à· Ķ
as s
ĠÄ ĳ
à¶ Ń
ľ ì
al i
Ð°Ð ³
Ġ1 8
al a
ĠÙ Ħ
à· Ģ
k i
Ġ× ŀ×
or m
áĢ Ģ
Ä Ł
Î± Î¹
à§ĩ à¦
Å Ĥ
Ã³ n
Î ³
Ú º
Ð¾ Ñ
Ð¸ Ñı
Î ®
on t
Ġv an
n o
ĠãĢ ģ
u c
A A
Ò £
Ġa p
Ġ il
ĠA l
in i
Ġ2 2
Ġp re
× ĵ
m e
ÙĪ Ø±
al e
Ù ĥ
Ġà¤ ¸
Ġ1 3
Ġs o
Ġp l
Ġo l
Ġ1 4
us t
à¨¾ à¨
er i
Ġ× ķ
à¸ ¡
Ġn i
Ġk u
Ï ĩ
Ġd es
ĠØ ¬
k s
Ġs h
Ġ }
à¶ ¸
ĠÐ ľ
2 2
ļ Ħ
à¥ĩ à¤
f f
d a
å ¤
Ä± n
Ġa v
ĠÐ ł
ĠÐ Ĳ
ĠÎ µ
Ñĥ ÑĢ
el e
à »
Ø§ Øª
ĠÑ ĩ
s a
Ã µ
i er
ĠãĢ Ĥ
Ä Ľ
à¥ ģ
ĠÙ ģ
Ġ×Ķ ×
Ġ0 0
i h
Ã¶ r
Ġà¥ ¤
n y
Ġ3 0
ĠÐ Ł
/ /
àª ¨
ĠÐ ļ
Ò ĵ
ĠØ ¹
Ð´ Ð°
id e
Ġd u
å ħ
ĠÐ µ
Ġm ed
Ñĥ Ð»
à¶ ļ
t h
Ġ ra
tt p
ĠÐ ĳ
1 0
Ġm en
b a
Ġ it
l o
ç ļĦ
ĠÎ ¼
Ġ1 7
ĠÂ «
am a
ĠØ ±
Ġa c
áŀ ĵ
or e
Ñ Ĭ
d er
k an
Ñ İ
ä »
Ã ¨
Ġv e
âĢ Į
£ áĥ
Ġv i
Ð ł
à° ¨
à¸Ļ à¸
Å ³
Ġh ttp
Ġ: //
Ġt Ã«
Ñĸ Ð½
Ġ è
ç ½
ÉĻ r
t s
Ġ ÒĽ
áŀ Ħ
r an
Ä Ļ
Ġs u
áŀ Ģ
Î¹ Îº
áĥĶáĥ ĳ
Ĥ ¬
ĠãĢ ĳ
ãĢ Ĳ
Ġ ro
i f
Ã© s
áĥĺáĥ ¡
à« ĭ
ti c
Ġt er
Ġ Ò
Ġ Å
ĠS t
ĠÑ Ī
Ġa g
y s
Ð Ĳ
ĠÃ ¡
Ð½ Ñĭ
Ġe x
áĢº áĢ
it a
Ġ {
à° °
Ġd an
à¸ §
Ø§ Ùħ
Ġt il
à° Ĥà°
ãģ ®
Ðµ Ñģ
à± ĩ
Ġo b
ik a
æ ĸ
ĠC h
ĠØ ´
Ġi r
k u
Ġv ar
à¯įà® ķ
Ġ) .
8 8
Ġ2 5
d i
Ø³ Øª
àª °
Ï į
z a
áĢŃ áĢ¯
à¸ Ķ
Ö ģ
ç½ ĳ
Õ¸ Õ
ag e
Ġ +
Ġd et
Ã £
Ġg r
Ġ >
å Ľ
× Ĺ
àµ Ĩ
Ġ Ûģ
à© Ģ
Ð°Ð ±
e y
Ð¾Ð ±
Ġb y
A N
Î¹ Î±
à¶± à·Ĭ
Ø ®
Î ´
ë ĭ
Ġ201 9
à¸ ¢
Ð½ Ð°
Ġo m
à® °
Ġy a
l er
Ġt a
Ġ X
v a
Ġà¤ ª
Ð¾ Ñģ
Ġf r
z e
ŀ ¥
à± ĭ
at i
ĠÐ½ Ðµ
ul t
g e
1 1
u h
Ġ est
il e
n ing
Æ °
àµį âĢį
Ġa b
p er
à¦ ¨
Ã ¢
× ¤
on d
à¸ ´
à¤ ¤
t or
à² ¨
à¤ ®
à¤ ²
× ĺ
ĠA n
ĠÐ´ Ð°
ĠâĢ ¦
Ġi z
Ã¡ l
ĠÐ· Ð°
Ð¸ Ð²
Ã« r
à² ²
× §
Ĳ áĢ
Ġw a
Ġz a
is h
Ġm in
à² Ĥ
à¯ Ī
à² µ
ĠÃ Ĳ
Ġh a
ä ¹
Ġb er
Ġpar a
Ġ ang
ķ áĢ
Ø µ
Ġb l
o ur
Ġ em
an n
Ġy ang
Ġk om
ent e
à© ĩ
Ġa f
Ð°Ñ Ī
ĠÑ ı
½ ©
Ġ) ,
Õ¡Õ ¯
Ġh e
ł áĥ
Ġk o
Ġ2 1
Ð°Ñ Ĩ
à¨ ¿
ĠãĢĳ ãĢĲ
Ġ í
Ã¡ n
er a
ĠÙ ĩ
Ã¡ s
Îµ Î¹
Ġ2 4
ãģ Ħ
Ġs om
ĠÐ ¢
Ø§ ÛĮ
Ġk i
p e
Ġ2 3
Å «
à¨ °
ic e
Ú ¯
t en
Ġ× Ľ
an i
Å ĳ
´ ì
Å Ļ
ĠâĢ ĺ
à® ¤
¨ àµįà´
Ġv o
à¯įà® ¤
Ö Ħ
Ġ Q
ĠÂ Ń
Ļ áĢ
ĠÐ Ŀ
Ġb a
Ġ Ô
æ Ĺ
Ġm o
Ġ é
ĠÐ »
u e
Ġp or
ĠA r
à² ¤
Ġ um
ä ½
Ġ ed
Ġm et
Õ µ
à´ ¤
Ġk on
Ġs er
ÛĮ Úº
ac k
i es
× ŀ×
Ġ201 7
Õ¥ ÖĢ
Ï Ĩ
ĠÑ į
Ġ× ¢
Ð¾ Ðº
à· Ļ
Ð¸ Ð·
at u
A R
Ġáĥ Ľ
à¦¾à¦ °
à¤ Ĥ
in t
m i
Ġa k
E R
in n
ĠØ ®
Ñĭ Ð»
à· ļ
Ġp a
ÙĪ ÙĨ
Ġà ¹
Ġp Ã¥
f t
_ _
Ġ \
b e
ad e
Ġ201 8
r es
Ð½ Ð¸
l y
Ġd en
Ġk an
à¸ ļ
ĠÃ ¾
Õ¡Õ µ
Ġ Û
à§ ģ
Ġà¤ ®
Ġh et
ãĥ ¼
áŁ ĭ
Ġm ar
¶ ľì
Ã¤ r
Ø ·
9 9
Õ ¿
z i
in k
Ġv a
ad o
it h
Ġ Å¡
ĠÐ Ĵ
Ù İ
Ġr es
× ŀ
Ð¸Ñ ĺ
ķ àµįà´
ç Ķ
à¥įà¤ °
r y
u j
ac i
à¤ ¸
u i
¶ľì ŀ¥
Î ¸
Ġà¤ ¹
Ġm an
å į
áŀ ·
Ġd er
ic a
å Ĭ
3 3
à° ²
f orm
ÏĦ Î±
w e
ĠÏĦ Î·
ĠM ar
× Ľ
u a
am p
áĥ ķ
ì Ĺ
m ent
Ï İ
en a
i ch
em ent
ra v
à¶ ½
ĠÑģ Ðµ
áŀ ĺ
Ã£ o
Ġh ar
Ġb o
à´ °
à¶ §
as i
a ch
ÛĮ ÙĨ
Ð°Ð ¿
Ð ¡
Ġ ãĥ
on e
g r
ĠÐ Ķ
× Ŀ
Ġd is
Ġo s
Ġl i
am e
Ã ´
å Ĳ
à¸ °
Ð¸Ñ ĩ
er t
ĠÑģ ÑĤ
Ġ ï¿½ï¿½
u z
Ġ us
Ġ. .
Ú ¾
Ø§ Ø¯
Ð¸ Ñģ
A T
il i
ĠØ ¢
ë §
Ð°ÑĤ Ð°
l ik
Ð¾Ð ¹
áĢ¬ áĢ
el s
à² Ĺ
y r
Ġo d
ul l
n ÃŃ
Ñĥ Ð´
§ Ģ
Ġà¦ ķ
- -
Ð¸ÑĤ Ðµ
ĠD e
6 6
Ġá Ĭ
am b
in o
z y
ĠÕ °
à¤¾à¤ °
en e
à§ Ł
×ķ× ¨
in s
Ïģ Î¿
ig ht
o h
Ð» Ð°ÑĢ
à¤ ¹
ç ¥
re e
Ġp ol
à¸ ģ
l u
æ Ī
? ?
el a
× ¡
I N
Ġc o
Ġp os
as h
m er
Ñ ŀ
Õ¡ ÖĢ
ĠP ro
¡ áĢ
à¥įà¤ ¯
Ġp h
Ġà¶ ļ
Ù ī
å ľ
ĠØ Ń
am i
ti v
ÏĦ Î¿
Ġà¦ ¸
ĠÐ ŀ
Ġs z
ìĿ ´
Ñĥ Ð²
5 0
Ð³ Ð°
Ġb u
ak o
ĠÑ Ħ
ad i
Ġa z
ĠÎ ´
f a
Ð¸ Ð´
Ġb r
ãģ §
e w
c a
áŁ Ĩ
s p
et t
id a
à¸ ¥
à¶ ¯
y n
as a
Ð°Ñ ħ
Ġs em
Ġà º
áĥ £áĥ
ÙĪ ÙĦ
Ġl es
Ġ $
ĠE n
áŀ »
Ġá ģ
áŀ Ł
àº ²
ĠâĢ ŀ
e j
Ġe g
ur a
it y
ĠÎº Î±Î¹
ĠL a
à® ©
ÏĦ Îµ
áŀ Ķ
åĪ Ĩ
b l
Ġ× Ļ
Ġà¦ ¬
× Ĵ
Ġin ter
à¸ Ĺ
à° ķ
g an
à¸ ª
Ġà° ª
Ġ, "
à® Ł
Õ¸ÖĤÕ ´
E N
Ġ Ñĸ
Ġ1 00
Ġà· Ģ
à± Ģ
ï »
7 7
Ġ× ¤
Ġk e
Õ« Õ¶
Ġ2 6
å ¹
Ð¸Ñ Ī
el d
ÑĢ Ñĥ
à· Ĳ
Ð¾Ð ¶
i an
à² ³
Ġu p
ĠP r
àª ¿
Ġï¼ ļ
áŁ ģ
à· ĥ
à¦ ²
Ġth is
Ġ ur
Ġa Ã°
Ð½ Ðµ
Ð´ Ñĭ
p ort
l l
Ġ Äį
ÙĨ Ø¯
áŁĴáŀ ļáŀ
Ð°Ñ ĩ
ŀ áĢ
ĠT he
à¥ Ī
un t
c k
à¸ ģà¸
Ð¾Ð ·
Ġp ag
Ðº Ð°
ĠS e
á ģ
ì ķ
Ã© r
Ðµ Ð·
® à¯į
àº Ļ
áŀ ı
ĠT h
à² ķ
ê ³
Ġ5 0
Ġ _
Ġ× ŀ
Ġc he
Ã¼ n
á Į
ĠÃ ®
p x
Ġ0 1
ãģ Ĺ
ķàµįà´ ķ
Ġ ut
on s
Õ« Õ
à«ĩ àª
ĠÃ Ń
r at
is s
á Ĥ
m o
ĠÚ© ÛĮ
ĠÃ ¼
Ġp od
Ġt i
Ġá Ī
et a
Ġ *
Ã¤ n
Ð¸Ñ ħ
Å ¼
ĠØ £
à« ģ
b er
Ġ Å¾
ê °
½© ç¥
Ġn ie
Ġá ĭ
Õ¡ ÖĢÕ
ë Ĭ
ol l
Ġà² ®
Ġ201 6
ãģ «
åı ĳ
Ġp ri
s s
à± Ĩ
Ġ Ö
Ġáĥ ĵ
ÏĦ Î·
Ġà¦ ª
Ġ4 0
l ine
z en
Ġv al
Ġ áĥĲáĥ
Ã¡ r
ÙĬ Ø©
ĠÃ §
Ġ2 8
ãģ ª
à¸ Ħ
Ø§ Ø¨
× Ł
Ã ®
Ġ0 2
ic i
iv e
v en
on a
Ġt ak
×ķ× Ł
ëĭ ¤
Ðµ Ð¹
et e
Ïģ Î±
il a
Ã¼ r
Ġ2 7
Ġm u
re d
Ġ ä¸
Ð¸ ÑģÑĤ
ÉĻ n
Ñĥ Ð½
.. ..
Ġ0 7
ĠÃ ¶
is e
Ø§Ø ¦
¨àµįà´ ¨
ĠÚ© ÛĴ
à¦ ķ
n h
Ġh o
Ò ³
ÑĤ Ð¾
ÑĤ Ð°
k l
O N
ãģ ¨
å ¿
Ġà² ķ
c tion
Ġn y
ch e
k y
ĠS h
m an
Ġà· ĥ
5 5
Ľ áĢ
Ġb ir
x t
Ġà¶ ´
Ġà² ¸
Ġ0 9
ÐĲ Ð
Ðµ Ð³
s h
b o
ĠU n
áĥ ¡
Ñ Ħ
Æ° á»
Ġ0 8
Ġf un
è ¿
Ġà¤ ¬
à® ³
ĠÙ Ĥ
áŀ Ľ
Ġà® ª
ãģ ¦
c t
er n
4 0
Õ¥Õ ¬
à¸ «
æ ĺ
Ä± r
à§ĩ à¦°
Ġp e
Ð¸Ñ Ĩ
Ġáĥ ¡
ÑĤ Ñĭ
Ġn Ã«
Ġl o
p a
ĠÂ °
g i
Ð¾Ð ¿
Ð¾ ÑģÑĤ
àª ¤
ÏĢ Î¿
æ ī
Ġa u
àª Ĥ
Ġ0 00
Õ¸ÖĤÕ ©
ĠÏĦ Î¿
Ð½ Ñı
Ġà° ķ
1 2
ĠÚ ¯
Ġàª ķ
à¨¿ à¨
3 0
áĥĲáĥ ľ
k t
is ta
ak a
ãĥ ³
an y
à³ ĩ
ay a
Ġe en
á» į
å® ĺ
Ġm i
is i
ç «
at s
ëĬ Ķ
r it
Ġm as
ä ¼
Ġ2 9
ĠÐ ĵ
Ïĥ Î·
Ñĸ Ð»
à±įà° °
ĠÙħ ÙĨ
e h
à¸²à¸ £
e i
at o
c o
Ġe k
à¸ ķ
Ðµ Ð²
äº º
à¦ ¤
Ø± ÛĮ
ĠE l
or i
Ġp as
j o
Ġun d
Ġà¤ ¨
d en
Ġi k
Ġ0 5
ĠÎ ½
Ã ²
E S
Ð³ Ð°Ð½
ic k
Ġet a
áĥ ł
ĠØ§ÙĦ Ùħ
Ġa ut
it u
ĠÐ¾ Ð´
v o
end e
an o
ĠâĢ Ķ
ï» ¿
ÑģÑĤ Ð²
Ġs am
6 5
Ð½ Ñĸ
Ġm od
à§ ĭ
Ġ201 5
ch t
à¹ Ħ
ĠÕ ´
áŀ ¸
ĠC om
Ø ¶
Ġà® ķ
áĬ ķ
Ð» Ð¸
ãĤ ĭ
1 5
ĠÃ® n
ãģ Į
Ø ¦
Ġx 22
c ia
Ġa y
ĠÏĦ Î¿Ïħ
em a
Ħ ì
Ġm ga
Ã ±
f er
em p
ĠØ¯ Ø±
us e
l es
il d
en i
à°¾à° °
à±ĩ à°
àª ®
ol og
ĠM a
m in
ĠÐ¾ ÑĤ
Ġb i
ĠÃ ł
v i
Ġ0 6
ãģ Ł
à´ ¯
ĠÑ Ĩ
é Ģ
Ġt y
Ġw e
æ ¸
Ġcon t
Ġpro d
Ġ0 4
ãģ Ļ
eg a
Ġc ol
à¯įà® ª
Ġd at
áĢ ·
ĠÕ §
Ġn u
áº ¡
l ig
Ġâ Ĥ¬
Ïī Î½
Î¼ Î±
à¤° à¥įà¤
Õ¸ÖĤÕ© Õµ
& #
Ù ¾
à· Ħ
j u
áº ¿
Ġ20 20
Ġm at
è µ
ur i
it t
á» ĩ
Å ¥
à¹ ĥ
à¦ ¬
Î¯ Î±
Û Ĳ
à¦ ®
Ġà¶ ¸
{ "
âĢ Ŀ
Ġà° ®
å °
ag a
è ½
Õ ¨
Ð¾Ð³ Ð¾
Ñĥ ÑĤ
s l
Ķ áĢ
Ġo ch
) ;
Ð¾Ñ ĺ
ÙĪ Ø¯
Ġáŀ Ķ
àª ķ
Ġà´ ª
à¸µ à¹Ī
Ġn h
à§įà¦ °
Õ¡Õ ´
Ġp ers
m en
ent o
Ãª n
Ġì Ŀ
ĠÐ £
Ġà° µ
Ġ ãĤ
Ġ0 3
ĠÐ ĺ
ti k
o z
Ġ× ł
ķ à¯įà®ķ
ÙĬ ÙĨ
Ġc u
ĠS p
as e
Ð°Ð ¶
×ķ× ľ
Ġm ak
Ġàª ª
Ġ ent
à³įà² ²
b u
à² ¡
à¸ ¸
àª µ
ç ī
Å Ľ
an k
Ġun a
áĢ¯ áĢ
ĠÎ ³
×Ļ× ª
Ġáĥ Ĵ
à¸ ·
ãģ ¯
áŀ¶áŀ ĵ
Ġin d
Ðº Ð¸
ik e
Î½ Î±
a u
6 0
áĢŃ áĢ
ĠÑ ĺ
à® ²
y o
ar k
is k
Ġ201 3
Ġc l
Ġhttp s
A L
ĠÙ Ĭ
áŁ Ħ
à· ĵ
im e
Ð» Ñı
Ġs el
Ġ201 4
Ñĥ Ð¼
à¸Ń à¸ĩ
ì Ħ
äº ļ
ap p
1 9
Ġm er
ĠÑ ŀ
el i
à¯įà® Ł
r en
Ïģ Î¹
ĠÐ± Ð¾Ð»
à¯Ī à®
ĠL e
´ ë
Ġà¤ ħ
j i
ĠÕ ¯
Ġp Ã«r
Ġ; &#
O R
àµįà´ ¤
ÐµÐ½ ÑĤ
à´ Ĥ
v al
ĠÐ¾ Ð±
l et
i re
Ġà¤ °
8 0
1 7
Ġà° ¸
Ġà° ħ
it o
» áĢ
un a
om e
Ġg o
ĠR e
Ø £
è ®
Ð¸ Ðµ
Ġre g
ĠÃ© s
or s
à³įà² ¤
È Ľ
à´ Ł
r et
Ðµ Ñ
Ġ3 5
Ġ Ó©
Ð ŀ
4 4
al am
à¤ ª
Ġà¨ ¸
Ð ĺ
t y
or a
ĠÎ ¿
à° Ĥ
u re
it i
Ġ= "
an e
Å ¯
àµ ĩ
Ġ×© ×ľ
à¹ ģà¸
om a
Ġw ith
A S
ĠÃ ¥
à¶Ń à·Ĭ
ĠÕ ¸
Ġs v
Ñģ Ñı
áŁ Ĥ
b i
Ø °
Ġá ī
at t
× ¦
áĢ¬ áĢ¸áĢ
ä¸ Ģ
u ar
ĠÐ¸ Ð·
Ġáŀ Ģ
à§įà¦ ¯
àµ ĭ
el t
¼ áĢ
av e
qu e
å ¼
Ġb et
ÃŃ t
à¤ Ĺ
Ñĥ Ñģ
ĠT r
n et
ĠA d
Ġà® µ
Ð° ÑģÑĤ
Ġt ra
Ġb il
ì ł
Ġà´ ķ
Ġà¨ ¦
Ã¡ t
Ñĭ Ð¼
y d
l Ä±
Ġï¿½ï¿½ï¿½ï¿½ ï¿½ï¿½
h et
Ġk l
ur s
Ġ201 2
à·Ĵ à¶º
ĠÃ º
Ġà¤ µ
áŀ ¾
íķ ĺ
æ Ŀ
Ġat t
ä¸ ĭ
Ġà® ®
ij a
Ġb es
Ġ ÅŁ
a f
ĠÕ ¥
Ġà² ¨
i x
p ar
Ġà¤ Ĺ
è ¯
Ġb ar
Ġ <
Ġal l
Ġj u
Ðº Ñĸ
emb er
m as
ĠâĢ ¢
à´¿à´ ²
æĸ ¹
ë§ Ī
1 8
Õ ¾
ĠÐ Ĺ
à³įà² °
Ġà¦ Ĩ
ol a
Ġå ¤
Ġv is
n Ã©
al d
å ¸
ir i
Ðµ ÑĪ
Î ²
Ġà¨ ķ
ĠÚ© Ø±
ĠÎ¼ Îµ
à²¿à² ¦
l an
×Ļ× ¨
Ġà¶ ħ
Ġt u
Ã« s
im i
áĥ ļ
Ð¿ ÑĢ
a w
Õ¡Õ ¿
n ie
Ġàª ¸
Ġà¤ ľ
åĽ ½
Ġk at
2 5
Ġà® ħ
y t
áŀ Ļ
A G
å ·
à²¾à² °
Ġd he
ĠÚ Ĩ
áº £
1 3
ti r
ac e
Ã¸ r
Ġk as
à¹ ĩ
Ġk ar
ed e
l d
ing s
½©ç¥ ŀ
Õ¸ÖĤ Õ¶
Ġáŀ ĵ
Ġ× Ĺ
ç »
à© °
f r
Ġy ou
ãģ ¾
Ø§ Ø³
ĠÙħ ÛĮÚº
ĠÛ Ķ
Ò ±
à¸ Ī
à¤¾à¤ ¨
en n
Ġà¤ ¦
Ġk r
ĠÐ¿ Ð¾
à¯ ĩ
ĠÑģ Ð²
å º
ĠÎ½ Î±
Ð° ÒĽ
aci Ã³n
ul a
al s
ar en
A C
å¤ §
ec t
ah a
Ġk h
ig e
à¦¾à¦ ¨
es e
áĢĦ áĢ¹
y e
àµįà´ Ł
à¸ ¹
ĠØ§ ÙĨ
Ġs l
im a
à¶ļ à·Ĭ
ĠØ¨ Ùĩ
ti g
E L
Ġà¦ ı
A M
Ñį Ñį
áĥĲáĥ Ľ
à¹ Į
ot t
ĠA m
ĠÃ ¤
ut e
ê ¸
) .
Ġg e
å Ĩ
Ġi d
Ġs c
à¤ķ à¥ĭ
ì ¶ľìŀ¥
Ġà² ħ
Ġf a
à¤ ¦
Ġà¤ Ĩ
Ġ× ĵ
Å Ĩ
Ġre c
it s
áĢĦ áĢ¹áĢ
à´ ®
Ä ĩ
Ġàª ®
Ð°Ñ ĺ
1 4
U R
Ġà² ¹
i i
ie w
Ġd in
Ġm ag
ĠÎ ĳ
é ĩ
à´ ³
Ġe in
à§ Ģ
à© ĭ
à¶ ľ
Ù ¹
ot o
k en
Ñĭ ÑĢ
u v
is a
ot el
Ġs y
O S
Ð¸Ð¹ Ð½
Ġà® ¤
ĠÐ° Ð»
ig a
Ġ ul
×Ļ× ł
er v
à³įà² ¨
à¸ Ľ
1 6
Ġ) ;
ÛĮ Ø±
áĥĶáĥ ļ
Ð ķ
Ġ Ò¯
à¤ µ
Ġ ÛĮ
at h
å Ń
d u
Ġg i
Ġm y
p p
ç İ
à¨ ¤
m ÉĻ
Ã¦ r
Ġ× Ĵ
ë ¡
ĠC on
àµģà´ Ĥ
à³ Ĥ
Ñĸ Ð´
} ,
ÙĪ Ùħ
Ġn ot
Ñĸ Ðº
er o
à° ®
áŀ ļáŀ
Õ¶ Õ¥ÖĢ
æ¸ ¸
nd a
on i
ig n
g en
Ĭ ¤
áĥ ĵ
Ġà¦ ®
á» Ļ
Ġ3 2
ãĤ Ĵ
r as
ub l
Ġth at
Ðµ Ð¿
È Ļ
áŁĴáŀ ĵ
Ġáŀ Ł
à´ ¨
and o
Ġj st
ĠÂ ·
ti m
ow n
ãģ ĭ
Ġjst ree
o f
Î½ Î¿
Ġ× ¨
Õ ½
Ø º
Ñ ĳ
Ġ ï»¿
ÏĦ Î¹Îº
al iz
Ã© g
c es
ìĿ ĺ
àª¾àª °
7 4
áº ¥
Ġw as
t uk
Ġs al
Ġg a
ĠØ µ
ar s
Ù Ĳ
áŀ ĳ
á» ĳ
Ġì ŀ
àª¾àª Ĥ
ĠØ ²
r os
ol d
ak an
Ġà¶ ¯
Ð°Ð» ÑĮ
Ġc a
à²² à³įà²²
9 0
e a
Õ¡Õ¯ Õ¡Õ¶
ĠÙģ ÙĬ
ol o
ie k
Ġà´ µ
Ð°Ñ ŀ
Ġn j
Õ¡Õ ½
Õ ´
ç Ľ
ĠÎ± ÏĢ
Ã§ Ã£o
b en
à³įà² ¯
è ¡
à° ¤
* *
Ġf il
es ta
ìĹ Ĳ
ik o
à¨ ¨
an te
ìĿ Ħ
Ġà¤ ¤
Ã¥ r
Ġp ost
E T
Â µ
Îµ Î¯
à±įà° ¨
ľ áĢ
ol e
æ ³
×ķ× ĳ
oc k
Ġm eg
Ð¸ Ð¸
ÛĮ Ø¯
à» Ī
Ø§Ø ²
and a
Ġà² ¬
Ð Ŀ
×ķ× ĵ
à¥ Ĥ
Ġtr ans
et s
ì ĭ
ĠO n
à¶ ´
7 0
Ñĥ Ð±
à¨ ķ
Ġà¤ Ń
Ġs on
ë ı
ĠÐŁ ÑĢ
al t
Ġd it
Ð°Ñ ļ
ĠØ¨ Ø±
×Ļ ×ķ×ª
Ġm il
Ġà° ļ
ģ áĢ
à¤¾à¤ ²
à®¿à® ²
ĠÕ ¶
Ġ× §
os e
p h
Ġg en
A P
it ion
à´ µ
ì §Ģ
×ķ× ł
× ĸ
æĺ ¯
Ġà¶ ±
Ġin form
Ð°Ð½ Ð´
en ti
áĥ Ľ
Ã ¹
ãģ £
ik i
Ġà¤ ²
ak e
Ġh er
é Ļ
7 8
ĠÎ Ń
Ġn et
Ġs in
ĠP ar
Ã¤ Ã¤
ĠT e
Ġà® ļ
Ġ201 1
áŀ ¼
ĠØ§ Ø³
Ġk un
à³Ĩ à²
Ġm eng
Ã¼ l
Ã© n
áŁ ĩ
áī µ
Ã¡ m
ĠÐ ¥
Ġd ar
Ġs eg
g er
Ġà° ¨
2 4
um a
×Ļ× ľ
à© ±
à°¿à° Ĥà°
Ġu z
Ġfun ction
ĠB l
Ä± m
à¯ģà® ®à¯į
Ø «
Ġpr es
ĠN o
g u
Ġj o
ê° Ģ
eng an
k er
Ð¸ Ð³
Ġ3 1
Ġw at
Ġf Ã¶r
ĠÃ ĳ
àº² àº
ic o
Ġà¦ ¨
ek o
ĠP re
Ġd em
Ã ¬
Ġp ot
ion e
Ġà² ª
ÓĻ ÑĢ
Î ¾
Ð ļ
å ĩ
Ġcom p
Ġb el
Ġs ub
å İ
ak i
à¤ ¯
I S
à®¿à® ¯
Ġf in
od e
im o
å ¥
à±įà° ¯
ĠS o
à® µ
Ġvo or
à· ľ
7 3
à³ Ĭ
ĠÙ ĥ
à²¾à² Ĺ
j en
Ġï¿½ï¿½ï¿½ï¿½ ï¿½ï¿½ï¿½ï¿½
ĠÛģ ÛĴ
à°¾à° ²
Ø§ Ùĩ
Ġà¦ ¹
f i
Ġà´ ħ
Ġv ir
Ġà¨ ¹
ed er
Ð ¢
am s
ç« Ļ
Õ¡Õ ¾
Ġm al
Ñ ī
à´ ²
ĠÎ ł
Ø± ÙĪ
Ġì ł
ê ²
å¿ «
Ġt ur
l ÉĻr
a il
ak t
Ġ× ª
Ġp i
Ġ áŁ
è §
à¹Ī à¸²à¸
Ð¸ Ð±
àµįà´ °
Ġk ur
à¦ ¸
Ã½ ch
ÃŃ a
s te
ĠÑĤ ÑĢ
ãĤ ¹
ĠG r
×Ļ× Ķ
Ġn ga
Ðµ ÑģÑĤ
Ã³ w
l and
æĹ ¶
Ġv ol
à° µ
Ġl ang
Ðµ Ð±
Ġst r
Ġn ov
Ñĭ Ð·
à«ĭ àª
y m
Ġf l
ê³ ł
Ġd r
z t
Î¼ Îµ
eg o
Ðº Ñĥ
Ġs up
ë ¦
å ¾
s ta
æ °
b an
Ġáĥ ł
Ðµ Ñĩ
ab a
ag i
à° ¸
æ Ĭ
Ġà´ ¸
Ġ: :
ÉĻ t
à¸ ³
áĥ ľ
à²¨ à³įà²¨
Î ĳ
Õ¥ ÖĢÕ
à´¤ àµįà´¤
ĠÎ ķ
Ġa an
I T
Ġw h
g o
2 3
4 5
Ġo ver
Ð¸Ð½ Ð³
I C
Ä ¼
ë Ĥ
Ġc an
Ġm it
ÄĹ s
ĠáĢ ¡áĢ
Ġ @
å ±
k in
Ó© ÑĢ
a a
ĠØ§ ÙĪØ±
ĠS ch
Ġ4 5
ĠO r
Ġå ½©ç¥ŀ
Î± Î½
Ġl os
00 0
Ġe f
ĠÐ² Ð¾
ì Ĥ¬
áĥĲáĥ ĵ
Äģ s
å Į
ĠØ¹ ÙĦ
Ġå¤ §
ÏĦ Î¹
Ã¤ l
Ġàª ľ
us i
ĠP er
Ñĸ Ð²
Ã¶ n
ãĥ¼ ãĥ
ri p
Ġl as
Ġar e
Ġ3 3
g et
Ġp al
ÙĪ Úº
v is
Ġw eb
à²¤ à³įà²¤
ek s
ud i
ak s
Ö ·
Ġs m
Ġr et
ä¸ Ń
Ñĥ Ñĩ
ÐµÐº ÑĤ
Ã¡ c
æľ º
à° ¦
iv ers
ĠÏĦÎ· Î½
Ġà® ĩ
Ġï¿½ï¿½ ï¿½
ĠÐ¸ Ð½
k et
à³ ĭ
u f
áŀ ĸ
ar y
Ġà §
Ġ ist
b r
Ñį Ð½
o ok
è½ ½
Ò¯ Ò¯
ä¹ Ĳ
Ø§Ø ¹
Ġ6 0
9 8
Ġn d
Î¿ Ïį
el le
ë ħ
ÙĬ Ø±
¨ à¯įà®¤
n er
Ø ¸
c on
ìĿ ¼
Ġt al
Ġi f
am ent
à«įàª ¯
el y
à´ £
íķ ľ
ãĤ Ĥ
Ġà´ ¨
c l
áĥĲáĥ łáĥ
Ġs ur
Ñĭ ÒĽ
Ġin i
Ġe z
w o
ĠP l
Ñĸ ÑĢ
! !
Õ ¯
ra c
Ġà¨ ¨
à¯ Ĩ
y l
Ġ× ¡
æ Ģ
es i
ĠÕ «
Ġà´ ®
ì ĥ
à© ģ
u al
us h
Ġ3 6
Ġs ch
à¨ ¸
Ñĭ Ð¿
ÃŃ n
Ñį ÑĢ
Ġt ot
áŀ ħ
Îµ ÏĤ
os ti
Ġs ta
ĠÄ °
à° ¡
Ġe i
ìķ Ī
ide o
ç½ĳ ç«Ļ
ĠE r
c z
ĠU S
áĥĲáĥ ¡
àº ±
Ġàª ¤
Ġun tuk
n ik
h r
Ġm ai
ĠÏĦÎ· ÏĤ
à³ Ģ
×Ļ× Ł
Ð½Ð¾ ÑģÑĤ
ti f
Ä± ÅŁ
à¤¿à¤ ķ
à¥įà¤ ¤
i et
2 8
ĠÚ© ÙĪ
åľ ¨
Ã« n
Ġon line
Ð°Ð½ Ð°
à° Ł
ĠÎº Î±
Ġin st
Ð ĵ
áĥ ¢
Ġh u
Ñĥ Ðº
Ġt op
Ð´ Ðµ
ar an
ĠÒ ³
Ġb at
Ġ3 8
Ð¾ ÑĪ
Ġd engan
ì ŀ
áĢĢ áĢ
áĥĲáĥ ķ
__ __
Ñ ĺ
ĠÎ £
ãģ Ĩ
es ti
er y
ÑĤ ÐµÑĢ
à¨ ²
Ġì ĺ
9 5
Ġg j
í Ĭ
áĢĢ áĢ¹áĢ
à¥ĩà¤ Ĥ
Ġal s
Ġà¹ Ģà¸
y k
Ð¸Ñĺ Ð°
Į Ģ
Ġc at
àª¿ àª
p o
Ġn em
ek t
o y
Ġ201 0
7 5
à¨ Ĥ
Î» Î»
il le
Ġc ar
à¸ Ĥ
æī ĭ
ĠÑĢ Ð°Ð·
Ñĥ ÑĪ
Ġcon s
ĠÑģ Ð¾
Ġ×Ĳ ×ª
Å £
Ġp ÅĻ
Ġë °
Õ¥ Õ¶
ãĤ Ĭ
Ġ5 5
äº Ĩ
Ġ× ĸ
m et
à² ¸
g g
á» ĭ
ª à¯įà®ª
ä¸ĭ è½½
ion al
C T
áŁĴáŀ ı
m l
I L
áŁĴáŀ ļ
Ġt re
s c
Ġ ãģ
âĢ ĭ
Ġt el
us s
à» ī
à±įà° ¤
Ġê °
an ce
Ġà® ¨
Î¯ Î½
áĥĶáĥ ľ
f or
ĠB ar
Ġb ack
d z
Ġam b
Ùĩ Ø§
Ġ8 0
ĠÑģ Ð»
Ġt em
ãĥ ĥ
C H
Ġà¤ķ à¥ĩ
Ġà¨ µ
ĠC l
àºĻ àº
u x
Ïİ Î½
ĠÐ¾ ÑĢ
n ya
s z
ĠÎ±ÏĢ ÏĮ
Ġáģ ĭ
ç ľ
er k
Ŀ ¼
Ġa j
Ġì ķ
ë ¥
ÛĮ Ú©
ov a
Äģ r
Ġt id
Ġà¦ ¦
Ġï¿½ï¿½ï¿½ï¿½ ï¿½
ĠÎ³ Î¹Î±
U S
å ½
o ut
Ø¨ Ø±
ĠÎ ¤
Î Ł
at ur
d o
Ã³ l
ĠÙ¾ Ø±
Ġáŀ ĺ
Ġ3 4
ĠØ§ Ø³Øª
v ar
à²Ĥ à²¦
Ġpro f
lar Ä±
in en
Ù ı
à´ ¸
à°¾à° ¨
I D
à´ ±
o o
ĠM an
ê µ
ĠB r
Ġw id
ì Ľ
em e
Ú Ĩ
Æ ¡
Ġpers on
å ¯
ï¼ Į
à¥ģ à¤
Ø§ Ùģ
Ġh as
á» ģ
Ġàª Ĩ
à° ¯
Ã´ ng
ĠÐ± Ð°Ð¹
Ð¸Ð½ Ð¸
ch en
am an
à² ®
à® £
à¸ Ĭ
Ġáĥ ĺ
å¹ ´
at iv
or es
½ áĢ
Ġs ol
Ġ ud
Ñĭ Ñģ
Ġk w
al is
à° ª
àª¨ à«ĩ
Ġàª µ
ĠN e
Ġfor m
Ġ" .
ĠÙĪ Ø§ÙĦ
Øª Ø±
i Ã°
ab le
à²¿à² ¸
ĠA nd
ĠN a
Ä ¾
Ð¾ Ñĩ
ä¸ į
ĠØ³ ÛĴ
ĠÑģ Ð¿
p os
Ġp at
à´ ¨àµįà´¨
Ġà° ¤
Î ¶
àµįà´ ¯
Ġr el
ĠØ ·
Î Ļ
3 6
íĬ ¸
uk s
ĠÎ ļ
ĠP h
ĠÄ ¯
ĠÎ ľ
à´¿à´ ¯
Ġ ÏĮ
Ð°ÑĤ Ð¸
æ ķ
áĥ ®
9 6
à±įà° ²
ÑĨ ÑĮ
Ã© t
ad os
Å¡ an
Ġde c
Ġd os
um p
Ġk er
à§įà¦ ¤
ļ áĥĺ
Ġd as
i ra
ang an
ay s
Ġ uk
Ġ Ïĩ
at or
Ġà¦ķ à¦°
Ġ( "
ĠØ§ Ø²
Ġc e
b et
2 6
Ð² Ð°
g y
A D
é Ĺ
Ġàª ħ
Ġv ÉĻ
í Ļ
ģ àº
c c
ê¸ °
à«įàª °
Ġáĥĵ áĥĲ
Ġ4 8
A K
ig h
v el
ent s
× ļ
Ñĸ Ð·
Ġ×ľ ×Ķ
aj a
om b
ì ĸ
Ġe v
u y
al an
o i
Ġâ Ĩ
g ro
AA AA
à¸ ŀ
ĠÑĺ Ðµ
ĠD et
á» ĥ
Ġà² µ
ä¼ ļ
ĠÐ Ľ
æľ ī
áĥĲáĥ ł
Ġà¶ Ń
Ġp u
à® ±
à¨ ¦
ĠÎ Ķ
à© Ī
ĠI nd
3 5
ĠS a
Ġt ar
ĠÐ° Ð´
áŀ ½
or k
à¨ ¹
l as
Ġà¦ ¤
å®ĺ ç½ĳ
Ð°Ð³ Ð°
l ed
ra f
Ø§Ø ¡
ut a
ìĿ ¸
un e
al ar
×ķ× Ĳ
á» §
à°¿à° ķ
Ġs iz
ol i
Ī ëĭ¤
ov e
å ½©
Ġà· Ħ
ĠØ ¥
áĥĿáĥ Ľ
Ġm em
Ġì Ĺ
ãĤ ¤
Äį i
à¶ «
Ġáŀ Ĭ
ãĤ ī
Ġas s
Ä± z
Ġw ord
id ad
or n
ë¡ ľ
Ġn on
Ð° Ñı
at an
à® ®
ÙĦ ÛĮ
Ġ4 2
al o
m u
à´ ª
Ġì ¶ľìŀ¥
y on
ĠN ew
ç Ļ
gr am
Ġf ra
å®ĺ æĸ¹
àº ĩ
Ġd ag
ĠÑĤ Ð°Ðº
Õ¡ Öģ
ÏĦ Î¬
ĠÐ ķ
è ¦
à¹ī à¸²à¸
ĠÎ ¸
Ġàª Ľ
p i
ĠA z
ãĥ Ī
Ġà¤¹ à¥Ī
è Ģ
Õ¸ÖĤÕ©Õµ Õ¸ÖĤÕ¶
Ġv y
ĠÔ ±
Ð Ľ
9 4
àµįà´ ª
Ð°ÑĢ ÑĤ
Ġà¤ª à¥įà¤°
Ġfr om
Ġin f
ur n
ä ¿
Ġa h
ë ĵ
p on
es te
Ġo ut
el o
ĠIn ter
ot a
al it
l ÉĻ
ĠáĢ ±áĢ
Ġs en
ÃŃ m
å Ŀ
p t
ul ar
Ðµ Ð¶
² áĢ·
è ´
Ġk am
Ġà¨ ª
à´ ķàµįà´ķ
à±įà° Ł
à¤¿à¤ ¯
ĠÐº ÑĢ
ĠE x
Ġáĥ ¨
Ġ9 0
àº °
Ġ200 9
Ġo k
ot e
Ñĭ Ò£
f s
and e
Ġd ata
à¤ ¬
à°¿à° ¨
Ġ `
Ġê ²
ĠÐ ¨
Ð¸Ð½ Ð°
Ã¢ n
Ġk ad
à¯įà® ±
Ñį Ð»
ĠF or
Ð´ Ð°Ð½
ç º
an c
id en
à© Ĥ
ķáĢ «
ec i
à¹ Ĥ
áº Ń
Õ¸ ÖĢ
Ø± ÙĬ
Ĥ °
å ĵ
à¦ ¦
E D
ĠÕ ¿
an ia
Ò¯ Ð½
áĪ Ń
er en
Ã¶ z
Ġk or
ent ru
Ġ. ,
×ķ× ĺ
an ta
ê ±
as ta
Ġáĭ ¨
Ġà® İ
ĠÚ© Ø§
Ġo u
p re
ÑĢ Ð°Ð½
ĠC ar
Ġ4 4
k ar
Ġq Ã«
Ġh and
ĠÏĢ Î¿Ïħ
ci al
¯ äºļ
ãĤ Į
áŀ ĩ
Ġ Õ¡Õ
Ġor gan
ci Ã³n
ÑĤ Ð¸
Ñ Ĺ
Ġ7 0
Ġà° °
Ð´ Ð¸
l ad
Ġp en
à¯ ĭ
à¦ ª
Õ¸Õ ¾
ĠE ur
Ð½ Ð¸Ðº
Ġk m
p ro
Ġd ur
Ġ( )
Ġv Ãł
k ov
Ġs ek
ĠÐ¿ ÐµÑĢ
ĥ ½
ãĤ ĵ
Ġl eg
ch a
ed a
Ã¤ t
áĪ į
Ñĥ Ð¿
Ġàª ¨
Ġà »
Ã¡ v
3 8
£ ¼
Ġg er
Õ¥Õ ¿
Ðµ ÑĨ
Ġàª ¹
Ġ3 7
à«Ģ àª
ĠÐ° ÑĢ
ÑĤ Ð°ÑĢ
is ti
à± Ĥà°
Ðº Ð¾
Ñį Ð³
æĹ ¥
Ġne w
Ñĸ Ð¼
b y
àº Ķ
j on
ĠI t
Ġà¶ ľ
at ed
Ġna v
à´ ķ
ĠA ng
n es
Ġ×Ķ× ŀ×
à²° à³ģ
Ġa le
àµįà´ ļ
à§ĩà¦ ¨
ed en
à± Ī
à¤ ľ
ĠÕ £
áĭ į
.... ....
ĠV i
à¦ Ł
Ġh an
Ġp un
ĠÐº Ð¾Ð¼
Ġn ag
Ġå¤§ åıĳ
ÐµÐ» ÑĮ
at er
ĠÚ© Ûģ
ĠP ol
ĠÙħ ÛĮ
ĠD ie
ĠQ u
ĠÐ¿ Ð¾Ð´
à«ģ àªĤ
Ð¾Ð² Ð°
Õ ¤
ìķĪ ë§Ī
æ Ķ
Ġl ab
e e
Ġá į
ì ¹
áŁ ħ
ch i
Ð» Ð¸Ðº
uk a
p g
ĠÎ ·
Õ¸Õ ²
o a
æ µ
Ð°Ð» Ð°
st r
Ġt ek
Î¹ Ïĥ
Ġv Ãµ
áŀ İ
ed i
ĠÅ ł
áĢĦ áĢº
à¤ ļ
Ġo le
à¸²à¸ ¡
Ġà¦ ħ
j et
Ð» Ð°Ð½
ç Ĳ
2 9
Ġs et
u je
n en
ä¸ Ĭ
Ã³ r
Ġy our
T T
Ġc ent
in in
àª¾àª ¨
or y
ð Ł
Ġv ers
ìĿ Ģ
l en
æ Ń
Ñĭ Ðº
ì ²
Ġp op
ul d
ĠB er
Ġz u
Ġà¤ ¯
Ġ( '
×Ļ× §
ik an
d el
æ İ
Ġa i
ĠA s
é Ľ
Ġ×¢ ×ľ
Ļ àµįà´
ĠP ost
à¶±à·Ĭ à¶±
Ġs Ã¥
3 4
Ġm es
ag es
ë °
ĠÃ¤ r
Ð» ÐµÐ½
ĠâĢĿ ,
Ġ- -
ÑģÐº Ð¸
Ò¯ ÑĢ
z o
Ġf i
à¨¾à¨ Ĥ
ĠÐ¸ Ð¼
à·Ĭ âĢį
Ġh al
um ent
æ ł
Ä °
Ġ3 9
Ġk al
g in
un i
ĠØ¨ Ø§
Ð¸ Ð¿
ap at
ĸ áĢ
Ī ĺ
Ġ×ľ ×Ĳ
ãĥ «
ÎŃ ÏĤ
Ġà² ¤
Ð°ÑĤ ÑĮ
àµģà´ ¨àµįà´¨
av a
ĠÕ º
Ñģ Ð¿
at is
I I
âĢ ¦
áĥĺáĥ Ĺ
à²¿à² Ĺ
ĠÐ² Ð°
ĠB e
áŁĴáŀ Ľ
Ġb ol
×ĳ ×¨
Ġh i
á į
ĠÎµ ÏĢ
ab il
Ġs ig
×ª ×Ļ
p or
ud e
Ð°Ð» Ð°ÑĢ
Ġà¤ ī
u an
à²¿à² ¯
áĪ Ŀ
à´¾à´ ¯
ĠØ§ÙĦ Øª
à¹ Ģ
Ð°Ñ İ
ia i
à²Ĥ à²
à®¿à®² à¯į
ĠD es
à¸ģ à¸²à¸£
å¹ ³
2 1
Ġà¦ ľ
à¸Ĺ à¸µà¹Ī
à® ķ
Ġì Ħ
ĠÐ¼ ÐµÐ½
o x
ĠB u
×ķ× Ŀ
R O
è Ĥ
à²Ĺ à²³
é ģ
à¯įà®ķ à®³
ÃŃ s
er ing
çĶ ¨
ħ áĢ
Ġin t
b il
á» Ľ
6 8
Ġm ul
w i
Ø§ Ú©
Ïģ Î¬
ĠÐ ¤
áŀ ľ
Ã© l
Ġt ill
Ġse x
Ġm ay
à³įà² ¦
à®¤ à¯įà®¤
gro und
à¸£ à¸°
Ð £
U N
Ġáŀ ĳ
t ur
Î» Î¿
Ġ$ (
Ð» Ð°Ð´
ĠF ran
à±ģà° ²
ĠV er
h ar
Ġáŀ ¢
id o
og y
Ġcom o
h an
Ġd al
Ġc i
áº §
ĠT o
ĠD i
ÏĦ Î±Î¹
Ġàª °
ĠÐ ĸ
ĠK r
ĠH e
àµ Ģ
ij n
as Ä±
ĠÐ± Ð°ÑĢ
d an
ÛĮ Ùħ
Ġf e
à®¿à® °
ĠÕ ¤
Ġf al
ĠC o
Ġ} .
re m
ĠÙħ Ø¹
à´¿à´ ķàµįà´ķ
Ġse c
×Ļ× ĵ
Ġáĥ¡ áĥĲáĥ
ap a
ĠÐ¼ Ð¾Ð¶
um s
Ð´ Ñĸ
Ñı ÑĤ
ĠÒ ļ
ĠE m
am il
Ģ àº
ë¦ ¬
à³ģ à²µ
Ð¾ÑĤ Ð¾
Ġar t
Õ¸ ÖĢÕ
ÓĻ Ð½
h u
ì ľ
áŀ Ĭ
Ġm us
Õ¡Õ ®
Ð Ķ
ĠM e
ÙĬ ÙĦ
à¹Ī à¸Ń
ĠP o
Ã© m
×Ļ× ©
ĠÏĥ Ïħ
Ġt od
Ġm is
Ġg et
ĠA b
Ġm Ã¼
Ġt en
ÎŁ Î
ÐµÑĤ Ð¾
Ã¶ l
å ĳ
×¢ ×¨
Ġik ke
áĢŃáĢ¯ áĢ
ĠÏĥ ÏĦÎ¿
Ġg l
in u
ĠâĢ ļ
ĠØ§ÙĦ Ø¹
ot s
um i
ì ļ
Ðº ÑĢ
Ġ16 0
ed ia
×ł ×Ļ
Ġk wa
à²²à³įà²² à²¿
Ö ¸
Ġh el
Ġà¶ ¶
Ġl Ãł
à® ®à¯į
ÑĭÐ½ Ð´Ð°
Ġk ol
à±į âĢĮ
Î¿Ïħ Î½
ĠG o
Ä« b
ek a
, "
ÙĨ Ø§
Ġàª ¬
E M
ir t
àª ²
ar r
Ġáĥ Ĺ
Ġk ap
áŀ¶ áŁĨ
pr es
al ah
Ġs ob
Ġd om
à¤¾à¤ ®
Ġpo ur
æĸ °
áŀ¶áŀ Ģ
el la
ÙĬ Ø¯
ç §
ĠÕ Ģ
Ġ) {
I A
on y
Ġà² Ĩ
Ġback ground
et i
é ľ
×Ļ× ĳ
Ġn am
Ïģ Î¯
Ñĥ Ñİ
G G
æ ŀ
à¤® à¤¾
ÛĮ Ø§
à³įà² Ł
Ġg ro
Ġ4 6
w an
ok o
b ar
Î ķ
ra g
h er
Ġn os
Ġc as
Ġc ap
Ġáŀ ĩ
p le
áĥĿáĥ ĳ
2 7
Ġ4 9
Ġà¶ ĳ
à¦¿à¦ ķ
ĠàªĽ à«ĩ
Ð°Ñļ Ðµ
el en
eb ru
ĠÐ´ Ð¾
?? ??
Ġin s
ĠÕ ¢
Ġv on
Ġm emb
åĽ ¾
Î¹ Î¿
Ģ áĢ
à´° àµįâĢį
ri j
Ġdi re
t on
à®¤ à¯ģ
or g
in er
à°Ĥà° ¦
à®¿à® ©
åı °
Ð°Ñ Ħ
m m
Ġà¨ ®
ĠÏĢ ÏģÎ¿
ik u
er d
Ġ" },
ĠØ§ÙĦ Ø£
á» ¥
Ġ5 6
Ġur l
Ð´ Ð°ÑĢ
O L
ãģ ı
n s
ļ àµįà´ļ
Ġt an
± áĢ¬
à²¿à² ķ
Ä §
oj a
Ġes c
ok a
à¤ £
p s
k k
Ġ× ¦
Ġáĥ Ļ
Ġs im
Ø§Ø ´
àªĤ àª
ang e
id er
áĥĲáĥ ļ
Ġl oc
ĠÐ Ń
ĠÏĦ Î±
×Ļ× ĺ
à¤¨ à¥ĩ
ar m
Äģ k
um b
ul e
is te
Ġë §
Õ¸ÖĤÕ©Õµ Õ¡Õ¶
à¦¾à¦ ²
à¶ ¶
Ġ200 8
Äģ m
ĠA ir
Ù Ĵ
à¶¸ à·Ĭ
al og
à²¨à³įà²¨ à³ģ
Ġ": {"
áº¥ t
à·Ķ à·Ģ
Ġa ta
Ġà´ ¤
Ġm Ã¡
Ġnj Ã«
Ġh ab
à³Ĩà² ¯
ion s
Ġsi ÄĻ
Ġn as
ìĦ ľ
à¸²à¸ ¢
Ġac c
Ġà² ĩ
Ã« t
ĠÑĤ Ð°
ãĤ ¯
Ġa w
ÐµÐ½ Ð¸
ul i
Ïģ ÏĮ
Ð¾ Ð¸
Ġl et
Ġ9 9
ĠÐ¿ÑĢ ÐµÐ´
Ġc or
Ø± Ø¨
v an
à¤¿à¤ ¤
Ġpro bl
Ġche ck
Æ°á» Ŀ
ov an
æ ²
Ġm on
ĠâĢĿ .
à¯ Ĭ
ĠÙħ ØŃ
ĠR es
Ġ ä»
à± Ĭ
y le
n ÄĽ
ir m
ĠÙħ ÙĪ
ac a
ra z
ĠÐ ¹
à¤ Ł
ĠÐ¿ Ð¾Ð»
ĠA t
Ð¾ÑĢ Ð¼
d y
ation s
Ġ3 D
ĠÐ §
Ġ×Ķ ×Ĳ
Ø§ ÙĤ
Ġt it
áŀ¶áŀ ļáŀ
h at
am o
ĠA ut
Ó© Ð»
á» ±
8 5
Ĵ Į
Ġk aj
Ã¼ k
Ġà¨ ľ
ri b
ä½ ĵ
æ ´
Ġi Å¡
Ġin v
à¯Īà® ¯
ing en
Òĵ Ð°Ð½
èµ °
Ó© Ð½
Ġp ad
ĠW e
Ð½ Ð¾Ð³Ð¾
es k
ĠD o
æīĭ æľº
Ġl ink
à¸£ à¸±
-- --
Ġt ro
à©± à¨
ĠH otel
ĠF l
¨ áĥĺ
ĠS u
Ø§Ø Ń
4 6
ĠÑĤ Ð¾
è¡ Į
en ce
ĠH er
ë ¶
Ġes te
r am
Ġm aj
Ġh ave
Ġd alam
ĠP a
ãĥ ©
Ġï¿½ï¿½ï¿½ï¿½ï¿½ï¿½ ï¿½
é Ŀ
ĠK om
ĠØ± ÙĪ
Ġ× ĺ
Ġm el
Ðº ÑĤ
ëı Ħ
ÉĻ s
in ta
´ì §Ģ
Ġ ~
Ġo o
çĶ Ł
×ķ× §
ĠÃ ¨
Ġel s
àª ¹
à® ¯
Ġà¨ ¤
áĢĦáĢ¹ áĢ¸áĢ
es h
Ġf ac
Ġc Ã³
ist r
ĠE d
Ġì ĭ
ĠÂ ²
it ar
×¨ ×Ĳ
ĠØ§ Ùħ
Ġb en
Õ¡Õ £
ĠÎ ²
ĠAl l
z er
Ïĥ ÎµÎ¹
Ġg al
ĠH a
os s
à¨ ®
åĩ º
áĥĺáĥ ľ
ĠÐº Ð¾Ð½
ÏĦ Î®
Ġres p
Ġd ari
Ġ4 3
h l
ĠÐ¿ÑĢ Ð¾
ĠD a
áº ¹
Îµ Î½
áĥ Ĺ
åĬ ¿
Ġc re
Ä ¯
Ġà° Ĩ
à®¾à® °
àª £
àº Ń
y y
Ã¶ v
Ð» Ð°
Ġå ĩ
ĠáĬ ¥
à¹Ī à¸ĩ
ant s
ij as
áĪ µ
åį ķ
ĠT er
å¼ Ģ
ĠSe x
Ġç İ
Ù ĳ
Ġc m
Ġeg y
à¤¾à¤ ¤
Ġå ħ
Ġvi Ã°
it en
ic al
ĠØª ÙĪ
ĠA M
Î± ÏĤ
Ð» Ðµ
ĠJ an
Ġæ ľ
o ti
Ġb al
àµįà´ ±
7 6
v at
Ġà¨ ħ
Ġprod uc
Ġd Ã©
Ø§Ø ¬
ov er
Ġà´ İ
Ġf ont
×ķ× ¢
ì ĺ
Ġ5 4
áŀ ļ
en c
Ø± Ø¯
Ġl u
Ù ĭ
le g
Ġser v
Ġà¤® à¥ĩà¤Ĥ
oj e
à¯ģà® ¤
id ade
Ġv il
ĠÐ¾ Ñģ
Ġ": [
t re
Ġh t
à· ħ
Ġin c
Î¼ Î¿
Ã¡ z
uk an
Ġd h
Ġel ler
Ġê ³
Ġb est
ĠI m
aci Ã³
Ġd ir
ĠJ a
à¤¨ à¥įà¤
ĠÑģ Ð°Ð¼
Ġn ap
C C
Ġc are
Ġu it
å®ĺæĸ¹ ç½ĳç«Ļ
Ġs us
à¦ ¼
Ġpre d
Ġ7 5
Ñĭ Ñı
et er
Ġáĥ Ķ
í Ķ
R E
íĻ Ķ
Ġ' ,
Ã© k
áĥ łáĥ
al m
ĠS k
Õ¡Õ ¬
uk o
ubl ic
Ġn ame
Ġb ez
Ġ200 7
Ã »
Ġì ¹
Ġf o
Ġet t
Ñĭ ÑĪ
ĠÅ¾ e
Ġh y
Øª ÛĮ
il o
ÑĤ Ðµ
ĠB a
ì Ĥ°
d ÉĻ
à¤² à¥ĩ
à´ Ļàµįà´
ĠÐ³ ÑĢ
à¸Ķ à¹ī
Ġp ak
Ð¾Ð» ÑĮ
Ã Ł
Ñĭ Ð¹
c u
ĠÕ ½
ĠÏĥ Îµ
Ġs ist
Ġd ig
S T
ĠM as
ÑģÑĤ Ð°Ð½
Ġ5 8
âĢ ľ
Ġna j
ĠÐ³ Ð¾Ð´
Ġcont ent
Ġn ak
Ġáŀ ĸ
ĠÐ ¯
Ġc el
å® ¶
I M
ĠØ§ ÙĪ
àµ Ĥ
k om
Ñĸ ÑĤ
Ð ľ
Ġs av
à¤ ¡
ar o
Ġpr im
Ġ ï
à¨¾à¨ °
Ġo t
Ġj pg
å ĴĮ
p en
ĠI s
áĥĲáĥ ª
ĠM on
ĠF r
f e
áĥĶáĥ ¡
à² Ł
Ġm ot
Ġra z
ĠÑ ī
ÄŁ Ä±
y ch
ĠM in
Ġ5 00
k on
ĠÎ Ł
ÙĬ Ùħ
em i
Ġv el
Ġk ab
à³įà² ķ
ĠÐ° Ð²
à² £
ÑĨ Ñĸ
à®Ł à¯įà®Ł
Ïģ Î³
ĠS l
å¤ ©
Æ°á» £
Ä±n Ä±
ĠÏĥ ÏĦÎ·
åľ °
ĠK a
à¤¿à¤ ¨
áŀ ī
ĠR eg
è ĩ
Ġi de
ag s
Ġà¦ª à§įà¦°
os a
ar ch
ĠD E
un k
ĠÑĪ ÑĤÐ¾
à¸· à¸Ń
ĠÛģ ÙĪ
à°¿à°Ĥà° ļ
A H
Ġcol or
ÙĦ Ùħ
l in
Ĺ à¸µà¹Ī
ĠN ov
Ġ. )
Ġin n
Ġse b
ĠE st
Ġl ah
à° Ĺ
Ġë Ĥ
ĠØ§ ÛĮÙĨ
Ġn ull
à¯ģà® ķà¯įà®ķ
ik k
áĥĶáĥ ł
lo ad
à±ģà° Ĥà°
Ġh v
Ġv ed
el se
Ġl Ã¤
Ġg u
Ġl ib
ĠA c
Î¼ ÎŃ
Ġáī ł
áº¡ i
ok s
Õ¶Õ¥ÖĢ Õ«
Ð°Ð» Ð¸
ë ³
Ġà² İ
Îĳ Î
um u
àº µ
Ġg re
Ġd on
al es
æ ±
ht Ã«
it z
Ù Ģ
.. .
Ġan n
Ġd iv
ÑĨ Ð°
Ä± l
ë¥ ¼
er g
Ġwid th
Ã© ny
Ġt im
Ġs it
ĠE s
Ġr u
ĠÐ± ÐµÑĢ
Ġt ab
Ġv ideo
Õ¡Õ °
Ġàª ı
ëħ ¸
Ñĥ Ð·
Ġt ik
Ñģ ÑĮ
od a
i em
ĠáĬ ł
am ente
ë ł
Ġ ÏĨ
fa ult
à¦¿à¦ ¨
Ø§Ø± ÛĮ
ag o
ÑĢ Ð°
4 8
Ïģ Îµ
Ġ4 7
Ġ Ïħ
ãģ ĵ
à±ģà° ¨
un n
Ġpro gram
ep t
Ġy o
Ġà¦ °
ĠÕ ¾
y b
ul ui
Ġà°ª à±įà°°
Ġw ill
Ġz e
Ġb ut
Ñĭ ÑĤ
r t
k ur
Ġn eg
Ã¡ g
ci Ã³
å ī
j em
Ġà¤ķ à¥ĭ
àª ª
Ġà² °
Ġt ul
×ķ× ¤
Ġp an
Ò¯ Ð¹
Ð¸ Ð¾Ð½
Ġma x
v ÃŃ
Ġpar ti
áĢ¹ áĢ¸áĢ
sk e
ro p
ĠÑģ Ð°
ĠÑģ Ñĥ
ĠM at
èµ° åĬ¿
Ġáŀ ļáŀ
r on
Ġh or
u ti
et te
Ġh ogy
Ġ& #
æ ĭ
à¦¾à¦ ®
Ðµ Ñħ
ë Ŀ¼
Ġà¹ ģà¸
æ ¬
Ġal le
ĠP or
à©° à¨
ħ áĢ¹áĢ
ĠØ± Ø§
à ¬
á»Ľ i
½©ç¥ ¨
ĠÏĢ Î±
ãģ į
ĠØ§ÙĦ Ø³
Ġre v
Ġt emp
ĠÄ Į
im in
ĠÄ Ĳ
ÏĦ ÏĮ
ad h
ĠÙĨ ÛĴ
Î¿ Î»
Äį n
Ġtid ak
à¶ ©
O T
Ġte xt
à¶Ń à·Ĵ
Ã° ur
Ã° a
Ġes p
ÙĪ ÛĮ
Ġà¶ ½
t ar
Ġ4 1
b ay
à® ¨à¯įà®¤
áŀ Ĥ
ut s
à¦° à§įà¦
Ã° i
end a
×ķ× Ĺ
l j
Ġà¦ ¶
ĠÐº Ð°Ðº
áŁ ī
Î¿ Î½
Ġl ev
Å¾ i
áĢ ĲáĢ
Õ £
Ð³ Ð¾
ª ¨
Ġp el
Ġh ad
ä½ ľ
os i
×ķ× ¡
9 3
Ġï¼ ī
Ġv Ã¤
own load
ĠÐ´ Ð°ÑĢ
åı Į
Ïī ÏĤ
Äģ d
Ġà° ¦
Ġv Ã½
Ð°Ð´ Ñĭ
m un
im it
Ð½Ñĭ Ñħ
u u
Õ¥Õ ½
ud a
Ġà¤ ¶
à´¿à´² àµįâĢį
Ñ Ķ
åĲ Ī
à¸µ à¸¢
Ġs te
Ġd ia
à· Ŀ
Î¬ Î½
j ek
çī Ī
Ġht ml
y st
ĠH ar
Äĵ j
à¦ Ĺ
m es
ä ¾
at ing
Ġa qu
Ö ¼
z n
ĠÕ¸ ÖĤ
re g
il la
Õ ¬
Ġàªķ àª°
Ġpr z
Ġor g
à·ĥ à·Ĭ
ah an
Ġâ ĺ
ĠP M
Ïĥ Îµ
áĥĶáĥĳ áĥĺáĥ¡
à² ª
Ñ ķ
Ġà¤ ļ
ĠI l
Ġit u
Ġ6 5
iz i
Ġch o
Î¯Î½ Î±Î¹
Ġpar t
Ġ ÈĻ
Ġof f
Ġm m
ĠA k
ãĥ ª
ad or
´ì§Ģ ëħ¸
in Äģ
Ġp ou
Ġh ot
å ½©ç¥¨
à´¾à´ £
Ø§ÙĨ ÛĮ
el ij
ĠÃ ī
é ¡
×Ļ× Ĳ
Ġun e
Ġpro c
8 6
à® Ļ
Ġ5 3
Ġro z
à¹Ģà¸ Ľ
Ùħ ÙĦ
à±ģà° ķ
Ġáŀ ħ
à²¿à² °
b b
ä¸ ī
an ya
à¤ķ à¤¾
è ¾
Ġj ed
ind i
eb ook
ant o
äº ī
àª ¸
ŀáĢ Ĭ
Ġt ai
ĠÐ° Ð¹
Ġz d
ÑĭÐ½ Ð°
Ø¯ Ùĩ
og o
Õ ¢
A B
ĠÐ´ Ð»Ñı
ĠÚ© Ùĩ
ro d
ìĽ Ĳ
ĠM al
èµ°åĬ¿ åĽ¾
×ķ× ©
Ġprod uk
à´¾à´ ¨
sk i
Ġ ðŁ
ĠI N
Ġà¤ Ľ
à·ı à·Ģ
Å ±
Ġáĥ ŀ
Ġc s
áĪ Ī
ul o
I d
Ġ" ]
à®¾à® ©
ÙĨ ÛĴ
Ġt ut
à°° à±įà°
à¤ §
×Ļ× ¢
all y
á» ¯
ÐµÐ½ Ð°
ĠH o
áŀ ¢
Ã¤ m
Ġj s
æ ĥ
à´¾à´ °
Ġin te
Î» Î·
it al
Ġn um
® áĢ¸áĢ
Ð Ĵ
Ñĥ ÑĥÐ»
f o
à´ ¨àµįà´
ĠÑı Ðº
ĠÑĥ Ñĩ
ĠÑ İ
Ġ5 2
ĠØ º
áŀ¶áŀ ļ
Ġà¤ ı
à© į
Ġm ah
Ġ íķ
om o
Ġ\ /
ation al
AP P
ĠÎ »
Ġbl og
á» ©
Ú¾ ÛĮ
à´¿à´ ¨
Ñĭ Ð³
ãģ£ ãģ¦
¯ à¦¼
Ġc er
Ġal t
Ã Ĳ
Ġan t
Ġv id
U L
Ġp ap
Ġen d
ĠT E
ĠJ e
ĠA p
à¨ ¼
Ã¡ k
Ġl ag
Ġ5 9
Ġcon c
æĪ ı
ÛĮ Ø³
v ers
I K
ãĤ ¢
à²¿à² ¨
ent a
áĥĺáĥ ļ
Ġå ı
ĠM o
ĠÕ¸ ÖĢ
ĠÖ ĩ
å Ł
Ð¸ÑĤ ÑĮ
il s
ro w
f l
ic s
Ġi Ã§
ĠA S
Ã¤ Ã¤n
Ġà¤ķ à¥Ģ
ĠÐ² ÑĢ
os ta
om en
j er
Ġu Å¾
ì Ĭ¤
Ġb as
à²¿à²¦ à³įà²¦
j es
Ġc á»§
Ġà¦ ¯
Ġp entru
Ġd ob
ĠK ar
Õ¸ Õ¶
Ã¶ g
ĠÎ± Î½
å¹³ åı°
à¥ĭ à¤Ĥ
ĠÙ¾ Ùĩ
Ñĥ Ð¶
Ġ... .
ãģ ł
Ġ ÓĻ
Ð» ÐµÐ´
ìĿ´ íĬ¸
Î» Îµ
on es
ë ²
n u
Ġk el
ĠÐº Ð¾Ñĺ
f in
ĠD r
æ³ ¨
æ Ļ
ãĢ Ĥ
à¸ ¶
Ġb ed
Ġn an
Ġk es
à´¿à´ °
Å Ħ
Øª Ùĩ
Ø± Ùħ
é ¢
áĢĦ áĢºáĢ
it er
Ð¡ Ð
ev e
Å¡ ÃŃ
ãģ Ĥ
I R
àµįà´ ²
c el
Ġcá»§ a
Ġb ek
à²¿à² ¤
áĢ ±áĢ
Å« s
ia u
pl ay
Ġb eg
¥ à¸°
Ñĥ Ñħ
Ġn at
à¯įà® ļ
à²¿à² Ĥ
ìĥ µ
7 9
ĠÂ ¾
Ġf yr
Ð°Ð´ Ð¸
Ġe ur
li ch
Ġel ement
ĠT a
æľ Ī
à¤¿à¤ ²
aj o
Ġn ep
à¦¾ à§Ł
à¥įà¤ Ł
ê± ¸
Ġde fault
ik s
Ġà¸ Ħ
ĠÑĤ ÑĥÑĢ
à¦ ¹
Ġà° ĩ
Ġà° ²
h en
à·Ļ à¶±
end o
in ter
Ġre d
b le
ĠC as
ĠØ§ÙĦ ÙĦ
åĿ Ģ
ĠA g
Ġà° ī
Ġd oc
ĠR ep
us ta
Å Ī
Ġt am
Ġs ab
à¦¿à¦ ¤
ĠÃ ĸ
åįķ åıĮ
Ð°Ð² Ð°
Îº Îµ
ĠÎµ Î¯Î½Î±Î¹
à¸ ĸ
Ĩ Į
á»ĩ n
Ġb uh
Ð¾Ñ ŀ
ob il
Ġm Ã«
æ Į
åĵ ģ
æĿ ¥
æ Ħ
æ¸¸ æĪı
ak u
à¤¾à¤ Ĥ
et o
ĠG u
Ġ ÉĻ
ä¸ ĩ
l am
ĠV al
ĠR o
Ð°Ð´ Ð°
à¶º à·Ĵ
ur g
em s
Ġt ÉĻ
X X
Ġb ul
à² ¹
Å¡ i
k at
ĠG e
ÑĤ ÑĢ
Ġg y
ÑģÑĤ ÑĢ
ĠM ag
ÑĬ ÑĢ
or o
ĠM ay
Ø± Ùģ
Ġj eg
é ĺ
áŀ¶áŀ Ķ
Î® ÏĤ
áŀ ¹
àº »
Ġ, .
à® ªà¯įà®ª
ti d
m at
Ġes ta
ãģ ķ
tic a
ĠÏĦ ÏīÎ½
ĠK o
ãĥ³ ãĤ
Û ķ
tr ol
Ġk ul
Ġh at
Ġï¼ Ī
Ġa us
Ġ5 1
Ġp ass
Ġf er
Ġà¤ķ à¤°
Ġpro p
ë§ Į
à¹ĥ à¸«
Â Ń
Ġent re
áŀ ģ
ul le
ez a
àª® àª¾àªĤ
áĢĢ áĢºáĢ
à·ĬâĢį à¶»
Ġt as
Ġ. âĢĿ
á»į n
ĠÐ± Ð¸Ð»
st er
à©Ģ à¨
ĠOn line
ĠÐ¿ Ð¾Ñģ
Ġp ra
ĠS an
Ú ĵ
Ġb re
ĠM en
ãģ§ ãģĻ
y g
am os
Ġz ijn
Ġret urn
in de
Õ¡Õ¶ Õ«
on o
2 00
Å¡ t
ti es
Ġk ont
è¦ ģ
ĠÐ± Ð°
Ġà¨ ¬
áŁĴáŀ Ł
ĠÐ° Ð½
Ġà¶ º
ot h
id i
å® ī
Äĵ t
Ġ×Ľ ×¨
à¸²à¸ Ļ
Ä« t
åħ ¬
il m
ĠC ol
Ġë ĭ
us k
Ġma is
×Ļ× ¡
åŃ Ĳ
qu es
à®° à¯į
le x
Òĵ Ð°
ĠÈĻ i
çĲ Ĩ
ni h
à® ļ
à³ģ à²¤à³įà²¤
à®¾à® ķ
ÃŃ c
Ġáĥ ¬
ĠÐĲ Ð»
Ġå °
Ñĸ Ò£
os h
Ġ×ĳ ×Ĳ
å¸ Ĥ
áĭ Ń
ãģĹ ãģ¦
Ã©s z
j t
Ġch i
áĥĶáĥĳ áĥĲ
àµģà´ Ł
ĠÐ¿ Ð¾Ð²
ĠÕ¥ Õ¶
ĠÐ¾ Ð½
Ġh ist
Ġpol it
à¦¾à¦ ķ
Ġfal se
Ã§ a
« ĺ
ĠØ¨ Ø§ÙĦ
Ġk ir
Ġf Ã¼r
Ķ áĢ¹áĢ
ĠS er
ĠÃ ĩ
ÙĨ Ú¯
ĠA v
ĠM od
ĠH ome
éľ ¸
Ġáŀ Ľ
ĠáĢ ĻáĢ
àº §
Ð°Ð½ Ð½Ñı
Ð°Ð½ Ð¸
Ġy e
ĠÃ «
Ġg el
us a
en er
Ġà¦ Ĺ
ĠS i
è Ī
Ġà¸ ª
Ġt s
Ġa kan
ur u
Ġn Ã¤
ä¸ º
à´Ļàµįà´ Ļ
ĠÃ ³
Ġ×ķ ×©
à¸± à¸ĩ
à´¿à´ ļàµįà´ļ
çĻ »
ĠâĢĭ âĢĭ
Ġ6 6
ãģ¾ ãģĻ
m ar
l ing
Ġì¶ľìŀ¥ ìķĪë§Ī
Ġ9 5
pr ess
à¯ģà® ķ
d ag
3 2
à¸ ĵ
à¶» à·Ĭ
Ġv ai
ĠS c
Õ º
Ã© p
à¯ Ģ
Ġhe ight
à¤¾à¤ ¸
¯ åıĳ
Ġãĥ »
Ġst ud
è ī
Ġ5 7
à§ģ à¦
ti ve
ĠÙħ Ø³
Ġun der
Ġáĥ £áĥ
ä¸ ª
x x
b at
Ġáŀ Ĥ
ĠO p
ele f
ci p
ad es
Ġj an
àª¨ àª¾
Ñĥ Ð³
m b
est o
Î½ Î·
Ġà¨¦ à©ĩ
it et
f ic
Ġg es
ë ŀ
Ġp ada
Ġm Ã¥
Ã© ho
ay o
n Ã½
Ġin g
à°¨ à°¿
od y
Ġb ij
Ġ' ).
ĠD en
à°¨ à±įà°¨
Ġn ev
ĠÃ ŀ
id h
ĠÏĢ Îµ
ĠØ¹ÙĦ Ùī
ne j
×ķ×ĺ ×ķ×Ł
à¦¿ à§Ł
Ġ Õ¡Õ¶
äºī éľ¸
it at
Ġà¨ ĩ
ĠÛģ ÛĮÚº
ul u
u ch
k r
åħ ¨
Ø ¥
à²¾à² ¨
Ġf el
Ø¯ Ùħ
n ak
Ġs ing
x a
e f
àª¾àª ®
Ã¡ ch
Ġà´ ļ
áĥĿáĥ ľ
ÅŁ Ä±
Ġà° Ĺ
áĥĶáĥ Ľ
ro v
an ie
ĠÎ¸ Î±
Ð¼ Ð°
ĠA G
ç ł
Ġt ah
Ã¼ m
Ġl ig
áĬ ĵ
Ġbe f
ÙĪ Ø¨
· ¸
Ġåĩ ¯åıĳ
L E
Ġk Ã¤
áº ¯
in y
Ġj ak
n is
ĠÐ± ÐµÐ»
ÐµÑĤ Ðµ
Ġt ip
Ġ) :
Ã¡ d
à¹Ħ à¸Ķà¹ī
Ġá Į
à¦¾à¦ ¦
ÑģÐº Ð°
Ġà´ ĩ
re f
àª¨ à«Ģ
Ġà¦ ļ
à°¾à°° à±ģ
ur t
Ñĭ Ñħ
Ð¾Ñ Ħ
ÎĻ Î
ad as
Ġd z
at en
Ġà¤ ĩ
Ġ×ŀ× ©
Ġd ok
ĠÃ ·
ä¸ ļ
Ġme Ã°
ÑĥÐ² Ð°
Ġ/ /
à« Ĥ
and i
ĠÎ Ļ
pl ic
Ġáŀ ı
j s
à¨ £
à¤¾à¤ Ī
ĠÐ³ Ñį
í ĺ
à¨ µ
ad ing
d f
Ġ Õ¡Õµ
Ð¾ Ñı
ÑĤ ÑĮ
Î¿Ïħ ÏĤ
v in
Ġm ore
à§įà¦ Ł
ob er
ev a
Ġin de
v et
Ø³Øª Ø§ÙĨ
Ġs an
Ġp eng
Ġf ir
Ġa o
Òĵ Ñĭ
ÐĲÐ Ŀ
ol t
c s
Ġ×¤ ×ķ×ĺ×ķ×Ł
à¤¿à¤ ı
Ñĸ Ñģ
Ġf ar
Ð¾ÑĢ ÑĤ
ent es
as ti
à¹ī à¸Ń
um e
Ġì Ĥ¬
Ġb iz
10 2
ap i
Õ ¹
Ľ à§ĩ
Ġå ®
Ġst art
Ġpl an
Ð°Ð» Ñĸ
Ġn ad
Ġk ung
w ar
Ð¸ÑĤ Ð¸
en ÃŃ
Ġt ag
Ð² ÑĢ
ĠÎ± Ïħ
Ġt v
ĠEur op
tion s
éĻ ħ
Ġà·Ģ à·Ĵ
í ĸ
Ġo li
½ ľ
n olog
et an
or ia
Ġi ch
ĠÅ ¼
ĠS up
å ¨
à®¿à® ±
ai re
Õ¡Õ ¼
Ġà² ľ
Ġà¨ ²
à±įà° ª
Ġà® ī
à·ĵ à¶¸
ĠM er
áº¿ t
Ġim port
Ġà² ¦
Øª Ùħ
ib le
I ON
Ġ: \
Ġpr in
Ġc r
m s
Å Ń
op p
áŀĺ áŁĴáŀ
ĠÙĩ Ùħ
é £
ÙĨ ÛĮ
áĥ Ĵ
Õ¥ÖĢÕ ¨
ub e
ind ow
æĪ ·
ĠÂ ¬
Ġv ien
Ġà² Ĺ
Ġà¤ª à¤°
ĠÙħ ÙĦ
à¥įà¤ µ
9 7
ĠÐ² Ñģ
Ġp m
áī ½
Ø¦ ÛĴ
Ð°Ð± Ð¾ÑĤ
ĠÐ¡ Ð
áĥ §
Äĵ r
in al
ĠÐ± Ð¸ÑĢ
ç Ń
áŁ ĥ
® áĢ
ĠF ac
Î» Î±
ang a
Ġb ak
Ġê µ
ä» ¥
Ġsiz e
æľ ¬
et r
T C
ĠÐ² ÑĸÐ´
Ġ3 00
Ã ķ
ĠØ¬ ÙĪ
Ġb ah
s htÃ«
Ġk ut
Ġ Ó
Ä±n Ä±n
g t
Ġbuh ok
Ð¾Ð¼ Ñĥ
ion i
áĥĶáĥĳ áĥĺ
ow er
ĠÑģ Ðº
áī °
×© ×¨
Ġb an
Ð¾Ð³ ÑĢ
Ð°ÑĢ Ð¸
Ã¬ nh
ra b
Ġm or
à» Ģàº
Ġàª ¦
Ġau f
Ø¹ ÙĦ
áŀ¶áŀĢ áŁĭ
y i
Ġn orm
à¶ °
Ġp om
í Ĩ
Ġap p
áĥĺáĥ ĵ
ment s
3 7
à·Ĵ à¶±à·Ĭ
Õ¥Õ ²
Ġs or
è ĥ½
r Ã¡
ĠÐº Ð¾ÑĢ
Ġàª ²
° áĢ
Ġy ap
Ġr i
ug u
àµģà´ ķ
à¯ Ĥ
Õ ©
à² ¯
Ġd ans
ĠÑģ Ð¼
Ġg Ã¶
è ¨
¦ à°¿
ur r
ad an
à¶ Ĥ
ĠM ed
Ġ×Ľ×¨ ×Ļ×ķ×ª
p ut
Ġs Äĥ
ĠB o
ÐµÐ½ Ð¸Ñı
ë ¬
ãĥ ¬
Ġg ar
áĥĿáĥ ¡
Ġà° ¬
àº ļ
ov en
Ġå į
ĠT ur
å Ģ
ë ĮĢ
iv a
ÓĻ Ð½Ðµ
Ñĥ Ñĥ
ÐµÐ½ Ð¸Ðµ
ÉĻ k
ÂŃ ÂŃ
ess a
å· ¥
í ħ
Ùĩ Ø±
×ķ× ¦
Î Ĺ
n ia
è ģ
ij o
Ġs Ãº
Ġp ov
Ó £
al la
8 1
oj n
ĠD ec
Ð¸Ñ Ħ
Ø¹ Ø¯
Ġe e
og le
Å¾ e
ëĤ ¨
l ay
áŁĦ áŁĩ
Ġg an
Ã³ d
Ġsob re
à·Ģ à·ı
y pe
ol u
at ie
¶ áĢ
Ġà¤¸ à¤®
Ġv Ã¦
á» ĵ
Ð°Ð¼ Ð¸
ion es
ĠÎ ¬
Ð´ ÐµÑĢ
à¹Ģ à¸£
Ġp ok
ĠD an
Ġ& &
c y
ĠE ng
u w
is m
ĲáĢ ¼
à¤¾à¤ ¯
Ġg Ã¶r
Ġa ir
ĠB el
Ġ äº
v Ã¤
ç Ĥ
ĠS tr
ç ¤
g ar
9 1
ĠÐ ¦
Ġo ok
h od
O D
Ġ Æ
à°¾à° ¯
Ð¾ÑĤ ÑĢ
Ġçİ ¯äºļ
ĠA pr
Ġâ Ħ
Ġà²® à²¾à²
ir k
ut o
Ġ8 5
ãģĹ ãģŁ
à¶½ à·Ĭ
ÑĭÐ½ ÑĭÒ£
te k
Ġà´ Ĩ
Ïģ Î·
à¤ ı
in es
d r
áŀ» áŀĦ
éĽ Ĩ
Ò± ÑĢ
à¤ķ à¥įà¤
Å¡ Äį
ÏĥÎ· ÏĤ
ĠÅ ŀ
æ ¯
Ð°Ð¼ Ð°
Ġc z
Ä«b as
ĠÕ° Õ¡Õ´
Ġpo z
Ġar tic
i ro
Ġà®İ à®©
ĠÙĦ ÙĦ
Ġ×ŀ× Ĳ
à°ķ à±įà°
Ġë ĮĢ
ĠS al
Ġáĥ ķ
ëĭ Īëĭ¤
9 2
áŀ¶áŀ ĺ
6 4
Ñ Ļ
Ï Ī
Ġà¤¹ à¥ĭ
Ð¾ Ñħ
n ost
are a
E C
ĠÐ¸ Ð»Ð¸
Ġgen er
ĠC ent
ìĤ¬ ì§Ģ
al ia
Ġr q
ĠD u
ãĥ¼ ãĤ
Ð ĳ
· áĢ
Ð½ Ð¸Ð¹
åĪ °
Ġà¸ £
y ar
Ġb us
ig en
ĠO b
Ġà° ľ
ĠÏĦ Î¹
y an
ĠÃ« shtÃ«
is en
U T
ĠÅŁ i
áĢ¬ áĢ¸
áŀ· áŀĦ
Õ¡Õ Ń
3 1
Õ¡Õ º
n Ã¡
Ä± k
Ġag us
ir d
s er
j an
Ġa ko
áŀ¶áŀ Ľ
ĠÙħ Ø´
Ġà¶ ĩ
äºļ æ¸¸
ÅĽ ci
iz a
Ð¾Ñ İ
Ùħ Ø§
à´Ł àµįà´Ł
Ð» Ð°Ñģ
å¤ ļ
Ð¾Ð² Ð°Ð½
Ļ áĢº
ig t
ĠãĢ Ĳ
ord er
Ġæ ĺ
Ġt Ã¤
Ġd ÉĻ
áŀ¶áŀ ı
if ic
us tr
ri v
àª° à«įàª
Ġcon ta
à² ¬
Õ¡Õµ Õ«Õ¶
EN T
ÐµÑģ Ð¿
ĠÐº Ð°ÑĢ
çĶ µ
il er
ĠÏĥÏĦÎ· Î½
ìľ ¼
à®¿à® Ł
×ķ× ŀ
end er
Ð ¥
ĠS am
×Ļ× ŀ
Ð¸Ñĺ Ðµ
am ento
Ĳ áĢ¹áĢ
Ġë ³
Å¡ k
ĠáĥĲáĥ ł
Ġba ÅŁ
ĠÐ¿ÑĢ Ð°Ð²
ÛĮ Ø´
Ĺ à°¾
Ð» Ñĸ
Ġâ Ļ
ë ©
ÑĤ Ð¾ÑĢ
ÐµÐº Ð°
ter n
c ie
Ġê ¸
à¨ Ł
Ġpl us
à°Ĥà° Ł
im as
éĩ ĳ
n osti
Ġáŀ ģ
ub a
Â º
A Y
Ġn ek
ĠS te
in ing
ķ áĢ¹áĢ
Ġà¶ »
Õ¡Õ½ Õ¿
Ĳ áĢ¬áĢ
Ġà²ª à³įà²°
Ġw o
ĠO l
Î¸ Îµ
Ãµ es
and s
àº ģ
Î¯Î± ÏĤ
Ġm om
at es
Ĵ áĢ
ĠÂ ¸
Ġa pr
Ġ| |
ĠR ed
ĠR a
Ġqu i
ãĢ ĳ
ĠÕ ©
ĠÐ± ÑĥÐ´
Ġt á»
Ġr ight
í ı
it as
im ent
Ġs ed
åħ ¥
×Ļ× ¤
Ã¶ k
re k
×ľ ×Ĳ
Ã³ s
ÑĢ ÐµÐ´
ov Ã¡
Ĩ áĢ
ç ¾
×ķ× Ĵ
Ġre m
IN G
Ġì Īĺ
Ġ! !!
Ġp ie
Ġm b
ĠA ug
n t
j ar
Ġà¦¬ à¦¿à¦
æĪ Ĳ
Ø³ ÛĮ
Ġà° İ
Ġ×Ķ× Ĺ
Ġà°ļ à±ĩà°
Ġ200 6
à§įà¦ ¬
¯ ¸
Ġn or
Ġd ol
ãģª ãģĦ
à±įà° µ
Ġn uk
éĢ Ł
Ġ6 4
à¸± à¹ī
Ġ×Ķ ×©
Õ´ Õ¡Õ¶
áº¿ n
Ø§ ÙĬ
Ð¼ Ð¸
d ing
I G
à³įà² ®
iy e
iv er
ĠÙħ Ø±
Ġt om
Îķ Î
p an
ist er
al u
à¸ģà¸ ±
id as
çľ Ł
åĬ ł
à¦ ĩ
l ag
t el
à³ģ à²¦
Ġv or
th er
und a
s en
c an
Ġáĥł áĥĿáĥĽ
ĠÂ §
Ġ. "
Ġk ep
×Ļ× Ľ
å° ı
Ð¸Ðº Ð°
Ġm ÉĻ
à°¿à° ¯
i el
ĠUn ivers
áĪ ĺ
Ġv u
Ġum a
áī ¥
Ġb ur
ĠM ad
Ġàª Ĺ
Ġf ot
Ġl at
¡ à±ģ
ĠÐº Ó©
ãģ ĳ
ĠáĢ ŀáĢ
Ð Ł
Ú Ī
ch er
ĠØª Ø±
å¿« 3
à¦¾à¦ ¸
Ġ ÖĦ
Ð¸ÑĤ ÐµÐ»
ÈĽ i
as an
Ġè ¿
ĠÐ¿ Ð»
ĠÐ½ Ð°Ð¿
à²Ĥ à²¤
ĠÃ ģ
b ol
I P
Ġà¤ ĸ
Ġi g
Ġb ag
à¸¡ à¹Ī
Ġsk al
ĠK on
á» Ł
Ġn eb
ĠK at
es a
Ġh am
ĠÐ¶ ÓĻÐ½Ðµ
ĠC at
a Ã°
Ġm un
Ġgr up
y or
Ġìĺ ¤
Ġle ft
Ð¸Ñĩ Ðµ
il or
Ð½ Ð¸ÑĨ
el f
Ġm ind
ĠD is
áģ ¾
els er
ĠE UR
í ĥ
ÛĮ Øª
CH AR
ow a
Ġm und
Å¡ e
U M
ĠÎ´ Î¹Î±
Ñį Ð´
ļ áĢ¹áĢ
ĠC H
áĭ «
c er
ar b
Ä± nda
g un
åĽ½ éĻħ
Ð½ Ð¸Ñħ
Ġv ia
ĠG re
áŁĴáŀ Ļ
ĠC or
Ġáģ Ĭ
Ã¼ ÅŁ
ell er
Ġe ff
6 1
Ġ3 A
à´³ àµįâĢį
Ġpro t
Ġ"}, {"
ìĦ ±
×Ĺ ×¨
ĠL es
ut h
Ġ×ŀ ×Ķ
áĥĶáĥ ķ
Å« t
ig i
ay an
à¦¾à¦ ĩ
7 2
à¨¾à¨ ²
Ġ} ,
×ķ ×Ļ
ģ à¸²à¸£
×ĵ ×¨
ĠÐ¾ Ð¿
ij e
Ġse e
Ïģ Ïī
h te
Ġà¤¸ à¥ĩ
áŀ Ĺ
Ùĩ Ùħ
v ent
ĠÏĦÎ¿ Î½
áĥ£áĥ ł
à®¿à® ķ
h d
ĠA N
Ġì ĥ
Ġl eng
Ġk n
à¦¾à¦ ¤
it or
à´¿à´ ķ
id ent
Ð³ ÑĢ
Ð³ Ðµ
ļ áĢ¹
ĠÐ± ÐµÐ·
ĠáŁ Ķ
ìĿ ´ì
Ġen g
à®£ à¯įà®Ł
Î´ Î¿
r al
Ġtit le
ê² Į
Ġfil m
h al
âĢ Ļ
áĥĺ áĥĲ
om m
he id
Ġc al
à·Ļ à¶±à·Ĭ
Ġáĥ ĳ
Ġà¦ ī
Ġà¶ļ à¶»
áĥĲáĥ ®
ãĤ Ī
à¤ ¶
Ġv s
Ñį Ñħ
Ð¸ Ð´Ð°
à¹Ģà¸Ľ à¹ĩ
½ľ ê±¸
ĠH ot
Ñģ Ð°
áĬ Ĳ
à¤¾à¤ ¹
ÃŃ v
Ã© e
ÙĪ Ø²
Ö ĩ
l at
____ ____
Ġm Ã¡s
Ġ: )
áĥĶáĥ Ĺ
à¥ģ à¤°
on n
ar io
Ġm ill
ub lik
ad er
Ġh otel
à¦ Ĥ
Ġs ite
or ld
ĠÎ Ŀ
on om
ec e
1 00
Ð¾Ð± ÑĢ
ĠÐ± ÑĥÐ»
Ġan y
Ġp la
æ³ ķ
àµĩ à´
á»Ļ t
Ġ×ķ ×Ķ
ĠáĢ Ģ
ì £¼
d ir
Æ°á»£ c
à¤¾à¤ µ
p et
àº ¡
àµ Ĭ
ÅĤ a
ĠÑ ĳ
Ġs il
Ġg od
ç½ĳ åĿĢ
I V
Ġst ar
8 9
Ġo c
à´ª àµįà´ª
Ġdel la
ĠJ o
ãĥ³ ãĥ
Ġl an
Ġj i
Ð² Ð°Ð½
èĤ ²
×ł ×Ķ
ĠO s
v es
ëĵ ¤
Ġju ga
ĠW h
à¦¿ à¦°
Ġàª ¶
Ġ×ķ×© ×ª×Ļ
ĠÙĨ Ûģ
ĠP e
ÑĸÐ» ÑĮ
ç ®
am in
à¸§ à¸²à¸¡
Ùĩ Ø§ÛĮ
×ł ×ķ
g j
Ø§ Ûģ
ĻáĢ ½
r ic
en o
ĠÚ ª
Ð Ĩ
Ġt eg
Ġcl ass
ist en
Ã¡ ny
ĠØ§ÙĦ ØŃ
ĠÂ» ,
Ġà¤ Ķ
Ġl ar
Ġis ang
Æ° Æ¡
Ġv it
Ġo h
à´¾à´£ àµį
Ġê° Ģ
Ġb on
Ġà¤µ à¤¿à¤
Æ°á» Ľ
Ġr is
Ġim age
Ġà¨¹ à©Ī
Ġata u
Ġk ot
à° ļ
om s
à¸ ľ
ĠáĪ ĺ
Ñĸ Ñĩ
Ġr Ã©
Õ¡Õ ²
ë ¹
m is
ĠÃ »
ÉĻ m
6 7
Ġå Ī
ĠÎ ĵ
Ġal i
ê³ ¼
Äģ t
ÑģÑĤÐ² Ð¾
æ ı
Ú ĳ
Ø¬ Ùħ
ad y
ĠÂ ½
Ã½ m
ĠØ£ ÙĨ
à¦ ľ
é Ĥ
à°¿à° ¤
ass a
ĠÐ´ ÑĢÑĥ
Ġde v
Ð¾Ð» Ð¾Ð³
Ġz Ã¡
à¦¾à¦ ¬
i ed
ĠÕ Ħ
é ĥ
ãĢĳ ãĢĲ
Ã« m
Ġgr atis
é «ĺ
4 2
Ġë ¶
Ġ íķĺ
à® ķà¯įà®ķ
Ġæ Ī
ti e
og raf
A V
Ġà¨ °
à®¾à® ²
à®© à¯į
Ð½ Ð¾Ð¹
Ô ±
Ġ×Ĳ ×ķ
ĠJ oh
ä¹ Ī
ãģ£ ãģŁ
à¸²à¸ ĩ
à· ĸ
Ġmar gin
à¦ £
Î¹Îº ÏĮ
Ġv end
Ġs n
Ð½Ñĭ Ð¹
à¯ģà® µ
²áĢ· áĢ
Ġi yo
ç ´
à¸£à¸± à¸ļ
åı ¯
Ð» ÐµÐº
k ol
ĠØ§ Ùģ
Ð¾Ð² Ð¸
ĠCh r
Ãº n
Ġp am
Ġorgan iz
Ð½Ð° Ñı
ÐµÑ ļ
å½ ķ
ÐµÐ½ Ð½Ñı
Äģ c
az i
Ġdi b
Ġ ä½
Î¹ Î¬
Ã¨ s
à· ģ
ì §
ë§Ī ìĤ¬ì§Ģ
Ð½Ñĭ Ðµ
Ġl ok
à²¿à²Ĺ à³Ĩ
p u
Ġi h
áŁ Ģ
Ġi b
ĠL at
Ġ15 0
Ġpos ition
áĤ Ķ
Ú¯ Ø±
ìŀ Ĳ
æľ Ģ
¸ à±įà°¤
çº ¿
est er
ĠR om
¡ °
om at
áŀ¶áŀ Ł
åĬ Ľ
à® ´
Ø¦ ÛĮ
Ġs j
ĠP art
×ľ ×Ķ
Ġæ Ĺ
Ġad alah
à¸¡ à¸µ
ÙĦ Ø§
am en
ĠÐ° Ð±
ĠM il
à«ģ àª
à¤¾à¤ ķ
Ðº Ðµ
Ġs Ã©
Ġh ier
ĠJ ul
w er
k or
Ġon t
l ass
at ive
Ġbe h
io us
u es
ar ia
ĠÄĳ i
à¤ Ń
at z
Ġìŀ Ī
Ġfyr ir
à³į âĢĮ
3 9
Ġbef ore
Ð°ÑĢ Ñĭ
à²ķ à³įà²ķ
Ø§Ø ®
l eri
Øª ÙĪ
m al
Ġh is
u er
et ta
Ġï¼ ģ
ĠB en
Ġå ¹
Ġt Ã¶
à²Ĥà²¦ à³ģ
ĠáŀĶ áŁĴáŀļáŀ
Ġad a
Ġ, \
Ð¸Ñı ÑĤ
ĠÏĦÎ¿Ïħ ÏĤ
Ġk t
Ġ ÑĸÐ½
äº ĭ
Ð°Ð½ Ñĭ
ë į
Ñĸ Ñı
Ġ×ŀ× ¢
áº ·
é ¾
à¸²à¸ ģà¸
Ðµ Ò£
Ġ8 8
å® ¢
ell o
ë¶ Ģ
Ġc Ã¡c
ĠÃ®n t
åŃ ¦
ĠÐ¾ Ð»
t ra
ab i
Ġon der
Ġæ ĸ
Ġê ·¸
Ġà¸ Ń
Ð± Ð°
ĠÐ· Ð½
ĠÃ ľ
Ġ= =
Ġni et
l s
ĠV ol
ĠM i
æ Ľ
Ð°ÑĢ Ð°
Ġà¨ Ĺ
à¹ĥà¸« à¹ī
Ġj est
ĠA fr
Ð³ ÐµÐ½
á» Ŀ
Ñĸ Ð¹
ev er
Õ¡Õ ¦
az ione
Ġtr ue
iv o
ind ÉĻ
ĠÕ Ń
ĠÂ ¤
Ġk ey
Ġ* **
àº ´
Ġë ı
Ġon s
Ġ] ,
ĠT or
ĠE le
Ġ×¢ ×Ŀ
ij os
Ð¾ÑĢ Ð¸
Ð³ Ð¸
it ter
Ġh om
à¯įà® ²
Ġu ch
ĠE k
Õ¥ Öģ
Ġkh Ã´ng
Ãł n
ĠÑį ÑĤ
Ġy ra
Ġni cht
ĠI S
à¸· à¹Īà¸Ń
ĠÑģ ÑĬ
Ã¢ l
ess o
Ġty pe
ĠÕ ¹
y en
eg or
ĠU r
ĠS T
ĠE sp
à¸± à¸Ļà¸
ÑĥÐ± Ð»Ð¸Ðº
Ġw an
Ġon e
ut en
AN G
Ġå½©ç¥ŀ äºīéľ¸
Ġs ar
Ġk il
×Ļ× ļ
Ġso cial
ri o
Ġ×Ķ ×ª
Ġ×Ķ ×¢
áĥĲáĥ Ĺ
áĥĲáĥ ¢
Ġt ime
O P
áŀ¶áŀ Ļ
² áĢ
Ä Ŀ
O K
Ġs itu
Ġ: #
à¨¿à¨ Ĩ
×ľ ×Ļ
Ġj ag
Ġb ud
åĽ ¢
ĠÎ Ĺ
Ġz o
Ġg am
áĢĦáĢº áĢ¸áĢ
à²° à³įà²
ĠÐº Ð¾Ð»
ĠM et
áŁ Ĳ
Ã¨ n
r in
iz e
à§ĩà¦ ķ
ĠO d
ĠI I
à² ¶
ro id
Ġst at
ĠØª ØŃ
Ġm ad
Ġk op
áŁĴáŀ ľ
áŀ ł
Ø§Ø µ
ÐµÑĢ Ð¸
uk e
T G
CHAR CHAR
ĠÎ ®
Ġre z
n al
_ id
Ġe ks
ĠY ou
»áĢ ķáĢ
ĠÎ± ÏĢÎ¿
ĠB al
áŀ¶áŀĶ áŁĭ
Õ Ń
Ġì ĸ
ÑĢ Ð°Ð²
v ed
Ġå Ĳ
à¹Ģà¸ ¥
Ġso ci
à¨ ª
Ð¸Ð¼ Ð°
3 65
áĤ ı
n ic
l em
Ġà°µ à°¿à°
Ġn ec
ĠA f
Ġcon st
og a
aj i
Ġk ita
ĠC an
é ķ
ult ur
4 1
Ġb in
ĠG al
Ġ3 65
Õ«Õ ¯
Ġà¤ ¥
Ġn ed
ĠT V
Ġi ÅŁ
ĠT ar
àµĨ à´¯
Ñģ Ð»
± ä¹Ĳ
Ġpr is
Ġk Äģ
ay e
Ġà® Ĩ
è £
¥ à«Ģ
Ġáŀĵ áŀ·áŀĦ
Ġinter net
å® ļ
it es
ç ¨
à¥ĩà¤ ¶
ÙĬ Ø§
ĠÚ© Ø§Ø±
à®¿à® ¤
à¤¾à¤ Ĺ
it el
à§ ľ
Ġh on
å¥ ½
§ à§
b al
Ġn ar
Ġm w
é ĸ
à¶Ń à·Ķ
as te
Ġà¤Ķ à¤°
Ð½ Ð´
å ģ
Ġdis play
Ġil e
à¥ Į
Ġa ug
áĥĶáĥ ĵ
Ã¼ z
Ġp ort
Ġà¤ «
I n
Ġs es
Ãł y
Â »
sk o
ĠÕ ·
Ġk up
Ġ30 33
¿ áĢ
ut ta
ĠÐ° Ð·
Ġch a
èĩ ª
ÙĦ Ø§Ùħ
à°Ĥà° ¤
en y
çİ ¯äºļ
r ia
à¤¨ à¤¾
j d
Ġp ublic
Ġk v
ÑĢ Ð°ÑĤ
ĠÄĳ Æ°á»£c
Ġt ri
Ġh av
g es
ai p
T A
Ġs ay
íĶ Ħ
à·Ĵ à¶»
Ð½ Ð¸Ð¼
à´¤ àµį
ĠD er
ìĭ ľ
Ġl ist
ik t
6 2
Ĳ áĢŃáĢ¯
Ġs ak
áĭ °
à©Ĥ à©°
Ġn og
×Ļ× ¦
ĠÐº ÐµÐ»
æĸ ĩ
os p
ĠI r
å §
Ġl l
Ġte ch
áĥ£áĥ ļ
×Ļ× ĸ
Õ« Öģ
à¦¾à¦ ľ
n em
ä¹ ĭ
an je
ĠiÃ§ in
Ġh ref
Ð» Ñİ
áŁĤ áŀĽ
àª¾àª µ
Ġmen y
Ġdes c
ĠØ °
Ġsh ow
ĠPro d
k el
ĠÕ Ŀ
íħ Ķ
áĥ ª
Ġà´ª àµįà´°
Ġs ud
Ġpar te
ib il
×¤ ×¨
Ġë ¬
à±ģà°¨ à±įà°¨
it Ã©
Ð¼ ÐµÐ½
ÏģÎ¹ Ïĥ
Ġn r
ç ķ
t al
Ġt est
Ġl og
Ġ3033 102
Î¸ Î·
ad s
Ġì ľ
Ġf ol
Ïĩ Îµ
Ġc Äĥ
ĠØ³ Ø±
ik ip
Ġà¦ ĵ
Ġ6 8
áĥ£áĥ ļáĥĺ
Ð° Ò³
et h
ìĹ ħ
×ķ× Ľ
ç Ħ
ny ch
ec tor
Ġm id
è® ¡
Õ¥Õ ¯
Ä« g
an z
ĠÐ° Ñģ
à§ģ à¦²
Ð°Ð» ÑĭÒĽ
atu re
ÏĥÎµÎ¹ ÏĤ
Ġad min
ĠN E
à´£ àµįà´Ł
à¥ĩà¤ ²
ÑģÑĤ Ð°Ð²
Ġs um
ĠT op
ĠS ie
à¸²à¸ ģ
à¯įà®ķà®³ à¯į
Ġh em
à¹Īà¸²à¸ ĩ
ad u
Ġ20 00
Ð» ÓĻÑĢ
ĠÕ ¬
Ġd id
áŁģ áŁĩ
áŀ¶áŀ Ħ
áĪ ĭ
Õ« ÖĢ
Ð½ Ð¸ÑĤÐµ
å ĭ
un ta
ĠØ¹ ÙĨ
Ġk ok
ĠS el
áĥ ¥
à®¿à®© à¯į
Ġp on
ĠM art
à¹Ī à¸§
ak at
ĠÐºÐ¾Ð¼ Ð¿
Ġw er
b in
ķáĢ ¼áĢ
Ġek ki
Ùħ Ø¯
× £
Ġë ª¨
Ġàªħ àª¨à«ĩ
ĠA mer
à¸µ à¹ī
Ð¼ Ð°ÑĤ
Ġà¦ Ń
Ġ, ,
7 1
o ol
le y
Ġg ra
ĠK ur
Ġ7 8
eci al
Ġpro j
ÅĤ o
4 9
Ùħ ÙĨ
ĠÐº Ð°ÑĤ
Ġ Ĉ
az a
åī į
ÙĢ ÙĢ
à¤¾à¤ ľ
Ð¸Ð¹ Ð³
ĳ áĢ
Ġol d
à· Ĥ
Ġn Ã¡
Ġd ist
ÙĪ Ø§
Ġw ar
Ð² Ð¾ÑĢ
Îº Î±
áĮ Ī
6 3
ĠÕ« Õ¶
Ġk et
×ŀ ×Ķ
ĠÃ¥ r
Ġad d
åĮ ĸ
Ð½ Ð¸Ð½Ð³
Ð°ÑĨ Ð¸Ñı
Ġartic le
Ð» Ð¾
Ġt udi
å¿ ĥ
áŀ Ĳ
it an
ĠÐ½ Ð°ÑĢ
à®¿à® ķà¯įà®ķ
Æ°Æ¡ ng
I E
ĠÂ ³
Ġf ind
om i
Ġv z
Ġf amil
å¨ ±ä¹Ĳ
Ã³ k
Ġf ig
Ġp il
Ñħ Ð¾Ð´
Ġj ou
Ġg ir
Ġfr am
ĠS m
Ġtr ong
á»ģ u
Ġop er
Ġà¶ ī
Ġ×Ķ× ŀ
ĠP ort
ĠN or
î Ģ
ÙĬ Ø³
ow e
in h
Ġ×ĳ ×ŀ×
Ġc n
è ·
à¤° à¥Ģ
Ġå ľ
ĠÐ± Ñŀ
Ġn ou
×Ļ ×ķ
Ġup p
Ġsp r
Ġmen j
ĠÕ ¨
ĠÑį Ðº
im ul
Ġh ay
Ġ: "
ë Ł
ip p
Ġ×© ×Ķ
àª ¯
×Ĳ Ö·
ÑĥÐ» ÑĮ
Ġl ap
Ã¶ s
O V
Ġma ar
ÙĪ Ø¹
ĠÃ®nt Ã¢l
áĪ ¨
Ġm ik
ĸ áĥĶ
Ð½Ñĭ Ò£
Ġal la
Äģ j
R S
èĢ ħ
am is
êµ Ń
à²¾à² ¦
Æ°á»Ŀ i
Ġm ir
Ġf ree
Ġk tor
ĠA ss
ĠØ¯ ÛĮ
Ġl eb
áĥĿáĥ ķ
h or
elef on
à°¨ à±ģ
ÐµÐ½ ÑĮ
od o
áĥ ĳ
Ã ĥ
Ġáĥ ®
Ġd apat
ĠN u
ĠM us
ĠFac ebook
Ð½ Ñĥ
h ol
Ġà¸ Ļ
ĠÙĩ Ø§ÛĮ
áĥ Ļ
ĠÃ ¸
ĠI z
Ø¯ Ø±
Ġà¨ ī
áº§ n
ÛĮ ÙĦ
Ã± a
Ġo ur
ç Ł
à§ģ à¦°
Ġs w
ĠNew s
ĠL u
áĢ¯ áĢŃ
um an
Ð¸Ð» Ð¸
Ãº s
ĠÐ½ Ð°Ñģ
Ġ äºļæ¸¸
Ġ×ĳ ×¢
ĠR ec
ĠP ers
à¸Ĥ à¸Ńà¸ĩ
à¯įà® ³
m eld
ĠE t
ëĤ ĺ
oma in
ĠÐ½ Ð¾Ð²
Ġcon d
à´ ¦
Ġbe i
è ¶
ap an
M A
áĪ «
à³ Ī
ĠÂ» .
Ġm p
Ġn es
áŀĦ áŁĴáŀ
áĥĶáĥ łáĥ
Ñĸ ÑģÑĤ
Õ ·
iy y
ĠP al
Ġ( );
ind a
Ĳ áĢ¬
mas Ä±
à²¿à²¦ à³Ĩ
Õ«Õ ½
Õ¡Õ ¤
o on
Ġ×Ķ× ¤
Ġs ang
Î¿ Î¹
od i
nd er
Ġdet ail
´ Ģ
Ġ×Ļ ×©
Ġit em
Ñĩ Ð°
Ġab out
ÑĤ Ð°Ð½
Ð¾Ð½ Ð¸
Ġä¸ Ģ
A I
Ġç Ķ
à·ı à¶»
à±Ĩ à°²
ÑģÑĤÐ² Ð°
c is
Ġ×Ķ ×¨
Ġw y
êµ ¬
m y
r d
ci o
Ġí Ļ
ĠÑĥ Ð»
Ġor ang
Ġl ine
l os
v ol
ĠÐ¼ Ð¸Ð½
Ġp in
çĻ» å½ķ
à¤¿à¤ ¸
Ġinde x
ìĹĲ ìĦľ
± Û
ter s
Ġb order
Ä ·
Ã¡l l
ur es
Ġq il
) ,
Ġb or
à¶ľ à·ļ
un u
lar i
ĠØ¨ ÙĨ
ÄĹ l
ľ áĢŃáĢ¯
à¹ĥ à¸Ļà¸
Ð°ÑĨ ÑĮ
Ð Ĺ
Ġ! !
² à±ĭ
Ġà·ĥ à·Ĵ
Ġwa ar
Ġse u
Ġl ast
áĥĲáĥłáĥ Ĺ
ì ĨĮ
Ġprobl em
Ġáŀ Ĳ
ob ile
à¦¿à¦ ²
ÄŁ i
Ø¨ ÙĬ
Ġm á»Ļt
àµģà´ ¤
Ġw ak
ang o
et en
Ġà¤ķ à¤¾
Ġp df
ĠB y
ist o
Ġaut o
ov Ã©
T E
Ġb le
é¾ Ļ
áĥĿáĥ ĵ
ÙĪ Ø³
Ò ·
Ð´ Ð°Ð³
ĠTh is
ĠM y
Ġv Ã¤l
Ġ4 00
çĤ ¹
Î± Ïĥ
Ġà¤¸ à¤Ĥ
ĠÐ³ Ð¾
Ã¤ tt
Ġ$( '
ÐµÑĤ Ð°
Î± Ïģ
st en
m on
Ġut il
ĠS z
ag ai
à¤¾à¤ ¦
Ð°Ñģ Ñĭ
ir s
ĠáŀĶ áŀ¶áŀĵ
ĠØ¨ Ú¾ÛĮ
Ñį Ð¹
Ä± s
l ah
4 7
áŁĴáŀĵ áŀ»áŀĦ
à²° à³Ĩ
Ġw al
Ġf Ã¥
à²¿à²Ĥ à²¦
Ġr ad
è ĭ
à²¾à² µ
à®² à¯į
i u
Ġk os
ãģ ©
áŁ Ĭ
à´ ķàµįà´
ĠW a
ra p
Ġtr ad
ie Å¡
ĠÐ¼ Ñĥ
Ġim p
ĠU m
áĥ ¨áĥĺ
s Ã¥
ĠØ§ÙĦ ÙĤ
Ġex p
ĠO ff
ĠAr t
ÐµÐ½ Ð¾
ĽáĢ ½
ĠÏĦÎ¹ ÏĤ
ĠÃ į
Ġd re
eri al
éĥ ¨
Ġáĥ ľ
Ġsy st
áĥĺáĥ ł
Ñı ÑĢ
Ð¸ÑĢ Ð°
Ã© d
is ha
ĠÐ° Ðº
áĥĵ áĥĲ
à² ·
it Ãł
en ie
Ġm end
ĠM u
Ð¾Ñ Ĺ
4 3
er ia
Ãł ng
n os
ĠãĢ į
àº° àº
à²Ĺ à³Ĩ
¶ Ķ
Ġter m
à¶ ³
Õ« Õ¿
c m
Ġac tiv
Ġsi ch
Ġs ka
Ġrev iew
ĠP as
Ġ" >
ĠÛĮ Ûģ
Ġf ut
ä¿ ¡
Ġp age
ĠA L
Õ¡Õ ¢
ĠÖ ²
ĠÐ¿ Ð¾ÑģÑĤ
r um
r ar
........ ........
ĠÐ½ Ð°Ð²
Ä £
lar Ä±n
Ġâ ĸ
Ġim ages
ĠH y
å ķ
à¥įà¤ ¥
è¿ Ĳ
à¨ ľ
à¸Ń à¸¢
I F
ļ Į
ĠO ct
àµį âĢĮ
ĠÐ½ ÑĮ
àµ ¼
ÑģÑĮ Ðº
r id
ãĥ Ĺ
Ð½Ñĭ Ð¼
e x
ĠÕ¡Õ ¼
Ġpro v
Ò¯ Ð»
tu re
ĠÂ ´
Ġu w
in as
ek tr
Ġ200 5
Ġ2 C
å ł
m ed
Ġå Ľ
áĥĺáĥ ª
ĠÐ½ Ð¾
Ġsist em
ĠV is
Ġcom pl
àµ ½
Ð¾ÑĢ Ð°
j al
ĠÐ± Ñĥ
Ġm l
Å¡an as
ot os
ľ Ðµ
ĠÑĢ Ð°Ñģ
ĠK u
è ²
à¸ į
Ġbu y
ĠIn st
à«įàª Ł
Ã¡n ÃŃ
à²Ĥ à²¡
à±įà° ¸
à°ķ à±ģ
Ã³ t
ing er
ĠE v
æ° ´
ÑĢ Ð¾
ra j
Ġs Ã«
à§ĩà¦ ²
Ġà¦ª à¦°
Ġi a
Ġand a
s o
b el
ĠØ§ ÛĮÚ©
à¨ Ĺ
en k
Ġ. [
r ik
am at
ãģĻ ãĤĭ
áŀ· áŀĵ
Ø¯ Ø§Ø±
ÓĻ Ð¼
ÅĻ ÃŃ
5 6
Ġv á»Ľi
æ £
å £
Ä« dz
Ġn ah
åĲ İ
à§ĩà¦ ¶
Õµ Õ¡Õ¶
ÑĪ Ð°
Ġl iv
Õ¡ ÖĦ
áī ³
à°Ĥà° ¡
Ø ¢
Ð» Ð°ÑĤ
am as
ab e
à¤¤ à¤¾
U P
ĠÎ´ ÎµÎ½
Ðł Ñķ
Ð½ Ð¾Ð²
Î½ Îµ
ä¸ »
Ġà¶ Ĩ
ëı Ļ
Ø§ÙĨ Ùĩ
ek e
Ġmak s
àª¾àª ¯
à¦ ¶
Ġs ah
Ġ9 8
mi ÅŁ
Ġs ie
st Ã¤
ĠØ® ÙĪ
ãģ Ī
áŀ ķ
id s
Ġä¸ Ń
ĠH ol
íķ ´
ìľ¼ ë¡ľ
áº¡ n
à® ª
Ð½ Ð°ÑĤÐ°
ĠÙģ Ø±
ĠS E
Ġh j
Ġdo or
×Ļ ×Ļ×Ŀ
Ġest as
ĠI P
Ã ģ
w n
ĠÐ² Ð¸Ð´
Ġku i
ĠA pp
à¹ī à¸§
ĠÐ· Ð°Ð¿
Ġin cl
ĠÂ ®
Ġr end
ĠP R
ÐµÑĤ ÑĤ
uk u
Ġ6 00
b all
Ð°Ñ ī
åľ º
ĠW eb
z u
ez i
Ġà¸ ¡
æŀ ľ
Ġl and
elij k
il t
ĠÐµ Ð´
± áĢ¸áĢ
Ġk it
Ġcat alog
Ġbr and
ÐĲ Ðł
id an
ãĤ ¿
in c
à§įà¦ ·
ek in
Ġu g
à±įà° ļ
Ã¥ n
d d
ĠG er
ĠA B
Ġ":[ "
ÉĻ l
Æ°á»Ŀ ng
in iz
ĠÙħ ÙĤ
Ġz n
éĽĨ åĽ¢
Õ¡Õ ·
ĠÕ į
Ġb isa
ĠPost ed
Ġ. -
è ª
á»¯ ng
Ð «
ĠØ¢ ÙĨ
Ġd est
áŀŁ áŁĭ
áĮ į
à¹ī à¸Ńà¸ĩ
à¸£ à¸´
5 4
Ġlah ko
in an
ĠáĢ ĲáĢ
áŀ¶áŁĨ áŀĦ
I B
Ġ×Ľ ×ľ
Ġsa u
Î¼ ÏĮ
d ay
Ġm ig
ĠD el
ĠÎ¼ ÎŃ
Ġz ap
ĠG i
Ø§Ø ·
ÉĻ b
ĠV o
ĠT el
ĠS P
ÙĦ ÙĬ
×ĳ ×¢
ķáĢ« áĢĲáĢ
Ïģ ÎŃ
ĠÐº Ð¾
Ġk Ãµ
® áĢ¸
ud en
ĠÎ± Î½Î±
Ġa ga
áŁĴáŀ ĺ
Ġà®ļ à¯Ĩ
Ġà¦ı à¦ķ
ter i
Ġt amb
áĭ µ
áĤ ĶáĢ
ë Ĳ
l av
×ĵ ×Ļ
ĠÐ¼ Ð°ÑĤ
ĠS il
æĬ ķ
Ãł nh
bo x
Ġn Ã£o
Ġen c
Î¹Îº Î®
ĠÐĿ Ð°
Ïģ Ïİ
Ġu u
Ġn ing
å¯ ¹
Ø§ ÙĪ
ik in
st ra
ag y
ĠÎ ¹
áī ł
Ð¸Ð½ Ðµ
Ã§ Ãµes
Ġc il
à°ª à±įà°ª
Õ¶ Õ¥ÖĢÕ¨
g al
ĠÐ± ÑĢ
Õ¡ÖĢÕ ¤
Ġê¸ °
ĠW H
ĠC a
ãģ Ĭ
h am
ĠÑĩ ÑĤÐ¾
ĠÎµ Îº
ĠE S
å¿« ä¸ī
ãĢ ģ
ur an
ell en
Ġì¹ ´ì§Ģëħ¸
ĠÑĤ ÐµÑĢ
ĠÑĢ Ð°Ð±Ð¾ÑĤ
à¸Ħ à¸§à¸²à¸¡
x e
ĠÐ½ Ð°Ð¼
à²¾à² ¯
à¥ģ à¤¨
Ñį Ð¼
Ġì §
ĠØ§ÙĦ Ùģ
ĠÕ« ÖĢ
Ġ" ).
×ĳ ×ľ
Ġr om
Ġk Ã¶z
Ð°Ñ Ĭ
ĻáĢ ¾
Ġ' '
ãĤ £
àµģà´ ®
Ġà¸ «
Ġ×ŀ× ª
Ġr ak
Ġp et
Ġd ro
àª ¡
ed s
Ñĭ ÑģÑĤ
Ġb it
è °
Ã¼ t
Ã į
5 8
ĠÐ Ĩ
Ġthe ir
ĠC r
à²¿à² ²
Ð¾Ð½ Ð´
Ġ7 7
à·Ĳ à¶±
Ñĸ ÑĹ
ie j
R A
ĠL i
à©į à¨°
I m
Ġl ÃŃ
áģ ¿áĢ
Ä± lÄ±
Ã¶ t
Ġals o
áĥĿáĥ ļ
áº£ i
à¸£ à¸²à¸
ak ar
ĠÂ ¶
Ġg eb
è§ £
g el
Ġï¿½ï¿½ï¿½ï¿½ï¿½ï¿½ï¿½ï¿½ ï¿½ï¿½
Ġ×Ķ× ¡
Ġl ik
à¸£ à¹Į
Ú© ÛĮ
Ġ×ľ ×ŀ×
Ġv et
à¸Ļ à¹Ģà¸
Ñģ Ð°Ð½
nd an
Ġs ul
Ġk art
à²¾à² ²
Ġs he
ĠS port
ĠÐ° ÑĤ
Ġole h
ĠN et
Ø® Øª
g h
ag er
Ġv eg
Ġm Ã©s
æĹ¶ å½©
ant es
Ġaw á»įn
á» ķ
Ùĩ ÙĨ
Õ¾ Õ¡Õ®
ut t
ĠØ ¶
Ġvo us
é Ĵ
é ¦
àª ¦
im b
Ġà¶ Ķ
ĠØ§ Ù¾
Ġ12 0
Ùħ ÛĮ
áŀĶ áŁĴáŀļáŀ
ħ áĢºáĢ
Ġmed ia
ĠB i
æĸ Ļ
å¤ ĸ
à¶º à·ı
à±ģà° ¤
re z
c ion
ĠÐ° Ð¼
Ġcon f
Ó© Ð³
Ð°ÑĢ Ð´
is sa
ch od
AN D
Ġs at
àª Ĺ
m it
ĠÎµ Î½
Ġkat ika
à°¾à° Ĥà°
Î ¤
Ġì §Ģ
ĠÃ µ
ìł ķ
ãĤ ģ
ta a
Ġsup er
Ì ģ
ĠØ§ÙĦ ÙĨ
Ġpr ost
Ġe h
Î¼ Î¬
Ġpr zy
Ġog sÃ¥
ĠF il
éĿ ¢
à¥įà¤ ®
n ek
Ð»Ð°ÑĢ Ð¸
Ïĩ ÎµÎ¹
ÉĻ y
ĠÑģ Ð°Ð»
ãģĵ ãģ¨
Ð¿ÑĢ Ð°Ð²
re a
ĠÐ¾ Ð²
a is
çİ °
àº² àºĻ
Ġì ļ
Ġpos s
O B
Ġ: -
n um
ĠÎ¿ Î¹
Ġc li
ĠK l
ÙĬ ÙĪ
Ø§Ø ¶
h s
Ġv ari
s ite
ĠÑĤ Ð°ÑĢ
à¥įà¤¯ à¤¾
×Ľ ×ľ
ĠâĨ Ĵ
Ġen s
Äĥ r
Ġ×Ķ ×ķ×Ĳ
ĠÏħ ÏĢ
Ġb id
us te
Ġm ost
áŁĦ áŀĻ
ung en
ig o
Ġàª Ń
Ġsz er
Ġf und
åĨ Į
à¦ ļ
ãģĭ ãĤī
à®¾à® ¤
ÒĽ Ð°
Ġà¶ ¢
Ġw i
àµįà´ ³
Ġpr ice
ì ŀ¥
hi ch
ĠR ev
ĠØ¬ ÙĬ
Ġ×ĸ ×Ķ
Ġdel s
åĪ ©
ĠÑĢ Ð¾Ð·
ĠÐ¿ Ð°ÑĢ
ĠH et
Ñĸ Ð¿
ÙĦ Ø¨
Ġk ter
à¹Ī à¸²
Ð» Ð°Ð³
is mo
ĠÆ ı
Ġh ak
í Ħ
Ġà´ °
Ġà¨¦ à©Ģ
Ġor ig
Ã¤ ng
f ar
k it
ir an
idad es
Ġf re
ä½ĵ èĤ²
ĠÐ¾ÑĢ Ð³Ð°Ð½
ĠÐ» Ñİ
Ġprof es
ä¹ Ł
à³įà² µ
Î Ŀ
Ġl ike
Ġe p
áŀı áŁĴáŀı
àµģà´Ł àµĨ
es c
ĠÚ© ÙĨ
Ġp le
Ġma in
åĬ ¨
ik at
Ġer a
àºĩ àº
ĠTr ans
Ġ. :
æĹ¶ æĹ¶å½©
ie c
Ġs ou
à´¨ àµįâĢį
ÄĹ j
ĠG ro
ë ª
áĪ Ľ
ÄĽ t
Ġbl ock
Ġal d
ĠS erv
r ad
et u
Ć Ĉ
ÑĬ Ð»
ľ áĢ¯áĢ
ĠÙħ Øª
éĢ ļ
áŀ¹ áŀĦ
à§ ¦
f u
Ġde g
à¦ Ń
or it
Ġà¸ Ī
ĠÐ¿ Ð¾Ðº
ĠInter n
ĠGo ogle
à» į
à¶¸ à·ı
Ġb h
ĠØ¬ Ø¯
Ġn Ã³
Ġda ar
ĠI sl
Ġku wa
Ġ() {
Õ ²
is Ã«
ide os
P h
Ġng Æ°á»Ŀi
ĠO m
ÐµÑĢ ÑĤ
f ur
Ġl in
ãĤ Ħ
à¨¾à¨ ¨
st o
ĠÑĤ Ò¯
à´¿à´ Ł
ĠÐ¸ ÑģÑĤ
ok i
Ġt ap
Ġna ch
ĠD on
çī Į
åİ ħ
Ġex per
ĠU p
Ð¸Ð» Ð°
Ð· Ðµ
ĠPro f
Ùħ Ø±
Äħ c
Ã ľ
ĠD ownload
ì Ĭ
à¤ ģ
Ïĥ Î¹
ĠV a
ĠG l
à¨ Ī
Ġs r
Ġpr os
à¤¾à¤ ī
ĠÎµÏĢ Î¹
ĠÐ¿ Ð¾Ð¼
Ġk ost
an h
Ġar Ä«
Ġ' );
ĠÃĲ Âµ
Ġe ine
Ã¼r k
à¯ģà®¤ à¯įà®¤
Ġàª¹ àª¤
ĠN i
à¤ ¼
ĠãĢ ĭ
Ġd v
Ġan s
æ Ł
Ú¯ ÛĮ
eb ut
Ġ< /
áĥĿáĥ Ĵ
Ġæ Ŀ
Ġà¨ķ à¨°
Ġbes te
Øª Ø§
Õ¥ÖĢ Õ«
Ġs ind
Ġer e
w ay
ie f
Ġdoc ument
ÙĪ ÙĤ
ĠB as
à±ģà° °
emb re
Ġà¦ ¥
ĠÙħ Ø¯
ÃŃ ch
q a
is u
Ġy er
ÏĨ Î¿
Ġinter n
ä» £
Ġy an
Ġd il
à¸¹ à¹ī
Ġk us
à®¾à® Ł
Ð°Ñ Ķ
tik el
Ġà² ¶
Ġd ah
ĠP ump
à¶± à¶º
à° ¬
Ð°Ð» Ñĭ
5 3
ĠÐµ Ð»
à¥įà¤ ¨
Äĵ m
ĠÓ© Ð·
à¶½ à·ı
à°² à±ĭ
Ùĩ âĢĮ
aj e
Ġà² ļ
à¤¾à¤ ĩ
Ġcom e
ç Ŀ
Ãł i
ĠìĿ ´ë
ĠÅ¼ e
áĥķ áĥĶáĥļ
à°¾à° ¤
p at
ĠÐ½ Ð°ÑĪ
ĠT ra
ãĥ ķ
ÙĦ Ø³
Ã¸ l
eg i
Ġà´ Ĵ
Ġ×ŀ× Ĺ
ĠÐ· Ð°Ðº
Ġme er
up a
à¹ģà¸ ¥à¸°
Ġí ĺ
Ġav ec
Ñı Ð½
at ud
Ġp Äģr
Ġh eb
áŁĦ áŀĢ
d Ä±r
ĠáĢ ĢáĢ
è¿ Ľ
Ã ī
m ak
Ġà¹ Ĥ
à° ľ
p ad
Ġà¨¨ à©Ĥà©°
Ġpad ding
ĠF ree
Ġë° Ķ
c om
Ġáŀĵ áŁħ
Ġel ektr
áĥĶáĥĳ áĥ¡
à±įà° ®
Ġv en
Ġol an
ĠH D
ÅĽ Äĩ
Ġc amp
ĠBl ack
Ķ áĢºáĢ
ĠL o
å ¦
à°¾à° ®
or en
Ġv iew
à«ĩàª ²
à¥ĩà¤ ¤
Î ¡
ard s
ĠÙĨ Ø¸
à° £
Õ¸ÖĤÕ µ
ra y
Ġre f
é ļ
t l
Ġau ch
Ã ĩ
Ġa ku
à¤¿ à¤°
ĠÛ ±Û
ĠÖ ĥ
Ġb is
ĠÔ µ
áŀ½ áŀĻ
Ð¼ Ð°Ð½
y tt
un s
ip s
åĮ º
äº İ
à¦ ¯à¦¼
Ø¨ Ø§Ø±
Ġï¼ Ł
ĠÅ ½
à¹Ħ à¸Ľ
ĠÎŃ Î½Î±
à°¿à°ķ à°¿
q ip
ĺ áĢ
ĠÒ »
Ġt ers
ÙĦ Ùī
Ð°Ðº ÑĤ
Ðº Ð¾Ð²
Ġv l
Ġp s
Ġn el
ĠM ot
å ½©ç¥ŀ
Ïĥ ÏĦÎµ
Ġde i
ÐµÐ½ Ð´
at ik
am m
Ġå ¥
Ġthe y
Ġkon s
à¦¨ à§įà¦
Ð± ÐµÐº
iv i
am er
Ġt rav
Ġs ÃŃ
ĠS ub
à¦¤ à§ĩ
ikip edia
Ġ> <
à¶» à·Ķ
Ä« v
à´ Ĺ
ÑĢ Ð°Ð·
Ġáĥ ¥
Ġt w
Ġà² Ī
àºĶ àº
à¤°à¥įà¤ ¨
Äĵ l
ĠáĥĲáĥ Ľ
Ġà¶± à·Ĵ
à´¾à´ ¤
Ä« bu
if e
Ġn ab
Ġà¨ ļ
ĠÐ¶ ÑĭÐ»
Ġ? ????
æ ¥
Ġy ar
uc k
k ez
æ º
àª ľ
end i
Ġk ay
Ð¸ Ð¶
Ġí ı
Ġd ra
8 3
ĠÐ¸ ÑĪ
ov i
lar a
Ġw hich
ÑĤ Ðº
ĠÂ £
å »
ÐµÐ¼ Ð°
Ã± o
Ġk em
áº£ n
is che
Ġ×Ķ× Ľ
ĠÐ½ Ð°Ð´
ĠP res
Ð¾ ÒĽ
Ð¼ ÐµÑĤ
à¯ģà® Ł
Ð¸ÑĩÐµ ÑģÐº
Ä« j
op e
6 9
Ġà¦¸ à¦®
ĠV ideo
ç» ı
h as
Ġm ol
ì Ļ
Ð¾Ð³ Ð°
ãĥ Ń
Ð¸ ÒĽ
il ar
ĠApr il
ÏĦÎ± Î½
Ġre aliz
×Ļ× Ĺ
Ð² ÐµÑĤ
ĠT ak
ur o
ĠÐ² Ñĭ
Ġp rac
à¸ ł
ÑĪ Ðµ
Ġáĥ ¤
ĠØª Ø¹
ÐµÐ» Ð¸
Ïĥ Î±
ĠâĢ º
Ġmer eka
ĠS ol
à¯įà® ©
ÏĦ Î¯
Ġth em
Ġl ak
Ġd un
à²¾à²Ĺ à²¿
ÑįÑį ÑĢ
ec a
am u
Ġ6 2
id ir
D E
Ã¡ b
ma il
is hi
Ð°Ð· Ð°ÒĽ
our s
ich a
ĠØ¯ Ø§ÙĨ
ìł Ħ
à°² à±ģ
ri z
ij u
G A
ĠØ§ÙĦ Ø¬
Ð´Ñĭ Ò£
j ak
ĠØ§ÙĦ Ø¥
à¯ģà® ®
in ÉĻ
am es
Ġn hi
Ġm s
Ġal g
ĠI ng
Ð¾Ð½ Ð°
ff er
Ã¼ s
ic es
Ġà² Ĵ
Ġà¦ ²
ĠA nda
æ ģ
ÐµÑĢ Ð³
id u
ĠÒ³ Ð°Ð¼
á»ĳ ng
à¸¸ à¸Ķ
Ö °
ĠÐ¿ÑĢ Ð¾Ð´
Ġett Ã¤
ìķ Ħ
éģ ĵ
áĥĲáĥ ĺ
ĠâĦ ĸ
Ñ ļ
Î¹Îº Î¬
Äģ l
Ġà¤ı à¤ķ
Ġ×ŀ× ¡
ĠÒĽ Ð°ÑĢ
ÑĥÐ² Ð°ÑļÐµ
d s
ĠÙĨÛģ ÛĮÚº
ĠÐ± Ð°Ð»
Ġp ul
Ġol du
P S
à´¿à´ ¤
à¤ķ à¤¾à¤°
Ġáĥ ©
ĠÙħ Ø§
Ġg Ã¼n
ĠL ib
ci as
ĠáĥĴ áĥĲáĥĽ
Ġà¤Ĺ à¤°
it os
ĠÒ ±
ĠV e
è½ ¦
åĪ Ĵ
áĥĿáĥ ł
p k
Ġd av
Ġ8 4
Ġdes ign
8 2
àº² àºĻàº
à¹Ī à¸Ńà¸ĩ
à°¿à° ª
ÑĨ Ð¸Ñı
l ement
Ġp rav
Ð» Ð°Ð²
ut er
ov o
áŀĢ áŀ¶áŀļáŀ
Ðµ ÑĦ
or r
ĠÐ± ÑĭÐ»
Ð ħ
n ar
Ġt ing
im u
Ġk ind
à¯įà® µ
Ø´ ÙĨ
à¹Ī à¸Ļ
Ġj ust
áĥ ¬
àº ·
à¶ ¢
Ð°Ñģ Ð¸
Ã¢ y
Ġit s
Ġ7 2
Ð½Ð¾ÑģÑĤ Ð¸
ver t
on te
ĠD om
Ñģ Ðµ
at y
Ġg ev
æĪ ĳ
al y
M L
Ġw ork
Ġph p
Ġn atur
ç ©
ä» ¶
åį ģ
ta v
ro j
in te
Ġìķ Ħ
Ġpri v
Ġd ik
æĥ ħ
on der
ber g
Ġs ho
à®Ļ à¯įà®ķ
w y
s ka
av o
Ġ×ĳ ×¨
Ġ8 2
æ³¨ åĨĮ
Ùĩ ÙĬ
Ġà¨ Ĩ
ĠÂ ¿
Î¼ ÏĢ
ĠÑī Ð¾
Ġk ry
ĠS ing
ĠP at
Ġ" );
in ess
Ġes s
æľ Ł
Øª ÛĴ
ÉĻr bay
Äĥ m
Ã ĸ
Ġn om
tic o
ĠS w
ĠS om
ÙĬ Øª
à®± à¯įà®±
Ã¨ re
ir es
im al
ĠìĿ ´ì
ãģ ¡
Î £
à¥įà¤ ²
es p
c at
0 5
à° ¹
×ł ×Ļ×Ŀ
O W
ç µ
ag g
Ġp ay
åº ¦
à¸ ¨
ĠÃ¾ aÃ°
Ġs aj
åı £
ãģ Ľ
ĠØ§ÙĦ Ø´
ĠÎº Î¬
Ġh id
Ġe u
ĠAug ust
p li
ĠØ§ Ø±
ì² ľ
Õ¸ÖĤÕ ½
ãĤ ·
Ġà²ħ à²µ
Ġà¨µ à¨¿à¨
Ġb ra
áĢĢ áĢ¹
ÑĸÐ½ ÑĸÒ£
ÐµÑģÐ¿ ÑĥÐ±Ð»Ð¸Ðº
an an
Ġd ru
Ø° Ø§
×¨ ×Ļ×Ŀ
ap e
Ġà² Ń
Ġ9 7
Ġ7 4
à¹ī à¸²
à¹Ħ à¸¡à¹Ī
ÑĨ Ð¸
ĠØ¨Ø± Ø§ÛĮ
ĠP od
en z
an ti
ie g
e ft
ĠâĢľ ,
Ġk ah
æ ©
Ð½ Ð³
à¸Ī à¸°
Ġz v
Ġb un
ĠA R
Î»Î» Î¬
g ang
S t
AAAA AAAA
rat is
Ġ×ľ ×¢
Ġu b
Ġh indi
el er
Î´ Î±
rip tion
æķ °
Øµ ÙĦ
ĠÖ ī
ĠÑģ Ð°Ð¹
ä» ¬
Ð¹ Ð»
Ġàªª à«įàª°
Ġz ak
Ġà° ¶
ĠF ebru
æ° ĳ
Ú »
ĠØ¬ ÙĨ
Ġ×ķ ×Ĳ
à¤¿à¤¯ à¤¾
Ð½ Ð¾Ð³
Ġnh á»¯ng
à³įà² ·
og ra
é ħ
Ð¸ÑģÑĤ Ð¾Ð½
Ġìŀ Ĳ
Ġt Ã¶r
à¦¾à¦ ¹
ib a
Ġf em
Ġab s
ĠMa x
àª Ł
Ġà´ ¬
ĠØª Ùĩ
Ġ25 0
à² ļ
ĠØ§ÙĦ Ø¨
Ã ĵ
op le
ĠÐ¿ÑĢ Ð¸
Ġkt Ã³
Ð» Ñĭ
} .
ĠÄĳ á»Ļ
Ġst and
å± ±
Ġdi en
} ;
Ġng ud
Ġj ar
ĠS ec
ĠD ep
Ġ"}, "
åŁ İ
à¤¹ à¥Ģ
ning s
ĠØ¨ ÙĦ
Ġa ya
ĠG a
Î¿ ÏĤ
P r
ĠÖ ħ
ĠÎ ¦
Ġup or
Ġnh Æ°
as k
áŁĨ áŀĸ
Ðº Ð¾Ð»
imul yo
Ġr en
è Ĭ
Ú ª
Ø§Ø¦ ÛĮ
Ã Ħ
8 7
Ġà° ¹
ĠÕ¨ Õ¶
Ġngud imulyo
Ġj y
å¾ Ĺ
Æ°á»Ľ c
Ġà° Ń
Ġà¦¹ à§Ł
Ġw el
Ġob j
ë° Ķ
Ö ĥ
à©ĭ à¨Ĥ
m ark
l ov
is ch
H E
= =
Ġk Ã¶
Ġde p
ëĭ Ī
Õ¡Õ´ Õ¢
Ġb ers
ĠC he
Ġà» Ģàº
Ġpro te
áºŃ n
ĠÃ ¦
Ġf j
ÙĪ Ø¬
Ġìł ķ
Ġte h
á»© c
Ġ×ľ ×©
ĠÐ´ Ð²
Ġproduc t
ĠK e
ĠB ir
æı Ĳ
à²¾à² Ĥ
iy o
ĠÚ© ÛĲ
ĠÑĥ ÑĢ
Ġw ie
à²¾à² ®
Ġn one
ib i
Ġz i
à´¾à´ ²
Ê »
Ġà§ ¨
ĠÃ¾ ess
à´± àµįà´±
Ġ9 6
¤ ĳ
ug h
ik l
h em
å° ±
Ø ¡
O C
Ġf av
íĦ °
Ã© c
im et
ed z
ĠØ§ÙĦ Ø®
Ġp es
à·Ĵ à¶ļ
ļ áĢ
å ¢
el m
Ķ áĢ¹áĢ¸áĢ
Ġà´ ī
íĻĶ ìĿ´íĬ¸
íĶĦ íĻĶìĿ´íĬ¸
ÐµÐ´ Ñĸ
»áĢ ĸáĢ
ĠãĢ Į
Ġà²®à²¾à² ¡
ĠÑģ ÑĥÑĢ
ĠÐ± Ð¸
Ġ ^
Ð½ Ð°Ð»
pl o
Ġzd rav
Ġor d
Ġj ob
ĠE N
à¸± à¸ļ
ott om
ĠØ§ÙĦ Ø¯
áĥĺáĥ ¢
er es
ĠÐ¿ Ð¾ÑĢ
Ġ6 3
z k
s ch
] ,"
ĠÐ´ ÑĢ
æ ¶
á»± c
à¸± à¸Ķ
ess ion
Ġ×Ĳ ×ľ
à°Ł à±įà°Ł
ro om
ĠìĿ ¸
¬ ¬
D A
Ġ200 4
Õ¸ÖĢÕ ®
ĠÑĤ ÐµÐ»
ig u
Ġà¸ ļ
ĠÐ¶ Ð°
ĠÃ¾ vÃŃ
áĢ¬ áĢĢáĢ¹áĢ
ĠB R
Ó© Ó©
Ġmen u
Ġd im
ĠG od
à¤ķà¥įà¤ ·
ÃŃ r
áŁĴáŀļáŀ »
à¦Ł à¦¿
ÛĮ Ø²
Ú¾ Ø§
Ã´ i
Ġdat ing
em os
K ey
åĲ Ĺ
w s
Ð½ Ð°Ð¹
Ġnew s
à¨¤ à©ĩ
ÏĦ ÎŃ
lÉĻ ri
in ti
ĠìĿ ´
ĠN g
ï º
á» Ń
r z
Ġhel p
ĠU l
ĠP et
éĹ ¨
ĠáĢ ľáĢ
ĠÃ¶ z
Ġsp ort
Ġpre z
Ġ8 9
à¹Ģà¸ Ĥ
Ó ¯
ĠÅ¡ e
Ġpro ces
àª¾àª ¤
c ent
ĠÒĽ Ð¸Ð»
Ùģ Ø±
Ð³ Ð¾Ð²
ak in
ĠÐ¼ Ð°Ð»
Ġs aya
Ġqu al
ÙĤ Øª
Ð¾Ð´ Ð°
q i
Ġre al
Ġi y
ĠS ur
o ch
ac ional
ä¿ Ŀ
re am
8 4
ĠD it
ĠÐµ Ðº
Ġper o
Ġcom un
æŃ £
n Ä«
ĠÑı ÐºÑĸ
Ġh ome
ow y
×ķ× ŀ×
Ġpr om
çī ©
Ø³ Ùħ
ep at
é ª
ÅĤ y
Ġs ama
Ġ8 6
Ġit o
à°¿à° °
Ñ Ľ
ÏĦÎ¹Îº ÏĮ
Ġæĸ °
Ġdi ra
ĠP ark
ĠG ar
im iz
Ġo or
áŁ ł
w at
Ġresp ons
à± Ĥ
Ø² Ø§Ø±
Ð½ Ð¾Ð¼
Åĳ l
ent ar
Ġf ran
Ġa si
áĢĦáĢ¹ áĢ¸
Å¡ a
ĠØ´ Ø±
Ġo ma
Ġe qu
Ġdi es
Ġb ere
áŀĵ áŁĴáŀı
Î¬ Ïģ
Ġ×ĳ ×©
r or
is o
Ġun ha
à´ ´
ug ar
ĠáĢ ¡
tif ic
Ġh un
ĠR E
ĠP ara
åĨ ħ
Ñī Ðµ
Ġ×Ķ× §
ĠF er
ĠCl ass
áŁĴáŀ ĭ
à°¾à° ķ
Ġà¦ «
ëĵ ľ
à¹Ģà¸ Ķ
ri f
in ar
ĠÙħ Ø¬
à°¾à° Ł
à¤¨ à¥Ģ
ÑĨ Ñĭ
it Ã¤
ĠÚ©ÛĮ Ø§
×Ĳ ×¨
Ò¯Ò¯ Ð»
í ļĮ
Ġed he
á»ģ n
á» £
ept ember
ĠK h
Ð¸Ñ Ľ
B A
ĠØ± Ûģ
Ġs ag
ÓĻ ÑĤ
à¹ ģ
Ã ¾
id es
ĠO f
Ġà¦Ĩ à¦®
Ġà¦ ĩ
Ġd op
è¿ Ļ
ãĤ ¦
p ap
Ġma il
Ġà¹ Ħ
Ġm ass
ìĥ ģ
t em
ad em
Ġå ¿
Ġâ Ĺ
ĠÅ Ľ
æĹ Ĺ
áĥĿáĥ łáĥ
j at
ĠáĬ Ĳ
Ġleb ih
ÉĻ d
Ã¦ k
x y
ĠÕ° Õ¥Õ¿
è Ĳ
Ã° ar
¥ ¿
te v
Ġb ro
ĠI D
åħ ĥ
áŁĴáŀ ĳ
Ð² ÐµÑĢ
is ka
ez e
N A
Ġc am
Ġ200 3
Õ¥Õ ´
Ñĩ Ð¸
Ð°Ð½ Ñģ
Ä ı
ro b
ind en
ac o
Ġà¦ Ł
ìĸ ĳ
Î¼Î± ÏĦÎ±
áº§ u
ing u
Ġv as
Ġde al
Ġa ur
ĠS im
Ġ8 3
Î»Î¿ Î³
x i
é ĥ½
Õ¸Õ ½
ĠÐ° Ð¶
ĠÄ ī
Ġde b
çŃ ī
à¦ §
åı ĸ
Ġê² ĥ
Ġt ij
Ġo st
à¸´ à¸Ķ
ĠìĹ ¬
Ġst yle
Ġkep ada
Ø§Ùħ ÙĦ
Ðł Âµ
Î¼ Î·
ung s
at zen
Ġpl ay
áŁĨ áŀİ
à¥ĩ à¤°
ÐµÑ Ľ
Ð¡ Ð¢
Ã ĳ
Ġa ma
à®³ à¯į
id os
ìĽ Ķ
w are
à²¦ à²²à³įà²²à²¿
eb er
à¸Ļ à¸µà¹ī
×Ļ× Ĵ
n as
I Z
ĠØ§ Ø¨
Ġper f
Ġm ell
Ġim g
Äį nÃŃ
Ġv ot
Ġm Ãµ
Ġat s
ĠB on
ĠAz ÉĻrbay
Ġ7 6
ãģ ¤
ÃŃ l
ĠÐº Ð°Ð»
Ã ¯
ĠvÃ¦ re
Ġsa at
Ġm ula
Ø ¤
Ð± ÑĢ
un an
iy et
ĠæĪ ĳ
ë ¯¸
ãĥ ¥
Ġ×¤ ×¨
ĠAll ah
Ġà´ ľ
ĠØª Ùħ
d om
any ak
ĠB il
Ġ ć
ìĹ ¬
5 9
æĬ Ģ
Ġres ult
Ġfir st
Ġer u
ĠI B
ì Īĺ
à¸ ĺ
el ig
ac t
ĠÑĩ Ð°Ñģ
ĠÏĮ ÏĦÎ¹
ìķ ½
åĳ ĺ
áĥĺáĥ Ļ
à²Ĥà² ¬
à¤¾à¤ ª
U D
ç« ¯
à§ ĥ
ĠF a
ÙĪ Ø§ÙĨ
Ķ áĢº
Ġz ar
áĪ ħ
áĢĢ áĢŃáĢ¯
it us
as jon
Ġà¸ ŀ
Ġn in
Ġë ĵ
ĠáĬ ¨
Ġà¦ ĸ
ĠÙĦ Ùĩ
ĠÙ¾ Ø§Ú©
ĠÃ¶ n
ĠP S
à¹Ģà¸ Ĺ
à¸± à¸§
ÃŃ nh
r im
if t
5 2
Ġâ Ķ
Ġà° Ī
Ġb ank
Ùģ Øª
Ñį ÑĤ
r s
f ul
Ġc um
ÃŃ k
li p
ĠC ity
áĪ ļ
à§ĩà¦ Ľà§ĩ
à¥įà¤ ª
P R
Ġwa x
åĲ Į
× ³
Ġà® Ĵ
Ġ×ĳ ×Ķ
Ġ100 0
åĲ į
it ed
indow s
f ir
ar g
an na
Ġëĭ ¤
ĠN am
Ã¦ Ã°
àµģà´ ³
à®² à¯įà®²
Ô± Õ
v ir
Ġs end
ģ áĢº
Ġo ther
ÓĻ Ðº
Ġ8 1
áī £
ES T
Ġth u
ĠF e
ĠD I
çł ģ
à°ķà±įà° ķ
×ŀ ×¨
Ġ×ĵ ×Ļ
ĠÐ²ÑĢ ÐµÐ¼
Ġk j
Ġ6 9
æĶ ¿
Ð°Ð½ ÑĤ
u en
b or
Ġk ak
ĠD em
Ð» Ð°Ð¼
---- ----
Ġ} );
Äį e
ing a
Ġf am
ìĸ ´
ãĤ «
iy or
Ġáŀ ł
Ä± na
r ak
c tor
at Äĥ
Ġà¸ Ĺ
ĠÑģ Ð¸
Ġc c
Ġaf ter
ĠM ol
ĠK i
ĠK as
ĠB est
à¸± à¸ģà¸
Ø§Ø¯ Ùĩ
Ġæ µ
ĠÄĳ Ã£
Ġàª «
Ġz en
Ġus e
Ġm ens
Ġil ÉĻ
ĠR ob
åº Ĺ
àª ¥à«Ģ
v u
M S
Ġt un
Ġan ti
ì ½ľê±¸
à¯ģà® ±
Ñı Ð¼
Ġs id
Ġest Ã¡
æīĭæľº çīĪ
à¸Ľ à¸£à¸°
b j
ĠÐ· Ð°Ð¼
ĠB ur
è¿ ĩ
ç¤ ¾
åħ ³
ãĤ ı
Î» Î¬
Ġ×ĳ ×ª
Ġp ast
Ġd ownload
ĠK os
æĢ Ŀ
ist an
ĠIn form
íķĺ ëĬĶ
çĲ ĥ
à«įàª ¤
ÙĦ Ùĥ
Ð°Ñ ĳ
Ġìł Ħ
Ġt et
Ġf ull
è¡ ¨
à°Ĥà° ²à±ĭ
àª ³
Ġà§ §à§
ĠÎ Ĵ
Ġko h
Ġd aha
Äį en
ĠÙĪ Ø±
Ġop p
Ġk ann
Ġiz an
éĹ ´
çĽ ®
´ë Ŀ¼
Ķ áĢ¹
Ġà´µ à´¿à´
Ġl ive
ĠF re
àµĨ à´¨àµįà´¨
à²¦ à³ģ
ÏĦÎ¹Îº Î®
ch o
ar te
ĠÐĳ ÐµÐ»
ĠÐº Ð¸
æİ Ĵ
ãĥĥ ãĤ¯
à² ľ
Ð¸ÑĨ Ð°
n im
is c
5 1
ĠÐ¿ Ð¾Ð·
áŀ¶áŀ ĸ
Ġáŀ ľ
ĠÙ ¹
Ġw p
Ġl im
å® ŀ
Ð´ Ð·
Î¼ Î²
n ess
Ġà®ĩ à®°
Ġm g
ĠC ap
ri end
Ĭ áĢ¹áĢ
ĠÐ± Ð°Ñģ
à¥ĭ à¤Ĺ
à¤ «
Ġà²µ à²¿à²
Ġ×Ķ ×ĳ
Ġm ur
Ġd la
Ġ, âĢĿ
ÑĥÑĢ Ñģ
ĠZ a
ĠM ak
O G
à¸´ à¸ķ
Ùħ Ø§ÙĨ
ost o
ĠÙĨ ÙĪ
Ġan meld
ĠU s
éĩ į
áĥĺáĥ Ľ
Ġàªķ à«ĩ
Ġsi is
Ġmin ut
Ġch at
Ñı Ð²
z at
Ľ Ħ
ĠÐ¼ Ð°Ñģ
ĠM ul
Ć ć
Ð» Ð°ÑĪ
Ġ6 7
á»ĩ t
Ñĭ Ð²
ra h
Ġ×ķ ×ŀ×
à¸± à¸Ļ
à©Ģà¨ Ĩ
à¥ĩ à¤ķà¥ĭ
r ing
Ġsub d
ì¶ľìŀ¥ ë§ĪìĤ¬ì§Ģ
ill er
Ð» Ð¾Ð²
Îº ÏĮ
is in
Ġé ĩ
ĠC ons
å¿« ä¹Ĳ
à¦¾à¦ ª
c ed
Ġàª ļ
ĠÑĤ Ó©
Ġte en
ÙĨ Øª
Õ¡Õµ Õ«
±áĢ Ľ
Ġtel ah
ĠF i
ì °
Å¡ ana
f en
Ġà¤ ¡
Ġb Å«
éĩ Į
áĢ· áĢ
ez d
Ġìĺ¤ íĶĦíĻĶìĿ´íĬ¸
ĠÐ¿Ð¾ Ñĩ
Ġre qu
àª §
ĠW est
ĠU N
ung an
it ate
d ate
av i
Ġt elefon
ab o
Ġà¤¹à¥Ī à¤Ĥ
Ġk hi
ĠP en
F F
ÙĬ Ùģ
Ð± Ð¾ÑĢ
Ġà¶ Ĵ
Ġk ami
ãĥĥ ãĥĪ
ÉĻ lÉĻr
± àµĨ
sk ap
and er
ĠØ¥ ÙĦÙī
ĠÐº Ñŀ
Ġan ak
à°¿à° ²
az io
at ta
ĠÑĤ ÐµÑħ
ĠP C
í Į
æ į
áŁģ áŀŁ
á»Ŀ i
Î» ÎŃ
S S
ĠáĢ ĽáĢ
ĠV il
ÖĢ Õ¡Õ¶
l im
c ar
à°Ĥà° Ĺà°¾
re en
Ph one
Ġá º
ĠÐ´ ÐµÐ¿
ĠUS D
ĠM ont
æľ į
Ñģ ÑįÐ½
Ġmas k
ìĬ µ
ãĥ ŀ
Ö ´
Ġb az
Ġb ad
Ġan o
áĥĲáĥ Ļ
es tiv
c ul
Ġç ļĦ
Ġà´ ¶
Ġà¤ķ à¤¾à¤°
Ġsp ec
Ġg ew
Ð°Ð» ÑĤ
Ã§ Ä±
ij k
Ġ×ŀ× §
ĠÐ¼Ð¾Ð¶ Ðµ
ĠC i
áĥĲáĥ Ĵ
×ķ×ł ×Ķ
Ð´ Ñĥ
ak se
** **
ĠÐ¿ Ð°Ð´
ĠvÃµ i
Ġind iv
ĠP entru
Ġ íķľ
à¨ ¬
Î» Î®
ob a
h ir
ab or
Ġâ ķ
Ġr est
Ġk uri
åĪĨ å½©
ÙĦ Ùĩ
Ð°Ð½ Ðµ
re b
ÓĻ Ñģ
) )
Ġà¦¬ à¦²
ĠØ¯ ÙĪ
á» ı
Ð³ Ñĸ
ov at
ãģ ¿
Å ©
oj i
ĠÐ¡ ÑĤ
ĠÃ¼ Ã§
Ġn ost
è®¡ åĪĴ
à¤¾à¤ ļ
Ø§ Ùĭ
Ð½ Ð°ÑĤ
»áĢ ķ
Ġ×Ķ ×ł
ĠÔ ¿
Ġm am
áĢ¬ áĢĦáĢ¹áĢ
à¸Ń à¸ļ
à´¨àµįà´ ¤
à¥ģ à¤²
ĠÐ± Ð°ÑĪ
Ġn ur
Ġinf o
ĠS ta
à¶ ł
Ð² Ð°ÑĢ
ia is
ĠÎ ¾
àª ¶
ÑĦ Ð¾ÑĢÐ¼
Ġv ez
ãģĦ ãĤĭ
Ġåľ ¨
Ġà¤ Ł
Ġuch un
ĠT w
el ik
Ġæ ī
Ġà¸ ķ
ç¾ İ
Ø¨ Ø¯
Ġbo x
ne y
ĠÐ´ Ð¾Ð»
Ġup ang
Ġb ill
r is
k al
ĠÐ± ÑĸÑĢ
Ġn Ã¥
li y
ĠT Ã¼rk
à§įà¦ ª
ri ve
ol g
m ay
ĠÐ³ Ð¾Ð»
ĠJ es
Ġ6 1
s Ã©g
en cia
Ġáŀ ķ
ĠÚ Ī
ĠØ¬ Ùħ
ĠÐ´ Ð°Ð²
Ġsk u
Ġm ont
ĠS H
ĠA h
à¹īà¸²à¸ Ļ
à«ĩàª ®
Ġb ab
Äĵ c
z z
ann ya
Ġ9 4
Ġ9 1
Õ¥Õ¬ Õ¸ÖĤ
Ð¾ÑĤ Ð¾ÑĢ
Ð³ Ð¸Ð¹Ð½
l og
Ġm ap
Ð°ÑĢ Ñĥ
t at
iy at
ĠN y
áĥłáĥ Ĺ
in is
Ġsubd omain
Ġst or
ĠM ac
ĠâĢ İ
Ġv ÃŃ
ĠJ os
Ð¶ Ð°Ð²
us es
Ġà²® à²¤à³įà²¤
Ġs un
Ġp ed
ĠAn t
é Ķ
ÖĦ Õ«
Ã© se
ĠD ar
ĠC C
à´¾à´¯ à´¿
et y
0 7
ĠÎ¤ Î¿
Ġfor ma
ta j
Ġ7 3
à®¿à® µ
u q
im g
Ġí Į
Ġì °
Ġo der
Ġk ell
íı ¬
è¯ ·
áĥ ¨
ĠN r
ĠB es
æĢ §
à¹Ģà¸Ľà¹ĩ à¸Ļà¸
ĠNov ember
d ek
Ķ áŀŁáŁĭ
ĠØ§ÙĦ Øµ
ĠÑ ľÐµ
ĠA D
Î¿Ïħ Î¼Îµ
m p
ĠØ§ ÛĮ
ĠÎµ Î¯
ĠÂ ©
Ġm ac
ãĤ ³
×ķ× Ķ
ĠK an
Ã¥ l
èµ Ħ
v ious
j Ã³
im m
g l
ĠÐ½ ÐµÐº
Ġt in
ĠpÅĻ ÃŃ
ĠS en
ÏĦÎ¿ ÏĤ
as y
Ģ áĢŃáĢ¯
ĠÐ· Ð°Ð²
Ġis h
Ġc op
è§ Ħ
åĬ ¡
àª¨ à«įàª
Õ¡Õ¾ Õ¸ÖĢ
ÏĢ Î±
Ġ9 3
íķ Ļ
à´² àµįà´²
m ek
k v
ĠÐł ÐµÑģÐ¿ÑĥÐ±Ð»Ð¸Ðº
äº Į
à¶¯ à·Ķ
eg u
ag en
Ġk re
áºŃ t
à¶º à·ļ
y al
ud io
T e
I J
Ġleng th
ÙĦ Ùģ
Ïĥ ÏĦ
Ġà¸ ģ
Ġ×Ķ× Ĵ
Ġmod el
Ðĺ Ð
er ne
Ġà¤¨ à¥ĩ
Ġp Ã¤
Ġd ay
av ad
æĺ İ
å· ŀ
ÙĤ ÛĮ
I O
88 8
à±ģà° µ
à¥ ĥ
ĠÐ´ Ð·
ĠÐ° Ð¿
Ġk um
à¥įà¤ ķ
Ñĥ ÑģÑĤ
N S
Ġãģ Ŀ
Ġ×ŀ× ł
Ġla ik
Õ¡ÖĢÕ ¯
ĠS eptember
Ġà´İ à´¨àµįà´¨
Ġ9 00
ìĺ ¤
Ġáĭ Ń
ĠÐº Ó©ÑĢ
Ġc ir
åĽ ŀ
Ð¸Ð¼ Ð¸
Ġm obil
Ġä¸ į
Ġà¤ĩ à¤¸
ĠØ¨ Ø§Ø²
ĠÐ¿ Ð°
ĠK al
ĠB ak
áŁ į
áŀī áŁĴáŀ
en ye
ar be
B F
Ġáį ¢
ĠÚĨ ÛĲ
Ġh g
çī ¹
ĠP an
ë £
à¸¸ à¸ĵ
à¸´ à¸Ļà¸
àª¿ àªķ
ro k
ĠS et
Ġæ ŀ
Ġàª® àª¾àª
ĠÐ³ Ð¸
Ġn ow
Ġé Ģ
Ġpl at
ĠÃ Ĺ
ìļ Ķ
á»į c
×© ×ª
ĠÐ· Ð°Ð±
ĠÅ¡ t
Ġs uk
ìł ģ
à¤¹ à¤°
it le
h k
à¶± à·ı
à²¾à²° à³Ĩ
ek en
ĠØ¨ Ø¯
Ġz b
ĠH al
Ġ7 1
Õ¡ÖĢÕ ¿
is ke
Ġà¨¹ à©ĭ
ĠÃ ª
ra w
ĠáŀĬ áŁĤáŀĽ
ĠÏĥ Î±ÏĤ
ĠÄĳ á»ĥ
Ġp ow
Ġmo et
ĠB us
Øª ÙĬ
z d
ĠáĬ¥ áĬķ
ĠÙħÛĮ âĢĮ
Ġmo un
ĠM or
Ġê³ ł
Ġi den
Ġb ot
ĠM ic
ì¹ ´ëĿ¼
ä» ĸ
á»ĳ i
Ø¨ ÙĦ
il y
L A
Ġver d
Ġna ar
Ġar g
× ¥
ª àµįà´ª
k il
A d
è į
ÏĦÎµ ÏĤ
Ã¡ p
ich t
Ġth á»ĥ
Ġáĥ Ŀ
Ġàªª àª°
à±ģà°² à±ģ
ÑĤ Ð¸ÑĢ
um o
st and
ĠÐ¼ ÐµÑĤ
ÏĦÎ± ÏĤ
ĠÐ´ ÐµÐ»
Ġ8 00
à§ĩà¦ ĩ
à§ Ĥ
Ġp ens
áŀ· áŀı
Ð» Ð¸Ð²
ÏĢ Îµ
ĠØ§ÙĦ Ùĥ
ĠpÅĻ ed
Ġla i
Ġa ch
áŀĶ áŀ¶áŀĵ
Ã¦ l
C E
ĠÙĦ ÛĮ
Ġl ong
å± ķ
à®¾à®° à¯į
le ga
ĠÐ¾Ð± Ð»
Ġcon tr
ĠT R
ìŀ Ħ
Ð°ÑĨ Ð¸Ð¸
s v
ĠáĢ ŀ
ĠÅ¾ iv
Ġh ol
Ġl y
Ġf Ã¸r
äº ¬
à¯ģà® ³
ij i
ic an
Ġâ ľ
Ġà¶ ĭ
Ġà² ¯
ĠÑģÑĤ ÑĢ
å®¢ æĪ·
à¸²à¸ Ħ
ÙĤ Ø©
ĠÐºÐ°Ðº Ð¾
Ġbil an
ĠP ri
Ġ7 9
áŀ¾ áŀĦ
Ð¶ Ðµ
Ġà² ī
ĠØ «
à¹ Ĩ
à¸£ à¸¡
z Äħ
or u
Ġw ere
Ġr adi
áŀ¶áŀ ħ
Ø³ Ø¨
Ð°ÑĤ Ð°ÑĢ
ĠØ§ÙĦ Ø±
ĠÎµ Î¾
ĠL as
æĦ ı
Ãº bl
Ã³ g
Ã¦ t
Ġz am
äº §
áŀĺ áŀ¶áŀĵ
ub le
it he
c ep
ĻáĢ »
ĠØ¯ Ø§Ø±
Ġm ut
Ġi ki
æĻ Ĥ
à» ģàº
àµ Ī
Ð½ Ð°Ñĩ
Äĥ ng
alm ente
ĠJan uar
Ġk od
Ð¸Ð» ÑĮ
ÐµÑĤ ÑģÑı
Ġê² ½
ĠÕ¥ ÖĢÕ
ort h
ab ar
Ġàª ¥
ĠÕº Õ¡Õ¿
Ġq o
ĠR us
Ġ? ??
çľ ĭ
à²ķà³įà²ķ à³Ĩ
Ĺ àºµ
Ġimport ant
Ġd ost
Ġcom ment
Ġa pl
àª¿àª ¯
U K
C lass
Ġy n
Ġs uc
ĠM el
ro t
ka z
ent er
eg en
66 6
ĠÙĪ Ûģ
ĠÏĢÏģÎ¿ Ïĥ
Ġw ho
Ġs Ã©r
Ġ? ?
æ ¼
ä¸ İ
à¸£ à¸ĩ
Ġï¿½ï¿½ï¿½ï¿½ï¿½ï¿½ï¿½ï¿½ ï¿½
à¹Ģà¸ «
00 00
ĠÕ Ĩ
ĠÑĩ Ðµ
ĠS A
d n
Ġl agi
Ġc ur
ĠK ol
åį Ĺ
ÑĬ ÑĤ
Ġed il
ĠT u
ĠCas ino
áĥĽ áĥĲ
ec k
Ġr um
Ð°Ñ Ĺ
\ "
Ġne ed
Ġdr ug
Ø® Ø±
d ar
Ġ9 2
Ġà¤ħ à¤¨
Ġinform ation
Ġh Ã¤r
Ġel se
ĠP ak
à°° à±į
Ò »
Å£ i
Ġs Ã¼
áģ¾ áĢĢ
om as
ĠÙĦ Ø§
Ġsom e
ìĭ ł
à®¿à®¤ à¯įà®¤
ol s
Ġà¸ Ľ
ĠØ® ÙĪØ¯
ĠÐ´ ÐµÐºÐ°
Ġk le
ĠC al
Î· Î½
±áĢ ĶáĢ
er ta
Ġac tu
ë² ķ
per ti
im ento
Ġà¹ģà¸ ¥à¸°
Ġà´ħ à´µ
ĠØ³ ÙĪ
Ġ×ľ ×¤
ĠÏĥ ÏĦÎ±
Ġword en
ÑĢ Ð´
ĠS v
ĠS and
ĠNe xt
à²² à³ģ
ÙĬ Ø§Øª
uk t
åİ ¿
Ú© ÙĨ
h and
ĠØ Ł
Ġt ud
el ing
Ġun ivers
ķáĢ« áĢ
Ġë ħ
Ġ×Ĳ ×¤
ĠÐ³ Ð°ÑĢ
Ġfin an
d Ä±
ĠëĤ ĺ
Ġà¦ Ľ
ĠØ¨ ÛĮ
ĠÐº Ò¯
Ġ[ /
ĠN av
ĠD av
ÑĢ ÑĤ
ÑĢ Ð¸
f el
Ġo kt
Ġde f
ĠW at
Ð° Ð¾
d al
ah r
Ġh art
Ġh ari
ĠS on
à·Ķ à¶«
os sa
ri es
ĠÕ ¦
ĠÐ¾ Ñĩ
Ġh od
çĿ Ģ
à¯Īà® ķ
Ð°Ð¹ Ð½
sk Ã©
ell es
0 1
Ñĩ Ñĭ
us u
ĠP D
st an
ih an
at as
0 8
Ġv ast
Ġs atu
Ġd od
ĠLat v
ĠC ont
à±Ī à°¨
Äįi Å³
ust om
Ġå ¼
Ġáŀ Ļ
ĠØª ÙĨ
ç ²
à´ ¶
à³įà² ª
ol f
Ġg az
Ġf lo
Ġbe har
Ġan i
ĠI k
àº ģàº
Ïģ Î®
mÉĻ k
Ġwh at
ĠS em
æ ¡
r ie
Ġl um
Ġf oto
ĠV an
à´² àµįâĢį
ÑĤ Ñĸ
in ya
ĠÒĽ Ð¾Ð»
Ġd ivers
é ©
à´¿à´ ¨àµįà´
à¥įà¤° à¥Ģ
ÑĸÐ½ Ð´Ðµ
uk i
m Ä±ÅŁ
Ġv ad
Ġbe en
lig t
Ġà° ı
ãĥ Ĩ
ab b
ĠÑģ Ð°Ð½
ĠÃ ļ
Ġgo od
ĠIn n
Ġ- >
áĢĦ áĢ·
id ay
ĠÒļ Ð°Ð·Ð°ÒĽ
ĠV ers
ç ±
ind er
Ġdis c
ãģ® ãģ§
r oll
j ob
ĠÃ İ
Ġop en
å¼ ı
Ð³ Ò¯Ð¹
ĠáĥĴ áĥĲáĥľ
ĠÙĨ Ùĩ
ĠÓ ĺ
Ġs ens
è¯ ´
åĪ Ĺ
à°ļ à±įà°ļ
Ø§ÙĨ Ø¯
ĠAfr ika
ê² ½
áĥ ¦
Ï Ĭ
U B
Ġfr Ã¡
em m
ams hi
ĠL eg
ë¹ Ħì
âĢ¦ âĢ¦
áĥĺ áĥĲáĥľ
à§įà¦ ¥
Õ¸ÖĤ ÖĢ
Ïĥ Î¿
il ik
es z
Q W
Ġáĥ ª
ĠàªĨ àªµ
Ġve Äį
Ò± Ð»
it ud
ek er
à°° à°¿à°
Ùĳ Ùİ
ÐµÐ³ ÐµÐ½
Ð³ Ð°ÑĢ
b ang
an ja
ĠÐ¿ Ð¾ÑĤ
ĠÐ Ī
Ú ĺ
×ŀ ×ķ
Ð´ Ð°Ð¹
Ð°ÑĤ ÑĭÐ½
uh an
Ġà²® à³ģ
Ġelement or
ĠL E
à¸ ĭ
at ori
ĠE U
á» ī
àµģà´¨àµįà´¨ àµģ
Ġb und
áĪ °
àµįà´ ŀ
Ø¨ ÛĮ
ab r
Ġp ang
Ġh ow
áŁĴáŀĵ áŀĢ
ÙĨ ÙĬ
Ã¦ g
Ĩ áŁĴáŀĵ
Õ¡ÖĢÕ £
Ð² Ð°Ð»
Ġv r
åı ¸
àµģà´³ àµįà´³
ĠÏĢ Î¿
Ġvol t
Ġres ta
Ġg ed
ìł ľ
ÎŃ Ïģ
ebru ik
ĠáĪ Ī
ĠÐº Ð°Ð¼
Ġgl ob
Ġbl ack
ĠC ast
Ġ; -
u at
Î» Î¯
Ġen er
æĿ ĳ
å° Ĩ
à© ľ
à¤¤ à¥ĩ
Ã¢ nd
ĠÙĦ ÙĪ
Ġh igh
ĠA C
à¤¾à¤ ı
ÏĦÎ¹Îº Î¬
un ci
oll ow
Ġr as
ĠG en
ê¸ Ī
Å¼ y
z ia
em o
Ġà «
Ġv Å¡
ic z
ĠÐ½ Ð°Ñĺ
áĥĺáĥ ķ
w ala
Ġa ti
äº ¤
áŁĨ áŀĵ
×© ×Ķ
Î ľ
ed y
c as
ĠÐ¿ ÑĸÐ´
å» º
ĠØ§ ØŃ
Ġon ly
ĠO ut
çĽ ¸
ãĥ ī
à°¾à° µ
×¨ ×Ļ
ici al
ĠT im
éķ ¿
4 73
áĥĶáĥļ áĥĺ
áº ½
à¶º à¶ļà·Ĭ
à Ń
Ġë ¹
Ġç §
Ġà° Ĵ
Ġsh um
Ġe ver
Ġc os
çĽ ´
áŀ¼ áŀĽ
áŀ Ĵáŀ
à¨¿ à©±à¨
w as
us ti
Ġre fer
ĠH or
Ġ> >
ì¹ ´ì§Ģëħ¸
ĠâĨ ĳ
Ġk g
Ġag çİ¯äºļ
Ġ% ;
áŁĴáŀ Ħ
×¨ ×Ľ
l jen
it ies
Ġar be
in st
ag u
ĸáĢ ¼áĢ
ĠØ² ÛĮ
áĥķ áĥĺáĥ¡
à¤¿à¤ ®
Îµ ÏĦÎ±Î¹
Ī ìķ½
Ġrq t
Ġp og
ĠV ir
ĠB re
æĬ ¥
Ã« ve
Ġà° ¯
Ġth an
ĠInter net
ĠA P
ond o
ist Ã¤
ek si
Ġs is
Ġp ic
Ġin a
Ò³ Ð¾Ð¸
ÎŁÎ ¥
l k
ĠÕ´ Õ¡Õ½
áĥĶáĥ Ĵ
à¹Ģà¸ ª
tr y
ab el
Ġt ent
ei ro
Ġmak e
ģ éĢŁ
ĠÃ¼ z
Ġà®ķ à¯Ĭ
ĠØ³ Ø§ÙĦ
ç ³
à¤¾à¤ ģ
ones ia
T ype
0 6
Ġáĥ ¢
ĠØ§ÙĨ Øª
Ġs ik
Ġm ÄĽ
ĠS RS
àµģà´ µ
Ð¾Ð² Ðµ
is me
ing i
ig er
ĠÃº t
ĠC u
éĢ ģ
Ã¹ ng
ĠÐ¸Ð¼ Ð°
Ġ ill
ÙĪØ± ÛĮ
le p
ĠÐ½ Ñı
ĠG ener
æµ ·
Ð½Ð¾ Ðµ
Ġv agy
æ´ ²
ĠÏĢ Î¿Î»
ĠI f
áŀ» áŀĵ
áĥĺáĥ ļáĥĺ
ÙĦ ÙĪ
Ã¡ st
Ġl is
Î ł
Ġrq id
åį ļ
áĬ Ń
ok e
la ÅŁ
ist as
G C
Ġters ebut
Ġla in
Ġan al
Ġak tiv
ĠTe ch
ĠR ad
Ġ ãģ¨
ãĤ »
ei ra
ľì ¶ľìŀ¥
ĠÐĹ Ð°
Ġb ig
ĠL A
à¸²à¸ §
à·Ĵ à¶±
à²Ł à³įà²Ł
ÑģÑĤÐ² ÐµÐ½
Ð°ÑĤ ÐµÐ»
o ci
ir en
as yon
Ġà¤° à¤¹
Ġper i
Ġn ok
Ġl en
Ġf Ã¥r
à² §
à° Ń
k n
ar n
Ġç »
Ġ×ķ ×ĳ
ĠÐ² ÐµÑĢ
ĠÎ¼ Î±ÏĤ
ĠÂ ±
Ġt or
Ġk im
Ġb áº¡n
Ġar a
Ġaqu est
ud z
à°¾à°² à±ģ
ĠÎ¼ Î¹Î±
ĠNE W
à¹ī à¸Ļ
Õ¸ Öģ
is ht
Q U
ĠÃ¼Ã§ Ã¼n
Ġsel v
×ķ× £
Ðº Ð°Ð½
Ġà¹ ĥ
Ġà¨¤ à©ĩ
ĠÂ ¼
Ġst rat
Ġfun k
à®¾à® µ
ĠØ¨ Ø¹Ø¯
ĠO ne
ê² ©
ê ´Ģ
åķ Ĩ
z on
ä½ į
àº ª
Ø§Ø¦ ÛĴ
ÐµÑļ Ðµ
Ġse arch
Ġp ng
è£ ħ
ur en
ading in
Ġ×ŀ× ĵ
Ġse pt
Ġl ot
Ġai adingin
ÑĤÑĮ ÑģÑı
Ð°Ð½ Ð¸Ñı
Ġà´ ²
ĠÐ± Ð¾ÑĢ
Ġw ant
éĢ ī
æī Ģ
p ak
j as
Ġàª ĸ
ĠÑĤ Ñĥ
ĠÃ¾ e
Ġef ter
áĢŃáĢ¯ áĢĦáĢ¹áĢ
q q
ia c
ŀ àµįà´ŀ
Ġto ut
Ġn Ãº
Ġe b
æł ¼
à±ģà° ¡à±ģ
Õ¸ÖĤÕ©ÕµÕ¸ÖĤÕ¶ Õ¨
Ġáŀĺ áŀ¶áŀĵ
ĠÐ· Ð°ÑĢ
Ġp ut
Ġd am
ĠE z
å®¢æĪ· ç«¯
à²¿à²² à³įà²²
ÑĭÐ» Ð°ÑĢ
0 9
Ġë¶ Ģ
Ġà» ģàº
Ġval ue
Ġt ok
ÑĤ Ð°Ð»
Ġà¶´ à·ĬâĢįà¶»
Ġu 00
ĠT re
Ã¡ ra
_ m
Ġwh en
Ġn ÉĻ
áŀ½ áŀĵ
à¸±à¹ī à¸ĩ
àªµ àª¾
ÏĢ Î¿Ïħ
à¦ ¥
Ä¼ u
op a
al th
Ġà¦ķà¦° à§ĩ
Ġn amshi
Ġb ild
è Ļ
å¤ ĩ
à¸ģà¸± à¸ļ
×ŀ× ª
ÐµÑ ĺ
Ġà¤ ĺ
ĠÐ´ Ðµ
Ġs yn
Ġl id
Ġaut or
ê ¹
à¥ĩà¤ ª
Ã¡ ng
Ġà®ª à¯ĭ
ĠÚ©Ø± Ø¯
Ġt ari
Ġo lar
h old
Ġë ²
ĠÐł Ñĳ
Ġla v
Ġap ar
àµįà´ µ
}, {"
à¦¿à§Ł à§ĩ
×¨ ×Ķ
Ġà¶ļ à·Ĵà¶º
Ġ×Ĵ ×Ŀ
ĠÐ´ Ð¾Ðº
ë§Į ëĤ¨
à¤ ĸ
Û °
Ð» ÐµÐ¼
åľ¨ çº¿
à²¨ à³Ĩ
v Äĵ
f Ã¶r
H T
ĲáĢ ²áĢ·
ĠÐ½ Ð°Ð·
Ġy az
ĠZ e
à¤ ¥
ig an
Ġâ ĩ
ĠU k
ĠD ire
à´ ¬
Ð´ ÐµÐ»
er b
Ġt Äģ
Ġst ran
Ġe bay
Ġch ild
ĠW indows
à¹Ģà¸ ŀ
à¸Ń à¸Ļ
ult ura
in ÄĹ
il li
ic as
0 4
Ġf az
Ġb ase
à¹ĥ à¸Ĭ
AH I
Øª Ø¨
Õ¸Õ ¬
x o
it r
Ĳ áĢºáĢ
ĠÑŀ Ð·
ĠÐ¼ Ð°
ĠÐ İ
Ġlo ok
Ġb ay
Ġ] .
s ti
al en
ĠÕĢ Õ¡Õµ
Ġp ush
Ġmom ent
ĠU t
à®© à¯įà®±
Ð¾Ð½ Ð¾Ð¼
Ġà¸ Ĥ
Ġra p
íĸ ī
à²¦ à³Ĩ
ĠáŀĽ áŁĦáŀĢ
Ġàªª àª£
ĠÐ¶ Ð¸Ð²
Ø® Øµ
Ã¶ d
n ega
is on
K A
ĠÐ½ Ð°Ð¹
Ġth ere
íķ ´ì
ÙĬ Ùĩ
ph one
j av
h y
ĠáĢ ĴáĢ
ĠÐ¿ÑĢ Ð¾ÑĤ
ĠH G
à¦¿à¦ ¸
h v
ĠÑĤ Ð°Ð¼
à·ı à¶½
Õ¡Õ¶ Õ¤
ÑĤ ÑįÐ¹
Ð¾ Ðµ
Ã¸ d
ing ar
ad r
Ġì ²
ĠÒ¯ Ð·
Ġg ran
Ġ40 74
ãģĤ ãĤĭ
à®µ à®°
à¤ Ī
Ð°ÑĢ Ð¼
ÅŁ a
ĠÃ© g
Ġmo Å¾
Ġh ver
ä¸Ń åĽ½
Ú «
6 88
Ġvi et
Ġn od
Ġf an
ÐµÑĪ Ðµ
ap t
ad en
ŀáĢĬ áĢ¹
ĠÔ ²
ĠÃ¾ ar
Ġc Ã´ng
ĠS ams
ãĥ¼ ãĤ¹
à·Ĵ à¶Ń
à°¿à°Ĥà° ¦à°¿
à®¾à®² à¯į
Ñģ ÑĭÐ½
Ã©r t
ici Ã³n
ĠØ³ ÛĮ
ĠK er
Ð°Ñļ Ð°
Ã¢ m
0 2
Ġ×ľ ×ĳ
ĠÕ¥ ÖĤ
Ġprin cip
ĠF oto
×ł ×ĺ
pl y
ans a
Ġth i
Ġs unt
Ġk Ã«
Ġk in
Ġj ul
Ġas p
ê° Ħ
oc a
Ġ×Ķ ×Ķ
Ġver y
Ġv ida
Ġseb agai
Ġcont ra
å¥ ĸ
à±ĩà° ¦
ic io
Ĩ į
Ġ×ľ ×Ĺ
ĠÐ· Ð°Ð´
à´¿ àµ½
àª ¬
Ġo v
Õ §
ad ores
Ġj et
Ġc in
Ġ8 7
b h
Ġmo Å¼
Ġdi fer
Ġb ottom
à¤¾à¤° à¥Ģ
Õ½ Õ¿
Î³ Îº
Ã¼ ks
Ã¥ d
w al
Ġáĥ §
ĠØ§ÙĦÙĦ Ùĩ
Ġson o
Ġpar as
ĠAzÉĻrbay can
ÑĥÐ»ÑĮ ÑĤ
ning en
ļ áĢºáĢ
Ġáĥĺ áĥ¡
Ġm ov
Ġfr Ã¥n
ang i
Ġà¨ħ à¨¤à©ĩ
Ġe con
Ġdetail s
ĠM ah
Äį no
v Ã©ny
T ER
Ġvi ÅĨ
Ġh ulle
ãģĦ ãģĨ
à¤¿à¤ µ
im p
æ¯ Ķ
áĥ £
åĪ ¶
ativ a
ĠÕ¶ Õ¡ÕŃ
Ġtá» «
Ġp ob
Ġhe eft
Ġc ost
áĥĺáĥ Ŀ
Ð³ Ð¾Ð»
ĠÐ¼ ÐµÐ´
ĠÐ¼ Ð°ÑĢ
Ġpr ÃŃ
Ġpr et
Ġpe ople
à²¿à² µ
à¥ĩà¤ ĸ
ÐµÐº Ñģ
G B
Ġde fin
Ġd y
à±ģà° Ĺ
à°¾à° ¦
ÑĸÐ½ Ðµ
Î ©
us ed
b ud
Ġe Ã°a
æ£ ĭ
àº ¹
ov Ã½
al Ä±
Ġp Ã¤Ã¤
ĠPl us
à¤¤ à¥Ģ
Æ¡ n
n ica
le k
Ġk ull
ë¬ ¸
à¸ Ł
t es
s on
0 3
Ġad v
âĢĭ âĢĭ
à²¾à² ľ
Ð´ Ð¸Ð½
Ã¤ ll
ĠÙĨ Ùħ
Ġwer den
Ġpre v
Ġe ven
Ġde y
Ġà°® à°°
Ġve el
ĠE sc
è ³
ç ģ
ÙĬ Ùĥ
t as
ot er
B N
Ġsv oj
ë³ ´
j uk
ĠÕ° Õ¡Õµ
ĠÒ Ĺ
Ġk amp
ĠP ra
Ġ7 00
à§ĩà¦ Ľ
áĢŃáĢ ³
à¤¾à¤ Ł
Ð² Ð°ÑĤ
Ã± os
c ess
Ġà¦ħ à¦¨
Ġ×© ×Ĳ
Ġp em
ÐµÐ½ Ðµ
Ð´ Ð°Ð»
Ð³ ÑĥÑĥÐ»
k m
Ġàª¤ à«ĩ
ëħ Ħ
æ ¢
Ð°Ñĺ Ñĥ
o ft
in Ã«
end en
C ol
Ġàª ī
Ġre p
ç® ¡
Ð» ÑĭÒĽ
Ð¸Ð· Ð²
Î· ÏĤ
ÂŃÂŃ ÂŃÂŃ
ist rat
as on
ĠT i
ĠSt yle
æ Ĵ
åı ·
×ķ× ĸ
Õ °
Ñģ Ñĭ
ÏĮ ÏĦÎµ
zen ia
r Ã³
ar ta
ak ti
ĠãĢ Ĭ
Ġáŀ Ĺ
Ġweb site
Ġs Äħ
Ġa ff
ÙĤ ÙĦ
×ł ×ķ×ª
½ Ķ
Ġà®ħ à®¤
Ġj en
Ġc le
à¹Īà¸²à¸ Ļ
Ø¬ Ùĩ
ip as
an j
ag ram
ĠáŀĢ áŁĴáŀĵáŀ»áŀĦ
ĠÐ² ÑĬ
ĠÐ£ ÐºÑĢ
ĠJ eg
ĠB et
Ġ200 2
Ñĩ Ð¸Ð»
Ġï¿½ï¿½ï¿½ï¿½ï¿½ï¿½ï¿½ï¿½ ï¿½ï¿½ï¿½ï¿½
ĠÕ´ Õ«
Ġso o
Î³ ÏģÎ±
n it
Ġà¤² à¤¿à¤ı
ĠÑĤ Ð°Ð±
Ġmot or
ĠO g
Ø¯ Ø§
un o
m iss
m ad
Ġoldu ÄŁ
Ġi Phone
ĠV iew
ĠS K
á»ĳ c
k as
Ļ à§įà¦
Ġebay img
w ah
E K
Ġàº ģ
Ġg ov
Ġf oi
Ġconst ru
Ġaya a
à´Ļàµįà´Ļ à´³
à²¾à² ¸
ÑĪ ÑĤ
Ð½Ñĭ Ñı
Ã© es
ĶáĢ ²
Ħ ľ
Ġê³ µ
ĠÙħ Ø·
ĠÐ±Ñŀ Ð»
Ġs ent
Ġl Ä«dz
áĮ ¥
à¹Ī à¸¡
à¶±à·Ĭà¶± à·ļ
à´¿à´² àµįà´²
un de
Ġìĥ ģ
ĠØ´ Ø¯
ĠÐł Âµ
ĠL and
è Ħ
ç Ī
à¸´ à¸Ļ
×Ĳ Ö¸
el as
ĠÏĥ ÏĦÎ¹
Ġy i
Ġsu a
à¶Ńà·Ĭ à¶Ń
à´ ¡
ÑĸÐ» Ñĸ
Ġw erk
ĠÐ¸Ð½ ÑĤÐµÑĢ
ĠÏĢÎ± ÏģÎ±
ord an
A F
ĠWH AK
æ¬ ¡
v ik
um at
Ġf inn
ĠP ublic
ĠA li
Ġ emb
is er
ĠØ±ÙĪ Ø²
Ġh ai
Ġd ell
à´¾à´¨ àµįâĢį
ÙĦ ÙĪØ¯
Ñı Ð´
Ħ áĢ
Ġà°¸ à°Ĥà°
Ġà¨¦ à¨¾
Ġw ell
Ġprim er
ĠF o
Ð¸Ð½ Ð¸Ð½Ð³
Îµ Ïħ
us an
ti a
d ie
Ĵ Ī
Ġà¤Ĺ à¤°à¥įà¤¨
Ġ" )
å ĸ
à° §
oj en
1 _
Ġæ Ń
ĠÕ ®
Ġa in
áĤ Ī
ia j
IN E
ĠÏĥÏħ Î½
Ġun s
áĥĶáĥ ¢
Õ«Õ ´
Ð¸Ñ ĳ
Ġà¶± à·ľ
Ġg Ã¼
ĠB ol
àª¨ à«ĭ
à¤¸ à¥įà¤¤
Ø´ Øª
Ġå ¾
ĠÑī Ðµ
ĠÑģ Ð¾Ð»
Ġnorm al
ĠM ur
Ġ îĢ
ìĹ Ń
Ø¹ Ø©
Õ¡Õ¶ Õ¡Õ¯
z eko
urr ent
os o
ĠJ u
ĠC el
ØŃ Ø¯
×Ļ×¨ ×Ķ
ov al
ĠÑħ Ð°ÑĢ
Ġmenj adi
ĠF in
ìĬµ ëĭĪëĭ¤
áĪ ³
à¨° à©Ģ
Îµ Îº
Ã¼ y
u ÅŁ
l ish
ĠÑĦ Ð¾ÑĢÐ¼
Ġs ter
àµ ¾
ÙĪ Øª
Ð´Ñĭ ÒĽ
ĠØ® ÙĦ
Ġm 2
Ġk ra
ĠP i
Ġ2 F
å ²
à©Ģà¨Ĩ à¨Ĥ
Ø´ Ø±
Ä« ba
Ã¶ y
ard a
ĠÐļ ÑĢ
ĠÐº ÐµÑĢ
Õ¡Õ »
ÑģÐº Ðµ
ac ion
Ġáī °
Ġà²®à²¤à³įà²¤ à³ģ
Ġz m
Ġw indow
ĠW ar
Ġ35 473
ãĥ ģ
ãĥ ¡
×ķ×ª ×¨
Ð¾Ð³ÑĢ Ð°ÑĦ
Ð¸Ð´ Ð°Ð½
Ïģ ÎµÎ¯
p rav
k ing
h ur
Ġt at
Ġkom mer
Ġed o
Ġap a
âĢ Ķ
ri bu
Ġå ¯
ĠâĢ¦ .
Ġ35473 20
è§ Ĩ
å½ ĵ
Ø§ÛĮ ÛĮ
Ã° u
ľáĢ Ĭ
Ġsm all
Ġpa ano
Ġgr atu
ĠX X
èĪ °
áŀħ áŁĴáŀ
m ann
ini Å³
Ġsp re
ĠL os
èµ Ľ
à¨¿ à©°à¨
Ð² Ð¾
Ã§ o
ĠÙĤ Ø±
à¦¿à¦ ¬
ac iones
Ġv in
Ġtrans form
Ġkon tr
ĠM ore
ãĥ Ĳ
áĭ ³
at ura
ĠÎºÎ± ÏĦÎ±
Ġsud ah
Ġpre m
Ġl ed
ĠN h
ãģ¾ ãģĹãģŁ
Å¡ u
eb a
Ġè¿ Ļ
ĠÐł Ñķ
Ġpres ent
ĠIntern ational
ĠC e
ÙĤ Ø¯
Ä± ÄŁ
Ã¡ i
± áĢ¬áĢ
S A
I X
ĠÑģ ÑĢ
ĠÐ½ Ð°Ñĩ
Ġpor no
Ġhv or
å¥ ³
à¯ģà® ¨à¯įà®¤
Ùĥ ÙĨ
Ġc áº£
ĠL ond
ĠA T
áĥĲáĥ ¨áĥĺ
b urg
Ġë§ Ī
ĠØ§ Ø¬
Ġkas ut
à²ķ à³įà²·
t os
am ba
ĠâĢľ .
ĠÄĳ áº¿n
ĠJ une
æĢ İ
áģ Ģ
Ð½Ð¾ Ñģ
Ð± Ð¸
ÏĮ Î½
ÉĻ h
ip e
ģáĢ ²áĢ·áĢ
Ġt on
Ġcas ino
à¦¬ à§ĩ
Ã¨n cia
f n
Ġì Ĭ¤
Ġex t
f at
ĠåĪ Ĩ
Ġjed n
Ġden ne
ĠI T
ĠF ilm
è ©
ç ĭ
à¯ģà®ķà¯įà®ķ à¯ģ
àª¾àª® àª¾àªĤ
Ã¸ n
tic s
ok u
ķáĢ«áĢĲáĢ ļáĢ¹
ĠSup er
ĠFebru ary
sta v
om et
b ur
all ery
Ġ×Ķ× ĸ
ĠÃ§ ok
Ġw ay
Ġn er
Ġk ed
Ġag o
Ġ$( "
à¦ ĸ
ra in
ers te
Ġse perti
Ġb ody
ĠSl oven
áĢŃáĢ¯ áĢ¸áĢ
Ðļ Ðĺ
Äģ v
Ġì £¼
Ġde ze
ë© ´
áĥļ áĥĺáĥ¡
tr es
ig ur
ķ áĢºáĢ
Ġin to
Ġb and
ä» »
à¤¨à¥įà¤ ¦
ÙĪØ± Øª
Ð´ ÑĭÐ½
y un
et ti
Ġà¸ ¢
Ġ×ĳ ×Ĺ
ĠÒĽ Ð°Ð»
ĠÐ¼ Ð¾Ð³
Ġro ku
Ġm est
Ġde ur
æ´ »
t Ã©
st u
Ġs ell
Ġal tern
ĠS he
ĠM os
áº ©
ze a
h ed
ab u
Ġà¨¨ à©ĩ
Ġev ent
ĠR os
Ġà¦¨ à¦¾
ĠP os
à¥ ī
ÉĻ c
yst em
ad da
Ġweb kit
Ġpop ul
Ġb ang
ek u
C A
Ġs ai
ĠP op
áĥĲáĥ ¨
à¸Ĺ à¸³
Ð½Ð¾ ÑĹ
ÏĢÎ¿ Î¹
ard o
Ġáĥŀ áĥł
Ġed uc
éĩ ı
å° ĳ
à®¾à®© à¯į
H A
Ġs ti
Ġpi Ã¹
Ġh alam
ĠCom p
æ£ĭ çīĮ
z ar
r er
as c
ap o
Ġ×Ķ× ¦
Ġl ep
Ġja ar
Ġj ako
Ġen erg
ĠK or
Ġ% ,
el or
Ġå½©ç¥ŀäºīéľ¸ 8
ĠâĢ ²
è ¥¿
×¤ ×ª
Ð» ÐµÑĢ
Ã¡ si
Ġz ah
à´ ·
à±įà° ¦
à©° à¨¦
ÐµÑĤ Ð¸
¼ ìĤ°
on ta
for ma
à¸Ń à¸²à¸
à°¿à° µ
is an
Ġà¶¸ à·ļ
Ġt we
Ġk val
Ġil i
Ð» ÑĮ
Ġd ÃŃ
Ġbo ok
ĠV ar
ĠAnd roid
Ð°Ð¼ Ñĸ
lik e
ĠÃ Ħ
Ġp us
å¤§ åıĳ
S el
E A
Ġàº ª
á»ĩ u
Ùĥ Ø©
ÑĨ Ðµ
Î³ Î¿
Ġë ª
ĠáĥĽ áĥĿáĥ
Ġà¸ ģà¸
ĠÔ ³
ĠÐ¼ Ð¸Ð»
ĠÏĢÎµ ÏģÎ¹
Ġha ar
ë ª¨
Äį ka
ĠÑģ ÐµÑĢ
Ġ200 1
×ľ ×Ļ×Ŀ
Ð¸ÑĤ ÐµÐ»ÑĮ
s g
Ġl it
ĠB ay
à¹ĥ à¸Ī
à³ ĥ
à²¿à²Ĺ à²³
Õ¾ Õ¥Õ¬
ic os
ia p
ĠÚ© Ùħ
ĠØ´ Ø¯Ùĩ
ĠÐ¿ÑĢÐ¾ ÑĨ
Ġk y
Ġan im
ĠSt ar
åı Ĭ
à§įà¦ ²
Ð¸Ñ İ
im um
Ĩ áĢŃáĢ¯áĢ
Ġì ¤ĳ
ĠÐ± Ð¾
Ġnh Ãł
Ġ11 0
ÏĦ Ïħ
ot en
Ġà®ļà¯Ĩ à®¯
ĠBl og
æĹĹ èĪ°
Ãªn cia
r om
d ib
ĠÑį Ð¼
ĠK ir
ĠG es
å ŀ
à´ ¹
y c
r up
Ġì¹ ´
ĠÐ´ Ð°Ð½
ĠÂ ¡
çľŁ äºº
ļ áĢº
Ġà¸ §
Ġd ate
àµģà´ £
Ø§Ø¯ ÛĮ
ÑĤ Ñĥ
ny m
ek et
al ik
ĠÅ Ļ
Ġm Ãł
Ġeg in
ul an
ĠØ³ Ùħ
Ġv iz
ĠS in
Ġà²¨ à³Ģ
ĠÙĨ Ø§Ùħ
ĠÎ¿ ÏĢÎ¿
Ġk ama
ĠK I
Ø§ÙĦ ÛĮ
ĨáŁĴáŀĵ áŀ¶áŁĨ
ĠP RO
ĠCh ina
á»Ļ i
à²¾à² ķ
ÑĪ Ñĭ
el es
ĠÎ¼ ÏĢÎ¿
Ġse p
ĠT al
ĠChr ist
kl ad
e an
ĠÙ¾Ø§Ú© Ø³ØªØ§ÙĨ
Ġk und
Ġj og
Ġ ust
áĢĢ áĢº
à¸¹ à¹Ī
à¸« à¸Ļ
ÑĢ Ð¾Ð½
Ä± ÄŁÄ±
ag an
Ġí Ķ
ĠÔ »
ĠP ower
ÙĬ Ø¹
el u
A r
Ġr in
Ġk li
ĠD ev
á» ħ
àª¾àª ľ
àª¾àª ¸
Ġì ¡°
Ġà¶ļ à·ľ
Ġz ab
Ġh ur
ìĤ¬ ìĿ´íĬ¸
ê° ķ
è ¢
áŁĴáŀ Ĳ
Ð¸ÑĨ Ð¸
Äį ne
k ap
Ġb ila
ĠF orm
Ïĥ ÏĦÎ·
»áĢĸáĢ ħáĢ¹áĢ
n j
ĠØ§ Ø¹
ĠÐº Ð»
Ġk Ã¼l
ĠA y
è® ¾
çĽ Ł
×ķ× ļ
m g
ĠÑĤ Ð°Ð»
Ġs ug
Ġm uk
Ġja u
Ġdet te
Ġb ev
ĠSams ung
áŀ¾ áŀĻ
à¤² à¤¾à¤Ī
ÏģÎ¿ Ïį
red it
op er
eg ar
èī ²
àµ »
à²Ĺà²³ à³ģ
ÃŃ d
u el
ĠPre vious
áĥĺáĥ £áĥ
×© ×Ļ×Ŀ
Ñĩ Ðµ
Ïĥ ÏĦÎ¿
Å© ng
Ã¶ tt
ti ma
s m
els en
Ġob s
Ġke h
Ġinter es
Ġh um
ĠN ap
ĠL iet
ÙĪ ÙĬ
ust ri
W A
B O
ĠW i
ĠJanuar y
éĤ Ģ
áŀĽ áŁĭ
àµįà´ ®
à°¨ à±į
q t
d b
5 7
Ġf it
Ġch ar
Ġam er
ï¼Į ãĢĳãĢĲ
ç¨ ĭ
ãĤ µ
áī Ģ
Äĵ s
un ya
am ic
ĠÐº Ð°Ð½
Ġv se
Ġco ins
à³ĩ à²¶
p end
ĠØ§ ÙĨØ¯
Ġt Ã©
ĠJ un
ĠH el
ëª ħ
áŀ¶áŀı áŁĭ
à¸ģà¸ ¥
º «
ala u
S E
ĠÐ´ Ð¾ÑģÑĤ
Ġs ont
Ġpro gr
tiv o
ath er
ĠìĿ ¼
ĠÐ´ Ð¾Ð±
Ġsyst em
Ġm az
çŁ ¥
ãģ Ŀ
àº ¥
ÐłÑķ Ðł
Îº Î¿
Ġqu an
Ġcom pr
ĠS eg
ç³ »
à¹ī à¸Ļà¸
à¦ķ à§ĩ
à¤¿à¤ Ĥ
×ĵ ×Ļ×Ŀ
ing o
ĠÙĩ Ø§
Ġek onom
Ġc ada
Ġ Þ
Ġ Òĵ
à¸²à¸ ŀ
à° ³
à«ĩàª µ
Õ »
ÑĨ Ñı
Ãª u
ss on
s el
n in
et ik
ĽáĢ ¾
ĠãĢĳãĢĲ ï¼ĮãĢĳãĢĲ
Ġse v
Ġj am
Ġem pres
Ġaut om
ĠD ata
ĠC re
áģ¿áĢ ķáĢ
à¤ķ à¥įà¤¤
Ð½ Ð°Ñģ
id enti
Ġà¶ħ à¶´
ĠÑģÐ°Ð¼ Ð¾
Ġm ata
Ġk aip
áŁĴáŀļáŀ ¼
áģ¾ áĢĢáĢ
à¶Ń à¶»
Ð ¤
b re
ĠÙ¾ ÛĮ
ĠØ¢ Ø²
ĠE in
æ Ĥ
áŀĸ áŀ¸
à§ģ à¦¨
Ñĭ Ðµ
ĠÑĩ Ð°ÑģÑĤ
Ġm os
n Ã½ch
el li
Ġå ·
Ġà·Ģ à·Ĳ
Ġa uk
æķ Ļ
in io
ĠPh il
áŁ ¡
z es
u he
ob i
f ord
Ġq ar
Ġf irm
æµ ģ
à¸Ķ à¸¢
à¸ ©
à¦ ĵ
à¥ĩà¤ ¸
Ú¯ Ø§Ùĩ
20 19
ĠJoh n
á»ĵ ng
à«įàª ²
Äį a
v est
ĠÙħ Øµ
ĠÑĢ Ðµ
ĠÐ³ Ð°Ð·
Ġre k
ĠB at
Q u
×ķ×ł ×ķ×ª
Ñĸ Ñħ
ÑĥÑĢ Ð°
Ġáį ¡
ĠÛģ Ùħ
ĠÕ İ
Ġ\ "
ĠS ep
ĠP ag
è¨ Ģ
Õ Ģ
d at
b es
Ġà¤Ń à¤ı
ĠÐĿ Ðµ
ĠÐ¡ Ð¿
Ġef tir
Ġc en
Ġ" ;
Ġ á»Ł
èµ ·
àº²àº į
×ĳ ×Ķ
Î´ Î¹Î±
· à¥įà¤Ł
Ġà¤ §
Ġn un
Ġm ent
ĠL is
âĢ¦ ]
Ã³ m
ning ar
ĠÐ· Ð°ÑĤ
áŀ º
Ä¼ a
t an
d ÉĻn
Ġ×ŀ× ¦
Ġam in
Ġ] [
ĠD as
Å ŀ
$ (
ĠÐ½ ÐµÐ¼
Ġr ol
ĠI II
ĠA qu
ä½ ¿
Ø§Ø¹ Ø©
Ð» Ð¸Ñĩ
ÈĻ te
T V
ĠÙĨ ÛĮ
Ġn en
Ġh ul
Ġf ak
Ġb ien
ĠF ir
×ŀ ×Ļ
×³ Â
al ing
ĠÐº Ð¾ÑĤÐ¾ÑĢ
Ġz ÅĤ
Ġs ad
ĠN ot
áŀ¶áŀĵ áŁĭ
y j
p is
Ľ áĢ¬áĢ
ĠÙĩ ÙĪ
Ġan a
ĠB ah
Ġ:// :
à´ Ń
à®¾à® ¯
à¨¾à¨ Ī
Ð°ÑĤ Ð¸Ð²
Ġå Į
ĠáĢ ķáĢ
àº ¸
à´ķàµįà´ ·
re et
rav et
ojn Ã«
n at
N E
Ġàª Ł
Ġb anyak
Ġar r
Ġ[ âĢ¦]
à¤¨ à¥į
×ŀ× ¢
Ð± Ðµ
Ð°Ð½ Ð¾
en iyet
ement s
Ġè Ģ
Ġv Ã¡l
Ġs Ã³
è Ń
à²° à³į
Ã¼n k
um Äģ
f b
ect ed
Ġà° Ł
ĠÐ° ÐºÑĤ
ãĥ³ ãĥĪ
ĠÓ ¨
ĠÐ¼ Ð¸
ÏĦ ÏģÎ¿
ov ed
2 D
Ġà´Ĵ à´°
ĠÐľ Ð°Ðº
Ġb uk
Ġal b
¡ à°¿
ok at
Ġh ere
æĦ Ł
à²¿à²° à³ģà²µ
Ð´Ñĸ Ò£
iz o
ch ten
A ll
Ġà¶¸ à·Ļ
éĤĢ è¯·
àª¿ àª¤
Ø§ÙĦ Ùħ
×Ļ×¨ ×ķ×ª
Õ¡Õµ Õ¶
p es
l ash
Ĺàºµ à»Ī
Ġà¦ı à¦¬
ĠÛĮ Ø§
Ġ×ķ ×ľ
ĠÑģÐ» ÐµÐ´
Ġt ie
Ġkn ow
ãĥ £
Ñĥ Ñĺ
an za
ĠØ¯ ÙĪØ±
Ġsp e
Ġj as
ĠS ant
ç« ĭ
Ñĭ Òĵ
Ã¤ Ã¤r
m os
li o
aj n
Ġ×Ĳ ×Ĺ
ĠÐ· ÐµÐ¼
Ġw il
Ġsp ecial
Ġcent er
Ġc ara
ĠDes ign
ĠC D
ĠBar cel
Ã¤ k
v id
m ir
ĠÐ· Ð°Ñģ
Ġw orld
Ġv ec
Ġs Ã¶
Ġm ang
Ġin sp
Ġd og
Ġand re
ĠR am
ĠN ie
Ùĥ Ø±
Ð ¨
nÃŃ ch
ĠÐ± Ò¯
Ġv ill
à±ģà°Ĥà° ¦à°¿
Ð°Ð³ Ð°Ð½
ĠØ¨ Ø§Ø±
ĠÐ¸ ÑĤ
Ġz ad
è® ¯
à±Ĥà° °
g am
Ġsav o
à²® à³įà²®
zy st
f ort
Ġæŀ ģéĢŁ
Ġz aman
Ġje j
é »
Ðº Ð°Ð·
in _id
Ġà°ķ à±ĭ
ĠUS A
áĮ ł
à·Ĵ à¶¶
à¤¾à¤ ¬
m el
ar ing
al Ä±ÅŁ
ĻáĢ½ áĢ¬
Ġs Ãµ
à³įà² ³
à¯įà® ®
z ak
rip t
lÄ± k
U A
ĠÐ´ÑĢÑĥ Ð³
Ġwo uld
ĠC amp
Ġ á»į
Ò¯ Ð¼
l it
eniyet mÉĻ
E Z
ĠÎ´ Î·
Ġt Ãµ
Ġshum Ã«
Ġs ha
×¨ ×Ĵ
Ŀ áĢ
Ġ×Ĳ ×ķ×ª
Ġg ad
Ġc asa
ĠG ra
ĠB iz
áĥĲáĥ ļáĥĺ
à¸£ à¸µ
Ã¡ sa
Ã¡ j
ĠÐ³ Ð¾ÑĢ
Ġh Ã¤
ĠB or
ãĤ į
áŀ» áŁĨ
áį į
à³ĩ à²ķ
Ð¼ ÐµÑĢ
Îµ Î»
ubl ish
pk 10
is ed
ľ áĢ¬áĢ
Ġt og
Ġm og
ĠY a
à°¾à° Ĺ
s et
ĠÚ© Ø´
ĠÑħ ÑįÑĢ
ãĥ Ł
à¸Ķ à¸µ
Ò ĳ
Ñĭ Ñĩ
Äį ni
Ĭ áŁĴáŀĭ
Ġê ±
Ġle het
Ð¸Ðº Ð¸
Ã² n
z in
aj Äģ
ĠÐ¿ÑĢ Ð¾Ð²
ĠÃ¡ ll
Ġn ÄĽ
Ġga an
áĪ ī
ÙĬ ÙĤ
ÑĤ Ð¾Ð¼
ĠáĢ ħáĢ
Ġà°ļ à±Ĩ
Ġtod o
Ġna z
ĠMot or
ç» ĵ
áĤ ķáĢ
ÐµÑ ī
±áĢ ĲáĢ¬áĢ
iv at
Ġutil iz
Ġu c
Ġl j
ì¶ľìŀ¥ ìĥµ
à¥ ¦
" ,"
ĠÐ¿ÑĢ Ð¾ÑģÑĤ
ìļ ©
àª¾àª ²
b on
Ġìĭ ľ
Ġlink in_id
Ġdeal Id
ĠOct ober
ĠB ud
ä¼ ł
à¸· à¹Īà¸Ńà¸ĩ
Ð¸ÑĤ ÐµÑĤ
Î¼ÎŃ Î½
Ã¡ ri
ta c
od u
Ġ×ŀ× Ľ
ĠA cc
Ñı Ð·
ÑĤÑĭ ÑĢ
Ð¡Ð Ĥ
Ïħ Î½
ih at
c em
ant as
ĠáĢ ħ
ĠÐŀ Ð±
ĠÐ¶ Ð°ÑĤ
Ġn iv
Ġl ove
Ġim m
ĠO S
ĠD ur
ic ip
ĠÐ² Ð¾Ð·
Ġr y
Ġolar ak
Ġb ib
ĠH and
éĸ ĵ
è· ¯
ãĥ §
à¸¢ à¸§
Ø§ÛĮ Øª
d ien
R e
Ġson ra
Ġm ud
Î¸ ÎµÎ¯
Î± Î»
Äį as
ug e
ir il
Ġz ast
Ġseg u
Ġm Ã¤r
Ġg em
à¹ĥ à¸Ļ
à´¸ àµį
Ã¼ h
ĠÑį ÑĢ
Ġth ro
Ġs ana
Ġj Ã¤r
Ġdel le
Ġd Ã¼ÅŁ
åİ »
å Ļ
w ork
is et
F A
ĠÐ² Ð¾Ð´
Ġtah un
Ġkom un
Ġg ay
ĠD at
áĥ ŀ
à» ĥ
à² Ń
Õ¿ ÖĢ
Ïİ ÏĤ
amp ai
ĠÐĺ Ð½
Ġwid get
Ġmu ch
Ġk uk
Ġel ec
ĠInd onesia
Ù¹ ÛĮ
×ľ ×ķ
Ġ×Ķ ×Ļ
ĠÎ §
è ĥ
ãĥ ĭ
ãģ« ãģª
Ã¥ de
ut an
il an
am h
ĠÑĤ Ðµ
ĠR em
ĠB ank
Ġ":[ ],"
ÑĨ ÑĨÐ°
Ïģ Î¿Ïħ
iyy ÉĻt
ier a
ĠÐº Ð°Ð±
Ġro b
ĠPor no
ĠIB _
é ĵ
à°Ĥà°¦ à°¿
à§ĩà¦ ĸ
Ïģ Ïĩ
< /
Ġk Ã¶n
ĠV en
ĠB ook
èĢ ĥ
asÄ± nda
ari os
T ag
Ļ áĢ¹áĢ¸áĢ
Ġà¦ľ à¦¨
Ġw ir
Ġau x
áºŃ p
àºŃ àºĩ
Ð´ Ð¶
ĠìĦ ±
Ġà¶ĳ à¶ļ
ĠØ¯Ø§ÙĨ ÙĦÙĪØ¯
Ġ×ŀ× ĳ
Ġword t
Ġv aj
Ġt áº¡i
Ġmar ket
ì¶ľìŀ¥ ìķĪë§Ī
à·ĬâĢį à¶º
Ġà®İà®© à¯įà®±
ĠÎ Ľ
Ġs lu
Ġk ali
Ġb os
ĠM ai
áŀ¶áŀ ĩ
à¦¾à¦ Ĥ
Ðł Ñĳ
l ab
S I
K K
B C
Ġk ai
Ġc zy
à´ ļàµįà´ļ
à²³ à³įà²³
×ķ×ł ×Ļ×Ŀ
ÑĢÑĥ Ð¿
Ð³ ÐµÑĢ
Å¾ en
ĠÑĥ Ð·
ĠÐ¸ Ð»
ĠÐµ ÑĢ
Ġp ur
Ġn im
ĠV U
ĠL oc
áŁĤ áŀĦ
h ad
Ġh az
ĠS ab
Ġ"] },{"
íĶ ¼
ç ĸ
Ð¾ Ò³
Ð Ń
M T
ĠÑģ Ð°ÑĢ
Ġp ir
ĠlÃł m
Ġc ab
íĥ Ģ
í ĴĪ
æĮ ģ
àº± àºļ
à¥ĩà¤ Ł
Ø³ Ø±
Ö ¹
t et
Ġt ad
Ġne j
Ġh ard
Ġd ed
Ã¡ ban
r l
ĠØ³ Ø¨
ĠÐ¸ Ñħ
ĠÐ± Ñĭ
Ð´ ÓĻ
ÎµÎ¹ ÏĤ
Ġ×Ĳ ×Ļ×Ł
Ġar te
à¤¾à¤ ¥
Õ«Õ »
Ñĥ Ð´Ð°
ÏĦÎ¹Îº ÎŃÏĤ
m t
Ġs áº½
à²¨ à³į
ÑģÑĤ ÑĮ
n an
Ġà¨ª à©įà¨°
Ġya ÅŁ
Ġv ra
Ġc up
ĠA le
áĢĢáĢ ¼áĢ
à¸Ń à¸£à¹Į
à· ĳ
àªĤàª Ĺ
à©ģ à¨°
ti ge
ier t
ie i
íĨ ¡
à®¿à®Ł à¯įà®Ł
Ñģ Ð¾Ð½
ch es
b ed
ĠÎĳ Ïħ
Ġx a
Ġm ere
ãĥ¼ãĥ «
ãĥ ĳ
Ð½ ÐµÑģ
Ïį ÏĦÎµ
Ġpr est
Ġm asa
ĠP L
à´¾à´° àµįâĢį
Øª Ø§Ø¨
ul es
\ /
G T
Ġà¥ §
ĠÏĢ ÏģÏĮ
Ġv á»ģ
Ġpl ac
à´¾à´ ķàµįà´ķ
Ñĸ ÑĪ
ÉĻr ÉĻ
z et
n ud
ia us
ang er
an ka
ĠÔ ´
ĠÑĢ Ð°Ð¹
ĠÎ ¶
ĠS ar
à§ĩà¦ķ à§ĩ
ro up
n ika
ĠÒĽ Ò±ÑĢ
Ġto im
Ġins an
Ġ) )
la us
ĠØª ÙĤ
ĠÐ±Ð°Ð¹ Ð½Ð°
Ġ} ;
Ġtab let
Ġ ä¹Ĳ
Ùĭ Ø§
Ð½ Ð°Ð³Ð°
ol ar
ek i
C I
ĠÕ°Õ¡Õ´ Õ¡ÖĢ
ĠÐ¿ Ð°Ð¹
ĠÎ ĺ
Ġz um
Ġsr c
Ġex tra
áĥĺáĥ łáĥ
à±Ģ à°°
ÐµÐ» Ð°
ogra ph
Ġàªı àªķ
Ġt es
Ġn Ãły
ãĥ ĩ
áĥĶáĥĳ áĥ£áĥļáĥĺ
×ŀ× ł
f ik
as se
_ F
Ġh ann
à¸²à¸ Ķ
à¤ķ à¥ĩ
p il
Ġãģ ĵ
Ġà¦ ¡
ĠÛĮ Ú©
ĠÑ Ķ
Ġel Åĳ
åħ «
à³ģà²¦ à³ģ
à§ĭ à¦¨
à¥įà¤ ¦
ÄĹ t
Ã¨ t
¶ áĢ¯
it te
ĠÙĪ Ø²
Ġ×Ľ ×Ļ
Ġsing aw
Ġon d
Ġnat ge
ĠC ha
Ġ" }
íĺ ¸
æ ·
ic ia
Ġtot al
Ġst op
Ġ, -
Ġ*** --
æ ¨
ãģķ ãĤĵ
à³įà² ¸
Ã¸ j
N o
Ġc all
ĠB ro
ë§ ¤
àµįà´ ¥
Äĥ n
Ġ| --
Ġhist or
ĠC ON
àµĨ à´Ł
à®Ļ à¯įà®ķà®³
Ð°Ð¼ Ðµ
ta in
h in
Ġáŀĩ áŀ¶
ĠØŃ Ú©
ĠÑĤ ÐµÐ¼
ìĭ ¤
ãģĦ ãģ¾ãģĻ
à¦ Ľ
Ã³ b
st yr
d in
L I
Ġêµ ¬
Ġà¤ķ à¤¿
ĠÚ©Ø± ÙĨÛĴ
Ġs eri
Ġpro jek
ĠP lan
áŁ Ī
Ùĥ Ø³
Ð½ Ð°Ð½
±áĢ ĲáĢ¼
Ġè ¯
Ġp oc
Ġp emb
Ġem ail
ĠTar get
ĠT ag
ç ¦
áī ħ
áĢ¯áĢ ¶
Ù ĵ
ÖĢÕ ¤
¾ áĢ
}, "
id ing
ĠÑģ Ð¸ÑģÑĤ
ĠEur o
ĠAr ch
äº Ķ
áī ¸
Ø§Ø³ ÛĮ
ÐµÐ² Ð°
tic k
L ist
Ġà¤Ń à¥Ģ
Ġà¤Ĩ à¤ª
Ġà¤¤ à¥įà¤¯
Ġtr y
Ġh ac
íķĺ ê³ł
æ° Ĺ
Äĥ tor
o us
ad ow
_ p
Ġà¤® à¤¹
ĠÕ ª
ĠÑĥ Ð½
ĠÄį as
Ġsem pre
Ġp Å¯
Ġg ebruik
Ġb ai
Ġab y
ĠM ari
ĠHot els
æĢİ ä¹Ī
åĪĨ å¿«3
à¨¿à¨ ¸
Õ¥Õ ¼
nÃ© ho
d h
ĠØ¬ Ø§ÙĨ
ĠÐ½ Ð¸
ĠÐº Ð°Ð·
Ġt iek
Ġm ana
ä¸ ľ
ik ka
Ġh l
å± Ģ
Ð°Ðº Ð¾
Ïģ Î¹Î±
ach t
A Z
ĠÑĤ Ð°Ð½
ĠÑģ Ó©
Ġtem per
Ġbol eh
ĠN eg
ãĥ³ãĤ °
à«ĩàª ¶
¥ à¹īà¸§
y cz
X BF
Ġsh k
ĠW orld
à¸¶ à¸ĩ
Ñģ Ð¸
Ãº t
iv es
ing ga
ah i
ĠÐ¿ Ð¾ÑĤÑĢ
Ġc art
ĠN em
ç ¼
áĥĺáĥ ¨
Ð ĸ
Ã¼ d
r il
ik al
er c
ek tiv
ĠÐº ÑĬ
Ġt av
Ġd á»¥
ì ¶Ķ
ãĤ ¸
Ø¹ Ùħ
Õ¡Õ£ ÖĢ
Îµ ÏĢ
in os
Ġh os
æº Ĳ
sk Ã¡
Ġà°ħ à°¨
Ġà¦¬ à§įà¦¯
Ġ×ľ ×§
Ġy ak
Ġv es
Ġc ard
ĠS anta
à¸ģ à¸£
Ġà¦¤ à¦¾à¦°
ĠÐ´ Ð¾Ð¼
Ġn Ã¥r
Ġm Ã´
ĠA K
éĤĢè¯· çłģ
äºļ æ´²
áŁģ áŀī
Ø¨ Ùĩ
×¡ ×ĺ
Ñı Ð³
Ãº c
v as
n am
c Ä±
Ġà¶± à·Ĳ
ĠØª Øµ
Ġ×Ĳ Ö·
Ġl Ãµ
Ġd ass
áĢ¬ áĢĦáĢ¹áĢ¸áĢ
Ð¾Ñģ Ð¿
Ãª m
v r
ta i
CHARCHAR CHARCHAR
Ġserv ice
ĠS un
ĠP eng
ĠL in
á»ĥ n
à·Ħ à·Ĵ
à°¿à° ¸à±įà°¤
Äį ky
v y
ap on
ac ions
Ļà§įà¦ Ĺ
ĠM un
ĠJ ak
áº ±
Ñ ĵ
og u
im Äħ
ĠÑĤ Ð¾Ð¿
ĠÐ¼ Ð¾Ð´
Ġst ra
Ġsp eci
à³įà² ¥
Õ¸ÖĤ Öģ
Ð½ ÑĥÑİ
y ti
g n
ant u
Ġà¸ Ķ
Ġà°ļà±ĩà° ¸
ĠØ§ Ø¯
ĠÐ²Ñģ Ðµ
us to
ow ych
Ġà¨ Ń
Ġr un
Ġjan Ã«
à«ĭ àªķ
Õ¡Õ¶ Õ¸ÖĤÕ´
Ġ× ²
ĠM B
ĠK un
ĠCh ar
é£ ŀ
áĥĲáĥ ¥
ÙĨ Ø¬
l is
j um
emb ro
ĲáĢ ¼áĢ
ĠÃ¾ Ã¡
Ġtod os
Ġcl ick
Ġcheck K
Ðŀ Ðł
Ð°ÑĤ Ð¾ÑĢ
ir u
ing e
P art
D el
ĠÕ£ Õ¸ÖĢÕ®
ĠÐ´ ÓĻ
ĠÂ ¹
Ġs ht
Ġmat eri
ĠV ideos
ĠK ap
ĠH E
ĠG ratis
Ã¶ m
Ã³ p
AN T
ĳ áĢ¬áĢ¸áĢ
ĠÒ» ÓĻÐ¼
ĠÒ ·
ĠÐĲ ÑĢ
Ġhalam ang
×ķ×¨ ×Ļ×Ŀ
ab er
Ġsol id
Ġsiz es
ĠT om
ĠK am
Ð½Ñĸ Ðº
ŀáĢĬ áĢº
Ġà´¨ à´¿à´
ĠÕ´ Õ¥Õ
ĠÐ´ ÐµÐ¹
é¡ µ
çİ ©
à¹ĥà¸Ĭ à¹ī
¼ áĢ¬áĢ¸áĢ
am ine
Ġíı ¬
ĠãĤ ¢
Ġáī ¥
ĠÑĺ Ð°
ĠÐ¿ÑĢ Ð°ÑĨ
ĠÐ· Ð²
Ġt ako
Ġs ok
Ġl ay
ĠP ap
Ġ ä¹
à§įà¦ ®
ÙĪØ± Ø¯
Î» Î¹
u ur
S H
Ġãĥ ĸ
ĠâĢ ¹
Ġà·Ģ à·Ļ
ĠRe al
ĠI b
ĠA us
ãĥ ĸ
à¦ «
Î¿Ïį Î½
ud o
ĠÙĪ Ùİ
ĠØ· Ø±
Ġ×Ļ ×ķ×ª×¨
ĠU K
à¸²à¸ ª
×ŀ× ©
×ľ ×§
Õ¡ÖĢÕ ±
Ð¸Ñĩ ÐºÐ¸
co unt
Ġì Ľ
Ġsp an
Ġn ang
Ġmed i
Ġlar ge
Ġk ans
Ġf akt
ĠP ok
ĠN aj
ĠMar ch
ê³ µ
f an
ac ak
11 1
Ġìĺ ģ
Ġsang at
Ġp av
Ġh Ãłng
Ġh it
Ġh ip
Ġap ro
Ð°Ñİ ÑĤ
Å« r
eg ory
Ġt ol
Ġp ati
Ġor a
Ġd ic
y ang
eb r
ĠáĢ Ļ
Ġr te
ĠF ar
Ġ$(' #
Ġ# :
è¦ ĭ
àº²àº ĩ
àµģà´ ±
Å¡an u
and id
Ġno ch
Ġl ek
Ġd ute
Ġa sk
Ġ ą
àº į
à§Ģ à¦°
ros s
l ament
ev i
P T
ĠáŁ ¢
Ġcon trol
ĠF R
à´¾à´ µ
Ø´ Ø§Ø±
Ð ¯
k op
Ġ×ĳ ×ł
Ġz av
Ġur m
Ġp Ãºbl
à¸Ń à¸Ķ
ÙĪÙĨ Ùĩ
Ã¸ re
g at
eta il
Ġë°Ķ ì¹´ëĿ¼
Ġm uz
ĠTor res
ë¹Ħì Ĭ¤
à®¾à® ³
à¦¾à¦ Ĺ
ÑĥÐ» ÑĤ
Ð¾ Òĵ
v ad
ug i
ģ ¬
Ġ×ķ ×¢
Ġm ange
Ġbl ir
Ġan che
ĠE L
à¹Ģà¸ Ħ
à«įàª µ
à¥ģ à¤ª
Ñĥ ÑĥÐ´
Ã³ ÅĤ
Ġs oc
áĬ ¨
à´ķàµįà´ķ àµį
Æ Ĵ
ala xy
Ġà·Ħ à·Ĳ
Ġàª° àª¹
ĠØª Ø§
ĠÑģ ÑĢÐµÐ´
Ġng hi
ĠX L
ãĤ °
áŁĴáŀĦ áŁĥ
áĥ ĸáĥĶ
àµĩ à´°
àµģà´¤ àµįà´¤
àªµ àª¾àª¨
àª° à«Ģ
Ð ¬
ang u
ĠÙħØŃ ÙħØ¯
Ġvis ual
Ġn ik
Ġes per
ĠW o
ĠG R
Ð¿ ÐµÑĢ
AA OS
Ġë į
Ġv oc
Ġs op
çĦ ¶
åħ¬ åı¸
ãĤ §
ãģ Ń
à±ĩà° ¶
Ð»Ñİ Ñĩ
Ð°ÑĨ Ð¸ÑĺÐ°
ih in
en za
Ġ×Ĵ ×¢
Ġnu o
ĠPl ay
áĬ ł
à´¿à´¨àµįà´ ±àµĨ
à®³ à¯įà®³
Ø± Ø¶
Ð¸Ð½ Ð¾
ar ra
99 9
ĠÃ§ alÄ±ÅŁ
Ġz g
Ġresta ur
ĠmÃ¡ is
ĠJ ag
Ġ12 2
Ä±n Ä±z
¡ à°¾
ol at
ĠÃ§ Ä±
Ġm ic
Ġein en
ãģ °
à°¾à°¨ à°¿à°ķà°¿
à¦¨ à§įà¦¤
Ð¸ÑĪ Ð¸
ÃŃt Ã¡s
le ction
Ġr Ã¡
Ġest is
à¯Ĩ à®°
Ú¾ ÛĴ
Ð¾Ñ ī
Ð³ ÓĻ
st s
lig a
ard en
Im ages
ĠØ¬ Ø³
ĠØ¨ ÙĪØ¯
ĠÐ· Ð°Ñħ
Ġtemp o
Ġreg ul
ĠN Ã«
áĥĶáĥ ¥
à° ·
ev o
et as
an Ä±
ĠáĪ µ
ĠÔ± Õµ
Ġsh op
Ġad res
íĨ ł
à³Ĩ à²²
en ci
em ente
dz ie
Ġà¶´ à·Ĵ
Ġ×© ×ł
ĠÐ¶ Ð°ÑĢ
Ġk ata
Ġi e
Ġde k
ĠCl ub
ord in
om is
c zy
Ĭ ¬
Ġáŀ ļ
ĠÐ± Ð¾Ð¹
ĠÎ¼ Î±
Ġf rem
à´¾à´ Ĥ
c ol
app ä¸ĭè½½
Ġw ana
Ġper m
Ġgi Ã¡
ĠS n
à¯ĩ à®°
Ø±ÛĮ Ú©
ill Ã¤
ies e
ga z
AM AHI
ĠÙ¾ ÛĮØ´
ĠÐ¢ Ð¾
Ġmar k
Ġg aran
Ġexper ien
Ġd l
Ġabs ol
áŁ ı
áĭ İ
Å¡ ie
´ ĳ
et ar
al de
ĠÐ¼ ÐµÑģ
à°¾à°¯ à°¿
à¦¿à¦ ¶
Ð¸ÑģÑĤ ÑĢ
Ð¸Ð² Ð°
Ïĥ Ïī
Ġå¤§åıĳ å½©ç¥ŀ
ĠÐ¼ÐµÐ½ ÐµÐ½
Ġk az
åł ´
à²¿à² ®
lar da
S D
ĠÚ© ÙĬ
Ġo z
Ġgo ed
Ġg ia
Ġdi ff
ĠWHAK AMAHI
ëŁ ¬
Ð°ÑĤ Ðµ
Ð°Ð³ Ð¸
in ka
ier en
ie b
ang g
ĠáŀĢ áŀ¶áŀļ
ĠÏħ ÏĢÎ¿
ĠB an
Ġ/ "
ê³ Ħ
ç¤ º
à°¤ à±įà°¤
à®¾à® ®
Î¯ ÎµÏĤ
Ãº l
Ġà¶¯ à·Ļ
Ġt um
Ġj Å«s
Ġb ude
Ġb li
ĠC am
è¿ ĳ
àº «
à¥įà¤ ļ
Ú ģ
×ķ×ĳ ×Ķ
Ã² ng
ĠìĿ ĺ
Ġà°¤ à±Ĩà°²
Ġprz ez
Ġf Ã¸l
Ġab er
ĠS um
Ġ19 99
áŁĴáŀļáŀ ¸
à·Ĵ à·ĥ
à¶¯ à·Ĭ
à©į à¨¹
ag ement
74 688
Ġáĭ Ī
Ġáĥ¡ áĥĲáĥĽ
ĠÐ¼ Ð°Ð¹
ĠÐºÐ¾Ñĺ Ð¸
Ġm Ã¡r
ĠK ont
åĮ Ĺ
Ð½ Ñį
Ã« sh
ĠÛ ½
ĠÒļÐ°Ð·Ð°ÒĽ ÑģÑĤÐ°Ð½
ĠÎµ Ïħ
Ġf Ã©
Ġco un
ĠR el
à¹Ģà¸ ģà¸
Ñĸ Ð±
Ä± ndan
w ang
te xt
is z
Ġí Ĩ
ĠÑģ ÑĥÐ´
Ġsa id
Ġloc al
Ġc ou
æ± Ĥ
å¼Ģ æĪ·
à¤Ĥ à¤Ĺ
Ù¹ Ø±
ÑĤ Ð°Ð¹
aj u
Ġê² Į
ĠÑģ Ð¿ÑĢ
Ġs ays
Ġa ve
ĠD V
á»ĭ ch
à²µ à³ģ
on ia
b as
3 d
Ġê ¹
Ġt art
Ġj ih
Ġf at
ĠS eb
åº Ķ
à©Ģ à¨¤
ÑĤÑĭ ÒĽ
om p
id ente
XBF XBF
ķ à¹Ī
Ĭ é¾Ļ
Ġà´ ¯
ĠÕ¯ Õ¡ÖĢ
ĠÐ¿ÑĢ ÐµÐ·
ĠÄĳ Ã³
ĠT ot
ë Ħ
à°¾à° ľ
od en
ang k
Ġì¹´ íĨ¡
Ġàªµ àª¿àª
ĠÙĪ Øª
Ġ×Ĳ ×Ĺ×¨
Ġimage Key
áĤı áĢ
Ġno us
Ġhe fur
Ġf ast
ĠC E
æ© Ļ
áŁĤ áŀĢ
áŀ ¡
áĥ£áĥ łáĥ
Ø§ Úº
Ä ¡
te in
Ġà² ²
ê ·
éĻ ¢
è º«
è ±
áĪ ª
áĥĶáĥľ áĥ¢
à¤¨ à¤¿
ak as
IC A
Ġæĺ ¨
à¤² à¥Ģ
Ð² Ð¸
et es
ĠìĹ °
ĠáĥĶ áĥłáĥĹ
ĠÎĶ E
Ġd ot
ĠT y
Ð°ÑĤ Ñĭ
ip o
im s
ĠÐ± Ð¸Ð´
Ġiz m
Ġfin al
ĠAl b
áŁĴáŀļáŀ¼ áŀľ
à´¿à´ µ
Î´ Î¹
ip a
Ġæ ķ
ĠÐ¸ Ñģ
Ġob chod
Ġmax Images
Ġd k
ĠcheckK ravet
ĠD ol
à¶ ·
à²· à³įà²Ł
àª¾àª £
×¨ ×ª
Ġìķ Ī
Ġf og
ãĤĪ ãģĨ
Ùĩ Ø¯
² áŁĴáŀĻ
uks en
k us
ate ur
Ġà°Ĵ à°ķ
Ġu Äį
é¦ ĸ
ãĤ ¨
àª ļ
up e
ĠÃ¼ ber
Ġn aman
åĻ ¨
×ķ×¨ ×Ķ
Ð°Ðº Ð°
±áĢ ľ
ľì ļ
ĠÐº Ñĥ
ĠÏĥÏĦÎ¹ ÏĤ
ĠÎ±Ïħ ÏĦÏĮ
Ġt j
Ġs ame
Ġh r
Ġcom ments
ä½ ķ
áĢ¹ áĢ¸
re c
Ġà¶ħ à·Ģ
ĠÑį Ð»
ĠV ic
ĠN ord
ĠH ist
è »
áĥĶáĥĳ áĥĺáĥĹ
à°¿à° ®
c ak
aj ar
Ġz as
Ġvi es
Ġq a
Ġl itt
ç ĥ
áĥĲáĥ ĸ
Ð¸Ñ ī
ĠØ± Ø³
ĠÑģÑĤ ÑĢÐ°Ð½
ĠÑģÐ² ÐµÑĤ
Ġwe ek
à±įà°² à±ĭ
à¥ĩ à¤ķ
Ð´ ÑĢ
y u
amb i
ag n
Ġæľ ī
ĠâĢ ³
ĠÐŀ ÑĤ
Ġsz Ã¡m
Ġpol ÃŃ
áº· t
×ĳ ×Ļ×Ŀ
Ã¡l y
in ÄĹs
ib u
ĠÃ ĵ
Ġl Ã¡
Ġbu vo
Ġak c
Ġ? âĢĿ
å§ Ķ
Ö ¶
ÎĻÎ ļ
is chen
f il
d ra
ĠÎŃ ÏĩÎµÎ¹
Ġs eks
Ġkom mun
ä» Ģ
or an
ere a
77 7
Ġsem ua
ÐĲÐ Ķ
ÐµÑĨ ÑĨÐ°
Å¾ d
Ġ×Ķ ×Ļ×Ĳ
ĠÎºÎ± ÏĦÎ¬
Ġt ay
Ġf ost
Ġb ata
ĠL ED
á» «
à¸ĩ à¸²à¸Ļ
ÙĬ Ø²
×ŀ× Ł
ÐµÑĢ Ð°
ij Äģ
ĠáĢ ĶáĢ
ĠÐ¿ÑĢ Ð¾ÑĦ
Ġsist ema
Ġk Ã¼
Ġg ol
Ġever y
Ġc od
ĠM aj
ĠB ut
åĲ ĳ
å¸ ĥ
ÑģÐº Ð¸Ð¹
Å º
y er
em at
ĠÐ¿ Ð»Ð°Ð½
à© Į
à¤¨ à¥įà¤¤
Õ ±
ne h
l us
l ia
ap os
S K
Ġáĥ¡áĥĲáĥ ¥
ĠØ§ Ø®
Ġc Å©ng
ĠN um
ä¸ ĸ
áŀ¶áŀı áŀ·
à°ķà±įà° ·
à¤¾à¤² à¥ĩ
b ack
ĻáĢº áĢ¬áĢ¸áĢ
Ġtrans par
Ġs Ã¤
Ġp Ãµ
Ġl 200
Ġk ub
Ġho e
Ġc ustom
ĠY ork
ĠM P
ç ¬¬
à¤¸ à¥ĩ
ÏĦÎ· ÏĦÎ±
ad z
ĠÐ¡ ÑĢ
Ġt x
Ġc ss
ĠN on
à¹Ī à¸Ļà¸
Äį ÃŃ
Ä« gi
v ien
it ik
et ter
Ġà®ĩ à®¨à¯įà®¤
ĠØ§ Ùĵ
ĠÐ¿ Ð¾Ð½
ĠÐº Ð¾Ð¸
Ġpod er
ĠO k
ĠF eder
à³įà² ļ
Ú© Ø±
q ar
Ġà¦ıà¦¬ à¦Ĥ
ĠÑĢ ÐµÐ·
Ġse us
Ġr am
Ġg Ä§
Ġet c
ĠN A
ä¾ Ľ
à¤¾à¤² à¥Ģ
Ã© si
lig e
Ġà¤ħ à¤ª
ĠÑ Ľ
ĠÐ±Ð¾Ð» ÑĮ
Ġp asi
Ġl iter
ĠB ul
æ »
à±įà° ķ
à§ĩà¦ Ł
ÐµÐ´ Ð¾Ð½
¹ £
our ce
ning er
ĠÐ´ Ð¾Ð¿
Ġnhi á»ģu
Ġke Ã§
Ġj Äģ
ĠK ing
Ġ/ ]
à®¿à® ªà¯įà®ª
¥ àº°
ma q
g est
ĠÑĢ ÐµÐ³
ĠÐ· Ð°Ð³
Ġsp ot
Ġs eda
Ġor i
ÉĻ lÉĻ
r ÃŃ
Ġà¦¥ à§ĩà¦ķà§ĩ
ĠÐ¿ÑĢ Ð¾Ð±
Ġper t
ĠM A
æ¬ ¾
æ ®
à¶¯ à·ĵ
Õ¥Õ¬ Õ«
d ur
al er
Ġj os
Ġdib dib
ĠWh ite
ìĻ Ģ
Ã¡ il
Ġà¥ ¨
Ġnd Ã«r
à°¾à° ¸
Ð³ Ó©
Ð° Ñĥ
Ïī ÏĥÎ·
Ä±m Ä±z
omb re
eder land
P A
Ġå ĳ
ĠÙ ¿
Ġj av
Ġh en
Ġb ene
ÐµÑĢ Ñĸ
Å¾ ÃŃ
ÄĹ jo
cl us
G roup
E E
Ġà·ĥ à·Ħ
Ġà° ¡
Ġk ort
Ġj ur
Ġb agi
ĠT ags
ĠF C
áŁĢ áŀı
à¶ļ à·Ķ
à´¿à´ ªàµįà´ª
à¤°à¥įà¤ ®
Ġãģ Ĭ
ĠÑĤ Ð¸
ĠÑģ Ð¾Ð±
ĠÐ¼ ÑĥÐ·
Ġsh qip
Ġl ui
Ġl ub
Ġdes de
ĠJ ac
æĹĹèĪ° åİħ
à¦² à§ĩ
×Ļ×ł ×Ķ
ÑĭÐ½ Ð°Ð½
Ä± b
Â «
ze j
tu al
or ks
ant en
Ł à«ĩ
Ġà® °
ĠÚ ħ
Ġ2 20
àµģà´£ àµįà´Ł
à¤² à¤¾
ÈĽ ii
or te
az o
ĠÐİ Ð·
Ġpor n
Ġm ie
áĥ£áĥł áĥĺ
áº¥ p
iv il
ak ukan
ĠÐ¶ Ð°Ð½Ð°
ĠÎ ¥
Ġz w
Ġn al
Ġk en
ĠPro gram
ĠOr gan
Ġ Õ¡Õ´
áĭ Ī
áĥĲáĥ £áĥ
à¸§ à¸¢
Ò± Ð¼
Ġè ®
Ġå Ń
ĠØ§ÙĦ Ø°
ĠÑı Ð·
ĠÄĳ á»ĭ
Ġni i
Ġn Ã©
Ġf ace
ĠE 0
Ġ18 0
æİ ¥
Ø³ Ø§ÙĨ
Ð½Ð¸ Ð¾ÑĤ
Îµ Ïģ
µ ľ
B B
ĠÕ ±
ĠÏĥÏĦÎ¿ Î½
Ġng h
Ġh á»įc
Ġgre at
Ġent ry
ĠB os
íķ ł
à¸Ħ à¸¸à¸ĵ
Î¯ Î¶
z im
our nal
is es
Ġìł ľ
Ġà²ķ à²¾à²°
ĠÐ¿ Ð¾Ð¿
ĠÐ· Ð´
ĠÐ´ Ð¾Ð±ÑĢ
Ġm and
ĠDec ember
à¨ Ĩ
ÙĦ Ø©
ÉĻ dÉĻ
±áĢ Ģ
wo od
ik ut
ĠÃ¡ r
Ġsu ur
Ġj un
à» Ħ
ÑĪ Ð¸
Ïħ Ïĥ
ek tor
ĠØ§ÙĦ Ø·
ĠÐ°Ð´ Ð°Ð¼
Ġth a
Ġg ang
ĠSe e
ì§ Ħ
áº »
à¸¡ à¸²à¸
à¦¦ à§ĩà¦°
Ã¡ ci
ot as
Ġà®µ à¯ĩ
Ġc it
ĠS y
ĠBarcel ona
ĠB M
è´ ¹
ç ı
æ° Ķ
áŀ Ĵ
ÙĪ Ø§ÙĦ
Î¼ Î®
Å¡ ki
° áĢ¸áĢ
z ione
ow any
art o
ĠÎĳ ÏĢ
Ġpr v
Ġk rit
Ġh il
æĥ ³
áŁĴáŀľ áŀ¾
Ð½ Ð°ÑĢ
ÐµÑģ Ðµ
±áĢ ķ
Ġê° ķ
Ġç Ľ
ĠÙĪ Ø³
Ġw ikipedia
Ġne i
Ġba ÄŁ
ĠB it
æ¥ Ń
Ñį Ñģ
j ÄĻ
Ġìŀ Īëĭ¤
Ġáĥ «
ĠÐ±Ð¸Ð» Ð°Ð½
Ġta o
ĠM es
Ã¼ nd
h n
au x
ĠáĥĹ áĥĲáĥķ
ĠØ´ ÙĩØ±
Ġv iss
ĠT est
ĠB rit
åħ ·
áŀĵ áŁģáŁĩ
à¯ģà®³ à¯įà®³
Ð¸Ñĺ Ð°ÑĤÐ°
ÐµÑģ Ñģ
Ãł o
at ti
ĠÐ¶ Ð°Ñģ
Ġeur o
ĠAd min
à°¦ à°¿
à¦ķ à§įà¦¤
yy yy
m Ã«
AAOS w
ĠÎ Ī
Ġm Ã©
Ġba ik
Ġanmeld elser
ĠT ek
ĠBa ÅŁ
à¶ ®
Ø§Ø± ÙĬ
Ð¼ Ð¸Ð½
Ïĩ Î¿ÏħÎ½
si y
ing an
il and
ab an
IS T
Ġå ½
Ġà¨µà¨¿à¨ ļ
ĠÎ¼Îµ ÏĦÎ±
Ġya x
Ġkan Ã«
àµĭ à´Ł
Ð²ÑĢ Ð¾Ð¿
Î¹Îº Î®ÏĤ
si es
it aj
ir os
Ġà´¸ à´Ĥ
Ġàª ¡
ĠÕ¡Õµ Õ¶
Ġv ah
Ġr ic
Ġg Ã¥
Ġen n
ĠH an
ĠE g
å¸ ¸
áŀ¹ áŀĢ
×ķ×ľ ×Ŀ
ss Ã¤
ch ts
ak er
Ġ×Ĳ ×ł
Ġs ett
æİĴ åĪĹ
à¨¾à¨ ¹
à¦ķ à§įà¦·
ÑĥÐ² Ð°Ð½Ð½Ñı
ord s
n b
er m
ĠÐ¼ ÓĻ
ĠÐº ÐµÐ·
Ġtr Ãªn
Ġmin t
Ġinte gr
Ġar tik
ĠT rip
Ġ10 px
ì ¡°
éĹ »
çĦ ¡
à¹Ģà¸ §
f all
aj Äħ
S h
Ġì ĨĮ
Ġà¸ ģà¸²à¸£
ĠØª Ú¾Ø§
ĠÑĤ Ñŀ
Ġs ign
æĽ ´
ãģ§ ãģį
àª¤ àª¾
×ĳ ×Ļ
ĠÎļ Î±
Ġproj ekt
Ġmat erial
Ġg ur
à©± à¨ķ
à¤ Ľ
Î¼ Î¹
el Åĳ
al le
Ġà¦¸ à¦Ĥ
ĠÙĪ Ø¬
Ġ×ĳ ×§
ĠÑģ Ð¾Ð½
ĠÐ¿ÑĢ ÐµÑĤ
ĠÐ´ ÐµÐ½
ĠÃĲ Âº
ĠtÃ¶r vÃ©ny
Ġhan ya
Ġd or
ĠM ach
å¼Ģ å¥ĸ
áŁĴáŀ Ķ
à¶Ń à·ı
à´ §
Ò¯ Ð·
Ð°Ð½ Ð¾Ð²
ut u
pro d
it is
Ġf ill
ĠK im
ĠB ab
àº²àº ¡
Æ°á»£ ng
r Ã«
Ġgr and
Ġda ug
Ġd iz
Ġb Å«t
Ġ= '
áŁģ áŀĽ
àº± àºĻàº
à±įà°¨ à°¿
à¤¾à¤¨ à¥Ģ
Ø¨ Øª
ĠÐĺ Ð·
ĠÐº Ò¯Ð½
ĠN ational
áŁĴáŀ Ĭ
àº± àºĻ
à®ªà¯įà®ª à®Łà¯įà®Ł
àª Ń
Õ¥ ÖĦ
ong o
on da
ĠÐĲ Ð½
Ġproc ess
Ġpr ie
ìĦ ¸
ç¥ ŀ
à¹Ģà¸ ķ
×ķ ×ķ
± áģ¾áĢĢ
und o
ko z
iy an
Ġâ Ĥ
Ġ×ľ ×Ľ
Ġy on
Ġq ay
Ġg eg
êµ Ĳ
åİ Ł
Ð´ ÐµÐ½
u it
ic t
Ġà¤² à¤¾à¤Ĺ
ĠÒ¯ ÑĪ
ĠÐº ÑĥÐ¿
Ġst ore
Ġnot e
Ġm ult
Ġ13 0
à®¤à¯įà®¤ à®¿à®²à¯į
Ð¾Ð² Ð¾ÑĢ
Ð°Ð´ Ð·
em u
Ġpar tic
à¨¿à¨ ²
×ł ×¡
ÅĨ u
p as
AR A
Ġà´ ¦
ĠÑĤÑĢ ÐµÐ±
ĠÐ° ÒĽ
Ġd itu
Ġber k
ĠM it
ĠLiet uv
Ġ19 98
áĥ® áĥķ
Ïĥ ÏĦÎ±
sk Ã½
ind ÉĻn
ard i
ĠÙħ Ø³Øª
ĠÐ° ÑĪ
Ġye ar
Ġo tr
ãģĤ ãĤĬ
âĢĮ ÙĩØ§ÛĮ
áĥĲáĥ ¤
pres ent
Ġàª¤ àª®
Ġm Ã¶
Ġcs ak
Ú© Øª
Ð¸ÑĤ Ñĥ
oy al
ĠÕ¥ÖĢÕ ¯
ĠÎ± Î»Î»Î¬
Ġw ird
Ġt ub
ĠP P
à¶Ńà·Ĭ âĢį
à± ĥ
à°¿à° ¸
×Ĳ ×ª
w l
s an
ros oft
ĠáĪ Ľ
Ġà´ Ł
Ġmed ic
Ġch u
à¸Ħ à¸£
à¸´ à¸§
Î¿Ïħ ÏģÎ³
oj o
estiv al
ĠÑı Ð²
Ġl ing
Ð´ Ð¸ÑĢ
Ð°Ð½ Ð³
Î´ Î·
im es
ci es
Ġra h
Ġna ud
Ġh ele
ĠN ik
ĠB ras
áŀĢ áŀĺáŁĴáŀ
áĪ Ĩ
à´¿à´ķàµįà´ķ àµģà´¨àµįà´¨
à«ĩàª Ł
×ŀ ×Ļ×Ŀ
×¨ ×ĺ
l ang
ik ia
_ s
Ġà¤¨ à¥ĩà¤ª
ĠØ§ÙĦØª ÙĬ
Ġv ide
Ġp end
Ġma a
Ġg eh
í İ
Ð¼ Ñĸ
Î² Î¬
b ul
ays ia
ak ter
Ġáĭ «
ĠÒĽ Ò±
ĠÎľ Î±
èĢ ģ
æĶ ¾
à¸£ à¸·à¸Ń
à¶¯ à·ı
à´¾à´ Ł
à³ ķ
ight s
ĠáŀŁ áŀĺ
ĠÑĢÐ°Ð· Ð²
ĠÐ¸ ÑģÐ¿
Ġv Ã¦r
Ġproc ed
Ġn ut
Ġf lex
ĠU TC
×ĳ ×ķ×ĵ
Ð¸ÑĤ Ð¾
uss en
p j
Ġéĩ ĳ
ĠÐĲ Ð²
ĠÐ¢ ÑĢ
ĠÎ´ Î¹
Ġmin ist
ĠP el
à¹Ģà¸ ¡
ung e
U E
Ġ×ŀ× Ĵ
ĠÐ¾ ÒĽ
Ġt ec
Ġl áº¡i
Ġha fa
Ġgj ith
Ġg ali
ĠT il
ĠEng lish
à¨ ¡
Å¾ it
w ard
it iv
ht u
ed d
Ġà¶´ à·Ĳ
ĠÒĽ Ñŀ
ĠÃ ħ
Ġp irm
Ġge en
Ġb g
ĠA ustr
Ġ". "
im us
ian o
Ġà¶¶ à·Ģ
Ġà°ķ à±Ĭ
Ġàª®àª¾àª Łà«ĩ
Ġtim bang
Ġm iss
Ġi ma
áĥĲáĥ ĳ
ac ji
ĠÕ«Õ¶ Õ¹
Ġlab or
Ġinv est
àª¾àª ¦
ÏĦ ÏīÎ½
ort s
as z
U C
ĠÐ¼ Ð°Ð³
ĠÎ¬ Î»Î»
Ġy ah
ĠvÃł o
Ġod p
Ġh ely
Ġh elt
Ġat tr
ãģ ĺ
áŁĴáŀ Ĵáŀ
à¸³ à¸«
ar on
OR T
Ġà®µ à®°
ĠÐ¼ ÐµÑģÑĤ
Ġnec ess
Ġneb o
åŀ ĭ
å·¥ ä½ľ
à³ĩ à²³
y at
c ka
ĠÎ¸ ÎŃ
Ġt ash
Ġs od
Ġber b
ĠDo uble
Ġ14 0
áī¸ áĭį
à¸Ńà¸¢ à¹Īà¸²à¸ĩ
à¯ģà® ªà¯įà®ª
Ø§Ø «
ol en
is ion
ib er
V A
Ġà¨ķ à¨¿
Ġà ¬
ĠØ¯ Ø³Øª
ĠØ¢ Ùħ
ĠÒ ®
Ġsin h
Ġre ad
Ġale bo
Ġa ast
ĠHo use
ì¹ ĺ
æ± Ł
å¾ Ī
Ø§Øª Ú¾
iv ery
il en
h us
_ S
ĠÑģÐ» ÑĥÑĩ
àª¿àª ²
à¤¹à¥Ģ à¤Ĥ
und i
ec tion
ĠÛ ²
Ġpolit ik
Ġ! âĢĿ
åį İ
âĢ ĺ
áĤ Ģ
ÏĦÎ¿ Ïį
ou gh
ist es
Sel ector
Ġàª¸ àª¾àª
ĠÑħ Ð¾ÑĢ
Ġl uc
Ġdire ct
Ġdel a
à·Ħ à·ı
à²¾à² ¡
ÙĪ ÙĪ
ia ÅĤ
M P
ĠÙĪ Ø£
Ġ×ĳ ×¡
ĠÎľ Îµ
Ġparti cip
Ġp oj
Ġd uke
Ġ', '
áĥĶáĥ Ŀ
à²µ à²¨à³įà²¨à³ģ
à«ĩ àª°
à§ĭ à¦Ĺ
Î¸ ÎŃ
Äį et
Ġæĺ¨ å¤©
ĠáĥĶ áĥ¡
ĠÎł Î±
Ġsam t
ĠF em
ĠC O
à¯Īà® ķà¯įà®ķ
à«įàª¯ à«ģàªĤ
à¦¾à¦ ¶
Ð¸Ñģ Ð¸
ÏĮ ÏĤ
ek k
at te
ĠÃ ĺ
áº «
à§įà¦ §
Õ¾ Õ¸ÖĤÕ´
Õ Ī
Î¹Îº Î¿
ki i
E lement
Ġà¸ Ĭ
Ġà¸ ¥
Ġà²¬ à³Ĩ
Ġà¨ ĸ
Ġt ir
Ġsec ara
ĠP red
ĠC hi
Ã¼ ck
v or
ec ek
al in
_ d
Ġpl ace
Ġmul ti
Ġmod ern
Ġde ÄŁ
ĠPa ul
é¢ ĺ
à³Ĩà² ¸
Ð¾Ð»Ð¾Ð³ Ð¸Ñı
Ð°ÑĢ ÑĥÑģ
Ð°Ð¼ Ð¾
Î ¥
Äĵ ja
Äį ek
ľì ķ
Ġupor ab
Ġil g
Ġbund les
ĠRes p
ĠC op
à°¿à° Ĺ
ÐĲÐ ¢
Î¾ Î·
¥ áĢ
re j
ir in
Ġä¸ ī
ĠØ§ Øª
ĠÐŀ Ð´
ĠÃ¡ t
Ġl ov
Ġhot ell
à´¿à´Ł àµįà´Ł
Ã® n
tu a
or ang
Ġ×Ķ ×ĵ
ĠÑĤ Ð¾Ð¼
ĠÑģÐ¿ ÐµÑĨ
ĠÃĲÂµ ÃĲ
Ġe j
ĠH i
à®¿à® ´
Ú Ļ
Ã° um
Ĥ áĢ
Ġà¸ Ĺà¸µà¹Ī
Ġà¨ «
Ġt eng
Ġsv ar
Ġs ot
Ġp asa
Ġh Ã¡
Ġcont inu
áĥĺáĥ¡ áĥ¢
à¥ĩà¤ µ
v ez
Ġs le
ĠB ed
å¸ Ī
å¦ Ĥ
ãĥ¼ãĥ Ī
áŀĩ áŀ¶
ÙĲ ÙĬ
Õ¸Õ ¿
ÄĻ d
n iri
Ġè ĩ
Ġæ ¾
Ġà¶ļ à·ħ
ĠÕº Õ¥Õ¿
Ġn ez
ĠH ow
è® º
äº Ľ
áº¥ y
à°Ĥà° ļ
Ð¸Ñģ ÑĮ
ÐµÐ³ Ð¾
Ä¾ a
Ãº ng
j Ã«
Ġà¤µ à¥įà¤¯
ĠÃ ¢
Ġmo z
Ġf iz
Ġf ebru
íĸ Īëĭ¤
éĺ ³
à±įà°² à±ģ
à¨¸ à¨¼
Õ¸ÖĢÕ ¤
id d
ES S
Ġ×ŀ× ŀ×
Ġta x
Ġp ont
Ġm um
Ġdok ument
áŁĲ áŀĻ
à¹Ģà¸Ľà¹ĩ à¸Ļ
ÙĨ Ùĩ
×¨×Ĳ ×ľ
qu er
Ġìľ ł
Ġæ ²
ĠØ¨ Ø§Ø´
ĠÒĽ ÑĭÐ·
Ġt ÃŃ
Ġem p
áĥĲáĥł áĥĺ
Ġà¤ª à¤¹
ĠÙ¾ Ûģ
ĠÕ¡Õ ·
ĠÑħ Ð°Ð»
Ġh ang
Ġg ibi
Ġdo en
Ġdar b
ĠL ab
ĠF ra
ĠE ste
ãĤ Ń
à¥įà¤ ·
Ġä¹Ĳ æ©Ļ
Ġà²¹ à³Ĭ
Ġà°² à±ĭ
ĠÑĥ Ð¼
ĠÄ «
ĠPers on
Ã¸ y
l ie
ien e
at in
ar kan
Ġáį £
ĠáĪ Ŀ
ĠàªĨ àªª
Ġz ur
Ġpro per
ĠT ab
Ġ10 1
à±ĩ à°°
à«ĩàª ķ
Î¹ Î½
w in
w ie
ol la
o e
Ġrez ult
Ġp ier
Ġd ov
Ġch á»ī
Ġc ad
ĠP ed
ĠK aw
ĠJul y
ĠFran k
ãģ« ãģ¯
àª¾àª° à«ĩ
Ú ĸ
ro z
ow i
ho z
ĠÐ¼ Ð¾Ð»
Ġuw sa
Ġty m
Ġpen y
Ġos ob
Ġmem il
ĠProd uc
ĠP u
ĠE f
çİ ĭ
áĥĿáĥ ¤
à²° à²¿à²¸
à²¨ à³ģ
à¤ ł
Ù į
Ø§ÙĨ ÙĬ
d as
ar Ã¡
ĠÐ¿ÑĢ Ð¾Ð³ÑĢ
Ġt ema
Ġsel le
Ġk uko
ĠB L
ĠAl le
Ġ... ..
à´¾à´ ¸
à³ Į
Äĥ ri
y z
Ġf ik
Ġa ang
Ġ/ >
ta b
it ra
g ende
an se
2 88
ħ áĢ¬áĢ¸áĢ
ĠÛģ ÛĮ
ĠÙĥ ÙĦ
ĠÑĤ ÐµÐº
Ġs hi
Ġmy Ã¶s
Ġbek ezd
ĠIn t
ĠF eb
ï¼ Ĳ
æĸ ¯
ä¸Ģ ä¸ª
à±Ģ à°¸
Õ¡Õ ©
Ïģ ÎµÏĤ
Ã¡l nÃŃ
w ij
l Ã¡
j Ã³r
er de
Ġå Ĭ
Ġà° «
ĠÄĳá»Ļ ng
Ġu a
Ġn Ã¦r
ĠE X
ĠAr tikel
à¶º à¶§
ÙĪ Ùģ
Ã¥ nd
yr bil
Ġìĭ ł
Ġä» Ĭ
ĠÑĤ Ò¯ÑĢ
ĠÃ§ ox
Ġr ast
Ġfor t
ĠP ot
Ġ' )
æĪ ĺ
á» Ĺ
à¹īà¸²à¸ ĩ
à¨¿à©±à¨ ļ
à¤¾à¤¨ à¥ĩ
Ð¾ Ð¾
Å¡t ÄĽ
Äį iau
t Ä±r
ĠÒ ²
ĠÐ¿ÑĢÐ¾ Ð¸Ð·Ð²
ĠÐ½ ÐµÐ´
ĠÐ ®
Ġl le
ĠK it
ĠD ig
ãģĦ ãģŁ
ÖĢ Õ¡
Ð½Ð¾ÑģÑĤ ÑĮ
Ä ©
st ru
ite it
io on
O r
ĽáĢ½ áĢŃáĢ
Ġì ¶Ķ
Ġà¤¸ à¤°
ĠÙĪ ÛĮ
Ġs ort
Ġs ide
ìĿ´ ëĭ¤
ç§ į
à¸Ĺ à¸¢
ÑįÑį Ð»
Ð°ÑĤ ÐµÐ»ÑĮ
it za
ĠÃ© v
Ġheb ben
Ġb ok
ĠMol iner
ĠApp le
ë ĳ
æĹ ł
à¸± à¸ģ
×Ļ× £
Ä±s Ä±
un un
r Ã©
S ub
ĠØ® Ø¯Ùħ
Ġpre j
ĠP il
ĠA lex
èģ Ķ
ç Ĺ
æī ĵ
ost en
Ġë Ĳ
ĠØ¹ ÙħÙĦ
Ġ×Ķ×ŀ× ©
ĠÕ Ĭ
ĠÐļ Ð¾Ð¼
Ġv ik
Ġp ublik
Ġar m
ĠT H
ĠSo uth
ĠAp art
Ġ2 10
Ø³ ÙĬ
Ö ħ
j ect
az z
Ġë§ Į
Ġl ati
ĠG alaxy
ĠC P
æĬķ æ³¨
à³Ĭ à²Ĥà²¡
Õ¡Õ¶ Öģ
Ã½ s
« áĢ
s b
ens ion
ľáĢ¯áĢ ķáĢ¹áĢ
Ġç ľ
Ġáĥ¨ áĥĶáĥĽ
Ġà¨ĩ à¨¸
ĠÑģÑĤ Ð°ÑĢ
Ġs á»±
ĠV el
ä»Ģ ä¹Ī
ÛĮÙĨ ÛĮ
ut as
ag t
Ġëĵ ±
Ġà¨µ à¨¿à©±à¨ļ
ĠÑĥ Ð¿
Ġet ter
áĥ ĸ
à«įàª¯ à«ĭ
Ù ¼
Ð½Ð¸Ðº Ð°
Ã© ri
Ġ×© ×ĳ
ĠÐł Ðħ
ĠÐĲ Ð±
Ġf u
Ġex c
Ġdis pon
ĠH igh
Ġ24 0
à¤ ¢
Ð» Ñĥ
l ak
ese arch
D R
Ġà°ª à±Ĩ
Ġd yn
Ġcatalog Group
sz er
in ni
ick Ã©
ar in
Ġëª¨ íħĶ
ĠØŃ Ø§ÙĦ
ĠÑį ÑĤÐ¾
Ġo vat
Ġm art
ĠdÃ© c
Ġa iz
è¿ ĺ
Ð¸Ñģ Ñı
t te
l Ã¤
an u
C O
Ġå Ĩ
Ġtrans port
Ġkab el
å Ķ
áº£ o
or de
est r
Ġà¹Ģà¸ ŀ
Ġà´ Ń
Ġ×¤ ×ķ×Ł
Ġwe ight
Ġwa xa
Ġtel ev
Ġn ÃŃ
Ġh over
Ġdis p
æģ ¯
áŁ ¢
à¦¾à¦° à§įà¦
×Ļ× ŀ×
Å Ŀ
ung u
o en
n n
EL E
Ġì Ļ
ĠÚ© Ø§Ùħ
Ġv ac
Ġhi á»ĩn
Ġg ast
Ġfamil y
Ġar k
à¸³à¸« à¸£à¸±à¸ļ
ÑģÐº Ð°ÑĤÐ°
Ð¾ÑģÑĤ Ð¸
w erk
h el
12 3
Ġæ ³
Ġáŀĸ áŀ¸
Ġá Ĥ
Ġà¹ Ģ
Ġà®Ĵ à®°
Ġkon trol
Ġg uz
Ġal ign
ĠL ast
ëł Ī
à°Ĥà° Ĺ
Õ Ĩ
Ð §
ul ta
ri an
re as
n av
Ġå¿ «
Ġä¸ Ĭ
Ġà¨² à¨Ī
Ġfav or
ĠM c
ĠG j
à²¾à² £
ÙĪ Ùĩ
×¢ ×Ŀ
Ðķ Ðł
Ð°ÑĨ Ð¸Ð¾Ð½
ti b
Ġìľ Ħ
Ġå º
Ġm ess
Ġi p
Ġave a
ĠM ath
Ġ î
áº¿ u
à´¿à´² àµĨ
±áĢ ĲáĢ¬
ut ako
on as
ens a
Ġëı Ļ
Ġà¤ħ à¤¸
ĠÕĢÕ¡Õµ Õ¡Õ½Õ¿
ĠÐľ Ð¸Ð½
Ġsu ch
Ġsp i
ĠM obile
Õ¶ Õ¥Õ¬
Ã ¿
z el
v od
t il
ag ra
ĠâĦ ¢
Ġà²İ à²Ĥà²¦à³ģ
Ġol la
Ġl ie
à¸Ń à¸ģà¸
à²Ĥ à²Ĺ
à²¾à² ¤
à°¾à° ¡à±ģ
Ú© Ùĩ
ul la
sk u
g eb
ent al
Ġà¦¨ à¦¿à¦
ĠØ¯ ÙĨ
ĠÐ³Ð¾Ð´ Ð¸Ð½Ð°
Ġth umb
Ġr at
Ġbon us
Ġä» ĸ
Ġàªķàª° à«Ģ
Ġà¤° à¤¾à¤ľ
ĠÐ¹ Ñŀ
ĠÐ± Ð°Ð½
Ġte x
Ġprof ess
Ġi c
Ġex pl
à«įàª¯ àª¾
Ñĸ Ð¶
ÉĻ z
Ã¢ u
t ak
ic ar
G AA
ĠæĹ ¥
Ġnh áº¥t
Ġdá»¥ ng
ĠE en
Ġ12 3
æľĢ æĸ°
æ² »
ãĥ ł
×¢ ×ª
Ðº Ð°ÑĤÐ°
Ä« m
ur b
ter e
sk ar
at r
at ar
Ġà¤ķà¤¾à¤° à¥įà¤¯
ĠØ´ ÙĨ
ĠÕ¡Õ¼ Õ¡Õ»
Ġy ake
æł ·
áŁģ áŀĦ
à·Ĵ à¶¸
à©Ģ à¨Ĥ
à¥įà¤ §
×ĺ ×¨
Ð¾ÑĤ Ð¾Ð²
Ð¸Ð½ Ñĥ
v iew
Ġæ ±
Ġáŀļáŀ ĶáŀŁáŁĭ
Ġà¤ħ à¤§
Ġf ly
ĠK ab
Ġ11 1
Ð¼ Ð¾ÑĤÑĢ
ÏĢ ÎµÎ¹
Ã¡ rio
st vo
l or
g ot
Ġç ī
Ġm aka
Ġm ade
Ġg Ã¶z
ĠSt and
ëĿ¼ ìĿ¸
à® ¸
Õ¡Õ¦ Õ´
Õ¡Õ ª
ro u
ll Ã¤
im en
ĠØŃ ÙĤ
ĠÐĵ ÑĢ
ĠÃ®ntÃ¢l niri
Ġo tt
Ġc ul
ĠI h
ĠE gy
à¦¾à¦ ģ
» ¤
im an
ĠØ³ ÙĨ
ĠÐ´ ÐµÑĤ
Ġsk up
ãģ§ ãģ¯
áŀŁ áŁĴáŀŁ
Ð» ÑĸÐº
Ðº Ñģ
n ou
end ed
dr ess
ĠÃº l
ĠT od
ĠN ET
ĠMar ia
Ð¼ Ñĥ
Ð³Ð° Ð°
w id
pl es
oj Ã«
ar es
Ġs á»ĳ
Ġs ve
Ġand ere
ĠPD F
ĠM em
ĠB ag
à¹Īà¸²à¸ ¢
à¦¾à¦¦ à§ĩà¦°
à¤¾à¤ ¡
Ñĥ Ñĭ
Ð½ Ð¾ÑĤÐ¾
re i
m us
alar Ä±
Ġàª¤ à«ĭ
ĠØ¨ Ú¾
ĠÕ¿ Õ¥Õ²
ĠÐ¾ÑĢÐ³Ð°Ð½ Ð¸Ð·
Ġim pl
è¢ «
Ã¼ let
is se
is ia
ey n
atz eko
________ ________
J A
Ġå ¦
Ġà¦ ĺ
ĠØ§ ÙĪÙĦ
ĠÑ ļ
ĠC ab
çķ Į
æ¸ ¯
ãģĦ ãģ¦
à¹ī à¸ĩ
à¦¾à¦ §
×ľ ×ª
ti me
r el
k ou
Ġg ut
Ġar ch
áĥķ áĥĶáĥľ
à¶± à·Ķ
Þ ¦
Ð¼ Ð¾
Ð°Ð» Ð¾
Ġà¦Ĩ à¦°
ĠÑĤ Ð°ÑĪ
ĠÑģÐ¸ÑģÑĤ ÐµÐ¼
ĠÐ·Ð½ Ð°Ñĩ
Ġk Ã¶r
Ġk is
Ġar ea
ĠC L
á»ĩ c
à¤¾à¤ķ à¥ĭ
ÙĪÙĨ ÙĪ
ÐµÑĩ Ðµ
Ã«t Ã«
zen ie
olog ia
ich e
Ġà´ļ àµĨà´¯
Ġà¤ª à¤¨à¤¿
Ġorgan is
Ġd ad
Ó© ÑĤ
ÐµÐ¼ Ð»ÐµÐº
v s
art en
C h
Ġáŀ¢ áŁĴáŀĵáŀĢ
Ġáĥ ļ
ĠÑĤ Ó©ÑĢ
ĠÐµ ÑĤ
Ġc y
ĠN d
Ġ Õ¡Õ¾
é ¤
áĢĦáĢ¹áĢ ·
à·Ĵ à·Ģ
Ú© Ø³
ÙĪÙħ ÛĮ
Ø§Øª ÛĮ
ÅĨ a
ro g
lÄ± q
ik si
ik as
Ġà´Ĵà´° àµģ
ĠÃ© l
Ġm ÃŃ
Ġi con
ĠI d
à° ¶
ÑĥÐ²Ð° Ð°ÑĤ
Ð¾Ð» Ð°
Î Ľ
b ir
amb o
al k
ĠØ¨ ØŃ
ĠØ§Ø³ ÙĦØ§Ùħ
ĠÃº r
Ġse ction
ĠN as
à°¾à° ª
ÎµÎ¯ Î¿
pon se
ot ype
it ev
Ġæ °
Ġáŀĵ áŁģáŁĩ
Ġà¦ªà§įà¦° à¦¤
ĠÐ± Ð»
ĠÎºÎ± Î¸
ĠRe ad
áĭ ĭ
à´¾à´ ®
à¦¾ à§ľ
à¤¤ à¤¿
×Ľ ×ķ×ľ
em en
ek l
ang kan
Ġë ¨
ĠØ§ Øµ
ĠÑĥ ÑģÐ»
ĠÑģÐ² Ð¾Ñĺ
ĠÎµÏĢ Î¯
Ġos s
ĠW all
ĠF ull
ãģķ ãĤĮ
áŁĬ áŀ¸
áŀĵ áŁħ
áĥĺáĥ ĸ
à¤¾à¤ £
Ð¼ Ðµ
Ðµ Ð¾
opp ing
et Åĳ
C D
Ġt wo
Ġp uj
Ġn Ã¤r
Ġlang _
Ġf Ã¨
Ġe a
Ġ- --
à¸Ļà¸ ´
×ľ ×ĺ
ÑĤ ÑĭÐ½
t n
sk y
p ol
ell Ã¤
ek om
I AN
ER S
ĠÐ°Ð¶ Ð¸Ð»
Ġr s
Ġl Ã©
ĠH om
æ ¹
ä» ·
Ġáĥ ĸ
Ġpag ka
Ġf ix
Ġde z
Ġak tu
Ú ļ
Ø« Ø±
Ñĸ ÑĨÑĮ
ÏĮ Î³
up akan
tic as
O U
ģ áģ
ĠìŀĪ ëĬĶ
Ġä½ Ĩ
ĠØ¢ Ù¾
Ġar tikel
ĠInd ia
ĠB and
ê¹ Į
ä¼ ģ
áĤ ķ
àº ½
×ľ ×ĳ
w ays
at us
45 6
ĠÑı ÑĪ
Ġpop ular
Ġma ak
ĠTw itter
ĠB ill
áŀĹ áŀ¶áŀĸ
à·Ħ à·Ķ
à¦¿à¦ Ł
Ð°Ð» Ð¸Ð·
³ Û
m az
H ot
Ġæ Ĭ
Ġà¤¨ à¤¿
ĠÑĤ Ð¾Ð»ÑĮ
ĠÑĤ Ð¾Ð»
ĠÐ± Ó©Ð»
ĠÄį i
Ġtr as
Ġtak e
Ġt Ã¡
Ġjs ou
ĠR esearch
áŀĦáŁĴáŀ Ģ
áŀĦ áŁĭ
Øª Ø¯
Ð½ ÐµÐ½
Ä± yor
Ã¡ ciÃ³
ti va
t d
ar ang
ĠØŃ Ø³
ĠÕ¡Õ· ÕŃ
ĠÐº ÑĭÐ·
Ġw it
Ġver iÃ°
Ġmen c
Ġconta iner
ĠS pr
ĠMon aco
à¥ĭ à¤ľ
Õ¡Õ² Õ¡ÖĦ
ÈĽ ia
Ã´ n
ĠÎĿ Î¿
ĠÄĳ áº§u
Ġkom ple
Ġb osh
ç¾ ¤
åħ ¶
à¹Ģà¸ ĩ
Ðŀ ÐĿ
ÐµÑĤÑĤ ÑĸÐº
ÉĻ si
iv al
en ia
el is
E x
ĠãĤ ·
à¶¸ à·Ķ
Ø´ ÛĮ
ĠÚ© ÙĦ
ĠÙĦ Ùħ
ĠØ ¸
ĠÔ ¹
Ġ}, {"
Ġtr en
Ġreg ist
Ġpro pos
Ġp ik
Ġf ollow
Ġb ara
à®¿à® ®
à§ĩ à§Ł
ÙĨ Ø§Ùħ
ÑĭÑģ Ñĭ
Ñģ Ð¸Ñı
ah l
Ġà§¨ à§¦
Ġà¦ı à¦ĩ
ĠÏĥ Ïį
Ġt ung
Ġm obile
ĠT em
ãĥĥ ãĥĹ
à²µ à²¾à²Ĺ
à«įàª ¸
Ð°Ð» Ðµ
Ïĥ Î¯Î±
w eg
tr on
n ah
d es
E G
ĠáŁ ¡
Ġà¦ķà¦° à¦¾
Ġà¦ī à¦ª
ĠØ® Ø¨Ø±
ĠÕ¶ Õ¥ÖĢÕ
Ġs Ã¸
æĢ »
å¼ º
áį ¡
áº¯ c
à²¿à²¦à³įà²¦ à²¾à²°à³Ĩ
Ñį Ð²
Ð°Ð½ Ð¸Ðµ
Î¸Î· ÎºÎµ
b ild
ĠÑĢ Ð°Ð´
Ġtrans l
Ġperson al
ìĿ Į
å¤ ´
ãĤ ª
à¸± à¸ķ
Ø§Ø¨ ÙĦ
Ñı Ñħ
ut y
ova Å¥
Y A
Ġv ara
Ġk ish
Ġjs em
ĠM ass
ĠL iv
ĠE i
Ġ Öģ
à¹ī à¸³
OS T
ĠáĥĲáĥ ¡
ĠØ´ Ùħ
ĠÕ½ Õ¿
ĠÐºÐ¾Ñĺ Ð°
ĠÄį e
Ġth ese
Ġqu y
ĠL ev
ëĲ ĺ
é ł
áĥĺ áĥĺáĥ¡
à®Ł à¯ģà®¤à¯įà®¤
×Ĺ ×ª
_ M
Z A
Ġà¤¸ à¥įà¤µ
ĠÐ¿ Ð¾Ð³
ĠÐ¿ Ð°Ñģ
Ġy eni
Ġv Ã¤r
Ġt ies
Ġpers o
ĠD ating
ì¶ľìŀ¥ë§ĪìĤ¬ì§Ģ ìĥµ
è® °
åŁ º
åĬł çĽŁ
áŀ¶áŀ ī
à¨ ļ
Ø¯ Ø©
ÐµÐ½ÑĤ Ð¸
±áĢĲáĢ¬áĢ ·
ur y
sk ih
ot ta
iy i
Ġå° Ĭé¾Ļ
Ġå¥ ½
ĠÐ² Ð»
Ġy ol
Ġsa ÄŁ
Ġl am
Ġg ame
Ġcas o
ĠL uc
åı Ĺ
ÙĪ Ø§Ø±
k un
Ġ×ľ ×ª
Ġg est
Ġal um
ĠR od
éĹ ®
àª¾àª° à«Ģ
ak it
XX XX
ĠØ± Ú©
ĠÐ¿ Ð°ÑĤ
ĠÐ± Ð¾ÑĪ
Ġwat er
Ġver a
Ġv ent
Ġkl as
ĠEm par
æĴ Ń
áĥĿáĥ ª
à¶º à¶ļ
Ñģ Ð°ÑĤ
Ð¸ÑĨ Ðµ
Î½ Ïī
ª à¯į
s f
om h
j el
Ġæ İ
Ġu y
ĠI g
ĠDav id
è İ
áį Ī
Ùħ Ø©
Ð¸ Ð¾
ul is
ez o
ĠÙĩ Ø°Ø§
ĠÑħÑįÑĢ ÑįÐ³
ĠÐ¼ ÐµÑĢ
ĠÐ¶ Ò±Ð¼
Ġtr es
Ġn ya
Ġkar ena
ĠBe ach
ç© º
à¥ģ à¤®
Ø° Ùĩ
Ø§Ø º
Õ¶ Õ¤
ob e
ko a
h av
Ġà¤ī à¤¨
Ġl Ã¦
Ġkam era
Ġk uma
ĠR u
ĠCon c
ĠCom ments
áĬ «
ki em
ĠáŀĢ áŀ¶áŀļáŀ
Ġrum ah
Ġpol o
Ġm utta
Ġge Ã§
ĠP in
ĠH P
à¹ģà¸ ¥à¹īà¸§
Ð¸ Ð³Ð°
ur as
on na
Ġ×Ĳ ×ķ×Ł
ĠÑİ Ð¼
Ġco ok
ĠPar ti
ĠEurop a
ĠD ate
áĥĲáĥłáĥĹ áĥķáĥĶáĥļ
à°¦ à±įà°¦
l ut
ast o
N N
Ġàª¸ àª®
ĠÐ± Ð¸Ð·
Ġy ay
Ġt ep
Ġor az
Ġfot ograf
ĠM ir
ìĹ °
Õ¡Õ¤ ÖĢ
Ñı Ñģ
Ñį Ð¶
Ð¸Ð¼ Ð¾
Ã¦ Ã°i
· à§įà¦Ł
ent en
Ġáį¡ áį¡
Ġto e
Ġnec es
ĠAut o
áŁ Ķ
ÏĦ ÏİÎ½
ÅĻ ed
Ã¤ s
uts ch
st ad
ord a
OR E
ģ áĢºáĢ
Ġìĺ ¨
Ġáŀ ĨáŁĴáŀĵáŀ¶áŁĨ
Ġà¶ļ à·Ĵà¶»
ĠÐ¼ Ð°Ðº
Ġx u
Ġsi ya
Ġmet a
Ġg li
Ġbar u
ĠUn ited
ĠPr im
à¸Ń à¸ģ
à°Ĺ à°¾
Õ¡ÖĢ Õ«
Ð°Ñģ ÑĭÐ½
ÉĻ ti
Ã ĭ
p m
l ÃŃ
Ġà· ģ
ĠÙĩ Ø±
ĠU z
ĠT as
ĠS ite
ĠC R
ìĸ ´ì
ê± ´
ÉĻ ri
±áĢ ŀ
vis or
il is
ec tiv
Ġà´ħ à´¤
Ġvot re
Ġsig ni
Ġlag u
Ġein em
Ġba ina
à¤Ĥ à¤¤
ÙĪÙĨ Ø¯
sk ie
rav el
ĠáĥĴ áĥĲáĥĵ
Ġà¦ §
ĠÙħ Ø®
ĠØ§ ÛĮØ³
ĠÒ¯ Ð¹Ð»
ĠÑĢ Ð¾Ðº
Ġ} }
Ġap ie
áº± ng
à¶Ńà·Ĭ à·Ģ
à³Ĩ à²Ĺà³Ĩ
à¯ģà® °
à«ĭàª ²
Ø· ÙĦ
×ĳ ×ķ×ª
×¢ ×ł
Ð½Ð¸ÑĨ Ð¸
Ð°Ð² Ð°Ð½
urs o
um as
ov Ã¡nÃŃ
or ge
Ġ' :
à´¾à´ ±
Ùİ ÙĦ
Õ¡ÖĢ Õ¡Õ¶
Î»Îµ Ïħ
up un
Ġì ¢
Ġ×Ķ ×Ļ×Ķ
Ġpag b
Ġl ugar
Ġl ife
è¶ ³
áŀľ áŀ·
áŀ» áŀģ
Ñĭ Ñĸ
Ð¸ÑĪ Ðµ
ÅĨ as
Ä ĭ
Ġáŀĳ áŀ¸
Ġà ©
ĠÑį ÑĪ
ĠÐľ Ð¾Ð½
ĠÐº ÐµÑĤ
ĠÐ² Ð°ÑĪ
Ġh ost
Ġar v
ì ¶
áĮ ĭ
à´® àµįà´®
Ø§ Ø³Øª
Ïĩ Î½
Ã© ben
ro f
ra i
ol as
ĠðŁ ĺ
Ġå° ı
ĠÙħ Ø±Ø¯
Ġver z
Ġp ela
Ġinst it
Ġcont in
Ġco unt
Ġand er
ĠSo ci
ĠK aye
ç§ ĳ
åĭ ķ
à¤¡ à¤¼
×¢ ×Ķ
Õ¡Õ¶ Õ¯
ÒĽ Ð°Ð½
j n
ba ar
b it
ant z
_ c
ĠáĢ ľ
Ġà¦ľ à¦¾à¦¨
Ġm olt
Ġi esp
â Ļ
áĮ £
Ä µ
he im
Ļ áĤĪ
ĠãĢ ı
Ġ×Ľ ×Ĳ
ĠÐļ Ð¾Ð½
Ġloc ation
Ġd ÄĹl
Ġ äºº
ä½ ł
àª¾àª ³
à¥Ĥ à¤¨
Ð°Ñģ ÑĭÐ½Ð´Ð°
ÄĹ ti
Â ª
le b
ec to
ah u
O H
33 3
ĠÚ¯ ÛĮØ§
ĠÑģ Ð°Ð±
ĠÐİÐ· Ð±ÐµÐº
ĠÐ¶ Ò¯ÑĢ
Ġp Äĵc
ĠM S
ĠE R
ëį °
à·ĵà¶¸ à¶§
à´¿à´ļàµįà´ļ àµģ
ÐµÑĤ ÑĮ
f ac
az Äĥ
aj Ãº
Ġä¸Ń åĽ½
Ġv iv
Ġa Ã§
ĠN ederland
ĠMas k
ĠH all
æ Ĳ
à±Ĩ à°¸
à¤ķ à¥Ģ
à¤¾à¤® à¤¾
×Ļ×ľ ×Ķ
Õ¡Õº Õ¥Õ¿
Ð½ ÑĮ
re o
ac ij
Ġà¦ª à¦¾à¦°
ĠÐľ Ð°ÑĢ
ĠÐ¾ Ð¹
Ġf ond
ĠT en
ĠSt ud
ĠK en
ĠB ig
ï¼ ļ
æĹ ©
áĥĲáĥ ¬
Õ¥Õ¶ ÖĦ
¯ ¼
ic ion
Ġãĥ ķ
ĠÕ´ Õ«Õ»
ĠÐºÐ°ÑĤ Ð¾
ĠÐ£ÐºÑĢ Ð°ÑĹ
Ġst an
Ġse in
Ġpag gam
Ġold id
Ġki el
Ġi ar
Ġd own
Ġcons ider
Ġ,, ,
à·ĥ à·ı
à²µ à²°
ÐĲÐ Ľ
Ð°Ñģ Ñı
oc ia
er na
Ķ Ķ
ĠØ£ ÙĪ
Ġs olo
ĠL og
ĠL eb
Ġ12 5
ìĺ ģ
à¦ķ à¦¾à¦°
ÖĢÕ ¨
Ð¾Ñģ ÑĮ
ÏĢ ÏīÏĤ
Î³ Î³
ÅŁ ik
Å¡ en
lar ni
Ġà²ķ à³Ĭ
ĠÕ¸ÖĤ Õ¶
ĠÑģÐ¿ Ð¾ÑĢÑĤ
Ġsup port
Ġs ko
Ġfi eld
ĠW ikipedia
ĠK ung
ĠK ad
ĠE esti
ë¹ Ħ
å Ħ
àªĤ àª¤
um us
ul ts
lar Ä±nÄ±
at Ã³
at el
Ġï¼ Ľ
Ġå ¸
ĠÛ ¾
ĠØª Ø¬
ĠÐ¿ Ð°Ðº
ĠÎ¼Îµ Î³
Ġkw enye
Ġis e
Ġein er
Ġdo ÄŁ
Ġcatalog Tag
Ġbus iness
Ġa ÅŃ
å ĥ
Ùĥ ÙĦ
Ä± q
Ã¦ tt
r ess
Ġê ´Ģ
ĠáĢ ĳ
Ġà°ī à°¨à±įà°¨
ĠÙĦÛĮ ÛĴ
ĠÕ¾ Õ¥ÖĢ
ĠÐ¼ Ð°ÑĪ
ĠÐ¸Ð· Ð²
Ġl t
Ġcon vers
ĠQ ue
ĠN at
à¥ģ à¤¦
×¢ ×ķ×ª
Õ ¦
Æ ı
st ell
Ġìĭ ľì
ĠÑĥ Ñģ
Ġprot otype
Ġph otos
Ġkun nen
Ġiz ango
ãĥ Ĭ
×Ļ ×Ļ
Î¼ ÏĨ
no ÅĽci
n sk
g ed
bo ard
L e
ĠâĢ ı
ĠÑĤÐµÑħ Ð½
Ġver k
Ġpart ner
Ġkl ub
Ġj Ã¡
ĠO N
Ġ? !
Ġ9 78
Ġ":" ","
í ŀ
çľ ģ
å¤ Ħ
áº· c
Ùİ ÙĨ
ÐµÑĤ ÑĢ
w ak
v it
oh et
es se
ĠÐ¸ ÑģÐº
ĠÐ±ÐµÐ» ÓĻÐ½
Ġm ÉĻn
Ġd rive
ĠMod el
ĠB E
åº ľ
×ŀ× Ĳ
Õ¶ Õ¸ÖĤÕ´
Ð°ÑĤ ÑĥÑĢ
Å¡an Äģs
tig t
ot te
Ġê¹ Ģ
ĠÑ Ĺ
Ġmu ut
Ġm uh
Ġb ou
ĠUS B
ĠH u
ìĺ Īìķ½
éĻ Ĳ
×ŀ× ¦
×ŀ ×Ļ×ĵ
Õ¡ Öĥ
ÎĳÎ £
Î² Î±
un ar
ĠáŀĬ áŁĦáŀĻ
Ġà¤¨ à¤¹à¥Ģà¤Ĥ
ĠÑĢ ÐµÑĪ
Ġye ars
Ġvo i
Ġman y
ĠMart in
ĠA F
à²Ĺà²³ à²¨à³įà²¨à³ģ
ÏĪ Î·
Ã¶ ld
Ġìļ °
ĠÐ¼ Ð°Ð½
Ġz em
Ġle i
Ġelektr on
Ġcom mun
ĠPre z
ĠOff ice
ĠL et
å¼ ķ
áĬ Ľ
à¹Ģà¸ Ĭ
Ð¾Ñ Ļ
Æ° a
unt za
st ar
j ev
Ġë ¯¸
Ġwe er
Ġk Ã«tÃ«
Ġj oka
Ġ' .
íķ Ń
áĥĲáĥ ¦
à·Ĵà¶º à·ı
Û İ
Ä« s
Ã¤ v
k am
inn en
ag em
Ġà¶ľ à·Ĳà¶±
Ġà´ª à´±
Ġà®ħ à®°
Ġà¨¤ à©ĭà¨Ĥ
ĠØµ Ùģ
Ġ×ľ ×Ļ
ĠÒ¯ÑĪ ÑĸÐ½
ĠÐ¼ ÑįÐ´
Ġper Ã²
Ġn Äĥm
Ġl Ã¸
Ġal gun
è Ľ
à¹Ģà¸ ģ
à¦¿à¦¤ à§ĩ
à¦ ¡
eca use
10 1
!! !!
Ġ×Ĳ ×Ļ×ĸ
ĠÑĥ Ð²
ĠÐº Ð¾Ð¶
ĠÏĥ Î·
Ġo wn
Ġal ler
ãĥ ¯
áĥĹ áĥĲáĥľ
à¹Ģà¸£ à¸µà¸¢
à¥įà¤ ¸
Õ Ħ
Ġç ¾
Ġà°¸ à°®
ĠÑģÑĤ ÑĥÐ´
Ġr us
Ġp is
Ġol un
Ġng Ãły
Ġg eld
ë© °
áĥĲáĥ ĸáĥĶ
áĥ ¤
à¶º à·Ļà¶±à·Ĭ
à¤ķ à¥įà¤°
ÐĲÐ Ļ
Ð´Ñĭ ÑĢ
te a
ipp ing
55 5
ģáĢ »
Ġà´¨ à´Ł
ĠÙģ ÛĮ
ĠØ¢ ÙĩÙĬ
ĠÐ½Ðµ Ð³
ĠS ek
ĠL ink
ï¿½ï¿½ ï¿½
èĩ ³
áĥĶáĥł áĥĺ
à®® à¯įà®ª
à«ĩàª ¸
Ø¹ Ø¨
Ø± Ø©
Ð°ÑĤ Ð¾
Î³ÏģÎ± ÏĨ
¸ è¿Ĳ
k ak
inÄģ t
C ode
ĠìĦ ¸
ĠÐļ Ð°ÑĢ
Ġw r
Ġf et
ĠT an
ĠP la
ĠK n
Ġ ÅĤ
è ı
æ² ¡
à¶ļà·Ĭ à·Ĥ
à®¿à® ļ
à§ĩà¦ ¤
Õ¡Õ¶ Õ£
zn Ã¡l
ul os
om an
het en
g il
ass en
G R
ĲáĢ ½
ĠÐĿ Ð¾Ð²
ĠÎ Į
Ġth Ãłnh
Ġd Ã¡
íķ ©
í ĽĦ
ìĥ Ŀ
ãĤ ĩ
à±įà° ¥
Ú© Ûģ
Äģ ji
Ĥ à¸Ńà¸ĩ
Ġæ ¯
Ġà¶Ń à·Ĵà¶¶
Ġ×¨ ×Ĳ
ĠÐ¶ Ð¾Ð»
Ġs me
Ġna Å¡
Ġb Ã«
áŀĳ áŀ¸
×Ļ×ł ×ķ
olog i
f Ã¼
al ta
ŀ áĢ¬áĢ¸áĢ
Ġn ett
Ġk lar
Ġin tr
Ġd ak
ĠF it
íĺ ķ
ê± °
áŀħáŁĴáŀ ħ
ÏģÎ¿ ÏĤ
Ã¡n h
os c
Ġáĥ¨ áĥĶáĥ
Ġà¤¤ à¥ĭ
ĠÙģ Ùī
ĠÑĥÑĩ ÑĥÐ½
ĠÐ¼ Ð½Ð¾Ð³Ð¾
Ġver t
Ġn l
Ġindiv idu
Ġhar ga
Ġd Ã¼
Ġc our
Ġal c
ï ±
à¥ģ à¤¸
ÙĬ Ø§Ø±
id el
er im
Ĺ Ĳ
ĠÑģ Ð¾Ð²
ĠÐ¾Ð± ÑĢÐ°Ð·
ĠÐ´ Ð¾Ð´
Ġz al
Ġv ic
Ġsm art
Ġpod e
Ġincl ud
Ġe ach
Ġd us
Ġacc ess
ìŀ ħ
à°¾à°¨ à±įà°¨à°¿
à¤¯ à¤¾
n ed
ev en
ess Ã¤
elij ke
Ġí ĥ
ĠâĨ Ĳ
Ġáĭ¨ áĪļ
ĠØ§Ù¾ ÙĨÛĴ
ĠÐº Ð¸Ð»
ĠÎķ ÏĢ
ĠÎºÎ± Î»
Ġv and
Ġkam u
Ġd Ã¶n
Ġcom ent
ĠLatv ijas
ĠL ou
ĠEsp a
Ġ% .
éĺ Ł
à¶½à·Ĭ à¶½
àª¾àª Ĺ
Ġà¶´ à·Ķ
ĠÐ¹ Ð¸Ð»
ĠA V
é Ł
èĬ ±
åĬ ©
à³įà² Ĺ
Ð¾Ð½ Ñĥ
T R
Ġæĺ ¯
Ġà¨¨ à¨¾à¨²
ĠÐ¡ Ðº
Ġp it
ĠMar c
áŀĢ áŁĴáŀĵáŀ»áŀĦ
à´ ŀàµįà´ŀ
Ö µ
og en
Ġé Ŀ
ĠÐ¸ ÑĢ
ĠÐ°Ð¹ ÑĤ
Ġecon om
Ġdec or
Ġb ija
ìļ °
ç² ¾
æľ ¯
à¹īà¸Ń à¸¡
×¤ ×§
Ô »
Ð¸ÑĤ Ð°
ÎŁÎ £
Äģc ijas
ÃŁ e
l ist
ik us
Ġà¤¹ à¥ģà¤
Ġ×Ĳ ×ĳ×ľ
ĠÐ¢ Ð°Ðº
Ġma ch
Ġat as
å¯ ¼
à¸« à¸¥
à´Ļàµįà´ ķ
à¨¦ à¨¾
×¢ ×Ł
Õ¥ ÖĤ
Õ¡Õ¶ ÖĦ
z em
AT ION
Ġà°µ à±įà°¯
ĠÐİÐ·Ð±ÐµÐº Ð¸ÑģÑĤÐ¾Ð½
ĠÐ¶ Ðµ
Ġan os
ĠSm art
ĠN orth
ä¸ ĵ
à¨ ¶
à¦¿à¦ ®
Ñĭ Ð±
Ñī Ð¾
um en
ist on
Z W
ĠØ¨ Ûģ
ĠÃ¾e ir
Ġf ung
ç ¯
âĢ ¢
áĢŃáĢ Ļ
à¸« à¸¡
à¤°à¥įà¤ µ
Ð¾Ð´ Ð¸
er er
ate a
Ġà¤Ń à¤¾à¤°
Ġn ast
Ġinter ess
Ġb á»ĭ
ĠS av
Ġ10 8
Ć ą
åį ĵ
á»¥ c
à¤¾à¤ ĸ
Ú© Ø§Ø±
ÖĢÕ ¾
bar u
ar u
ŀáĢ °
ģáĢ ¶áĢ
ĠØ§ ÛĮØ±
Ġ×¢ ×ĵ
ĠÑģ ÐµÐº
Ġv Äĵl
Ġth Ã¬
Ġso ft
Ġn Æ°á»Ľc
Ġa e
ĠI ST
ĠA si
z ie
ion ale
Ġáĥĺ áĥ§
ĠÐĳ ÑĢ
Ġw s
Ġs ac
Ġr r
Ġp uh
Ġme hr
ĠBl ue
å· ²
à¤¸ à¥įà¤¥
Ð¼ Ð°Ð¹
Ð¸ ÑģÐº
omb ie
ob re
he z
g ra
ON G
I ER
ĠØ¯ Ùĩ
Ġw ys
Ġv ind
ĠInst it
Ġ5 åĪĨ
áŀ¼ áŀľ
wo ord
el ah
ĠÚ© Úĵ
ĠØ§ÙĦ Ø«
ĠÐĳÐµÐ» Ð°ÑĢÑĥÑģ
Ġstrat eg
Ġs ans
Ġp ub
Ġg ot
ĠO R
ĠNEW Part
ĠCat al
à¨¿à¨ ¹
Î¿Ïħ Î»
ys h
p la
is esti
ara f
Ġê²Į ìŀĦ
Ġà·ĥà·Ĵ à¶§
Ġ×Ĳ ×Ŀ
Ġf ab
Ġesc ort
Ġd um
ĠT our
ĠC er
Ġ- ,
ê° ľ
á»ķ i
à¸Ļà¸ §
Î¹Îº Î¿Ïį
h end
V EN
II I
Ġì ¶
Ġà® ı
ĠÕ´Õ¡Õ½ Õ«Õ¶
ĠÐ»Ñİ Ð±
Ġvi á»ĩc
Ġh im
Ġf as
Ġex ist
Ġel e
èī ĩ
×ľ ×ķ×ª
Ä« k
r ig
ag ue
Ĭ áĢ
Ġæľ Ģ
Ġà²¸ à²®
ĠR et
ĠL ong
ãģ¨ ãģĦãģĨ
à¶» à¶«
Ò Ļ
Ð· Ð´
Ð²Ð°Ð½ Ðµ
Î¯ Îº
£áĥ ļ
us tu
eng er
ac y
Ġáĥ¡áĥĲáĥ ®
ĠÐ² ÐµÐ»
Ġur te
Ġtik ai
Ġproduk t
Ġm are
Ġha u
Ġgr ad
Ġaut omat
ĠSh qip
à²¡ à³Ĩ
Ø§Ø ©
Ð¾Ð½ Ñĭ
Ïħ Î½Î±
Â ·
j Äħ
ia h
eng e
ar ak
20 20
Ġ×Ĳ ×ł×Ļ
ĠÐ¿ Ð°ÑĢÑĤ
ĠÄ Ŀ
Ġtranspar ent
Ġm ember
Ġl Ã½
Ġa x
ĠKos ov
ĠG ir
ĠFran ce
ĠC A
ë° ©
ãģ§ ãĤĤ
áĥļ áĥĶáĥĳ
àª¿ àªµ
ÑģÐº Ð°Ñı
Ðł Ðħ
p un
art h
ak k
O Y
D I
ĻáĢ» áĢ¬áĢ¸áĢ
Ġà¸ ľ
Ġà¸ ĭ
ĠÐº Ð°Ð¶
Ġv Äĵ
ĠM ov
ĠEx press
à¦¨ à§ĩ
Ã« nd
r uk
n ol
m Ã©ny
ĠáĬĲ áĭį
ĠÙĪ ÙĬ
Ġzu en
ĠtÃ¶ Ã¶
Ġk eb
Ġh iz
Ġdest in
ĠM E
Ġ: .
Õ¸Õ Ń
Ò³ Ð¾
ÑĭÐ¼ ÐµÐ½
Î¼ÎŃ Î½Î¿
sl ag
ch an
Ġa st
ĠOr ig
ĠN ag
ĠN Y
ĠGr and
ĠG az
Ø§ÙĦ Ø¨
ÏģÎ¯ Î¿Ïħ
¹ Û
ont ent
ha ir
eng th
ar na
Ġâ Ī
ĠØ§ÙĦØ³ Ø§Ø¹Ø©
Ġ×Ĳ ×¨
Ġ×§ ×¨
ĠÐ¿ÑĢÐµÐ´ ÑģÑĤÐ°Ð²
Ġni in
Ġh in
Ġg ada
Ġf ur
Ġap plic
ĠK op
éª Į
à¸Ļ à¹Į
Ùİ Ø§
ÒĽ Ð°ÑĢ
ÃŃc ÃŃ
on er
il gan
ec ts
ck et
D S
Ķ ¨
ĠìĦ ł
ĠÙĨØ¸ Ø±
Ġprofes ional
Ġ] ]
ĠW ir
ĠO ver
éĢ ł
à®© à¯įà®©
à¨ §
Õ ®
l Ã¼
b s
at os
ĠÐĳ Ñĥ
ĠÃ®ntÃ¢l ni
Ġis hte
Ġba ie
Ġb eb
ĠMar ket
ĠGre en
ï»¿ ï»¿
Ø§Ø¨ ÙĤ
×© ×ķ×ª
Õ«Õ ¬
Ð» Ð°Ð³Ð°
v il
_ 0
Ġç Ļ
ĠÐ· Ð°Ð»
ĠÃ ķ
ìĭ Ŀ
áº¯ t
à´® à´¾à´¯
à§ĩà¦ ¬
Õ¡ÖĢ Õ¡ÖĢ
yd ra
teri or
out ube
n ice
Ġìĥ Ŀ
Ġthro ugh
Ġof fer
Ġm Ãª
ĠIsl am
ĠF inal
ÐµÑ Ĵ
av en
ĠãĤ Ń
Ġà®¤ à¯Ĭ
Ġ×Ĳ ×Ļ×ļ
ĠÑĤ Ð¾Ð²Ð°
Ġm ab
Ġl ip
Ġb em
Ġal u
ĠT ri
ĠM ik
ĠM AR
ĠC um
éĴ ±
ãĤ ĥ
ÎĹ Î£
Ä± ld
Ã© ly
n Ãº
Ġä» ¥
ĠØ¬ Ø§
ĠÐ± ÑĸÐ»
Ġhar us
Ġf oc
Ġb are
Ġa ka
ĠMal aysia
ëı Ħì
ç ¡
à¨¾à¨ ĩ
à¦° à¦¾
Þ¦ Þ
ÑĥÐ½ Ðº
ÅĨ em
n ico
it ori
ent os
ak si
................ ................
Ġêµ Ń
Ġàª¤ à«ĩàª®
ĠÑĨ ÐµÐ»
ĠÐ¿ÑĢ Ð¸Ð¼
Ġorig in
Ġj in
Ġd j
Ġa ce
Ġ12 8
à²¾à² Ł
à¦¾à¦ ĵ
Ø§ÛĮ Ø¯
Î´ Îµ
Å¾ a
³ áĢ
Ġì§ Ħ
Ġå İ
ĠØ¬Ø¯ ÛĮØ¯
ĠÐ¾Ñģ Ð½Ð¾Ð²
Ġse o
Ġsa an
Ġk ultur
Ġk imi
Ġj el
ĠM edia
Ġ/" >
æĶ ¶
áĭ Ŀ
Û Ķ
ÓĻ Ð»
Ïģ Î¯Î±
ÅŁ i
Ã³ Ã°
od es
ing iz
g as
ey e
ĠÃ ´
Ġgr ande
ĠI V
åħ ±
à§įà¦ ¦
Ø· Ø±
Ñĩ ÐµÐ½
Ð» Ð°Ð±
Î ļ
tor i
iz z
il ang
el in
eb b
Ġáĥĺ áĥĽ
ĠÑħ Ð¾ÑĤ
ĠÐľ ÐµÐ½
Ġvar _
Ġv az
Ġs os
Ġper form
Ġm ok
ĠG B
áĢ¬ áĢ¹áĢ
áº¡ o
à¸ł à¸²à¸ŀ
à°¤ à±ĭ
à¤¾à¤ §
ÑĥÑĤ ÑĮ
Ðŀ ÐĴ
Ðķ ÐĽ
Ã¤m Ã¤
±áĢ¬ áĢºáĢ
ud u
s am
im at
em on
ch ange
ce j
Ġæľ ¬
ĠâĢ ¡
Ġáŀ Ĵ
Ġà²¸ à²Ĥà²
ĠØª Ú©
ĠÒĽ Ð°Ð±
Ġpol ic
Ġm Ã©r
Ġkad ar
Ġg Ã¥r
Ġconta ct
Ġaug ust
ĠCh at
Ġ17 0
à¸± à¸¢
ung kin
ow anie
il ig
AAAAAAAA AAAAAAAA
ĶáĢ² áĤĶ
ĠÙĪ Ùħ
Ġ×ŀ ×Ļ
ĠÐ³ÑĢ Ð°Ð´
Ġs ia
Ġs ap
Ġpa ÃŃs
Ġb Ã¥de
Ġal les
Ġag åĽ½éĻħ
ĠN az
ĠIn c
æĸ° éĹ»
à´ķ à´°
ÙĬØ± Ø©
Ô µ
Ð¾Ð² Ð¾
Ðº ÐµÐ½
Ä±m Ä±
± ¼
a al
ID E
ĠØ³ Ú©
ĠÑĢ ÐµÐº
Ġpag al
Ġch uy
Ġap pro
ĠT am
ĠLond on
ĠB ad
ï ½
à¨ ĸ
Ð°Ñĩ Ðµ
or um
l iv
l ama
S c
Ġà®¨ à®Ł
Ġà¦¤ à¦¿à¦¨
Ġà¤¯ à¤¹
ĠØŃ Ø¯
ĠÐ²ÑĢÐµÐ¼ Ðµ
ĠÃ¶ ss
Ġte j
Ġh ÉĻr
ĠMad rid
ì ħ
à°¿à° Ł
Ò Ĳ
Ïĥ ÎºÎµ
p us
ku u
k es
isti an
Ġà´ ¡
Ġ×Ĳ ×ķ×¨
Ġstand ard
Ġs ÉĻ
Ġs vo
Ġph áº£i
Ġca o
èĻ İ
ãĢ Į
à¨¦ à©ĩ
à¦¨ à§ĩà¦°
Ú© ÙĦ
Ã¡l is
v ia
r g
q d
in ci
Ġíĺ ¸
ĠØ¢ Ø¨
Ġm ies
ĠMic rosoft
ĠM ill
ĠM eg
àº Ľ
à·Ĵ à¶´
Ø§ÙĨ ÛĴ
ny t
ah kan
ĠÑĥ Ðº
ĠÐº Ð¸ÑĢ
Ġsi y
ĠT s
Ġ% )
å½ ±
Øº Ùĩ
Õ Ĳ
ore a
ing ton
ch u
ķ Į
Ħì Ĥ°
Ġë³ ´
Ġè ĭ
Ġå ī
Ġà¤² à¤Ĺ
ĠØª Ø³
Ġsc roll
Ġro om
Ġm ali
ĠIS BN
Ġ7 50
à´Ļàµįà´Ļ à´³àµįâĢį
ww w
ou p
it ur
ec tive
ar ti
ar is
ĠìĹ Ĩ
ĠáĥĲáĥ ĵ
Ġà¶¯ à·Ĳ
Ġà²ĩ à²¦
Ġàª ¯
ĠØ¨ Ø®
ĠÐ½ Ð¾Ð¼
ĠÐ² Ð¸Ñģ
Ġmer upakan
Ġlab el
Ġj uh
Ġg ab
Ġap art
ĠS M
ĠRep ly
ĠA ra
à¤°à¥įà¤ ·
Ñĭ ÑĨ
ÑĤÑĭ Ò£
Ð± Ð°ÑĢ
z Åĳ
ov Ã½ch
ĻáĢ ½áĢ
ĠÐ½Ð° ÑģÑĤ
Ġsp or
Ġsho uld
Ġse h
Ġm Ã©g
Ġe erste
Ġd ÃŃa
áŀ¶áŀŁ áŁĭ
áĭ Ĭ
ÑĥÐ» Ð°ÑĢ
uj Ãº
amb ar
Ġter min
Ġmo tiv
ĠN atur
Ġ&& (
ëĲ ľ
àµĤ à´Ł
ÏĨ Î±
ÄĻ p
n ov
ers e
ĠáĢ ĺ
Ġà¤ª à¥Ĥ
ĠÐº Ð°ÑĢÑĤ
Ġst ad
Ġflo at
ä¸ ¤
àºĶ à»ī
à¦¾à¦ Ł
Ñħ Ð°Ð½
Ð¾ÑĤ Ð¸
Ã Ģ
o Å¡
ff en
ff e
el n
amp a
ĠÐ¶ ÐµÐ»
ĠI de
ĠH ier
à³Ĥ à²°
Ùģ ÙĬ
Õ ¼
Ñı Ð»
h h
ĠáĢ ĨáĢ
ĠÙĦ Ø¦ÛĴ
ĠØª Ø´
ĠÐ´ ÐµÑĢ
Ġt l
Ġpl as
Ġl ic
Ġhab en
è§ ģ
Õ¶ Õ¡Õ¯
ublish ed
oj u
n iki
22 2
Ġà°ļà±ĩà° ¯
ĠÑĤ Ð¾ÑĢ
Ġpre c
Ġm ez
Ġkost en
Ġch ÃŃnh
Ġc rit
áĥĹ áĥķáĥĺáĥ¡
à¨¾à¨ ¸
ÓĻ Ð¹
Ä Į
¦ ¬
ta an
I tem
Ġà®ķ à¯Ĥ
ĠÐµ Ñģ
Ġs mo
Ġh es
Ġcheck ed
ĠP Ã¥
Ġ":[ {"
àµĩà´ ·
à¥įà¤ ¡
ÙĪ Øµ
Î³ Î¼Î±
un y
li f
li che
ick r
et ako
eber apa
ap s
ami ento
B S
ĳ áŁģáŀŁ
Ġà®® à¯ģà®
Ġot ro
Ġf riend
Ġde vel
Ġap o
ĠMar k
Ġ3 50
ìĸ ´ë
áŀĦáŁĴáŀ Ĥ
à´ ľ
à°¾à° ¡
¸ ı
ul at
olog y
Qu ery
10 3
ĠØ³ Ø§ØªÚ¾
Ġ×¦ ×ķ
Ġne xt
æ ħ
à¹ģà¸ ļ
à¶» à·ı
Ñĸ Ð³
Ð¸ÑĤ Ð¾ÑĢ
Ð° Ð°
ist s
ec u
Ġ×Ķ× ĺ
ĠÑĤÐ¾ Ð°
ĠÐĲ Ð·
Ġpot reb
Ġpag pap
Ġm ann
Ġku ch
Ġet i
ĠS L
ĠI M
ĠAG çİ¯äºļ
à´¾à´ ³
à¦ Ļà§įà¦Ĺ
Å¾ u
x w
h ttp
co in
b and
ŀ Į
Ġí Ĭ
Ġà¨¸ à©Ģ
ĠÓ© ÑĤ
ĠÐ¡Ð ĥ
ĠÅ¡ i
Ġk ho
Ġk end
Ġhe ad
Ġap i
Ġ, #
áĬĲ áīµ
àµįà´± àµįà´±
à¯Īà®¯ à®¿à®²à¯į
×ķ×ł ×Ļ
Õ¸ÖĤÕ©ÕµÕ¸ÖĤÕ¶ Õ¶Õ¥ÖĢÕ«
Ð¸Ñĺ Ð¸
Ð¸ÑĢ Ð¾Ð²
Ð¸Ð» Ð³Ð°Ð½
Î´ Î®
« à¸¥
ĠÙĨ Ø´
Ġ×ŀ× ¤
Ġd ha
ĠP ad
Ġ$(' .
éħ į
å° Ķ
Ð¼ ÑĸÐ½
Ð´ Ó©
u ga
n ir
ec z
R L
P L
Ġà´ ±
ĠÚ©Ûģ Ø§
ĠÐ´ Ð°Ð¼
Ġz ona
Ġx xx
Ġqu es
Ġpar e
Ġh Ã¶
ĠR i
áŁĴáŀļáŀ» áŀĺ
Ø§Ùħ ÛĮ
Ø Į
ÏĦ ÎŃÏĤ
20 17
Ġt Ã´i
Ġmas ih
Ġin ner
Ġek stra
Ġe c
Ġd ni
Ġa os
ĠN ar
ĠD h
àª «
×Ļ×§ ×Ķ
Å¡ ka
f und
EL L
Del ivery
ĠìĹ Ĳ
Ġà¤ªà¥įà¤° à¤¤
ĠÑĤ Ð°ÑĬ
Ġg b
Ġcomp any
ç Į
à´¯ àµģà´Ĥ
³ éĹ¨
un ga
ot u
Ġà¦ľà¦¨ à§įà¦¯
ĠØ§ÙĦ Ø²
ĠÑĤ Ð¾Ð³
Ġprof ession
Ġaqu esta
ĠK y
ĠF ot
ç ·
áĤĢ áĢĢáĢ
à´£ à´Ĥ
à«ĭàª Ł
Õ½ Õ¯
Ð° Ðµ
us z
u we
o ana
l on
ĠãĤ ¹
ĠÐ¸ Ð³ÑĢ
Ġth en
Ġpi ed
Ġp ac
Ġg or
ì Ī
ë£ Į
è Į
à¸ª à¸¸à¸Ķ
à´¿à´¨ àµį
à¦¨ à¦¾
Ä ī
ra ft
ama an
Ġè µ
ĠáĢ Ĩ
Ġ×ĳ ×¤
Ġwh ere
Ġse va
Ġm ust
áŀĺáŁĴáŀ Ķ
áĥĿáĥĳ áĥĲ
Ø² ÛĮ
Ø§Ø¦ ÙĦ
Ã¢ t
us o
ug o
h ou
al g
P G
Ġvoc Ãª
Ġpro b
Ġno ti
Ġfac il
Ġdire k
çº §
à¹Ģà¸ Ī
à¸±à¹ī à¸Ļ
à¦¿à¦ ¦
×ķ×ľ ×Ķ
ÑĭÐ½ ÑĪÐ°
ÅĻ e
C AG
A l
ĶáĢº áĢ¸áĢ
Ġæ ł
ĠÚ ģ
Ġ} ,"
Ġun o
Ġrespons ive
Ġd uk
ĠE usk
ĠD ek
ĠAr tic
Ġ10 5
å¾ ĭ
ãģĹ ãģĦ
Õ«Õ ¾
±áĢ¬ áĢĢáĢºáĢ
el um
ec te
ass er
Ġà¤ī à¤ª
ĠÕ¶ Õ¡
Ġy et
Ġte am
Ġh uman
ĠN Ã¤
Ġ9 99
Ġ5 px
è¯ ķ
áŁĤ áŀĵ
áº¿ p
à±Ģ à°¯
à§ĩà¦ ĵ
ÖĦ Õ¸ÖĤÕ´
uj Äħ
f ull
78 9
Ġë° ©
ĠÐ¿ÑĢ ÐµÐº
Ġus ers
Ġt Ãº
Ġor der
Ġon a
Ġm j
Ġd zi
Ġd w
Ġb og
Ġaz t
ĠW ord
æĿ ¡
à¶§ à·Ĭ
ÉĻ nd
Ã ļ
±áĢ Ķ
ho ut
eng o
em as
ag on
Ad visor
ĠÐł Ð¾Ñģ
Ġo cc
Ġfl ere
Ġdur ante
Ġb end
ĠW ith
ĠM w
ĠEl s
í ĭ
í Ĥ
ç ļ
à¯Ī à®¤à¯įà®¤
ÐµÐ¼ ÐµÐ½
ÐµÐ³ Ñĸ
ÏĮ Î¼Îµ
ir as
ent ro
con tr
ER T
Ī à¸°
ĠÏĦ Îµ
Ġs as
Ġro k
Ġmemb uat
Ġl Ã¥
Ġg in
Ġfor s
Ġb ukan
Ġ( -
à±ĩà° ¸
Ø§Ø± Øª
ÐµÐ³ Ðµ
Å ł
Äĵ tu
mÉĻ t
isi Ã³n
Ġâ ŀ
Ġà´ª à´°
ĠØ¹ Ø¨Ø¯
ĠÖĦ Õ¡Õ²Õ¡ÖĦ
Ġsel f
Ġm Ã³
Ġiz del
ĠJ i
ĠIP RO
ĠA rab
Ġ ã
å¿ ħ
á»ĳ t
à§įà¦ ¨
Ã© st
un to
ia al
ativ o
al q
B r
ĠÕ§ ÖĢ
ĠÕ¡Õµ Õ½
ĠÐ¼ Ðµ
Ġ19 97
áī ¶
Ø§Ø¦ ÙĨ
ru c
ow ie
ĠØ¹ Ø¯
ĠÐ´ Ð¾ÑĢ
Ġv ur
Ġl ogo
ĠF Ã¶r
ĠA j
à² ĸ
à¤¤ à¥įà¤¤
×ŀ ×ķ×ª
Ð°Ð³ ÑĢ
nÃŃ ho
lar dan
is y
imi ento
U F
Ġæ ¶
Ġw ala
ĠsÃº a
Ġp y
Ġp ia
é£ İ
ãĥ ĵ
ÙĬ Ø¨
v end
us ia
ri er
on os
inn er
EN G
ĺ ¤
Ġëħ ¼ìĤ°
ĠåĽ ½
ĠáĥĲáĥ ®
ĠÐº ÐµÐ¹
ĠÎ¼ Î¿Ïħ
Ġx we
Ġw iki
Ġku in
Ġind ustri
Ġac est
ĠT ai
ĠK Äį
ĠD ir
à®ªà¯įà®ª à®Ł
Ð¸Ñĺ Ñĥ
Î· ÏĥÎ·
Ã© re
pr ice
Ġáĥ¨ áĥĶáĥ¡
Ġw orm
Ġpre mi
Ġkom ment
ĠK ey
ĠB ib
é© ¬
é£ŀ èīĩ
×Ĳ ×Ļ×Ŀ
z an
vo or
u ari
ow o
fer ence
Ġà¦Ĩ à¦²
Ġà¤¸ à¤¾à¤¥
ĠÑĽ Ðµ
ĠÐ¡ Ð²
Ġsk ulle
Ġn b
Ġco uld
ĠD oc
ë¶ Ħ
åĨ Ľ
à¯Īà® µ
à«ĭàª ¡
ÙĨØ¯ Ùĩ
Ø¬ Ø§ÙĨ
Ñİ ÑĤ
Ð³Ð° Ð°ÑĢ
Î¬ Î»
Äģr t
Ä± y
il ir
Ġáĥ£áĥ ľ
Ġà´ª àµĭ
ĠÑĥ ÑģÐ¿
ĠÐ¼ Ð½Ð¾Ð³
Ġr Ã©s
Ġh ans
Ġg ez
Ġfam ili
Ġen k
Ġda Å¾
ĠZ D
ĠB O
à·Ģ à·Ķ
à®¾à®Ł à¯įà®Ł
à§ Ī
Ø¹ ÛĮ
×ª ×¨
ÑĢ ÑĪ
Ðķ Ðļ
ÃŃ as
y v
p c
lar Ä±nÄ±n
ab led
T o
Ġç ĭ
ĠØ³ Øª
ĠÐº Ð°Ð¾
Ġview s
Ġk ond
Ġc ase
ĠM ess
ĠE D
ë¥ ´
é£ Ł
æĮ ĩ
å¥ ĩ
áĢ¯ áĢŃáĢ
à¸²à¸ ¥
ÖĢÕ »
Õ«Õ ¹
tic os
ri ver
mÉĻ y
is ko
am ar
all er
N D
Ġàª ĺ
ĠÙ¾ Ø±ÙĪ
ĠÕ ı
ĠÐ¸ Ð´
Ġproduc ts
Ġpre par
Ġl ug
Ġf y
ĠP ir
ìĦľ ë¹ĦìĬ¤
à¨¿ à¨°
Ðµ Ðµ
ut in
ind o
ik h
h j
f ica
Ġâĺ ħ
ĠáĪ °
ĠØ§ÙĦØ¹ Ø±Ø¨
ĠÑĺ ÐµÐ´
Ġst ill
Ġn Ã¡m
Ġn ode
Ġdis pos
Ġd Ã¶v
Ġb ard
à¸Ļà¸ ķ
à·ı à¶»à·Ĭ
à³įà² ¬
Ðķ ÐĿ
Ð°Ñģ ÑĮ
Î¼ Î¿Ïį
s u
j Ã³n
il u
ik asi
Q A
Ġé Ļ
Ġà´ Ĺ
Ġà°ķ à±Ĥà°
ĠÄĮ e
Ġun i
Ġsam o
Ġn di
Ġb aba
ĠR esta
ĠI ch
à·ĥ à·Ķ
Ùĥ Ùħ
ÑĢ Ð¸Ð¼
Î¼Î± ÏĦÎ¿ÏĤ
Æ¡ i
ÄĽ l
es ha
ay n
Ġìĸ ĳ
Ġà®µ à¯Ĩ
Ġà¤¸ à¥įà¤¥
Ġre ci
Ġk ro
Ġh iyo
Ġb ash
ĠT ha
ĠH indi
ĠAn ton
Ġ1 px
é ±¼
ob o
l ja
ĠÐŁ ÐµÑĢ
ĠÎ¾ Îµ
Ġz an
Ġt and
Ġny e
ĠD ia
Ġ19 96
íŀ Ī
æĶ ¯
àª Ī
à¦¾à¦ ļ
à¥ģà¤ ĸ
à¥Ģ à¤¨
Ø§ÙĨ ÙĪ
ÑĸÐ½ Ð´
Ð»Ð°ÑĢ Ð³Ð°
Ïİ ÏģÎ±
ta y
ach e
P H
ĠáŀĲ áŀ¶
Ġà·ĥ à¶¸
ĠÐ¾Ñģ Ð¾Ð±
Ġsv et
Ġdur ch
Ġc uk
Ġal ap
ëĭ ¨
ãģ ļ
à´¦ àµįà´
àª¾àª Ī
à¥ĭ à¤²
Ð¸Ñĩ Ð½Ð¾
Ð°Ñ ĵ
ut z
on to
it Äĥ
cha ft
Ġàº ¡
ĠÑģ ÑĥÐ¼
Ġvl ast
Ġtrav el
Ġse Ã§
Ġs uka
Ġchild ren
ĠS at
à¸ģ à¹ĩ
Õ ª
Ð¼ ÐµÐ½ÑĤ
Ð² Ð¾Ð»
un c
ok rat
N G
Ġà²Ĩ à²¦
ĠØ Ľ
ĠÒĽ Ð¾ÑĢ
Ġnatur al
Ġcom par
Ġal m
ĠFl or
ĠF OR
æ¬ ¢
à¶±à·Ĭ à¶¯
àª¾àª ķ
Õ¸Õ µ
Ð¾Ð± Ð¾Ð´
Ð½ Ñİ
Ã¼l t
Ġï¿½ï¿½ï¿½ï¿½ï¿½ï¿½ï¿½ï¿½ï¿½ï¿½ ï¿½
ĠØµ ØŃ
ĠÎ± Î³
Ġts un
Ġsol u
Ġje ho
Ġ10 3
à¸· à¹īà¸Ń
à°¯ à±įà°¯
à¨¾à¨ µ
×Ļ ×Ļ×Ł
ÑĥÑĤ Ð¸
ÃŃ o
ul s
ot y
eri es
Ġà¤¹ à¥Ģ
ĠØ¬ Ùĩ
Ġ×Ľ ×ŀ×ķ
Ġk esk
Ġk ale
Ġg rav
Ġcomp et
Ġa ki
ĠW ed
ĠSt reet
ĠB lu
è½ ¯
áŀ¼ áŀĵ
áĬ ¥
à¨¾à¨ ¬
à¤¿à¤ ¶
×Ľ ×ł
ti mo
k ie
er al
ĠÐ² Ð·
ĠÐ°Ð» Ðµ
Ġl v
Ġc urrent
Ġ ort
çİ ĩ
åħ Ī
ÙĪÙħ Øª
ut at
n om
em an
ĠØ´ Ùĩ
Ġ×Ĳ ×ĸ
ĠÑĩ ÐµÑĢ
ĠÑĢ ÑĥÐ±
ĠÐ¿ Ð¾Ð±
Ġvies nÄ«
Ġv ys
Ġstat us
Ġser ta
Ġpro ti
Ġop tim
Ġit ems
Ġbr ug
Ø§Ø² ÛĮ
×Ļ ×ķ×Ł
ha a
ant oj
ab les
Ġí ĸ
ĠÙ¾ ÙĪ
ĠÐ±Ð¾Ð»ÑĮ ÑĪ
ĠÐ± Ð°Ð³
Ġv ÄĽ
Ġpos it
Ġka ik
ĠU nd
ĠRad io
ĠR ich
ĠO t
Ġ10 2
ç ¶
åħ ī
à¸²à¸£ à¸ĸ
Åĳ s
ÄŁ a
Ã¡s ok
le c
it ta
" }.
Ġé Ĥ
Ġåħ ¨
Ġà²ķ à³ģ
Ġà¨¸ à¨¿à©°à¨
Ġ×© ×Ĺ
Ġv Ã©g
Ġu plo
Ġszer int
Ġn Ã¡s
Ġj ika
ä» Ĭ
áĭ ²
áī ±
áĪ ®
àª ĸ
×¡ ×§
Î¿Î½ ÏĦÎ±Î¹
Ã¡ in
Ġà·ĥ à¶Ĥ
ĠÐ¶ ÐµÑĤ
Ġr os
Ġku f
Ġh ud
Ġas ÃŃ
Ġall t
ì ¡
ç ħ
åħ Ń
â ĸ
áĪ ģ
àµģà´ ķàµįà´ķ
à¥Ī à¤¨
Ñĥ Ð¹
Ð³ ÓĻÐ½
Ïĥ Î¿ÏħÎ½
Äģ n
Ãº p
o ek
ke y
f al
ett y
ai an
AL L
Ġåĳ ¨
Ġå¹ ¸è¿Ĳ
ĠáĥłáĥĿáĥĽ áĥĶáĥļ
ĠÐŀ Ñģ
Ġku j
Ġgro up
Ġf ff
Ġcom m
Ġa Å¾
ĠB ra
è¾ ¾
æİ ¨
áī ²
áĥĿáĥĳ áĥĺáĥ¡
ÏĦÎ· ÏĥÎ·
Î¹Îº ÏİÎ½
Â ¡
re y
q s
ak ov
K T
Ġà°ħ à°Ĥà°¦
Ġà¤¸à¤° à¤ķà¤¾à¤°
Ġv ak
Ġk ang
Ñĥ ÒĵÐ°
ÑĢÑĥ Ð±
Ð¼ Ð¾Ð½
ÄĻ s
j Å¡ÃŃ
il es
iku wa
O n
C om
0 81
Ĭ áĢºáĢ
Ġà¦ı à¦°
ĠÙĪØ² ÛĮØ±
ĠÔ ¼
ĠÐ½Ð°Ð¿ ÑĢÐ°Ð²
ĠÐ¼ Ð°ÒĽ
Ġhier die
Ġb ie
Ġal k
ĠS ist
ĠD ani
Ġ? "
ãĥ Ģ
ãģ¨ æĢĿ
à¸´ à¹Īà¸ĩ
à´¤àµįà´¤ à´¿à´²àµįâĢį
à±ĩ à°ķ
up an
àº· à»Ī
àº ķ
Ġàº Ľ
Ġàº Ħ
Ġà» ĥ
àº± àºĶ
àºŃ àºĩàº
àº Ħ
àº²àº Ķ
àº ¼
Ġà»ģàº ¥àº°
àº Ĭ
Ġàº Ĺ
à»į à»Ī
Ġàº ¥
àº± à»ī
Ġàº ŀ
àº Ĥ
àº± àºĶàº
Ġà» Ħ
Ġàº Ļ
Ġàº Ĥ
à» Ĥ
àº²àº §
àº ³
àº Ĺ
àº» à»ī
àºģ àº²àºĻàº
Ġàº ķ
àº Ī
àº ¶
Ġáģ ı
à»Ī àº§
ķ áĢŃáĢ¯
« àº¼
áĢĦáĢº áĢ¸
¶áĢ¯ áĢ¸áĢ
ĲáĢ ½áĢ
àº ®
ĸáĢ¼áĢ ħáĢºáĢ
àº« à»ī
Ġàº ģàº
áĢĦ áĢ
à»Ī àºĩ
±áĢ¬ áĢĦáĢºáĢ
àº·à»Ī àºŃ
áĢº áĢ¸áĢ
àº ŀ
±áĢ ĲáĢ¼áĢ
ģ áĢ¯áĢ
Ġàº Ń
Ĭ áĢ¹áĢ¸áĢ
áĢ¯áĢ¶ áĢ¸áĢ
Ġàºģ àº²àºĻ
Ġàº §
Ġàº Ī
Ġàº ļ
»áĢ ģ
Ġáģ Ĥ
áŀ» áŀĢ
à»Ī àº²
ĠáĢ Ľ
áŀļáŀ ·
ľáĢĬ áĢ¹áĢ¸
áģ¿áĢķáĢ ®áĢ¸
Ľ áĢ¬
áŀ¼ áŀħ
ħ áĢ¹
»áĢķ áĢ¬áĢ
ĲáĢ ²áĢ·áĢ
ĠáĢ ķáĢ¼áĢ
à»Ī àº²àºĩ
Ġáŀĳ áŁħ
áĢŃáĢ¯ áĢĦáĢºáĢ
áŀĲ áŀ¶
Ġáŀĺ áŀ·áŀĵ
àº¹ à»ī
áŀĢ áŁĴáŀŁ
áŀİ áŁĴáŀ
áŀĳ áŁħ
àº° à»Ģàº
Ļ áĢ¬áĢ
ĶáĢ ±áĢ
áŁĴáŀ ¢
áŀĢáŀĺáŁĴáŀ ĺ
áŁĴáŀ Ĥ
àº§ àº²àº¡
áŀļáŀ ĬáŁĴáŀĭ
ķáĢ ²
ģáĢ ¼
áŁģ áŀħ
áŀĵ áŁĴáŀĳ
¶ áŀĵ
àº°àº «
áŁĴáŀļáŀ ¾
ľ áĢŃáĢ¯áĢ
¡ à»Ī
ĸ áŀ»
áŁĴáŀļ áŁĩ
±áĢ Ĩ
áŀĶ áŁĭ
ĠáĢ »áĢķáĢ
Ĳ áĢ¹
ĻáĢº áĢ¬áĢ¸
»áĢ ĻáĢ
ĠáĢ Ĳ
áĢĦáĢ· áĢº
áŁĴáŀ ī
áŀĵ áŀ»
à»Ī àº²àºĻ
áŁĤ áŀļ
Ġàº ®
ĠâĢĭ áŁĶ
àº± àºĩ
Ġáŀĺ áŁī
àº± àºģ
áŀĢ áŀ¶áŀļ
áŀ¶áŀ Ĥ
Ġàº Ĺàºµà»Ī
ĶáĢ ¾
à»Ħ àºĶà»ī
ĠáŁ ĸ
áŀ¾ áŀı
áŀ· áŀħáŁĴáŀħ
ĠáŀĬ áŀ¾
áŀĺáŁĴáŀĶ áŀ¸
ŀáĢĬ áĢ¹áĢ
áĢĢ áĢŃáĢ¯áĢ
áŀ· áŀŁ
àº¡ àºµ
±áĢĽ áĢ¸áĢ
ĻáĢ½ áĢ¬áĢ
ĠáĤ ı
ĲáĢ ļáĢ¹
ĻáĢº áĢ¸áĢ
ĠáŀĲ áŁĴáŀĦáŁĥ
áŁĴáŀĽ áŀ½áŀĵ
áŁĴáŀĵ áŀ¶áŀĢáŁĭ
Ġáŀł áŀ¾áŀĻ
àº» àº¡
áŁĦ áŀĦ
ĠáĢĢ áĢŃáĢ¯áĢ
Ġàº «
Ķ áĢ¬áĢ
áŁ¡ áŁ
àº²àº ģ
Ġáŀĵ áŀ¹áŀĦ
° áĢ¸
ķáĢ ±áĢ
áŀ¶áŀ ľ
áŀ· áŀĶ
àº» àºĻ
áŁĬ áŀ»áŀĵ
±áĢ¬ áĢĦáĢºáĢ¸áĢ
áŀīáŁĴáŀ ĩ
áŀ¾ áŀĢ
Ġàº Ĭ
Ġáŀı áŁĴáŀļáŀ¼áŀľ
à»į àº²àº
àºģ àº²àºĻ
áŀļáŀ İ
ķáĢ«áĢĲáĢ ļáĢº
áĤı áĢŃáĢ¯áĢĦáĢ¹áĢ
ŀáĢ °áĢ
áŁĨ áŀĶ
àº´ àºĶàº
ľáĢ ½áĢ
áŀļáŀ Ł
ĠáĢ ģáĢ
à»Ģàº Ľ
áŀĳ áŁĴáŀĴáŀ
áŁĴáŀļ áŀ¶áŀĶáŁĭ
Ł áĢ¬
áĢŃáĢ ĲáĢ¹áĢ
ĸ áĢŃáĢ¯
áŁģ áŀıáŁĴáŀı
ĠáĢŀáĢ °
¿ áŀĦ
áĢ¯áĢ ĲáĢ¹áĢ
ĠáĢ ĺáĢ
áŁģ áŀĳ
áŀĬ áŁĤáŀĽ
Ľ áĢ¬áĢ¸áĢ
Ġà»Ħ àºĶà»ī
ķ áĢº
áĤıáĢ ½
ĽáĢ¾ áĢŃáĢ
à»ī àºŃ
áŀ» áŁĩ
áŁĨáŀĵ áŀ½áŀĵ
áŀ¶áŀĺ áŀ½áŀĻ
àº± àºģàº
áŀŁ áŀĺ
áŁĴáŀļ áŁĦáŁĩ
ŀ áĢŃáĢ
áŀı áŁĴáŀĲ
ģáĢ ²áĢ·
áŀ½ áŀĽ
ŀáĢ ¼áĢ¬áĢ¸áĢ
±áĢķ áĢ¸áĢ
¼ áĢ¸áĢ
ĩ áĢ
Ġà» Ĥ
ĠáĢĴáĢ ®áĢ
Ġáŀĺ áŀ½áŀĻ
áĢĦáĢ¹áĢ ·áĢ
áĢ¯áĢŃ áĢĦáĢ¹áĢ
áĢĦáĢ· áĢºáĢ
àº» àºĻàº
áŀ¶áŀ ĳ
ĠáŀĶ áŁī
àº²àº ģàº
áŀĵ áŁĴáŀĽ
ĠáĢĢ áĢºáĢ
ķáĢ ¼
Ġáŀ ²áŁĴáŀĻ
áŁ Į
áŀ¼ áŀı
àº¹ à»Ī
áŀ¼ áŀĺ
ĠáĢ±áĢ Ģ
¥áĢ ®áĢ¸áĢ
±áĢĲáĢ¬ áĢ¹áĢ
ĠáĢŀáĢ °áĢ
áĢŃáĢ³ áĢ¸áĢ
»áĢ Ļ
áĢ¬ áĢĦáĢ¹áĢ¸
áģ ĢáĢ
±áĢľ áĢ¸áĢ
ķ áĢ¹
¼áĢ ĶáĢ¹áĢ
ĽáĢ ²
ĺáĢ °áĢ¸
ĠáĢ Ł
áŁĤ áŀĺ
ĸáŀ» áŀĩáŀ¶
áŀļáŀ ĶáŀŁáŁĭ
ĠáĢľáĢ °áĢ
Ġáģ ģáģ
à»ĥ àºĻàº
áŀĶ áŁĴáŀļ
ĻáĢ¾ áĢ¬
áŁ Ĺ
ĠáŀĢ áŀĺáŁĴáŀ
ĽáĢ ±áĢ¸áĢ
Ġáŀ ¡
áŀİ áŁĴáŀı
ĠáŀĤ áŀº
áĢ¬ áĢĢáĢ¹
ĠáĢ ĲáĢŃáĢ¯
ľ àº¹à»ī
áĤĢáĢĢáĢ ®áĢ¸áĢ
¡áĢ ĲáĢ¼
áĢº áĢ¸
áŀĩ áŀĵ
áŀ» áŀĽ
à»ĥ àº«à»ī
ĠáĢ ķ
âĢĭâĢĭ âĢĭâĢĭ
áŀ¶áŀ Ĵáŀ
áŁģ áŀı
ģáĢ «
áŀĳ áŁĢáŀı
áĢŃáĢ¯ áĢ·áĢ
Ġáŀı áŀ¶áŀĺ
àºĻàº µ
ĠáŀĢ áŁı
áŀ¶áŀĽ áŁĭ
à» ľ
ĠáŀĬáŀ¾ áŀĺáŁĴáŀĶáŀ¸
ļ áĢ¬áĢ
áŁī áŀ¶áŀĦ
ĠáĢ ĸáĢ
áŀķ áŁĴáŀŁ
ĲáĢ¼ áĢĦáĢ¹
ĠáĢ ĳáĢ
áŁĴáŀļáŀ ¹
áĢ¬ áĢĦáĢ¹
½áĢ ħáĢ¹áĢ
ŀ áĢ¬áĢ
áŁĴáŀļáŀ» áŀĦ
àº Ĺàºµà»Ī
Ġáģ į
áŀļáŀ Ķ
áŀı áŁĤ
áģ ¤
áģ ¢
ĻáĢ ¼
áŁĴáŀļáŀ¾ áŀĵ
Ĭ áĢºáĢ¸áĢ
ĠáŀĢ áŁĴáŀļ
½ áŀĺ
àº» àºļ
ĠáŀĴ áŁĴáŀľáŀ¾
ĠáĢŀ áĢŃáĢ
áĢŃáĢĻ áĢ¹áĢ
ħ áĢº
áŀ· áŀıáŁĴáŀı
Ľ àº°àº
áŀļáŀ Ģ
àº» àº§
áŀĳ áŀ¶áŁĨáŀĦ
ĺ áĢ¬áĢ
Ġáŀľ áŀ·
à» Ģ
áŀİáŁĴáŀ Į
ĠáŁ¢ áŁł
áŁĨáŀĸ áŁģáŀī
Ġáŀĳ áŀ¶áŁĨáŀĦ
ĠáĢ ·áĢ
±áĢ ¡
ľáĢ ²
ĠáĢ ·
¦ áĢ¸áĢ
áŁĴáŀļáŀ Ķ
ķáĢ¼áĢ ®áĢ¸
áŀ¢ áŁĴáŀĵáŀĢ
Ġàºģ àº²àºĻàº
Ġáŀ Ī
áŁĴáŀ Ĵ
ģáĢº áĢĢáĢ¹áĢ
Ĳ áĢŃáĢ
áŀĩ áŀ¶áŀıáŀ·
à»Ī àºĩàº
ĠáŀĢ áŁĴáŀļáŀ»áŀĺ
ĻáĢ ļáĢ¹áĢ
ĻáĢ¾ áĢ
¼ áŀĶ
áŀĺ áŁī
Ġáŀĵ áŁĦáŁĩ
ĠáĢ »áĢĸáĢħáĢ¹áĢ
ľáĢ¯áĢ ķáĢºáĢ
à»į àº²
Ġáŀĺ áŀĢ
àº´ àºĶ
áŀĺ áŁĴáŀĽ
áŀĬ áŁĴáŀĭ
àº²àº ª
ļáĢ °áĢ
áŀ ²áŁĴáŀĻ
áŀĳ áŀ½áŀĽ
ĲáĢ ħáĢ¹áĢ
ħ áĢ¬áĢ
ĲáĢ ±áĢ¬áĢ
áŀĢ áŀ·áŀħáŁĴáŀħ
áŀ· áŀĻ
áģ ĭ
Ļ áĢŃáĢ
àºĻ à»Ģàº
ĢáĢ ¼áĢ
áŀĴ áŁĴáŀľáŀ¾
ĠáŀĶáŁĴáŀļáŀ ĳáŁģáŀŁ
Ģ áĢŃáĢ¯áĢ
Ġàº Ķ
Ġáŀı áŁĤ
ĶáĢ¹ áĢ¸
ŀáĢĬ áĢºáĢ
áŀĸ áŁģáŀĽ
àº± àºĩàº
ĲáĢ½áĢ ±áĢ
áŀ¶áŀ İ
ģ áĢ¯
áŁĴáŀı áŀ¸
ĠáĢ Ĵ
à»ģàº ¡à»Ī
Ġáŀ ĥ
»áĢ ĸ
áĢ±áĢ ĲáĢ¼
áĢ¯áĢ ¶áĢ
áŀĵ áŁĭ
áŁĴáŀĽ áŀ¼áŀľ
à»ī àº²
áŁĲ áŀı
ľáĢŃáĢ¯ áĢĢáĢ¹áĢ
áģ ½áĢ
ŀ áĢ¬
áŀĵ áŀ¹áŀĦ
ĻáĢ¾ áĢ¯áĢ
àº»à»ī àº²
áŀĦáŁĴáŀ ł
ĠàºĤ àºŃàºĩ
Ġáŀĵ áŁĥ
ŀ àº·à»ĪàºŃ
áŁĲ áŀĵ
Ġàº¡ àºµ
ĠáŀĤ áŀİ
áŁĴáŀĵ áŀ¶
±áĢŀ áĢ¬
áĢŃáĢ¯ áĢĦáĢº
à»ī àº§
áŀļ áŁī
áŁĴáŀĵ áŁĨáŀĸáŁģáŀī
áŀĺ áŀĢ
»áĢĻáĢ ĶáĢ¹áĢ
¼ áĢĢáĢ¹áĢ
¶ áĢ¯áĢ
ĻáĤĪ áĢ
ĴáĢ ®áĢ
Ġáŀĩ áŀĵ
àºĻàº °
áŁĴáŀĺ áŀ¸
½ áĢ¬áĢ¸áĢ
Ĵáŀ ¶áŀĵ
áŀĲ áŁĴáŀĦáŁĥ
à»Ģàº Ĥ
áŁĴáŀļáŀ Ł
áŀĴáŀ ¸
áŀĽ áŁĦáŀĢ
áŀĺ áŀ½áŀĻ
ĠáĢ¡áĢ ±áĢ
ľáĢŃáĢ¯ áĤĶ
áĢŃáĢ¯ áĢ·
¢ àº¹à»Ī
áŀ¶áŀ ł
Ĳ áĢ¯áĢ
ĠáĢ Ĺ
áŁ ¥
Ġáŀļáŀ ĬáŁĴáŀĭ
Ĭ áĢ¹
ĠáĤı áĢ
ķáĢ±áĢ «
áŀĻ áŀĵáŁĴáŀı
àº°àº ģàº
áŀ· áŀĢ
Ġà»ĥ àºĻ
áŀ¡ áŀ¾áŀĦ
ĠàºĹ à»Īàº²àºĻ
à»ī àºŃàºĩ
ĻáĢ» áĢ¬áĢ¸
áŁĢ áŀĦ
áŀĵ áŁĦáŁĩ
àº§ àºģ
áŀ» áŀı
¥ áĢ¹áĢ
Ġáģ ¿áĢ
±áĢ¬ áĢº
áŀĬ áŁĦáŀĻ
áĢŃáĢ ĶáĢ¹áĢ
à»ī àº²àºĩ
Ĳ áĢº
áŀĶ áŁī
Ĥ àºŃàºĩàº
áŀīáŁĴáŀ ħ
áŀĤ áŁĴáŀĤ
áŀĽ áŀ¾
Ĭ áĢ¬áĢ
àº· à»ī
áŀ¾ áŀī
ĠáĢ Ķ
Ġáŀĸ áŁģáŀĽ
áĢ· áĢºáĢ
à»ģàº ¥
áŁĴáŀļáŀ ½
áŀ ĥ
àºĶàº į
ĠáŀĢáŀĺáŁĴáŀ ĸáŀ»áŀĩáŀ¶
¯ áŀĢ
áŀ·áŀĶ áŀ¶áŀĽ
áŀģ áŁĴáŀĽáŀ½áŀĵ
áŁĦ áŀĺ
àºŃ àºģ
áŀĢ áŁĴáŀļ
¡áĢ ĲáĢ½
àº ľ
± áŁĴáŀĻ
Ġà»Ģàº Ľ
Ġáŀģ áŁĤ
ĠàºĽ àº°àº
áŁĴáŀļáŀ» áŀĢ
à»į àº¥
Ļ áĢŃáĢ³
ĠáĢ±áĢ Ľ
áĢ¯áĢ ĽáĢ¬áĢ¸áĢ
áŀĵ áŁį
±áĢ ĳ
½áĢ ±áĢ¸áĢ
áŀĢ áŁĭ
à»Ī àº½
ĠáŁ £
ĠáŀĬ áŀ¼áŀħ
ĠáĢ±áĢ »áĢķáĢ¬áĢ
ĻáĢ ¼áĢ
Ġáŀģ áŁģáŀıáŁĴáŀı
ĠáŀĢ áŀ¶áŀĽ
áŁģ áŀģ
áŀı áŁĴáŀļáŀ¼áŀľ
àº±à»ī àºĻ
ĠáĢĲáĢ ħáĢ¹áĢ
±áģ¾áĢĢ áĢ¬áĢĦáĢ¹áĢ¸
ĦáĢ ¶áĢ
Ľ áĢĦáĢ¹
ĠáĢľáĢ °
ĠáĢ »áĢĻáĢĶáĢ¹áĢ
¡ áĢ¬áĢ¸áĢ
àºŃ àºļ
ĠáŀĶ áŁĴáŀļ
ľáĢ¯áĢ ¶
áŀĵáŁĴáŀı áŁĴáŀļáŀ¸
áŀīáŁĴáŀ ī
àºŃ àºĻ
áŀ¶áŀ Ĺ
® áĢ±áĢ
Ļ áĢ¬
ĠáĢĺ áĢ¬áĢ
áŀĺ áŀ·áŀĵ
ĠáģĤ áģĢ
à»Ģàº ®
±áĢĽ áĢ¸
Ķ áĢŃáĢ¯áĢĦáĢºáĢ
áŀĦáŁĴáŀł áŀ¶áŀī
Ġáŀħ áŀ¼áŀĽ
áŁ¢ áŁł
Ġáŀħ áŁĨáŀĵáŀ½áŀĵ
áŁĴáŀ Ģ
àº» àºĩ
áŀĬ áŀĽáŁĭ
áŀĶ áŀĢáŁĴáŀŁ
áŀ Ī
ģ àº²àºĻàº
±áĢ ķáĢ«
ĦáĢ ¶
ĠáĢ±áĢ Ķ
ĠáĢ ĦáĢ
áŀ §
ķáĢ ±áĢ¸áĢ
Ġáŀ Ĩ
áŁ £
ĠáŀĽ áŀ¾
àº°àº ŀ
½áĢ ±áĢ
Ġáŀ¢ áŀ¶áŀħ
à»Ī àº²àº§
Ġáŀĸ áŁĴáŀļáŁĩ
ĠáĢħ áĢ¬áĢ
ĠáŀĬ áŀĽáŁĭ
±áĢķ áģ
ĲáĢ±áĢ¬áĢ ·
áĢ· áĢº
Ġáŀ ¬
à»Ī àº¡
àºŃ àºĻàº
áŀĵáŀ» áŀŁáŁĴáŀŁ
áŀ ĨáŁĴáŀĵáŀ¶áŁĨ
Ġáŀ İ
áŁĦ áŀĤ
àº» àº²
ĠáŀĶáŁĴáŀļáŀ ĩ
áŀĵ áŀ·áŀĦ
ľáĢ ½
ĻáĢ¾ áĢ¯
áŀ¹ áŀĺ
áŀ Ĩ
à» Ŀ
áŀ½ áŀĦ
áŀ½ áŀĢ
Ĩ áĢŃáĢ¯
ĸáĢ¼áĢ ²
Ł áĢ¯áĢ
Ġáŀĩ áŀ¶áŀıáŀ·
áŀł áŁĬáŀ»áŀĵ
àº²àº Ĭ
áŁĴáŀ ģ
àº°à»Ģàº Ĺ
áŁĲáŀı áŁĮ
áŁĴáŀľ áŀ¸
ģáĢ ¼áĢ
áŀĢ áŀ¶áŀĽ
àº ĸ
áŁĴáŀļáŀ ĺ
áĢ¬áĢĦáĢ¹áĢ ·
áĤıáĢ½ áĢĦáĢ¹áĢ·
ŀáĢĬáĢ¹áĢ ·
ģáĢºáĢ ³áĢ
¡áĢĲáĢ¼ áĢĢáĢ¹
áĢĢáĢ ¼
áŁĦ áŀĽ
ĠáŀĶáŁī áŀ»
±áĢ »áĢķáĢ¬áĢ
ĶáĢ ¾áĢ
ĠáŀĻ áŀ¾áŀĦ
Ġàº į
Ġáŀĵ áŀ¶áŀĢáŁĭ
áŀļáŀ ¸
àº²àº ļ
Ġáŀ Ĵáŀ
Ľ áĢĦáĢ¹áĢ
Ļ áģ
ĠáĢĢáĢ »áĢ
áŀ¾ áŀĶ
Ġáŀĩ áŀ¶áŀĺáŀ½áŀĻ
áŁĲáŀıáŁĮ áŀĺáŀ¶áŀĵ
à»į à»ī
áŁĴáŀĺ áŁĦáŁĩ
áĢŃáĢ ķáĢ¹áĢ
Ĳ áĢ¯áĢŃ
áģ¤ áĢ
ŀáĢ ±áĢ¬
áŁģáŀı áŀ»
áŁĴáŀĽ áŀ¶áŀĶáŁĭ
Ġàºª àº°
Ġáŀħ áŁĨáŀİ
àº´ àºĩ
áŀıáŁĴáŀı áŀ·
áŀİ áŁĪ
à»Ī àº²àºĻàº
áŀ¾ áŀĺ
áŀ· áŀħ
áŀı áŁĭ
àºĻàºµ à»ī
ĻáĢº áĢŃáĢ³áĢ¸áĢ
áģ¿áĢķáĢ ®áĢ¸áĢ
ģáĢº áĢĦáĢ¹áĢ
±áĢĢ áĢ¬áĢĦáĢ¹áĢ¸áĢ
ĸáĢ ¼
áŀ¶áŀ ¢
Ġà»ĥ àº«à»ī
àºģàº ª
ĠáŀĹ áŁĴáŀĵáŁĨáŀĸáŁģáŀī
áŁĢ áŀĶ
áŀĺ áŁĴáŀļ
à»įàº¥ àº´
áŀĵ áŀ¶áŁĨ
áŀ» áŀľ
Ĳ áŀĻáŀĵáŁĴáŀı
àº§ àºĩ
áŁĨáŀİ áŀ¾
ĠáĢľ áĢĢáĢ¹áĢ
ĠáĢ ļáĢ
¢ à»Īàº²àºĩ
±áĢĨ áĢ¬áĢĦáĢ¹áĢ
ħáĢ ®áĢ
áŀĶáŁĴáŀļáŀ ĩ
Ł áĢ
à»įàº²àº ¥
áŀĶ áŀļáŀ·
àºĦ àº§àº²àº¡
áŁĴáŀļáŀĶ áŁĭ
áĢĢ áĢ¯áĢ
áŀı áŀ¶áŀĺ
ĲáĢ ļáĢ¹áĢ
ĠáĢĢ áĢŃáĢ¯
áĢº áĢ¬áĢ¹áĢ
³ áĢŃ
ĲáĢ½ áĢĦáĢº
ĠáŀĤáŀİ áŀĶáŀĢáŁĴáŀŁ
ĠáŀĶ áŀĦáŁĴáŀĢ
áŀ¾ áŀĽ
ļ àºļ
ĠáŀĢ áŁĨáŀĸ
áŀĴáŀ ¶áŀĵ
àº±àºĻàº Ķ
Ġáŀĳ áŁģ
ĠáŁ ¤
áŁĴáŀļáŀ Ħ
Ĥ àºŃàºĩ
áŀĢáŀ¶áŀļáŀ Ķ
ĠáŀĤ áŁģ
áŁģ áŀĢ
áŀĩ áŁĴáŀ
àº±à»ī àºĻàº
áŁ ¤
Ġáŀ¡ áŀ¾áŀĦ
ĠáĢĻ áĢŃáĢ
áŀĢ áŁĴáŀļáŀ»áŀĺ
ľáĢĬ áĢºáĢ¸
àº°àº ¥
áŁ ©
Ġáŀļáŀ Ħ
áŀļáŀ »
ĠáŀĶ áŀĵáŁĴáŀĳ
ĲáĢŃáĢ¯ áĢ·áĢ
Ġà» Ģ
ĠáŀĶ áŀĦáŁĴáŀłáŀ¶áŀī
à»ĢàºĽ àº±àºĻàº
áŀ¶áŀ Ĭ
Ġáģ ¾
ľ áĢ¯áĢŃ
ĠáĢ ĨáĢŃáĢ¯áĢ
Ġáŀģ áŁĴáŀĽáŀ½áŀĵ
áĤ ĬáĢ
áĢĢ áĢ¬áĢ¸áĢ
áŁ ¦
áŀŁ áŀ·
áŁ ¨
áŀĽ áŀļáŀĬáŁĴáŀĭ
ĠâĢĭâĢĭ âĢĭ
»áĢģ áĢĦáĢ¹áĢ¸áĢ
± áĢ¸
áŁĴáŀ ĸ
áŁĴáŀļáŀŁ áŀ½áŀĦ
áŀļáŀİ áŁį
ķáĢ ½áĢ
áŁĴáŀī áŀ»áŁĨ
à»ī àº²àº
áŁ §
áŀ Į
ĳáĢ ²
áĤı áĢ¯áĢŃáĢĦáĢ¹áĢ
ĽáĢ½ áĢŃ
ĲáĢ ±áĢ¬áĢºáĢ
áŁĨ áŀķ
áĢĢ áģ
ħ áģ
ĠáĢŀáĢ Ĳ
àº´àºĶàº ķ
ĻáĢ» áĢŃáĢ¯áĢ¸áĢ
áŁĴáŀļáŀ ¿áŀĦ
àº¸ àº¡
áŀĳ áŁĴáŀĻ
áĤı áģ
ĠáĢĻáĢ ¼áĢ
áŀ» áŀĻ
ķ à»Ī
áŀ» áŀĶ
ħ áĢ¯áĢ
Ġáŀ §
áŀİ áŀ¶áŀĺ
áŀĤ áŁģ
ĠáĢ»áĢķáĢ ĬáĢ¹áĢ
áĢŃáĢ¯áĢĦáĢº áĢĦáĢ
à» Ĩ
áŀĵ áŀ¶áŀĢáŁĭ
»áĢ ģáĢ
ĺ áŁĴáŀĺ
ĠáĢ ĩáĢ
±áĢĲáĢ¬áĢ ·áĢ
áĢ±áĢ ĲáĢ¼áĢ
ĲáĢŃáĢ¯ áĤĶ
ĲáĢ²áĢ·áĢ ¡áĢ
ĲáĢ ħáĢºáĢ
àºĬ à»ī
áŀĢ áŁĴáŀļáŀ»áŀĦ
ĠáĢ¡áĢ ²áĢ
ģáĢ¼ áĢĦáĢºáĢ¸áĢ
áŀ¶áŀħ áŁĭ
àº° àº¡
áŁĢ áŀĵ
Ġàº ĸ
áŀļáŀ ½áŀĺ
à»Ģàº ¥
ĠáŁ¢áŁł áŁ¡áŁ
ĠáŀŁ áŀ»áŀģ
áŀħáŁĴáŀ Ĩ
áŀ½ áŀĶ
ĠáŁ ¥
áŀ· áŀĹ
áŀļáŀ ĩ
ĠáĢĴáĢ «
áŀħ áŁĨáŀİ
¡áĢ ŀ
ĠáĢ¡áĢ ŀ
áŀ¸ áŀľ
àº» àºĶ
ĠáŀĤ áŁĴáŀĵáŀ¶
áģ ģáģ
Ġáģ ĥ
áŀĵ áŀ¶
Ġà»Ģàº ŀàº·à»ĪàºŃ
áŀı áŀ¸
ĠáĢ±áĢ Ĩ
áģ¿áĢ ĻáĢŃáĢ³
ģáĢº áĢŃáĢĶáĢ¹áĢ
Ġáģ Į
áŀ¶áŀĴáŀ ·
àº° àºļ
áŁĦ áŀı
»áĢķáĢ ®áĢ¸
ĽáĢ² áĤķ
±áĢ ļ
»áĢĸáĢ ħáĢ¹
ĠáĢ ľáĢ¯áĢķáĢ¹áĢ
áĢĢáĢ¼áĢ ±áĢ¬
ĠáŀĶáŁĴáŀļáŀ Ĵáŀ¶áŀĵ
áŀħ áŀ¼áŀĽ
áŀ¶áŀĹ áŀ·áŀĶáŀ¶áŀĽ
à»Ģàº Ń
áŀŁ áŀ¶áŀļ
Ġáŀĳ áŁĢáŀı
ĠáĢĺ áĢ¯áĢĽáĢ¬áĢ¸áĢ
ĠáĢĺáĢ ļáĢ¹áĢ
ĠáĢ ĿáĢ
áŀł áŀ¾áŀĻ
Ġà¨¸à¨¿à©°à¨ ĺ
Ġà¨ Ĳ
áŀĵ áŁĥ
àº¸ àºĶ
¡ áĢ¬áĢ¸
à©±à¨ ĸ
ŀ áĢ¬áĢ¸
ĠáŀĻ áŁīáŀ¶áŀĦ
àº§ àº½
Ģ áĢ¯áĢ
»áĢĸ áĢĦáĢ¹áĢ·
ĻáĢ ļáĢ¹
ĶáĢ² áĤĶáĢ
áĤĪ áĢ
ľáĢ¯áĢ¶ áĢ¸áĢ
áŀ¼ áŀļ
à»ģàº ļàºļ
áŀ·áŀĻ áŀ¶áŀĻ
ĲáĢŃáĢ¯ áĢ·
àºĻàº §
áŀ· áŀī
Ġáŀģ áŀ¶áŀĦ
à¨¤ à©Ģ
ĠáŀĢáŁĴáŀļ áŁĦáŀĻ
áŀĶ áŀĳ
ĠáĢ¡ áĢ¬áĢ¸áĢ
áŀļáŀ Ħ
ĠáĢ ĸ
áŀĵáŁĴáŀĽ áŁĤáŀĦ
àº´ àºĻ
ľ áĢ¬
ģáĢ ¶
±áĢ¬ áĢĦáĢº
Ġáŀķ áŁĴáŀĳ
Ġà¨µ à©Ģ
àºµ à»ī
±áĢ ĽáĢ
Ļ áŁĪ
Ľ áĢŃáĢ
à»Ģàº ª
ĠâĢĭáŁĶ âĢĭ
áĢĢáĢ »áĢ
Ġáŀĳ áŀĳáŀ½áŀĽ
Ġà¨® à©ģ
ĠáŀŁ áŀ·
Ġàºģàº Ń
àºĤ àºŃàºĩàº
Ġáŀ ¯áŀĢ
áŀ¼ áŀĦ
Ĳ áĢĦáĢ¹áĢ
ĠáĢĲáĢ ħáĢºáĢ
Ġáŀħ áŀ¶áŀĶáŁĭ
Ġà¨ķ à©ĩ
áŀĸ áŁĴáŀļáŁĩ
àº« àº¼
Ġáŀħ áŀ·áŀĵ
áŀİáŁĴáŀ İ
à¨¾à¨ ®
áĢ±áĢ Ľ
áĤıáĢ ½áĢħáĢ¹áĢ
ľ áĢ¬áĢ¸
ķáĢ¼ áĢ¯áĢ
áŀ»áŀĽ áŁĴáŀĽ
ĠáŀŁáŀĺ áŁĴáŀļáŀ¶áŀĶáŁĭ
ĠáŀŁ áŁĨ
Ġáŀļ áŀ¶áŀĩ
áŀģ áŁĴáŀĽ
Ġà¨ķ à©Ģà¨¤
Ġà»ģàº ¡à»Ī
ľáĢ½ áĢº
Ĩ áĢ¯áĢ¶áĢ¸áĢ
áŁĤ áŀı
Ġà»Ģàº Ĥ
áŀħ áŁĨáŀĵáŀ½áŀĵ
Ġàº «àº¼
»áĢķáĢ ĬáĢ¹áĢ
áĢ¯áĢ ķáĢºáĢ
ĠáŀĶáŁīáŀ» áŀĵáŁĴáŀı
Ġà¨ Ł
áŁĢáŀı áŀİáŀ¶áŀĺ
áŀĳ áŀ¹áŀĢ
áŀļáŀ· áŀĢ
ĠáĢ±áĢ ĲáĢ¼
ĶáĢ ²áĢ·
áģ¾áĢĢáĢ ĬáĢ¹áĢ
áĢ¬ áĢ¹
»áĢķáĢ ³áĢ
±áģ¾áĢĢ áĢ¬áĢĦáĢ¹áĢ·
ĠáĢĽáĢ ¾
áŀķáŁĴáŀŁ áŁģáŀĦ
àº´ àºĻàº
áŁĦ áŀĶ
ĠáŀŁ áŁĴáŀĲ
à©± à¨²
áŀĶ áŀīáŁĴáŀĩ
áŀĳ áŁģ
ĠàºĦ àº§àº²àº¡
áĢ¯áĢ ķáĢ¹áĢ
ĶáĢ¾ áĢĦáĢ·áĢº
Ġàº ľàº¹à»ī
áŀİáŁĴáŀı áŀ¶áŀĽ
áŀĹ áŀ¶
àº° àºĻ
áŀķ áŀĽ
Ġà¨¹ à¨¨
áŀĵ áŀ¸
Ġàº ľ
àº±àºĶàº ĸ
áŀ¶áŀĺ áŁģ
Ġàºģ àº±àºļ
Ġà»ĢàºĽ àº±àºĻ
áŀļ áŀ¶áŀĩ
à»ģàº ¥àº°
ķ àº´
áŀķ áŁĴáŀĳ
à»Ī àº²àºį
áŀĶáŁĴáŀļáŀ ĳáŁģáŀŁ
ĳáĢ ²áĢ
àº® àº±àºļ
áĤĢáĢĢáĢ ®áĢ¸
ŀáĢ Ļ
ĠáŀĹ áŀ¶áŀĸ
ĠáĢĢáĢŃáĢ¯áĢ ļáĢ¹áĢ
·áĢ ¡áĢ
Ġáŀĩ áŁĨ
±áĢĲáĢ¼ áĢĢáĢŃáĢ¯
ŀáĢ ĻáĢ
áŀŁ áŁĴáŀļáŀ¸
ľáĢ ²áĢ
áŀĻ áŀĢ
ĻáĢ¾ áĢ¬áĢ
àº Ł
áŀĬ áŀ¼áŀħ
ĠáĢĢáĢ ¼
ħáĢ ¥áĢ¹áĢ
ĠáĢĴáĢ «áĢ
ĠáŀĢáŀ¶áŀĽ áŀĸáŀ¸
ĠáĢ Ĥ
áŀ¼áŀĺ áŀ·
áŀ¶áŀĻ áŀ»
à¨¿à¨ ¤
Ġáŀļáŀ ¼áŀĶ
àº» àºĩàº
ĻáĢ ĬáĢ¹áĢ
ĠáĢĢ áģ½áĢ
ķáĢ«áĢ ĺáĢ°áĢ¸
ĠáĢ ¥áĢ®áĢ¸áĢ
ĺáĢ °áĢ¸áĢ
ĠáĢ ¦áĢ¸áĢ
Ġáŀķ áŁĴáŀŁ
áģ ļáĢºáĢ
ħ áĢŃáĢ¯áĢ¸áĢ
ľáĢ ®áĢ
ĠáŀĶ áŀ¾
à»įàº²àº¥ àº±àºļ
à»Īàº§ àº¡
áŀĺ áŀ»áŀģ
à»Ģàº Ĭ
áŀħ áŀ·áŀıáŁĴáŀı
ģáĢ »áĢ
áŀľáŀ· áŀī
à¨¾à¨ £
áŀķ áŁĴáŀĽáŀ¼áŀľ
ĠáĢ¡áĢ ĽáĢ
áŀĬáŁĴáŀĭ áŀ¶áŀĵ
ģáĢ²áĢ· áĢĲáĢ
ŀáĢ ½áĢ¬áĢ¸áĢ
Ġáŀĳ áŀ¹áŀĢ
àº°à»ĢàºĹ àºĶ
Ġáŀ Ħ
áŀ½ áŀŁ
ĠáŀĶ áŀ»
áŀĦ áŁĴáŀŁ
áŀ¶áŀĻ áŀĢ
áŀ¢ áŀ¶áŀħ
à»Ģàº ¡
à¨ ¥
ľáĢŃáĢ¯ áĢ·
ĠáģĤ áģ
áģĢ áģĢ
ĠáŀĶáŁĴáŀļáŀ Ģ
áĢĦáĢºáĢ ·
±áĢ »áĢķ
Ŀ áĢĦáĢ¹áĢ
ľ áĢ¹áĢ
áģ¾áĢĢ áĢ¬áĢ¸áĢ
ĶáĢ ĬáĢ¹áĢ¸áĢ
ĠáĢ¡áĢ ľáĢ¯áĢķáĢ¹áĢ
ĠáĢ ĸáĢ¼áĢħáĢºáĢ
áŁĲ áŀĸ
àº´ à»Īàºĩ
áŀŁ áŁĴáŀļ
áŀĬ áŁĤáŀļ
ĠáŀĶáŁīáŀ»áŀĵáŁĴáŀı áŁĤ
à¨¿à¨ ķ
±áĢĽ áĢ¬áĢĢáĢ¹áĢ
±áĢ¬ áĢĢáĢº
Ġà´ «
àºĤ àºŃàºĩ
áĭİ áī½
áŀİ áŁĴáŀĬ
áŀ½ áŀı
áŀĹ áŁĴáŀĽ
Ĺ áĢ
áŀıáŁĴáŀı áŀĺ
áŀĤ áŁĴáŀĵ
ı áĢ
ľáĢŃáĢ¯ áĢĢáĢºáĢ
Ġáŀķ áŀĽ
àº° àºĻàº°
áŁĴáŀĺ áŁĤáŀļ
áŀ» áŀŁ
à´¿à´ ¸
à©Ī à¨Ĥ
Ġáģ ģ
Ġáŀļáŀ ½áŀĺ
¼áĢ ļáĢ¹áĢ
Ľ áĢĦáĢ¹áĢ¸áĢ
Ļ áĢŃáĢ¯
ķ àºµ
áŁĴáŀļáŀ Ģ
ĠáĢ±áĢ ĽáĢ
ĠáĢ±áĢ ĲáĢ¬
ĠáĢ±áĢ ĶáĢ
ħ áĢ¯
áŀĻ áŁīáŀ¶áŀĦ
»áĢķáĢ ĶáĢ¹áĢ
¡áĢĲáĢ½ áĢĢáĢº
àµ ĥ
à»ģàº Ĥ
áŀĸ áŁĴáŀļ
àº±à»ī àºĩàº
Ġáŀģ áŁĴáŀĽ
Ġà¨ķà¨° à¨¨
áŀ ¿
àµĨ à´Łàµįà´Ł
àºĶ àºµ
ĠáĬ¥ áĬĵ
Ĺ áĢº
ĶáĢ¹ áĤĶáĢ
Ĩ áĢĢáĢ¹áĢ
ģáĢ ĶáĢ¹áĢ¸áĢ
Ł áĢ¯
áŀŁ áŀ¶áŀļáŀ
ĠáŀŁ áŀĺáŁĴáŀ
áŁĴáŀĺ áŀ¶áŀĵ
ĠáĢ»áĢĻáĢĶáĢ¹áĢ ĻáĢ¬áĢ
áĤĢ áĢĢ
¶áĢ¯ áĢ¸
ĽáĢ½ áĢĦáĢ¹áĢ
áĢ¯áĢ ĶáĢ¹áĢ¸áĢ
±áĢ ħáĢ
à´¾à´ ª
ľáĢ °áĢ
áŁĨáŀĸ áŁĦáŁĩ
ĠáĢ±áĢĢ áĢº
ĠáĢ ģ
àº» àºģàº
ģáĢºáĢ³áĢ ķáĢ¹áĢ
Ģ áĢ¯áĢŃ
ĠáĢ±áĢ ľ
² áĢ±áĢ
ĠáĢĢáĢ ¼áĢ
áŀ¶áŀĺáŁģ áŀļáŀ·áŀĢ
Ġà´ķ àµĬ
Ġà¨ ¡
ĠáŁ ķ
Ġáŀļáŀ Ģ
ī áĢºáĢ
Ġáŀħ áŁģáŀī
à´µ àµģà´Ĥ
Ġà»Ģàº Ĭ
áŀŁ áŁĴáŀĲ
áŀħáŁĴáŀ Ķ
Ġà¨¸ à¨®
áŀ¶áŀĢáŁĭ áŀĳ
áĢĢáĢ¼áĢ ®áĢ¸áĢ
à»Ħ àºĽ
ĠáŀŁ áŀł
à´¿à´ ®
Ġáŀĺ áŁģ
ĽáĢ ²áĢ·
ķáĢ ²áĢ
Ķ áĢ¬áĢ¸áĢ
áŀĬ áŀ¹áŀĦ
áĭ ļ
±áģ¾áĢĢ áĢ¬áĢĦáĢ¹áĢ¸áĢ
Ł áĢ¬áĢ
áŀ¶áŀī áŁĭ
ľáĢ ¶áĢ¯áĢ¸áĢ
ĠáĢĻáĢ ½
ĠáĢ±áĢ ĴáĢ
ĸáĢ ½áĢ
áŀ¢ áŀŁáŁĭ
à´¾à´ ķ
áŀĶáŁĴáŀļ áŀ¶áŀŁáŁĭ
áŀħáŁĴáŀĨ áŁģáŀĳ
Ġáŀĸ áŁĴáŀļ
Ĵ áģ
ĲáĢŃáĢ¯ áĤĶáĢ
ĨáĢ ±áĢ¬áĢĦáĢºáĢ
áŀĶáŀļáŀ· áŀħáŁĴáŀĨáŁģáŀĳ
áŀĵ áŁĴáŀĲ
Ġà¨ĩ à¨¹
áŀģ áŁģáŀıáŁĴáŀı
Ġáŀĳ áŁĨáŀĵ
áĭ ¨
Ġáŀļáŀ ¿áŀĦ
à´¿à´² àµģà´Ĥ
áŀĢ áŁı
Ġà»ĥ àºĻàº
ĠáŀĽ áŀ¾áŀĢ
ĠáģĤáģĢ áģģáģ
áŁĲáŀĵ áŁĴáŀĴ
¼ áĢ¬áĢ
»áĢķ áĢĦáĢ¹áĢ
±áĢ Ļ
Ķ áĢŃáĢ¯áĢĦáĢºáĢĦáĢ
áŁĦáŀĶ áŀ¶áŀĻ
ĠáŀŁ áŁĴáŀļáŀ»áŀĢ
áŀ¢ áŀĦáŁĴáŀĤ
Ġáŀķ áŁĴáŀĽáŀ¼áŀľ
Ġà´ Ī
à©įà¨¹ à¨¾à¨Ĥ
áŀ¸ áŀ¡
ħáĢ ®áĢ¸áĢ
àº²àº¡ àº²àºĶ
ĠáĢ¡áĢ ŀáĢ
áĪ İ
Ġáŀĺ áŁĴáŀĵáŀ¶áŀĢáŁĭ
Ġáŀ¢ áŁĨáŀĸ
à´¾à´ §
ĠáĢ ģáĢ¯áĢ
Ġà¨ ¯
Ġáŀ ±áŁĴáŀĻ
±áĢ¡ áĢ¬áĢĦáĢ¹
ģáĢ» áĢĢáĢºáĢ
áŀ¹áŀĢ áŀĵáŀ¶áŁĨ
Ġà» ľ
Ġáŀĳ áŀ¼
àº»à»ī àº²àº
ĠáŀĢ áŁĴáŀļáŀ»áŀĦ
à´¿à´° àµģà´¨àµįà´¨àµģ
İ áŁį
ĠáĢħáĢ ħáĢ¹áĢ
±áĢĲáĢ¬ áĢ¹
±áĢ «
ĠáŀŁ áŁģ
Ġà¨ª à¨°
àºµ àºĻ
ĠáŀĢ áŀ¶áŀĵáŁĭ
Ġà´® àµģà´
àº²àº °
áŀĳáŁĴáŀĴáŀ ·
áŀĢ áŁĨáŀĸ
Ġà´ ¹
áĪ ©
Ġáŀħ áŁĴáŀļáŀ¾áŀĵ
ĽáĢ ĶáĢ¹
Ļ áĢ¹áĢ¸
ĳ áĢŃ
à©± à¨¤
ĲáĢ½áĢ ±
ĠáĢĢáģ½áĢ ¼áĢĶáĢ¹áĢ
ľáĢ ±áĢ¸áĢ
Ġàº§ à»Īàº²
áŀķáŁĴáŀŁáŁģáŀĦ áŀĳáŁĢáŀı
à»Ģàº Ī
áŀĶ áŀĦáŁĴáŀĢ
ĶáĢ ļáĢ¹áĢ
Į áĢ¬áĢ
àµįà´ ¸
ħ áĢ¬
áŀĴáŀ¶áŀĵ áŀ¸
ĠáĤı áĢŃáĢ¯áĢĦáĢ¹áĢ
ĠáĢĳ áĢŃáĢ¯áĢ
ĠáŀĶáŁĴáŀļáŀ ĸ
ĠáŀĶáŀĵáŁĴáŀĳ áŀ¶áŀĶáŁĭ
ĠáĢ ľáĢ¬áĢ
ĠáĢ ĶáĢ¬áĢ
Ġáŀ¢ áŀ¶áŀĻáŀ»
áŁĢ áŀľ
àº°àº į
ĻáĢºáĢ¬áĢ¸áĢ ĢáĢŃáĢ¯
ĸáĢŃáĢ¯ áĤĶ
ķáĢ¼áĢ ®áĢ¸áĢ
áŁĢ áŀĺ
áŀŁ áŁĴáŀı
à¨¾à¨ ¦
àµģà´ °
ĠáĮ į
áŀħ áŁģáŀī
Ġáģ Ģ
Ġà¨¸ à¨ķ
ĠáĢ±áĢ ŀáĢ
ŀ áĢĢáĢ¹áĢ
ļ áĢ¬
ĠàºĽ àº°
à»īàºŃ àº¡
áŀĢáŀ¶áŀĽ áŀĶáŀļáŀ·áŀħáŁĴáŀĨáŁģáŀĳ
áŀ» áŀĳáŁĴáŀĴáŀ
Ļàµįà´ Ļ
ĠáŀĲáŁĴáŀĦáŁĥ áŀĳáŀ¸
ĠáŀĢáŁĨáŀĸ áŀ»áŀĦ
áĢŃáĢ¯ áĢĢáĢ¹áĢ
ģáĢ» áĢŃáĢ
áŀģ áŀ¶áŀĦ
×¤ Ö¼
Ö ¿
Ġ×ķ ×ķ×¢
àºļ à»įàº¥àº´
Ĺ àº²àºĩ
áŀ¶áŀĸ áŀĽáŀļáŀĬáŁĴáŀĭ
áŀ¢ áŀ¼
ĠáĢ±áĢ ¡
áģ¢ áĢºáĢ
ĽáĢ ±áĢ
áŁĴáŀĽ áŁĤáŀĦ
ĠáĬ £
Ġáĭ į
áŁĤ áŀĶ
ĬáĢ ®áĢ
àµģà´ķ à´³
áŀĻ áŁĦáŀĶáŀ¶áŀĻ
Ġà¨¨ à¨¹
áŀĺ áŀĵáŁĴáŀıáŁĴáŀļáŀ¸
áŀĩ áŀ¶áŀĺáŀ½áŀĻ
Ģ áĢºáĢ
áĢĢ áĢ¬
Ġçİ¯äºļ ag
Ġà¤Ĩ à¤¹
Ġàºļ à»įà»Ī
ĠáŁ ł
áŀĩáŁĴáŀ ĩ
Ĭ àº¸àº¡
áŀĥ áŀ¾áŀī
±áĢĳ áĢ¬áĢĦáĢ¹áĢ
ĠáĢĢ áĢ¯áĢ
Ġàº§ àº´
àº°àº ĸ
áŀ¶áŀĢ áŀ¶áŀļáŀ
áģ¿áĢĻáĢŃáĢ³ áĤķáĢ
¡áĢ ŀáĢ
áŁł áŁł
áŁĴáŀļáŀ ¡
Ġà¨° à¨¹
ľáĢŃáĢ¯ áĤĶáĢ
Ļ áĢ¹áĢ
Ġáŀĺ áŀ»áŀĵ
áŁ¢áŁł áŁ¡áŁ
àµĩà´ ¶
áŀıáŁĴáŀĲ áŀĢáŀ·áŀħáŁĴáŀħ
áŀ¸ áŀł
áŀ¶áŀĩ áŀĵ
àº§ àºĩàº
ĠáŀĶáŁĴáŀļáŀ ¾
à»Ī àº²àº
Ĭ áĢº
ĠáŀĶ áŀĵáŁĴáŀı
à¨ ı
áŀīáŁĴáŀ ł
áī ĥ
áŀ¼ áŀļáŁī
áŀ»áŀĽáŁĴáŀĽ áŀ¶áŀļ
ĠáŀĶáŀĦáŁĴáŀłáŀ¶áŀī áŀĢáŀ¶áŀĽáŀĶáŀļáŀ·áŀħáŁĴáŀĨáŁģáŀĳ
ĠáŀĶáŀĦáŁĴáŀłáŀ¶áŀīáŀĢáŀ¶áŀĽáŀĶáŀļáŀ·áŀħáŁĴáŀĨáŁģáŀĳ áŀķáŁĴáŀŁáŁģáŀĦáŀĳáŁĢáŀı
Ġáŀĩ áŀ¶áŀĦ
à´¤àµįà´¤ àµĨ
áŁĨáŀĶ áŀĵáŁĭ
ĠáĢ ĽáĢ½áĢŃáĢ
áģ £
áĢ±áĢ ĶáĢ
ĶáĢº áĢ¸
à¨ «
ĠáĢħ áĢŃáĢĲáĢ¹áĢ
ĽáĢ ½áĢ
áŀļáŀ ¼áŀĶ
à´¾à´² àµįâĢį
Ġ×ķ ×ķ×Ĳ
à»Ģàº Ħ
àµĨà´¨àµįà´¨ àµį
áŀĶáŁĴáŀļáŀ Ģ
ĻáĢļáĢ¹áĢ ·
Ļ áĢºáĢ
áŀĲáŁĴáŀĦáŁĥ áŀĳáŀ¸
áŀĢ áŁĴáŀģ
ħ áĢŃáĢ
à¨¿ à©°à¨¦
æ¢ ¦
à¤¾à¤Ĥ à¤ļ
Ġáĭ¨ áī°
áŀ¶áŀĳ áŀ¸
àµģà´ ª
àº´ àºģ
áĢĢ áĢ¬áĢ
ĠáŀŁ áŁĤáŀĵ
ĠáŀŁ áŀĦáŁĴáŀĤ
Ġà¶¸ à·Ħ
à¨¾à¨ ľ
Ġáŀĵ áŀ·áŀĻáŀ¶áŀĻ
Ġà¶¸ à·Ķ
à»ĢàºĽ àº±àºĻ
»áĢģ áĢĦáĢ¹áĢ¸
ľ áĢĢáĢ¹áĢ
ĳ áĢŃáĢ
áŁĨáŀķ áŀ»áŀı
Ġà´ķ àµĭ
±áĢļ áĢ¬áĢĢáĢ¹áĢ
Ġáģ Ħ
áĤ Ĭ
áĢĦáĢ· áĢ¹
áĢĢ áĢ¯áĢŃ
»áĢĻ áĢĦáĢ¹áĢ
ĠáĢŀáĢĲ áĢĦáĢ¹áĢ¸áĢ
±áĢĨ áĢ¸áĢ
Ł áĢ¯áĢĲáĢ¹áĢ
ľáĢ »áĢ
Ġáĥ ¯
Ġà¨ī à¨¸
à´¿à´ķ à´³
Ġà·Ģ à·Ļà¶±
áŀł áŁģáŀıáŀ»
àºļ à»įà»Ī
ĠáŀĶ áŀīáŁĴáŀĩ
áŀļáŀ ı
ĠáĥĲáĥ ľ
ı áĢ¹áĢ
áŀĵ áŁĴáŀĴáŀ
Ġà´ ĵ
ĠáĤıáĢ ½áĢħáĢ¹áĢ
áĢ¯áĢŃ áĤĶ
¡áĢ ħáĢ
ĠáŀŁ áŀ¼áŀĺ
à¨¾à¨ ¤
ĠáĪ ĭ
à¶ Ł
àº¹ àºĻàº
ľáĢ¯áĢ ķáĢº
ĠáŀĻ áŀĢ
áŀļáŀĶ áŀ¶áŀĽ
Ġáŀĺ áŀ»áŀģ
éĴ Ł
à¥įà¤ ¹
Ġáŀĺ áŀĵáŀ»áŀŁáŁĴáŀŁ
àº±à»ī àºĩ
ĠáĢ ļ
Ġà´¸ àµįà´µ
×ĲÖ· ×¨
Ġ×ŀ ×Ļ×ĺ
Ġáŀģ áŁĴáŀīáŀ»áŁĨ
áŁĨ áŀł
ĠáĢ ¸
áĢĢáģ ł
ŀáĢ ¼
ĺáĢ ²
ĠáĥĽ áĥĺ
àº±àºĶàº ķ
ķáĢ ¼áĢ¬áĢ¸áĢ
áŀĤ áŀļáŀĶáŀ¶áŀĽ
Ġáŀĵ áŀ¶áŁĨ
áŁģáŀħ áŀĢ
Ġà´ ķàµįà´
áŀĺáŁĴáŀĽ áŀ¶áŁĨáŀĦ
àº¸ àºĶàº
ķ áĢ¸áĢ
Ĭ áĢ¹áĢ¸
ķáĢ« áĢ¸áĢ
à¶¯ à·Ĵ
áŀ¼áŀı áŀ¼
ĠáŀĺáŁī áŁĦáŀĦ
Ġà¨Ĩ à¨ª
ĠáŀĬ áŁĤáŀļ
ĤáĢ ¾
ĠáĢĻáĢ¼áĢ ĶáĢºáĢ
ŀáĢ ģ
ĠáĢķáĢ ¼
ĠáĥĽ áĥĲáĥĴ
áŀŁ áŁģ
à·ĥ à·ļ
à´¾à´¤ àµįà´°
áŀ·áŀŁ áŁģáŀŁ
àº¶ à»ī
ĠáĥĽ áĥĺáĥ¡
Ġáŀł áŁĬáŀ»áŀĵ
Ġáŀħ áŀ»áŁĩ
âĢĭâĢĭâĢĭâĢĭ âĢĭâĢĭâĢĭâĢĭ
áŀĽ áŁĴáŀĶ
áĪ ŀ
ĠáĢ±áĢ Ļ
ĠáĢ±áĢĶ áĢ¬áĢĢáĢ¹áĢ
ĠáĢ ķáĢŃáĢ¯
Ġ×ĵ ×¢×¨
Ġà¨ķ à©ĭ
à·Ħ à·Ĳ
» áĢĢáĢºáĢ
áŀļáŀ ĳ
Ġáĥ ¦
àµįà´ ķàµįà´ķ
áŁĴáŀļáŀĦ áŁĭ
àº°àº« àº§
à¶ļ à·Ĵ
áŁĴáŀ ħ
ŀáĢ ±áĢ¬áĢ
áĥĺáĥĵ áĥĲáĥľ
áŀĢáŀ¶áŀļáŀ Ł
Ġà»Ĥ àºĶàºį
àµįà´¯ à´®
ĠáĬ Ń
à¨¦ à©Ģ
Ġáŀļáŀ ĲáŀĻáŀĵáŁĴáŀı
áŀļáŀ ĸ
áŀĶ áŀ»
åĪĨ éĴŁ
è§£ æ¢¦
Ġäºļæ¸¸ éĽĨåĽ¢
æīĭæľº å®¢æĪ·ç«¯
Ġà¤Ĩà¤¹ à¥ĩ
à®¾à® ®à¯į
Ġà»Ģàº §
áŀĳ áŀĳáŀ½áŀĽ
à»ģàº¥ àº°àº
Ġà»Ģàº ¡
áŀ¶áŀĢ áŀ¶áŀļ
Ġà´ķ àµĩ
ĠáŁ ¦
ĠáŀĬ áŀ¹áŀĦ
Ġáŀ¢ áŀĦáŁĴáŀĤ
à»ģàº¡à»Ī àºĻàº
Ġáĥĺ áĥľ
àµįà´¯ à´Ĥ
Ġ×¤ Ö¼
Ġ×ķ ×ķ×Ļ
ĠáŀĲ áŁĴáŀĺáŀ¸
à¶» à·Ĵ
ĠáŀĬ áŁı
ĠáĬ¥áĬķ áĭ°
Ġà®ª à®¿à®°
ķáĢ¼áĢ ²
áĢŃáĢ¯ áĢĢáĢºáĢ
Ġáŀģ áŁĤáŀĺ
Ġà´° à´¾à´
à¨ķ à¨¾à¨°
ĠáŀĢáŀ¶áŀļáŀ Ķ
Ġà¶ ł
áĥ£áĥ ľ
ĠáŀĢ áŀ¾áŀı
àºĽ àº°àº
áŁĴáŀĸ áŀŁáŁĭ
à®¤ à¯į
áŀĢáŀĺáŁĴáŀ ĸáŀ»áŀĩáŀ¶
áŁĨ áŀĬ
Ġà¨¨à¨¹ à©Ģà¨Ĥ
à´¸ àµįà´¥
« áĢ¸áĢ
Ġà·Ħ à·ı
áŀŁ áŁĴáŀļáŀ»áŀĢ
ķáĢ ĬáĢ¬áĢ
áŀı áŀ¶áŁĨáŀĦ
áĬ ĳ
àº°àºģàº ´
Ġ×¤ Ö¿
×Ļ×© ×ĺ
áŀĤ áŀº
àº £
à´ ļ
áĥĲáĥ «
ģáĢ²áĢ·áĢ ĽáĢ
Ġà¶ĩ à¶Ńà·Ĵ
ĠáĢ¡ áĢ¬áĢ
áŀ· áŀľ
Ġà®ħ à®µ
Ġà¨¸ à¨¼
½ áŀħ
ĠáŀĬ áŀ¶áŀĢáŁĭ
Ġà´¸ à´®
Ġag çľŁäºº
à¤ ³
Ġáĥ¡áĥĲáĥ¥ áĥĲáĥłáĥĹáĥķáĥĶáĥļ
ĠáĥĲáĥ łáĥ
¡áĢ ģáĢ
áŁĴáŀĵ áŁĤáŀĢ
à»Ģàº «
ĲáĢ ļáĢº
ĩ áĢ¬áĢ
Ġà¥ ¥
à¨¿à¨Ĩ à¨Ĥ
ĠáĢķáĢ¼áĢ ĬáĢºáĢ
áĬ Ķ
ĠáĢ±áĢ »áĢķ
±áĢ ħ
áŀĩ áŁĲáŀĻ
Ŀ áĢĦáĢºáĢ
×ľ ×¢
áŀĢ áŀļ
Ġáĥ§ áĥķáĥĶáĥļ
Ġáŀĸ áŀ½áŀĢ
Ġà®ķ à®Ł
àµĨà´¯ àµģà´Ĥ
à¶º à¶±à·Ĭ
àºµ à»Īàº¡
áĭ ķ
áŁĴáŀļáŀ¹ áŀĢ
ĠáĥĲáĥ ¦
Ġàº¥ àº²àº§
Ġà¨¹ à©Ģ
áŁĴáŀĬ áŀ¸
áŀĵáŁħ áŀĢáŁĴáŀĵáŀ»áŀĦ
à´¨àµįà´¤ àµįà´°
Ġàº Ĺàºµ
à»ĥ àºĻ
ĳ áĢ¬áĢ¸
ĠáĢĺáĢ¯áĢĽáĢ¬áĢ¸áĢ ŀáĢģ
ĠáĢĹ áĢ
à®± à¯įà®ķ
àµĭ à´Ĺ
à¨¿à¨¹ à¨¾
Ġáī µ
áŀĵ áŁĴáŀĵ
à¶» à·Ķà·Ģ
áŀĤ áŁĴáŀĵáŀ¶
ŀ áĢŃáĢ¯áĢ·
èµ Į
ĠB 8
Ġà¤Ĩ à¤£
áĥł áĥĺ
áŀ§ áŀıáŁĴáŀıáŀĺ
áŁĴáŀı áŀĽáŁĭ
à»ĥ àºĬà»ī
Ġ×¤ ×Ĳ×¨
à©°à¨ Ĺ
à·Ģ à¶Ńà·Ĭ
áŀĽ áŁģáŀģ
áŀĬ áŀ¾
à´± à´¿à´¯
Ġáĥ¨ áĥĶ
áī½ áĬķ
ľáĢ ¾áĢ
áŀħáŁĴáŀĶ áŀ¶áŀĶáŁĭ
à®¾à® ±
áŀ½ áŀļ
à» ģ
Ġáŀļáŀ Ł
ĠáŀĢáŁĴáŀļáŀ»áŀĺ áŀłáŁĬáŀ»áŀĵ
ĠáĢ»áĢķáĢ ĶáĢ¹áĢ
½áĢ ²áĢ
Ġà·Ģà·Ĳ à¶©
Ġà¨ī à¨¹
áŁĦ áŀŁ
Ġà´ ı
áŀľáŀ· áŀĴáŀ¸
àº±àºĶàº Ĺ
áĥł áĥĲáĥĽ
à®Ļ à¯įà®ķà®³à¯į
Ġà¶Ń à¶¸
áŀĬ áŀ¶
áĬ ĸ
áŀħ áŁĨ
±áĢŀ áĢ¸áĢ
ĲáĢ ±áĢ¬áĢº
áĥĲáĥ Ŀ
à»ī àº²àºĻ
Ġáŀľ áŀ¶
áĢĢáĢ »
à·Ģ à·Ĵ
àº½ àºĻàº
ĠáŀĵáŁħ áŀĢáŁĴáŀĵáŀ»áŀĦ
³áĢŃ áĢ¸áĢ
ĠáĤ Ģ
ĠáĢ ĤáĢ
áŁĲáŀĵ áŁĴáŀĴáŀ
àº¸ àºĻ
à¨¿à¨ ¨
à¸£ à¸Ħ
àº¸ à»ī
áŀĽ áŁĴáŀ¢
áĥĺáĥ «
Ġà¶Ń à·Ķ
Ġà´¨à´¿à´ ¨àµįà´¨
à¸²à¸ Ĺ
àº· àºŃ
áŀļáŀ ĺ
áŀĤ áŁĴáŀļáŁĦáŁĩ
áŀĢáŀ¶áŀļáŀ İáŁį
áĥł áĥĿ
à¸ª à¸¡
¼áĢ ²áĢ
±áĢŀ áĢ¬áĢ
ŀáĢĬ áĢ·áĢº
Ġà¨ ĺ
ĠáĮ ¥
Ġà®ħ à®®
à´¿à´ ¨àµįà´¨
à·Ĳ à¶¶
áŀ¾ áŀĵ
à¸ľ à¸¹à¹ī
áŀ» áŀħ
à¥įà¤¯ à¤¾à¤ļ
àµĨ à´Ļàµįà´ķ
ĠáŀıáŁĴáŀļáŀ¼áŀľ áŀĶáŀ¶áŀĵ
àºµ àº¡
à»Īàº§ àºĻ
ĠáŀĢ áŁĴáŀļáŀŁáŀ½áŀĦ
Ġáŀ¢ áŁĴáŀľáŀ¸
Ġà¶Ķ à·Ħà·Ķ
à®¿à® ³
áŀĺáŁĴáŀĽ áŁĥ
áĥĲáĥłáĥ Ĵ
à¸£ à¸·à¹Īà¸Ńà¸ĩ
Ġáī £
Ġà¨ĩ à¨ķ
à»Ģàº® àº±àºĶ
áŀķ áŀĦ
Ġà¹Ģà¸ Ľ
ĠáĥĲáĥ ¥
à¶½ à·Ĵ
áŀĢ áŀ¶áŀĵáŁĭ
Ġ×ł ×Ļ×©×ĺ
à¹ĩ à¸Ķ
à¯Īà®¯ à¯ģà®®à¯į
à¸ķ à¹īà¸Ńà¸ĩ
àº¶ àºģàºª
à´°àµįâĢį à´¤àµįà´¤
à´¿à´¤ àµįà´°
Ġáŀľáŀ· áŀī
à¨ľ à¨¼
áĥĶáĥĳ áĥ£áĥļ
àº± à»Īàºĩ
à¶Ń à·ıà·Ģ
Ġáŀļáŀ Ķ
áŁĴáŀļ áŁģáŀħ
à´¿à´ ±
áŀļáŀİ áŀ¸
áŀĦáŁĴáŀĢ áŀ¶áŀıáŁĭ
áŀ¢ áŁĨáŀĸ
ĠâĢ ķ
Ġæ¾ ³éĹ¨
Ġag äºļæ´²
åħ¬ è§£æ¢¦
Ġåĳ¨ åħ¬è§£æ¢¦
åľ° åĿĢ
åħ »
Ġà¤Ĩà¤£ à¤¿
áĮ ½
à¸´ à¸¡
à¯įà® ¯
Ġà¶¯ à·Ķ
×ĺ ×¢×¨
áĥķ áĥļ
ĠáŀŁ áŁĴáŀĵ
±áĢĽ áĢ¬áĢ
Ġà¨Ĺ à©ģà¨°
àº« àºį
Ġà¨ĩ à©±à¨ķ
Ġáŀķ áŀĦ
ĠáĪĭ áĭŃ
Ġà´¨ à´¿à´°
áŁĦ áŀĴáŀ
ĠáŀŁ áŁĬáŀ¸
Ġáŀ¢ áŀĤáŁĴáŀĤ
à¸± à¸į
Ġà¶ §
áŁĨáŀİ áŀ¶áŀĦ
áŀļáŀĩ áŀ¶áŀıáŀ·
à´¨àµįà´ ¦
áŀ¶áŀŁ áŁĴáŀı
Ġáĥ łáĥ
à»īàº§ àºį
±áĢķáģ ļáĢ
Ĵ áĢ±áĢ
Ġà®ª à¯Ĩ
ĠáŀĪ áŁĴáŀĺáŁĦáŁĩ
à»ī àº²àºĻàº
áĥĲáĥłáĥ ĵ
ĲáĢ °
ĠáŀĨ áŁĴáŀĽ
à´³ àµįà´³
à¶ļ à·ı
à¸Ľ à¸£
áŀĸ áŁĴáŀľ
ĨáĢ ¶áĢ¯áĢ¸áĢ
ģáĢ¶áĢ ĽáĢ
áŀĶ áŁĴáŀĶ
ĠáĢ¡ áĢŃáĢĻáĢ¹áĢ
áĢ¯áĢ ĲáĢºáĢ
à¸£ à¸§
áĥ£áĥ Ľ
Ġà®Ĵà®° à¯ģ
àºģ àº±àºļ
Ġ×Ĳ Ö¸
×Ĳ ×Ĵ
à´¯ à´¿à´²àµįâĢį
Ġà´ªàµįà´° à´¤
áŀ·áŀı áŁĴáŀĻ
Ġà¶º à·Ķ
áŀĲ áŁĴáŀĺáŀ¸
ĠáŀĶáŁĴáŀļáŀ Ĺ
à©ĩ à¨Ĥ
áī »
àª¾àª ĩ
áŀļáŀ ĵ
Ĺà¸µà¹Ī à¸¢à¸§
àµģà´¨àµįà´¨ à´¤àµį
Ġáĥł áĥĿáĥĴ
ĠáĢĻáĢ ½áĢ
ĠáĢĻ áĢŃáĢĻ
áŀĶáŁĴáŀļáŀ ¾
áĢŃáĢ¯ áĢ¸
±áĢķáģ ļ
ĻáĢ¼ áĢŃáĢ¯áĢ·áĢ
àº¹ àºļ
ĶáĢ ®áĢ¸áĢ
×¢×ł ×¢×Ł
Ġà¹Ģà¸ ¡
á ¹£
áŀ¶áŀŁ áŁĬáŀ¸
áĥ «
à´¯ àµģà´ŁàµĨ
Ġà¶´ à·ľ
áŀ ±áŁĴáŀĻ
ģ àº²àºĻ
Ġáģ¿áĢ ķáĢ
áĢĦáĢ· áĢ¹áĢ
áĢĢ áĢŃáĢ
ĠáĬł áĬķ
à¸¶ à¹Īà¸ĩ
à«Ģàª ı
à·Ĵà¶º à·ļ
ĶáĢ¾áĢ ħáĢºáĢ
Ġà¨¸ à©ģ
àµĩ à´£àµįà´Ł
» áŀŁ
Ġà¹Ĥ à¸Ķà¸¢
à¸Ń à¸¥
d 88
à¸£ à¸¹
Ġå°Ĭé¾Ļ d88
Ġå¤§åıĳ å¿«ä¸ī
ĠagåĽ½éĻħ äºļæ¸¸
à¹Ģà¸« à¹ĩ
çĻ ¾
à¤¾à¤¹ à¥Ģ
ĠáŀŁ áŀ»
Ġáĥ£áĥľ áĥĵáĥĲ
à«Ģ àª¤
Ġáŀĺ áŀĵáŁĴáŀıáŁĴáŀļáŀ¸
áŀı áŀ·
Ġà®µ à®¾à®
Ġà»Ģàº ®
à© Ľ
áŀīáŁĴáŀī áŀ¶
à´¿à´ ª
áŀĢ áŀ¾áŀı
ģáĢº áĢĦáĢ¹áĢ¸áĢ
ĠáĢ ±
áĢ±áĢĽ áĢ¸áĢ
ĻáĢ ŁáĢ¯áĢ
à»Ģ àºĩ
Ġà·Ģ à·ĸ
áŀ¶áŀĢ áŁĴáŀĻ
Ġà® Ł
àµįà´ £
áĥ ¯
áĭ ®
àº¸ àºģàº
ĠáŀŁ áŁĴáŀı
áŀĶáŁĴáŀļ áŀ¶áŀĢáŁĭ
áŀ· áŀĴáŀ¸
Ħ àº§àº²àº¡
à´°àµįâĢį à´ķàµįà´ķ
Ġà´µ à´°
áŀ¶áŀħ áŁĴáŀļáŀ¾áŀĵ
àª¾àª° àª¾
áĥ£áĥ Ĺ
áĭį áĬķ
à·Ļ à·ĥ
×ĵ ×¢×¨
à´ «
ĠáŀĤ áŁĴáŀļáŀ¿áŀĦ
Ļ à¯įà®ķ
áŀŁáŁĴáŀŁ áŀĵ
ĻáĢ ļ
ĠáĢķáĢ¼áĢ ±áĢ¬áĢ
ĠáĥĹ áĥ¥
ĨáŁĴáŀĵ áŁĦáŀı
Ġà¨¸ à¨°
Ġag æĹĹèĪ°åİħ
åĪĨ åĪĨå½©
Ġà¤ķ à¥ĩà¤²
à»ī àº²àºį
ĠáŀĽ áŀ¶áŀĵ
áĢŃáĢĻ áĢºáĢ
àª¨ à«ģàªĤ
Ġáŀ ¥
áŁĨ áŀĽ
à¯Ģ à®°
à¨² à©ĩ
áŀŁ áŁĴáŀĵ
à´¿à´² àµĩ
Ġá ¹£
Ġáĭ µ
áĥĲáĥķ áĥ¨
à»ĥ àºĪ
ĠáŁĶ âĢĭ
à¶´ à·ı
Ġáŀļ áŁī
»áĢķáĢ ®áĢ¸áĢ
® áĢĲáĢ
áŁĴáŀĽ áŀ¶áŀĢáŁĭ
áŀĬ áŀ¸
ľáĢĬ áĢ¹áĢ¸áĢ
ķáĢ« áĢ±áĢ
ī áģ
Ġà¸¡ à¸µ
à®¾à® £
áĥķ áĥĲ
àº½ àºĻ
à´¾à´ Ĺ
à¶© à·ı
Ġáŀ¢ áŀĵáŀ»
Ġàª ĵ
Ġáĭ °
ĨáĢŃáĢ¯áĢ ĲáĢ¬
áŀĩ áŀ¾áŀĦ
àº°à»Ģàº ŀ
Ġáģ ħ
à©ĭ à¨ķ
à¹Ģà¸¥ à¸·à¸Ń
ĠáĢĽáĢ ĶáĢ¹áĢ
¶ áĢ·áĢ
Ġáŀĸ áŁĴáŀļáŁĦáŁĩ
Ġáŀħ áŀĦáŁĭ
áĥĲáĥķ áĥ¡
áŀľ áŀıáŁĴáŀı
à¸´ à¸ĩ
Ġag å¹³åı°
à¥Ģ à¤²
áŀĵáŁĴáŀĲ áŁĤáŀĺ
àº ľàº¹à»ī
¡áĢ ±áĢ
ľ áĢ¬áĢ¸áĢ
áŀ¶áŀĴáŀ ¶
à´ªàµįà´ª àµĨà´Ł
áĢĦáĢºáĢ ·áĢ
áĢŃáĢ¯ áĢĦáĢ¹áĢ¸áĢ
ĽáĢ ĶáĢº
à®® à®¾à®ķ
áŀ¶áŀĢáŁĭ áŀĸ
ķàº´ àºļ
áŀ¶áŀ ģ
áĭ ĺ
à¸ģà¸ ©
áŀ ¯
Ġàº® àº±àºļ
àºķ à»įà»Ī
áĥķ áĥĺáĥļ
Ġà¨Ĩà¨ª à¨£
ĠáŀĹ áŀ¶áŀĤ
Ġàª §
Ġáº ¹
áĥķ áĥĶáĥ
Ġà¸Ľ à¸£à¸°
Ġà¶¸ à¶¸
Ġà¶¶ à·Ĳ
Ġáŀħ áŁĨáŀĸáŁĦáŁĩ
Ġà»ģàº Ĥ
à¸ª à¸°
àº ¢
Ĩ áŀ¶áŁĨáŀĦ
ĠáŀĶ áŀĳ
à´£ àµįâĢį
à¸²à¸ ķ
Ġ×ķ ×ķ
à´¤ à´¿à´¨
Ġáŀĩ áŁĨáŀĵ
Ġà¶´ à·Ļ
Ġáŀĥ áŀ»áŁĨ
áŁĲáŀĸ áŁĴáŀĳ
ĠàºĻ àºµà»ī
Ġà®ĩ à®¤
áŀŁ áŁĬáŀ¸
àº¸ àº¥
ĻáĢ½áĢ ĲáĢ¹áĢ
ħ áĢ¬áĢ¸
à©Ĥ à¨°
ĢáĢ ¼
à«įàª ·
Ġáĭ ĺ
¡áĢ ĽáĢ
áŀĵáŁĴáŀı áŀļáŀĩáŀ¶áŀıáŀ·
áĥĿáĥ Ĺ
ĲáĢŃáĢ¯ áĢĦáĢ¹áĢ¸áĢ
ĲáĢ¬áĢ ķáĢ«
ĠáĢĨ áĢĢáĢ¹áĢ
ĠáĢ ¥áĢ
Ġà»Ģàº Ī
áŀħ áŁĴáŀļáŀ¾áŀĵ
Ġà¶¯ à·ļ
Ġà®İà®©à¯įà®± à¯ģ
àº²àº ¥
à¸Ļà¸ ³
à°¿à°¨ à°¿
Ġu ed
è§Ĩ è®¯
à¸¶ à¹īà¸Ļ
à¸¥ à¸²
Ġagçİ¯äºļ éĽĨåĽ¢
çĶµ åŃĲ
å· ±
à¤¾à¤ ł
ĿáĢ «áĢ
ľáĢ °
ĵ áĢ¬áĢ
Ġà´µ àµĨ
Ġáĭ Ŀ
áŀĢáŀ¶áŀļáŀ Ħ
ĠáŀĨáŁĴáŀĵáŀ¶áŁĨ áŁ¢áŁłáŁ¡áŁ
ĠáŀĢ áŀ·áŀħáŁĴáŀħ
à¶ľ à·Ļà¶±
ĠáĢŀáĢŃáĢ ĽáĢ
×ķ ×ķ×Ĳ
áĥĲáĥľ áĥĺ
Ġáŀ¢ áŀĹ
ĠáĢĽ áĢĢáĢ¹áĢ
ĠáĢ ģáĢºáĢ
ľáĢ ĻáĢ¹áĢ¸áĢ
ļáĢ °
Ļáģ ¼áĢ
Ļ áĢĦáĢ¹áĢ¸áĢ
ĸáĢ °áĢ¸áĢ
áŀŁáŁĴáŀĲ áŀ¶áŀĵ
¡áĢ ĸáĢ¼áĢ²
ľ áĢĢáĢºáĢ
ĩ àº²àºĻàº
ĠáĪ ²
áŀĹ áŀ¶áŀĤ
à»īàºŃ àºį
à´¿à´ļàµįà´ļ àµį
àª¾àª¨ à«Ģ
Ġà¶¸ à·ı
à®¿à®± à®¤à¯ģ
Ġà°² à±ĩà°¦
Ġà¨ ¶
áŀĵáŁĴáŀĳ áŀ¸
áŀĦáŁĴáŀŁ áŁĲáŀĻ
áŀĦ áŀº
ĲáĢ¬áĢ ·
ħáĢ ħáĢ¹áĢ
Ġáĥ¡áĥĲáĥ Ļ
Ġáģ¾ áĢĢáĢ
áĤıáĢ ½áĢ
áģ£ áĢºáĢ
ĺ áĢ¬
ķáĢŃáĢ¯ áĢĦáĢ¹áĢ¸áĢ
ķáĢ«áĢ ķáĢ²
¼áĢ ĲáĢ¹áĢ
ĻáĢ ĲáĢ
ħ áŀ¶áŁĨ
Ġáģ Ĩ
Ġj áº¹
áĢĢáĢ ±áĢĲáĢ¬áĢ·
¡áĢ ±áĢĶáĢ
Ľ áĢ¬áĢ¸
ĠâĢĭ áŁ
à¶ ¹
Ġáŀĩáŀĵ áŀĩáŀ¶áŀıáŀ·
ĻáĢ»áĢ¬áĢ¸áĢ ĢáĢŃáĢ¯
Ġà´ķ à´´
áŁĴáŀ¢ áŀ¼áŀĵ
áŀĬ áŀ¹áŀĢáŀĵáŀ¶áŁĨ
à¸µ à¸§
áŀĪ áŁĴáŀĺáŁĦáŁĩ
à»Īàº§ àºį
Ġà·ĥ à·Ĭ
Ġáĥĺáĥ§ áĥĿ
áŀħ áŀ»áŁĩ
àªĤàª ¦
áŀħ áŀ¶áŀĶáŁĭ
à¸Ļà¸ ¸
Ġà°¨ à°¿à°°
à»Ī àºĻ
ĠáŀŁ áŁĴáŀľ
áĬ Ŀ
à´ªàµįà´ª àµĭ
à²µ à²¾à²Ĺà²¿
ĠáŀŁ áŁĴáŀļ
æ¸¸æĪı å¹³åı°
à¤¾à¤² à¤¾
Ġà®ª à¯Ĭ
ĠáŀĬ áŀ»áŀĽáŁĴáŀĽáŀ¶áŀļ
à¨ Ń
Ġáŀħ áŁĴáŀĶ
Ġáĥ °
¥ à«ĩ
à¹ģà¸ļ à¸ļ
ĠáŀĤ áŁĴáŀļáŀĶáŁĭ
àº½ àºĩ
ĠB our
áŁĴáŀļáŀ ł
Ġà°¨ à±ģà°Ĥà°
áŁĴáŀĺ áŀ¾
Ġ×Ķ×Ĳ ×ĺ
áŀļáŀŁ áŁĲáŀĸáŁĴáŀĳ
w á»įn
áī ¡
áŀļáŀ ¾
Ġà´ ŀ
áŀĸ áŀ½áŀĢ
à¹ Ĭ
áĥĲáĥĵ áĥĴ
à´¨àµįà´ ±
Ġàº ¢àº¹à»Ī
à·Ģ à¶»
à¯įà® £
ĲáĢ ²
Ĭ áĢ·áĢºáĢ
à¸Ĺ à¸²à¸ĩ
à»ģàº Ķ
à«ĭ àª¤
Ġà·Ģ à¶±
áŀ¿ áŀĵ
Ġæİ ¨
Ġà¤¯ à¤¾
à¯įà®¤ à¯įà®¤
à¨¨ à©įà¨¹à¨¾à¨Ĥ
Ġà² ¡
à´¾ àµ»
àºŃ àºį
à°¾à° £
ĠáĬ¥áĬķ áĭ²
áŀ·áŀĵ áŀ·áŀĻ
ĠáŀĶ áŀīáŁĴáŀł
à«ĩ àª¨
Ġà¨¦ à¨¿
ĠBour gas
áŀŁáŀĺ áŁĴáŀļáŀ¶áŀĶáŁĭ
à®ª à¯į
áĥĲáĥłáĥ ¢
àº²àº Ĺ
ĠáĢĲáĢ ĽáĢ¬áĢ¸áĢ
à¸Ńà¸¢ à¸¹à¹Ī
áŀľáŀ· áŀĳáŁĴáŀĻ
à²¬ à³ĩà²ķ
à»Ģàº ŀàº·à»ĪàºŃ
çĶµ æ¸¸
éĿ ŀ
Ġà¤ Ŀ
áĤıáģ µ
±áĢ ĴáĢ
ĠáĥĲáĥł áĥĺáĥ¡
áŀĳ áŁĴáŀĴ
ľáĢ ĬáĢ¹áĢ
ĻáĢ ²áĢ·
Ġáī Ģ
ģáĢ¼ áĢĦáĢºáĢ¸
à¨ķ à©ĩ
áŀİ áŀ¶
à°¾à° ¬
áŀ ¯áŀĢ
àª¶ à«ĩ
áŁģáŀĳ áŁĴáŀĻ
à¯įà® ¨à¯įà®¤
áŀ¶áŀĩ áŁĴáŀī
à±Ĩ à°¡
à³įà² £
áŀ¶áŀ ķ
àºķ à»ī
Ģ áĢº
áĢ±áĢ ķáĢ
±áĢ ķáĢ
Ĳ áģ
Ĳ áĢĢáĢ¹áĢ
áĥĺáĥ Ĵ
ĠáĢķ áĢŃáĢ¯áĢ
áŁĴáŀ į
à¨ ¯
à±ĩà° µ
áĭ ©
×Ļ×ł ×Ĵ
áŀĺ áŀĵáŀ»áŀŁáŁĴáŀŁ
Ġàº ¥àº°
à¶¸ à·Ĵ
Ġà²ħ à²¦
Ġàªķ àª¹
« à¸²à¸£
àºģàº °
ĠáĢħ áĢ¬áĢ¸áĢ
Ġued bet
Ġà¹Ģà¸ §
å®ī è£ħ
åı Ĥ
å¤Ħ çĲĨ
åı ª
à¹Ī à¸°
å°± æĺ¯
à¥įà¤¯ à¤¾à¤¤
áŀĶáŁī áŀ»áŀĵ
Ġà®ķà¯Ĭ à®£à¯įà®Ł
ķáĢ½áĢ ²
à¨¾à¨ ī
áŀĬ áŁĨáŀİáŀ¾
áĥĺáĥ §
àº°àºģàº Ń
à¹ĩ à¸ļ
à°¾à° §
ķáĢ¼áĢ ĬáĢºáĢ
àªµ à«Ģ
ĠáĥĹ áĥ£
à»Ĥ àºĶàºį
à·Ļ à¶ļà·Ĭ
Ġà²¹ à²¾à²Ĺ
áĪĪ áĭį
à¸²à¸¡ à¸²à¸£à¸ĸ
Ĩ áĢŃáĢ¯áĢĦáĢ¹áĢ
ĠáĢ¡áĢ Ĩ
àµģà´£àµįà´Ł àµį
ł áŀ¼áŀı
Ġà¶ļà¶» à¶±
áĢ¯áĢ¶ áĢ¸
×ķ×¨ ×ļ
ĠáŀĶ áŀ¾áŀĢ
à²² à³Ĩ
áĥĶáĥĿ áĥĳ
Ġáŀĳáŀ¸ áŀĢáŁĴáŀļáŀ»áŀĦ
à¯Īà® ªà¯įà®ª
à«įàª ®
Ġà¨ľ à©ĭ
Ġç ½
à¥ĩà¤ ļ
à°¡ à°Ĥ
ģàº °
ĽáĢ¾ áĢŃ
áŀŁ áŁĨ
Ġ25 61
à¸¸ à¸ģà¸
àª¾àª ¹
à´¤àµįà´¤ à´¿à´¨
áŀļáŀ ĻáŁĪ
áĮ ħ
Ġ×¢ ×¡
áĥ® áĥĿáĥķ
Ġà² Ł
à¹Ĥ à¸¥
Ġà¶ħ à¶±
áŀĹ áŁĴáŀĵáŁĨáŀĸáŁģáŀī
áŀĳ áŀ»áŀĢ
áŀ¶áŀĴáŀ¶ áŀļáŀİ
à´¨àµįà´¨ àµį
Ġà»Ģàº ¥
Ġà®ħ à®µà®°
à«ĭàª ¯
ĠáŀŁáŀĺ áŀıáŁĴáŀĲáŀĢáŀ·áŀħáŁĴáŀħ
ĠáŀĶáŁĴáŀļáŀ Ł
Ġàºª àº³
Ġà¨µ à¨¾à¨²
Ġag è§Ĩè®¯
à¸Ļà¸ °
à¸£ à¸¹à¹ī
à¤ļ à¥įà¤¯à¤¾
àºĻàº ³
ĽáĢ ±áĢ¸
Ġáĥ® áĥĶáĥļ
Ġà´µ àµĢ
áĢŃ áĢĢáĢ
Ġà·ĥ à·Ĳ
áĪ ½
ĠáŀĴ áŁĨ
Ġà°® à±Ģ
à³ĭ à²Ĺ
áŀĺ áŁĴáŀĵáŀ¶áŀĢáŁĭ
à´¾ àµ¼
áŀĲ áŁĴáŀĵáŀ¶áŀĢáŁĭ
à®ļ à¯įà®ļ
Ġy oo
ĠH ack
j á»į
àºª àº°
áŀĩ áŀ¶áŀĶ
áĥĶáĥ¥ áĥ¢
áĢ±áĢ ĲáĢ¬
±áĢĢ áĢº
±áĢ ŀáĢ
Ľ áĢĦáĢºáĢ
Ġáŀĵ áŀ¼áŀľ
Ġ×ĵ ×Ĳ
à²² à²¾à²Ĺ
à¹Ģà¸Ĺ à¸¨
Ġàªħ àª®
ĺ áĢĢáĢ¹áĢ
ĶáĢ ļáĢºáĢ
áŀĮ áŁĴáŀį
à©°à¨ ľ
ĠáĥĻ áĥĺ
áŀ¶áŁĨ áŀĳ
à®¿à®ķ à®³
ĠáĢĴ áĢ¯áĢ
ĺ áŁĮ
à±ģà° ¡
Ġàª¸àª¾àª ¥à«ĩ
Ġà¨ķà©Ģà¨¤ à¨¾
à¶« à·Ĭ
ĠàºĽ àºµ
áĤıáĢŃáĢ¯áĢĦáĢ¹áĢ ĦáĢ¶
áģ¾áĢĢáĢ ®áĢ¸áĢ
¼ áĢĦáĢ¹
±áĢ ĸ
ŀ áĢŃáĢ¯
Ķ áĢ·áĢºáĢ
ĠáĬł áĪµ
Ġáŀļáŀ¶áŀĩ áŀĴáŀ¶áŀĵáŀ¸
áĥĶáĥ ª
ĠáŀĹ áŀ¼áŀĺáŀ·
Ġáŀĩ áŀ½áŀĶ
Ġáŀģ áŀİáŁĪ
àº¸ àºģ
Ġn inu
Ġà°® à°¨
à¶Ń à·Ĵà¶º
áŁĴáŀĽ áŀ¶áŀĻ
ħáĢ¹áĢ ħáĢ
Ġà²° à²¾à²ľ
Ġr áº¹
èį Ĳ
æł ĩ
ĠAGçİ¯äºļ éĽĨåĽ¢
è´ ¨
à¸Ļà¸ ª
ĠãĢģ ï¼Į
ĠãĢģï¼Į ãĢģ
åĢ ¼
å¤ĩ çĶ¨
à¹Ģà¸£ à¸·à¹Īà¸Ńà¸ĩ
à¸Ħ à¸´à¸Ķ
Ġæ ¢
æŃ ¤
à¸£à¸¹ à¸Ľ
à¤¾à¤Ĥ à¤¨à¥Ģ
Ġà»ģàº ķà»Ī
ĠáĥĽ áĥ®
Ġà°ª à±ĭ
áŀķáŁĴáŀŁ áŀ¶áŀĻ
Ġà®ª à¯ĩ
à²¤ à²¿
à©° à¨¤
àªµ àª¾àª®àª¾àªĤ
áĪ ±
áŀīáŁĴáŀħ áŀĶáŁĭ
×ķ ×ķ×¢
à´® à´¾à´¯à´¿
àºŃ àºĶ
ĠáĢľáĢ ½áĢ
Ġà¶ħ à¶Ńà¶»
áŀ¸ áŀĬ
à°¸ à±įà°¤
Ġà®ķ à¯ģà®±
áŀ·áŀĵáŀ·áŀĻ áŁĦáŀĤ
áŀ¶áŀĴáŀ· áŀĶ
ĠáŀĢ áŀĵáŁĴáŀĽáŁĤáŀĦ
áĥĲáĥĽ áĥĵ
à²² à³į
ĠáĢĨáĢ ĽáĢ¬áĢ
àºĶàº ª
áĢŃáĢ¯ áĢĦáĢ¹
ħ áĢŃáĢĲáĢ¹áĢ
ĠáĢ±áĢ ĻáĢ
ĠáĢ ¤
à¨° à©ĩ
ĠA wá»įn
ĠBO J
áŀŁ áŀł
Ġà°ķ à°²
r un
Ġà´ħ à´¨
áŀĶáŁĴáŀļáŀ ı
áº¹ lu
áŀĩ áŁĨáŀĵ
Ġp áº¹lu
éĻ Ĩ
èĩª å·±
åıĳ å±ķ
çĻ ½
æŃ ¥
Ġï¼ļ âĢľ
à¸ļ à¸Ńà¸¥
à¹ģà¸ ķà¹Ī
à¹Ģà¸«à¹ĩ à¸Ļ
å· §
Ġç ¬¬
æ² Ļ
éĤ £
à¹Ģà¸¥ à¸¢
à¸Ķ à¸¹
å¢ ŀ
ĠãĢĤ ãĢĤ
Ġçİ¯äºļ éĽĨåĽ¢
Ġæ¢ ¦
à¸ģà¸± à¸Ļ
à¸¡ à¸²à¸ģà¸
Ġç½ ĳ
Ġæİ¨ èįĲ
ç» Ł
à¤¾à¤ł à¥Ģ
l á»į
áĭ Ľ
áŀģ áŀ¶áŀĵáŁĭ
áģĢ áĢĦáĢ¹áĢ
ŀáĢĻáĢ ®áĢ¸áĢ
àºģàº²àºĻàº ª
ĸáĢ¼áĢ ħáĢº
à²¿à² Ł
áŀ¶áŀ Ĳ
Ġáĥ£áĥ Ļ
à«įàª ķ
à´¤àµįà´¤ àµį
Ġà¨Ĺ à¨¿à¨Ĩ
áŀĳ áŁģáŀŁ
à»Īàº§ àºĻàº
Ġà°ħ à°µ
ĠáĥĴ áĥķ
ĠáĢŁ áĢ¯
áŀı áŁĴáŀļ
Ġà® ¯
Ġà²ħà²µ à²°
áĥĶáĥĳ áĥĲáĥ¡
ĠáŁ §
á» Į
ĠáĢŀáĢ ¼áĢ¬áĢ¸áĢ
ĠáĢħ áĢŃáĢ
Ġáŀĸ áŁĲáŀıáŁĮáŀĺáŀ¶áŀĵ
Ĺ à»Īàº²àºĻ
áŁĢ áŀĽ
áŀŁ áŀĺáŁĴáŀ
Ġà®® à¯ĩ
áŀĶ áŀİáŁĴáŀı
à¶Ńà·ĬâĢį à¶»
ĠáĢ¡áĢ ĨáĢŃáĢ¯áĢ
à³ģà²¤à³įà²¤ à²¦à³Ĩ
áŀĵ áŀ¼áŀľ
áĢ¯áĢŃ áĢ¸áĢ
ĽáĢ ®
áĭ ±
Ĭ àº²àºĬ
à´® àµįà´ª
×Ļ ×Ļ×ĺ
ģ àº±àºļ
Ġ á»Į
áŀĢ áŁĴáŀĢ
áŀ¶áŀļáŀ ¸
ĻáĢ ¶
ĻáĢ ®áĢ
ĠáĥĽáĥĲáĥĴ áĥłáĥĲáĥĽ
áŀ¢ áŁĦáŀĻ
à°¿à°Ĥà° Ĺ
ĠáŀĽ áŁģáŀģ
Ġáŀĺ áŀł
à¨¾à¨ ķ
áĥķ áĥĲáĥļ
Ġà´ļàµĨà´¯ àµįà´¯
à¶Ĥ à¶ľ
ĠáŀĢáŀĺáŁĴáŀ ĺ
ĳáĢ °áĢ¸áĢ
àª¾àª¨ àª¾
àºĻà»Ģàº Ĭ
ĠO lu
Ġid an
ĠOlu wa
Ġoh un
áŀĺ áŀ»áŀĵ
æį ®
æ± ¡
å® Ŀ
à¸Ļà¸ Ĺà¸µà¹Ī
ģà¸ ±
æĬĢ å·§
èµ ¢
à¸ķ à¸±à¸§
é¦ĸ é¡µ
é¢ Ĩ
ç» Ļ
æĬĢ æľ¯
à¹Ģà¸£à¸µà¸¢ à¸Ļ
à¸¡ à¸²
à¸µà¹Ī à¸¢
èĢ Į
à¤§ à¥įà¤¯
àº¶ àºģ
£áĥ ļáĥĺ
ģáĢ²áĢ·áĢĲáĢ ²áĢ·
ĠáĢħáĢ ®áĢ
àº Ĺàºµ
Ġà®µà¯ĩ à®£à¯įà®Ł
áĪĨ áĬķ
áŀĢ áŀ¶áŀŁ
ĠáĢ¡áĢ ĲáĢ¼
áģ¿áĢ ĸáĢ
Ľ áĢĦáĢº
ĠáĢĽáĢĶáĢ¹áĢ ĢáĢ¯áĢ
ĠáĢ¡áĢ ģáĢ
Ġà¶ļ à·Ķ
ĠáŀĢáŁĴáŀļ áŁĦáŀĺ
áŀĽ áŀ¾áŀĢ
ķ à»įà»Ī
à°² à±įà°²
Ġà¨ľ à¨¾à¨Ĥ
Ġáŀļáŀ ½áŀħ
à®ķ à¯į
ĠáŀĤáŀİ áŁĪ
Ġg ige
Ġá¹£ e
áŁĴáŀŁ áŁĬáŀ¸
áŀı áŁģ
à§ §à§
áŀ» áŀİ
à¦ ı
Ġàªľ à«ĩ
áĥĺáĥ ¦
áŀ¶áŀĽ áŁĲáŀĻ
Ġà¦Ĩ à¦¸
à·Ģ à·ļ
ĠáĢ ķáĢ«áĢ
à²° à²£
ĠáŀĽ áŁĴáŀ¢
ģàº »
Ġà´¤ à´¿à´°
à°¾à°° à°Ĥ
Ġáŀĵ áŀĻáŁĦáŀĶáŀ¶áŀĻ
áŁĴáŀŁ áŀ¶
áĥĲáĥ ŀ
à¦ Ľà§ĩ
áŀŁ áŁĴáŀľ
áĤıáĢŃáĢ¯áĢĦáĢ¹áĢ ĦáĢ¶áĢ
áĤ Ĳ
áģ¿áĢ ķ
½ áĢĦáĢ·áĢºáĢ
Ġà´µ àµįà´¯
áŀļáŀ ĲáŀĻáŀĵáŁĴáŀı
à²¿à² ¡
Ġà® ľ
áŀĤ áŁĴáŀļáŀĶáŁĭ
à°® à±įà°®
Ġà»ģàº¡à»Ī àºĻ
Ġn ipa
ĠáĬ ķ
Ġà·ĥ à¶³
Ġh ack
Ġl ori
áŀ· áŀĹáŀ¶áŀĸ
àºĬ àº²àºį
à°¿à°¯ à±ģ
à§ĥ à¦¤
àºģàº Ń
ľ áŀ¶áŀĦ
r á»į
¼áĢ ĶáĢ¹áĢ¸áĢ
¥ áĢ¹
ĠáĢ»áĢĻáĢĶáĢ¹áĢ ĻáĢ¬
ĠáĢ±áĢĨ áĢ¸áĢ
½áĢ ļáĢºáĢ
Ġáŀĵ áŀ¶áŀĦ
Ġáŀģ áŁĴáŀĺáŁĤáŀļ
Ġáŀģ áŁĤáŀĢ
Ġáŀ¢ áŀŁáŁĭ
à²ķ à³įà²¤
Ġ×¢ ×¨
áŁĴáŀļáŀ ·
àº» à»Īàºĩ
áĪ Ĭ
áĥľ áĥĺáĥ¡
à´ķ à´³
àº» à»Īàº§
½ áĢĢáĢºáĢ
à«Ģàª ¯
Ġà®ª à®Ł
à§ĩà¦ ®
áŀĻ áŁį
og bo
Ġáĥĵ áĥ¦
à³įà² §
»áĢģ áĢ¬áĢ¸áĢ
ĲáĢ ĲáĢ¹áĢ
Ī áĢ
áŀı áŁĴáŀľ
ĠáĢŀ áĢĢáĢ¹áĢ
ĠáĢ ģáĢ¯
à´¤ à´¿
àº¸à»ī àº¡
±áĢĢ áĢ¬áĢĢáĢ¹áĢ
ĽáĢ½ áĢ¬áĢ
àº¸àº¥ àº°àºģàº´
çİ ¯
à¸£ à¸ĸ
Ġà¹Ħ à¸¡à¹Ī
Ġ ä¹Ł
åĪĨéĴŁ å¿«ä¸ī
ä¹ ¦
à¸§ à¹Īà¸²à¸
ĠèĢ Į
ä¼ ĺ
à¤¾à¤µ à¤°
ĽáĢ ±áĢ¬áĢĢáĢºáĢ
Ġà¶± à¶¸à·Ĭ
àº´ à»Īàºĩàº
Ġà´ħ à´Ł
Ġà¨ķ à©ģ
à§įà¦ ķ
áĥĿáĥ Ļ
áŀĬáŀ¾ áŀĺáŁĴáŀĶáŀ¸
à«ĭàª Ī
Ġidan wo
á¹£ áº¹
Ġà®¤ à®®
à¯Īà®ķ à®³
Ġáŀł áŁģáŀıáŀ»
Ġà¶¶ à¶½
áĪ ¬
Ġáŀĺ áŀ¾áŀĽ
ĠáĥĽ áĥĿáĥĽ
ĠáŀĶáŀĦáŁĴáŀĢ áŀ¾áŀı
à²¿à²¸ à²¿à²¦
à´¯ àµįà´ķàµįà´ķ
ĳ áĢ¯áĢĲáĢ¹áĢ
Ĩ áĢ¯áĢŃáĢ
ĠáĢĶáĢ ¾áĢ
×Ļ×Ļ Ö·
×ĺ ×¢
áŀļáŀĬáŁĴáŀĭ áŀ¶áŀĹáŀ·áŀĶáŀ¶áŀĽ
áŁĨáŀĶ áŀ¼áŀĦ
àº²àº Ħ
ä» İ
è° ĥ
æĪ ¿
à¹ĥà¸Ļà¸ ģà¸²à¸£
Ġag åľ¨çº¿
ç½ĳ ä¸Ĭ
çĻ» éĻĨ
ç½ĳ æĬķ
ç« ŀ
ä½ İ
è® ®
è½¯ ä»¶
ĠçĶ µ
Ġçİ¯äºļ æ¸¸æĪı
Ġà¸ ĸ
Ġà¤ķà¤° à¤£
Ġà¨¹ à©ģ
ĠáĥĽ áĥĹ
Ġà¶½ à·Ļà·ĥ
Ġà´ķ àµĤà´Ł
ĠáĢ¡áĢ ģáĢ¯áĢ
áĢ¯áĢŃáĢ ļáĢ¹áĢ
ŀáĢĻ áĢ¬áĢ¸áĢ
áŀĺ áŀĵ
Ġàªķ àª¾àª°
áŀĩ áŁĴáŀļ
ĠáĮ Ī
à¦¿à¦ Ĥ
ĠáŀĶáŀīáŁĴáŀł áŀ¶
ľáĢ ±áĢ
Ġà² «
à®¿à®¯ à®¿à®²à¯į
àº±àºĶàº ª
áŁĴáŀļáŀ ĸ
£áĥ ¡
à±Ģ à°µ
áŁī áŀ¶
ĠJes u
ĠT ap
k á»į
ĠáĥĽ áĥĲáĥĹ
áŀŁ áŀ¸áŀł
áŀĶáŁĴáŀļáŀ ĸ
à¦¦ à§įà¦§
ľ áĢº
áīµ áĬķ
áŀıáŁĴáŀļáŀ¼áŀľ áŀĶáŀ¶áŀĵ
à±ģà° ®
à¶ļ à·ıà¶»
ĻáĢ ĬáĢºáĢ
àº§ àº¡
Ġà®ħà®° à®ļ
à´ªàµįà´ª àµĨà´Łàµįà´Ł
à«įàª ª
à²Ĥà²¤ à³Ĩ
Ġà» Ŀ
à®± à¯įà®ª
áĥĲáĥķ áĥļ
Ġà°®à°° à°¿à°¯à±ģ
àºŃàºģ à»ģàºļàºļ
áŀĬ áŀ¶áŀĢáŁĭ
à¦¾à¦¬ à§ĩ
àºļà»įàº¥àº´ àºª
® à»Īàº§àº¡
áŀħ áŀ·áŀĵ
Ġà¨ §
è®¾ å¤ĩ
à¤¾à¤ ³
áŀĢáŁĴáŀļ áŁĦáŀĻ
ĠáĢĽáĢ¾ áĢŃáĢ
áĪ ĥ
ĠàºĪ àº°
à¶ļ à¶§
à»Īàº½ àº§
ĠáŀŁáŀĺ áŁĴáŀı
Ġà´ªà´± à´ŀàµįà´ŀ
ĠáŀĬáŁĤáŀĽ áŀĺáŀ¶áŀĵ
à²¾à² ³
ĠáŀĬ áŀ¹áŀĢ
ĠáĢĽáĢ ģ
ĠáĢĻáĢ °áĢ
ĠáŀĢ áŀ¼áŀļáŁī
áŀł áŁĦáŁĩ
Ġà®ī à®³à¯įà®³
à´¨ à´Ĥ
½ áĢĦáĢº
à¨° à¨¾
àª¾àª ¡
Ġáĥĵ áĥĲáĥĽ
Ġà·ĥ à¶¸à·Ĭ
áŀļ áŀ¶áŀĶáŁĭ
Ġà²ª à²°
áĭļ áĪħ
áŀĵ áŁĴáŀĴ
à»Ĥ àº¥
éľ Ģ
é¡ ¹
èģ Į
æĪ ĸ
à¤¾à¤ļ à¥įà¤¯à¤¾
áŀĴáŀ ĺáŁĮ
à¸£à¸²à¸ Ħ
à´£àµįà´Ł àµį
áŀ¶áŀļáŀ ĸ
à¦¬ à¦¾à¦°
Ġgb ogbo
à¹ģà¸ ģ
×¨×Ĳ Ö¸
×ĳ ×¢×¨
ĠáŀŁáŁĴáŀĲ áŀ·áŀı
ĠáŀŁ áŁĴáŀļáŀ¸
Ġáŀľ áŁĢáŀıáŀİáŀ¶áŀĺ
Ġàª® àª¹
ĠáŀķáŀĽ áŀ·áŀı
áĥĿáĥłáĥ ª
áŀĺ áŀł
áŀģ áŁĤ
ĠáŀŁ áŀ¶áŀļ
à¦° à§ĩ
ĠáĪ į
áŀĲ áŀı
à´¤àµįà´¤ à´¿à´¨àµįà´±àµĨ
à¸¥ à¸ĩ
áŀİáŁĴáŀĮ áŀĽ
Ġe yi
àº±àºģàº ª
à²¾à² ¹
à¶´ à·Ķ
áŀĤ áŁĴáŀļáŀ¿áŀĦ
Ġàª¨ àª¥à«Ģ
Ġak oko
áŀ½ áŀħ
à©± à¨¸
Ġw á»įn
Ġáĥ¡áĥĲáĥ¥áĥĲáĥłáĥĹáĥķáĥĶáĥļ áĥĿáĥ¡
áĥĲáĥłáĥ Ľ
±áĢľ áĢ¸
ĻáĢ ĬáĢ¹
Ķ áĢ¬
Ġ×¤Ö¿ ×ĲÖ·×¨
Ġ×ĳ×Ĳ Ö·
Ġ×§ ×ĲÖ·
×ķ×ł ×Ĵ
Ĩ áĢŃáĢ¯áĢĦáĢºáĢ
Ġà¶ļ à·ĬâĢįà¶»
ĠáŁ Ĺ
à®¿à®° à¯ģà®¨à¯įà®¤
Ġæ¢¦ è§ģ
æĶ ¹
æµ İ
å¢ ĥ
à¸¹ à¸ģà¸
èĲ ¥
à¸Ļà¸ Ħ
à¸Ħ à¸£à¸±à¸ļ
à¸´ à¹Īà¸¡
à¹Ħ à¸£
Ġå° ±
Ġå¯ ¹
å®ĺç½ĳ ä¸ĭè½½
Ġä¸ º
æ¸ ©
æī į
æ³¨åĨĮ éĢģ
Ġåı ¯
à¸Ĥ à¸¶à¹īà¸Ļ
à¸ª à¸²à¸¡à¸²à¸£à¸ĸ
à¸¡ à¸²à¸ģ
à¤¾à¤Ĥ à¤¨à¤¾
ĠáĪ ģ
Ġà»ģàº ¥
à³įà² ¡
Ġàºģàº ´
Ġáŀĳ áŁģáŀŁ
Ġàª¹àª¤ à«Ģ
Ġáŀİ áŀ¶
Ġà´¤ àµģà´Ł
Ġáŀĩ áŀ½áŀĻ
à»Ĥ àºĦ
à±ģà°ķ à±ĭ
à§ Į
áŁĴáŀĺ áŁģáŀĦ
à¨² à©Ģ
áŀĶ áŀĵáŁĴáŀı
áģ ļáĢº
±áĢ¡ áĢ¬áĢĦáĢ¹áĢ
ĽáĢ ķáĢ¹áĢ
ĻáĢºáĢ ³áĢŃáĢ¸áĢ
ĸáĢŃáĢ¯ áĢ·
ĳáĢ¬áĢ¸áĢ ĲáĢ²áĢ·
à»ģàº ķà»Ī
ģ áĢĦáĢ¹áĢ
áĢĦáĢ ļáĢ¹áĢ
áĢĢáĢ¼áĢ±áĢ¬ áĢĦáĢºáĢ¸
ĠáĥĽ áĥĿ
áŀĴ áŁĴáŀĦ
Ġà²Ĩ à²Ĺ
áŀ»áŀľ áŀĩáŀĵ
áŀ¸áŀľ áŀ·áŀı
à´¿à´ ŀàµįà´ŀ
Ġn ig
à¦¸ à§įà¦¥
à·Ħ à·Ļ
±áĢķáĢ« áĢ·
ľ áĢŃáĢ
áŀ·áŀľ áŀĮáŁĴáŀį
Ġen iyan
à«Ģàª ĵ
Ġà·ĥ à·Ķ
áĮĪ áĪŃ
Ġtab i
à¤§à¥įà¤¯ à¥ĩ
ĠáŀŁ áŀĦáŁĴáŀĢáŀ¶áŀıáŁĭ
Ġà®¤ à®¿à®°
Ġáŀĵ áŀ·
à¨Ł à©Ģ
áĥĲáĥ Ķ
à»Ģàº ŀ
Ġà°ķà±Ĥà° ¡à°¾
áŀŁáŁĴáŀļ áŀ¶áŀĻ
áŀ·áŀĹ áŀĸ
Ġg ba
à³ĩ à²µ
Ĥ áģ¤áĢ
ģáĢ²áĢ·áĢ ŀáĢĬáĢº
Ġà µ
àº»àºĻàº ķàºµ
ĺ áŀ¶áŀİ
ĠáĥĽ áĥĲáĥ¡
àº·à»Ī àºŃàºĩ
Ġà¨¤ à¨¾à¨Ĥ
à¶±à·Ĭ à¶Ń
ĠáŁ¡ áŁł
ĠáŀŁ áŀ¶áŀĽ
à¯ģà® ª
Ġáŀļáŀ ĻáŁĪ
à°® à±Īà°¨
à´ ŀ
àºµ àºĶ
à²° à²¿
Ġáŀĸ áŀ·áŀı
à§įà¦ ¸
Ġche at
l áº¹
Ġáŀı áŀ»áŀĽ
áĪ ķ
áŀļ áŀ¶áŀħ
áŀıáŀ¸ áŀı
Ġà¨ī à¨¨à©įà¨¹à¨¾à¨Ĥ
áĥĿáĥĵ áĥĲ
×¢ ×¡
áŀĢáŁĴáŀļáŀ»áŀĺ áŀłáŁĬáŀ»áŀĵ
«àº¼ àº²àºį
áŀ¼ áŀĢ
Ġà²¨à³Ģ à²¡
àª¿àª ¸
àµĨà´¨àµįà´¨ àµģà´Ĥ
Ġà¨ª à¨¹
áŀ ¥
à¶¸ à·Ĵà¶±à·Ĭ
áī ¢
à´¾à´ ¹
áĥĶáĥ ĸ
ĠáŀĶáŁĴáŀļáŀĩ áŀ¶áŀĸáŀĽáŀļáŀĬáŁĴáŀĭ
Ġáŀĥ áŀ¾áŀī
à¯ģà®ķ à®³
à§ĩà¦Ľ à§ĩà¦¨
áĤ ĩ
áĢŃáĢ¯ áĢĦáĢºáĢ¸áĢ
ĠáŀĤ áŀ¶áŀıáŁĭ
áĥĺáĥ£áĥ ł
à¶¶ à·ı
à±ģà° ª
Ġà²¹ à³ĩà²³
Ġà¦® à§ĭ
à´¨àµįà´ §
Ġàª¸ àª°
à¦°à§įà¦ ¬
áŀĸ áŁĲáŀıáŁĮáŀĺáŀ¶áŀĵ
§ à»Īàº²
½áĢ ĶáĢºáĢ
áŀķáŁĴáŀĳ áŁĩ
Ġw ipe
à¨¾à¨° à©Ģ
áŀĴáŀ ·
bas oke
Ġi bi
Ī áŀĺ
Ġàªµ àª§
Ġà´ķ àµģà´Ł
áīł áĪŃ
à³Ĭ à²³à³įà²³
áĥĺáĥľ áĥĲ
Ġà°µ à±Ĩ
ĠáŀŁ áŁĬ
à»ģàº «
Ġ×ĵ ×¢×Ŀ
à§įà¦¯ à¦¾à¦¨
Ġáŀļáŀ ¸
Ġáŀĳ áŀ¾áŀĶ
Ġáŀħ áŀ·áŀıáŁĴáŀı
Ġà¸ ĩ
ķ é±¼
çļ ĩ
åģ ļ
ä¼ģ ä¸ļ
à¹Ħ à¸¥
à¸Ķà¹ī à¸§à¸¢
Ġå¦ Ĥ
ç ¬
åĩ ł
å¸ ¦
å® «
è ħ
åį ĩ
å° Ĭé¾Ļ
Ġç º
åĪĨ æĹ¶æĹ¶å½©
à¸Ńà¸²à¸ «à¸²à¸£
à¥įà¤¯ à¤¾à¤¸
à¶º à·Ķ
à´° à´Ĥ
Ġà¨² à©ĭà¨ķ
Ġáŀģ áŀİáŁĴáŀĮ
ĻáĢ½áĢ ĶáĢ¹áĢ
ĶáĢ ļáĢ¹
ĶáĢ ĬáĢºáĢ¸áĢ
áŀĺáŁĴáŀļ áŁĦáŀĦ
Ġáŀĸ áŁĴáŀļáŀĺ
ĠáŀĶ áŀĢáŁĴáŀŁ
ĠáŀĢ áŀ»
áĥ§ áĥķ
lá»į run
Ġá»Į lá»įrun
j áº¹
àº°àºĸ àº²àºĻàº
Ġà®¤ à¯ĩ
áŁĢáŀĶ áŀħáŁĨ
áŀľ áŁĢáŀıáŀİáŀ¶áŀĺ
áŀļáŀ ¿áŀĦ
à·Ģ à¶½
áŀĻ áŀ¾áŀĦ
áĥľ áĥĶáĥľ
à±įà°¸ à±į
Ġà´¤ à´¨àµįà´¨
p á»į
áŀĶáŁĴáŀļáŀ Ĵáŀ¶áŀĵ
áŀĬáŁĴáŀĭ áŀĢáŀ·áŀħáŁĴáŀħ
áŀģáŁĴáŀĽ áŀ¶áŁĨáŀĦ
à´ķàµįà´ ¤
Ĭ àº²àºĶ
à¨¨ à¨¾
à³įà²¤ à³ģ
àªķ àª¾àª°
ģáĢ¶áĢ ħáĢ¬áĢ¸áĢ
×Ļ Ö·
×§ ×ĺ
áĭ ĵ
Ġà»Ģàº Ń
áĢ¯áĢŃ áĤĶáĢ
¼ áĢ¬
ŀ áĢ¯áĢ¶áĢ¸áĢ
áŀģ áŁĴáŀĺ
áŀĢ áŀĵáŁĴáŀĽáŁĤáŀĦ
à®£ à¯įà®£
áĥĺáĥ ®
à§ĩà¦ ·
à¸¢ à¹Į
ĠàºģàºŃ àºĻ
àº·à»ī àºĻàº
ľáĢ¯áĢķáĢº áĢĦáĢ
Ġàª¶ àªķ
à´¾à´¤ àµįà´¤
áŀ¢ áŀ¶áŀĦ
à¨¾à¨ ª
áĥķ áĥł
Ġà®ĩà®° à¯ģà®¨à¯įà®¤
Ġáŀĵ áŀ¶áŀĻáŀĢ
Ġáŀĳáŀ¼ áŀļáŀŁáŁĲáŀĸáŁĴáŀĳ
ĽáĢ ®áĢ
Ġáŀı áŀ¾
à±ģà°Ĥà° Ł
àº°àº«àº§ à»Īàº²àºĩ
à²¾à² ª
Ġ25 62
à¸Ļ à¹īà¸³
áīł áīµ
áŀĺ áŀĵáŁį
à¦¾à¦ķ à§ĩ
áŀĹáŁĴáŀĽ áŀ¾áŀĦ
à´µ à´¿à´
ib áº¹
Ġl á»į
à¶ł à·Ĭ
áĥĲáĥª áĥĺ
à±ģà° ¦
áŀĩ áŀ¶áŀĦ
àºª à»Ī
à¤¾à¤Ĥà¤ļ à¥įà¤¯à¤¾
Ġà·ĥ à·ı
ĸáĢ¼ áĢĦáĢ·áĢº
àµģà´ķ à´¯
×Ļ ×Ļ×¢
áĥ® áĥĲáĥĵ
àº¥ àº²àºį
à²¤ à³Ĩ
áŀ¼ áŀĶ
à¸Ī à¸²à¸ģà¸
Ġà®ļ à¯Ĭ
Ġà¨ª à©°à¨ľ
áŀ¶áŀ ¡
ĩ àº²àºĻ
à¨¾à¨ Ĺ
ģàº Ń
áĥłáĥ «
Ġà®ļà¯Ĩà®¯ à¯įà®¤
à´® à´¾à´£àµį
Ġà°ħ à°¨à±įà°¨
à§įà¦ ļ
ĠáĭŃ áĪħ
ĠáŀļáŀĬáŁĴáŀĭ áŀ¶áŀĹáŀ·áŀĶáŀ¶áŀĽ
Ġáŀĸáŀ¸ áŀļ
Ġà¶ĩ à¶Ń
àª¾àª ĸ
ĠâĢĭ .
Ġàº¡ àº±àºĩ
à»Ī àºĻàº
ĠáŀĶáŀ» áŀļáŀŁ
Ġà²¸ à³ģ
Ġáŀĵ áŀĤáŀļáŀĶáŀ¶áŀĽ
ĠáŀĬáŀ¾ áŀĺ
à±ģà° ·
ĠáŀĢ áŀĦ
à¨¤ à¨¾
à±ģà°Ĥà° ¦
à®¾à® ķà¯įà®ķ
áŁĴáŀĽ áŁĥ
è½ ¬
æŁ ¥
æķ Ī
åĳ ¨
åĩ ¡
å¤§ åħ¨
à¸ľ à¸¥
à¸µà¸¢ à¸ĩ
ç® Ĺ
æµ ĭ
æ±¡ æ°´
äºĨ ä¸Ģ
è´ Ń
çĥ Ń
åŃ ĺ
åı¯ ä»¥
å®¢æĪ·ç«¯ ä¸ĭè½½
æ²¡ æľī
à¥ģà¤ ³
ĠÃ ¬
áĥĺáĥ ¥
áŁĴáŀļáŀ¾ áŀŁ
à´¿à´° à´¿à´ķàµįà´ķ
à»ĦàºĶà»ī àº®àº±àºļ
áŁĴáŀļáŀ¹ áŀĺ
Ġáĭ¨ áĬł
à§Ģ à§Ł
Ġà²® à³Ĥ
Ġàª² à«ĭàªķ
à± Į
áŀļáŀ ĳáŁģáŀŁ
áĥĶáĥ Ļ
Ĳ áĢĦáĢºáĢ
áŀĶ áŀ¾áŀĢ
áŀ¶áŀł áŁį
Ĺ áŀ¶áŀĸ
åĪ Ļ
åħ ļ
è¯ Ŀ
à¸ Ŀ
Ġd 88
è´ µ
æīĭæľº app
åĬ ŀ
à¤Ĥ à¤¦
à·ĥ à·Ĵ
à¦¨à§įà¦ ¦
à¨µ à©ĩ
áĥĶáĥĳ áĥļ
à»ģàº ľ
àµĢ à´µ
ĠáŀĹ áŁĴáŀĽ
×Ĵ ×¢
Ġà®ħ à®©
à²ª à³įà²ª
ĠáŀĢáŀ¶áŀļáŀ ĸ
ĠáŀĢ áŀ¼áŀĵ
àº´ àºĩàº
ħáģ ¥áĢ
ĠáĢĻáĢ ¾
àª ı
Ġáŀ¯áŀĢ áŀ§áŀıáŁĴáŀıáŀĺ
Ġáŀ¢ áŁĬ
áŁĴáŀļáŀ½ áŀŁáŀ¶áŀļ
ĠáĢĴáĢ¯áĢ ĲáĢŃáĢ
áŁĴáŀī áŁĢáŀľ
à¦ ł
à°² à±į
ĠáĢĴáĢ ®áĢ±áĢ
ĠáĢģáĢ »áĢ
áĮ ī
áŀĺáŁĴáŀ Ĺ
Ġà¶±à·Ĵ à·ĥà·ı
Ġà´® à´¨
à²Ĥà² Ł
áŀĩ áŀ¼áŀĵ
áŀĢ áŀ¶
áĥ£áĥ ¤
Ġæ Ķ
Ġåħ ¶
åı į
å®ĺç½ĳ çĻ»å½ķ
à¹Īà¸§ à¸¢
Ġà¹ģà¸ ķà¹Ī
Ġà¹Ģà¸§ à¸¥à¸²
Ġà¤® à¥įà¤¹
áŀ·áŀĵ áŀ·áŀıáŁĴáŀĻ
à¶´ à·Ĭ
à¨£ à¨¾
ĠáĢ¡áĢ ħáĢŃáĢ¯áĢ¸áĢ
à´¾à´ ¦
áģ¢ áĢ
ĲáĢŃáĢ¯ áĢĦáĢºáĢ¸áĢ
Ġà®® à¯ģà®Ł
áŀ· áŁĩ
à«ĭàª Ĺ
Ĥ à»įà»ī
áĥĿáĥ ¢
à¦ĸ à¦¨
Ġà»ĢàºĪ àº»à»īàº²
ĸáŀ» áŀĩ
àºĽ àº°
Ġáŀł áŁĴáŀľ
à±ĭ à°Ĺ
ģáĢº áĢŃáĢ³
ĠáĢĻáĢ¼áĢĶáĢºáĢ ĻáĢ¬áĢ
áģ Ĥ
Ġà¶ ·
à´¨àµįà´ ±àµĨ
àºĻ à»ī
ĠáŀŁ áŁģáŀħáŀĢ
áĢĲáĢ ħáĢ¹áĢ
¾áĢ ĲáĢºáĢ
ĠáŀĺáŁī áŀ¼áŀıáŀ¼
áŀŁ áŁĴáŀĳ
áŀĺáŁĴáŀļ áŁĢáŀĦ
à¯ģà®ķà¯įà®ķ à¯ģà®®à¯į
à²¿à²¸ à²¿
áŀĶáŁĴáŀļáŀ Ł
áĪ Į
áŀĵ áŀ¶áŀĦ
àº°àº¡ àº»àºĻàºķàºµ
Ġà´ĩ à´¤
áŀī áŁĢáŀĵ
áĥĲáĥľ áĥ¡
± áĤıáĢ
ĻáĢ °áĢ
áŀģ áŁĴáŀĸáŀŁáŁĭ
àº« àº§
à¨ ł
Ġàª ĩ
ķáĢ«áĢ ŀáĢĬáĢº
áŀĢáŁĴáŀĢ áŀĬáŀ¶
ĠáŀĽ áŀĢáŁĭ
Ġáŀĺ áŀ¼áŀĽ
à³Ĩà² Ł
àº§ àºĻ
èµĮ åľº
æķ ´
åĵ ª
åĪ Ľ
å¾ ®
à¹ģà¸ Ĺ
äºº æ°ĳ
Ġà¹Ģà¸Ľ à¹ĩ
ä¸Ń å¿ĥ
Ġå¤§åıĳ æĹ¶æĹ¶å½©
ç± »
æ ĳ
åĽ Ľ
åı ĺ
à¹Ģà¸Ĥ à¹īà¸²
éĿ Ĵ
è§ Ĥ
Ġä½ ł
æŀ ģéĢŁ
æĸ ½
à¸Ķ à¸ĩ
à¸¡ à¸·à¸Ń
à¤µ à¤°
ĠáŀĶ áŁĦáŁĩ
àµĢ à´ķà´°
à¦¤ à¦¿
ĠáŀĶ áŀİáŁĴáŀı
àº§ àºį
à°Ĥà°¤ à±ĭ
áŁĴáŀļ áŁĴáŀıáŀ¸
à¨¨ à©Ģ
áĥĵ áĥĶáĥĴ
áŀı áŀ¶
Ġ×ĸ ×¢×ł×¢×Ł
Î½ ÏīÎ½
à®¿à®² à¯įà®²
à´¸ àµįà´±àµįà´±
Ġà² ı
Ġà°Ń à°¾à°°
áŀĬ áŁĥ
ĠÏĥ ÏĦ
áŀĩ áŁĨ
Ġà¦ķ à¦¾à¦°
à±ĩà° Ł
Ľ àº°à»ĢàºĹàºĶ
Ġáĭ ĵ
áŀĨ áŁĴáŀĽ
à¶ļà·Ĭ âĢĮ
Ġà¶ħ à¶¯
Ġç¾ İ
åĩ Ĩ
à¹Ħà¸¥ à¸Ļà¹Į
à¸Ńà¸Ļ à¹Ħà¸¥à¸Ļà¹Į
à¸ĸ à¸¶à¸ĩ
çº ¸
æĹ¶ éĹ´
æ¶ Ī
à¹īà¸§ à¸¢
à¹Ģà¸ģà¸ ´
åĲ Ħ
åĦ ¿
äºº çĶŁ
äº ĳ
Ġd88 å°Ĭé¾Ļ
çĶŁ æ´»
ĠagåĽ½éĻħ åİħ
ç½ ®
æīĭæľºçīĪ ä¸ĭè½½
å®¶ ä¹Ĳ
Ġæī ĭ
ç» Ħ
æĢ ģ
æ¡ Ī
åĨ ³
à¹Ģ à¸Ńà¸ĩ
à¸ķ à¹Īà¸Ń
ĠéĤ £
åĿ Ľ
å¹ ¿
à¹Ģà¸ ¢
à¸±à¹ī à¸Ļà¸
Ġçİ¯äºļ AG
æīĭæľºå®¢æĪ·ç«¯ ä¸ĭè½½
åĽ ł
å¤ ª
à¤² à¥ĩà¤²
à´¿à´¯ àµģà´ŁàµĨ
à«įàª ¥
áŀ· áŀĩáŁĴáŀĩ
áĥĶáĥĳ áĥ¨áĥĺ
áŀ¶áŀĺ áŁī
à²¾à² §
ÎĻÎ £
Î½Î¿ Î¼
áŀ¶áŀĩ áŀ·áŀĢ
Ĺàºµà»Ī àº¡àºµ
ĠáŁ ¨
áŁĴáŀļáŀ½ áŀĽ
Ġà´ļ à´¿à´¤àµįà´°
à·ĬâĢį à¶ºà·ı
Ġà¨ķ à¨¾à¨°
Ġà®ħ à®¨à¯įà®¤
àµģà´ķ à´³àµįâĢį
áį ĭ
Ġà´ļàµĨà´¯ àµįà´¤
à°Ĥà°Ł à±ĩ
áŁĨáŀİ áŀ¶áŀħ
áŀŁ áŀĹáŀ¶
Î»Î» Î·Î½
à¦¾à¦ ¯à¦¼
ÎĳÎ ¤
Î¯ Î¿Ïħ
áŀĴ áŁĨ
à»ī àºŃàºĩàº
ĠáĥĻ áĥĿáĥĽ
áŀĳ áŁĨáŀĵ
à´ ĺ
Ġà®ħ à®±
ÏĥÎµ ÏīÎ½
Ġà²¨ à²¿à²°
Ġà¶½ à·Ĳà¶¶
áŀĲ áŁĥ
áŀİ áŁį
à©Ī à¨ķ
ĠÎ£ Ïħ
ç» Ń
à¥ ħ
à°² à°¾
ĠáĥłáĥĿáĥĽáĥĶáĥļ áĥĺáĥª
ÎĻ Îĳ
ĠÎ´ Îµ
Ġà´ķ à´¾à´°
Ġáį ¤
×ĳ ×Ł
áŀ¶áŀĩáŁĴáŀī áŀ¶áŀĴáŀ
àºĽ àº°àºģàºŃ
ĠáŀĶ áŀİáŁĴáŀĬ
àª¤ à«Ģ
à°° à±įâĢĮ
Ġáŀĳ áŀ»áŀĢ
Ġà¶¢ à¶±
àºĻ àº±à»īàºĻ
Ġà°ļ à±Ĥà°
áį Ĭ
Ġáŀ¢ áŀ¶áŀĺáŁģáŀļáŀ·áŀĢ
Î¿ Ïģ
à©±à¨ Ł
à®µ à¯ģà®®à¯į
áŁģ áŀļ
áŀŁ áŀĦáŁĴáŀĤ
Ġà²ľ à²¨
áŀĶ áŁĨáŀķáŀ»áŀı
àº· àºģàº
Ġà´ª àµĬ
áĥĵ áĥĶáĥĳáĥĲ
à¶¯à·Ĭ à¶°
àª Ľ
à±įà° ·
Î ĵ
Î© ÎĿ
ĠÎĳ Î½
áŀĶ áŀĦ
à´¿à´ķ à´³àµįâĢį
àµģà´® àµįà´ª
áŀĵ áŁĴáŀĬ
áŀĦáŁĴáŀ ĥ
áŀ¶áŀİ áŀ·áŀĩáŁĴáŀĩ
ĠÏĢ Î±Î¹
à§ģà¦ ·
ĠáŀķáŁĴáŀŁ áŁģáŀĦ
à±ģà°ķ à±ģ
áĥ£áĥ ¨
ĠÎ´ Î¹Î¬
Ġà¨¤ à©ģ
à¯įà® ¸
Ġà¶ļà·Ĵà¶» à·ĵà¶¸
Ġà²Ĵ à²Ĥà²¦à³ģ
Ġáīł áĪĺ
áŁĴáŀĵ áŁĨ
Ġà°ķ à°¾à°°
Ķ áĢŃáĢ¯áĢĦáĢ¹áĢ
ħáĢ ĽáĢ¬áĢ
ĠáĥĽ áĥĶ
Ġà´ķ àµģà´±
ĠáĢŀ áĢ¬áĢ
à§ĩà¦ ¸
ĠáĢĳ áĢŃáĢ
ĠÏĥÏħ Î½Îµ
à«ĩàª ¤
áĥĲáĥľ áĥĵ
àº ¢à»Īàº²àºĩ
áŁĨáŀĵ áŀĦ
Î¼ÏĮ ÏĤ
áŀŁ áŀĦáŁĴáŀŁáŁĲáŀĻ
áŀĶ áŀĵáŁĴáŀĳ
é» ĳ
è® ©
è ĳ
çī ĩ
çº ¢
æł ¡
åĮ ħ
ä½ĵ éªĮ
à¸« à¸§
à¤ļ à¥ĩ
Ġ×Ĳ×ķ ×Ļ×£
ĠáĢ ľáĢ¯áĢķáĢºáĢ
áŀ· áŀĽ
Ġà°µ à°¾à°°
Ġà®¨ à¯Ģ
áŀ¶áŀĢ áŀ¶áŀŁ
Ġà¦¤à¦¿à¦¨ à¦¿
Ġà¶¸ à·ľ
ĠÎŁ Î¹
Ľàº°àº Ĭàº¸àº¡
Ġà²¨ à²¡
áĥĿáĥłáĥ Ľ
Ġà»Ģàº Ħ
ŀáĢ ĲáĢ¹áĢ
àª ¥
à´Ĥ à´Ĺ
ľáĢŃáĢ¯ áĢ·áĢ
Ġàº¥ àº²àºį
ľ áĢ¯áĢŃáĢ
ĽáĢ½ áĢĦáĢ¹áĢ¸áĢ
ķ áĢŃáĢ¯áĢ
Ġà¶º à¶±
ĠáĬł áĭŃ
à»Ħ àº§
ĠáŀŁáŀĦáŁĴáŀĤ áŁĴáŀļáŁĦáŁĩ
ĠáŀĩáŁĨ áŀĦáŀº
à©°à¨ ¡
Ġà§¨ à§
ĳáĢ ¼áĢĢáĢ¹áĢ
ģáĢ»áĢŃáĢ ĶáĢºáĢ
à§ İ
Ġáŀ ī
àµģà´ ªàµįà´ª
áŁĴáŀĽ áŁĤ
Ġà²¸ à³įà²µ
à±ģà°² à±ĭ
áŁĤ áŀľ
éľ ĩ
è® ¤
ç§ °
æĬ Ĭ
à¸²à¸Ħ à¸¡
Ġè¿ ĺ
Ġà¤® à¥ĭ
Ġáĥĵ áĥĲáĥĺ
áŀŁ áŁĨáŀİ
Ġà·Ħ à·ľ
áŀĢáŁĴáŀŁ áŀ¶
à¨Ł à¨°
ÎŃ Î½
Ġáī ¤
à±įà°° à±Ģ
à´£ àµįà´£
Ġà¦¬à¦¿à¦ ¶
ĠáŀļáŀĦ áŁĴáŀŁáŁĬáŀ¸
Ġáŀļáŀ łáŀ¼áŀı
àº» àºģ
ĠáŀĶáŀĵáŁĴáŀĳáŀ¶áŀĶáŁĭ áŀĸáŀ¸
áĢĢáĢ¯áĢ ĶáĢºáĢ
áĥĺáĥĲáĥľ áĥĺ
×Ĳ ×ľ
µ áĢ¯áĢ
±áĢľ áĢ¬áĢĢáĢ¹áĢ
±áĢĲáĢ¼ áĢĢ
ŀáĢ ľáĢŃáĢ¯
ŀáĢ ®áĢ¸áĢ
Ġà¶¸ à¶§
à·Ķà¶« à·Ķ
Ġà®ª à®²
Ġáŀħ áŁĨ
ć ć
çł Ķ
ç¨ ³
æĺ ĵ
æ» ¡
à¸Ĺà¸³ à¹ĥà¸«à¹ī
à¸ª à¸³
à¸ª à¸£
ª à¸Ķà¸ĩ
éķ ĩ
èı ľ
à¹Ģà¸ ļ
à¹Ģà¸ ĭ
à¸ª à¸³à¸«à¸£à¸±à¸ļ
à¸£à¸²à¸ °
m sc
è¶ Ĭ
æĿ ¿
æ¸ ħ
æ¨ ¡
åĳ Ĭ
åı ĭ
çİ° éĩĳ
æ ļ
åħ į
à¸ģ à¸£à¸°
à¸¥ à¸°
à¸¢ à¸±à¸ĩ
Ġçİ¯äºļag 88
Ġäºļæ¸¸ ag
ç´ ł
å¯ Ĩ
ä¼ Ĺ
äº ¿
ä¸ ¾
à¹īà¸²à¸ ¢
à¹ĩ à¸ģ
à¸Ń à¸Ńà¸Ļà¹Ħà¸¥à¸Ļà¹Į
à¤¾à¤ļ à¤¾
à²° à³Ĥ
ĠÎ½ ÎŃ
àº· àºŃàºĩ
Ľ áĢĦáĢ¹áĢ¸
ĲáĢ ®áĢ¸áĢ
áŁĴáŀ¢ áŀ¶áŀı
áŀĺ áŁĤáŀĵ
à°¤ à°¿
Ġáĥł áĥĲ
áŀĶ áŁĴáŀı
Î½Î¿ Î½
à´ŀ àµįà´ļ
Ġáĥ£áĥ ¤
ħáĢ ½
Ġà¨ª à©ģ
áĭ ´
áŀĶ áŁĴáŀ¢áŀ¼áŀĵ
áŀĵ áŀ¶áŀĻáŀĢ
áŀĬ áŁı
Ġà¶Ń à·Ĵà¶º
à·Ĵ à¶§
à°Ĥà° ª
ĠIg basoke
ĠPir ate
w á»į
à©Į à¨°
à¦® à¦¾à¦¨
àº±àºĻàºĶ àº²
ĠáĪ ħ
àº±àºĻàº į
ĠÏĥ Ïĩ
Ġà¶ļ à·ıà¶½
à¤¾à¤ī à¤¨
Ġà²¹ à³Ĩà²
áŀ·áŀĶ áŀıáŁĴáŀıáŀ·
à«ģ àª°
áŀ¶áŀľ áŀ»
àµ Ĺ
Ġà¸ĭ à¸¶à¹Īà¸ĩ
ç ¿
à¸Ń à¸µ
à¸Ī à¸±à¸Ķ
Ġä» İ
éļ ¾
ç»ı æµİ
à¸Ļ à¸±à¸ģ
à¸ĵ à¹Į
à¤¾à¤ļ à¥Ģ
áŀ¶áŀĵ áŁĴáŀı
Ġà®¤à¯Ĭ à®Ł
àº«àºį à»Ī
à°¨ à±ĩ
Ġà¦® à¦¾à¦¨
Ġáĥĺ áĥ¥
Î³ Î®
ĠáĢĢáĢºáĢ ĻáĢ
ĠáĢ ĬáĢ
ĠáŀĶ áŀħáŁĴáŀħ
áĪ Ļ
Ġáŀı áŁĨáŀĶáŀĵáŁĭ
à±įà° ³
±áĢĶáĢ ĲáĢ²áĢ·
¡áĢ ĳáĢŃ
à«ģ àª²
Ġå¹ ¶
èĬ Ĥ
ç®¡ çĲĨ
æľĢæĸ° çĻ»å½ķ
åĪ «
åĨ į
å ¡
ä¹ ī
à¸£à¸± à¹īà¸ĩ
à¤ļ à¤¾
Ïģ Î¸
à·ģ à·Ĭ
à´¨àµįà´¨ àµģ
ĶáĢ¹ áĤĶ
ĲáĢŃáĢ¯ áĢĢáĢ¹áĢ
ĤáĢ¾ áĢº
ģáĢ²áĢ·áĢ ŀáĢĬáĢ¹
ģáĢ« áĢĦáĢ¹áĢ¸áĢ
ĠáĢľ áĢĢáĢºáĢ
Ń àºŃàºģà»ģàºļàºļ
Ġáŀ ¯
Ġà¤¹ à¥ģ
Ġà¦¸ à§įà¦¬
ĠáĥĲáĥ ķ
Î´ Î¹Î¿
áŁĨáŀĬ áŁĤáŀĵ
à»Ģàº Ĺ
áŀŁ áŁĴáŀĽ
àµĤ à´Łàµįà´Ł
Ġà®ķ à¯ĩ
à°µ à°°
ĠÎł ÏģÎ¿
Ġà¨ ı
áŀŁ áŀ»áŀģ
áĭ ľ
Ġ ÏīÏĤ
áŀĽ áŀ¶áŀĵ
àª¿ àª¨
áŀĢáŀ¶áŀļáŀĦ áŀ¶áŀļáŀ
à·ĵ à¶º
ĠáŀĶáŁĴáŀļáŀ¾ áŀĶáŁĴáŀļáŀ¶áŀŁáŁĭ
áŀļáŀ» áŀĶ
Ġà°ª à±ģà°°
ļ à³įà²ļ
Ġib inu
Ġl áº¹
áĥł áĥĺáĥ¡
áŀļáŀ Ļ
à´¦àµįà´ §
Ġà®µ à®´
ĠáĢĻáĢ ¼
Ġà¦ıà¦ķ à¦Łà¦¿
Ġæ Ľ
Ġæ į
Ġä¸ ĭ
Ġà¸« à¸£à¸·à¸Ń
è¯ ģ
çĶµ çİ©
æį ķé±¼
åİ Ĩ
å¤§ åİħ
à¸¥ à¸±à¸ĩ
ĠãĢĤ ï¼Į
è®º åĿĽ
åı Ī
åº ĵ
ä½ ı
à¹īà¸Ń à¸¢
à¸µ à¸¡
Ġà¤®à¥įà¤¹ à¤£
à±įà° Ĺ
áŀļáŀ ħ
àºĻàº ´
áŀĸ áŀĽ
×¨×Ĳ Ö·
Ġ×ª ×Ĵ
×© ×ĺ
Ġà¨ľ à¨¾à¨£
Î¸ Î®
à´¨ àµĨ
ĠÎº ÏĮ
áŀĶáŁĴáŀļáŀ »áŀŁ
ĠáĢĴáĢ ®
à«Ģ àª¨à«ĩ
áŀīáŁĴáŀĩ áŀ¾áŀī
ĠáĥĹáĥĲáĥķ áĥĺáĥ¡
ĠáĢ¡ áĢĢáĢ
áŀ¶áŀĢáŁĭáŀĳ áŁĨáŀĵáŀĦ
Ġà¶» à·ı
ort une
Ġá»į rá»į
Î½Î¿ ÏĤ
áŀ¢ áŀĵáŀ»
Ī àº²àºģàº
Ġá»į já»į
à´Ļàµįà´Ļ àµ¾
à°¾à°² à°¿
ĠÎº Ïħ
Ġáĥ© áĥķáĥĶáĥľ
ĠáŀŁ áŀ»áŀľ
áĢĦáĢº áĢ¹áĢ
Ġàª¸ àªĤàª
ĠáŀĲ áŁĥ
ĠáŀĢ áŀļáŀİáŀ¸
áŁĴáŀļáŀŁ áŁĭ
áŁĴáŀĤ áŀ¶áŀĽáŁĭ
áĥķ áĥĺáĥĹ
ĠMag ic
ĠLe ague
ĠF ortune
ĠT ub
ĠTub er
ĠNar uto
ĠDis ney
à¶ļ à¶»
Ġg un
Ġà¤Ńà¤ı à¤ķà¥ĭ
Ġà¨ķ à©Ģ
Ġ×ķ×ķ×Ĳ ×¡
à®¤à¯įà®¤ à¯Ī
ĠS oc
ĠSoc cer
ĠS imul
ĠSimul ator
ĠM ys
ĠMys tic
ç ª
å® Į
à¸ģà¸ §
Ĉ ï¼Į
èī º
è¿ ŀ
è§Ħ å¾ĭ
çľ ¼
æĶ¿ åºľ
æıĲ çİ°
åı ²
å® ¹
å¥ ¹
ä¾ ¿
à¸ ī
° å¤§
Ġå ±
æŀ Ħ
à¸Ń à¸°
à¸Ļà¸ ¢
à¸Ħà¸§à¸²à¸¡ à¸Ħà¸´à¸Ķ
Ġå°Ĭé¾Ļ äººçĶŁ
Ġå¥ ¹
è¿Ľ è¡Į
æ Ĭ¤
à¸µà¸¢ à¸§
à¸±à¸Ļà¸ Ĺà¸µà¹Ī
à¸¥ à¸´
à¸¡ à¸±
Ġçİ ĭ
é¢ Ħ
è¶ ħ
å°±æĺ¯ åįļ
à¸ Ĳ
Ġada 77
æĺ ¾
åħ ĭ
à¹Ĥ à¸Ķà¸¢
à¸Ĺ à¸±à¹īà¸ĩ
Ġæ³ ¨
Ġà¤¨ à¤¾à¤¹à¥Ģ
ipas áº¹
Ġw on
à°¾à°¨ à±ģ
ĠÎ± Ïĥ
áĪµ áĮ¥
áŀĶáŀĦáŁĴáŀĢ áŀ¾áŀı
à²¡ à³ģ
áĥĿáĥĳ áĥ¡
à±ĭ à°ľ
· áĢĲáĢ
Ġà¶´ à·ı
áŀİáŁĴáŀİ áŁĦáŁĩ
Î Ķ
ĠÏĩ ÏģÏĮ
à©ĭ à¨°
à³Ĩà²¯ à²²à³įà²²à²¿
Ġà»Ħ àºĽ
áŀ·áŀĹáŀĸ áŀĽáŁĦáŀĢ
áĥķ áĥ¡
ľáĢ¯áĢ ķáĢ¹
ĻáĢ¾áĢ ĲáĢºáĢ
Ġà»Ģàº «
à¥ĩ à¤ķà¤¾
ĠH our
ĠD ash
ĠHour g
ĠHourg lass
Ġn ipasáº¹
Ġi já»į
Ġi jo
Ġf áº¹
ĠÎ ¡
à»Īàº½ àº§àºģ
à¶± à·ļ
âĢį à·ĬâĢįà¶»
à¶§ à·Ķ
Ġà°® à°¾à°°
æľį åĬ¡
å± ı
à¹ģà¸ ķ
à¹Ģ à¸Ń
à¸Ļ à¸±à¹īà¸Ļ
Ġå® ī
çĶ ±
æ· ±
æ±¡æ°´ å¤ĦçĲĨ
ä¹ ł
à¸ļ à¸£à¸´
Ġè ´
Ġè §
Ġæ Ģ
Ġåĩ ¤
Ġà¸« à¸Ļ
æ² ³
åıĤ èĢĥ
à¤ļ à¥Ģ
à¯įà®ķ à¯įà®ķ
à¦¾à¦Ĥ à¦²
à¦Ł à¦¾
áŀ¢ áŀĹ
ĠKing dom
w aju
ĠK Ãº
Ġo wo
áĥĺáĥ ŀ
à«ģ àªķ
áŀ¡ áŀ¾áŀĻ
à²¾à²° à²¿
Ġak á»į
Ġáŀĸ áŁĴáŀļáŀ¹áŀĢ
áŁĦáŁĩ áŀŁáŁĴáŀļáŀ¶áŀĻ
à·Ĥ à·Ĭ
à¦¾à¦ķ à¦¾
áŀŁ áŁĴáŀĽáŀ¶áŀĶáŁĭ
à»Ģàº ļ
ĠÎ¸ Îµ
à²¤ à³įà²°
Ġand roid
yan jáº¹
ĠTo ol
ĠChe ats
Ġk á»į
ĮáĢ¬áĢ ĶáĢ
áŀļáŀ¶áŀħ áŀļáŀİáŁį
áŀĺáŁĴáŀ Ħ
ģáģ ļáĢ
ģáĢ²áĢ·áĢ ķáĢ«áĢĲáĢļáĢ¹
ĠáĢĶáĢ ±áĢ¬áĢĢáĢºáĢ
à¨¿à©°à¨ Ĺ
ĠáĥĴáĥĲáĥĽ áĥĿáĥ
Ġà®ķ à¯ĭ
ĠåĽ½ éĻħ
çģ «
ç¤¾ ä¼ļ
à¸¡à¸µ à¸Ħà¸§à¸²à¸¡
à¥ĩà¤ £
à¦° à§įà¦¤
áŀĵáŁĴáŀĽ áŀĦ
Ġà²® à³ĩ
áŀ¾ áŀļ
´ áĢ
¡áĢ Ľ
à´¤ à´¿à´°
à·ıà·Ģ à·ļ
à¤¹à¤° à¥ģ
Ġà¥§ à¥
Ġà¤Ľ à¤¨à¥į
à±ĭ à°¯
Ġà« §
àª ĩ
Î»Î¿ ÏĤ
àºĻ àº²àº¡
áŀ¶áŀļáŀ ĺáŁĴáŀĺ
Ġà´ªà´± à´¯
àº±àºĻàº Ĺàºµ
àª£ à«ĩ
ŀ áĢŃáĢ¯áĢ·áĢ
à´¾à´± àµįà´±
Ïĥ Î¹Î±
ĠáŀŁáŀ»áŀģ áŀ¶
Ġáŀĳ áŁĦáŁĩ
áĥĿáĥł áĥĺ
àº±àºĶàºĸ àº°àºļ
áº¹ láº¹
Ġà°® à±Ĭ
Ġà¦Ĩ à¦ª
Ġà®® à®±à¯įà®±
ĠáĬ «
Ġà·ĥ à·ļ
Ġi os
ĠIs ra
áº¹ s
àº±àºĶàºĸ àº°àº¡àº»àºĻàºķàºµ
×¢ ×ĵ
àº ¢àº¹à»Ī
ÎķÎ £
Îº Î±Î½
r áº¹
ĠÕª Õ¡Õ´
áĥĺáĥĹ áĥ®
à©° à¨®
ĿáĢ ĶáĢ¹áĢ
ľ áĢºáĢ
à¤¿à¤ı à¤ķà¥ĭ
áĥĲáĥłáĥ ¡
ĠáŀĬ áŁĨáŀİáŀ¾
à³įà²° à³Ģ
Ġà¶ľ à·ľ
àµįà´° àµĢ
Ġáĥ¡ áĥ¢
à¥ģà¤³ à¥ĩ
àª¾àª ĵ
ĠáŀĢáŁĴáŀļ áŁħ
à©±à¨ §
à°¿à° ¦
à¶½ à·Ķ
ĠÎ¤ Î±
áŁĴáŀĵ áŁģáŁĩ
Ġ×ĸ ×Ļ×ļ
Ġy io
à´¾à´¯ à´¿à´°àµģà´¨àµįà´¨àµģ
áĭ Ļ
Ġig b
ķáĢ¼áĢ ²áĢ
ķáĢ¼áĢ ±áĢ¬áĢ
áŀĶáŁĴáŀļáŀĩ áŀ»áŁĨ
à²¿à²¸ à³ģà²µ
áŀĳ áŀ¼
Ġaw on
à°¿à° ²à±ĭ
ģàº µ
Õ« Õ¸Õ¶
à¤¿à¤¯ à¥ĭ
Ġà¶ļà¶» à¶±à·Ĭà¶±
Ġà§ ©
Ġáĥ¬ áĥļáĥĺáĥ¡
ĠáĢķáĢ¼áĢ ĶáĢºáĢ
áŀı áŀ»áŀĽ
áŀĤ áŀİáŁĪ
Ġà¦¬ à¦¾à¦Ĥà¦²
Ġà¦ķ à§ĭà¦¨
áŀĢáŀ¶áŀļáŀ ħ
à´±àµįà´± àµį
à· ĺ
ĠÕ¡Õ º
ÏĦÎ· ÏĤ
à¤² à¥įà¤¯
ĠáŀŁ áŀĢáŀĺáŁĴáŀĺ
ĠáĢĴ áĢ±áĢ
à¨¾à¨° à©ĩ
ĠáŀļáŀŁ áŁĭ
ĠáŀķáŁĴáŀĳ áŁĩ
áĥĿáĥł áĥĺáĥ¡
ĠáŀĶáŁĴáŀļáŀ Ĩáŀ¶áŁĨáŀĦ
ÎķÎ ¡
ÏģÎ¹ Î½
Ġà°ļà±Ĩ à°ªà±įà°ª
ĠáŀĢáŀ¶áŀļáŀ Ħ
à²³ à³Ĩ
ÕĪ Õ
áŁĬ áŀ¶áŀĵ
áŀĺ áŀ¾áŀĽ
ÖĦ Õ¨
ĠáĢ¡áĢ²áĢ ĴáĢ®áĢ
áģ¿áĢ ĻáĢ
»áĢ ¾áĢ
Ġaká»į ká»į
ĠK ings
ĠIsra eli
m á»į
à°ķ à±įà°¤
Ġï¼Į âĢľ
Ġåĩ¤ åĩ
è¾ ¹
çł ´
æŀ Ĳ
æĭ ī
åĽ½éĻħ å¨±ä¹Ĳ
åĳ ½
åĮ »
à¸Ħ à¹Īà¸°
à¸§ à¹Īà¸²
Ġçİ¯äºļ å¨±ä¹Ĳ
ĠåĲ Į
Ġà¸ģà¸ ±
Ġ äºĨ
éĹ® é¢ĺ
éĵ ¶
èĪ ª
à¸± à¹Īà¸ĩ
Ġé ķ
Ġ25 59
éĿ ©
è¿ İ
ç»ĵ æŀľ
åĵ į
äº ²
à¸²à¸ Ī
à¤¾à¤ļ à¥ĩ
à²¿à²ķ à³Ĩ
áĥĶáĥłáĥ ¡
Ġà¦ħ à¦¬
à« ¦
à« ĥ
ŀáĢ ®áĢ
Ġà»Ģàº Ĺ
àµģà´¨àµįà´¨ à´¤
Î» ÎµÎ¹
áŀĹ áŀ¼áŀĺáŀ·
áŀĸ áŁĴáŀļáŀĺ
Ġáīł áī°
Ġà»Ģàº ª
áŀİ áŁĮ
Ġ×ª×Ĵ ×ķ×ĳ×Ķ
×ĲÖ¸ ×¨
×Ļ ×Ļ×ł
à¨¾à¨ĩ à¨Ĩ
Ġà» ģ
Ġà·ĥà¶³ à·Ħà·ı
Ïĩ Î®
áŀĩ áŀ½áŀĻ
áĥ® áĥĽ
Ô ¿
ĻáĢ ·
ĠÕ° Õ¡ÖĢ
à»Īàº½àº§àºģ àº±àºļ
áŀĢ áŁĴáŀļáŀŁáŀ½áŀĦ
áŀ¶áŀĴáŀ·áŀĶ áŀıáŀ¸
Ġà²®à²¾à² ¤
áŀ¶áŀıáŁĭ áŀģáŁĴáŀĽáŀ½áŀĵ
± áŀĢáŀ¶áŀŁ
ĠáŁ ©
ĠáŀŁ áŁĴáŀĳ
Ġé ĺ
Ġé »
æ ¾
åĢ į
à¹ģà¸ Ĥ
à¸ģà¸ ´
¶ à¹Īà¸ĩ
Ġè ½
è¾ ĥ
è´ £
è¯ Ń
å¤ «
à¤® à¤§à¥įà¤¯à¥ĩ
à±įà° ¬
ĶáĢ ²áĢ·áĢ
ĠáŀĹ áŁģáŀĳ
ĠáĢŀáĢ ±áĢ
ĠáŀĶáŀīáŁĴáŀĩ áŀ¶áŀĢáŁĭ
ĠÎº Î¿Î¹
ĠáĥĽ áĥĺáĥĽ
ĠáĢ±áĢ Ĵáģ
áĢ±áĢ Ķ
»áĢķáĢ ħáĢ¹áĢ
¥ áĢ¹áĢ¸áĢ
ĽáĢ ®áĢ¸áĢ
ĠáŀĲ áŁĴáŀĽáŁĤáŀĦ
à¨ Ŀ
ĠáŀħáŁĨáŀİ áŁĤáŀĢ
ĠáŀĢ áŀĺáŁĴáŀĽáŀ¶áŁĨáŀĦ
à´¿à´¯ àµģà´Ĥ
àºģ à»Īàº²àº§
Ġáŀ¢ áŁĬáŀ¸
à²¸ à³į
à§ĭ à¦°
ÏģÎ¿ Î½
Õ«Õ ·
à°¿à°Ĥà°ļ à°¿
Ġs á»į
Î´ ÎµÏĤ
à´¨àµįà´¤ àµįà´¯
Ġà¤¨à¥ĩà¤ª à¤¾à¤²
Ġà¤¤ à¤¥
Ġáĥ© áĥĶáĥĽ
áŁĦ áŀĳ
à«ĭ àª°
à¤¨à¥įà¤ ¨
áī¶ áī½
ĠáĥĴ áĥĿáĥĴ
áĥł áĥĿáĥ¡
à´¿à´ Ĥ
à¯Īà® ļ
áŀı áŁĴáŀĬ
áŀı áŀ»
Õ¡ÖĢÕ ´
Ġà¶Ķ à¶¶
ĠÎ±Î½ Î¬
à²¿à²¦à³įà²¦ à³ģ
à°¾à°Ĥà° Ĺ
ĻáĢ °
áŀĤáŁĴáŀĤ áŀĽ
ķáĢ½áĢ ²áĢ
à±ģà°¨à±įà°¨ à°¾à°°à±ģ
àºģ àº±àºĻ
Ġ×ĸ ×Ļ×Ļ×Ł
áŀ¸áŀĬ áŁģ
à©±à¨ Ĺ
ĠáŀŁáŀĺáŁĴáŀ Ĭ
Ġáŀľ áŀ¶áŀĻ
à®¿à®© à¯įà®±
áĥķ áĥĶ
Ġay e
Õ¸Õ £
Ġà¤Ń à¤¨à¥ĩ
à§įà¦ ł
ÏģÎ¹ Î¿
à°Ĥà° ķ
ĠMess enger
Ġn ikan
Ġàª¹ à«ĭàª¯
Ġáŀĸ áŀ¶áŀĢáŁĭáŀĸ
ĠGener ator
ug b
a aju
Ġnig ba
ĠáŀĶ áŁĬáŀ»áŀĵ
Ġáŀĩ áŀ¼áŀĵ
áĥłáĥ ĵ
Ġnig b
Ġáŀ¢áŁĨáŀĸ áŀ¸
ķ áĢ¯áĢ
Ġi á¹£áº¹
àº·à»Ī àºĻ
Ġà´¸ àµįà´¥
ĠÕ ³
à²¬ à³įà²¬
ĶáĢ¹áĢ¸áĢ ĻáĢ¬áĢ
ĲáĢ½áĢ±áĢ ĢáĢŃáĢ¯
ĲáĢ °áĢ
áŁĴáŀı áŀĦ
Ġçİ¯äºļ å®ĺç½ĳ
Ġåĩ¤åĩ °å¤§
Ġåĩ¤åĩ°å¤§ åıĤèĢĥ
èĦ ĳ
è½ »
è¯ Ĩ
å½ ¢
ä¸ĵ ä¸ļ
à¹Ģà¸ŀ à¸·à¹Īà¸Ń
à¸Ļà¸ ģà¸²à¸£
à¸¸ à¸¡
Ľ à¸£à¸°
ĠçĻ ¾
Ġå°Ĭé¾ĻäººçĶŁ å°±æĺ¯åįļ
Ġà¤¤ à¥ĩ
ĠÎ´ Ïį
à¦¨à§įà¦¤ à§įà¦°
áŁĩ áŀ¢áŀ¶áŀĦ
à¨Ĺ à¨¾
áŀ¶áŀŁáŁĴáŀı áŁĴáŀļ
Ġà²¸ à²°
Ġáĥĵ áĥĲáĥ¡
ĠD ream
Ġb áº¹
ĬáĢ¹áĢ ·áĢ
½áĢ ¶áĢ
à¦¤ à¦¾
ľáĢĬ áĢºáĢ
áŀ¢ áŀ¶áŀĺáŁģáŀļáŀ·áŀĢ
ÏĦÎ¹Îº Î®ÏĤ
Ġà®® à¯ģà®¤
àº±àºĩàº Ħ
à³ĭ à²¡
ĠáŀĶáŁĴáŀļáŀĩ áŀ¶áŀĩáŀĵ
à±ĩà° ®
ĠáŀħáŁĴáŀĶ áŀ¶áŀĶáŁĭ
à´¿à´¨ àµĨ
Ġáº ¸
Ġ×ª×Ĵ×ķ×ĳ×Ķ ×ĵ
Ġ×ª×Ĵ×ķ×ĳ×Ķ×ĵ ×ķ×¨×ļ
×ł ×ĵ
à¨¨ à¨¾à¨Ĥ
ÏĦÎ® ÏĤ
Ġà¤¤à¤¥ à¤¾
ĠáĪĪ áĪĺ
à¤°à¥įà¤ ¦
Ġà¶ħ à¶º
Ġà»ģàº «
Ġà»Ģàº® àº±àºĶ
áŁĲ áŀļ
Ġàºŀ àº°
Ġàºŀ àº§àºģ
à°ķ à°¿
àµĭ à´Łàµįà´Ł
ķáĢ¼áĢ ĶáĢºáĢ
àª¾àª ¬
áĥĺáĥľ áĥĺáĥ¡áĥ¢
Ġw Ãł
ĠÎ Ĩ
à²Ĺ à³įà²Ĺ
ĠáĥĴáĥĲáĥĽ áĥĿ
à¦§ à§įà¦¯
Õ¸Õ ·
Ġà¶¸ à·Ĳ
áŀĳáŀ¶áŁĨáŀĦ áŀ¢áŀŁáŁĭ
Ġàº Ŀ
Î¯Î½ ÎµÎ¹
à®° à¯įà®ķà®³
àºĶàº ¥
çº¿ ä¸Ĭ
å¼ ł
ãĢ Ĭ
à¹ģ à¸Ļ
à¥Ģ à¤Ĥ
Ġàª¹àª¤ àª¾
ĶáĢŃáĢ¯áĢĦáĢºáĢĦáĢ ¶áĢ
áŀİ áŀ¶áŀŁáŁĭ
Ġà¶´à·Ĵ à·ħ
à²µ à³Ĩ
à±ģà° Ĺà°¾
àº»àº¡ àºª
àºª àº°àº«
Ĵ éĢŁ
Ġà¤¦ à¤¿à¤²
à´¿à´± àµįà´±
áŀ¸ áŀĺ
áĥĶáĥĹ áĥĺáĥ¡
ĠÏĢ ÏģÏİ
áŀ· áŁį
Ġà»Ģàº ŀ
áŀ¶áŀļáŀĺáŁĴáŀĺ áŀİáŁį
Ġàºģàº °
à»Ħ àº¥
åħ¥ åı£
å° Ĭ
é ¥
ç¨ İ
æĺ Ł
åĬ Ł
å¤ļ å°ĳ
å£ ģ
ä»£ çĲĨ
à¸ģà¸£ à¸£à¸¡
à¸¹ à¸ģ
à¸¸ à¹Īà¸Ļà¸
à¤² à¥įà¤¯à¤¾
Ġà® ²
ĠáŀĶ áŀĵáŁĴáŀĲáŁĤáŀĺ
Ġáģ İ
Ġáŀı áŁĴáŀļ
Õ¸ÖĤÕ©ÕµÕ¸ÖĤÕ¶ Õ¶Õ¥ÖĢ
Ġáŀĩ áŀ¶áŀĶáŁĭ
ÏĦ Ïī
à¨ ĩ
à¶ļà·Ĭ à¶ļ
ĠáĪ Ĭ
Ġw Ã¡
áĥ£áĥ ®
ĠáŀĤ áŁĴáŀļáŁĦáŁĩ
à¦¾à¦ ĸ
à´¤àµįà´¤ à´¿à´¯
Ġàªī àªª
àºŃ àºģàº
Ġáŀ¢ áŀıáŀ¸áŀı
Ĳ ë§¤
à¤¬ à¤¾à¤Ł
à¤¤ à¤¾à¤¤
ĠáĥĹ áĥĲáĥľ
ĠÂ» áŁĶ
áŁĤ áŀļáŀ
Ġà¶¯ à·ĵ
Î» Ïħ
áŀŁ áŁĴáŀĶ
áŀķ áŁĴáŀı
Ġà´¨ àµĩ
ÏĢ Î·
à®¿à® ¨à¯įà®¤
à±įà° ¡
à¨¸ à©Ģ
ÕµÕ¡Õ¶ Õ¨
Õ¡Õ¶ ÖĢ
à§įà¦ ¡
Ġáĥł áĥĲáĥ¢
ĠCo in
ve y
Ġá¹£ aaju
Ġo j
Ġ',' #
à²¿à² ³
áŀĶáŀīáŁĴáŀĩ áŀ¶áŀĢáŁĭ
ÏģÎ³ Î±Ïĥ
Ġáĥĵ áĥĲáĥķ
áĥľ áĥĲ
áŀĤ áŁĴáŀļáŀĦ
àºŀ àº²àºļ
Ġà¨ķ à¨¿à¨¸
ĠÕ Ī
Îº Î®
áŀĢáŀ¶áŀļáŀ Ģ
àºģ àº±àºĻàº
à´¿à´ķàµįà´ķ àµį
Ġà²ķ à³Ĩà²²
áŀ¼áŀĽ áŁĤáŀĵ
áŀ¸ áŀĻ
à«ĩ àª¨à«įàª
à¤¨à¥įà¤ Ľ
ÏģÎ¯ Î¶
à®¿à®ķ à®³à¯į
áŀ¶áŀŁ áŁĴáŀļ
áĥł áĥĺáĥķ
ķàµįà´ ·
à·Ħ à·ľ
àº°àº« àºį
ĠáĪĪ áĪĽ
ĠSta ble
ugb á»įn
Ġm á»į
ķ à»īàºŃàºĩ
à°Ĥà°¡ à°¿
ĠÕ¡Õ·ÕŃ Õ¡Õ¿
áŀ¶áŀĴáŀ¶áŀļáŀİ áŁĪ
Ġà´Ĩ à´°
Î¼Î± Î½
Ġà¦Ĩ à¦Ĺ
áŀ ĨáŁĴáŀĵáŁĦáŀı
Ġà¨ªà©°à¨ľ à¨¾à¨¬
Ġà¨¸ à¨¾à¨
×ķ×ŀ× ¢
ĠáŀĬ áŀ¸
Ġà´°à´¾à´ ľ
ĠÖ Ĩ
ĠáĢŁ áĢ
Ġà¶¯ à·Ĵ
à¨° à¨®
Ġáŀ¢ áŀĦáŁĴáŀĢ
à²Ĥ à²ķ
áŁĤáŀĦ áŀļáŀĢ
ķ à»Īàº²àºĩ
à°¿à°Ĥà° ¦
áĥļ áĥĿ
Ïĥ Î±Î½
áŀŁ áŁĬ
Ð°Ñİ ÑĨÑĮ
Ġàªħ àª¨
à§ĭ à¦²
ĠáĢĳ áĢŃáĢ¯
áŀļáŀ» áŀī
à°® à±ĩ
ĠáĢ±áĢ ĸ
ĻáĢ ĶáĢºáĢ
¦ ģ
Ġæ ¸
Ġå½ ĵ
Ġà¤¤ à¤°
áŀĺ áŀ¼áŀĽ
à³Ĥ à²°à³ģ
à² ¥
Ġáį į
à·ı à¶¸
Õ¸ÖĤÕ ¬
áŀĶáŁĴáŀļáŀ ł
à¯Īà®ķ à¯į
m ÃŃ
Îº Î¬
ĴáĢ «áĢ
à´± àµĨ
ĲáĢŃáĢ¯ áĢ¸áĢ
Ġá ¹
áĥ£áĥ ¡
à§ĩà¦ ľ
à±įà° §
Ġá¹ ¢
Ġà¤ ł
ĠáĢŀ áĢ¬áĢ¸áĢ
à¨Ĺ à©Ģ
áŀīáŁĴáŀħ áŀ¼áŀĽ
ĠâĢĭ ,
à»Ģàºĩ àº´àºĻàº
ĠÎŃ ÏĩÎ¿ÏħÎ½
ĠáĢ»áĢķáĢ ³áĢ
ĠáĢ Ŀ
Ġà´® àµĤ
ĠÖħ ÖĢ
Ġche ats
pá»į lá»į
àºĻàº ª
Ġ×Ĳ ×Ļ×¨
áģ¿áĢķáĢ ®
ĽáĢ ²áĢ
ig b
ĠáĮ ĭ
à§Ł à¦¾
à¶Ĥ à¶ļ
Ľ áĢĢáĢ¹áĢ
ĸáĢ½áĢ ²áĢ·áĢ
Ġá¹£ i
áŀĩ áŀ¶áŀŁ
à´µ à´°
Ð°ÑĨ ÑĭÑı
Ġsug bon
Ġà¨¸ à©°à¨
Ġà¶ĳ à¶¸
ĠÎķ Î»Î»Î¬
Ġáĥ¡ áĥĲáĥ¡
Ġn ibáº¹
Ġs oke
ĠÎ¼ ÏĮ
Ġláº¹ hin
Ġi á¹£
áŀĩ áŀ¶áŀ¢
Ġàª¤ à«įàª¯
ag b
à´¯ à´Ĥ
Õ¥Õ ¦
àº¶ à»Īàºĩ
Ġk Ã¡
ķ áĢĦáĢ¹áĢ
ĪáĢ ±áĢ¸áĢ
à®¿à®¯ à®¾à®ķ
ħáĢ ±áĢ
à¦¿à¦ ¯à¦¼
à¸Ħ à¸Ļ
Ġæ³¨ åĨĮ
é ²
çĽ Ĭ
æĿ ĥ
åĽ½ å®¶
å¾ ·
å¹ ¶
à¸´à¸ķ à¸´
ĠâĢ¦ âĢ¦
Ġà¤¸ à¥įà¤ª
áŀ¶áŀļáŀ ĺ
Ð¾Ð´ Ð·
Î¹Î¿ ÏĤ
áŀ¶áŀļ áŁī
Ġi w
Ġáĥ¡ áĥ®áĥķ
Ġà·Ģ à·Ĵà¶º
à°¾à°° à°¾
ĠW he
ĠA pe
ĠApe já»į
or un
Ġme je
Ġd ara
Îº Î¿Î»
ĠáŀĤ áŁĴáŀļáŀ½áŀŁáŀ¶áŀļ
ĠWhe el
Ġá»į pa
Ġen ia
s áº¹
ĠáŀĢ áŀ¸áŀ¡
Ġ×© ×ĺ
à²¿à²¤ à³ģ
à¹Īà¸Ń à¸¢
à¹ģà¸ «
à¸Ħà¸§à¸²à¸¡à¸Ħà¸´à¸Ķ à¹Ģà¸«à¹ĩà¸Ļ
à¥ĩà¤ ³
à´¿à´° àµģà´¨àµįà´¨
ĠáĪµ áĪĪ
ĢáĢ »áĢ
à¯ĩ à®©à¯į
à«Ģàª ľ
áŁĴáŀĶ áŀ¶áŀĽ
Ġà®ħ à®Ł
aj á»į
Ġá»į pá»įlá»į
à±ĩà° ·
Î¹Îº ÎŃÏĤ
áŀļ áŀ¶áŀĶ
Ġmi iran
Ġá»į kan
Ġ Õ¡Õ´Õ¢
Ġj ade
áŀĶáŁĴáŀļáŀ¾ áŀĶáŁĴáŀļáŀ¶áŀŁáŁĭ
Ġid ajá»į
ĠI yanjáº¹
g b
áŀĵ áŀ·
Ġà¨ Ľ
à´ ¥
áŀĳ áŀ¶áŀĵáŁĭ
Õ¿ Õ¶
Ġáģı áģĭ
ĠáĢľáĢ ĻáĢ¹áĢ¸áĢ
ĠáĢľ áĢŃáĢ¯áĢ
àº°àº «àº¼
áĥĺáĥłáĥ ķ
áŀĤ áŀ¶áŀıáŁĭ
Ġáĭį áĪµáĮ¥
Ġà´ĩ à´¨àµįà´¤àµįà´¯
à¤¶ à¥Ģ
ÏĦÎ¹Îº ÏİÎ½
ķàº´àºļ àº±àºĶ
ĠÐ¿ÑĢ Ð°
Ġàª¹àª¤ à«ĭ
áŀģ áŁĴáŀīáŀ»áŁĨ
Ġàºª àºµ
àº¡ àº¹àºĻàº
à´¿à´ ·
à°¿à°Ĥà°ļ à°¿à°¨
áŀĢáŀ¶áŀļáŀ ĸ
ĠáĢ¤ áĢ
áŀĢ áŀĺáŁĴáŀĽáŀ¶áŁĨáŀĦ
Ġàºķ à»įà»Ī
ĠíĮ Ĳë§¤
Ġà¤¹ à¥ģà¤¨
áŀ¸áŀĬáŁģ áŀ¢áŀ¼
Ġà¶ļ à·Ļ
ÏĦÎ¹Îº Î¿Ïį
à»Ī àºŃàºĻàº
Ġà¨Ĩà¨ªà¨£ à©ĩ
Ġà®ļ à®¿à®±
áŀ¶áŀŁ áŀĵáŁį
ĠáĥĲáĥĵ áĥĲáĥĽ
ĠÐ³Ñį ÑĤÐ°
Ġé ¦
Ġåı ª
Ġå¤ ©
Ġà¹Ģà¸ Ĥ
éĽĨåĽ¢ å®ĺç½ĳ
åĽ ´
å®ī åħ¨
ä½ĵéªĮ éĩĳ
ä» ½
à¹Īà¸§ à¸ĩ
à¹ĥà¸Ĭ à¹Ī
à¹Ģà¸Ľ à¸¥
à¸¹ à¸¥
à¤Ĥ à¤¡
à²¿à² ·
áŀ¢ áŁĴáŀľáŀ¸
ÏĦ Ïģ
à°¾à°¤ à±įà°°
ĠÕ§ Õ¬
ĠáĢ¡áĢ±áĢ »áĢģáĢ
áĢĲáĢ ½áĢ±áĢ
ĠâĢĭâĢĭ âĢĭâĢĭ
ĽáĢ½ áĢĢáĢºáĢ
ĠáŀŁáŁĴáŀı áŁĴáŀļáŀ¸
ĠáŀŁáŀĺáŁĴáŀı áŁģáŀħ
ĠáŀĬáŁĦáŀĻ áŀŁáŀ¶áŀļ
ĠÎµ Î¹
×ĲÖ· ×ľ
Ġ×ĸ ×Ļ×Ļ
à´° à´£
à¦¿à¦ķ à§įà¦·
ĠÚ ı
ĲáĢ ļáĢºáĢ
áĥĶáĥļ áĥ¡
à« Ī
ĠáŀĤ áŁĦáŀĽ
Ö Ĩ
ĠÎ±Î½ ÏĦÎ¹
à»ģàº ģ
Ġà¨® à©Ī
à¤¿à¤¤ à¥Ģ
ĠáĤıáĢ ½
ĠáĢĶáĢ ¾
Ġáŀģ áŀ»áŀŁ
Ġà´ľ à´¨
à®¿à® ª
Ġà·Ģà·Ĵ à·ĥ
ĠÏĢÎ¿Î» Ïį
Ġà¦¹ à¦¬à§ĩ
à°¾à° ³
Ġáŀ¡ áŀ¾áŀĻ
ÑģÐº Ð°Ð¹
áŁĦ áŀĩáŀĵ
à²µ à²¾à²¦
à»Ģàº®àº±àºĶ à»ĥàº«à»ī
à¨¿à¨ µ
Ġà°ħ à°¨à°¿
áŀķ áŁĴáŀ¢
à´²àµįâĢį à´ķ
àµįà´ ķ
ĠáĥĽ áĥĲáĥĽ
Î¸ Î½
áŀĴáŀ ¶
à¤µ à¤¾
áĥĹ áĥĲ
ĠÔ±Õµ Õ½
àºĶ àº±àºģ
àª¾àª¨ à«ĩ
Ñĸ Ñĸ
áŀĬáŁĤáŀĽ áŀĺáŀ¶áŀĵ
à§ĭ à¦®
Ġà¤Ĺà¤°à¥įà¤¨ à¥ĩ
ÏĢÎ¿ Î¯
àº»àºģàº ¥
Ġà®¤à®® à®¿à®´
Ġà®® à¯Ģ
Ġà¶ħ à¶°
Ġ×ĵ ×¢
áĥĶáĥłáĥ Ĺ
ĠáĮį áĬķ
áĢŃáĢ¯áĢ ľáĢ¹áĢ
ľáĢ ¼áĢĶáĢ¹áĢ
ĸ áĢĢáĢ¹áĢ
ĶáĢ¾ áĢĦáĢºáĢ·
ĵ áĢ
àº¶à»ī àºĻ
áŀħ áŀ¶áŁĨ
áĢĢáĢ¼áĢ±áĢ¬ áĢĦáĢ·áĢº
Îĳ ÎĻ
Î¼ Î¼Î±
Õ¥Õ º
ĸ à±įà°¯
àª° à«Ĥ
Ġà²µ à³įà²¯
áŀĤ áŀ¼áŀĽáŁĤáŀĵ
áŀĢáŀ¶áŀļáŀ ļáŀ
Ġà¨ķà©Ģà¨¤ à©Ģ
ĠÏĢ ÏĮ
áŀ¼ áŀĩ
Ġà´µà´¿à´ µ
Ġà¦Ĺ à§įà¦°
áŀ¶áŀİáŀ·áŀĩáŁĴáŀĩ áŀĢáŀĺáŁĴáŀĺ
×Ļ×ĳ ×Ł
ĠÐ¿ Ð°Ð²
à¶± à·Ĵ
ĠáŀĸáŁĴáŀļ áŁĥ
à®µ à¯ĩ
ĠáŀĨáŁĴáŀĽ áŀ¾áŀĻ
ĠáŀĤ áŁĴáŀĺáŀ¶áŀĵ
ĠáĥĽ áĥ¡
à´¦àµįà´ ¦
à°¨ à±įâĢĮ
ĠáŀģáŁĴáŀĽ áŀ¶áŁĨáŀĦ
àº§ àº´
à¥įà¤ Ľ
áĢĢáĢ¼áĢ ®áĢ¸
ĠÎ¼ÏĢÎ¿ ÏģÎµÎ¯
áĭ« áĬķ
ĠáŀĢáŀ¶áŀļáŀĦ áŀ¶áŀļ
àº¡ àº·
Õ¸ÖĤÕ ¿
ŀáĢĬáĢºáĢ ·
áŀľ áŁģáŀĽ
Ġgo og
Ġgoog let
Ġgooglet ag
Ġà²ħ à²Ĥà²¤
à·ĵ à·Ģ
ķáĢ«áĢ ŀáĢĬáĢ¹
ķ áģ
ĶáĢ² áĤķ
ı áĢºáĢ
Ġà°Ĺ à±ģà°°
» àºĶ
áŀļáŀĶ áŀ½áŀŁ
Ġà¨¬ à¨£
à§įà¦ ľ
Ġà®¤ à¯Ĩà®°
áŀļáŀ Ľ
§ à«Ģ
Ġ×ķ×ķ×Ĳ Ö¸
×Ļ×¨ ×Ł
ħáĢ ®
Î¹Î± ÏĤ
Ġà²ķ à²°
ģáĢ «áĢ
áĥĺáĥ ¤
ĠáĢĴáĢ« áĢ±áĢķáĢ
ĠáĢ±áĢĢ áĢ¬áĢĦáĢ¹áĢ¸áĢ
ĠáĢ ĽáĢ¬áĢ
áŀĶ áŀ¸
Ġè ¦ģ
Ġæīĭ æľº
Ġà¤Ĩà¤¹ à¥ĩà¤¤
à¶½ à·Ĵà¶±à·Ĭ
ĠÕ´ Õ¥Õ¯
Ġà»ĢàºĤ àº»à»īàº²
ĠàºĻ àº°
ĠàºĶ à»īàº§àºį
ĠÏĢ ÏģÎ±
àµĩà´ ¹
Ñĸ Ñŀ
à¯ģà® £
áĪ »
ĠàºĦ àº³
à³Ĩ à²°
Ġà¦¨ à¦¿
à»Ħ àºŁ
» áĢ¬áĢ
à°¤ à±įà°¯
Îº Î¿Ïį
áŀĳ áŁĥ
Ġ_ sv
Ġ_sv c
Ġ; }
Ú ı
áĥĿáĥķ áĥľ
à·Ĵà¶º à¶§
Ġàª¬ àª¨
ĠáŁ¢áŁłáŁ¡áŁ ©
ĠáŀĻ áŀ»áŀľáŀĩáŀĵ
Ġáŀĺ áŀĩáŁĴáŀ
ĠáŀĶáŁĴáŀļáŀĹ áŁģáŀĳ
±áĢĶ áĤĶ
ľáĢ¯áĢķáĢºáĢĦáĢ ĶáĢºáĢ¸áĢ
Ġà®¨ à®¿à®²
ĠÏĥ ÏĩÎµ
à´¤ àµįà´°
ĠÑı Ð³Ð¾
àºĩàº Ľàº°àºĬàº¸àº¡
àºµ àºį
ĠáŀĶ áŁĤáŀĶ
à¨¨ à©ĩ
Ġà¶¸ à¶Ń
áĥļ áĥĺ
ĽáĢ¾ áĢĦáĢºáĢ
à²¸ à³įà²¥
Ġáŀı áŀĺáŁĴáŀĽáŁĥ
ĠíĮĲë§¤ ê°Ģ
à¤¾à¤ī à¤ģ
à¦ ·
ĠÕ¿ Õ¡ÖĢ
Ġ×Ķ×Ĳ Ö¸
Ġ×© ×¤Ö¼
×Ľ ×ĺ
ĠáŀĢáŀ¶áŀĵáŁĭ áŀıáŁĤ
ç© ¶
æīĭæľº çĻ»å½ķ
æ² ¹
åħ ħ
åħ °
å¸ ģ
ä½ ³
à¹Ģà¸ģà¸´ à¸Ķ
à¹Ģà¸£ à¸²
à¤°à¥įà¤ §
áŀļáŀĦ áŀĤáŁĴáŀļáŁĦáŁĩ
Ġà°¸ à°¿à°¨
áŀļáŀ· áŀĻ
áĬ ¢
Ġà°µ à°ļà±įà°ļ
Ïĩ Î±
Ġà´¸ à´¹
àº±àºĶàºĹ àº°àºĻ
Ġàªµ àª°à«įàª
ķáĢ±áĢ« áĢºáĢ
Ġå¤§åıĳ äºĶ
çº ¦
æŃ »
æ£ Ģ
åĥ ı
à¹Ħ à¸§
à¤¾à¤Ĥà¤ļ à¥Ģ
Ġà¶± à·ĳ
à¶¯ à¶»
áŀİ áŁĴáŀĻ
ĠÎ® ÏĦÎ±Î½
àº°àºŀ àº²
ÑģÐº Ñĸ
Ġáĥłáĥ £áĥ¡
à¶¯ à·ļ
áŀ¶áŀŁáŁĬáŀ¸ áŀĵ
Ġà´ ·
áĥł áĥĶ
àº°àº«àºį àº²àºį
Ġá»į na
Ġkur o
áŀ¢áŁĨáŀĸ áŀ¸
Ġà® ĵ
à²¤ à³įà²¯
ej i
àº§àº½ àºĶ
ĠáĪĺ áĬķ
Ĺ àº¶
Ġáº¸ mÃŃ
á»į ju
á¹£ e
Ġà¨¸ à¨¨
à¦¾à¦¦ à§ĩà¦¶
Ġà°ħ à°¯
Ġà¦ķà¦° à¦¤à§ĩ
áŀ¢ áŁĬ
ĠÑĢ Ñį
Ġà´¸ àµĨ
Ī àº²àºģ
Ġà¤²à¤¾à¤Ĺ à¤¿
ĠÕ£ ÖĢ
Ĵ áŁĴáŀľáŀ¾
Ġè¯ ´
æĹ ħ
åŃ Ĺ
à¹Ħ à¸¡
à¸Ļà¸ Ķ
à¸Ĺ à¸£à¸ĩ
à¸£ à¹īà¸Ńà¸¡
à¥įà¤¯à¤¾à¤ļ à¥Ģ
Îº ÏģÎ¹
im á»į
Ġto ol
Ġil eri
ĠKr isti
Ġaw oran
Ġà®ª à®¾à®°
á¹£ á»į
ĠáĥĽáĥĺáĥ¡ áĥĺ
à´¸àµįà´¥ à´¾à´¨
Ġá»į run
Ġgb á»į
ĠâĢĭáŁ ĸ
Ġáŀľáŀ· áŀĳáŁĴáŀĻ
ĠàºŃ àº¸
Ġàºŀ à»īàºŃàº¡
ĠÏĢÎ± ÏģÎ¬
Ġàªı àª®
Ġà´¨ à´²àµįâĢįà´ķ
àµĭ à´ķ
à¨¨ à©ģ
ĠáŀĶ áŁĨáŀķáŀ»áŀı
Ġà·Ħ à·Ĵà¶Ń
ĠÕ Į
Ġàºģ à»į
Ġà·Ģ à·ĵ
Ð°ÑĨ ÑĭÑĸ
Ġdi áº¹
×ľ×Ĳ Ö·
Ġ×ŀ×Ĳ Ö·
Ġ×¤ ×ĲÖ·×¨
Ġ×Ĳ×ķ ×Ļ×¡
Ġil áº¹
ķáĢ ĲáĢ¹áĢ
ģáĢºáĢ³áĢ ķáĢ¹
Ġáģ ĢáĢ
áĢĢ áĢ¬áĢ¸
Ľ à¸¥
Ġé «ĺ
Ġè Ĳ
Ġäºļæ¸¸ åĽ½éĻħ
ć ï¼Į
èĲ ½
èĭ ±
è¯ ¥
è¡¨ ç¤º
çĶ ³
æķ° æį®
åĽ½éĻħ åİħ
å£ °
à¹Ħ à¸Ĺà¸¢
à¹ĥà¸« à¸į
à¸ļ à¹īà¸²à¸Ļ
à¸Ļ à¸±à¸ģà¸
à¸¸ à¸ĩ
à¸¡ à¸ŀ
à¤ ĺ
±áĤıáĢ ¼áĢ¸áĢ
¡áĢ ĽáĢ¬áĢ
à±Ģ à°
Ġàº§ àº±àºĻ
Ġáŀĩ áŀĶáŁīáŀ»áŀĵ
Ġà² §
àªķ à«įàª·
à±Ĩà°¸ à±į
àºĩ àº²àºĻàº
ĠÎº Î¬Î½
Ġáŀ¢áŀĹ áŀ·áŀĶáŀ¶áŀĽ
áŁĴáŀŁ áŁĤ
áĥĺáĥ¡ áĥĲ
ĠáĬ£ áī¥
áĭĭ áĪį
áŀĶáŁĴáŀļáŀĩ áŀ¶áŀĸáŀĽáŀļáŀĬáŁĴáŀĭ
Ñĭ ÑĨÑĮ
áŀĬ áŁĨáŀİ
à°¿à° ·
ĠÕ ŀ
áŀĩ áŀ¶áŀĺ
à¯ģà®Ł à®©à¯į
Ġà¦¸à¦® à§įà¦ª
à¨¹ à©ģ
à´¾à´ ¨àµįà´
Õ¡Õ¶ Õ¨
Ġà²® à³Ĭ
ŀáĢ ¶áĢ¯áĢ¸áĢ
ŀáĢ ±áĢ
ÎĳÎ Ŀ
Î¹ÎºÎ¿ Î½Î¿Î¼
àº¹ àºĻ
ĸáĢŃáĢ¯ áĢ·áĢ
Ġè ¡
Ġà¸Ħ à¸§à¸²à¸¡
éĶ ģ
æŃ£ è§Ħ
å½© éĩĳ
å¹ ²
å§ ĭ
à¸ķ à¸±à¹īà¸ĩ
à¸Ī à¸³
à¸´ à¸ļ
ģ à¹ĩ
Ġà¹Ħ à¸Ķà¹ī
ĠAGçİ¯äºļ å®ĺç½ĳ
Ć ï¼Į
çħ §
æİ §
æ¸¸æĪı å®ĺç½ĳ
æ¯ ı
æ® µ
åį Ĭ
à¹ģà¸ ¡
à¸Ħ à¸³
à¸£à¸´ à¸ĩ
ĠæĪĳ ä»¬
ĠâĢĿ ï¼Į
Ġà¤¹ à¥ĩ
ķáĢ¹áĢ ĻáĢ
ĲáĢ¬ áĢĢáĢŃáĢ¯
ģáĢ¼áĢ ±áĢ
ĠÏĮ ÏĢÏīÏĤ
áŀĩ áŀ¶áŀħáŁĴáŀļáŀ¾áŀĵ
àº´àºĶàºķ àº²àº¡
à·Ģ à·Ĳ
Ġáĥ¨áĥĶáĥĽ áĥĵáĥĶáĥĴ
àº´àºĶàºķ àº°àºŀ
àº±àºĻàº «
Õ¸ÖĤÕ©Õµ Õ¡Õ´Õ¢
Ġà´ķ àµĨ
Ġi di
Ġá»į kun
ĠOl orun
ĠIf ihan
il áº¹
ÑģÐº Ð°Ð³Ð°
Ġàª¹àª¤ à«ģàªĤ
à´¿à´¯ à´¿à´²àµįâĢį
Ġà´ªàµįà´° à´µ
áŀĢáŁĨáŀĸ áŀ»áŀĦ
ÏĨ ÎŃ
àº« àº¡
Ġàº¡ àº²
à»Ħ àºĤ
Ġá»įkun rin
Ġáº¹ rá»į
Ġo ju
à²Ĺà²³ à²²à³įà²²à²¿
à§ģ à¦ķà§įà¦¤
Ġà°ªà±ģà°° à±ģà°·
à»ĥàºĻàº ģàº²àºĻàº
Ġà·Ģ à·ļ
à°Ĥà°¦ à±įà°°
ĠÏĩ Î±
Ġ×¡ ×ĺ
Ñĸ ÑĨ
Ģ áĢ¬
Ġkan na
ĠáĬ ¢
áº¹ k
Ġnigb ati
áŀ¸ áŀĵáŀ¶
Ġáĥ¨ áĥĶáĥľ
à¯įà® °
áŀ· áŀĲ
on u
à¨² à¨¾
ĠáŀŁáŀĺ áŁĴáŀļáŁģáŀħ
Ù ½
à°¾à° ·
Ġw á»į
ĠÕ¥ ÖĢ
áĥĿáĥ ¨áĥĺ
ĠÎº Î¹
ĠáŀŁ áŁĨáŀİ
ĠáŀĽ áŁĴáŀĶ
ĠáĢĶ áĢ¬áĢ¸áĢ
Ġà´¨à´¿à´° àµįâĢį
à´¿à´ķàµįà´ķàµģà´¨àµįà´¨ à´¤àµį
ĠÐ³Ñį ÑĤÑĭ
ĠáĢ±áĢĢáĢº áĢ¬áĢĦáĢ¹áĢ¸áĢ
áĢĢáģł áĢ
»áĢĸáĢħáĢ¹áĢ ķáĢ«áĢĲáĢļáĢ¹
±áĢĽ áĢ¬
Î¯ Î´
à»ĥ àº«àºįà»Ī
ĠáŀļáŀĬáŁĴáŀĭ áŀĺáŀĵáŁĴáŀıáŁĴáŀļáŀ¸
Ġáŀĺáŀ¶áŀĵ áŀĢáŀ¶áŀļ
à¤ Ļ
Ġáŀĸ áŀ·áŀĴáŀ¸
Î½Î¿ Ïį
¡áĢ ķáĢ¹áĢ
ĻáĢ ĬáĢº
áĥĲ áĥĲ
áī ¦
à±ģà° Ł
Ġáŀĵ áŀ¸
×Ĳ ×ł
Ġàªª àª¹
à§ģ à¦®
Ġáŀĩ áŀ·áŀı
Ġà¨¹ à¨°
à´¨àµįà´¦ àµįà´°
áŁĴáŀĶ áŀĵáŁĴáŀĵ
Ġag 88
ç® ±
æĸ Ń
æķĻ èĤ²
åī §
å·² ç»ı
ä¾ Ŀ
à¹ī à¸¡
à¹Ģà¸Ĥ à¸²
à¸Ĺà¸µà¹Ī à¸ªà¸¸à¸Ķ
à¸¸ à¸Ļ
à¸¸ à¸ķ
à¸· à¸Ńà¸ĩ
à¸´ à¸¥
à¸£ à¸²à¸¢
Ġçİ °
Ġæ ¬
ĠåĽ ł
Ġå¤§åıĳ æŀģéĢŁ
Ġà¸ ł
Ġag88 çİ¯äºļ
éĶ Ģ
è¡ £
ç§ ¯
æŀ ģ
åıª ä¸º
å¿ Ĺ
å¸Ĥ åľº
ä½¿ çĶ¨
äº§ åĵģ
ä¸ Ķ
à¸ļ à¸ļ
à¸¥ à¸Ńà¸Ķ
ĠãĢĳãĢĲ ãĢĤ
Ġà¹ģà¸ ªà¸Ķà¸ĩ
Ġagçİ¯äºļ çĶµæ¸¸
Ġag èµĮåľº
éĩ ĩ
è¯ķ çİ©
çĽ ĳ
çĪ ±
ç¦ ı
æĪĳ ä»¬
æ´ ¾
åĪĨ æŀĲ
å¤ Ł
ä¾ ĭ
à¸ľ à¸¡
à¥Ĥ à¤°
ĠÐ±ÐµÐ» Ð°ÑĢÑĥ
Ð°Ð² Ð°ÑĨÑĮ
Ġà¨¸à¨° à¨ķà¨¾à¨°
áŁĴáŀĵ áŀ¼
Õ¡ÖĢÕ ¾
à²¦ à³įà²¦
ĠÎĳ Î½Î±
áŁĴáŀħ áŀ¶áŀŁáŁĭ
Ïĥ ÏĦÎ¬
áŁĴáŀ ĩ
© áĥĶáĥķ
à»Ģàº §
à°Ł à°¿
Ġà´ī à´ª
Ġà¨¨ à¨µ
à¤¤ à¥įà¤°
à« Į
à¯Īà®ķ à®³à¯į
Î¼ÎŃ Î½Î±
áĥĲáĥļáĥĺ áĥĲáĥľ
ĠÑıÐºÑĸ Ñı
áŁĦ áŀĵ
ĲáĢ ĬáĢ¹áĢ¸áĢ
ģáĢ²áĢ·áĢ ķáĢ«áĢĲáĢļáĢº
ĠáĢľáĢ°áĢ ŀáĢ¬áĢ¸áĢ
Ġà¨ķ à¨¿à¨¹à¨¾
ĠáĢĻáĢŃáĢĻ áĢŃáĢ
Ġà²İ à²Ĥà²¬
ĠáĢĻáĢ »
áŀļáŀĬáŁĴáŀĭ áŀĺáŀĵáŁĴáŀıáŁĴáŀļáŀ¸
áŀĺ áŁģ
à·Ļà¶± à·Ģà·ı
à·Ģ à·ĥ
ĠáĥĴ áĥĲáĥ¡
à¦¾à¦ ¥
áŀĶ áŀ¶áŀĽ
áŀı áŀĺáŁĴáŀĽáŁĥ
à¤¤ à¥ĭ
Î» ÎµÎ¯
ÖĢ Õ¡Õ´
ĠáĢħ áĢĢáĢ¬áĢ¸áĢ
Ġáŀļáŀ ľáŀ¶áŀĦ
Ġ.. áģĭ
áĤĬáĢ ĲáĢ¹áĢ
áĢ· áĢ¹áĢ
½áĢ±áĢ¸áĢ ĶáĢ
ĠáĬ ĵ
±áĢķ áĢ¸
¡ áĢŃáĢĻáĢ¹áĢ
ķáĢº áĢĢáĢ¹áĢ
ĵáĢ¬áĢ ĲáĢ¹áĢ
ĳ áĢ¯áĢ
Ġáŀķ áŁĴáŀıáŀĽáŁĭ
ĠáĥłáĥĿáĥĴ áĥĿáĥłáĥª
Ġà° ĵ
ĠÕĢ ÕĢ
ÂŃÂŃÂŃÂŃ ÂŃÂŃÂŃÂŃ
Õº Õ¥Õ½
ĲáĢ ĶáĢ¹áĢ¸áĢ
ī áĢº
Ġà¤Ĩ à¤«
Ġà¨¦ à©ģ
ĠáŀĲ áŁĴáŀĵáŀ¶áŀĢáŁĭ
àª¾àª ª
Ñı Ð»Ñĸ
Ïģ Ïħ
à®©à¯įà®± à¯ģ
Ġáŀı áŀ¶áŀļ
Ġáŀ¢ áŀĵáŁĴáŀıáŀļáŀĩáŀ¶áŀıáŀ·
Î¿Ïį Î¼Îµ
áŁĲ áŀĢ
à¶±à·Ĭ à¶ľà·ļ
Ġà´ī à´£àµįà´Ł
áŁĤáŀı áŁĴáŀļ
à²£ à³įà²£
Ġà°ª à°¾à°°
Ġáĥĵ áĥĺáĥĵ
áŁģáŀŁ áŁĬáŀ¸
Î¼ Î¿Ïħ
áŀŁáŀ¸áŀł áŀĵáŀ»
áŀĶ áŀĦáŁĭ
ĠáĢĶáĢ ĬáĢ¹áĢ¸áĢ
ĠáĢħáĢ ®áĢ¸áĢ
Ð» ÑĸÐ²
Ġà°ļà±ĩà° ¸à±įà°¤
Õ« Õ¡ÕµÕ«
áĪĪ áĪĿ
áŀĵáŁĴáŀĳáŀ¸ áŀļáŀĸ
áŀ½ áŀļáŀ
àºĻàº ¸
Î½Î± Î½
à¦ľ à¦¨
à³Ĩà²¯ à²¨à³įà²¨à³ģ
Ġn itori
à¤£ à¥Ģ
Ġiw adi
Ġdur o
áĥłáĥ £áĥļ
ĠáĢ±áĢĽ áĢ¸áĢ
áĢ¬áĢĦáĢ¹áĢ ·áĢ
»áĢĸáĢħáĢ¹áĢ ŀáĢĬáĢ¹
ĽáĢ½ áĢ¬áĢ¸áĢ
Ġaj inde
Ġag b
ķ áŀĽ
ĽáĢ ¼áĢĢáĢ¹áĢ
ĻáĤĪ áĢ±áĢĲáĢ¼
ĻáĢ½áĢ ´
Ķ áĢĢáĢ¹áĢ
ĲáĢŃáĢ¯ áĢĦáĢ¹áĢ¸
ĠáĢŀáĢ° áĤĶáĢ
ĠáĢĳ áĢ¯áĢĲáĢ¹áĢ
áĢĢáĢ ¼áĢ¬áĢ¸áĢ
à®² à¯Ī
Ġà·ĥ à·Ĵà¶º
Ġáŀĸ áŀ¶áŀĵáŁĭ
à«įàª° à«Ģ
ĠÏĩ Ïī
ĠÑŀ Ñģ
Ġáŀģ áŁĴáŀĺ
ĠáŀĢ áŁĨáŀİ
à¨¾à¨ ħ
Ġà°ī à°Ĥà°¡
àº²àºģ àº²àºĻàº
Ġà¤Ĺà¤° à¥ĩà¤ķà¥ĭ
Ġáŀ¢ áŁĦáŀĻ
Ġáŀ¢ áŀ¶áŀĵ
Ġà´® à´¾à´¤àµįà´°
ĠáĥĻ áĥĿáĥľ
áŀľáŀ· áŀŁ
Õ¡ÖĢÕ ª
áŀļ áŁĨ
ĠÎĶ Î·
Ïĩ Î±Î½
« à¸Ļ
Ġà¤® à¥ģà¤²
áŀĸáŁĴáŀľ áŀķáŁĴáŀŁáŀ¶áŀĻ
to o
ľ àº°àº¥
Ġàª¸ à«ģàª
áŀĴáŁĴáŀĦ áŀĵáŁĭ
ĠàºŃ àº»àºļ
ĠàºĤ àºŃàºĩàº
×Ļ×Ļ×¢ ×¨
Ġà¤ķ à¤¿à¤¯à¤¾
Ġáĭ¨ áĪĺ
² áĢĲáĢ
à¯Īà® ¨à¯įà®¤
à´£ à´®
à²¿à²Ĺà²³ à³ģ
Ġà¤ľ à¤¨
áŀıáŁĴáŀĲ áŀ·áŀĹáŀ¶áŀĸ
± áģĢáĢ
ĽáĢ² áĤķáĢ
ĻáĢ ĽáĢ½áĢŃáĢ
ķáĢ ¶áĢ¯áĢ
Ĭ áĢºáĢ¸
à¦ª à¦°
ÏĢ Î¬
Ġàºģàº ³
ĠáĥĹáĥ¥ áĥķáĥĶáĥľ
áŀģ áŁĴáŀĺáŁĤáŀļ
áŀģ áŀ·áŀı
ç³» ç»Ł
ç¡ ®
åĪ ·
åħį è´¹
å£ģ çº¸
à¸Ĺ à¸ĺ
à¸Ħ à¸·à¸Ń
à¸£ à¸£
ĠæŃ ¤
Ġåį Ĺ
ĠåĬ ł
Ġà¤¸ à¤°à¥įà¤µ
ĨáĢ ¼áĢ¸áĢ
ĠáĢĢ áĢº
áģ¿áĢ ĸ
áĢ¯áĢŃ áĢĢáĢ¹áĢ
±áĢĢ áĢºáĢ¬áĢ¹áĢ
¥áĢ ®áĢ¸
ĽáĢ ĲáĢ²áĢ·
ĬáĢ¹áĢ ·
ĨáĢ ĽáĢ¬áĢ
Ġà¶ļ à¶§
Ð½Ð° Ðµ
ĠáĢĲ áĢĦáĢ¹áĢ
ĠáĢĢáĢºáĢ ĶáĢ¹áĢ¸áĢĻáĢ¬áĢ
ĠáĢ±áĢ»áĢķ áĢ¬
ĠáĢ ĳáĢ¬áĢ¸áĢ
Ġàº ¢à»Īàº²àºĩ
Ĵ áĢ¹áĢ
áŀ»áŀĳáŁĴáŀĴáŀ Ł
Õ¡ÖĢÕ °
áŀº áŀļáŁī
àµĤ à´ª
Ġàº ¢
t áº¹
Î¾ Îµ
ģáĢ¼ áĢĦáĢ¹áĢ·áĢ
ĠáĢ¡áĢ ĵ
à»ģàº¥ à»īàº§
áŀº áŀĵ
ĵ áŀ¶áŀĤ
à¥įà¤ ¬
à·ħ à·Ķ
à°¯ à°Ĥ
Ġà§¨à§¦ à§§à§
à´¿à´¨ àµįâĢį
Ġn la
Ġà¦¸ à¦°
ĠáĢ ĲáĢ¬áĢ
à¨¾à¨¨ à¨ķ
ĠáŀĶ áŀĦ
Ġà´Ĩ à´µ
ĠI sa
áº¹k áº¹
Ġs oro
Ġàª® àª¾àªĤ
áģ½áĢ ĶáĢ¹áĢ
áģ ¼
áĢĢáĢ °áĢ
Ġi ho
ĠáŀĴáŀ ĺáŁĴáŀĺ
Ġe y
Î³ Ïī
áĥłáĥ £áĥ
á»į run
ad ara
Ġsur vey
Ġi ran
ĠÑĳ Ð½
Ġi pa
Ġà¨ľ à¨¿à¨¸
ĠáŀĢáŀ¶áŀļáŀ Ł
à¯ģà® ²
i we
Ġt áº¹
ÏĨ Îµ
±áĢ »áĢĻ
¡ áĢ¬áĢ
à²µ à²°à³ģ
Ġà°µ à±Ī
ļ áĢ±áĢ
ĶáĢ ħáĢ¹áĢ
ĳáĢ¬áĢ¸áĢ ķáĢ«áĢĲáĢļáĢ¹
Ĩ áĢ¯áĢ¶áĢ¸
Ġà¶´à·Ļ à¶»
à¦¾à¦¤ à§ĩ
áŁĴáŀĺáŀ¾ áŀŁ
àºĹ àº²àºĩ
áŁĴáŀĶ áŀ¼áŀĦ
Îº Î¹
Ġop in
Ġig ba
áī³ áīµ
à´¤àµįà´¤ à´¿à´¨àµį
ar tic
Ġà²® à²¨
ĠÕ¶Õ¥ÖĢÕ ¯
áĥķáĥĶáĥ §
ĠÐ² ÑĭÐº
áŀļáŀ ľ
Ġà®İà®© à¯įà®©
Ġàª® àª³
d á»į
Î»Î» Î±
áŀĺ áŀ·áŀıáŁĴáŀı
Ġdyn amic
Ġdynamic _
Ġdynamic_ artic
Ġdynamic_artic les
Ġà²¹à²¾à²Ĺ à³Ĥ
áŀķáŀĽ áŀ·áŀı
Ġà¤¸ à¤¹
Ġà°¤ à±Ĩ
×ŀ× ĳ
Ġà¶ļ à·Ĳ
áŀĶáŁĴáŀļáŀ Ļ
Ġà®µ à®¨à¯įà®¤
ĠáĢ¡áĢ ħáĢ
áĮ Ń
à¦¾à¦¨ à§ĩ
à°¿à° ļ
áŀıáŁĴáŀĲ áŀĶáŀĳ
Ġ Õ¡Õ½
Ïĥ Î¯Î±ÏĤ
áŀ ¬
ĠáŀŁáŀĦáŁĴáŀĤ áŀĺ
Ġáŀľ áŀ¸
à²¿à²¤ à³įà²¤à³ģ
Ġ×ŀ×¢ ×Ł
ĠÃ Į
Ġàª° àª¾àªľ
Ġà¨ľ à¨¾
ĠáŀĶáŁĴáŀļáŀĹ áŀĸ
áģĢáĢ ĶáĢ¹áĢ
ĻáĢ ®áĢ¸áĢ
Ġà®İà®© à¯įà®ª
Ļàµįà´ ķ
Ġà¥¨ à¥¦
Î¼Î¬ ÏĦÏīÎ½
Ġáŀĩ áŀ¾áŀĦ
Ġ900 ìĽĲ
à¤ı à¤ķà¥ĭ
ķáĢŃáĢ¯ áĢĦáĢºáĢ¸áĢ
Ġà¤ķà¤° à¤¨à¥ĩ
ĠáĥĴ áĥĲáĥĺ
àºµ à»Ī
Ġ×ĵ ×ķ×¨×ļ
Ġà¶» à·Ĳ
Ñı Ñŀ
Öħ ÖĢ
ĠÎ¼Îµ ÏĦÎ¬
áŁĴáŀľ áŀ¶áŀĵáŁĭ
àª£ à«Ģ
Ġà´® àµĭ
à°°à±įà° µ
à¤ ĩ
áŁĴáŀļáŀ Ľ
áĪĨ áĬĲ
Ġà¨® à©Į
çŁ ³
çľŁäºº æ¸¸æĪı
ç» ľ
ç ¢
åĽ Ń
åį ³
åĨ ľ
å»º è®¾
ä¿Ŀ çļĩ
Ġåĳ¨åħ¬è§£æ¢¦ å¤§åħ¨
Ġåĳ¨åħ¬è§£æ¢¦å¤§åħ¨ ä¹ĭ
Ġå¼ Ģ
è§£æ¢¦ åºĵ
çĶŁ äº§
çİ¯ å¢ĥ
åİ ĭ
åĨ µ
à¹ĥ à¸ļ
à¹Ģà¸ĩ à¸´à¸Ļ
à¸ķ à¸²à¸¡
à¸²à¸ Ń
à¤Ĥ à¤¬
Ġáĥ¡ áĥĲ
ĠÎ± ÏģÏĩ
à²¬ à²¹
Ġà´ª à´¿à´¨àµįà´¨
áŀŁáŁĴáŀŁ áŀĵáŁį
Ġà¶» à¶§
Õ¸ÖĤÕµ Õ¶
àº±àºĻàº ª
à§įà¦ Ľà§ĩ
ĠÑĸ Ñħ
à´¤àµįà´¤ à´¿à´²
áŀĸ áŀ¶áŀĢáŁĴáŀĻ
Ġà¤¯ à¤¸
à©ľ à©ĩ
Ġas ot
Ġasot ele
w on
à§ĩà¦ ¦
áŀĶ áŀ¾
à±Ĩ à°Ł
ĠáĥĶáĥłáĥĹ áĥĺ
Ĩ áĢĦáĢ¹áĢ
ħáĢ ¼áĢ¬
ĠáĤıáĢŃáĢ¯áĢĦáĢ¹áĢ ĦáĢ¶áĢ
Ġáģ¿áĢ ĻáĢŃáĢ³
ĠáĢĽáĢ ĶáĢº
ĠáĢĶáĢ¾áĢ ħáĢºáĢ
Îº Î»Î·
ĠâĤ ª
×ĸ ×©
ĸ àº´àºĩ
Ġæī Ģ
Ġæ ĭ
Ġä¹ Ŀ
èĩ ´
çŃ ĸ
çĻ¾ å®¶ä¹Ĳ
ç¬ ĳ
ç¦ »
æľ ª
å§ Ĳ
à¹ģà¸ ľ
à¸Ļà¸ ·
à¸Ĭ à¹Īà¸§à¸¢
à¤¾à¤Ĥà¤ļ à¥ĩ
à¯įà®ļ à®¿
ik un
Ġá»įpá»įlá»į pá»į
Ġwá»į ny
Ġwá»įny i
Ġr á»įrun
Ġpat aki
Ġà¦¹ à¦¯à¦¼
Ġor is
ĠÎł Îµ
à´¾à´¤ àµĨ
áŀĴáŀ ĺáŁĴáŀĺ
Ġjul á»į
Ġap k
am á»į
à¨® à©Ģ
à¶¸ à¶ļà·Ĭ
Ġàªª àª¡
áŀĳáŀĳáŀ½áŀĽ áŀĶáŀ¶áŀĵ
ĠáĢĢ áĢŃáĢ
Ġáº¹ á¹£á»į
Ġy áº¹
ĠÎķ Ïħ
Ġà¤¸ à¥ģà¤°
¬ áĥ§
áŀı áŀĶ
ĠáĢ±áĢ ķáĢ¸áĢ
áĢŃáĢ³ áĢĦáĢ¹áĢ
áĢŃáĢ³ áĢ¸
¶ áĢĲáĢ
ÑĤÑĢ ÑĭÐ¼
áĬ ©
áŀĢáŀĺáŁĴáŀ ĸáŀ»áŀĩ
áŀ¶áŀĽ áŀ¸
Î¼ÎŃ Î½Î·
ĠÕ¿ Õ¥Õ½
à¯ģà®® à¯įà®ª
Ġt áº¹láº¹
Ġpass w
Ġpassw ord
Ġor in
Ġà°Ńà°¾à°° à°¤
Ġáĥ« áĥĲáĥļáĥĺáĥĲáĥľ
Ġon iwe
Ġn kan
ÏĦ ÏģÎ±
áŀ¶áŀļáŀ ĩ
Ġà°° à°¾à°ľ
Ġà»ĥ àºĬà»ī
ŀáĢ¼ áĢ¬áĢ¸
ĻáĢ¼ áĢŃáĢ¯áĢ·
à¶±à·Ĭ à¶§
áŀ¶áŀĢ áŀļ
à«ĭ àª¨
ĠàºĿ àº¶àºģ
ĠàºĪ àºµàºĻ
éĺ ²
èµ ļ
åº ķ
å¤ į
à¸Ī à¸²à¸ģ
à¸ĩ à¸ļà¸Ńà¸¥
à¤ķ à¤°
ĠàºĦ àº»àºĻ
à´¸ àµįà´¤
ĠâĢĭ -
Ġáŀı áŁĨáŀİáŀ¶áŀĦ
ĠáŀĬáŀ¼áŀħ áŀĩáŀ¶
Ġà¨¹à©ĭ à¨°
Ġáĥ¥ áĥĲáĥļ
ĻáĢ ŁáĢ¯áĢĲáĢ¹áĢ
ĺ áĢ¯áĢĽáĢ¬áĢ¸áĢ
áŀł áŁĴáŀľ
Ġà²µà²¿à² ¶
Ġi phone
ĠK áº¹káº¹
Ġá»į má»į
ĸáĢŃáĢ¯ áĤĶáĢ
Ĩ áĢŃáĢ¯áĢ¸áĢ
Î»Î» Î·
ģáĢº áĢĢáĢ¹
ĢáĢ¼áĢ ®áĢ¸áĢ
Ġàºģ à»Īàº²àº§
Ġà°ªà±ģà°°à±ģà°· à±ģà°¡à±ģ
à°¸ à°Ĥ
Ġ×Ĵ ×¨
Ġàº® àº»àº¡
à»ĥ àºªà»Ī
ĠáĮ ī
ĠÎ¹ ÏĥÏĦÎ¿
ĠÐ¿ÑĢ Ð°Ð´
Ġå¤§åıĳ ä¸Ģ
Ġà¸§ à¸±à¸Ļà¸Ĺà¸µà¹Ī
çĶµåŃĲ æ¸¸æĪı
æĻ ®
æ ĵ
åŁ Ł
åĩ ı
à¹Ħà¸Ķà¹ī à¸£à¸±à¸ļ
à¹ĥà¸« à¸¡à¹Ī
à¤¾à¤¤ à¥Ģà¤²
ĠÕ¯Õ¡ÖĢ Õ¸Õ²
ĠáĢĢ áĢ¯áĢŃáĢļáĢ¹áĢ
ĠáĢ±áĢ ĳ
ĠáĢ ĻáĢºáĢ¬áĢ¸áĢ
ĠáĢ Ħ
áŀĮ áŀ¸
áĥĶáĥĹ áĥĺ
áŀħ áŀļáŀİáŁį
Ġsin u
Ġpar i
à»ĢàºĤ àº»àº²
Ġom i
àªĤàª §
ĠÎ±Ïħ ÏĦÎ®
Ġà°¸à°¿à°¨ à°¿à°®
Ġà¦¦ à§ĩà¦ĸ
à°¾à°Ĥà° ¤
à©°à¨ ¬
à²¿à²ķ à³Ĭà²Ĥà²¡
à·Ģ à¶±
Ð½Ð°Ñģ ÑĨÑĸ
ÏģÎ¹Ïĥ Ïĥ
áĥĲáĥļ áĥ£áĥłáĥĺ
áŀĢáŀ¶áŀļáŀ ĳ
à´ķàµįà´ķ àµģà´Ĥ
áŀĢáŀ¶áŀļáŀ ĩ
áŀ·áŀĲ áŀ»áŀĵ
à³ģ à²°
áŀ¯ áŀĦ
Ġè ¾
Ġåħ ¬
Ġà¸Ĺ à¸³
Ġà¤¯ à¥ĭà¤Ĺ
Ġáī ħ
à»Ģ àºĻàºµ
ĠÐº Ð°Ð»Ñĸ
Ġà®®à¯ģà® ©
Ġà¨ľ à¨¼
áĥł áĥĲ
¹ áŀĦ
ï¼ ģ
çļĦ ä¸Ģ
åģ ĩ
å· ´
å®ī åįĵ
å® ¾
ä¸į æĺ¯
à¹īà¸²à¸ ¡
à¹Īà¸§ à¸¡
Ġæ ĥ
Ġ äºļæ´²
éĩį è¦ģ
çĪ ·
æĸ¹ éĿ¢
åĲ §
åį ĥ
ä¹ °
à¸µà¸§ à¸´à¸§
à¸± à¸ª
Ġé ģ
Ġè® ©
éĵ ģ
èĮ ĥ
ç½ĳ é¡µ
æľ Ľ
æī ¹
åıªä¸º éĿŀ
åİĨ åı²
åĨ ł
å®ĺæĸ¹ ä¸ĭè½½
å ©
ä½ľ ä¸º
ä½ Ļ
äºº åĳĺ
äº Ĵ
à¸´ à¸ĺ
à¥ĭ à¤¨
à¶³ à·Ķ
Ġoj ula
Ġmon om
Ġmonom ono
Ġbe ere
à´¡ àµį
ĠA ti
ĠâĢĭâĢĭ âĢĭâĢĭâĢĭâĢĭâĢĭâĢĭâĢĭâĢĭ
Ġáŀľáŀ· áŀĴáŀ¸
áº¹ hin
iyan ju
Ġà¦ķ à¦®
àº¹ àºĩàº
Î´ ÏĮ
àª¿àª¯ àª¾
×Ļ×ĳ ×¢×¨
Ġá¹£i á¹£áº¹
Ġáŀļáŀ »
Ġfig ure
à°¯ à°¨
Ġmag n
ĠM imá»į
ĠIb Ã¹
áĥĶáĥ ®
ĠIbÃ¹ so
ĠD aj
ĠDaj jal
at áº¹
Ġáº¹ ya
Ġme ji
ĠáŀĶáŁĴáŀļáŀĢ áŀ¶áŀŁ
à²¿à²¤ à³įà²°
áŁģ áŀł
Ġmagn áº¹s
Ġmagnáº¹s ia
Ġbáº¹ ráº¹
ĠÎ± Ïģ
Ġam i
à°¾à° ¹
Ġa iye
ya wo
os ph
Ġá¹¢ ugbá»įn
Ġg be
áŁĢáŀĺ áŀļáŀ¶áŀĶ
áŀĶ áŀĦáŁĴáŀłáŀ¶áŀī
Ġáīł áĬł
àº¹ àºĩ
à¨¬ à¨°
Ġç Ń
ĠæĹ ł
ĠãĢĤ âĢĿ
Ġà¸£ à¸µà¸§à¸´à¸§
Ġà¸ Ŀ
Ġagäºļæ´² åĽ½éĻħ
æľĢæĸ° ç½ĳåĿĢ
æ¼ Ķ
åĵģ çīĮ
å¾ Ģ
å¤ĩçĶ¨ ç½ĳåĿĢ
à¸Ń à¸Ńà¸ģà¸
Ġï¼ģ âĢĿ
Ġé ļ
Ġèĩ ª
Ġçİ¯äºļ å¹³åı°
Ġag æĹĹèĪ°
éľĢ è¦ģ
ç± ³
æķ ĳ
å¤§åıĳ å¿«ä¸ī
à¹Ģà¸¡ à¸·à¹Īà¸Ń
à¸¹ à¸ĩ
à¥ĭ à¤°
ĠÕ© Õ¥
àª¿ àª°
Ġáĥ¬ áĥĲáĥłáĥĽ
Ġà²¨ à²¿à²®
àº¸ àºļ
à·Ķà·Ģ à·ļ
Ġfo onu
áŀĲ áŁĴáŀĽáŁĥ
ĠG b
Ġà¦ħ à¦Ń
áŀĢáŀĺáŁĴáŀĺ áŀ¶áŀĴáŀ·
ÏĦÎ¹ Ïĥ
áŀĢ áŀ¶áŀıáŁĭ
à®¾à® ļ
uj ara
Ġà°ķ à°¾à°Ĥà°Ĺ
Ġà°¨à±ģà°Ĥà° ¡à°¿
ÐºÐ° Ñı
h un
à´¾à´Ł àµįà´Ł
à¨¿à©°à¨¦ à¨°
Ġà¨ľ à©ĩ
àº²àº «
Ġà´ķ à´¾à´£
à¤¾à¤Ĥà¤ļ à¤¾
el ujara
áŀ· áŀīáŁĴáŀħ
à·Ģ à·Ĭ
áŀ¶áŀļ áŀ¶áŁĨáŀĦ
ĠÎ¿ÏĢÎ¿ Î¯
Ġá¹£ ugbá»įn
Ġp Ã©
à¦¨ à¦¿
àª¿ àªĤàªĹ
ĠÕ Ķ
Ġà®ª à¯Ĩà®°
ÑĸÐ½ Ñĭ
áŀ¢ áŀĤáŁĴáŀĤ
Ġà¤¦ à¤¿à¤¨
ĬáŁĴáŀĭ áŀ¶áŀĵ
ĠáŁ¡ áŁ©
ĠáŀĶáŁĴáŀļáŀĴáŀ¶áŀĵ áŀ¶áŀĴáŀ·áŀĶáŀıáŀ¸
áĢ¯áĢ ĽáĢ¬áĢ¸
¦ áĢ¸
ĠáŀĶáŁĴáŀļáŀ ł
à²¦ à²¿à²Ĥà²¦
¡áĢ ±áĢ¬áĢĦáĢºáĢ
à¶° à·ı
ĠáĥĽ áĥĲáĥľ
Ľàº°àº Ĺ
à©±à¨ ¡
ÏģÎ¹ÏĥÏĥ ÏĮÏĦÎµ
Ġà¤ķ à¤¹
à´¾à´¨ à´Ĥ
ŀ áĢ¯áĢ
Ľ àºµ
ĠáŀĶáŁĴáŀļ áŀ¶áŀĢáŁĭ
×¢ ×ĺ
ĠÕ ¼
ħáĢ ķáĢ¹áĢ
ģáĢ ĲáĢ¹áĢ
ĠáĤıáĢŃáĢ¯áĢĦáĢ¹áĢ ĦáĢ¶
ĠáĢŀáĢ° áĢ·áĢ
Ñĥ ÑĨÑĮ
à¤¾à¤ ¶
ĠáŀĴ áŁĴáŀĽáŀ¶áŀĢáŁĭ
ĠáĢ¸ áĢ
ĠáĢ Ĭ
áģ Ĭ
Ġà°ķà°¾à°Ĥà°Ĺ à±įà°°
áĪĪ áīµ
¿ áĢĦ
ĻáĢ¼ áĢĦáĢºáĢ
Ġà°ķ à°¾à°¨
ĠáŀĤ áŀ·áŀı
à³ģà²¤à³įà²¤ à²¾à²°à³Ĩ
Ġà´ķ à´°
Ġà¦¬à¦² à§ĩà¦¨
Õº Õ¡Õ¶
à¦¨ à¦¾à¦°
ĠÏĢ ÏģÏī
àªµ à«ĩ
Ġáŀ¢áŀĦáŁĴáŀĢ áŀļ
áŀļáŀ Ĭ
Ġit atáº¹
Ġitatáº¹ táº¹
ĠDani el
ĠA la
áº¹ ráº¹
áĥľ áĥĺ
Ġà¨¦ à©ĭ
Ġà¶¶ à·ľ
Ġà´¶ àµįà´¯
àµģà´® à´¾à´¯à´¿
ey i
Ġk ia
Ġgb iyanju
à®© à®°à¯į
Ġg idi
ĠÎĺ Îµ
Ïĥ Ïĩ
à«ĩàª² àª¾
Ġaj es
ĠÕ¨Õ¶ Õ¤
ķ áĢĦáĢ¹
ĨáĢ ĶáĢ¹áĢ¸áĢ
ĨáĢ ±áĢ¸áĢ
Ġajes eku
ĠE yi
Ġà°ª à°°à°¿à°
Ø¦ ÙĬ
ag bo
Ġá»į d
ĠàºŃ àº²
áŀĺáŀĵ áŁĴáŀļáŁĴáŀıáŀ¸
áŀĶ áŀ¶áŀıáŁĭ
Ġéĩĳ æ²Ļ
ĠèĢ ģ
Ġå¤§åıĳ äºĮ
Ġag äºļ
è± ¡
è¡Į ä¸ļ
ç» ´
æĭ ©
åĿ Ĺ
åı¯ èĥ½
åįģ åĪĨ
åĪĨéĴŁ æĹ¶æĹ¶å½©
åĩ »
åħ ´
à¹ĥà¸«à¸į à¹Ī
à¹ĥ à¸Ļà¹Ģà¸
à¹Ģà¸ ¨
à¸ĵ à¸´à¸ķ
à¸ª à¸µ
à¸£ à¸ģà¸
à¥įà¤¯à¤¾à¤ļ à¥ĩ
à»ľ à»īàº²àº
à¤Ľ à¤¿
Ðº Ð°Ð¹
áŀĤ áŀİ
Ġáĥ¡áĥĲáĥ¥ áĥĽ
áŀĢ áŁĴáŀĽ
Ġà² ĸ
ĠÏĨ Î¿
áĥļ áĥĲ
áŀ»áŀĶ áŁĴáŀĶáŀĵáŁĴáŀĵ
àµĩà´° à´³
àµĢ à´°
áī° áĬĽ
Ġà¤¹ à¤®
ĠáĢŀáĢ ®áĢ
Ġáĥł áĥĲáĥª
ĠÐ¿ÑĢ Ñĭ
ĠáĢķáĢ ĳáĢ
×Ļ×¡ ×ĺ
áŀ¶áŀĵ áŁģáŁĩ
ĠÏĢ ÏīÏĤ
à¨ ī
Õ«Õ º
à¥ĩà¤ Ĺ
ĺ áŀ¼áŀĽ
à¦¿à¦ ľ
ĠáŀļáŀĻáŁĪ áŀĸáŁģáŀĽ
à¯Īà® ªà¯į
à»Ħ àºĬ
Ġà²ķ à³Ĥ
à° ¥
Ġáŀĸ áŀ·áŀŁáŁģáŀŁ
ĠÎº Î¿
Ġàª¨ àª¹
Ġt umo
à´¾à´ ¶
ĠáŀĶáŁĴáŀļáŀĸ áŁĲáŀĵáŁĴáŀĴ
Ġt rib
Ġn wá»įn
Ġit an
à»ģàº ķ
Ġà¨¸ à¨Ń
Ġil u
ĠáĢ±áĢĲáĢ¼ áĤĶáĢ
áĢĢáĢ¼áĢ ±áĢ¬áĢĦáĢºáĢ¸áĢ
Ġáŀĩ áŀ»áŁĨ
ĠÎ ¯
à°® à±ģ
áĥĶáĥĳ áĥĸáĥĶ
Ġà²¦ à²¿à²¨
c ap
cap tion
Ġfig caption
à±įà°Ł à±įà°°
Õ¡Õ¾ Õ¡ÖĢ
ĠáŀģáŁĤ áŀıáŀ»áŀĽ
Ġáŀ¢ áŀīáŁĴáŀĩáŀ¾áŀī
áŁĴáŀļáŀ ħ
à·ĥà·Ĭ à·ĥ
áŁĴáŀ Ĺ
Ñı ÑĨ
à«ĭàª ľ
à¤¿à¤ķ à¤¾
à¦¾à¦ľ à¦¾à¦°
à¶¸ à¶«
Ġid ogo
áŀŁáŁĴáŀŁ áŁĬáŀ¸
Ġà°ħ à°§
Ġgbá»į dá»į
ÑĤ Ð³Ð°Ð½
Ò· Ð¸Ðº
ĠÑĢ Ð´
Ð»Ð°ÑĢ Ð½Ð¸
Ð¸Ð¼ Ð¸Ð·
Ñĥ ÒĽ
ÏģÎŃ ÏĢÎµÎ¹
à²ķ à²°
Ġagb ara
Ġà´ĩ à´µ
áŀŁáŀĺ áŁĴáŀļáŁģáŀħ
Ñĩ ÑĭÐ½
ĠF un
Õ¸ÖĢÕ °
áŀŁ áŀĦáŁĴáŀĥ
½áĢ±áĢ¸áĢĶáĢ ½áĢ±áĢ¸áĢ
á»į wá»į
¡áĢ ĶáĢ
áŀľáŀ·áŀŁ áŁĲáŀĻ
Ġà§ «
Ġà´¤à´¨àµįà´¨ àµĨ
Ð½Ñĸ ÑĨ
ŀáĢ° áĢ±áĢĲáĢ¼
ŀáĢ Ĳ
áŀļáŀĢ áŁĴáŀŁ
³ à¸¥à¸±à¸ĩ
ĠçĶ Ł
Ġç Ī
ĠãĢģ ãĢĤ
Ġà¤Ĩ à¤®
ĿáĢ ĶáĢºáĢ
áĥĲáĥ §
à¦ ŀ
áŀĶ áŁĬ
Ġà¤¯ à¥ĭ
w u
àºĻà»ĢàºĬ àº·à»ĪàºŃ
Ð¸Ð´ Ð°Ð³Ð¸
ĠÐºÑŀ ÑĢ
ĠÐ¢Ð¾ Ò·Ð¸Ðº
ĠÑĩ Ð¸ÒĽ
ĠÒ ¶
ĠáĭĪ áĭ°
àºĻàº Ń
à´¤àµįà´¤ à´¿àµ½
éĻ į
é ¸
èĤ ¡
è¿ĺ æĺ¯
çº ª
ç¬¬ ä¸Ģ
æĤ ¨
åį ı
åĪĨéĴŁ pk10
å® ¡
å¦ ĩ
à¹Ģà¸ŀ à¸´à¹Īà¸¡
à¹Ģà¸¥ à¹Īà¸Ļ
à¸« à¸£à¸·à¸Ń
à¸ ĳ
à¤¾à¤® à¥ģà¤³à¥ĩ
Ġà¨¸ à¨¾à¨¹
ĠÎ½ Î¿
Ġà²¬ à²³
Õ¡Õ¯ Öģ
Ġà°® à±Ĥà°
áŀĵáŁĴáŀĳáŀ¸áŀļáŀĸ áŁģáŀĳáŁĴáŀĻ
áŀĬáŀ¹áŀĦ áŀĲáŀ¶
osph at
osphat id
ik eyi
Ġsi waju
Ġoris un
à¨ķ à¨¤
ĠÐĳÐµÐ»Ð°ÑĢÑĥÑģ Ñĸ
Ð°Ð¼ Ñĥ
áŀ» áŀĳáŁĴáŀĴ
ľáĢ½áĢº áĢĦáĢ¹
ĽáĢ ķáĢ«áĢĲáĢļáĢ¹
ĻáĢļ áĢ·áĢº
×Ĵ ×Ł
Ġi yawo
Ġi we
Ĳ áģ¢áĢºáĢ
ĠáĢĢáĢ »
áŀ· áŀĳ
àª¿àª Ł
Î¾ Î¹
áĥ®áĥĿáĥķ áĥł
Ġà®ĩ à®Ł
áŀ¶áŀľáŀ» áŀĴáŀ
ĠáŁ¡ áŁ¡
ĠáŀĹ áŁĴáŀīáŁĢáŀľ
Ġgb Ãł
ĠáĢ¡áĢ ĸáĢ¼áĢ²
áĢ¯áĢ ķáĢº
ĠÕ ĵ
ĠáŀĶ áŁĴáŀļáŀ¶áŀĶáŁĭ
Ġà°ª à°°
ĠáŀĶ áŁĬ
Ġà¦ı à¦¸
à¨¾à¨ī à¨£
àºĻ àº±àºģàº
Ð°Ñģ ÑĨÑĮ
ľ áĢĦáĢºáĢ¸áĢ
Ġáŀĩ áŀ¶áŀĸ
Ð°Ñĳ ÑĤÐ³Ð°Ð½
Ð»Ð¸ Ð³Ð¸
ĠÑģ Ñŀ
Ð»Ð°ÑĢ Ð¸Ð½Ð¸
Ð»Ð¸ Ð±
ĠÒ³ Ð°ÑĢ
ĠÕ¥ Õ´
à¥į âĢį
Ġà¤¸ à¤ķ
Ġà·ĥ à¶¸à·ı
ĠáŀĤ áŁĴáŀļ
Õ¿ÖĢ Õ¸Õ¶
áĥ Ń
Ġà¦¬à¦¾à¦Ĥà¦² à¦¾à¦¦à§ĩà¦¶
à§ģ à¦¤
ĠEle yi
áº¹ g
osphatid yl
ig ba
ĶáĢ¾ áĢĦáĢ·áĢºáĢ
f ani
ĠáŀĤ áŀĺáŁĴáŀļáŁĦáŀĦ
Ġtit un
áŁĨáŀĵ áŀ·áŀı
Ġt atu
Ġn ilo
ÎµÎ¯ ÏĤ
à²¿à² ľ
à±įà°¯ à°Ĥ
àº½ àºĩàº
Õ¡Õµ Õ¡Öģ
áŀĽ áŀĢáŁĭ
Ġk osi
Ġi yanjáº¹
Ġey ikeyi
Ġd aju
à¤° à¥įà¤¯
áŀļáŀ¾ áŀŁ
Ġay elujara
áŀĤ áŀ·áŀı
à©°à¨ §
Ġà¶ºà·Ķ à¶Ńà·Ķ
Ġ×ĲÖ· ×ĸ
×¢ ×ľ
à«Ģ àª¨
Ġan fani
áŀ¶áŁĨáŀĳ áŁĴáŀļ
ĠT áº¹s
ĠTáº¹s al
áº¹ li
ser ine
f áº¹
Ġáĥŀ áĥĺáĥł
à²¿à²¯ à²²à³įà²²à²¿
áŀ¶áŀĩ áŀ¸áŀľ
ĠÏĢÎµ ÏģÎ¯
áŀ¢ áŀ¶áŀŁ
Ġtr c
Ġsh ipping
Ú ³
Õ¡Õ· Õ¿
ĠáŀŁáŁģáŀħáŀĢ áŁĴáŀıáŀ¸
ÑĤÐ¸ÑĢ Ð¸ÑĪ
Ð´Ð°Ð³ Ð¸
Ġà¦¹à§Ł à§ĩà¦Ľà§ĩ
Ġáŀļáŀ Ľ
Ġà®¨ à®¿à®±
Ð¼ Ð¾ÒĽ
Ðº Ð¸Ð»
à´¾à´° à´Ĥ
àº· à»īàºŃ
ĠÐ°Ð´ Ð·
Ġáŀķ áŁĴáŀı
à±įà°Ł à±į
¸ åĪ©
Ġæ ĳ
Ġåı ĳ
Ġà¹Ģà¸¡ à¸·à¹Īà¸Ń
è§ ī
è ŀ
à¹Īà¸²à¸ §
à¸²à¸ ©
Ĺ à¸²à¸ĩ
Ġé Ľ
Ġæ¯ ı
ĠPr ick
ĠPrick der
ĠPrickder m
ĠB urn
ĠBurn ol
éŁ ³
é¢ ĳ
èŃ ¦
èĢģ èĻİ
è¾ ĵ
è¯ Ħ
æŀ Ĺ
æľĢæĸ°çĻ»å½ķ åľ°åĿĢ
æĭ Ľ
æĭ ħ
æ´» åĬ¨
åĢ Ļ
å° ¼
å¤ ±
ä¼ Ł
à¹Ĥ à¸Ļ
à¹ģà¸« à¹Īà¸ĩ
à¸¸à¸ķ à¸ļà¸Ńà¸¥
à¸· à¹īà¸Ļà¸
à¸± à¹Īà¸§
à¥Ģ à¤ľ
Ġàª²à«ĭàªķ à«ĭ
ĠáŀĶáŁĴáŀļáŀ ĺáŀ¶áŀİ
à¨¾à¨¨ à©Ĥà©°
Ġáŀĵ áŀ¶
Ġ Õ¡ÖĢÕ¤
áĥĺáĥļ áĥĺáĥ¡
at á»į
Ġáº¹ ká»į
Ġáŀĳ áŀ·áŀī
Ġà¦¨ à¦¿à§Łà§ĩ
Ġpir ater
Ġm áº¹
ĠáŀĬáŀ¼áŀħ áŁĴáŀĵáŁģáŁĩ
ĳáĢ² áĢĢ
ĢáĢ ±áĢĲáĢ¬áĢ·
ĠáĢĸ áĢ¯áĢĶáĢ¹áĢ¸áĢ
ĠáĢĲ áĢĢáĢ
Ġà²¨ à²®à³įà²®
ĠéĢ ļ
Ġç «
ĠæĿ ¥
Ġå¿ ĥ
Ġå ģ
Ġà¸Ĥ à¸Ńà¸ĩ
Ġà¤¯ à¥ĩà¤
àº°àº ª
ĠáĢĢ áĢ¬áĢ
áĪµ áīµ
à²¿à²Ł à³įà²Ł
à´¦ àµįà´¯
Ġà¶½ à¶¶à·ı
ĠáŀĢáŀ¼áŀļáŁī áŁģ
ĠáŀĢáŀ¶áŀļáŀ ħ
ĠáĢ¡áĢ ģáĢºáĢŃáĢĶáĢ¹áĢ
áĢĢáĢ ±áĢ¬áĢĦáĢºáĢ¸áĢ
Ð¸Ñı ÑĤÐ¸
Õ¡ÖĢ Õ¡Õ¯
Ġà²¬ à²Ĥà²¦
áĥļ áĥĶáĥĳáĥĲ
ÑĢ Ñĭ
à¦ ī
Ġáŀ¢ áŀ¶áŀł
Ġà®ļà¯Ĩà®¯ à¯įà®¯
Î»Î¯ Î¿Ïħ
ĠÎĶ Î¹Î±
éĻ ©
é¦ Ĩ
æī ¿
æī ¾
åŃ ©
åī ¯
å½©ç¥¨ ç½ĳ
å¤ ®
à¹Īà¸Ń à¸Ļ
à¹Ī à¸²à¸£
à¹Ģà¸Ľà¹ĩà¸Ļà¸ ª
à¸ģà¸²à¸£ à¸ª
à¸ģà¸± à¸Ļà¸
à¸¸ à¸ģ
à¥ģà¤ £
Ġà¨ķ à©Ī
à°· à±įà°Ł
Î» Î¿Ïħ
à²¾à²¨ à³ģ
ĠÕ¯ Õ¡Õ´
áŁĴáŀĦ áŀ¶áŀħ
Ê ²
±áĢ¬ áĢĦáĢºáĢ¸
áŁĨáŀİ áŀĦ
Î´ Î¹Î¬
Ġàªµ à«įàª¯
Ġà´¤ àµĨ
àº§àº½àºĶ àºĻàº²àº¡
à¤¾à¤Ĥ à¤Ĺ
Ġà¤ķ à¤®
Ġà²ħ à²§
àº§ à»Īàº²
ĠÐ¿ Ð°Ñĩ
áŁģáŀģ áŀ¶áŀĦ
áŁģ áŀĵ
à¦ ¯
Ġk Ã²
áŀŁ áŀĺáŁĴáŀĶ
×ķ×ŀ×¢ ×Ł
ĠÐ¼ Ð°ÑĬ
à°¿à° Ĺà°¾
ĠÎ´ Î¹Îº
áĥĺáĥĵ áĥĲ
àµĩà´ ĸ
à©Ģà¨ µ
áŀĽ áŁĴáŀĺáŀ¾áŀŁ
ĠáĪ ³
ĶáĢ¾áĢ ħáĢº
áŀļáŀ Ĥ
à¶® à·ı
Ð¾Ð² Ñĭ
Ġà®ķ à®°
áŀĺáŁī áŀ¼áŀıáŀ¼
áŀķ áŁĴáŀĽáŁĤ
àªĤ àªķ
áŀ·áŀŁ áŀ»áŀģ
· áŀĻ
ĠÎ ĸ
Ġà²ħ à²¨
áĥª áĥĲ
ĠâĢĭ )
ĠáŁ¢ áŁ¥
ĠáŀŁáŀĺáŁĴáŀĬ áŁģáŀħ
Ġáŀĸáŀ¶áŀĢáŁĭáŀĸ áŁĲáŀĵáŁĴáŀĴ
ĠáŀĶáŁĴáŀļáŀĢ áŀ½áŀı
à´¾à´ ·
Ġáŀĩáŀ¶áŀĸ áŀ·áŀŁáŁģáŀŁ
ĳáĢ ķáĢ¹áĢ
ĲáĢ ĬáĢ¹áĢ
ĢáĢ ħáĢ¬áĢ¸áĢ
Ïĩ Î¿
à¦¨à§įà¦ §
ĠáŀģáŁĤáŀıáŀ»áŀĽ áŀ¶
Ġà¤¥ à¤¿à¤¯à¥ĭ
ĠáŀĢ áŁĴáŀĺáŁģáŀĦ
à°¿à°Ĥà°ļ à°¾à°°à±ģ
» àºĻ
Ġáģģáģ Ĥ
Ð°Ð³ Ð¾
® àº½àºĻàº
Ġáŀ¢ áŀ¶áŀĩáŁĴáŀīáŀ¶áŀĴáŀ
ĠáĢŀáĢ Ļáģ¼áĢ
ĠáĢĻáĢ ĶáĢ¹áĢ
ĠáĢ±áĢ ħ
áģ¾áĢĢáĢĬáĢ¹áĢ ·áĢ
ľáĢ»áĢ ¾
Ú Į
áŁĦáŀĤ áŀĩáŁĲáŀĻ
ÏĦÎµ Î¯
Ð»Ð°ÑĢ Ð½Ð¸Ð½Ð³
ĠÐ´Ð°Ð² Ð»Ð°ÑĤ
à«ĭ àª°à«įàª
áĬ ®
áŀŁ áŁĴáŀĬ
ĠÐ¢Ð¾Ò·Ð¸Ðº Ð¸ÑģÑĤÐ¾Ð½
Ð¸Ñĩ Ð°
Ð° Ð¸
à¯ģà®ķ à¯į
áŀľ áŀ¸
ĠáĥĴ áĥĲáĥķ
Ġà§ ª
« àº¡
Ġà»ģàº ģ
×§ ×¡
ĠàºĪ àº²àºģ
à¤¾à¤ ±
áŀĺáŁĴáŀĹ áŁĪ
à¦ª à§ģà¦°
áŀĸ áŁģáŀī
Ġà¨ªà¨¹ à¨¿à¨²
à¦¿à¦ Ľ
à³ģ à²ķ
à»Ŀ àº²àºį
à´ª àµįà´°
à°¬ à°¡
áĥľ áĥĿáĥĳ
áŀķ áŁĴáŀıáŀĽáŁĭ
ĽáĢ½ áĢĦáĢ¹
Ľ áĢĦáĢºáĢ¸áĢ
ÏĦ Ïİ
ĠÕ´ Õ¡ÖĢÕ¤
Ġcod es
osphatidyl serine
ĠÃł wá»įn
à¤¿à¤¯ à¥ĭà¤Ĥ
Ġà¶ļà·ľ à¶§
áŀĶ áŀİáŁĴáŀıáŀ¶áŀĽ
Ġà´İ à´Ĥ
à®¾à®° à¯įà®ķà®³à¯į
àª¤ à«ĭ
Ġà´ªàµĭ à´²
ÎĳÎ ¡
ĠÏĥÏĦ Î¿ÏħÏĤ
áŀĵ áŀĤáŀļáŀĶáŀ¶áŀĽ
áŀĳáŁĴáŀĴáŀ ķáŀĽ
ķáĢ±áĢ« áĢĦáĢºáĢ¸áĢ
áŀıáŁĴáŀĲ áŀ»
×Ļ×© ×¢
áĥĲáĥĿ áĥĳ
ĠÐ¼ Ñĭ
Ġà²İ à²²à³įà²²
Ġà¶¯ à·Ĳà¶±
ĠÕ¡Õµ Õ¤
áŀīáŁĴáŀĩ áŀ¼áŀĵ
àºĽ àº°à»ĢàºĹàºĶ
Ġà¤¨à¥ĩà¤ª à¤¾à¤²à¥Ģ
à¥ Ń
à¤¹à¤° à¥Ĥ
ÑĨÑĭ Ñĸ
ĲáĢ½ áĢĦáĢºáĢ
ĠÎµÎ½ Ïİ
áŀĩ áŀ½áŀĶ
áŀĩ áŀ¶áŀĢ
Ġà¨µ à¨°
Ġàªª à«ĭàª¤
áĪª áĭ«
Ĥ à¸¶à¹īà¸Ļ
Ġéķ ¿
Ġé Ĺ
Ġé ĥ½
Ġçİ¯äºļ çĶµæ¸¸
Ġæ Į
ĠåĮ Ĺ
Ġå ĵ
Ġäºļæ¸¸ å®ĺç½ĳ
Ġà¸ģ à¹ĩ
Ġà¤ķ à¤¾à¤¹à¥Ģ
áŀĢáŀ¶áŀļáŀ ĵ
à¦¾à¦² à§ĩ
à¶© à·Ķ
Ġáĥķ áĥĶáĥł
Ġà´ªà´° à´¿à´
Ġ Õ¡ÖĢÕ¿
áŀ¸ áŀĢ
àºį àº´àºĩ
Ïį ÏĢ
Ġà²Ĩà²¦ à²°à³Ĩ
àº· àºļ
ĠÑı Ðµ
Ġà®® à¯Ĥ
áĥĺáĥ¨ áĥķ
ĨáĢ ®áĢ¸áĢ
áŀ¶áŀļáŀ Ł
àº±àºĩàº ª
ĠáŀŁáŀĺ áŀ¶áŀĩáŀ·áŀĢ
ĠáŀŁáŀ· áŀĳáŁĴáŀĴáŀ·
à«Ģ àªµ
Ġáŀļáŀ ·
ĠáŀĻ áŀĢáŁĴáŀŁ
Ġáŀĸ áŁĴáŀĻ
ĠÐ³ ÑĮ
ĠÐ² Ð°Ð·
ħáģ ¥
Ġáģ¿áĢķáĢ ®áĢ¸áĢ
Ġáģ Ī
ÏĥÎ¹ Î¼Î¿
bet 36
Ġà¤¥ à¤¾
áĥĿáĥ ĸ
à·Ĳà¶± à·Ĵ
à´¿à´ļàµįà´ļ à´¤àµį
à°¾à° ¶
ĠáĢŀ áĢŃáĢ¯áĢ·áĢ
ĠÑĤÐ¾Ð»ÑĮ ÐºÑĸ
Õ«Õ ¦
ĠÒ³ Ð¾Ð»
à¦¿à¦ķ à§ĩ
ĠáĥĴ áĥĲ
ĠáŀĶáŁĴáŀļáŀŁ áŀ·áŀĵ
à²¸ à³įà²¤
àµ º
àºª à»īàº²àºĩ
Or der
Ø¡ Ùİ
Ġàª¨ à«ĩ
Ġà°ī à°Ĥà°Ł
ÏĥÎºÎµ Ïħ
Ġà¤¹à¥ĭ à¤¤à¥ĩ
ĠØª ÙĬ
áĥķ áĥĲáĥľ
à®® à®¾à®©
à¶±à·Ĭ à¶°
Ô±Õ Ĩ
ĠÕĢÕ¡ÕµÕ¡Õ½Õ¿ Õ¡Õ¶Õ«
à¨Ĺ à¨°
Õ ³
à²°à³įà² ·
ĠáŀĶáŁĴáŀļáŀ ħáŀ¶áŁĨ
¸ à»Īàº¡
Ðº Ð¾ÑĢ
Ġáŀĳ áŀŁáŁĴáŀŁáŀĵ
Ĭ áĭľ
áĥĶáĥ ¤
Ġà¨ħ à¨¸
Ġáŀħ áŁĦáŀĳ
ÏĦ Î¿Ïħ
Ñį ÑĤÐ°
à«įàª ¨
ĠÒĽÐ¸Ð» Ð¸ÑĪ
ĠÐº ÑĥÐ½
ĠáŀĢ áŀ»áŁĨ
Ī àº³
Ġ×ł ×Ĳ
ĠáŀĢ áŀ¹áŀĺ
áŁĴáŀļáŀ½ áŀŁáŀ¶áŀļáŀ
áŀŁ áŁĴáŀ¢áŀ¶áŀı
áŀķáŀĦ áŀĬáŁĤáŀļ
Ïģ ÏİÎ½
à§ģ à¦¬
áŀĶáŁĴáŀļáŀ ľ
à«ģàª ľ
áĥĲáĥķ áĥĺ
Ġà²Ĺ à³ģ
li x
f lix
ĠÏĢÎ¿Î» Î¹
áŀı áŁĨáŀĶáŀĵáŁĭ
Ġà¤® à¥ģ
Ñĭ Ñŀ
Ġàª® à«ĩàª
Ġàºļ àº±àºĻàºĶàº²
Õ¡Õ ³
Ġà´¨ à´¿à´²
ĠàºĻ àº²
ĠàºĹ à»Īàº²àºĻàº
Ġà¶Ń à¶»
ĠáĥĴáĥĿáĥĴ áĥĿáĥľ
èİ ·
èį ī
èĥ½ åĬĽ
çķ ¥
çİ° åľº
ç» Ĩ
æĻ ļ
æĸ¹ æ³ķ
åı ¤
åĪ° äºĨ
åĪ Ŀ
åĪ »
å¤§ çļĦ
ä¸ª äºº
à¹Ģà¸¥à¸·à¸Ń à¸Ķ
à¸´à¸ĺ à¸µ
à¸«à¸¡ à¸Ķ
Ġçī ¹
ĠæŃ £
Ġä¸ ¤
Ġà¹ģà¸ªà¸Ķà¸ĩ à¸Ħà¸§à¸²à¸¡à¸Ħà¸´à¸Ķà¹Ģà¸«à¹ĩà¸Ļ
Ġà¤Ŀ à¤¾à¤²
áĥĿáĥ ŀ
Ð»Ð¾ Ò³
à©±à¨ ľ
ĠÚ ī
ÏĦ Î¿ÏħÏģÎ³
ĠÑŀ ÑĢ
ĠÐ¼ Ð°Ò³
áŀı áŀ¶áŀļ
áŀĬ áŀ¾áŀĺ
Ġàºģ àº±àºĻ
ÏĢÎ¿Ïħ ÏģÎ³
à»Īàº²àºĻàº ¡
Î½ ÏĮ
à³ĩ à²Ł
Ġà¤¸à¥įà¤ª à¤°à¥įà¤§
Ġà¦Ľ à¦¿à¦²
áŀĪ áŀ¾
àµģà´®àµįà´ª àµĭ
ĠÑĸ Ð¼
ĠáĢĻáĢ ĽáĢ½áĢŃáĢ
ĠáĢĻ áĢĦáĢ¹áĢ¸áĢ
áĢŃáĢ¯ áĢ¯
áĢ±áĢ ľ
¼áĢ ĻáĢ¹áĢ¸áĢ
®áĢ ĴáĢ®áĢ
Ġà¨ĸ à©ĩ
Ĉ Ĉ
éĶģ å±ı
è· Ł
è¯ »
ç½ Ĺ
æł ¸
æ¼ ı
æ±¡æ°´å¤ĦçĲĨ è®¾å¤ĩ
åŃ £
åĸ Ħ
åħ µ
å¦Ĥ ä½ķ
å¥ Ĺ
ä¹ ħ
ä¸Ĭ çļĦ
à¹Ģà¸Ľà¸¥ à¸µà¹Īà¸¢
à¹Ģà¸« à¸¥
à¸Ļà¸ ¶à¹Īà¸ĩ
à¸Ļ à¸Ń
à¸Ķ à¸±à¸ļ
à¸¶ à¸ģà¸
à¥ĭ à¤ķ
áŀĩ áŀ¸áŀľáŀ·áŀı
ĠÏĦ ÎŃ
à»Ī àºŃàºĻ
List ing
Ġnews Listing
à°¡ à°¾à°¨à°¿à°ķà°¿
ĽáĢ¾ áĢĦáĢºáĢ¸áĢ
áŀĤ áŁĴáŀļ
à«Ģ àª®
Ġà¶¢ à·ı
áŀĢ áŀļáŀİáŁį
Ġà®®à®±à¯įà®± à¯ģà®®à¯į
ĠÕ¡Õ ¦
Ñı ÑĨÑĮ
ĽáĢ½ áĤķáĢ
ĽáĢ ŀáĢĬáĢ¹
ĻáĢºáĢ¬áĢ¸áĢ Ģ
ĳ áĢĢáĢ¹áĢ
ĨáĢ¼áĢ¸áĢ ±áĤıáĢ¼áĢ¸áĢ
ģáĢ» áĢĢáĢº
ĠÎºÎ±Î» ÏįÏĦÎµ
áĥĲáĥ¥ áĥ¢
áŀĢ áŀ¼áŀĵ
à«Ģàª ¸
áŀ·áŀĹ áŀ¶áŀĢ
áĮ «
áŀ¢ áŁĬáŀ¸
ĠÐ¹Ñŀ ÒĽ
ĠÐ° ÑģÑĤ
à´¿à´ķàµįà´ķ à´¾à´¨àµįâĢį
Ġà´ħ à´§
Ġà¤Ĺ à¤¯à¤¾
ĠÎµ Î»Î»Î·Î½
Ġà²¹à³Ĩà² ļà³įà²ļ
ĠÎķ Îº
à»Ħ àºĹ
à¶Ń à·Ķà·Ģ
àºĻàº ģàº²àºĻàº
ģáĢº áĢ¬áĢ
ĠáĢĺáĢ¯áĢĽáĢ¬áĢ¸áĢŀáĢģ áĢĦáĢºáĢ
ĠáĢĢáĢ¼ áģ½áĢĶáĢ¹áĢ
ĠáĢĢáĢºáĢ ±áĢĶ
ĠáĢ ĶáĢ²áĤĶ
áĢĲáĢ ¼áĢĦáĢ¹
áĢ¯áĢŃ áĢĦáĢ¹áĢ¸áĢ
½áĢ ±
Ġà¨® à¨¿à¨²
ĠÎºÎ¬ Î¸Îµ
¼áĢ ²
ŀáĢŃáĢ¯ áĤĶ
ŀ áĢŃ
ĽáĢ¾ áĢ
Īáŀĺ áŀİáŁĴáŀĮáŀĽ
Ñģ Ð°Ð¼Ð°
Ġáĥŀ áĥĿáĥļ
ĠáŀĵáŁħ áŀĸáŁģáŀĽ
Ġà´µà´¿à´ ¦
Ġb row
Îµ Ïį
àºĪ àº°
Ġàª¸ à«įàªµ
Ġà¦¦ à§ĩà¦¶
Õ¸Õ² Õ¸Õ¾
ĻáĢ Ľ
à©Ģà¨ Ł
ķáĢŃáĢ¯ áĢĦáĢ¹áĢ¸
ķ áĢ¯áĢ¶áĢ
Õ¶Õ¥ÖĢ Õ«Õ¶
ĠÏĩ ÏģÎ®
×¢ ×ł×ĺ
Ġáŀĳáŀ¶áŁĨáŀĦ áŀ¢áŀŁáŁĭ
à¶łà·Ĭ à¶ł
Ġà¶»à·ı à¶¢
áĥľ áĥĶáĥĳáĥĲ
ĠáŀħáŁĨáŀİ áŀ»áŀħ
ĠáŀģáŁĴáŀĽ áŁĩ
Ġà´İ à´²àµįà´²
Ð°Ð» Ð°Ð²
áĬķ áĪĿ
à¥ĭ à¤ª
Î¼ ÏīÏĤ
ĠáŀĢáŁĴáŀĵáŀ»áŀĦ áŀĵáŁĦáŁĩ
Ġáŀ ĨáŁĴáŀĵáŁĦáŀı
Ġàªľ à«ĭ
áŀŁ áŀıáŁĴáŀľ
áĥĵ áĥĺ
àº´ àºĻà»ĢàºĬàº·à»ĪàºŃ
§ àº´
Ġà¶ĳ à¶º
áŀŁ áŀ»áŁĨ
ħáĢ ĽáĢ¬
Ñĩ Ñį
ÕĪÕ Ĵ
Ġà´ª à´¿
à©ĭ à¨²
áŀĸáŁĴáŀļ áŁĢáŀĦ
Ġà¦¸ à¦¬
Õ¸ÖĤÕ´ Õ¨
áĥ£áĥ ĵ
ĠàºĻ àº³
áŀı áŁĤáŀĺ
àµĢ à´¸àµį
ħáĢ ¥áĢ¹
Ġáģģáģ īáģ
à»Īàºĩàº Ĭàº²àºĶ
Ġod un
Î §
ĠÏĢ Î¬Î½
à±Ģ à°¨
áŀİáŁĴáŀĮ áŀ·áŀı
à»ģàº¡à»Ī àºĻ
à¤¾à¤Ĥ à¤¤
ĠÑĤÐ°ÑĪ ÐºÐ¸Ð»
áŀĬ áŁħ
àµģà´ķ àµĬ
Ġi ru
Ġf ip
Ġfip amá»į
ĠSur vey
ĠEn oku
gb áº¹
à³ĭ à²Ł
áĪĭ áĪį
ĠáĢŀáĢ°áĢ ĲáĢŃáĢ¯áĢ·áĢ
áŀ·áŀľáŀĮáŁĴáŀį áŀĵáŁį
ĠáĢĻáĢ ŁáĢ¯áĢĲáĢ¹áĢ
ĠáĢ¡ áĢĦáĢ¹áĢ
±áĢ»áĢķ áĢ¬
¡áĢ ģáĢ«
ĠÒ³ Ð°ÒĽ
áŀ¶áŀļáŀ Ģ
àµģà´ķ àµ¾
Ð°ÑĨ ÑĨÐ°
ĠÑĦ Ð°ÑĢ
áĥłáĥ Ĵ
Õ¸Õ ´
ĠáŁ£ áŁł
ĠáŁ¡ áŁ¥
Ġáŀľ áŀ·áŀŁ
àºĹàºµà»Ī àº¡àºµ
ĠÎĵ Î¹Î±
Ġà¦° à¦¾à¦ľ
à¤¾à¤ Ń
Ġà°ªà±įà°° à°Ń
Ġáŀĸ áŀ¶áŀĢáŁĴáŀĻ
Ġàª¥ àª¯
ĠæĿ İ
Ġå¤§åıĳ åĪĨåĪĨå½©
Ġagçİ¯äºļ å®ĺç½ĳ
Ġ1 åĪĨå¿«3
éĻ ¤
è§ Ĵ
çłĶ ç©¶
çĽ ĺ
åĶ ®
åģ ¥
å® ¤
à¹Ģà¸£ à¹ĩ
à¸ĭ à¸·à¹īà¸Ń
à¸ĩ à¹Īà¸²à¸¢
à¸ģà¸´ à¸Ī
à¸²à¸£ à¹Į
Ġç» ı
Ġæį ®
Ġæ¾³éĹ¨ ag
Ġäºļæ¸¸éĽĨåĽ¢ å®ĺç½ĳ
ĠãĢģãĢĤ ãĢģ
Ġà¹Ģà¸ŀ à¸£à¸²à¸°
Ġà¤ķ à¤¿à¤Ĥ
áĥĲáĥł áĥĶáĥĳ
ĠÎĳ ÏĢÎ¿
ĠÎ¼ Î·
ĠáŀĶ áŀļáŀ·
à¨ķ à¨¾
Ġà¶ ķ
Ġáŀĳáŀ¸ áŀıáŀ¶áŁĨáŀĦ
Ġà¦¯ à§ĩ
ŀ áĢĢáĢºáĢ
×ŀ×¢ ×Ł
Ġà¤ľ à¥ĭ
Ġà²ĩ à²²à³įà²²
Ġáŀıáŀ»áŀĽ áŀ¶áŀĢáŀ¶áŀļ
Ġáŀĩáŀĵ áŀŁáŀĦáŁĴáŀŁáŁĲáŀĻ
ĠáŀĢáŁı áŀĶáŀ¶áŀĵ
à°¿à°Ĥà°Ĺ à±į
àºĶàº ·
Ġnet flix
Î¬ Î¶
ĠáŀĢ áŁĴáŀĽáŀ¶áŀĻ
ĠáĥĽ áĥĿáĥ¡
Col or
Ø¬ ÙĬ
à²¿à²Ĥ à²Ĺ
Ġà¶ľ à·Ĳ
áŁĴáŀĵ áŀ¶áŁĨ
áĭ° áĪŃ
Ò³ Ð¸
áŁĦ áŀļáŀĸ
Ð½Ð°Ñģ ÑĨÑĮ
áŀľ áŀ·áŀĵáŀ·áŀĻáŁĦáŀĤ
áŀĺáŁĴáŀ ĺ
ĠÕ° Õ¡Õ¾
à©±à¨ ļ
ch ar
char ger
Ġá»įd un
ĠÏĢ Î»Î·
Ġá¹£ áº¹láº¹
ľáĢ¯áĢŃ áĢĢáĢ¹áĢ
Ļ áĢ¯áĢ
Ġp up
àª¾àª ¶
áŀĺáŁī áŁĦáŀĦ
àº½ àºģàº
ĠáĥĴ áĥĲáĥł
Ġdar adara
ĠTáº¹sal Ã³n
ĠTáº¹salÃ³n ÃŃk
ĠTáº¹salÃ³nÃŃk Ãł
ĠN ibáº¹
á»į á»į
uk á»į
Ġy atá»į
Ġp ade
Ġo ye
Ġà¶ļ à·ı
ĸáĢ¼áĢħáĢºáĢ ŀáĢĬáĢº
ĠÑģ Ñı
Ġgen re
Ġbrow se
ÎŁÎ Ŀ
Î¾ ÎµÎ¹ÏĤ
àº»à»ī àºĻ
Ġip Ã¨
Ġbay i
Ġal aye
áŀĶáŁĴáŀļáŀı áŀ·áŀĶáŀıáŁĴáŀıáŀ·
áŀĶáŁī áŀ»
Î³ Îµ
Ġa á¹£
Ġ×ĳ×Ĳ Ö¸
Ġ×§ ×Ĳ
à©Ĥ à¨²
Õ¡Õ£ Õ¸ÖĢÕ®
ĠáĪ Ĩ
àº» àº²àº
ĠáĥĽ áĥĿáĥľ
áº¹g áº¹
al áº¹
Ð°Ñģ ÑĨÑĸ
Ġà²Ĩ à²°
áŀĶ áŀħáŁĴáŀħ
áŀĶ áŀ»áŀĢ
ĠÎ¼ Î¿
áŀĵ áŀĻáŁĦáŀĶáŀ¶áŀĻ
à°¿à°¤ à±ĩ
ĠàªĹ àª¯
áŀĨáŁĴáŀĽ áŀĦ
Ġá»į sáº¹
Ġtatu u
Ġt á»įju
Ġla arin
à·Ļ à¶ļà·Ķ
Ò³ ÑĥÑĢ
Ġip in
Ġi OS
Ġet o
áŀĢáŀ¶áŀĽ áŀĸáŀ¸
Ġay Ã©
Ġà¨µ à¨²
Ġà¨°à¨¹ à©ĩ
áŀ¼ áŀŁ
Ġà¦¦ à§ģ
áĥĺáĥ ĳ
Î¹ Î»
Ġà®ª à®¯
ĠÐĶ Ð°ÑĢ
àª² à«ĩ
Û į
Ġà¤ī à¤¸
y in
Ġà²ħà²µ à²°à³ģ
àº²àºģ àº²àºĻ
ĠÕº Õ¡Õ°
agb á»į
Ġàª Ī
Ġáº¹ sáº¹
Ġà°¦ à±įà°µ
áŀ·áŀĲáŀ»áŀĵ áŀ¶
áŀ¶áŀĤ áŀĺáŀĵáŁį
àº°à»Ģàºŀ àº²àº°
à¨ ħ
ļáŀ ĶáŀŁáŁĭ
Ġá¹£i á¹£e
Ġwak ati
áĬķ áĭµ
Ġáĥĳ áĥĲáĥķáĥ¨
Ġk áº¹hin
Ġb ub
Ġbub uru
ĠPh osphatidylserine
ĠN itori
ÑĢ Ñį
ĴáĢ «
ĠIsa iah
ĠB aba
ej uwe
Ġáº¹ gbáº¹
ĠS B
éħ Ĵ
é ¹
çĹ ħ
æĹ ı
æ± ī
æ± ½
å¿ µ
ä¸ĸ çķĮ
à¹īà¸Ńà¸¡ à¸¹à¸¥
à¸ķ à¹Į
à¤¿à¤ Ł
Ĳ áĢĢáĢºáĢ
à¦¿à¦ ª
ĠáĥĽ áĥĶáĥ¢
ĠâĢĭâĢĭ âĢĭâĢĭâĢĭâĢĭ
ĠâĢĭáŁ ķ
ĠáŁ¡ áŁ¨
Ġáŀł áŁħ
Ġàª¬ à«ĩàª
Ġà·Ħ à·Ŀ
à´· àµįà´Ł
àº§àº½ àºģàº
ÑįÐ½ Ð½Ñı
Î® Î¼Îµ
ĠáŀŁ áŀĹáŀ¶
ĠáŀŁ áŀ¶áŀĢ
à²³ à³ģ
ģáĢº áĢŃáĢ
ĠáĤĢ áĢĢáĢ
ĠáĢķáĢ ĬáĢ¬áĢ
ĠáŀĹ áŁĴáŀĵáŁĨ
Ġàº® à»Īàº§àº¡
à»ģàºĤ àº§àºĩ
Ġàª¨ à«Ģ
àºķ àº»àº§
ĠáĢħ áĢ¯áĢ
ĠÎ´Ïį Î¿
Ġd br
ĠL oyal
ĠLoyal ty
yal ty
Ġlo yalty
Ġradi us
Ġ"] ,"
ĠÙ »
ĠÕ¹ Õ«
Ġsá»į rá»į
Ġil er
Ġiler u
Ġid ag
Ġáŀĸ áŀİáŁĮ
ĠáĢ¡áĢ ĻáĢºáĢŃáĢ³áĢ¸áĢ
ĠáĢ ¥
áº¹ mu
od odo
en ni
Ġt iti
Ġsi i
à´¿à´²àµĩ à´ķàµįà´ķàµį
Ġà°¤ à±Ģà°¸
áĢ· áĢ¹
ĶáĢ±áĢ ·
à©±à¨¤ à¨¾
Ġor iláº¹
Ġáŀķ áŁĴáŀĵáŁĤáŀĢ
Ġon igb
Ġok Ãº
Ġo jo
à¤ª à¥įà¤°
Ð»Ð¸ Ð³
ĠÐłÐµÑģÐ¿ÑĥÐ±Ð»Ð¸Ðº Ð°ÑģÐ¸
Ð°Ñģ Ð¸Ð´Ð°
Ġà¦ķà¦° à§ĩà¦¨
Ġny in
Ġna a
ĠÑĪ Ð°Ò³
ĠÕ¡Õµ Õ¬
àº·à»ĪàºĻ à»Ĩ
ÑģÐº ÑĸÑħ
ÏĦÎµ Ïģ
Ĵ áĢŃáĢ
à²° à²¿à²Ĥà²¦
Ġáĥ¡ áĥĲáĥĵ
ĲáĢ½áĢ±áĢ ·áĢ
àªµàª¾àª¨ à«Ģ
ĠáŀĶ áŀ¸
à¤£ à¤¾à¤°
×ŀ×Ĳ Ö·
×ĲÖ¸ ×ľ
Ġ3 75
Ġ375 3
×ĲÖ· ×ĵ
×ĲÖ· ×ł
Ġ×ŀ×Ĳ ×Ļ
Ġà°¤ à°¨
ĠáŀĳáŁĨáŀĵ áŀ¾áŀĶ
à¦¾à¦¤ à§įà¦°
×Ļ×Ĳ Ö·
×ķ ×Ļ×¡
Î½ Î¹Î±
à¨¾à¨² à©Ģ
ĠÑĨ Ñĸ
ĠáŀĬáŁĨáŀİáŀ¾ áŀļ
àº· àºģ
à¯ģà® ļ
ĠÐ¼Ñĥ Ò³
Ġmeje eji
Ġiá¹£áº¹ láº¹
Ġidag basoke
Ġaf ikun
ĠáĥĽ áĥĲáĥĺ
si waju
op in
ĠÃł g
à´¿à´Ł àµĨ
Ġà¨® à©ĩ
Ġà¤¬ à¤¨
Ġol ug
à²¬à³ĩà²ķ à³ģ
Î´ Î±ÏĤ
¼áĢ¸áĢ ±áĢĢáĢ¬áĢĢáĢ¹áĢ
»áĢķáĢ ®
±áĢ»áĢķ áĢ¬áĢĦáĢ¹áĢ¸áĢ
§ áĢ
Ġol ododo
Ġo ke
à° «
áī ģ
Ġk ikan
Ġit áº¹
Ġim á»į
Ġáĥ¬ áĥĺáĥľ
ĠáŀĢáŀ¶áŀļáŀĸ áŀ¶áŀļ
Ġijá»į ba
Ġid áº¹
Ġg áº¹gáº¹
Ġel o
ĠN igb
áŁĴáŀĽ áŀ¶áŀŁáŁĭ
Î³ ÏģÎ¬
ĠMill enni
ĠMillenni um
ĠId aj
ĠBib eli
ĠAb ra
ĠAbra ham
ĠA won
ĠÐ°Ð¼ Ð°Ð»
Ġà¨ħ à¨®
Õ¶ Õ¡Õ¯Õ¡Õ¶
Ġà´ķ à´£àµįà´Ł
Ġ) };
Ġ= !
E a
Ġ) }
& &
lin es
ĠAir lines
Ġà®® à®©
Ġ) (
[ ]
kn own
Ġvo id
ĠUn known
Ġ) ?
w ner
Ġ= {
Ġ) );
ĠO wner
Ġ= []
Ġcat ch
Ġ+ =
Ġ] =
| |
Ġ< =
" ;
N ame
Ġ! ==
Ġ|| (
Ġ" ==
Ġinst ance
Ġinstance of
Ġcli ent
Ġ) &&
Ġ. $
Ġ] ;
Ġ(){ };
Ġ" "
ĠJ et
tt rib
ttrib ute
A ttribute
Ġmess age
ĠA vi
id he
ĠÏħÏĢ Î¬Ïģ
àº«àº¼ àº²àºį
t á»į
Ġà¨¸ à¨¿à©±à¨
áĥĺáĥ¨ áĥľ
áŁĴáŀļáŀĸ áŁĴáŀĻ
à³Ģ à²¤
Ðº Ð¸Ð½
áŁ¢ áŀĵáŀ¶áŀĢáŁĭ
áŀļáŀĳ áŀŁáŁĴáŀŁáŀĵáŁį
ÑĨ ÑĭÑı
ĠÙ ¼
ĠÐ±ÑŀÐ» Ð³Ð°Ð½
Ð°Ð»Ð°ÑĢ Ð¸
Ñģ Ð¸Ð·
Ð¸Ð» Ð°ÑĢ
ĠÐ±Ñŀ Ð¹
ÑĥÐ¼ Ò³ÑĥÑĢ
Ġà¶´ à·Ĵà¶»
ĠÑĤÑŀ Òĵ
ĠÑĪ Ñĥ
áŀĶáŀ» áŀļáŀŁ
ÏĨ Î®
Ð¸ Ò³
áŀĵ áŀ·áŀĻáŀ¶áŀĻ
Ġà¨® à¨¹
ĠÐ´ Ð·Ðµ
à²Ĥà²¦ à³įà²°
ĠÕ° Õ¡Õ½
Ġà¤ľ à¥Ģ
×¤ Ö¿
×ľ×Ĳ Ö¸
Ġ×ķ×ķ×ĲÖ¸ ×¡
×ŀ× ¤
áĮ ¨
à¶ľ à¶¸
j Ãº
áŀħáŀ¼áŀĽ áŀļáŀ½áŀĺ
Î´ Î¯
Ġà²Ń à²¾à²°
áĥĲáĥł áĥĺáĥ¡
áŀħ áŁĨáŀĸáŁĦáŁĩ
ĠÎĳ Î³
Ĺ àº´
à²¿à² ª
Ð¶ Ð¾
Ïģ Îº
à¤¾à¤¯ à¤¾
áŀĢáŁĴáŀļ áŁĦáŀĺ
à¶« à¶º
ķ àº»àº§
ÑĨ Ñĳ
ĠÔ ½
à¨« à¨¼
Ġ×ĵ×Ĳ ×¡
áŀĢáŁĴáŀģ áŀİáŁĪ
ĠÐ¾ ÑĪ
ĠÐ°Ñģ Ð¾Ñģ
ÑĢ Ð°Ð±
Î» Ïī
à¦¾à¦° à¦¾
ĠàªŃ àª¾àª°
áĥĲáĥ ©
Õ¸ÖĤÕ ²
à³Ĭ à²Ĥà²¦
áŀ·áŀŁ áŀĵáŀ¸
itor ina
Ġáº¹ ni
ľ áĢŃáĢķáĢ¹áĢ
ĻáĢº áĢŃáĢ³áĢ¸
ĻáĢ ĽáĢ
áŀ¶áŀļ áŁĪ
áŀ¶áŀķ áŁĴáŀĳ
Ġà¨² à©Ī
àªĽ à«Ģ
ĻáĢ ļáĢºáĢ
ĠáĮĭ áĪŃ
áŀ¶áŀĶ áŀ¶áŀĽ
ĠáŁ¡ áŁ¢
ĠáŀŁáŁģ áŀĬáŁĴáŀĭáŀĢáŀ·áŀħáŁĴáŀħ
ĶáĢŃáĢ¯áĢĦáĢºáĢĦáĢ ¶
Ġà´ķ àµĩà´°à´³
à´ķàµįà´ķ à´¾à´°
Ġà®ª à®¾à®¤
ĠáŀŁ áŁĴáŀĽáŀ¶áŀĶáŁĭ
áĥĶáĥķ áĥĶ
ĠáŀŁ áŀĵáŁĴáŀı
ĠáŀļáŀĶ áŀ½áŀŁ
ÕŃ Õ¡Õ¶
ĠáŀĶáŁĴáŀļ áŁģáŀĦ
Ġà»ĢàºĤ àº»àº²
Ġàºŀ àº²àºª
Ó¯ Ð·
ĠÑĸÐ½ ÑĪ
Ġà¶ħ à¶»
Ġy ii
_ bet36
Ġà¤² à¥ĭà¤Ĺ
Ġáŀı áŁĴáŀļáŀ¹áŀĺ
Ġtri che
Ġt ele
Ġje ux
Ġil ana
Ġif ihan
Ġib ere
Ġi yan
Ġ] )
Ġ={ };
Ġ= (
ĠAvi ation
ai ch
ģà¸± à¸Ļ
Ġæ ·
Ġà¸Ń à¸¢
Ġag ç½ĳæĬķ
è´ Ł
çĶµ èĦĳ
çĶ »
æĺ ¥
æıĲ ä¾Ľ
åŃ¦ çĶŁ
å¼Ģå¥ĸ ç»ĵæŀľ
å£ «
à¸Ĺà¸µà¹Ī à¸¡à¸µ
à¸§ à¸ĩ
à¸§ à¸£
ķ à¸±à¸§
Ġè °
Ġçİ¯äºļ æīĭæľº
ĠåĪ °
Ġå® ŀ
Ġå¤ ļ
Ġäºļæ¸¸ app
Ġà¸ Ł
ĠagåĽ½éĻħäºļæ¸¸ å®ĺç½ĳ
ç¾İ åĽ½
ç» Ī
æį ¢
æĥħ åĨµ
åĿ ļ
åĮĹ äº¬
åĨ Ļ
ä¿¡ æģ¯
ä¸ ¥
à¸ķ à¸£
à¸ĵ à¸ĳ
à¤Ĥà¤¤ à¤°
Ġi j
ĳáĢ²áĢ ĻáĢ½áĢ¬
Ĭ áĢ¬
ħáĢ ¼áĢ¬áĢ
ĠáĢĦáĢ «
ĠáĢ»áĢĸáĢħáĢ¹áĢ ķáĢ«áĢĲáĢļáĢ¹
ĠáĢ±áĢĽ áĢ¬áĢĢáĢ¹áĢ
ĠáĢ¡áĢħáĢŃáĢ¯áĢ¸áĢ ĽáĢ
Ġáŀħ áŀ»áŀĦ
ÏĨ Î·
Ġà¨¦ à©Ģà¨Ĩà¨Ĥ
Õ¸ÖĤÕ ¯
áĤıáģµ áĢ
áĢĦáĢºáĢ¸áĢ ķáĢ
Ġà·ģ à·ĬâĢįà¶»
à»Ī àºŃàºį
àµĭ à´§
à²£ à³Ĩ
Ġes i
Ġà·Ģ à¶ľà·ļ
Ġà¶¸à·Ļ à¶¸
Ġc ode
ĠT áº¹
ĠN igba
ĠKol opin
p á»įn
il ai
ah un
Ġá»Į pa
Ġáº¹ jáº¹
Ġá¹£ ee
Ġá¹¢ e
áŁĴáŀļáŀ ľ
ĠÃłg ba
Ġw in
Ġw aye
Ġ×Ĵ×¢ ×ķ×ķ×¢
Ġad idas
t itle
U rl
Ġhe x
Ġhex Color
ĠhexColor Code
ĠÙħ ÙĩØ±
Ġbid c
Ú» ÙĬ
áŁĴáŀļ áŀ¶áŀĶ
Ġtra iner
Ġtele charger
Ġolug be
ĠÏĢ Î¹Î¿
áŀŁ áŀĢáŀĺáŁĴáŀĺ
à»Ĥ àºį
Ġà°ķ à°¨
Ġoj ise
Ġog un
à¦¾à¦¨ à§įà¦¤
¸ áĢ
±áĢĶáĢ ²áĢ·
àºĻàº Ħ
±áĢĲáĢ¬ áĢĦáĢ¹áĢ
± áģĢ
¡áĢĲáĢ¼ áĢĢáĢ¹áĢ
¡áĢ ĻáĢ»áĢŃáĢ¯áĢ¸áĢ
à²·à³įà²Ł à³ģ
áŀŁ áŀ¶áŀĦ
à¯ģà®ķ à®³à¯į
ĠàªĨàªµ à«Ģ
áĥ¬ áĥ§
à´¸ àµįâĢĮ
ĠÐ±ÑĭÐ» Ð¾
áŀĸ áŁĴáŀļáŀ¹áŀĢ
¡áĢ ķáĢºáĢ
àºĻ à»īàºŃàºį
áŀĶáŁĴáŀļáŀĢ áŀ¶áŀŁ
ĠÕ¸ Õ¹
Ġáĥ¬ áĥ§
áŀĵ áŁĴáŀĻ
áĮ Ģ
à´Ĺ àµįà´°
Ġn pe
Ġl oni
Ġir iri
áŀĳ áŀ¼áŀı
áŀĢáŀ¶áŀļáŀ ¢
ĠÚ ļ
Ġigb ala
Ġi po
Ġi be
Ġà¨¸ à¨¾à¨²
Ġem i
à«ĩàª² à«Ģ
àµĨà´¯ à´¾à´£àµį
Ġap ejuwe
ĠMat te
ĠMatte u
ĠG ame
ĭ åıĭ
ģà¸± à¸ļ
Ġå ĴĮ
Ġà¤ľ à¤¾à¤¤
ĠDar adara
Ã¹ n
ÏĦÎ¿ Î½
áŀ·áŀīáŁĴáŀħ áŀ¹áŀĺ
ĠÐ° Ñŀ
áŀ¢ áŀĵáŁĴáŀıáŀļáŀĩáŀ¶áŀıáŀ·
à§ĩà¦Ľ à¦¿à¦²
ĠáŀŁáŀ· áŀŁáŁĴáŀŁ
Ġà¶ľ à¶±à·Ĭà¶±
Ġà°¨ à±ĩ
Ġáŀľ áŁī
à´°àµįâĢį à´·
Ġáŀļáŀ ı
Ġà´ľ àµĢà´µ
ĠÐ±Ð°ÑĢ Ð¾Ð¸
ĠÕ¯ Õ¸Õ²
à³ģà²µ à³ģà²¦à³ģ
ĠáŀĻ áŁĦáŀĦ
áĥĲáĥª áĥĺáĥĲ
ĠáŀĻ áŀĽáŁĭ
àºĹ àº¸àº¥àº°àºģàº´
àº» àºĶàº
¡ áĢ¬áĢĦáĢ¹áĢ
yan mar
Ŀ áĢºáĢ
ľáĢ½áĢº áĢ¬áĢĢáĢ¹áĢ
Ľ áĢ¯áĢ
à±įà°Ł à±Ģ
Ñĳ Ð½
Ġà¶´ à·ĥà·Ķ
à´ķ à´³àµįâĢį
àµĬ à´°
Î¼Î¿ ÏĤ
ĠáŀĶáŁĴáŀļáŀ »áŀŁ
ĠáŀĶ áŀİáŁĴáŀıáŀ¶áŀĽ
Ġáŀĵ áŀ¶áŀĳáŀ¸
ĻáĢ½áĢ¬áĢ ±áĢĲáĢ¬áĢ·
ķáĢ »áĢ
à±Ĭ à°ķà±įà°ķ
à¨Ĩ à¨Ĥ
Ġáŀĩ áŀ·áŁĩ
ĠÎ£ Ïį
Ġàª¸ àª¾àª®
Ġà®İ à®¤
ĶáĢ¹ áĤĢáĢĢáĢ®áĢ¸áĢ
ħ áĢĢáĢ¬áĢ¸áĢ
áĥĺáĥ£áĥł áĥĺ
Ġáŀģ áŁĴáŀĸáŀŁáŁĭ
Ġáŀ¢ áŁĨáŀİáŀ¶áŀħ
Ïĥ Î¹Î¿
Ġ. âĢĭ
àµĥ à´¤
áŁĴáŀĽ áŁģáŀŁ
Ġà²¯ à²¾à²µ
ĠÕ¯ Õ¡Õ¼
Î½Î· ÏĤ
Ġd rop
Ġdrop d
Ġdropd own
Ġ×ĸ ×Ļ×Ļ×¢×¨
àº±à»Īàºĩ àºģà»Īàº²àº§
Ġà¶´ à¶»
ĠÑĤÐ°Ðº ÑģÐ°Ð¼Ð°
ĠÎ±ÏĢÎ¿ ÏĦÎµ
Ġà¤ķà¥ĭ à¤£
Ġconvers ion
Br ands
ĠØ³ Ø§ÙĨ
áŁĴáŀļáŀ Ĭ
Ġáī ³
áĥĶáĥłáĥ ĵ
ĠáĢŀ áĢĦáĢ¹áĢ
ĠáĢĽáĢģ áĢŃáĢ¯áĢĦáĢ¹áĢ
ĠáĢĶ áĢŃáĢ¯áĢĦáĢºáĢĦáĢ
Ġà© §
Ġà¨ķà©ĭ à¨Ī
áŁĩ áŀĸ
à¯ģà®³à¯įà®³ à®¤à¯ģ
à´ķàµįà´ķ àµĨ
Õ¡ÖĢÕ ¦
áŀŁáŁĨ áŀģáŀ¶áŀĵáŁĭ
à´² à´¯
ach d
Ġà²®à³ģ à²Ĥà²¦
áĥĲáĥ® áĥĶáĥĳ
ĠÐĲ Ð»Ðµ
à¥ ľ
áŀĻáŀĵáŁĴáŀı áŀłáŁĦáŁĩ
à¥įà¤¨ à¥ĩ
áŀĻ áŁĴáŀĻ
ĠÐ±Ñĭ Ñŀ
Ġàª¤ à«ĩàª
áŀĸáŀ½áŀĢ áŀĤáŁģ
Ġà¨° à¨¿à¨¹à¨¾
àº±àºĶàºķ àº±à»īàºĩàº
Ġà´ªà´±à´ŀàµįà´ŀ àµģ
àº°à»ĢàºĹ àºĶàº
Ġà¤ķà¤¿à¤Ĥ à¤µà¤¾
ĠÕ¡Õ´Õ¢ Õ«Õ¸Õ¶
Õ¡Õ¯ Õ«
Ġà¶ħà¶´ à·Ĵ
Ġà²¸ à³įà²¥
Ïĥ ÏĦÎ®
à¶± à·Ģà·ı
ĠØ³Ø± Ùĩ
ĠáĥĴ áĥĲáĥ®
Ġà¶ľ à·Ļ
×Ļ×ĻÖ· ×ĺ
Ġ×ķ×ķ×¢ ×ĺ
à¤¨à¥įà¤ ¹
ĠáĢ »áĢķáĢĦáĢ¹áĢ
ĽáĢŃáĢ ½áĢ
ĻáĢº áĢ¸
à·Ģ à·Ļ
à®¸ à¯į
Ġà´İ à´¨àµįà´¤
Ġà¨¦ à¨°
ĠÏĢÎµÏģÎ¹ Î¿
ķáĢ« áĢĢ
Ð± Ð°ÑĤ
à¶Ńà·Ĵ à¶ļ
áŀķáŁĴáŀŁ áŀ¶áŀļáŀ
à°Ĥà° §
ĠÐ±ÑĥÐ´ Ð·Ðµ
áŀķ áŁĴáŀĵáŁĤáŀĢ
pá»įn jÃº
op á»į
ļ à»įà»Ī
áī ´
áĥĵ áĥĴ
lá»į wá»į
ĠÃ¬ já»į
àµģà´ ¦
Ġà¤¦ à¥ĩà¤ĸ
áŀĵáŁĴáŀĽ áŁģ
Õ¥Õ¬ Õ¸Õ¾
ÑĭÐ¼ Ñĸ
Ġà®¤ à®²
Ġy Ãłn
áŀĵáŀ¸ áŀĻáŁį
ĠÒ³ Ð¸Ñģ
Ġt á»į
Ġà»ĢàºĽ àº±àºĻàº
à©Ģà¨ ħ
áŀĴ áŁĴáŀĽáŀ¶áŀĢáŁĭ
Ġ×§ ×¢×ł×¢×Ł
ĶáĢ ļáĢº
áŀĩ áŀ¶áŀĢáŀ¶áŀļáŀ
ĠÏĢ ÏģÎŃÏĢÎµÎ¹
ĠáĥĲáĥł áĥĲ
Ġàºģàº²àºĻàº ª
àª¾àª° à«ĭ
áŀĤ áŁĦáŀĽ
Ġà°²à±ĩà°¦ à°¾
ĲáĢ¼ áĢĦáĢ¹áĢ¸áĢ
ĲáĢ ĽáĢ¬áĢ¸áĢ
Ġt Ã©l
ĠtÃ©l Ã©
Ġiyan u
Ġiwadi i
Ġif e
ĠÐ±ÑŀÐ¹ Ð¸ÑĩÐ°
Ð»Ð°ÑĢ Ð´Ð°
Ð± Ð¸ÑĢ
Ġibe ere
ĨáĢ ¶áĢ
Ð¼Ð¾ÒĽ Ð´Ð°
ĠÑı Ð½
Ġdi po
ĠN ibi
ĠJ er
áĥĲáĥł áĥĶ
à¶ļ à·Ĵà¶º
Ġáģ ĩ
à® ¨
á»į kan
Ã¬ n
ĠÑĤ Ð°Ñģ
Ð°Ð² Ñĸ
à²¾à² ·
à¤¾à¤ī à¤¨à¥ĩ
áŀĢ áŀļáŀİáŀ¸
Ġàº¥ àº±àºĶ
áŀ¸ áŀĵ
ĠáĢŀ áĢ¯áĢ¶áĢ¸áĢ
Ġàº¡ àº±àºĻ
à§Ł à¦¾à¦°
áĬ Ĵ
ĠÎ¼ÎŃ ÏĥÎ±
áŀ· áŀģáŀ·áŀı
à´¿à´ķàµįà´ķ àµģà´Ĥ
ĠÐ³ Ð°Ð´
à¤ģ à¤Ĺ
Ñĥ Ò³
ĠáĢĽáĢ ±áĢ
àº¶à»ī àºĻàº
Õ¡Õ¿ Õ¡ÖĢ
ĠÎ´Î· Î¼Î¿
à¯ģà® ´
áŀ¢ áŀĵ
Ġáŀļ áŀ¶áŀĶáŁĭ
ÑĤÐº Ð°Ð·
Ð¼ Ð°Ñģ
ĠÑĤ Ð°Ð´
Ð¸ÑĪ Ð³Ð°
ĠÐ¼ ÐµÐº
Ġáŀĸ áŁģáŀī
Ġàªķ à«ĭàªĪ
à¤¾à¤ ĵ
Ġà´° à´£àµįà´Ł
ÏĦÏĮ ÏĤ
×ĲÖ· ×ĺ
Ġ×¨ ×¢
Ġáŀĳ áŀ¶áŀĢáŁĭáŀĳ
Ġáŀı áŁĤáŀĦ
à´¾à´ ´
ĠáŀĬ áŀ¹áŀĢáŀĵáŀ¶áŁĨ
Ġáŀ§ áŀĶ
ĠáĥĽ áĥĶáĥł
àºµ àºĻàº
ĠÖħ Õ£
ÑĤÑĭ Ñĩ
Ġáĥ¨áĥĶáĥ¡ áĥĲáĥ®áĥĶáĥĳ
Ġáŀ¢ áŀıáŁĴáŀĲáŀĶáŀĳ
à§ģ à¦ķ
Ġà¶ļà·Ĵà¶º à¶½à·ı
Ġà¶ ©
Ġáŀ¢ áŀ¶
áŁĴáŀļáŀ· áŀı
Ïĥ Î¿ÏħÎ¼Îµ
Ġà¨Ĺ à¨Ī
Ð½ÑĸÐº Ð°Ñŀ
àºª àº²àº¡àº²àºĶ
C ube
ĠÙħÙĩØ± Ø¬Ø§ÙĨ
Sub title
Ø§Ø¦ ÙĬ
ÎŁÎ Ľ
Îº Î·
áģ¾áĢĢ áĢ¬áĢ
áĢĦáĢ¹áĢ¸áĢ ķáĢ
áĢ¬áĢ¹áĢ ľáĢĬáĢ¹áĢ¸
¡áĢ ±áĢ¬áĢĦáĢº
à³Ģ à²¯
ŀ à¯įà®ļ
áĥĺáĥ¢ áĥĺáĥĻ
ĠÐĲ Ð´
Ġàªµ àª¾àª¤
áŁĨáŀł áŁĨ
Î³ Î¹
à§ ¨
áĥĺáĥ Ń
à¤¨à¥įà¤¤ à¥įà¤°
ŀáĢ° áĢ±áĢĲáĢ¼áĢ
ľáĢŃáĢ¯ áĢĦáĢ¹áĢ¸áĢ
ľáĢŃáĢ¯ áĢĢáĢ¹
ĽáĢ ¶áĢ¯áĢ
ĲáĢ¯áĢŃ áĤĶáĢ
ĨáĢ ®
àªķ à«ĭ
áŀľ áŁī
Ĩ áĢĦáĢºáĢ¸áĢ
à¦° à§ĩà¦°
àµĩ à´±àµįà´±
Ġà·Ģà·Ĵà·ĥ à·Ĵà¶±à·Ĭ
áĥĿáĥļ áĥĿáĥĵ
à©ĩ à¨¸à¨¼
à±Ī à°¡
Ġáī ¢
Ġà¤¦ à¤¿à¤¯à¤¾
é º
èµĮ åŁİ
çı Ń
æĹ¶ ä»£
åĿ ĩ
å± Ĥ
å ª
ä¹ĭ åĲİ
à¹Ħà¸¡à¹Ī à¹Ħà¸Ķà¹ī
à¹ģà¸ Ľà¸¥
à¸Ńà¸° à¹Ħà¸£
à¸Ķ à¸³
à¸Ħ à¸±à¸į
à¸¹ à¸Ķ
à¸´à¸Ļà¸ Ħ
à¸«à¸Ļ à¹īà¸²à¸
à¸ª à¸ļ
Ġçľ ĭ
Ġæµ ·
Ġæ² ¡
Ġåĩ º
Ġå° Ĩ
Ġå® ĺ
ĠâĢĿ ãĢĤ
Ġà¤Ĩ à¤¯
" +
Ġce il
E vent
Ġf h
ÑģÑĤ Ð°Ñŀ
Ĩ áĢĦáĢ¹áĢ¸áĢ
ĦáĢ ĶáĢ¹áĢ¸áĢ
ĠáĢĻáĢ ®áĢ¸áĢ
à±įà° £
Î ĺ
ĠÏĩ Ïİ
áŀĽ áŁģáŀĦ
ĤàºŃàºĩàº Ĺà»Īàº²àºĻ
Ġà®µà¯ĩà®£à¯įà®Ł à¯ģà®®à¯į
ĠØ¯ ÙĬ
áŀĶáŁĴáŀļáŀ ¹
áŀĶ áŁĤáŀĶ
à°Ĥà°¤ à±įà°°
ĠÔ± ÖĢ
à¨° à¨¾à¨Ĥ
»áĢĸáĢ ĲáĢ¹áĢ
±áĢĶ áģ¾áĢĢáĢ
±áĢĲáĢ¬ áĢĦáĢ¹
¡áĢ ģáĢºáĢŃáĢĶáĢ¹áĢ
ŀáĢ ¶áĢ
ĠÑĨ Ñı
àµĨà´Ļàµįà´ķ à´¿à´²àµģà´Ĥ
Ġàº« àº»àº§
Ġà¤¹ à¤¾
à³Ĩ à³ķ
Ġ×§ ×Ļ×Ļ×Ł
ķáĢ ĲáĢºáĢ
à¤ ī
ĠÔ± Õ¶
Î´ Î¹Îº
à»Īàº½ àºĻ
Ġà²®à³ģ à²ĸ
ĠáĥłáĥĿáĥĴ áĥĿáĥł
áŀĵ áŀ¶áŀľ
Ġàª¦ àª°
áŀĳáŀ¸ áŀĢáŁĴáŀļáŀ»áŀĦ
à±įà°¯ à±Ĥà°
ĠÐľ ÑĸÐ½
ÑĤ Ð²Ð°
à¦¾à¦ £
Õµ Õ¡Õ¶Õ«
ĠÏĢÏģÎ± Î³Î¼Î±
Õ«Õ ³
áĥĿáĥļ áĥĿ
Ġà ³
à³ĩ à²°
àºŀ àº´
à®¾à®± à¯įà®±
Ð°Ðº Ð°ÑĤ
ĠÖ ¾
×ŀ×ĳ ×¢×¨
ĠÐºÑĢ Ð°
à·Ħ à¶±à·Ĭ
×ľ×¢ ×ļ
àµģà´ ²
áŀĤ áŀ¼
à¨¿à©°à¨ ¡
Ïģ ÏīÎ½
áŀĤ áŀ»áŀİ
Ġà¤ķà¤¹ à¤¾
Ð¸Ð½Ð³ Ð¸Ð·
Ð¸Ð» Ð°Ð´Ð¸
Ð»Ð°Ð´ Ð¸
Ð» Ð¸Ð¼
áī Ĩ
áŀ¼ áŀ¡
àºĻà»Ģàº ª
Ġà¤µà¤¿à¤ ¶
à¶§ à¶¸
à©Ģà¨ ľ
ĠÕ¯ Õ¥Õ¶
à°ªà±įà°ª à±ģà°¡à±ģ
áĥĿáĥłáĥ ¢
à´° àµĨ
Ĭ áĢ·áĢ¹áĢ
ĨáĢŃáĢ¯áĢ ĽáĢĦáĢ¹
Ĥ áĢºáĢ
Ġà«§ à«
àª¸ à«įàª¤
ĠáĢĲáĢŃáĢ¯ áĢĦáĢ¹áĢ¸áĢ
áĤıáĢ½áĢ ħáĢ¹
áģ ĥ
Î½ Î®
àºĹ àº±àºĩ
ĠÑĤÑŀÒĵ ÑĢ
ĠÒ¶ ÑĥÐ¼Ò³ÑĥÑĢ
ĠÑŀ ÑĤ
ĠÒĽ Ð°Ð¹
ĠáŀŁ áŀ»áŁĨ
ĠáŀĽ áŁģáŀĦ
Ġ×ŀ×¢ ×¨
Ġáŀļáŀ¼áŀĶ áŀĲáŀı
Ġáŀĺ áŁĤáŀĵ
ĠÃĮ já»į
ĠÃ¬ pá»įnjÃº
Ġp ese
Ġáŀĸ áŀ·áŀĹáŀĸáŀĽáŁĦáŀĢ
áĢŃáĢ ĻáĢ¹áĢ¸áĢ
»áĢķáĢ ³
±áĢĽ áĢ¬áĢĢáĢ¹
±áĢĢ áĢ¬áĢĦáĢ¹áĢ
¡ áĢ¯áĢķáĢ¹áĢ
ŀ áĢ¯áĢŃáĤĶ
ĻáĢ ²áĢ·áĢ
Ġni waju
Ġn ibi
Ġir in
à¦¤ à§įà¦¯
à²¦ à²²
à¶½ à·ļ
ĠÒ¶ÑĥÐ¼Ò³ÑĥÑĢ Ð¸Ð¸
Ð¸Ð» Ð´Ð¸
ĠÑĤ ÑĥÑĪ
Ñĥ ÑĦ
ĻáĢ ±áĢ
Ġà®ħà®¤ à®¿à®ķ
Ļ áĢŃáĢ¯áĢ¸áĢ
ĠÕ· Õ¡Õ¿
Ġáŀķ áŁĴáŀĬ
Ġà¨ľ à¨¦
áĥĺáĥľ áĥĺ
ĲáĢ¼ áĢĦáĢ¹áĢ
ĲáĢ ¶áĢ
ÑĸÐ» Ð°
àºĶ àºģ
Ġà¶ °
Î¼Î² ÏģÎ¯Î¿Ïħ
Ġà¦¶ à¦¿à¦ķà§įà¦·
ÎµÎ¹ ÏĦÎ¿ÏħÏģÎ³
ĠáŀĶ áŀ¶áŀıáŁĭ
ħáĢ¬áĢ¸áĢ ľáĢ½áĢ
ĠáĤıáĢ ½áĢ
ĠáĢĽ áĢĢáĢºáĢ
Ġà´µ àµĪ
Ġeg be
Ġáŀı áŀ¶áŁĨáŀĦ
Ġay ika
Ġang áº¹li
Ġa wa
Ġa abo
ĠW A
ĠI p
Î¼ÏĨ ÏīÎ½
y Ãł
Ð°Ð² Ð°Ð´
Ġáŀĩ áŁĲáŀĻ
Ġáŀħ áŀ¶áŀıáŁĭ
à§įà¦¯ à¦¾à¦²
ĠáĢķáĢ ĲáĢ¹áĢ
ĠáĢķ áĢ¯áĢ
Ġà°ľ à°¾à°¤
à¶±à¶º à·ļ
à«Ģ àª°
ĠB 9
éĩĳ æ²Ļ
éĥ¨ éĹ¨
è® Ń
åıªä¸ºéĿŀ åĩ¡
åº Ħ
å® ³
å¨ ģ
ä» ĺ
à¹Ģà¸Ħ à¸¢
à¥ĥ à¤¤
ĠáŀĤáŀº áŀĩáŀ¶
àºĪ àº²àºģàº
àµĭ à´³
ÐºÑĸ Ñı
ĠáĢģáĢ ±áĢ«
Ġer ror
F a
ĠAir ways
à³ĭ à²¦
Ġ|| "
Ġ! =
Ġ+ +
Ġro und
Ġflo or
Ġ> =
" )
ch d
ĠáŀĢ áŀĺ
áĮ İ
Ġà¨ķ à¨®
Î¼ Î¯
à±Ĩ à°¨
áĥĶáĥ¡ áĥĺ
àªµ à«ģàªĤ
áŁĴáŀļáŀł áŀĺ
ĠÏĢÎµ ÏģÎ¹ÏĥÏĥÏĮÏĦÎµ
áŁĴáŀļáŀ½ áŀı
k Ãłn
ĠáĢ· áĢ±áĢ
ĠáĢ¡áĢ Ĥáģ¤áĢ
áģ Ħ
à²Ĺà³įà²Ĺ à³Ĩ
Ġäº Į
Ġà¤¹à¥ĭ à¤¤à¤¾
à®¿à®± à¯įà®ķ
Ġà¨¦ à¨¿à¨¨
ÑĸÐ½ Ð°
áŁĴáŀļáŀ¹ áŀĳáŁĴáŀĴáŀ
àº»àºĩàº Ĺàº¶
àº²àº ¥àº°
Ġà¦ķ à¦¾à¦ľ
áŁĴáŀĵ áŁĩ
Ġà¶Ńà·Ķ à·ħ
ĠàªŃàª¾àª° àª¤
Ġà´ħ à´®
áĢŃ áĤĪ
±áĢĳ áĢ¬áĢĢáĢ¹áĢ
¡ áĢĢáĢ¼
ĠÕ£ Õ«Õ¿
Ġnam sh
Ġnamsh ic
Ġ3 sk
Ġnamshic dn
ĠÚª Ø±ÙĬ
áĥľ áĥĶáĥļ
áŁ¡ áŁł
áŁ¡ áŁ¢
áŀŁ áŁĴáŀĢ
à©° à¨¨
ĠÐĶ Ð·
à«Ģ àªĤ
iy esi
àº« àº¥
inn u
à°³ à±įà°²
à¤ķà¥įà¤° à¤®
in rin
áŀŁ áŀ¶áŀĽ
à³Ĩ à³Ĥ
Ġà´¨ à´¿à´¯
à³ģ à²¨
ĠÃ¨ de
ĠÃ ²
® àº½àºĻ
à§ĩà¦¨ à§įà¦Ł
áŀĸ áŀ·áŀĵáŀ·áŀıáŁĴáŀĻ
ķáĢ«áĢ ¡áĢ
×Ļ ×Ļ×ĵ
ĠÎµÎº ÏĢ
ĠÐ³Ñį ÑĤ
Õ¡Õµ Öģ
ĲáĢħáĢ¹áĢ ģáĢ¯áĢ
ĤáĢ «áĢ
ĠÑħ ÑĥÐ´
¥ àº²àº§
àªĤàª ¡
áŀĳáŀ¶áŁĨáŀĦ áŀĸáŀ¸
ÏĦ Î¶
áĥĺáĥª áĥĺ
áŀĳ áŁĲáŀĸ
áĪ« áīµ
Ġà°ī à°Ĥà°¦à°¿
ĠÕ´Õ¥Õ »
·à¥įà¤Ł à¥įà¤°
à¨¿à¨ ®
×ķ×ł ×ĺ
áŀĳ áŀŁáŁĴáŀŁáŀĵ
ģáĢ» áĢ¯áĢķáĢºáĢ
áĥ£áĥł áĥĲáĥĵ
Ġà²¹ à³ģ
Ġà¶¯ à·Ĵà¶±
ĠÏĦ ÏĮ
áŀĦáŁĭ áŀĤ
àµįà´ ¨
Ġàª¤àª® à«ĩ
ĠÑıÑĪ ÑĩÑį
éĿ ł
éģ Ĺ
è¿ ľ
çŁ¥ éģĵ
çĮ ľ
åħ¨ åĽ½
å¾ ģ
å² Ľ
ä¸Ń çļĦ
ä¸ ½
à¹Ĥ à¸¡
à¸Ĺà¸µà¹Ī à¸Īà¸°
à¸Ĺ à¸µà¸¡
à¸ĸ à¸²à¸Ļ
à¸¸ à¹Īà¸Ļ
à¸± à¸ŀ
à¸£à¸²à¸ §
à¸£ à¸£à¸¡
¹ æŀľ
Ġè ĥ½
Ġæī ĵ
Ġå ¨
Ġà¤ķà¥ĩà¤² à¤¾
Ġà¦¬à§įà¦¯ à¦¬
à®£à¯įà®Ł à¯ģ
à²Ĥà² ª
Ïĩ ÎµÎ¯
ĠÕ°Õ¡Õ´ Õ¡Õ¬
Ń àºµ
áŀĤ áŁĦáŀĢ
ĠáĢļáĢ ģáĢ¯áĢ
×¡ ×Ļ×ł
áŀ¸ áŀĸ
×Ľ ×Ł
à¤¾à¤ķ à¤¾
Õ¸ÖĤ ÖĢÕ
áŀ· áŀļáŀ
ĠÚ «
à©ĭ à¨Ĺ
à¶© à·Ĵ
áĬĲ áīł
Ĭàº²àºĬ àº»àºĻ
à±ģà°¨ à±ģ
Ġà´¨ àµĢ
ĠáŀŁ áŀ¶áŀĴáŀ¶áŀļáŀİáŁĪ
ÎĻÎ Ŀ
ĠÎļ ÎĳÎĻ
ĠÎ³ Îµ
Ġáĥ¡áĥĲáĥ® áĥĶáĥļ
ĠáĢĻáĢ½ áĢ¬
ĠáĢĻáĢ» áĢ¬áĢ¸áĢ
ĠáŀķáŁĴáŀĳ áŀ¶áŀĽáŁĭ
ģàº ¡
ĠÐ»Ñİ Ð´Ð·
ĠagçľŁäºº æ¸¸æĪı
èį ¯
è¿Ļ ä¸ª
è®¾ è®¡
è® ¸
è¦ģ æ±Ĥ
çĽ¸ åħ³
ç¥ ¨
æł ĳ
æĿ Ĳ
æĢ ¥
æ® ĸ
å¯ Į
ä»ĸ ä»¬
à¹Ģà¸Ħ à¸£à¸·à¹Īà¸Ńà¸ĩ
à¹Ģà¸¥ à¹Īà¸Ļà¸
à¸Ļ à¸±à¹īà¸Ļà¸
à¸ªà¸£ à¹īà¸²à¸ĩ
à¸ª à¸²à¸§
à¸ª à¸±
à¸¢ à¸Ńà¸Ķ
à¸¡à¸²à¸ °
à¥Ģ à¤¤
Ġà¤¬ à¤¾à¤¦
Ġà»Ĥ àº®
à¶Ńà·Ĭà¶Ń à·ļ
ĠáŀĶáŁī áŀ»áŀĵ
Ġà²¸ à²Ĥ
ĠáŀĬ áŀ¶áŀħáŁĭ
ĠáĢĦáĢ «áĢ
Ġà»ģàºĤ àº§àºĩ
Ġàºķ à»Īàº²àºĩ
ĠáĢĢáĢŃáĢ¯áĢ ļáĢºáĢ
áĥļ áĥĶáĥĳáĥĺáĥ¡
Ġáŀĩ áŀ¶áŀħáŁĴáŀļáŀ¾áŀĵ
ĠàºĶ àºµ
Ġàºģàº §
Î· ÏģÎµ
Ġàºģ à»Īàº½àº§
Ġàºª àº²
àµģà´ķ à´¯àµģà´Ĥ
à®¿à®¤à¯įà®¤ à¯ģ
Ġàº¥ àº±àºļ
à»ĢàºĬ àº·à»ĪàºŃ
ĠÕ¶ Õ·
ĠáŀĨáŁĴáŀĽ áŀĦ
áĪŃ áīµ
à«įàª §
à°¿à°¯ à°¾
ĠáĢĢáĢºáĢ±áĢĶ áĢ¬áĢ¹áĢ
ĠáĢ±áĢĨ áĢ¬áĢĦáĢ¹áĢ
ĠáĢ¡áĢĲáĢ¼ áĢĢáĢ¹
áģ¿áĢķáĢ®áĢ¸áĢ ±áĢĲáĢ¬áĢ·
½ áĢĦáĢºáĢ¸áĢ
ÎķÎ Ŀ
Î»Î» Î¿
à¶Ńà·Ĭ à¶¸
ĠáĥĽ áĥĿáĥķ
¥ ª
Ġè ı
Ġà¹ģà¸ ¥à¹īà¸§
Ġà¹Ģà¸ Ķ
Ġà¤¶ à¤¿à¤ķ
Ġà®ª à®°
ĠÐĳÐµÐ»Ð°ÑĢÑĥÑģ ÑĮ
ĠÐ° ÑĤÑĢÑĭÐ¼
Ġà¦® à¦§à§įà¦¯
à¨ĩ à¨Ĩ
ĠÐ´ ÐµÐ±
ĠÐ½ Ð°ÑĦ
à»Ģàº «àº¼
ĠÎ½ Îµ
áĥ¡ áĥĲáĥ®
Ġáŀħáŀ¼áŀĽ áŀļáŀ½áŀĺ
ĠáŀĤáŁĴáŀļáŀ¿áŀĦ áŀīáŁĢáŀĵ
áŁ¡áŁ ©
×©×¨ ×Ļ×ĳ×Ł
áŀļáŀŁ áŁĭ
ch adh
Ġà²® à²¹
à¤¿à¤ ľ
×Ļ×Ľ ×ĺ
à°¿à°¤ à±įà°°
à²¬à²¹ à³ģà²¦à³ģ
ĠáĬłáĬķ áĭµ
Ġáĥĵ áĥĲáĥĻ
±áĢŀ áĢ¬áĢĢáĢ¹áĢ
±áĢĶáĢ ĲáĢ¬áĢ
ľáĢ½áĢ ĶáĢºáĢ
Õ¡Õ¯ Õ¡ÖĢÕ£
Ġà¨ľ à©Ģ
ĠÎµÏĢ Î¹Ïĥ
Ð°ÑĢ Ð¾
áŀļáŀĻáŁĪ áŀĸáŁģáŀĽ
Ġà¨¸ à©ĭ
à®° à¯įà®ķà®³à¯į
Ġà·Ģà·Ĵ à·ģ
Ġàª° àª®
áŀĻ áŀĶáŁĭ
Ġà°ķà°¾à°Ĥà°Ĺà±įà°° à±Ĩà°¸à±į
Ġag æīĭæľºå®¢æĪ·ç«¯
èŀ į
è´µ å·ŀ
è¯ķ éªĮ
çĶ³ è¯·
æĿ¥ çļĦ
æľ Ŀ
æĬķ èµĦ
åĸ ľ
åĪĨ pk10
å¼Ģ å§ĭ
åº ·
à¹ģà¸ ŀ
à¸ŀ à¸£à¸°
à¸ļà¸£à¸´ à¸ģà¸²à¸£
à¸µà¸¢ à¸Ļ
à¸£à¸¹à¹ī à¸ª
à¸£à¸¹à¸Ľ à¸Ĺà¸£à¸ĩ
à¸£à¸´ à¸¡
à¥įà¤¯à¤¾à¤¸ à¤¾à¤łà¥Ģ
à°° à°£
àºŃ àºµ
ĠÕ© Õ¾
Ð²Ð° Ðµ
áŀĸ áŀ·áŀı
Ġà¨ħ à¨ľ
áĥĶáĥĳ áĥĶáĥļáĥĺ
áŀĶ áŀĵáŁĴáŀĲáŁĤáŀĺ
ľáĢ®áĢ ļáĢ¬
à¤® à¥įà¤®
ļ áĢ¬áĢ¸áĢ
ĠáĪ ĵ
áĭ ¶
ĠÎ± ÎºÏĮ
àª¾àªµ à«Ģ
áŀĵáŁĴáŀĲ áŀĻ
ĠÑĤÑŀÒĵÑĢ Ð¸Ñģ
Ð»Ð°Ð½ Ð³Ð°Ð½
Ð¸ÑĢ Ð¸
Ġà´Ĩà´µ à´¶
áŀĳ áŀ¶áŀĵ
Ġà¦¬à¦¿à¦ Ń
V ari
Ġhas Vari
ĠhasVari ants
ang es
Ġv 2
ĠÚ© Ø§ÙĨ
áĥ¡ áĥ¢
áŀĲ áŁĴáŀĽáŁĤáŀĦ
à¥Ĥ à¤ª
Ġ×Ĵ×¢×ķ×ķ×¢ ×Ł
ĠÐ¿ Ð°Ð»
àºĶà»ī àº§àºį
à«ĩàª ĸ
áŀĩ áŀ·áŀı
à±Ĩ à°Ĥà°Ł
ĻáĢ¼áĢ ĶáĢºáĢ
Ïĩ ÏģÎ¹
áŀĢ áŁĨáŀİ
à©±à¨ ¥
ĠÕ ĩ
Ġà®ĩ à®²à¯įà®²
ĹáĢº áĢ¬
ĶáĢ¹áĢ¸áĢ ĢáĢ
ĳáĢ ±áĢ¬áĢĦáĢºáĢ
Ġà²¸ à²¹
Ġta ur
Ġonigb agbo
Ġob inrin
Ġnkan kan
ÏĨÎ¿ ÏģÎ¬
Ġi ye
Ġáĥ¥ áĥķáĥĶáĥ§
áŀ» áŀĳ
Ð»Ð°ÑĢÐ¸ Ð³Ð°
Ð´ Ð¾ÑĢ
Ġàªª à«Ĥ
Ġ????? ????
ĠÑı Ñŀ
Ġà¶Ķ à·Ģà·Ķ
Ġi ji
Ġgb Ã©
à¦¸ à§įà¦¤
à´¿à´¯ àµĨ
Ø® Ùĩ
Îº ÏĦÎ·
Õ¥ÖĢÕ º
àº»à»īàº²àº ®à»Īàº§àº¡
ĦáĢ ¼áĢ
ģáĢºáĢ ħáĢ¹áĢ
ģáĢ²áĢ· áģ¾áĢĢáĢ
ĠáĤĢ áĢĢ
Ġáģ¿áĢĻáĢŃáĢ³ áĤķáĢ
ĠáĢŀáĢ ¶áĢ
Ġà´¨ àµĩà´°
Ġà®µ à®¿à®³
áŀ¶áŀĵ áŀ¸
à¨¿à¨ ĸ
ĠÐ¼ Ð°Ð²
àº¸àºģàº Ħ
ĠÏħÏĢ ÏĮ
Ġà°° à°¾à°®
à±įà° ¡à°¿
à«ģàª ¦
à±Ģ à°ª
ĠáĢĽáĢĶáĢ¹áĢĢáĢ¯áĢ ĶáĢ¹áĢ
ĠáĢĻáĢ½áĢ ĲáĢ¹áĢ
ĠáĢĻ áĢ¬áĢ
áŀ¢ áŀ¶áŀļáŀĺáŁĴáŀĺáŀİáŁį
Ġf Ãºn
àº· àºŃàºģ
ĠÕ° Õ¡Õ¶Õ¤
à²¾à²Ĥ à²Ĺ
àµĨà´Ł àµģà´¤àµįà´¤
áŀ¡ áŀ»áŀĦ
àº¥ àº°
ĠNum ber
Ġsub str
Ġsc reen
Ġkey Code
Ġ=" ";
Ġm h
ĠáĥĲáĥĵáĥĲáĥĽ áĥĺáĥĲáĥľ
ĠáĢĺáĢ¯áĢĽáĢ¬áĢ¸áĢŀáĢģ áĢĦáĢº
ĠáĢĶáĢ ±áĢ
ĠÎ¼ ÏĢ
à¤ķà¥įà¤ ¸
×Ļ×ł ×ĺ
à´¿à´ ¡
à±ģà°ķ à±ģà°Ĥà°Ł
ĠÕ¯Õ¸Õ² Õ´
Ġà¨µà¨¾à¨² à©ĩ
ĠÑģ ÑĮ
ÑįÐ½ ÑĤ
áī Ĥ
ĠáĢĲáĢŃáĢ¯ áĢĢáĢ¹áĢ
ĠáĢĢáĢ ±áĢľáĢ¸áĢ
ĠáĢ¡áĢ ĤáĢ
áĢĢáĢ ²áĢ·áĢ
à¶»à¶« à¶º
à¦¤ à§įà¦¤
ĠáŁ¢áŁł áŁł
ĠáŀĽáŁĦáŀĢ áŀŁáŁĴáŀļáŀ¸
Ġáŀļ áŁĢáŀĶáŀħáŁĨ
ĠáŀĶáŁĴáŀļáŀł áŁĤáŀĽ
ĠâĢĭ :
Ġà»Ħ àº¥
ÏĨ ÎŃÏģ
à²°à³ģ à²µ
ĠàºĽàº°àº Ĭàº¸àº¡
ĠàºĹ àº°
ĠàºĦ àº°àºĻàº°
àºŀ àº§àºģ
à±ĩà° ¤
áĢĢ áĢ¯áĢŃáĢ
¾áĢ ±
±áĢĢáĢº áĢ¬áĢĦáĢ¹áĢ¸áĢ
ľáĢ ĻáĢºáĢ¸áĢ
à®¤ à®¾à®ķ
à´ªàµįà´ªàµĭ à´³àµįâĢį
àµĭ à´²
ĠÐ¿ Ð°Ð¼
à«ĩàª ¡
Ġáŀĵáŀ·áŀĻáŀ¶áŀĻ áŀĲáŀ¶
Ġáŀĳ áŀ¶áŀĵáŁĭ
Ġáŀĥ áŀ¶áŀıáŁĭáŀģáŁĴáŀĽáŀ½áŀĵ
áŁĦáŀĴáŀ ¶
ĠÐ° Ò³
Ġáĥŀ áĥĺáĥłáĥķ
áŀŁáŀĺ áŀıáŁĴáŀĲáŀĢáŀ·áŀħáŁĴáŀħ
áŀŁ áŁģáŀħáŀĢ
Î¸ Î¿ÏįÎ½
Ð°Ð² Ð°Ñŀ
áŀŁ áŀīáŁĴáŀī
Ð°Ñħ ÑĬ
Ð» ÑĥÐ¼
àºģ àº²àºį
Ġà°ķà±ĭ à°¸à°Ĥ
à¥įà¤¯ à¤¾à¤¯
ĠÔ± ÖĢÕ
àµģà´ ¨
áŀŁ áŀĦ
áŀļáŀĦ áŁĴáŀľáŀ¶áŀĵáŁĭ
Ġà·Ģà·Ĵ à¶§
Ġ×ĺ ×¢
Ġà¨¹à©ģ à©°à¨¦
Õ«Õ½ Õ¿
à²¦ à²²à³įà²²
à¤Ń à¥Ģ
Ð´ Ð·Ðµ
áŀĻ áŀĽáŁĭ
ĠÐºÐ°ÑĢ Ð´Ð°
Î³ Î±
áŀĺáŀ¶áŀĵ áŀĩáŁĲáŀĻ
áŀħáŁĨáŀİ áŀ»áŀħ
ĠáĭĪ áĭŃ
Ġà¤¬ à¤¢
áŀĢ áŀİáŁĴáŀıáŀ¶áŀĽ
ľáĢ ®
Ġà´ķàµįà´ °
à¤¾à¤¨ à¤¾
à§ĩà¦² à¦¾
áĥĲáĥł áĥĲ
áŀĢ áŀĦ
àº¸à»īàº¡ àºĦ
Õ¡Õ¢ Õ¡Õ¶
à±Ĩ à°ķ
àº· àºĻ
Ġ ÏĪ
Ġàª® à«ĭàªŁ
à¦¿à¦¨ à§įà¦¤
Ñĩ ÑĭÐ¼
ķáĢ±áĢ« áĢº
áŀĢ áŀ¸áŀ¡
à²¿à²¯ à²¨à³įà²¨à³ģ
Ïĩ Ïī
ĠáĥĻ áĥĲáĥłáĥĴ
àº²àºĶ àºķ
Ġà´ Ĳ
áŀ½ áŀī
à°Ł à±įà°²
áŀ¼áŀĽ áŀ·áŀŁ
áŀ¶áŀĵ áŀ¶
ĠÕ° Õ«Õ´
ach adh
à¯įà® ¨
Ïĥ ÏĨ
«àº¼ àº§àºĩ
ĠÎķÏĢ Î¹
àµĤ à´°àµįâĢį
Ġà´ĩ à´Ł
ĠáĥĶáĥłáĥĹ áĥĲáĥĵ
áŀ¡áŀ¾áŀĦ áŀľáŀ·áŀī
ķ áĢŃáĢ¯áĢĦáĢ¹áĢ
ĲáĢ ĶáĢºáĢ¸áĢ
ÏĦÎ¿ Î¹
ÑĮ Ð½Ñı
Ð½Ñĸ ÐºÑĸ
ŀ àº§àºģ
Ġé ĵ
Ġà¹ĥ à¸«
Ġà¹ģà¸ ļ
Ġà¹Ģà¸ ª
Ġà¸Ĺ à¸±à¹īà¸ĩ
Ġà¤Ĩ à¤¸
æĺ¯ ä¸Ģ
åįĹ çİĭ
à¹Ģà¸ Ĺà¸µà¹Īà¸¢à¸§
à¸Ńà¸²à¸ Ī
à¸Ļ à¸²à¸Ķ
à¸Ĺà¸µà¹Ī à¸Ķà¸µ
à¸ģà¸ ¡
à¸· à¹Īà¸Ļ
à¸ª à¹Īà¸ĩ
à¸ª à¸¹à¸ĩ
à¸§ à¸ģ
à¤¿à¤ ³
à§ģà¦ ĩ
ĠáŁ¢áŁłáŁ¡áŁ ¨
ĠáŁ¢áŁł áŁ¢áŁł
ĠáŀŁáŁĨ áŀģáŀ¶áŀĵáŁĭ
à¯ĭ à®Ł
à°¿à° ľ
ĠÎ² Î¬
ĩáĢ °áĢ¸áĢ
ĠáŀĸáŁĴáŀļáŀĺ áŀĳáŀ¶áŁĨáŀĦ
Ģ áĢ¬áĢ¸áĢ
ĠáŀĬ áŀĳáŁĥ
Ġà´µ à´³
Ð°Ð½ Ð½Ðµ
áĥĲáĥª áĥĺáĥĺáĥ¡
Ġer ek
Ġd ide
Ġal a
à¶± à¶¸à·Ĭ
à¦¾à¦¨ à§ĩà¦°
ĠáŀĤ áŀ½áŀļ
ĠáŀģáŁĤáŀĢ áŀĢáŁĴáŀĢáŀĬáŀ¶
ĠáĢĸáĢ ¼
Ġàªµàª°à«įàª ·
ĠáŀĢáŀĺáŁĴáŀĺ áŀľáŀ·áŀĴáŀ¸
Ġà®µ à®¿à®Ł
ĠR eb
ĠNigb ati
ĠIsa aki
ĠI á¹£
ĠÕ¶Õ¡ Öĩ
Ġ×Ĵ×¢ ×ĸ
à¤°à¥įà¤ ķ
ĠI rin
áº¹ wo
ĠáĢĴáĢ®áĢ ľáĢŃáĢ¯áĢ
áĤ ī
áģ¾áĢĢ áĢ¬áĢ¸
áĢĢáĢ ±áĢĽáĢ
áĢ±áĢĽ áĢ¸
½áĢ ĶáĢºáĢ¸áĢ
bes áº¹
agb ogbo
ag le
Ġá»į ba
Î»Î· ÏĤ
Ġs ise
ĠáŀĢ áŁĨ
ĠÎļ Ïħ
à²¿à²¨ à²²à³įà²²à²¿
Îķ ÎĻ
Î®Î¼Îµ ÏģÎ±
Ð°Ñİ ÑĨÑĨÐ°
Ġr Ã¡n
ĠáŀĢ áŀ¾áŀĵ
Ġáĥ¡ áĥ¬
à¶» à·ļ
Ġáŀ¢ áŀĵáŁĴáŀı
Ī àº°
Ð°Ñģ Ñģ
Ġp ipe
áŁĨáŀĸ áŀ¶áŀĢáŁĭ
Ġn Ã¬
Î¹ÎºÏĮ ÏĤ
áŁĦáŀĩáŀĵ áŁį
à´Ł à´¿
ĠÙħØ³ Ø§Ø¡
ĠÙħØ³Ø§Ø¡ Ùĭ
ow ed
ĠØ³ ÙĥØ³
Ġgen u
Ġgenu ine
on ical
Ġcan onical
Ġshipping F
ch anges
All owed
Ġyah oo
Ã® Ùį
Ġop tions
Ġ/ :
Ġr box
Ġbl ended
ĠÙ¿ ÙĬ
áŁģáŀĢ áŀľáŀ·áŀĳáŁĴáŀĻ
áŀŁáŁĴáŀŁ áŀĵáŀ¶
à°°à±įà° ¶
ĠÕ¥ÖĢÕ¯ ÖĢ
Ġà²ķà²¾à²° à³įà²¯
Ġmáº¹ ta
ĠáĪĺ áĪį
Ġà¦ķ à¦¥
àª¤ àª¾àªĤ
Ġà® Ĭ
áŀļáŀĶáŀŁáŁĭ áŀģáŁĴáŀĽáŀ½áŀĵ
Ġki ak
à´Ļàµįà´Ļà´³ àµģà´Ĥ
Ġkiak ia
Ġj á»į
±áĢĲáĢ¼ áĤĶáĢ
¡áĢŀ áĢĦáĢ¹áĢ¸áĢ
¡áĢħáĢ ĬáĢ¹áĢ¸áĢ
Ŀ áĢĦáĢ¹
ĽáĢ ļáĢ¹
ĹáĢº áĢ¬áĢ
ķ áĢĦáĢºáĢ
áŀļ áŁĨáŀĽ
ĠÎ± Î¾
Ġà¨¤ à¨°
áŀĺáŁĴáŀ ĸ
áĪ¨ áīµ
à¤¾à¤ ¢
à¶±à·Ĭà¶± à¶§
Ġiy áº¹
ÏģÎ± ÏĤ
Ġiran lá»įwá»į
áŀĶáŁĭ áŀļáŁĨ
Ġhak ii
Ġhac ks
Ġerek usu
Ġed e
áĥĺáĥĿ áĥľ
Ġà¦Ĩà¦® à¦¿
ĠØ¯ ÛĲ
×Ĳ ×ĺ
áŀĴ áŁĴáŀĵáŀ¼
áŀĦáŁĭáŀĤ áŁĴáŀĽáŁģáŀŁ
à®ķà¯įà®ķ à¯ģ
ĠÑĤÐ¾Ð¼ Ð¾Ð½
ĠÐ² Ð°ÒĽ
ĲáĢ±áĢ¬áĢ ·áĢ
Ġà¶± à·ı
à³įà²° à²®
Ġà¦ħ à¦°à§įà¦
ĠÎ³ Î½Ïī
Ð¿ÑĢ Ð°ÑĨ
Ġd abo
Ġbi i
Ġà»ĢàºĬ àº´à»Īàºĩ
} );
Ġb ha
à«Ģàª¤ à«ĩ
Ġà°° à±Ĩ
ģáĢ» áĢĦáĢºáĢ¸áĢ
áŀĤ áŁĴáŀļáŀ½áŀŁáŀ¶áŀļáŀ
à´ķàµįà´ °
à¤ ·à¥įà¤Ł
áŀºáŀļáŁī áŀ»áŀĶ
à·Ķ à¶»à·Ķ
Ðº Ð°Ñŀ
à©ľ à©įà¨¹
Ġaf ihan
ÏĦ Î¹Î±
Ġà®ª à®¤
ĠS ug
ĠSug bon
ĠReb ec
ĠRebec ca
ĠO á¹£
áĥĽ áĥĺáĥ¡
Ġáģ¾ áĢĢ
ĠáĢľáĢ ±áĢ
ĠO hun
áŀ¶áŀĬ áŀ¾áŀĺ
ĠØ® Ù¾
ĠMaj áº¹mu
ĠL oti
ĠJ uu
ĠH ac
ĠHac ks
s ibáº¹
ibáº¹ sibáº¹
agb ara
áŀ¶áŀĢ áŀĬ
ab obo
Ġá»į ja
ĠÕ¡Õ¶ Õ¾
áī ¹
Ġá»Į ba
à¶§ à·Ĵ
à³Ģ à²µ
Ġáº¹ á¹£áº¹
Ġto bi
Î½ ÎµÏĤ
à´ ĸ
ı áŁĤ
Ġtaur ine
Ġs ori
Ġpup á»į
Ð°Ð¿ ÑĢ
Ġà¦Ĩ à¦ĩ
Ġob irin
Ġnigb agbogbo
Ġláº¹ ta
Ġla ipe
Ġl il
Ġlil á»į
Ġà¤¨ à¥Ī
Ġká»į ni
Ġk ikun
Ġiyáº¹ wu
Ġir eti
Ġiji ya
Ġf if
Ġe bi
ĠÔ ·
Ġà®ĩà®° à¯ģà®ķà¯įà®ķ
Ġde ede
ĠáŁ¡ áŁ£
ĠáŀŁáŀĺáŁĴáŀ ĸ
Ġàºļ à»įàº¥àº´
Ġbáº¹ ni
Ġas opá»į
ĠW á»įn
Ġà¨µà¨² à©ĭà¨Ĥ
Ġà¨® à©Īà¨Ĥ
à±ĭ à°¤
ĠáŀŁ áŁĴáŀĢ
ĠáŀĽ áŁĴáŀĦáŀ¶áŀħ
ĠàºĹ àº²àºĩ
Ġáŀļáŀ ĺ
Ð´ Ð¸Ð¼
ĠáĥĽáĥĹ áĥĲáĥķ
Ġáŀĺ áŁĴáŀħáŀ¶áŀŁáŁĭ
ĠáĢĻáĢ ŁáĢ¯áĢ
ĠN itorina
ĠE agle
um á»į
Î»Îµ Îº
ĠÑĤÐ° Ò³
Ġà¤ķ à¤¿à¤¸
Ġàº«àº¼ àº²àºį
Ġà¨¬ à¨¹à©ģ
Ð°Ð² Ð°Ð½Ð½Ñı
Ġáŀĸ áŀĽáŀļáŀĬáŁĴáŀĭ
oj uto
Ġà´¸à´Ĥ à´¸àµįà´¥à´¾à´¨
ĠáŀķáŀĦ áŀĬáŁĤáŀļ
Ġà´ªàµįà´° à´¸
k Ãºn
à¤¾à¤² à¤¯
ĠáŀĶáŁĴáŀļáŀ ı
ĠáĢĻáĢ ²áĢ
il oju
igb agbá»į
aj áº¹
Ġá»į wá»į
ĠÎķÎ»Î»Î¬ Î´Î±
Ġàºª à»įàº²àº¥àº±àºļ
Ġàºª àº°àº«
à°°à°¿à° Ĺ
ĠÎ¿ÏĢÎ¿ Î¯Î±
ĠáĢķáĢĳáĢ ĻáĢ
Ġà¶¸ à·Ĵ
ĠáŀĬ áŁĨáŀĶáŀ¼áŀĦ
Ġà¦¥ à¦¾à¦ķ
à»ģàº¡à»Ī àºįàº´àºĩ
à»ĢàºĤ àºĶ
à²¿à²ķ à³Ĭà²³à³įà²³
Õµ Õ¸ÖĤÕ¶
à´¯ àµĨ
ĠáĥĽáĥ® áĥĿáĥļáĥĿáĥĵ
Ġá»į ká»į
à«ĩàª ¦
ĠáŀĩáŁĨ áŀļáŀ»áŀī
Ġáŀĩ áŀ¶áŀĵáŁĭ
ĠáŀĢ áŁĴáŀĶ
ĠÑģÐ¾Ð» Ð¸
Ġà¤¬ à¤¤
àºľ àº»àºĻàº
Ġáŀ¢ áŁĩáŀ¢áŀ¶áŀĦ
ĠæĽ ´
Ġå¾ Ī
Ġà¹Ģà¸ŀ à¸·à¹Īà¸Ń
Ġà¤¶ à¤ķ
Ġàª¸àª® àª¯
áŁĴáŀļáŀ ĩ
à¤¾à¤ ·à¥įà¤Łà¥įà¤°
Ġà´µà´¿à´ ¶
ĠáĢĴáĢ¯áĢĲáĢŃáĢ ļáĢ
Ïĥ Î¯
à¯įà®¸ à¯į
à±ģà°¨ à°¿
Ġ+ "
Ġ( !
Ġres ponse
Ġindex O
ĠindexO f
Ġ=[] ;
" );
ĠT una
ĠCar go
Ġb he
Ġ×§ ×ĲÖ¸
Ġ×Ĵ×¢ ×©×¨×Ļ×ĳ×Ł
áŁĴáŀ ł
ĠáĢĲáĢ ½áĢ±áĢ
Ġ×©×¤Ö¼ ×Ļ×ľ
×Ļ×Ĵ ×Ł
ĠÐ· Ð¼
àºĻ à»įàº²
Î¹Ïĥ Î¼Î¿Ïį
àºĪ àº°àº
áŁĩáŀĸ áŀ¶áŀĽáŁĭ
áĥĿáĥľ áĥĺ
ĠÕ¶Õ¡ÕŃ Õ¡Õ£
Ġà¶ļà¶§ à¶ºà·Ķ
à°¾à°² à±ĭ
áŁĨáŀİ áŁĤáŀĦ
Ġà´µ àµĩ
ÏĦ ÎµÎ¹
Õ«Õ½ Õ«
Ġà¥ ©
à¤°à¥įà¤ ¤
à¦Ĺ à§ģà¦²
ĠáĮ Ĭáĭľ
áŁģáŀŁ áŀ¶
áŁģ áŀĺ
ĠáĢĢáģ½áĢ¼áĢĶáĢ¹áĢ ±áĢĲáĢ¬áĢ¹áĢ
áĤı áĤĪáĢ
áĤ ĥ
áģ¿áĢ ģ
áĢŃáĢĻ áĢ¹
áĢ±áĢĲáĢ¬ áĢ¹áĢ
½áĢ ĻáĢºáĢ¸áĢ
à¶½ à¶§
ĠÑĩ Ð°Ð»Ð°Ð²
à²¿à²¦ à²°à³ģ
áŁ¡ áŁ¡
áŀľáŀ· áŀĢáŀ¶
ĠáĥĹ áĥ£áĥĽ
ĠÐ´Ð° ÑģÑĤ
Ġá»į kÃłn
Ú© Úĵ
áŀĺáŀ½áŀĻ áŀħáŁĨáŀĵáŀ½áŀĵ
Ġà¨¤à©ģ à¨¹
Ġáº¹ n
Ġà®® à®ķà¯įà®ķ
àº½ àºļ
ĠÕ¶ ÖĢÕ¡Õ¶
Ġá¹£ áº¹
àªĤàª ļ
áŀĸáŁĴáŀļáŀĺ áŀĸáŁĴáŀļáŁĢáŀĦ
Ġs áº¹
×¡×Ļ×ł ×ĲÖ¸
Ġ×ĸ ×Ĳ×ľ
ĠÏĮ Î¼ÏīÏĤ
áŀĸ áŁĴáŀĻ
Ġà´° àµĤà´ª
à°¾à°² à°¨à±ģ
Ġà¤¬ à¤¾à¤°
Ð½Ð¾ Ñŀ
à´¨ à´¿
Ġàª¸ à«įàªŁ
à¶¯ à·Ķà·Ģ
à²¾à² ļ
àº²àº§ à»Īàº²
àº±àºĶàºĸàº°àºļ àº²àºĻ
Ġà®¤à¯Ĭà®Ł à®°
ŀáĢ ¼áĢļáĢ¹áĢ
ŀáĢ »áĢĸáĢĦáĢ¹áĢ·
ĻáĢ½áĢ¬áĢ ķáĢ«
Ļ áĢŃ
áŀķáŁĴáŀŁ áŀ¶áŀļ
Ġáĥ¡áĥĲáĥ £áĥ
Ļ áĢ¬áĢ¸áĢ
áŀĶáŁĴáŀļáŀ Ĺ
Ġ×§×ĲÖ· ×¡×Ļ×ł×ĲÖ¸
×ķ ×Ļ×Ł
àº°àºŀ àº²àºļ
ĠÏĢ Î¬
Ġpup o
Ð½ÑĭÐ¼ Ñĸ
Ġà²¬ à²Ĺà³įà²Ĺà³Ĩ
Ùħ Ø¨Ø±
×¢×¨ ×ĺ
áŀĶáŁĴáŀļáŀ ħáŀ¶áŁĨ
à¤ľ à¤¾à¤°
Ġà´¸ à´¿
Ñĳ ÑĢ
ĠÕ¡Õ´ Õ¥Õ¶
àµĢ à´¸
Ġà¨® à¨¨
Ġdecor ation
C odes
X L
al ue
V alue
ĠÙĩ ÙĨ
à¶ľ à·Ļ
Ġot it
Ġotit á»į
Ġom o
áŀĶáŁĴáŀı áŀ¶áŀłáŁį
ĠnÃ¬ kan
à¶ Ľ
ĲáĢŃáĢ¯ áĢĦáĢºáĢ¸
à¥ģà¤ Ń
Ġà¨¦à¨¿ à©±à¨¤à¨¾
áŀı áŁĴáŀļáŀ¸
Ġn wa
Ġmeje ji
Ġk ik
Ġk eji
ĠÎ£ Îµ
áŀĬ áŀ¹áŀĢ
áĥĶáĥĳ áĥĿáĥĵáĥĲ
Ġj oko
Ġiá¹£ uu
Ġiá¹£ an
Ġil á»į
Ġik olu
Ġif un
Ġi wá»į
Ġey iti
áŀģ áŀİáŁĴáŀĮ
àº° àºĻàº¸
Ġat iláº¹
ĠY i
ĠR uth
ĠOr ÃŃ
Ġàªµàª¿àª ¶
à³ ¦
à²¾à²° à³ģ
ĲáĢ¯áĢŃ áĢĦáĢ¹áĢ¸áĢ
Ĩ áĢĢáĢºáĢ
ĠI ho
ĠDar by
áº¹ áº¹ráº¹
à´¾à´ Ļàµįà´ķ
à®¿à®²à¯įà®² à¯Ī
r Ãłn
Ġ×Ĳ×ķ ×Ļ×ļ
áŀĢáŀ¶áŀļáŀ ķ
Ġà°Ĺ à±įà°°
Ġà¤ħà¤ª à¤¨à¥ĩ
ĠÑĪ ÑĥÐ½
ÏĦÎ· ÏĦÎ±ÏĤ
ĠÑĪ ÑĥÐ´
Ñį Ðº
ĠáĥĽáĥĿáĥ ®
Ġà¶ī à¶¯
Ġà´ķ à´Ł
ond s
oh un
áŀ¶áŀĻ áŀĢáŀ¶áŀļáŀİáŁį
ħáĢ ħáĢºáĢ
ĠáĪ ķ
à¥Į à¤Ĥ
ÑģÐº ÑĸÑı
ip ada
Ġà¨Ń à¨¾à¨°
ig be
Ġá»į ráº¹
àºª àº²àºĻ
Ġáº¹n iti
Ġáº¹ mÃŃ
Ġt Ã³k
Ġa ig
ĠtÃ³k Ãłn
Ġsil áº¹
áŀ¶áŀķáŁĴáŀĳ áŁĥ
Ġs ibáº¹sibáº¹
Ġp ip
Ġos ere
Ġor uká»į
Ġoju ami
Ġohun ko
ĠÎľ ÏĢ
áŀ¢ áŀ¶áŀľáŀ»áŀĴáŀ
ĠáŀŁ áŁĨáŀĶ
Ġohunko hun
Ġof in
à¨¨ à©Ĥà©°
àº§ à»Īàº²àº
ĠÐ³ Ð°Ð»
à¤¿à¤ §
Ġà·Ħ à·Ļ
à±ĭ à°¡
Ġo se
ĠáŀŁ áŀ½áŀı
Ġáŀľáŀ·áŀŁ áŁĲáŀĻ
Ġmir an
Ġà®ī à®Ł
Ġm imá»į
Ġla ilai
Ġl ilo
Ġà´¶ àµįà´°
ĠÕ¶Õ¥ÖĢÕ¯ Õ¡ÕµÕ¡Öģ
Ġk Ãºn
Ġáĥ¨ áĥĶáĥĵ
Ġáŀľ áŁģáŀĽ
ĠÎĵ Î¹
Ġáŀĺáŀ·áŀĵ áŀĺáŁĤáŀĵ
à²¿à² ¬
Ġàªª àªĽà«Ģ
Ġ×Ĳ ×Ļ×ł
Ġip ele
ĠáĬ¥ áĭ¨
ĠÎ» ÎµÎ¹ÏĦÎ¿ÏħÏģÎ³
Ú ī
Ġin u
ĠáŀĴáŁĴáŀľáŀ¾ áŀĢáŀ¶áŀļ
à¶±à·Ĭà¶± à·Ļ
à±Ĩà°¡ à±įà°¡à°¿
Ġà°ĩ à°¦à°¿
ģáĢ» áĢ¯áĢķáĢº
ĠáŀĬ áŁĥ
Ġà¶ĭ à¶´
Ġg angan
Ġdoc tr
Ġdat ab
Ġdatab ase
Ġbar amu
Ġay an
Ġa á¹£áº¹
ĠÎ´Î· Î¼Î¹
Ġa jo
Ġà²¤ à²¿à²³
ĠÕªÕ¡Õ´ Õ¡Õ¶Õ¡Õ¯
Ð½ Ð°Ð»ÑĮ
ĠáŀĬ áŀĢ
Ġáģ ĤáĢ
ĠáĢŀáĢ° áĤķáĢ
ĠáĢĽáĢ ½áĢ
Ġáŀģ áŁĴáŀŁáŁĤ
ĠW r
ĠWr ang
ĠWrang ler
ĠW Q
ĠUs ed
ĠNo ah
ĠNo a
ĠN wá»įn
ĠJe ep
ĠIá¹£ uu
ĠH ak
ĠG old
ĠG ep
ĠGep a
ĠEd m
ĠEdm onds
ĠE mi
ĠE lo
ĠAp k
ĠAbraham u
Ġ70 th
t áº¹láº¹
ĠáŀĢáŀ¼áŀļáŁī áŁģáŀģáŀ¶áŀĦ
ĠáŀĢ áŀĵáŁĴáŀĽáŀĦ
r ere
or id
orid imu
ir isi
Ġà¤ķ à¥įà¤·
eg be
Ġáŀ§ áŀĢ
ĠáĢķáĢ ±áĢ¸áĢ
Ġáŀ¢áŀ¶áŀĩáŁĴáŀīáŀ¶áŀĴáŀ ļ
Ġ17 06
Ġ) âĢĭ
Ð´Ð· ÐµÐ»
áŁĦáŁĩ áŀĨáŁĴáŀĵáŁĦáŀı
Ġà´ª àµģà´±
Ġtrc _
ÙĨ ÙĩÙĨ
ĠÎ£ ÏĦÎ·
à®© à¯Ī
áŁĢ áŀŁ
áī ¤
Ġà¨¨ à¨¾
bre ak
DS 1
Ġá»į t
àª°à«įàª µ
à²¾à² ¶
Ġr ii
Ġr an
áŀļ áŀ¶áŀĽáŁĭ
ul der
Ī àºµàºĻ
ĠáĥĲáĥĵ áĥĴ
ĠâĢĭ ]
Ġà»ĢàºĹ àºĶ
Ġà»Ģ àºĶàº±àºģ
ĠÑħ Ð¸Ð·
ĠÑĤ Ñĭ
Ïĩ Î¹
ĠáĢĨ áĢ¯áĢŃáĢ
ĠáĢ±áĢ ģáĢ«áĢĦáĢ¹áĢ¸áĢ
ĠáĢ ķáĢ«
à¶° à·Ĵà¶´
áŀĸáŁĴáŀļ áŁĥ
ĠàºĽàº°àº Ĺ
ĠàºģàºŃ àºĩ
Ġà¶ħà¶´ à·ļ
à¦¿à¦ ·
ĠT at
à»ľ à»īàº²
ĠáĢ »áĢķ
áģ¿áĢĸáĢ ħáĢ¹áĢ
áģ¿áĢķáĢ ®áĢ
áĢºáĢ ĲáĢ
Ġor u
áŀĸ áŁģáŀĳáŁĴáŀĻ
»áĢ ¾
áŀĸ áŀ·
Ġà¨ ¥
ĠÑŀ ÒĽ
Ð°Ò³ Ð¾Ð¸
Ġor o
Ġà®ķ à®¾à®²
áŀķáŁĴáŀı áŀ¾áŀĺ
Ġà´İà´¨àµįà´¨ à´¿à´µ
Î¼ÎŃÎ½ ÏīÎ½
ĠÑı Ð½Ñĭ
Ġà²¬à³Ĩ à²³
àºĽ àºµ
Ġà¶¯à·ļ à·ģ
±áĢľ áĢ¬áĢĢáĢ¹
ľáĢ¯áĢ¶ áĢ¸
Ġon ÃŃ
áŀĶ áŁĴáŀļáŀ¶áŀĶáŁĭ
ÏĢÎ¿ ÏĤ
à¬ °
à¤°à¥įà¤ £
áĪĨ áĬĳ
ÖĢÕ ¯
áŀħ áŀļáŀ¶áŀħáŀļáŀİáŁį
áŀģáŁĴáŀĽ áŁĩ
Ġà¶´ à·Ħ
ľ áģ¢áĢ
ĻáĢ ļáĢº
Ġà²¤ à²¨à³įà²¨
àºĹ àº»àºļ
Ġàªķ àª¾àª®
ĶáĢ ½
ĮáĢ¬áĢ Ķ
Ġog o
Ġo un
Ĩ áĢĦáĢºáĢ
Ġà§ ¦
Ġà´¸ à´¾à´§
à¦Ļà§įà¦Ĺ à§ĩ
Ġà°Ĩ à°¯à°¨
Î»ÎµÏħ ÏĦÎ±
ĠÐ³Ð¾Ð´ Ð°
áŀĢáŁĴáŀļ áŁħ
Ġn se
Ġm bo
Ġla imu
Ġla aye
Ġka abo
Ġk Ãº
àºĶà»ī àº²àºĻàº
Ġà°µ à±Ģ
à©Ģ à¨°
à¤¾à¤° à¤¾
ĠÎĶ Îµ
à«Ģàª §
Ġà¦Ĩ à¦¬
ĠáĥĲáĥ¡ áĥĶáĥķáĥĶ
ħáĢ īáĢºáĢ
áŀĢáŁĨáŀĸ áŀĦáŁĭ
áŀĢáŀ¶áŀļáŀ ĬáŁĴáŀĭáŀ¶áŀĵ
Ðº Ð°Ð¼
ĠÎ±Ïħ ÏĦÎ¿
áŀ· áŀļáŀ¸
áŀ¢áŁĨáŀĸ áŀ¼áŀĽ
ĠáŁ¡ áŁ¦
ĠáŀŁáŁĴáŀĲ áŀ¶áŀĵ
Ġis oro
Ġim ud
Ġim or
Ġim min
Ġil era
Ġib atan
Ġg bol
à²¦à³ģ à²ķ
àºĬ àº·à»Ī
Ġgbol ohun
Ġáŀľ áŀ·áŀĵáŀ·áŀĻáŁĦáŀĤ
ĠáŀĽ áŀ»áŀĻ
Ġáŀĸ áŀ¶áŀĢáŁĭ
Ġf owo
Ġà¨Ĺ à¨ı
Ġà®Ĩ à®©
Ġàª² àª¾àªĹ
Ġf ihan
Õ¥Õ¶ Öģ
Ġer o
Ġáŀķ áŁĤáŀĵ
à±ģà°ķà±ĭ à°µ
à·Ĳ à¶ºà·Ĵ
Îº ÎŃ
Ð½Ñĸ ÐºÐ°
Ġà¦ı à¦®
Ġà¤¯ à¤¾à¤Ĥà¤¨à¥Ģ
Ġe yo
ĠáŀĶáŀ» áŀĤáŁĴáŀĤáŀĽ
Ġdoctr ine
Ġat un
Ġa ile
Ġaile wu
ĠS ale
ĠO L
ĠOL U
ĠOLU WA
ĠN T
ĠL á»į
Ġà²Ī à²Ĺ
àº´àºĶàº ª
ĠL ati
ĠÑĤ ÑĭÐ¼
ĠáŀĶáŀ¶áŀĵ áŀĴáŁĴáŀľáŀ¾
ĠÐºÑŀ Ð¿
ĠÐ±Ñŀ Ð»Ð¸Ð±
ĠÒĽ ÑĥÑĢ
àª° à«ĩ
ĠJ áº¹
ĠÑŀ ÑĤÐºÐ°Ð·
ĠÑĤÐ°Ð´ Ð±Ð¸ÑĢ
ĠÑģÐ¾ Ò³
ĠI me
ĠIme eli
ĠGen es
ĠGenes isi
ĠGb ogbo
Ġáĥ £
ĠÏĢÏģÎ¿ ÏĤ
Ġà´ §
ĠáŀĶ áŀ»áŀĢ
Ġáŀıáŀ¶áŀļ áŀ¶
Ġà¨¸ à¨¹
Ġ×Ĳ ×Ļ×Ļ×ł
ĠFir st
ĠE li
ĠEli es
ĠElies eri
ĠA sa
áº¹s áº¹
Ġáŀıáŀ¶áŀĺ áŀļáŀĻáŁĪ
Ġà¤ī à¤¨à¥įà¤¹
ĠáĢĺ áĢ¯áĢ
ĠáŀĨáŁĴáŀĽáŀ¾áŀĻ áŀıáŀĶ
Ġáŀģáŀ¶áŀĦ áŀĽáŀ¾
à¶« à·Ĵ
Ġ( âĢĭ
áº¹ d
àŃ į
à¥įà¤ Ĺ
áŁĴáŀļáŀ¡ áŀ¶áŀīáŁĭ
Ã³ Ã²
áŁĴáŀĸ áŀ¶áŀĵ
Ġ() )
Ġp d
Ġ* =
Ġpo inter
Ġpar ent
Ġ) ||
Ġ __
} };
Ġn f
Ġbh ith
ĠØµ Ø¨
àº²àºģàº Ń
à´¾à´ ľ
áĪ ²
à²² à²¿
ĠáĢĲáĢŃáĢ¯ áĢ¸áĢ
áĥĺáĥłáĥ ĵ
áŁĴáŀī áŀ¾
áŀŁ áŁĴáŀļáŀŁáŁĭ
ren cy
Ġcur rency
ĠÚ Ģ
áŀŁ áŁĢáŀĺáŀļáŀ¶áŀĶ
áŀľáŀ· áŀĩáŁĴáŀĩ
ĠÐ¿ ÐµÑĪ
àª¾àª£ à«Ģ
àº°àºĸàº²àºĻàº µ
áŀĸ áŀ·áŀĴáŀ¸
àº°àº« àºĻ
à´¤àµįà´¤ à´¿
ĠáĢĨ áĢĢáĢºáĢ
Ñĸ ÑĨÑĨÐ°
Õ£ Õ¡ÕµÕ«Õ¶
áŀķáŁĴáŀĽáŁĤ áŀĤáŀ¼áŀĽáŁĤáŀĵ
áŀĶ áŀ¶áŀĳ
àº°àº¡ àº²àºĻ
Ġà¦¨ à¦¾à¦®
ĠÎ¼ÏĮ Î½Î¿
áŀĢáŀ¾áŀı áŀłáŁģáŀıáŀ»
áŀ¼ áŀļáŀ
à±Ĥà° ª
up o
d ÃŃ
à²Ĥà²¤ à²°
Ġà¨ª à¨¾à¨°
áŀ¶áŀĳ áŀ·áŀıáŁĴáŀĻ
Ġà®ķ à®²
Ġàªķ à«ĭ
Ġáĥ§áĥķáĥĶáĥļ áĥĲ
Ġà¶Ńà¶¸ à¶ºà·Ĵ
Ġà¶¯ à·Ļà¶±
ĠáŀŁáŁĴáŀĲ áŀ¶áŀĶ
Ġàªķàª° àªµàª¾
Ġà´¸ à´°àµįâĢįà´ķàµįà´ķ
Ġà´µ àµĩà´£àµįà´Ł
àº¥ àº²
Ïĥ Î¼Î±
Ġà¨ķà¨° à¨ķà©ĩ
Õ¶Õ¥ÖĢ Õ¸ÖĤÕ´
Ġáŀļ áŁĢáŀĶ
Ġà°µà°¿à° ·
áĮ ĥ
ĠáĢĤ áĢºáĢ
ĠáĢ±áĢĴáĢ ŀáĢ
ĠáĢ¡áĢ ľáĢ
éĶģå±ı å£ģçº¸
çļ ®
ç» ĩ
çª ģ
æĿ Ģ
æĻ º
æīĭæľº çĻ»éĻĨ
å® £
å¤« äºº
å «
ä» ¤
à¹īà¸²à¸ ģ
à¹ ĭ
à¸ķ à¹īà¸Ļà¸
à¸Ħ à¸¥
à¸µà¸§ à¸´à¸ķ
à¸´à¸ĩ à¸«
à¸±à¸Ļà¸ ĺ
à¸«à¸Ļ à¹īà¸²
à¸«à¸¥ à¸²à¸¢
à¥įà¤¹ à¥Ģ
ĠØ¯ Ø§
ĠáŀĶ áŀ¹áŀĦ
àµĭà´Ł àµį
Ġà¦Ĩà¦® à¦¾à¦°
Ġáŀı áŁĴáŀļáŀ¸
ĠáŀĪ áŀ¾
ĠáĢ¡áĢ ĶáĢ¬áĢ
à¥ĩà¤ ľ
ap ata
akan na
Ïģ ÎµÎ¹
ĠáĢ¡áĢ ħáĢ¬áĢ¸áĢ
Ġá¹£ Ãł
Ġà·Ģ à·ĥ
à¦¿à¦ ¯
ĠáĥĶ áĥĻ
ĠáŀĢáŀ¸áŀ¡ áŀ¶áŀĢáŀļ
×ł ×¢×¨
à±įâĢĮ à°²à±ĭ
Ġáŀ¢áŁĴáŀĵáŀĢ áŀŁáŁĴáŀļáŀ¸
Ġáŀ¢ áŀıáŁĭ
ĠÃ¬ y
Ġáŀ Į
ĠáĢ ĸáĢ¼áĢ
à¯ģà® ªà¯į
àµĭ à´°àµįâĢį
à´¨àµįà´¤àµįà´° à´¿
Ð³Ð°Ð½ ÑĸÐ·
Ġà´ķà´´ à´¿à´ŀàµįà´ŀ
áŁĴáŀļáŀ¾áŀŁ áŀļáŀ¾áŀŁ
Ġy ipada
Ġy ara
Ġtáº¹ táº¹
ĠtÃº má»į
áŁĴáŀļáŀ¹ áŀıáŁĴáŀı
Ĺàºµà»Ī àºª
áŁĴáŀļáŀ¡ áŀĶáŁĭ
Ġtag ged
Ġt ete
áĥĲáĥ¡ áĥ¢
à¨¾à¨ ı
Ġsáº¹ áº¹li
Ġrap tu
Ġraptu red
Ġpost ed
Ġpat ch
Ġpatch ed
Ġp innu
Ġà²¨ à²¾à²¨à³ģ
Ġoj utu
à¦¾à¦° à§ĩà¦°
Ġo oto
Ġni fe
Ġnd uro
Ġn s
Ġn ini
Ġl odi
Ñħ Ð¾Ð½
Ġká»į á»įkan
Ġkir aki
Ġkik á»į
Ġk oju
ÎĹ Îľ
Î³ Î·
à³ģà²µ à³ģà²¦
Ġja il
Ġjail break
Ġit oju
àª¿ àª®
Ġiran á¹£áº¹
Ġimor iri
Ġik oko
áŁĴáŀļ áŀ¶
Ġih in
Ġihin rere
Ġifun box
Ġib as
Ġà¶´ à·ħ
ĠÚª Ø±
Ġibas ep
áŁģáŀŁ áŀĶáŁĬ
áŁģáŀŁáŀĶáŁĬ áŀ»áŀĢ
áŀŁ áŀĦáŁĭ
Ġà´ķ àµĪ
ĠÕ¸ ÖĢÕ
áĤıáĢ½ áĢĦáĢ¹áĢ·áĢ
áĤ Ĵ
áĢŃáĢ³ áĢ
áĢĢáĢŃáĢ¯áĢ ļáĢ¹áĢ
áĢ±áĢ ·áĢ
Ġ×ķ×ķ×¢ ×Ł
Ġi waju
Ġi ri
Ġiri ra
Ġi ku
Ġgáº¹gáº¹ bi
Ġgb igbe
ĠÐ´ Ð°Ñģ
áĥ£áĥ ¥
áŀļ áŁĦáŀĤ
Ġgb igba
Ġgb ad
Ġfáº¹ rÃłn
Ġeng ine
Ġdownload en
Ġd Ãł
à°° à±ģ
áĪŃ áĪµ
Ð°Ð² Ð¾Ð½
à¤¯ à¥ĭà¤Ĺ
áŀĺáŀ·áŀĵ áŀĶáŀ¶áŀĵ
ĠÏĦ ÏģÏĮ
áŀĳáŁĴáŀĴáŀ Ĺáŀ¶áŀĸ
ĠÐ³ÑĢ Ð°Ð¼
à®¿à®ķ à¯į
Ġc yd
Ġcyd ia
Ġay áº¹wo
Ġay ed
Ġayed ero
Ġar iy
Ġariy anj
Ġariyanj iyan
Ġand ro
Ġandro ide
Ġala igbagbá»į
Ġal Ã¡
ĠáĥĹáĥ£áĥĽ áĥªáĥĲ
à´¿à´Ĥ à´Ĺ
Ġà¨ħ à¨¨à©ģ
ĠÐ² ÑĭÑĢ
áŀĳ áŁĨáŀĸ
Ġà¦¬ à¦Ľ
Ĭàº²àºĬ àº»àºĻàº
à°³ à±įà°³
ģ à»įà»Ī
ĠÐ¼ Ñı
à·Ĵà¶± à·Ĵ
ĠÎł Î¿Î»
áŀı áŁĴáŀĶáŀ¼áŀĦ
ĠalÃ¡ Ã¬
Ġà»Ģàº¡ àº·à»ĪàºŃ
±áĢĶáĢ ĽáĢ
±áĢĶ áĤĶáĢ
ĽáĢĦáĢ¹áĢ ±áĢĲáĢ¬áĢ·
ļáĢ¬áĢ īáĢºáĢ
Ġà¤ķ à¥ģà¤
Ġal ug
Ġalug oridimu
Ġa stu
Ġastu ce
ĠWQ DS1
ĠT ess
ĠTess al
ĠTessal on
ĠTessalon ika
ĠSol usan
ĠR ah
ĠP áº¹lu
ĠN ipa
ĠMe je
ĠKing d
ĠKingd oms
ĠJer us
ĠJerus al
ĠJerusal emu
ĠHak en
ĠGir iki
ĠDi áº¹
ĠD ahun
á»į s
à³Ģ à²°
ĠáĬł áĪį
áŀĩáŁĨáŀĵ áŀ¶áŀī
á»į nu
Ãº ká»į
ĠÐ¿ÐµÑĢ ÑĪ
ĠÎµ ÏĨ
Ġà¨« à¨¼
áŀħ áŁĤáŀĢ
à¶¸ à·ļ
àª¨à«įàª ¡
ĠáĥĳáĥĲáĥķáĥ¨ áĥķ
áŀĤ áŁĴáŀĺáŀ¶áŀĵ
×¤ ×¢
à©ĭ à¨Ł
ĠÏĩ ÏģÎ·
y el
w Ãº
ĠàºŃàº¸ àºĽàº°àºģàºŃ
à¤¾à¤¸ à¥Ĥà¤¨
à°¾à°° à°¿
à²¿à²¦à³įà²¦ à²°à³ģ
Ġàºľ àº»àºĻ
Ġàºķ àº²àº¡
ĻáĢ½áĢ´ áĢ¸
ķáĢ ½áĢ¬áĢ¸áĢ
à§ģ à¦¦à§įà¦§
áŀģ áŀ¶áŀı
our ces
os ile
ĠáĥĲáĥķ áĥ¢
Õ¡Õµ Õ¸ÖĤÕ´
áŀĢáŀ¶áŀļáŀ Ĥ
Ġà´ķ àµĭà´Ł
om u
ok un
gb Ãł
Ġà®ĩà®¨à¯įà®¤ à®¿à®¯
ĠàºĤ àº°
Ġàº«àº¼ àº·
Ġà´® à´±àµįà´±
à¤¾à¤¤ à¥įà¤°
Ġà·ĥà¶¸à·Ĭ à¶¶
ÑĤÑĭ Ñŀ
Ġà®µà®¾à® ´
áĥĿáĥĳ áĥĲáĥ¡
áŀ· áŀĺ
Ġair son
à±Ģ à°ķ
Ġáīł áĪĽ
áŀ²áŁĴáŀĻ áŀĺáŀ¶áŀĵ
ĠâĢĭâĢĭâĢĭâĢĭâĢĭâĢĭ âĢĭâĢĭ
ĠáŁĸ âĢĭ
ĠáŀŁ áŀļáŀ»áŀĶ
ĠáŀĻ áŀĶáŁĭ
· à«įàªŁ
ĠáŀĺáŁī áŀ¶áŀĢ
ķáĢ ±
Ġáŀĺ áŁĴáŀĬ
ĠÐ³ ÑĸÑģÑĤ
Ġáŀĸáŀ½áŀĢ áŀĤáŁģ
ĶáĢº áĢĢáĢ¼áĢ®áĢ¸áĢ
Ġà®µ à¯Ģ
ĠÎ¿ Î¹ÎºÎ¿Î½Î¿Î¼
Ġà²Ńà²¾à²° à²¤
Ġà¦¤ à¦¾à¦¦à§ĩà¦°
àµįà´¯ à´¾à´ª
ĴáĢ ®
ĲáĢºáĢ ¡áĢ
áĥł áĥĲáĥľ
Ġà²° à³Ī
àµĭ à´·
ĠÎ» Î±
Ġà°ķ à±įà°°
ĠÑĨ ÑĭÑĨ
ÑĥÐ»ÑĮÑĤ ÑĥÑĢ
àµģà´ ¸
à¨ķ à©Ģ
Ġà²®à³Ĥ à²²
ĠÑĪ ÑĥÐ´Ð°
Ĳ áĢĦáĢ¹
ĨáĢ ²áĢ
à¯įà®ª à¯įà®ª
ĠÐ±ÑĭÐ» Ð°
ÏģÎ¯ ÏĤ
Õ¸ÖĤÕµ Õ©
ĠáĥĶ áĥ¥
Ġ×ł ×ĲÖ¸
[...]
