{
  "version": "1.0",
  "truncation": null,
  "padding": null,
  "added_tokens": [
    {
      "id": 31995,
      "content": "[UNK]",
      "single_word": false,
      "lstrip": false,
      "rstrip": false,
      "normalized": false,
      "special": true
    },
    {
      "id": 31996,
      "content": "[CLS]",
      "single_word": false,
      "lstrip": false,
      "rstrip": false,
      "normalized": false,
      "special": true
    },
    {
      "id": 31997,
      "content": "[SEP]",
      "single_word": false,
      "lstrip": false,
      "rstrip": false,
      "normalized": false,
      "special": true
    },
    {
      "id": 31998,
      "content": "[PAD]",
      "single_word": false,
      "lstrip": false,
      "rstrip": false,
      "normalized": false,
      "special": true
    },
    {
      "id": 31999,
      "content": "[MASK]",
      "single_word": false,
      "lstrip": false,
      "rstrip": false,
      "normalized": false,
      "special": true
    }
  ],
  "normalizer": null,
  "pre_tokenizer": {
    "type": "Sequence",
    "pretokenizers": [
      {
        "type": "Whitespace"
      },
      {
        "type": "ByteLevel",
        "add_prefix_space": true,
        "trim_offsets": true,
        "use_regex": false
      }
    ]
  },
  "post_processor": null,
  "decoder": {
    "type": "ByteLevel",
    "add_prefix_space": true,
    "trim_offsets": true,
    "use_regex": true
  },
  "model": {
    "type": "BPE",
    "dropout": null,
    "unk_token": null,
    "continuing_subword_prefix": null,
    "end_of_word_suffix": null,
    "fuse_unk": false,
    "byte_fallback": false,
    "ignore_merges": false,
    "vocab": {
      "Ŀ": 0,
      "Ó": 1,
      "Ń": 2,
      "ñ": 3,
      "S": 4,
      "h": 5,
      "*": 6,
      "i": 7,
      "Ý": 8,
      "ľ": 9,
      "Á": 10,
      "P": 11,
      "è": 12,
      "ô": 13,
      ")": 14,
      "Ã": 15,
      "¤": 16,
      "Ė": 17,
      "æ": 18,
      "ā": 19,
      "(": 20,
      "±": 21,
      "&": 22,
      "Ò": 23,
      "X": 24,
      "£": 25,
      "È": 26,
      "ĺ": 27,
      "ß": 28,
      "m": 29,
      "Ð": 30,
      "ļ": 31,
      "4": 32,
      "Ġ": 33,
      "$": 34,
      "ć": 35,
      "¾": 36,
      "k": 37,
      "ë": 38,
      "¡": 39,
      "Î": 40,
      "Y": 41,
      "Ì": 42,
      "t": 43,
      "]": 44,
      "¿": 45,
      "ĸ": 46,
      "ħ": 47,
      "O": 48,
      "ą": 49,
      "v": 50,
      "\"": 51,
      "á": 52,
      "^": 53,
      "Ī": 54,
      "Ü": 55,
      "ö": 56,
      "9": 57,
      "Ĵ": 58,
      "Ģ": 59,
      "[": 60,
      "Č": 61,
      "%": 62,
      "Ê": 63,
      "#": 64,
      "¶": 65,
      "F": 66,
      ".": 67,
      "8": 68,
      "z": 69,
      "Ą": 70,
      "¢": 71,
      "·": 72,
      "Ě": 73,
      "é": 74,
      ":": 75,
      "ĭ": 76,
      "¯": 77,
      "¸": 78,
      "V": 79,
      "n": 80,
      "ě": 81,
      "3": 82,
      "'": 83,
      "Ĥ": 84,
      "Â": 85,
      "G": 86,
      "ı": 87,
      "ä": 88,
      "ĵ": 89,
      "¨": 90,
      "Ĺ": 91,
      "ĕ": 92,
      "å": 93,
      "º": 94,
      "?": 95,
      "ò": 96,
      "C": 97,
      "É": 98,
      "ķ": 99,
      "E": 100,
      "2": 101,
      "ē": 102,
      "«": 103,
      "ă": 104,
      "¬": 105,
      "\\": 106,
      "o": 107,
      "Í": 108,
      "Õ": 109,
      "Ċ": 110,
      "ĥ": 111,
      "÷": 112,
      "ł": 113,
      "e": 114,
      "³": 115,
      "¼": 116,
      "q": 117,
      "A": 118,
      "f": 119,
      "Þ": 120,
      "d": 121,
      "þ": 122,
      "ė": 123,
      "®": 124,
      "Ē": 125,
      "į": 126,
      "+": 127,
      "c": 128,
      "ċ": 129,
      "Į": 130,
      "ī": 131,
      "Ä": 132,
      "j": 133,
      "Ā": 134,
      "Ï": 135,
      "~": 136,
      "ø": 137,
      "p": 138,
      "ð": 139,
      "Ľ": 140,
      "Å": 141,
      "¥": 142,
      "W": 143,
      "{": 144,
      "ĝ": 145,
      "Ĝ": 146,
      "õ": 147,
      "Ğ": 148,
      "R": 149,
      "ù": 150,
      "|": 151,
      "L": 152,
      "/": 153,
      "ç": 154,
      ";": 155,
      "N": 156,
      "Ć": 157,
      "`": 158,
      "K": 159,
      "¹": 160,
      "l": 161,
      "ģ": 162,
      "Ö": 163,
      "T": 164,
      "â": 165,
      "x": 166,
      "Ĩ": 167,
      "Ĉ": 168,
      "°": 169,
      "İ": 170,
      "U": 171,
      "Ę": 172,
      "0": 173,
      "À": 174,
      "Ñ": 175,
      "Æ": 176,
      "č": 177,
      "Ç": 178,
      "×": 179,
      "»": 180,
      "²": 181,
      "7": 182,
      "s": 183,
      "1": 184,
      "b": 185,
      "y": 186,
      "Ă": 187,
      "Ħ": 188,
      "Ķ": 189,
      "½": 190,
      "ª": 191,
      "w": 192,
      "ì": 193,
      "ď": 194,
      "ġ": 195,
      "ó": 196,
      "g": 197,
      "B": 198,
      "Ú": 199,
      ">": 200,
      "Q": 201,
      "ĉ": 202,
      "ÿ": 203,
      "à": 204,
      "Đ": 205,
      "ý": 206,
      "Ď": 207,
      "<": 208,
      "}": 209,
      "ü": 210,
      "Ł": 211,
      "6": 212,
      "í": 213,
      "_": 214,
      "D": 215,
      "5": 216,
      "ê": 217,
      "µ": 218,
      "î": 219,
      "-": 220,
      "a": 221,
      "ú": 222,
      "Ĭ": 223,
      "đ": 224,
      "u": 225,
      "©": 226,
      "Z": 227,
      "Ë": 228,
      "ğ": 229,
      "§": 230,
      "!": 231,
      "J": 232,
      "r": 233,
      "Ô": 234,
      "¦": 235,
      "ĩ": 236,
      "ã": 237,
      "Û": 238,
      ",": 239,
      "I": 240,
      "´": 241,
      "ŀ": 242,
      "ï": 243,
      "Ù": 244,
      "ę": 245,
      "Ļ": 246,
      "ĳ": 247,
      "Ĳ": 248,
      "=": 249,
      "û": 250,
      "M": 251,
      "Ø": 252,
      "Ĕ": 253,
      "H": 254,
      "@": 255,
      "Ġ.": 256,
      "ĠÐ": 257,
      "Ġà": 258,
      "Ð°": 259,
      "Ġ,": 260,
      "an": 261,
      "en": 262,
      "er": 263,
      "in": 264,
      "áĥ": 265,
      "Ġs": 266,
      "Ġd": 267,
      "ar": 268,
      "à¸": 269,
      "áĢ": 270,
      "Ġp": 271,
      "à¤": 272,
      "Ġa": 273,
      "Ð¾": 274,
      "Ġt": 275,
      "Ðµ": 276,
      "Ð¸": 277,
      "Ð½": 278,
      "Ġm": 279,
      "ÑĤ": 280,
      "ÑĢ": 281,
      "es": 282,
      "áŀ": 283,
      "on": 284,
      "ĠØ": 285,
      "à°": 286,
      "Ġn": 287,
      "à²": 288,
      "at": 289,
      "Ġ-": 290,
      "al": 291,
      "Ġk": 292,
      "or": 293,
      "Ġc": 294,
      "à¦": 295,
      "el": 296,
      "is": 297,
      "à´": 298,
      "Ġb": 299,
      "Ð»": 300,
      "Ñģ": 301,
      "et": 302,
      "as": 303,
      "âĢ": 304,
      "Ġ1": 305,
      "Ġv": 306,
      "Ġl": 307,
      "à®": 308,
      "it": 309,
      "Ġ2": 310,
      "Ġ×": 311,
      "Ø§": 312,
      "Ġ:": 313,
      "Ġh": 314,
      "il": 315,
      "ĠâĢ": 316,
      "Ġo": 317,
      "un": 318,
      "àª": 319,
      "Ñĥ": 320,
      "Ð°Ð": 321,
      "re": 322,
      "om": 323,
      "Ġf": 324,
      "à·": 325,
      "am": 326,
      "ĠÙ": 327,
      "ĠS": 328,
      "à¥": 329,
      "os": 330,
      "ĠA": 331,
      "Ð´": 332,
      "à¶": 333,
      "ad": 334,
      "¿½": 335,
      "ï¿½": 336,
      "Ġà¤": 337,
      "ĠÎ": 338,
      "em": 339,
      "ur": 340,
      "Ġ(": 341,
      "Ġg": 342,
      "ĠÃ": 343,
      "Ñĭ": 344,
      "Ðº": 345,
      "ti": 346,
      "ak": 347,
      "ĠM": 348,
      "Ġi": 349,
      "Ġw": 350,
      "ãģ": 351,
      "àµ": 352,
      "Ġ)": 353,
      "ch": 354,
      "Ø±": 355,
      "ed": 356,
      "ĠP": 357,
      "us": 358,
      "ol": 359,
      "ÛĮ": 360,
      "Ġde": 361,
      "à±": 362,
      "à¯": 363,
      "ĠC": 364,
      "à³": 365,
      "ÙĦ": 366,
      "Ġ\"": 367,
      "Ġe": 368,
      "Ã¡": 369,
      "à¨": 370,
      "Ð¾Ð": 371,
      "ik": 372,
      "ro": 373,
      "ÙĨ": 374,
      "Õ¡": 375,
      "Ġ0": 376,
      "ĠT": 377,
      "ÙĪ": 378,
      "id": 379,
      "Ġj": 380,
      "ĠB": 381,
      "×Ļ": 382,
      "ra": 383,
      "Ñĸ": 384,
      "ul": 385,
      "Ġ20": 386,
      "à§": 387,
      "ï¿½ï¿½": 388,
      "ĠD": 389,
      "ent": 390,
      "×ķ": 391,
      "Ġin": 392,
      "ie": 393,
      "ir": 394,
      "áŁ": 395,
      "ag": 396,
      "ing": 397,
      "Î±": 398,
      "Ã©": 399,
      "Ġ/": 400,
      "à¹": 401,
      "ĠÑ": 402,
      "im": 403,
      "ut": 404,
      "ic": 405,
      "Ð¼": 406,
      "ÏĦ": 407,
      "Ġ3": 408,
      "Õ¡Õ": 409,
      "ĠØ§": 410,
      "ot": 411,
      "Ġà¦": 412,
      "Î¿": 413,
      "um": 414,
      "ĠK": 415,
      "ĠÕ": 416,
      "×ķ×": 417,
      "Ġr": 418,
      "ia": 419,
      "ta": 420,
      "ig": 421,
      "le": 422,
      "Ã¤": 423,
      "ĠE": 424,
      "Ä±": 425,
      "Î¹": 426,
      "ĠL": 427,
      "Ã«": 428,
      "Ð²": 429,
      "te": 430,
      "ÃŃ": 431,
      "ĠÑģ": 432,
      "ang": 433,
      "ÉĻ": 434,
      "Ġy": 435,
      "and": 436,
      "à«": 437,
      "Ġz": 438,
      "ĠN": 439,
      "àµį": 440,
      "Ġà°": 441,
      "Ð³": 442,
      "Ùħ": 443,
      "ĠÂ": 444,
      "áĥĲ": 445,
      "ĠH": 446,
      "×Ļ×": 447,
      "Øª": 448,
      "ÙĬ": 449,
      "Ġà²": 450,
      "ĠI": 451,
      "ĠÐ¿": 452,
      "ek": 453,
      "à¤¾": 454,
      "Ð°Ð½": 455,
      "Ġàª": 456,
      "à¯į": 457,
      "àº": 458,
      "ĠR": 459,
      "Ñı": 460,
      "Ø¯": 461,
      "ãĤ": 462,
      "Ġ201": 463,
      "Ð°ÑĢ": 464,
      "he": 465,
      "Îµ": 466,
      "Ġáĥ": 467,
      "á»": 468,
      "st": 469,
      "Ú©": 470,
      "ãĢ": 471,
      "ĠF": 472,
      "od": 473,
      "ĠÐ½": 474,
      "Î½": 475,
      "ay": 476,
      "ãĥ": 477,
      "Ã³": 478,
      "Ġ4": 479,
      "ab": 480,
      "ĠG": 481,
      "Ġ5": 482,
      "Ġcom": 483,
      "Ð°Ñ": 484,
      "ac": 485,
      "Ùĩ": 486,
      "Ġà¶": 487,
      "ov": 488,
      "qu": 489,
      "ĠV": 490,
      "ap": 491,
      "Ġì": 492,
      "eg": 493,
      "ah": 494,
      "ĠW": 495,
      "áĥĲáĥ": 496,
      "ĠÐ±": 497,
      "Ġáŀ": 498,
      "ĠÐº": 499,
      "Ġen": 500,
      "Ġ'": 501,
      "Ð·": 502,
      "àµįà´": 503,
      "Ġà¨": 504,
      "ÖĢ": 505,
      "áĥĺ": 506,
      "ĠÐ´": 507,
      "Ġà®": 508,
      "Ġà´": 509,
      "ÐµÐ½": 510,
      "..": 511,
      "ion": 512,
      "Ïģ": 513,
      "ri": 514,
      "Ã¶": 515,
      "Ïĥ": 516,
      "00": 517,
      "ĠÑĤ": 518,
      "ok": 519,
      "Ø³": 520,
      "ud": 521,
      "Å¡": 522,
      "ÑģÑĤ": 523,
      "ĠâĢĭ": 524,
      "uk": 525,
      "ĠO": 526,
      "Ð°ÑĤ": 527,
      "à³į": 528,
      "à¦¾": 529,
      "Ã¼": 530,
      "à¤¾à¤": 531,
      "à©": 532,
      "ĠÙħ": 533,
      "Ġun": 534,
      "à±į": 535,
      "Õ¸": 536,
      "Ġna": 537,
      "est": 538,
      "Ð°Ð»": 539,
      "Ð¿": 540,
      "Ġla": 541,
      "ĠãĢ": 542,
      "à¥į": 543,
      "Ġse": 544,
      "Ġal": 545,
      "ĠÐ²": 546,
      "ĠJ": 547,
      "à¥įà¤": 548,
      "Äģ": 549,
      "à¯įà®": 550,
      "ist": 551,
      "ÏĢ": 552,
      "Ð¸Ñ": 553,
      "og": 554,
      "ÑĮ": 555,
      "ĠÐ¼": 556,
      "iv": 557,
      "à³įà²": 558,
      "Ġu": 559,
      "Ġ;": 560,
      "ĠÚ©": 561,
      "Ġå": 562,
      "Ð±": 563,
      "iz": 564,
      "Ġre": 565,
      "áĥĶ": 566,
      "ter": 567,
      "ä¸": 568,
      "ĠÐ¸": 569,
      "Äį": 570,
      "Ġá": 571,
      "ĠÐ¾": 572,
      "Ĵáŀ": 573,
      "Ð¹": 574,
      "×¨": 575,
      "ï¼": 576,
      "Ø¨": 577,
      "ĠØ§ÙĦ": 578,
      "à²¿": 579,
      "Õ¥": 580,
      "Ġ|": 581,
      "av": 582,
      "ÐµÑĢ": 583,
      "ÏĤ": 584,
      "ec": 585,
      "à¸²": 586,
      "Õ¶": 587,
      "áŁĴáŀ": 588,
      "Ïħ": 589,
      "Ã°": 590,
      "Î·": 591,
      "à±įà°": 592,
      "end": 593,
      "op": 594,
      "à°¿": 595,
      "Ġ6": 596,
      "à¦¾à¦": 597,
      "Ġ?": 598,
      "ĠÐ°": 599,
      "à§ĩ": 600,
      "ai": 601,
      "ers": 602,
      "Ġqu": 603,
      "aj": 604,
      "áĥĶáĥ": 605,
      "Ñį": 606,
      "Õ«": 607,
      "à¥ĩ": 608,
      "Ġan": 609,
      "Ġpr": 610,
      "×Ķ": 611,
      "ĠØ¨": 612,
      "áº": 613,
      "ĠU": 614,
      "áŀ¶": 615,
      "Ġst": 616,
      "ij": 617,
      "à·Ĭ": 618,
      "Ġ7": 619,
      "ÑĪ": 620,
      "eb": 621,
      "Ġ=": 622,
      "Ñĩ": 623,
      "ĠÐ·": 624,
      "la": 625,
      "à°¾": 626,
      "àª¾": 627,
      "Ġpro": 628,
      "Ð¾Ð²": 629,
      "à¸²à¸": 630,
      "Ġar": 631,
      "Ġat": 632,
      "ng": 633,
      "Ã¥": 634,
      "Å¾": 635,
      "Ġto": 636,
      "ï¿½ï¿½ï¿½ï¿½": 637,
      "Ġï¼": 638,
      "li": 639,
      "×ľ": 640,
      "áĢ¹": 641,
      "áĥĺáĥ": 642,
      "Ġdi": 643,
      "à´¿": 644,
      "ĠáĢ": 645,
      "Ð¾ÑĢ": 646,
      "ÒĽ": 647,
      "Ġ8": 648,
      "ow": 649,
      "Ġth": 650,
      "Ġsa": 651,
      "Ġ9": 652,
      "Ġon": 653,
      "ub": 654,
      "Ð¸Ð½": 655,
      "ĠÄ": 656,
      "ÅŁ": 657,
      "Ø§Ø": 658,
      "à±ģ": 659,
      "Ġel": 660,
      "Ûģ": 661,
      "Ð¾Ð»": 662,
      "Ġ×Ķ": 663,
      "ci": 664,
      "ÖĤ": 665,
      "ĠâĢĻ": 666,
      "ka": 667,
      "Ġ%": 668,
      "Ġpar": 669,
      "ob": 670,
      "ÛĴ": 671,
      "Ġë": 672,
      "à²¿à²": 673,
      "ev": 674,
      "à§į": 675,
      "Î»": 676,
      "ĠÏĦ": 677,
      "à§įà¦": 678,
      "Ġcon": 679,
      "Ġ\":": 680,
      "à¤¿": 681,
      "ou": 682,
      "ĠÙĪ": 683,
      "ga": 684,
      "ne": 685,
      "Ò¯": 686,
      "ant": 687,
      "ŀ×": 688,
      "áĪ": 689,
      "Ġ\",": 690,
      "Ġ...": 691,
      "à¯ģ": 692,
      "à·Ĵ": 693,
      "à¸Ļ": 694,
      "ww": 695,
      "áŀ¶áŀ": 696,
      "ìĿ": 697,
      "Ġthe": 698,
      "Ġ!": 699,
      "à®¿": 700,
      "de": 701,
      "à°¾à°": 702,
      "ÐµÑĤ": 703,
      "Ð°Ð¼": 704,
      "ĠÐ¿ÑĢ": 705,
      "up": 706,
      "Ð¾Ð½": 707,
      "Ġis": 708,
      "se": 709,
      "az": 710,
      "Îº": 711,
      "äº": 712,
      "áĢ¸": 713,
      "Ġwww": 714,
      "Ø§ÙĨ": 715,
      "Î¯": 716,
      "à²¾": 717,
      "à´¿à´": 718,
      "Õ¸ÖĤ": 719,
      "à³ģ": 720,
      "à¤°": 721,
      "Ġ10": 722,
      "ib": 723,
      "à¦¿": 724,
      "ine": 725,
      "àª¾àª": 726,
      "Ġ19": 727,
      "Î¼": 728,
      "Ġof": 729,
      "ÑĨ": 730,
      "Ġfor": 731,
      "Ð¸ÑĤ": 732,
      "áĢ¬": 733,
      "Ġet": 734,
      "Ñħ": 735,
      "Õ¡Õ¶": 736,
      "sk": 737,
      "ez": 738,
      "ĠØ¯": 739,
      "Ø¹": 740,
      "à²¾à²": 741,
      "à¶±": 742,
      "ĠâĢľ": 743,
      "Ġtr": 744,
      "ĠâĢĵ": 745,
      "ep": 746,
      "ost": 747,
      "Ġer": 748,
      "Ġch": 749,
      "na": 750,
      "oc": 751,
      "Ð°Ð²": 752,
      "Ó©": 753,
      "à®¿à®": 754,
      "tt": 755,
      "Ġà¸": 756,
      "io": 757,
      "ip": 758,
      "Ġæ": 759,
      "Ġes": 760,
      "Ġda": 761,
      "à¹Ī": 762,
      "Ġ\",\"": 763,
      "ÓĻ": 764,
      "ĠÑĢ": 765,
      "ug": 766,
      "ni": 767,
      "×ª": 768,
      "nd": 769,
      "à¤¿à¤": 770,
      "à°¿à°": 771,
      "ÏĮ": 772,
      "×Ĳ": 773,
      "Ð°Ñģ": 774,
      "ÐµÐ»": 775,
      "Ð°Ð´": 776,
      "oj": 777,
      "Ø©": 778,
      "ya": 779,
      "ind": 780,
      "áĥĿ": 781,
      "Ùģ": 782,
      "ess": 783,
      "Ġand": 784,
      "áĢº": 785,
      "lar": 786,
      "Ġte": 787,
      "Ġx": 788,
      "Ã§": 789,
      "ĠØª": 790,
      "à¸Ń": 791,
      "àµģ": 792,
      "ĠÑĥ": 793,
      "ÙĤ": 794,
      "Ä«": 795,
      "Ġâ": 796,
      "à¦°": 797,
      "ort": 798,
      "Î¬": 799,
      "Ð°Ð¹": 800,
      "eng": 801,
      "à¥Ģ": 802,
      "à«ĩ": 803,
      "Ãł": 804,
      "ĠÐ½Ð°": 805,
      "Ãº": 806,
      "Ġque": 807,
      "Î¿Ïħ": 808,
      "Ð¾Ð´": 809,
      "à³Ĩ": 810,
      "à¸£": 811,
      "Ġ×Ĳ": 812,
      "Äĥ": 813,
      "art": 814,
      "ung": 815,
      "ell": 816,
      "Ĥà°": 817,
      "ĠÐ³": 818,
      "Ġper": 819,
      "ÑĭÐ½": 820,
      "ast": 821,
      "Ġog": 822,
      "Ġsp": 823,
      "Ð¾Ð¼": 824,
      "Ð¶": 825,
      "Ð°Ðº": 826,
      "Ø§Ø±": 827,
      "Ġ12": 828,
      "Ã¦": 829,
      "Ð¾ÑĤ": 830,
      "ĠâĢĿ": 831,
      "ce": 832,
      "åı": 833,
      "Ġle": 834,
      "ari": 835,
      "à¥ĭ": 836,
      "ada": 837,
      "ĠØ³": 838,
      "ill": 839,
      "áĢ¸áĢ": 840,
      "Ġdo": 841,
      "Ġma": 842,
      "Ð¸Ð»": 843,
      "ana": 844,
      "áĢ¯": 845,
      "Ã½": 846,
      "à¹ī": 847,
      "und": 848,
      "à´¾": 849,
      "Äĵ": 850,
      "áĢ¹áĢ": 851,
      "Ġ×ľ": 852,
      "Ġng": 853,
      "ja": 854,
      "Ġ×ĳ": 855,
      "Ġsi": 856,
      "ere": 857,
      "Ġ&": 858,
      "à¤¨": 859,
      "ha": 860,
      "à·ı": 861,
      "à¯ģà®": 862,
      "ĠÐ¶": 863,
      "áĥĿáĥ": 864,
      "are": 865,
      "Ø´": 866,
      "Ģà¸": 867,
      "wa": 868,
      "ma": 869,
      "tr": 870,
      "×ĳ": 871,
      "áĢŃ": 872,
      "à¨¾": 873,
      "Ġ11": 874,
      "OM": 875,
      "si": 876,
      "Ð¾Ð³": 877,
      "ĠZ": 878,
      "àµģà´": 879,
      "×¢": 880,
      "all": 881,
      "Ġà¤ķ": 882,
      "ÐµÐ´": 883,
      "Õ¥Õ": 884,
      "à¤ķ": 885,
      "Ġor": 886,
      "ate": 887,
      "à´¾à´": 888,
      "20": 889,
      "à¶º": 890,
      "Ġq": 891,
      "Õ¸ÖĤÕ": 892,
      "×©": 893,
      "Ġ#": 894,
      "Ġne": 895,
      "ation": 896,
      "Ġï¿½": 897,
      "ģà¸": 898,
      "Ø§ÙĦ": 899,
      "×ķ×ª": 900,
      "ÐµÐº": 901,
      "Ø²": 902,
      "ht": 903,
      "ÖĢÕ": 904,
      "Ġas": 905,
      "Ġam": 906,
      "ĠÐ¡": 907,
      "Ġà·": 908,
      "pl": 909,
      "ĠÏĢ": 910,
      "Ġï¼Į": 911,
      "å®": 912,
      "ans": 913,
      "áī": 914,
      "ĠÙĨ": 915,
      "ĠÂ»": 916,
      "Ð¸Ðº": 917,
      "ens": 918,
      "WW": 919,
      "ina": 920,
      "×ł": 921,
      "Ãª": 922,
      "à±ģà°": 923,
      "je": 924,
      "ĠÚ": 925,
      "Ġad": 926,
      "à¦¿à¦": 927,
      "Ġop": 928,
      "ver": 929,
      "Ð°Ð·": 930,
      "ru": 931,
      "ĠWWW": 932,
      "à¸ĩ": 933,
      "Ġme": 934,
      "×Ļ×Ŀ": 935,
      "Ø¬": 936,
      "Ã¸": 937,
      "à²°": 938,
      "à®¾": 939,
      "Ð½Ð¾": 940,
      "ĠÏĥ": 941,
      "Ġ15": 942,
      "ĠÎº": 943,
      "ĠCOM": 944,
      "Ġç": 945,
      "to": 946,
      "à«Ģ": 947,
      "iy": 948,
      "Ġ[": 949,
      "ØŃ": 950,
      "ÑģÐº": 951,
      "ļáŀ": 952,
      "ÐµÐ¼": 953,
      "ata": 954,
      "Ġ]": 955,
      "±áĢ": 956,
      "Ġ×©": 957,
      "ĠÃ©": 958,
      "Ġno": 959,
      "ÎŃ": 960,
      "Ïī": 961,
      "Ġ\":\"": 962,
      "à«į": 963,
      "Ġka": 964,
      "ara": 965,
      "Äħ": 966,
      "pr": 967,
      "à«įàª": 968,
      "ord": 969,
      "Ġver": 970,
      "Ð¸ÑĢ": 971,
      "Ġê": 972,
      "ĠIn": 973,
      "ko": 974,
      "Ġje": 975,
      "ĠÎ±": 976,
      "ho": 977,
      "Ġ200": 978,
      "à¸±": 979,
      "à¶»": 980,
      "ke": 981,
      "ĠY": 982,
      "à¹Ģà¸": 983,
      "ÄĹ": 984,
      "tion": 985,
      "Ġdie": 986,
      "à¸µ": 987,
      "ard": 988,
      "Ġja": 989,
      "íķ": 990,
      "hi": 991,
      "Ġpo": 992,
      "Ġà¥": 993,
      "ĠÑħ": 994,
      "æľ": 995,
      "ĠÙ¾": 996,
      "Ġï¿½ï¿½ï¿½ï¿½": 997,
      "áĭ": 998,
      "åĪ": 999,
      "ite": 1000,
      "ve": 1001,
      "Ġsk": 1002,
      "áĢĦ": 1003,
      "à®¾à®": 1004,
      "Ġim": 1005,
      "tu": 1006,
      "Ġbe": 1007,
      "emb": 1008,
      "ien": 1009,
      "à²¦": 1010,
      "Ġ16": 1011,
      "Ġdel": 1012,
      "ong": 1013,
      "áĬ": 1014,
      "ĠØĮ": 1015,
      "Ð¸Ð¹": 1016,
      "Ð¸Ð¼": 1017,
      "âĢį": 1018,
      "à·Ķ": 1019,
      "ass": 1020,
      "ĠÄĳ": 1021,
      "à¶Ń": 1022,
      "ľì": 1023,
      "ali": 1024,
      "Ð°Ð³": 1025,
      "Ġ18": 1026,
      "ala": 1027,
      "ĠÙĦ": 1028,
      "à·Ģ": 1029,
      "ki": 1030,
      "Ġ×ŀ×": 1031,
      "orm": 1032,
      "áĢĢ": 1033,
      "ÄŁ": 1034,
      "Î±Î¹": 1035,
      "à§ĩà¦": 1036,
      "ÅĤ": 1037,
      "Ã³n": 1038,
      "Î³": 1039,
      "Úº": 1040,
      "Ð¾Ñ": 1041,
      "Ð¸Ñı": 1042,
      "Î®": 1043,
      "ont": 1044,
      "Ġvan": 1045,
      "no": 1046,
      "ĠãĢģ": 1047,
      "uc": 1048,
      "AA": 1049,
      "Ò£": 1050,
      "Ġap": 1051,
      "Ġil": 1052,
      "ĠAl": 1053,
      "ini": 1054,
      "Ġ22": 1055,
      "Ġpre": 1056,
      "×ĵ": 1057,
      "me": 1058,
      "ÙĪØ±": 1059,
      "ale": 1060,
      "Ùĥ": 1061,
      "Ġà¤¸": 1062,
      "Ġ13": 1063,
      "Ġso": 1064,
      "Ġpl": 1065,
      "Ġol": 1066,
      "Ġ14": 1067,
      "ust": 1068,
      "à¨¾à¨": 1069,
      "eri": 1070,
      "Ġ×ķ": 1071,
      "à¸¡": 1072,
      "Ġni": 1073,
      "Ġku": 1074,
      "Ïĩ": 1075,
      "Ġdes": 1076,
      "ĠØ¬": 1077,
      "ks": 1078,
      "Ġsh": 1079,
      "Ġ}": 1080,
      "à¶¸": 1081,
      "ĠÐľ": 1082,
      "22": 1083,
      "ļĦ": 1084,
      "à¥ĩà¤": 1085,
      "ff": 1086,
      "da": 1087,
      "å¤": 1088,
      "Ä±n": 1089,
      "Ġav": 1090,
      "ĠÐł": 1091,
      "ĠÐĲ": 1092,
      "ĠÎµ": 1093,
      "ÑĥÑĢ": 1094,
      "ele": 1095,
      "à»": 1096,
      "Ø§Øª": 1097,
      "ĠÑĩ": 1098,
      "sa": 1099,
      "Ãµ": 1100,
      "ier": 1101,
      "ĠãĢĤ": 1102,
      "ÄĽ": 1103,
      "à¥ģ": 1104,
      "ĠÙģ": 1105,
      "Ġ×Ķ×": 1106,
      "Ġ00": 1107,
      "ih": 1108,
      "Ã¶r": 1109,
      "Ġà¥¤": 1110,
      "ny": 1111,
      "Ġ30": 1112,
      "ĠÐŁ": 1113,
      "//": 1114,
      "àª¨": 1115,
      "ĠÐļ": 1116,
      "Òĵ": 1117,
      "ĠØ¹": 1118,
      "Ð´Ð°": 1119,
      "ide": 1120,
      "Ġdu": 1121,
      "åħ": 1122,
      "ĠÐµ": 1123,
      "Ġmed": 1124,
      "ÑĥÐ»": 1125,
      "à¶ļ": 1126,
      "th": 1127,
      "Ġra": 1128,
      "ttp": 1129,
      "ĠÐĳ": 1130,
      "10": 1131,
      "Ġmen": 1132,
      "ba": 1133,
      "Ġit": 1134,
      "lo": 1135,
      "çļĦ": 1136,
      "ĠÎ¼": 1137,
      "Ġ17": 1138,
      "ĠÂ«": 1139,
      "ama": 1140,
      "ĠØ±": 1141,
      "Ġac": 1142,
      "áŀĵ": 1143,
      "ore": 1144,
      "ÑĬ": 1145,
      "der": 1146,
      "kan": 1147,
      "Ñİ": 1148,
      "ä»": 1149,
      "Ã¨": 1150,
      "Ġve": 1151,
      "âĢĮ": 1152,
      "£áĥ": 1153,
      "Ġvi": 1154,
      "Ðł": 1155,
      "à°¨": 1156,
      "à¸Ļà¸": 1157,
      "Å³": 1158,
      "Ġhttp": 1159,
      "Ġ://": 1160,
      "ĠtÃ«": 1161,
      "ÑĸÐ½": 1162,
      "Ġè": 1163,
      "ç½": 1164,
      "ÉĻr": 1165,
      "ts": 1166,
      "ĠÒĽ": 1167,
      "áŀĦ": 1168,
      "ran": 1169,
      "ÄĻ": 1170,
      "Ġsu": 1171,
      "áŀĢ": 1172,
      "Î¹Îº": 1173,
      "áĥĶáĥĳ": 1174,
      "Ĥ¬": 1175,
      "ĠãĢĳ": 1176,
      "ãĢĲ": 1177,
      "Ġro": 1178,
      "if": 1179,
      "Ã©s": 1180,
      "áĥĺáĥ¡": 1181,
      "à«ĭ": 1182,
      "tic": 1183,
      "Ġter": 1184,
      "ĠÒ": 1185,
      "ĠÅ": 1186,
      "ĠSt": 1187,
      "ĠÑĪ": 1188,
      "Ġag": 1189,
      "ys": 1190,
      "ÐĲ": 1191,
      "ĠÃ¡": 1192,
      "Ð½Ñĭ": 1193,
      "Ġex": 1194,
      "áĢºáĢ": 1195,
      "ita": 1196,
      "Ġ{": 1197,
      "à°°": 1198,
      "Ġdan": 1199,
      "à¸§": 1200,
      "Ø§Ùħ": 1201,
      "Ġtil": 1202,
      "à°Ĥà°": 1203,
      "ãģ®": 1204,
      "ÐµÑģ": 1205,
      "à±ĩ": 1206,
      "Ġob": 1207,
      "ika": 1208,
      "æĸ": 1209,
      "ĠCh": 1210,
      "ĠØ´": 1211,
      "Ġir": 1212,
      "ku": 1213,
      "Ġvar": 1214,
      "à¯įà®ķ": 1215,
      "Ġ).": 1216,
      "88": 1217,
      "Ġ25": 1218,
      "di": 1219,
      "Ø³Øª": 1220,
      "àª°": 1221,
      "Ïį": 1222,
      "za": 1223,
      "áĢŃáĢ¯": 1224,
      "à¸Ķ": 1225,
      "Öģ": 1226,
      "ç½ĳ": 1227,
      "Õ¸Õ": 1228,
      "age": 1229,
      "Ġ+": 1230,
      "Ġdet": 1231,
      "Ã£": 1232,
      "Ġgr": 1233,
      "Ġ>": 1234,
      "åĽ": 1235,
      "×Ĺ": 1236,
      "àµĨ": 1237,
      "ĠÛģ": 1238,
      "à©Ģ": 1239,
      "Ð°Ð±": 1240,
      "ey": 1241,
      "Ð¾Ð±": 1242,
      "Ġby": 1243,
      "AN": 1244,
      "Î¹Î±": 1245,
      "à¶±à·Ĭ": 1246,
      "Ø®": 1247,
      "Î´": 1248,
      "ëĭ": 1249,
      "Ġ2019": 1250,
      "à¸¢": 1251,
      "Ð½Ð°": 1252,
      "Ġom": 1253,
      "à®°": 1254,
      "Ġya": 1255,
      "ler": 1256,
      "Ġta": 1257,
      "ĠX": 1258,
      "va": 1259,
      "Ġà¤ª": 1260,
      "Ð¾Ñģ": 1261,
      "Ġfr": 1262,
      "ze": 1263,
      "ŀ¥": 1264,
      "à±ĭ": 1265,
      "ati": 1266,
      "ĠÐ½Ðµ": 1267,
      "ult": 1268,
      "ge": 1269,
      "11": 1270,
      "uh": 1271,
      "Ġest": 1272,
      "ile": 1273,
      "ning": 1274,
      "Æ°": 1275,
      "àµįâĢį": 1276,
      "Ġab": 1277,
      "per": 1278,
      "à¦¨": 1279,
      "Ã¢": 1280,
      "×¤": 1281,
      "ond": 1282,
      "à¸´": 1283,
      "à¤¤": 1284,
      "tor": 1285,
      "à²¨": 1286,
      "à¤®": 1287,
      "à¤²": 1288,
      "×ĺ": 1289,
      "ĠAn": 1290,
      "ĠÐ´Ð°": 1291,
      "ĠâĢ¦": 1292,
      "Ġiz": 1293,
      "Ã¡l": 1294,
      "ĠÐ·Ð°": 1295,
      "Ð¸Ð²": 1296,
      "Ã«r": 1297,
      "à²²": 1298,
      "×§": 1299,
      "ĲáĢ": 1300,
      "Ġwa": 1301,
      "Ġza": 1302,
      "ish": 1303,
      "Ġmin": 1304,
      "à²Ĥ": 1305,
      "à¯Ī": 1306,
      "à²µ": 1307,
      "ĠÃĲ": 1308,
      "Ġha": 1309,
      "ä¹": 1310,
      "Ġber": 1311,
      "Ġpara": 1312,
      "Ġang": 1313,
      "ķáĢ": 1314,
      "Øµ": 1315,
      "Ġbl": 1316,
      "our": 1317,
      "Ġem": 1318,
      "ann": 1319,
      "Ġyang": 1320,
      "Ġkom": 1321,
      "ente": 1322,
      "à©ĩ": 1323,
      "Ġaf": 1324,
      "Ð°ÑĪ": 1325,
      "ĠÑı": 1326,
      "½©": 1327,
      "Ġ),": 1328,
      "Õ¡Õ¯": 1329,
      "Ġhe": 1330,
      "łáĥ": 1331,
      "Ġko": 1332,
      "Ġ21": 1333,
      "Ð°ÑĨ": 1334,
      "à¨¿": 1335,
      "ĠãĢĳãĢĲ": 1336,
      "Ġí": 1337,
      "Ã¡n": 1338,
      "era": 1339,
      "ĠÙĩ": 1340,
      "Ã¡s": 1341,
      "ÎµÎ¹": 1342,
      "Ġ24": 1343,
      "ãģĦ": 1344,
      "Ġsom": 1345,
      "ĠÐ¢": 1346,
      "Ø§ÛĮ": 1347,
      "Ġki": 1348,
      "pe": 1349,
      "Ġ23": 1350,
      "Å«": 1351,
      "à¨°": 1352,
      "ice": 1353,
      "Ú¯": 1354,
      "ten": 1355,
      "Ġ×Ľ": 1356,
      "ani": 1357,
      "Åĳ": 1358,
      "´ì": 1359,
      "ÅĻ": 1360,
      "ĠâĢĺ": 1361,
      "à®¤": 1362,
      "¨àµįà´": 1363,
      "Ġvo": 1364,
      "à¯įà®¤": 1365,
      "ÖĦ": 1366,
      "ĠQ": 1367,
      "ĠÂŃ": 1368,
      "ĻáĢ": 1369,
      "ĠÐĿ": 1370,
      "Ġba": 1371,
      "ĠÔ": 1372,
      "æĹ": 1373,
      "Ġmo": 1374,
      "Ġé": 1375,
      "ĠÐ»": 1376,
      "ue": 1377,
      "Ġpor": 1378,
      "ĠAr": 1379,
      "à²¤": 1380,
      "Ġum": 1381,
      "ä½": 1382,
      "Ġed": 1383,
      "Ġmet": 1384,
      "Õµ": 1385,
      "à´¤": 1386,
      "Ġkon": 1387,
      "Ġser": 1388,
      "ÛĮÚº": 1389,
      "ack": 1390,
      "ies": 1391,
      "×ŀ×": 1392,
      "Ġ2017": 1393,
      "Õ¥ÖĢ": 1394,
      "ÏĨ": 1395,
      "ĠÑį": 1396,
      "Ġ×¢": 1397,
      "Ð¾Ðº": 1398,
      "à·Ļ": 1399,
      "Ð¸Ð·": 1400,
      "atu": 1401,
      "AR": 1402,
      "ĠáĥĽ": 1403,
      "à¦¾à¦°": 1404,
      "à¤Ĥ": 1405,
      "int": 1406,
      "mi": 1407,
      "Ġak": 1408,
      "ER": 1409,
      "inn": 1410,
      "ĠØ®": 1411,
      "ÑĭÐ»": 1412,
      "à·ļ": 1413,
      "Ġpa": 1414,
      "ÙĪÙĨ": 1415,
      "Ġà¹": 1416,
      "ĠpÃ¥": 1417,
      "ft": 1418,
      "__": 1419,
      "Ġ\\": 1420,
      "be": 1421,
      "ade": 1422,
      "Ġ2018": 1423,
      "res": 1424,
      "Ð½Ð¸": 1425,
      "ly": 1426,
      "Ġden": 1427,
      "Ġkan": 1428,
      "à¸ļ": 1429,
      "ĠÃ¾": 1430,
      "Õ¡Õµ": 1431,
      "ĠÛ": 1432,
      "à§ģ": 1433,
      "Ġà¤®": 1434,
      "Ġhet": 1435,
      "ãĥ¼": 1436,
      "áŁĭ": 1437,
      "Ġmar": 1438,
      "¶ľì": 1439,
      "Ã¤r": 1440,
      "Ø·": 1441,
      "99": 1442,
      "Õ¿": 1443,
      "zi": 1444,
      "ink": 1445,
      "Ġva": 1446,
      "ado": 1447,
      "ith": 1448,
      "ĠÅ¡": 1449,
      "ĠÐĴ": 1450,
      "Ùİ": 1451,
      "Ġres": 1452,
      "×ŀ": 1453,
      "Ð¸Ñĺ": 1454,
      "ķàµįà´": 1455,
      "çĶ": 1456,
      "à¥įà¤°": 1457,
      "ry": 1458,
      "uj": 1459,
      "aci": 1460,
      "à¤¸": 1461,
      "ui": 1462,
      "¶ľìŀ¥": 1463,
      "Î¸": 1464,
      "Ġà¤¹": 1465,
      "Ġman": 1466,
      "åį": 1467,
      "áŀ·": 1468,
      "Ġder": 1469,
      "ica": 1470,
      "åĬ": 1471,
      "33": 1472,
      "à°²": 1473,
      "form": 1474,
      "ÏĦÎ±": 1475,
      "we": 1476,
      "ĠÏĦÎ·": 1477,
      "ĠMar": 1478,
      "×Ľ": 1479,
      "ua": 1480,
      "amp": 1481,
      "áĥķ": 1482,
      "ìĹ": 1483,
      "ment": 1484,
      "Ïİ": 1485,
      "ena": 1486,
      "ich": 1487,
      "ement": 1488,
      "rav": 1489,
      "à¶½": 1490,
      "ĠÑģÐµ": 1491,
      "áŀĺ": 1492,
      "Ã£o": 1493,
      "Ġhar": 1494,
      "Ġbo": 1495,
      "à´°": 1496,
      "à¶§": 1497,
      "asi": 1498,
      "ach": 1499,
      "ÛĮÙĨ": 1500,
      "Ð°Ð¿": 1501,
      "Ð¡": 1502,
      "Ġãĥ": 1503,
      "one": 1504,
      "gr": 1505,
      "ĠÐĶ": 1506,
      "×Ŀ": 1507,
      "Ġdis": 1508,
      "Ġos": 1509,
      "Ġli": 1510,
      "ame": 1511,
      "Ã´": 1512,
      "åĲ": 1513,
      "à¸°": 1514,
      "Ð¸Ñĩ": 1515,
      "ert": 1516,
      "ĠÑģÑĤ": 1517,
      "Ġï¿½ï¿½": 1518,
      "uz": 1519,
      "Ġus": 1520,
      "Ġ..": 1521,
      "Ú¾": 1522,
      "Ø§Ø¯": 1523,
      "Ð¸Ñģ": 1524,
      "AT": 1525,
      "ili": 1526,
      "ĠØ¢": 1527,
      "ë§": 1528,
      "Ð°ÑĤÐ°": 1529,
      "lik": 1530,
      "Ð¾Ð¹": 1531,
      "áĢ¬áĢ": 1532,
      "els": 1533,
      "à²Ĺ": 1534,
      "yr": 1535,
      "Ġod": 1536,
      "ull": 1537,
      "nÃŃ": 1538,
      "ÑĥÐ´": 1539,
      "§Ģ": 1540,
      "Ġà¦ķ": 1541,
      "--": 1542,
      "Ð¸ÑĤÐµ": 1543,
      "ĠDe": 1544,
      "66": 1545,
      "ĠáĬ": 1546,
      "amb": 1547,
      "ino": 1548,
      "zy": 1549,
      "ĠÕ°": 1550,
      "à¤¾à¤°": 1551,
      "ene": 1552,
      "à§Ł": 1553,
      "×ķ×¨": 1554,
      "ins": 1555,
      "ÏģÎ¿": 1556,
      "ight": 1557,
      "oh": 1558,
      "Ð»Ð°ÑĢ": 1559,
      "à¤¹": 1560,
      "ç¥": 1561,
      "ree": 1562,
      "Ġpol": 1563,
      "à¸ģ": 1564,
      "lu": 1565,
      "æĪ": 1566,
      "??": 1567,
      "ela": 1568,
      "×¡": 1569,
      "IN": 1570,
      "Ġco": 1571,
      "Ġpos": 1572,
      "ash": 1573,
      "mer": 1574,
      "Ñŀ": 1575,
      "Õ¡ÖĢ": 1576,
      "ĠPro": 1577,
      "¡áĢ": 1578,
      "à¥įà¤¯": 1579,
      "Ġph": 1580,
      "Ġà¶ļ": 1581,
      "Ùī": 1582,
      "åľ": 1583,
      "ĠØŃ": 1584,
      "ami": 1585,
      "tiv": 1586,
      "ÏĦÎ¿": 1587,
      "Ġà¦¸": 1588,
      "ĠÐŀ": 1589,
      "Ġsz": 1590,
      "ìĿ´": 1591,
      "ÑĥÐ²": 1592,
      "50": 1593,
      "Ð³Ð°": 1594,
      "Ġbu": 1595,
      "ako": 1596,
      "ĠÑĦ": 1597,
      "adi": 1598,
      "Ġaz": 1599,
      "ĠÎ´": 1600,
      "fa": 1601,
      "Ð¸Ð´": 1602,
      "Ġbr": 1603,
      "ãģ§": 1604,
      "ew": 1605,
      "ca": 1606,
      "áŁĨ": 1607,
      "sp": 1608,
      "ett": 1609,
      "ida": 1610,
      "à¸¥": 1611,
      "à¶¯": 1612,
      "yn": 1613,
      "asa": 1614,
      "Ð°Ñħ": 1615,
      "Ġsem": 1616,
      "Ġàº": 1617,
      "áĥ£áĥ": 1618,
      "ÙĪÙĦ": 1619,
      "Ġles": 1620,
      "Ġ$": 1621,
      "ĠEn": 1622,
      "áŀ»": 1623,
      "Ġáģ": 1624,
      "áŀŁ": 1625,
      "àº²": 1626,
      "ĠâĢŀ": 1627,
      "ej": 1628,
      "Ġeg": 1629,
      "ura": 1630,
      "ity": 1631,
      "ĠÎºÎ±Î¹": 1632,
      "ĠLa": 1633,
      "à®©": 1634,
      "ÏĦÎµ": 1635,
      "áŀĶ": 1636,
      "åĪĨ": 1637,
      "bl": 1638,
      "Ġ×Ļ": 1639,
      "Ġà¦¬": 1640,
      "×Ĵ": 1641,
      "Ġinter": 1642,
      "à¸Ĺ": 1643,
      "à°ķ": 1644,
      "gan": 1645,
      "à¸ª": 1646,
      "Ġà°ª": 1647,
      "Ġ,\"": 1648,
      "à®Ł": 1649,
      "Õ¸ÖĤÕ´": 1650,
      "EN": 1651,
      "ĠÑĸ": 1652,
      "Ġ100": 1653,
      "Ġà·Ģ": 1654,
      "à±Ģ": 1655,
      "ï»": 1656,
      "77": 1657,
      "Ġ×¤": 1658,
      "Ġke": 1659,
      "Õ«Õ¶": 1660,
      "Ġ26": 1661,
      "å¹": 1662,
      "Ð¸ÑĪ": 1663,
      "eld": 1664,
      "ÑĢÑĥ": 1665,
      "à·Ĳ": 1666,
      "Ð¾Ð¶": 1667,
      "ian": 1668,
      "à²³": 1669,
      "Ġup": 1670,
      "ĠPr": 1671,
      "àª¿": 1672,
      "Ġï¼ļ": 1673,
      "áŁģ": 1674,
      "à·ĥ": 1675,
      "à¦²": 1676,
      "Ġthis": 1677,
      "Ġur": 1678,
      "ĠaÃ°": 1679,
      "Ð½Ðµ": 1680,
      "Ð´Ñĭ": 1681,
      "port": 1682,
      "ll": 1683,
      "ĠÄį": 1684,
      "ÙĨØ¯": 1685,
      "áŁĴáŀļáŀ": 1686,
      "Ð°Ñĩ": 1687,
      "ŀáĢ": 1688,
      "ĠThe": 1689,
      "à¥Ī": 1690,
      "unt": 1691,
      "ck": 1692,
      "à¸ģà¸": 1693,
      "Ð¾Ð·": 1694,
      "Ġpag": 1695,
      "ÐºÐ°": 1696,
      "ĠSe": 1697,
      "áģ": 1698,
      "ìķ": 1699,
      "Ã©r": 1700,
      "ÐµÐ·": 1701,
      "®à¯į": 1702,
      "àºĻ": 1703,
      "áŀı": 1704,
      "ĠTh": 1705,
      "à²ķ": 1706,
      "ê³": 1707,
      "Ġ50": 1708,
      "Ġ_": 1709,
      "Ġ×ŀ": 1710,
      "Ġche": 1711,
      "Ã¼n": 1712,
      "áĮ": 1713,
      "ĠÃ®": 1714,
      "px": 1715,
      "Ġ01": 1716,
      "ãģĹ": 1717,
      "ķàµįà´ķ": 1718,
      "Ġut": 1719,
      "ons": 1720,
      "Õ«Õ": 1721,
      "à«ĩàª": 1722,
      "ĠÃŃ": 1723,
      "rat": 1724,
      "iss": 1725,
      "áĤ": 1726,
      "mo": 1727,
      "ĠÚ©ÛĮ": 1728,
      "ĠÃ¼": 1729,
      "Ġpod": 1730,
      "Ġti": 1731,
      "ĠáĪ": 1732,
      "eta": 1733,
      "Ġ*": 1734,
      "Ã¤n": 1735,
      "Ð¸Ñħ": 1736,
      "Å¼": 1737,
      "ĠØ£": 1738,
      "à«ģ": 1739,
      "ber": 1740,
      "ĠÅ¾": 1741,
      "ê°": 1742,
      "½©ç¥": 1743,
      "Ġnie": 1744,
      "Ġáĭ": 1745,
      "Õ¡ÖĢÕ": 1746,
      "ëĬ": 1747,
      "oll": 1748,
      "Ġà²®": 1749,
      "Ġ2016": 1750,
      "ãģ«": 1751,
      "åıĳ": 1752,
      "Ġpri": 1753,
      "ss": 1754,
      "à±Ĩ": 1755,
      "ĠÖ": 1756,
      "Ġáĥĵ": 1757,
      "ÏĦÎ·": 1758,
      "Ġà¦ª": 1759,
      "Ġ40": 1760,
      "line": 1761,
      "zen": 1762,
      "Ġval": 1763,
      "ĠáĥĲáĥ": 1764,
      "Ã¡r": 1765,
      "ÙĬØ©": 1766,
      "ĠÃ§": 1767,
      "Ġ28": 1768,
      "ãģª": 1769,
      "à¸Ħ": 1770,
      "Ø§Ø¨": 1771,
      "×Ł": 1772,
      "Ã®": 1773,
      "Ġ02": 1774,
      "ici": 1775,
      "ive": 1776,
      "ven": 1777,
      "ona": 1778,
      "Ġtak": 1779,
      "×ķ×Ł": 1780,
      "ëĭ¤": 1781,
      "ÐµÐ¹": 1782,
      "ete": 1783,
      "ÏģÎ±": 1784,
      "ila": 1785,
      "Ã¼r": 1786,
      "Ġ27": 1787,
      "Ġmu": 1788,
      "red": 1789,
      "Ġä¸": 1790,
      "Ð¸ÑģÑĤ": 1791,
      "ÉĻn": 1792,
      "ÑĥÐ½": 1793,
      "....": 1794,
      "Ġ07": 1795,
      "ĠÃ¶": 1796,
      "ise": 1797,
      "Ø§Ø¦": 1798,
      "¨àµįà´¨": 1799,
      "ĠÚ©ÛĴ": 1800,
      "à¦ķ": 1801,
      "nh": 1802,
      "Ġho": 1803,
      "Ò³": 1804,
      "ÑĤÐ¾": 1805,
      "ÑĤÐ°": 1806,
      "kl": 1807,
      "ON": 1808,
      "ãģ¨": 1809,
      "å¿": 1810,
      "Ġà²ķ": 1811,
      "ction": 1812,
      "Ġny": 1813,
      "che": 1814,
      "ky": 1815,
      "ĠSh": 1816,
      "man": 1817,
      "Ġà·ĥ": 1818,
      "55": 1819,
      "ĽáĢ": 1820,
      "Ġbir": 1821,
      "xt": 1822,
      "Ġà¶´": 1823,
      "Ġà²¸": 1824,
      "Ġ09": 1825,
      "ÐĲÐ": 1826,
      "ÐµÐ³": 1827,
      "sh": 1828,
      "bo": 1829,
      "ĠUn": 1830,
      "áĥ¡": 1831,
      "ÑĦ": 1832,
      "Æ°á»": 1833,
      "Ġ08": 1834,
      "Ġfun": 1835,
      "è¿": 1836,
      "Ġà¤¬": 1837,
      "à®³": 1838,
      "ĠÙĤ": 1839,
      "áŀĽ": 1840,
      "Ġà®ª": 1841,
      "ãģ¦": 1842,
      "ct": 1843,
      "ern": 1844,
      "40": 1845,
      "Õ¥Õ¬": 1846,
      "à¸«": 1847,
      "æĺ": 1848,
      "Ä±r": 1849,
      "à§ĩà¦°": 1850,
      "Ġpe": 1851,
      "Ð¸ÑĨ": 1852,
      "Ġáĥ¡": 1853,
      "ÑĤÑĭ": 1854,
      "ĠnÃ«": 1855,
      "Ġlo": 1856,
      "pa": 1857,
      "ĠÂ°": 1858,
      "gi": 1859,
      "Ð¾Ð¿": 1860,
      "Ð¾ÑģÑĤ": 1861,
      "àª¤": 1862,
      "ÏĢÎ¿": 1863,
      "æī": 1864,
      "Ġau": 1865,
      "àªĤ": 1866,
      "Ġ000": 1867,
      "Õ¸ÖĤÕ©": 1868,
      "ĠÏĦÎ¿": 1869,
      "Ð½Ñı": 1870,
      "Ġà°ķ": 1871,
      "12": 1872,
      "ĠÚ¯": 1873,
      "Ġàªķ": 1874,
      "à¨¿à¨": 1875,
      "30": 1876,
      "áĥĲáĥľ": 1877,
      "kt": 1878,
      "ista": 1879,
      "aka": 1880,
      "ãĥ³": 1881,
      "any": 1882,
      "à³ĩ": 1883,
      "aya": 1884,
      "Ġeen": 1885,
      "á»į": 1886,
      "å®ĺ": 1887,
      "Ġmi": 1888,
      "isi": 1889,
      "ç«": 1890,
      "ats": 1891,
      "ëĬĶ": 1892,
      "rit": 1893,
      "Ġmas": 1894,
      "ä¼": 1895,
      "Ġ29": 1896,
      "ĠÐĵ": 1897,
      "ÏĥÎ·": 1898,
      "ÑĸÐ»": 1899,
      "à±įà°°": 1900,
      "ĠÙħÙĨ": 1901,
      "eh": 1902,
      "à¸²à¸£": 1903,
      "ei": 1904,
      "ato": 1905,
      "co": 1906,
      "Ġek": 1907,
      "à¸ķ": 1908,
      "ÐµÐ²": 1909,
      "äºº": 1910,
      "à¦¤": 1911,
      "Ø±ÛĮ": 1912,
      "ĠEl": 1913,
      "ori": 1914,
      "Ġpas": 1915,
      "jo": 1916,
      "Ġund": 1917,
      "Ġà¤¨": 1918,
      "den": 1919,
      "Ġik": 1920,
      "Ġ05": 1921,
      "ĠÎ½": 1922,
      "Ã²": 1923,
      "ES": 1924,
      "Ð³Ð°Ð½": 1925,
      "ick": 1926,
      "Ġeta": 1927,
      "áĥł": 1928,
      "ĠØ§ÙĦÙħ": 1929,
      "Ġaut": 1930,
      "itu": 1931,
      "ĠÐ¾Ð´": 1932,
      "vo": 1933,
      "ende": 1934,
      "ano": 1935,
      "ĠâĢĶ": 1936,
      "ï»¿": 1937,
      "ÑģÑĤÐ²": 1938,
      "Ġsam": 1939,
      "65": 1940,
      "Ð½Ñĸ": 1941,
      "Ġmod": 1942,
      "à§ĭ": 1943,
      "Ġ2015": 1944,
      "cht": 1945,
      "à¹Ħ": 1946,
      "ĠÕ´": 1947,
      "áŀ¸": 1948,
      "ĠCom": 1949,
      "Ø¶": 1950,
      "Ġà®ķ": 1951,
      "áĬķ": 1952,
      "Ð»Ð¸": 1953,
      "ãĤĭ": 1954,
      "15": 1955,
      "ĠÃ®n": 1956,
      "ãģĮ": 1957,
      "Ø¦": 1958,
      "Ġx22": 1959,
      "cia": 1960,
      "Ġay": 1961,
      "ĠÏĦÎ¿Ïħ": 1962,
      "ema": 1963,
      "Ħì": 1964,
      "Ġmga": 1965,
      "Ã±": 1966,
      "fer": 1967,
      "emp": 1968,
      "ĠØ¯Ø±": 1969,
      "use": 1970,
      "les": 1971,
      "ild": 1972,
      "eni": 1973,
      "à°¾à°°": 1974,
      "à±ĩà°": 1975,
      "àª®": 1976,
      "olog": 1977,
      "ĠMa": 1978,
      "min": 1979,
      "ĠÐ¾ÑĤ": 1980,
      "Ġbi": 1981,
      "ĠÃł": 1982,
      "vi": 1983,
      "Ġ06": 1984,
      "ãģŁ": 1985,
      "à´¯": 1986,
      "ĠÑĨ": 1987,
      "éĢ": 1988,
      "Ġty": 1989,
      "Ġwe": 1990,
      "æ¸": 1991,
      "Ġcont": 1992,
      "Ġprod": 1993,
      "Ġ04": 1994,
      "ãģĻ": 1995,
      "ega": 1996,
      "Ġcol": 1997,
      "à¯įà®ª": 1998,
      "Ġdat": 1999,
      "áĢ·": 2000,
      "ĠÕ§": 2001,
      "Ġnu": 2002,
      "áº¡": 2003,
      "lig": 2004,
      "ĠâĤ¬": 2005,
      "ÏīÎ½": 2006,
      "Î¼Î±": 2007,
      "à¤°à¥įà¤": 2008,
      "Õ¸ÖĤÕ©Õµ": 2009,
      "&#": 2010,
      "Ù¾": 2011,
      "à·Ħ": 2012,
      "ju": 2013,
      "áº¿": 2014,
      "Ġ2020": 2015,
      "Ġmat": 2016,
      "èµ": 2017,
      "uri": 2018,
      "itt": 2019,
      "á»ĩ": 2020,
      "Å¥": 2021,
      "à¹ĥ": 2022,
      "à¦¬": 2023,
      "Î¯Î±": 2024,
      "ÛĲ": 2025,
      "à¦®": 2026,
      "Ġà¶¸": 2027,
      "{\"": 2028,
      "âĢĿ": 2029,
      "Ġà°®": 2030,
      "å°": 2031,
      "aga": 2032,
      "è½": 2033,
      "Õ¨": 2034,
      "Ð¾Ð³Ð¾": 2035,
      "ÑĥÑĤ": 2036,
      "sl": 2037,
      "ĶáĢ": 2038,
      "Ġoch": 2039,
      ");": 2040,
      "Ð¾Ñĺ": 2041,
      "ÙĪØ¯": 2042,
      "ĠáŀĶ": 2043,
      "àªķ": 2044,
      "Ġà´ª": 2045,
      "à¸µà¹Ī": 2046,
      "Ġnh": 2047,
      "à§įà¦°": 2048,
      "Õ¡Õ´": 2049,
      "Ġpers": 2050,
      "men": 2051,
      "ento": 2052,
      "Ãªn": 2053,
      "ĠìĿ": 2054,
      "ĠÐ£": 2055,
      "Ġà°µ": 2056,
      "ĠãĤ": 2057,
      "Ġ03": 2058,
      "ĠÐĺ": 2059,
      "tik": 2060,
      "oz": 2061,
      "Ġ×ł": 2062,
      "ķà¯įà®ķ": 2063,
      "ÙĬÙĨ": 2064,
      "Ġcu": 2065,
      "ĠSp": 2066,
      "ase": 2067,
      "Ð°Ð¶": 2068,
      "×ķ×ľ": 2069,
      "Ġmak": 2070,
      "Ġàªª": 2071,
      "Ġent": 2072,
      "à³įà²²": 2073,
      "bu": 2074,
      "à²¡": 2075,
      "à¸¸": 2076,
      "àªµ": 2077,
      "çī": 2078,
      "ÅĽ": 2079,
      "ank": 2080,
      "Ġuna": 2081,
      "áĢ¯áĢ": 2082,
      "ĠÎ³": 2083,
      "×Ļ×ª": 2084,
      "ĠáĥĴ": 2085,
      "à¸·": 2086,
      "ãģ¯": 2087,
      "áŀ¶áŀĵ": 2088,
      "Ġind": 2089,
      "ÐºÐ¸": 2090,
      "ike": 2091,
      "Î½Î±": 2092,
      "au": 2093,
      "60": 2094,
      "áĢŃáĢ": 2095,
      "ĠÑĺ": 2096,
      "à®²": 2097,
      "yo": 2098,
      "ark": 2099,
      "isk": 2100,
      "Ġ2013": 2101,
      "Ġcl": 2102,
      "Ġhttps": 2103,
      "AL": 2104,
      "ĠÙĬ": 2105,
      "áŁĦ": 2106,
      "à·ĵ": 2107,
      "ime": 2108,
      "Ð»Ñı": 2109,
      "Ġsel": 2110,
      "Ġ2014": 2111,
      "ÑĥÐ¼": 2112,
      "à¸Ńà¸ĩ": 2113,
      "ìĦ": 2114,
      "äºļ": 2115,
      "app": 2116,
      "19": 2117,
      "Ġmer": 2118,
      "ĠÑŀ": 2119,
      "eli": 2120,
      "à¯įà®Ł": 2121,
      "ren": 2122,
      "ÏģÎ¹": 2123,
      "ĠÐ±Ð¾Ð»": 2124,
      "à¯Īà®": 2125,
      "ĠLe": 2126,
      "´ë": 2127,
      "Ġà¤ħ": 2128,
      "ji": 2129,
      "ĠÕ¯": 2130,
      "ĠpÃ«r": 2131,
      "Ġ;&#": 2132,
      "OR": 2133,
      "àµįà´¤": 2134,
      "ÐµÐ½ÑĤ": 2135,
      "à´Ĥ": 2136,
      "val": 2137,
      "ĠÐ¾Ð±": 2138,
      "let": 2139,
      "ire": 2140,
      "Ġà¤°": 2141,
      "80": 2142,
      "17": 2143,
      "Ġà°¸": 2144,
      "Ġà°ħ": 2145,
      "ito": 2146,
      "»áĢ": 2147,
      "una": 2148,
      "ome": 2149,
      "Ġgo": 2150,
      "ĠRe": 2151,
      "Ø£": 2152,
      "è®": 2153,
      "Ð¸Ðµ": 2154,
      "Ġreg": 2155,
      "ĠÃ©s": 2156,
      "ors": 2157,
      "à³įà²¤": 2158,
      "ÈĽ": 2159,
      "à´Ł": 2160,
      "ret": 2161,
      "ÐµÑ": 2162,
      "Ġ35": 2163,
      "ĠÓ©": 2164,
      "Ðŀ": 2165,
      "44": 2166,
      "alam": 2167,
      "à¤ª": 2168,
      "Ġà¨¸": 2169,
      "Ðĺ": 2170,
      "ty": 2171,
      "ora": 2172,
      "ĠÎ¿": 2173,
      "à°Ĥ": 2174,
      "ure": 2175,
      "iti": 2176,
      "Ġ=\"": 2177,
      "ane": 2178,
      "Å¯": 2179,
      "àµĩ": 2180,
      "Ġ×©×ľ": 2181,
      "à¹ģà¸": 2182,
      "oma": 2183,
      "Ġwith": 2184,
      "AS": 2185,
      "ĠÃ¥": 2186,
      "à¶Ńà·Ĭ": 2187,
      "ĠÕ¸": 2188,
      "Ġsv": 2189,
      "ÑģÑı": 2190,
      "áŁĤ": 2191,
      "bi": 2192,
      "Ø°": 2193,
      "Ġáī": 2194,
      "att": 2195,
      "×¦": 2196,
      "áĢ¬áĢ¸áĢ": 2197,
      "ä¸Ģ": 2198,
      "uar": 2199,
      "ĠÐ¸Ð·": 2200,
      "ĠáŀĢ": 2201,
      "à§įà¦¯": 2202,
      "àµĭ": 2203,
      "elt": 2204,
      "¼áĢ": 2205,
      "ave": 2206,
      "que": 2207,
      "å¼": 2208,
      "Ġbet": 2209,
      "ÃŃt": 2210,
      "à¤Ĺ": 2211,
      "ÑĥÑģ": 2212,
      "ĠTr": 2213,
      "net": 2214,
      "ĠAd": 2215,
      "Ġà®µ": 2216,
      "Ð°ÑģÑĤ": 2217,
      "Ġtra": 2218,
      "Ġbil": 2219,
      "ìł": 2220,
      "Ġà´ķ": 2221,
      "Ġà¨¦": 2222,
      "Ã¡t": 2223,
      "ÑĭÐ¼": 2224,
      "yd": 2225,
      "lÄ±": 2226,
      "Ġï¿½ï¿½ï¿½ï¿½ï¿½ï¿½": 2227,
      "het": 2228,
      "Ġkl": 2229,
      "urs": 2230,
      "Ġ2012": 2231,
      "à·Ĵà¶º": 2232,
      "ĠÃº": 2233,
      "Ġà¤µ": 2234,
      "áŀ¾": 2235,
      "íķĺ": 2236,
      "æĿ": 2237,
      "Ġatt": 2238,
      "ä¸ĭ": 2239,
      "Ġà®®": 2240,
      "ija": 2241,
      "Ġbes": 2242,
      "ĠÅŁ": 2243,
      "af": 2244,
      "ĠÕ¥": 2245,
      "Ġà²¨": 2246,
      "ix": 2247,
      "par": 2248,
      "Ġà¤Ĺ": 2249,
      "è¯": 2250,
      "Ġbar": 2251,
      "Ġ<": 2252,
      "Ġall": 2253,
      "Ġju": 2254,
      "ÐºÑĸ": 2255,
      "ember": 2256,
      "mas": 2257,
      "ĠâĢ¢": 2258,
      "à´¿à´²": 2259,
      "æĸ¹": 2260,
      "ë§Ī": 2261,
      "18": 2262,
      "Õ¾": 2263,
      "ĠÐĹ": 2264,
      "à³įà²°": 2265,
      "Ġà¦Ĩ": 2266,
      "ola": 2267,
      "Ġå¤": 2268,
      "Ġvis": 2269,
      "nÃ©": 2270,
      "ald": 2271,
      "å¸": 2272,
      "iri": 2273,
      "ÐµÑĪ": 2274,
      "Î²": 2275,
      "Ġà¨ķ": 2276,
      "ĠÚ©Ø±": 2277,
      "ĠÎ¼Îµ": 2278,
      "à²¿à²¦": 2279,
      "lan": 2280,
      "×Ļ×¨": 2281,
      "Ġà¶ħ": 2282,
      "Ġtu": 2283,
      "Ã«s": 2284,
      "imi": 2285,
      "áĥļ": 2286,
      "Ð¿ÑĢ": 2287,
      "aw": 2288,
      "Õ¡Õ¿": 2289,
      "nie": 2290,
      "Ġàª¸": 2291,
      "Ġà¤ľ": 2292,
      "åĽ½": 2293,
      "Ġkat": 2294,
      "25": 2295,
      "Ġà®ħ": 2296,
      "yt": 2297,
      "áŀĻ": 2298,
      "AG": 2299,
      "å·": 2300,
      "à²¾à²°": 2301,
      "Ġdhe": 2302,
      "ĠÚĨ": 2303,
      "áº£": 2304,
      "13": 2305,
      "tir": 2306,
      "ace": 2307,
      "Ã¸r": 2308,
      "Ġkas": 2309,
      "à¹ĩ": 2310,
      "Ġkar": 2311,
      "ede": 2312,
      "ld": 2313,
      "ings": 2314,
      "½©ç¥ŀ": 2315,
      "Õ¸ÖĤÕ¶": 2316,
      "Ġáŀĵ": 2317,
      "Ġ×Ĺ": 2318,
      "ç»": 2319,
      "à©°": 2320,
      "fr": 2321,
      "Ġyou": 2322,
      "ãģ¾": 2323,
      "Ø§Ø³": 2324,
      "ĠÙħÛĮÚº": 2325,
      "ĠÛĶ": 2326,
      "Ò±": 2327,
      "à¸Ī": 2328,
      "à¤¾à¤¨": 2329,
      "enn": 2330,
      "Ġà¤¦": 2331,
      "Ġkr": 2332,
      "ĠÐ¿Ð¾": 2333,
      "à¯ĩ": 2334,
      "ĠÑģÐ²": 2335,
      "åº": 2336,
      "ĠÎ½Î±": 2337,
      "Ð°ÒĽ": 2338,
      "aciÃ³n": 2339,
      "ula": 2340,
      "als": 2341,
      "aren": 2342,
      "AC": 2343,
      "å¤§": 2344,
      "ect": 2345,
      "aha": 2346,
      "Ġkh": 2347,
      "ige": 2348,
      "à¦¾à¦¨": 2349,
      "ese": 2350,
      "áĢĦáĢ¹": 2351,
      "ye": 2352,
      "àµįà´Ł": 2353,
      "à¸¹": 2354,
      "ĠØ§ÙĨ": 2355,
      "Ġsl": 2356,
      "ima": 2357,
      "à¶ļà·Ĭ": 2358,
      "ĠØ¨Ùĩ": 2359,
      "tig": 2360,
      "EL": 2361,
      "Ġà¦ı": 2362,
      "AM": 2363,
      "ÑįÑį": 2364,
      "áĥĲáĥĽ": 2365,
      "à¹Į": 2366,
      "ott": 2367,
      "ĠAm": 2368,
      "ĠÃ¤": 2369,
      "ute": 2370,
      "ê¸": 2371,
      ").": 2372,
      "Ġge": 2373,
      "åĨ": 2374,
      "Ġid": 2375,
      "Ġsc": 2376,
      "à¤ķà¥ĭ": 2377,
      "ì¶ľìŀ¥": 2378,
      "Ġà²ħ": 2379,
      "Ġfa": 2380,
      "à¤¦": 2381,
      "Ġà¤Ĩ": 2382,
      "Ġ×ĵ": 2383,
      "ÅĨ": 2384,
      "Ġrec": 2385,
      "its": 2386,
      "áĢĦáĢ¹áĢ": 2387,
      "à´®": 2388,
      "Äĩ": 2389,
      "Ġàª®": 2390,
      "Ð°Ñĺ": 2391,
      "14": 2392,
      "UR": 2393,
      "Ġà²¹": 2394,
      "ii": 2395,
      "iew": 2396,
      "Ġdin": 2397,
      "Ġmag": 2398,
      "ĠÎĳ": 2399,
      "éĩ": 2400,
      "à´³": 2401,
      "Ġein": 2402,
      "à§Ģ": 2403,
      "à©ĭ": 2404,
      "à¶ľ": 2405,
      "Ù¹": 2406,
      "oto": 2407,
      "ken": 2408,
      "ÑĭÑĢ": 2409,
      "uv": 2410,
      "isa": 2411,
      "otel": 2412,
      "Ġsy": 2413,
      "OS": 2414,
      "Ð¸Ð¹Ð½": 2415,
      "Ġà®¤": 2416,
      "ĠÐ°Ð»": 2417,
      "iga": 2418,
      "Ġul": 2419,
      "×Ļ×ł": 2420,
      "erv": 2421,
      "à³įà²¨": 2422,
      "à¸Ľ": 2423,
      "16": 2424,
      "Ġ);": 2425,
      "ÛĮØ±": 2426,
      "áĥĶáĥļ": 2427,
      "Ðķ": 2428,
      "ĠÒ¯": 2429,
      "à¤µ": 2430,
      "ĠÛĮ": 2431,
      "ath": 2432,
      "åŃ": 2433,
      "du": 2434,
      "Ġgi": 2435,
      "Ġmy": 2436,
      "pp": 2437,
      "çİ": 2438,
      "à¨¤": 2439,
      "mÉĻ": 2440,
      "Ã¦r": 2441,
      "Ġ×Ĵ": 2442,
      "ë¡": 2443,
      "ĠCon": 2444,
      "àµģà´Ĥ": 2445,
      "à³Ĥ": 2446,
      "ÑĸÐ´": 2447,
      "},": 2448,
      "ÙĪÙħ": 2449,
      "Ġnot": 2450,
      "ÑĸÐº": 2451,
      "ero": 2452,
      "à°®": 2453,
      "áŀļáŀ": 2454,
      "Õ¶Õ¥ÖĢ": 2455,
      "æ¸¸": 2456,
      "nda": 2457,
      "oni": 2458,
      "ign": 2459,
      "gen": 2460,
      "Ĭ¤": 2461,
      "áĥĵ": 2462,
      "Ġà¦®": 2463,
      "á»Ļ": 2464,
      "Ġ32": 2465,
      "ãĤĴ": 2466,
      "ras": 2467,
      "ubl": 2468,
      "Ġthat": 2469,
      "ÐµÐ¿": 2470,
      "ÈĻ": 2471,
      "áŁĴáŀĵ": 2472,
      "ĠáŀŁ": 2473,
      "à´¨": 2474,
      "ando": 2475,
      "Ġjst": 2476,
      "ĠÂ·": 2477,
      "tim": 2478,
      "own": 2479,
      "ãģĭ": 2480,
      "Ġjstree": 2481,
      "of": 2482,
      "Î½Î¿": 2483,
      "Ġ×¨": 2484,
      "Õ½": 2485,
      "Øº": 2486,
      "Ñĳ": 2487,
      "Ġï»¿": 2488,
      "ÏĦÎ¹Îº": 2489,
      "aliz": 2490,
      "Ã©g": 2491,
      "ces": 2492,
      "ìĿĺ": 2493,
      "àª¾àª°": 2494,
      "74": 2495,
      "áº¥": 2496,
      "Ġwas": 2497,
      "tuk": 2498,
      "Ġsal": 2499,
      "Ġga": 2500,
      "ĠØµ": 2501,
      "ars": 2502,
      "ÙĲ": 2503,
      "áŀĳ": 2504,
      "á»ĳ": 2505,
      "Ġìŀ": 2506,
      "àª¾àªĤ": 2507,
      "ĠØ²": 2508,
      "ros": 2509,
      "old": 2510,
      "akan": 2511,
      "Ġà¶¯": 2512,
      "Ð°Ð»ÑĮ": 2513,
      "Ġca": 2514,
      "à²²à³įà²²": 2515,
      "90": 2516,
      "ea": 2517,
      "Õ¡Õ¯Õ¡Õ¶": 2518,
      "ĠÙģÙĬ": 2519,
      "olo": 2520,
      "iek": 2521,
      "Ġà´µ": 2522,
      "Ð°Ñŀ": 2523,
      "Ġnj": 2524,
      "Õ¡Õ½": 2525,
      "Õ´": 2526,
      "çĽ": 2527,
      "ĠÎ±ÏĢ": 2528,
      "Ã§Ã£o": 2529,
      "ben": 2530,
      "à³įà²¯": 2531,
      "è¡": 2532,
      "à°¤": 2533,
      "**": 2534,
      "Ġfil": 2535,
      "esta": 2536,
      "ìĹĲ": 2537,
      "iko": 2538,
      "à¨¨": 2539,
      "ante": 2540,
      "ìĿĦ": 2541,
      "Ġà¤¤": 2542,
      "Ã¥r": 2543,
      "Ġpost": 2544,
      "ET": 2545,
      "Âµ": 2546,
      "ÎµÎ¯": 2547,
      "à±įà°¨": 2548,
      "ľáĢ": 2549,
      "ole": 2550,
      "æ³": 2551,
      "×ķ×ĳ": 2552,
      "ock": 2553,
      "Ġmeg": 2554,
      "Ð¸Ð¸": 2555,
      "ÛĮØ¯": 2556,
      "à»Ī": 2557,
      "Ø§Ø²": 2558,
      "anda": 2559,
      "Ġà²¬": 2560,
      "ÐĿ": 2561,
      "×ķ×ĵ": 2562,
      "à¥Ĥ": 2563,
      "Ġtrans": 2564,
      "ets": 2565,
      "ìĭ": 2566,
      "ĠOn": 2567,
      "à¶´": 2568,
      "70": 2569,
      "ÑĥÐ±": 2570,
      "à¨ķ": 2571,
      "Ġà¤Ń": 2572,
      "Ġson": 2573,
      "ëı": 2574,
      "ĠÐŁÑĢ": 2575,
      "alt": 2576,
      "Ġdit": 2577,
      "Ð°Ñļ": 2578,
      "ĠØ¨Ø±": 2579,
      "×Ļ×ķ×ª": 2580,
      "Ġmil": 2581,
      "Ġà°ļ": 2582,
      "ģáĢ": 2583,
      "à¤¾à¤²": 2584,
      "à®¿à®²": 2585,
      "ĠÕ¶": 2586,
      "Ġ×§": 2587,
      "ose": 2588,
      "ph": 2589,
      "Ġgen": 2590,
      "AP": 2591,
      "ition": 2592,
      "à´µ": 2593,
      "ì§Ģ": 2594,
      "×ķ×ł": 2595,
      "×ĸ": 2596,
      "æĺ¯": 2597,
      "Ġà¶±": 2598,
      "Ġinform": 2599,
      "Ð°Ð½Ð´": 2600,
      "enti": 2601,
      "áĥĽ": 2602,
      "Ã¹": 2603,
      "ãģ£": 2604,
      "iki": 2605,
      "Ġà¤²": 2606,
      "ake": 2607,
      "Ġher": 2608,
      "éĻ": 2609,
      "78": 2610,
      "ĠÎŃ": 2611,
      "Ġnet": 2612,
      "Ġsin": 2613,
      "ĠPar": 2614,
      "Ã¤Ã¤": 2615,
      "ĠTe": 2616,
      "Ġà®ļ": 2617,
      "Ġ2011": 2618,
      "áŀ¼": 2619,
      "ĠØ§Ø³": 2620,
      "Ġkun": 2621,
      "à³Ĩà²": 2622,
      "Ġmeng": 2623,
      "Ã¼l": 2624,
      "Ã©n": 2625,
      "áŁĩ": 2626,
      "áīµ": 2627,
      "Ã¡m": 2628,
      "ĠÐ¥": 2629,
      "Ġdar": 2630,
      "Ġseg": 2631,
      "ger": 2632,
      "Ġà°¨": 2633,
      "24": 2634,
      "uma": 2635,
      "×Ļ×ľ": 2636,
      "à©±": 2637,
      "à°¿à°Ĥà°": 2638,
      "Ġuz": 2639,
      "Ġfunction": 2640,
      "ĠBl": 2641,
      "Ä±m": 2642,
      "à¯ģà®®à¯į": 2643,
      "Ø«": 2644,
      "Ġpres": 2645,
      "ĠNo": 2646,
      "gu": 2647,
      "Ġjo": 2648,
      "ê°Ģ": 2649,
      "engan": 2650,
      "ker": 2651,
      "Ð¸Ð³": 2652,
      "Ġ31": 2653,
      "Ġwat": 2654,
      "ĠfÃ¶r": 2655,
      "ĠÃĳ": 2656,
      "àº²àº": 2657,
      "ico": 2658,
      "Ġà¦¨": 2659,
      "eko": 2660,
      "ĠPre": 2661,
      "Ġdem": 2662,
      "Ã¬": 2663,
      "Ġpot": 2664,
      "ione": 2665,
      "Ġà²ª": 2666,
      "ÓĻÑĢ": 2667,
      "Î¾": 2668,
      "Ðļ": 2669,
      "åĩ": 2670,
      "Ġcomp": 2671,
      "Ġbel": 2672,
      "Ġsub": 2673,
      "åİ": 2674,
      "aki": 2675,
      "à¤¯": 2676,
      "IS": 2677,
      "à®¿à®¯": 2678,
      "Ġfin": 2679,
      "ode": 2680,
      "imo": 2681,
      "å¥": 2682,
      "à±įà°¯": 2683,
      "ĠSo": 2684,
      "à®µ": 2685,
      "Ġvoor": 2686,
      "à·ľ": 2687,
      "73": 2688,
      "à³Ĭ": 2689,
      "ĠÙĥ": 2690,
      "à²¾à²Ĺ": 2691,
      "jen": 2692,
      "Ġï¿½ï¿½ï¿½ï¿½ï¿½ï¿½ï¿½ï¿½": 2693,
      "ĠÛģÛĴ": 2694,
      "à°¾à°²": 2695,
      "Ø§Ùĩ": 2696,
      "Ġà¦¹": 2697,
      "fi": 2698,
      "Ġà´ħ": 2699,
      "Ġvir": 2700,
      "Ġà¨¹": 2701,
      "eder": 2702,
      "Ð¢": 2703,
      "ams": 2704,
      "ç«Ļ": 2705,
      "Õ¡Õ¾": 2706,
      "Ġmal": 2707,
      "Ñī": 2708,
      "à´²": 2709,
      "ĠÎł": 2710,
      "Ø±ÙĪ": 2711,
      "Ġìł": 2712,
      "ê²": 2713,
      "å¿«": 2714,
      "Ġtur": 2715,
      "lÉĻr": 2716,
      "ail": 2717,
      "akt": 2718,
      "Ġ×ª": 2719,
      "Ġpi": 2720,
      "ĠáŁ": 2721,
      "è§": 2722,
      "à¹Īà¸²à¸": 2723,
      "Ð¸Ð±": 2724,
      "àµįà´°": 2725,
      "Ġkur": 2726,
      "à¦¸": 2727,
      "Ã½ch": 2728,
      "ÃŃa": 2729,
      "ste": 2730,
      "ĠÑĤÑĢ": 2731,
      "ãĤ¹": 2732,
      "ĠGr": 2733,
      "×Ļ×Ķ": 2734,
      "Ġnga": 2735,
      "ÐµÑģÑĤ": 2736,
      "Ã³w": 2737,
      "land": 2738,
      "æĹ¶": 2739,
      "Ġvol": 2740,
      "à°µ": 2741,
      "Ġlang": 2742,
      "ÐµÐ±": 2743,
      "Ġstr": 2744,
      "Ġnov": 2745,
      "ÑĭÐ·": 2746,
      "à«ĭàª": 2747,
      "ym": 2748,
      "Ġfl": 2749,
      "ê³ł": 2750,
      "Ġdr": 2751,
      "zt": 2752,
      "Î¼Îµ": 2753,
      "ego": 2754,
      "ÐºÑĥ": 2755,
      "Ġsup": 2756,
      "ë¦": 2757,
      "å¾": 2758,
      "sta": 2759,
      "æ°": 2760,
      "ban": 2761,
      "Ġáĥł": 2762,
      "ÐµÑĩ": 2763,
      "aba": 2764,
      "agi": 2765,
      "à°¸": 2766,
      "æĬ": 2767,
      "Ġà´¸": 2768,
      "Ġ::": 2769,
      "ÉĻt": 2770,
      "à¸³": 2771,
      "áĥľ": 2772,
      "à²¨à³įà²¨": 2773,
      "Îĳ": 2774,
      "Õ¥ÖĢÕ": 2775,
      "à´¤àµįà´¤": 2776,
      "ĠÎķ": 2777,
      "Ġaan": 2778,
      "IT": 2779,
      "Ġwh": 2780,
      "go": 2781,
      "23": 2782,
      "45": 2783,
      "Ġover": 2784,
      "Ð¸Ð½Ð³": 2785,
      "IC": 2786,
      "Ä¼": 2787,
      "ëĤ": 2788,
      "Ġcan": 2789,
      "Ġmit": 2790,
      "ÄĹs": 2791,
      "ĠáĢ¡áĢ": 2792,
      "Ġ@": 2793,
      "å±": 2794,
      "kin": 2795,
      "Ó©ÑĢ": 2796,
      "aa": 2797,
      "ĠØ§ÙĪØ±": 2798,
      "ĠSch": 2799,
      "Ġ45": 2800,
      "ĠOr": 2801,
      "Ġå½©ç¥ŀ": 2802,
      "Î±Î½": 2803,
      "Ġlos": 2804,
      "000": 2805,
      "Ġef": 2806,
      "ĠÐ²Ð¾": 2807,
      "ìĤ¬": 2808,
      "áĥĲáĥĵ": 2809,
      "Äģs": 2810,
      "åĮ": 2811,
      "ĠØ¹ÙĦ": 2812,
      "Ġå¤§": 2813,
      "ÏĦÎ¹": 2814,
      "Ã¤l": 2815,
      "Ġàªľ": 2816,
      "usi": 2817,
      "ĠPer": 2818,
      "ÑĸÐ²": 2819,
      "Ã¶n": 2820,
      "ãĥ¼ãĥ": 2821,
      "rip": 2822,
      "Ġlas": 2823,
      "Ġare": 2824,
      "Ġ33": 2825,
      "get": 2826,
      "Ġpal": 2827,
      "ÙĪÚº": 2828,
      "vis": 2829,
      "Ġweb": 2830,
      "à²¤à³įà²¤": 2831,
      "eks": 2832,
      "udi": 2833,
      "aks": 2834,
      "Ö·": 2835,
      "Ġsm": 2836,
      "Ġret": 2837,
      "ä¸Ń": 2838,
      "ÑĥÑĩ": 2839,
      "ÐµÐºÑĤ": 2840,
      "Ã¡c": 2841,
      "æľº": 2842,
      "à°¦": 2843,
      "ivers": 2844,
      "ĠÏĦÎ·Î½": 2845,
      "Ġà®ĩ": 2846,
      "Ġï¿½ï¿½ï¿½": 2847,
      "ĠÐ¸Ð½": 2848,
      "ket": 2849,
      "à³ĭ": 2850,
      "uf": 2851,
      "áŀĸ": 2852,
      "ary": 2853,
      "Ġà§": 2854,
      "Ġist": 2855,
      "br": 2856,
      "ÑįÐ½": 2857,
      "ook": 2858,
      "è½½": 2859,
      "Ò¯Ò¯": 2860,
      "ä¹Ĳ": 2861,
      "Ø§Ø¹": 2862,
      "Ġ60": 2863,
      "98": 2864,
      "Ġnd": 2865,
      "Î¿Ïį": 2866,
      "elle": 2867,
      "ëħ": 2868,
      "ÙĬØ±": 2869,
      "¨à¯įà®¤": 2870,
      "ner": 2871,
      "Ø¸": 2872,
      "con": 2873,
      "ìĿ¼": 2874,
      "Ġtal": 2875,
      "Ġif": 2876,
      "ament": 2877,
      "à«įàª¯": 2878,
      "ely": 2879,
      "à´£": 2880,
      "íķľ": 2881,
      "ãĤĤ": 2882,
      "Ġà´¨": 2883,
      "cl": 2884,
      "áĥĲáĥłáĥ": 2885,
      "Ġsur": 2886,
      "ÑĭÒĽ": 2887,
      "Ġini": 2888,
      "Ġez": 2889,
      "wo": 2890,
      "ĠPl": 2891,
      "ÑĸÑĢ": 2892,
      "!!": 2893,
      "Õ¯": 2894,
      "rac": 2895,
      "Ġà¨¨": 2896,
      "à¯Ĩ": 2897,
      "yl": 2898,
      "Ġ×¡": 2899,
      "æĢ": 2900,
      "esi": 2901,
      "ĠÕ«": 2902,
      "Ġà´®": 2903,
      "ìĥ": 2904,
      "à©ģ": 2905,
      "ual": 2906,
      "ush": 2907,
      "Ġ36": 2908,
      "Ġsch": 2909,
      "à¨¸": 2910,
      "ÑĭÐ¿": 2911,
      "ÃŃn": 2912,
      "ÑįÑĢ": 2913,
      "Ġtot": 2914,
      "áŀħ": 2915,
      "ÎµÏĤ": 2916,
      "osti": 2917,
      "Ġsta": 2918,
      "ĠÄ°": 2919,
      "à°¡": 2920,
      "Ġei": 2921,
      "ìķĪ": 2922,
      "ideo": 2923,
      "ç½ĳç«Ļ": 2924,
      "ĠEr": 2925,
      "cz": 2926,
      "ĠUS": 2927,
      "áĥĲáĥ¡": 2928,
      "àº±": 2929,
      "Ġàª¤": 2930,
      "Ġuntuk": 2931,
      "nik": 2932,
      "hr": 2933,
      "Ġmai": 2934,
      "ĠÏĦÎ·ÏĤ": 2935,
      "à³Ģ": 2936,
      "×Ļ×Ł": 2937,
      "Ð½Ð¾ÑģÑĤ": 2938,
      "tif": 2939,
      "Ä±ÅŁ": 2940,
      "à¤¿à¤ķ": 2941,
      "à¥įà¤¤": 2942,
      "iet": 2943,
      "28": 2944,
      "ĠÚ©ÙĪ": 2945,
      "åľ¨": 2946,
      "Ã«n": 2947,
      "Ġonline": 2948,
      "Ð°Ð½Ð°": 2949,
      "à°Ł": 2950,
      "ĠÎºÎ±": 2951,
      "Ġinst": 2952,
      "Ðĵ": 2953,
      "áĥ¢": 2954,
      "Ġhu": 2955,
      "ÑĥÐº": 2956,
      "Ġtop": 2957,
      "Ð´Ðµ": 2958,
      "aran": 2959,
      "ĠÒ³": 2960,
      "Ġbat": 2961,
      "Ġ38": 2962,
      "Ð¾ÑĪ": 2963,
      "Ġdengan": 2964,
      "ìŀ": 2965,
      "áĢĢáĢ": 2966,
      "áĥĲáĥķ": 2967,
      "____": 2968,
      "Ñĺ": 2969,
      "ĠÎ£": 2970,
      "ãģĨ": 2971,
      "esti": 2972,
      "ery": 2973,
      "ÑĤÐµÑĢ": 2974,
      "à¨²": 2975,
      "Ġìĺ": 2976,
      "95": 2977,
      "Ġgj": 2978,
      "íĬ": 2979,
      "áĢĢáĢ¹áĢ": 2980,
      "à¥ĩà¤Ĥ": 2981,
      "Ġals": 2982,
      "Ġà¹Ģà¸": 2983,
      "yk": 2984,
      "Ð¸ÑĺÐ°": 2985,
      "ĮĢ": 2986,
      "Ġcat": 2987,
      "àª¿àª": 2988,
      "po": 2989,
      "Ġnem": 2990,
      "ekt": 2991,
      "oy": 2992,
      "Ġ2010": 2993,
      "75": 2994,
      "à¨Ĥ": 2995,
      "Î»Î»": 2996,
      "ille": 2997,
      "Ġcar": 2998,
      "à¸Ĥ": 2999,
      "æīĭ": 3000,
      "ĠÑĢÐ°Ð·": 3001,
      "ÑĥÑĪ": 3002,
      "Ġcons": 3003,
      "ĠÑģÐ¾": 3004,
      "Ġ×Ĳ×ª": 3005,
      "Å£": 3006,
      "ĠpÅĻ": 3007,
      "Ġë°": 3008,
      "Õ¥Õ¶": 3009,
      "ãĤĬ": 3010,
      "Ġ55": 3011,
      "äºĨ": 3012,
      "Ġ×ĸ": 3013,
      "met": 3014,
      "à²¸": 3015,
      "gg": 3016,
      "á»ĭ": 3017,
      "ªà¯įà®ª": 3018,
      "ä¸ĭè½½": 3019,
      "ional": 3020,
      "CT": 3021,
      "áŁĴáŀı": 3022,
      "ml": 3023,
      "IL": 3024,
      "áŁĴáŀļ": 3025,
      "Ġtre": 3026,
      "sc": 3027,
      "Ġãģ": 3028,
      "âĢĭ": 3029,
      "Ġtel": 3030,
      "uss": 3031,
      "à»ī": 3032,
      "à±įà°¤": 3033,
      "Ġê°": 3034,
      "ance": 3035,
      "Ġà®¨": 3036,
      "Î¯Î½": 3037,
      "áĥĶáĥľ": 3038,
      "for": 3039,
      "ĠBar": 3040,
      "Ġback": 3041,
      "dz": 3042,
      "Ġamb": 3043,
      "ÙĩØ§": 3044,
      "Ġ80": 3045,
      "ĠÑģÐ»": 3046,
      "Ġtem": 3047,
      "ãĥĥ": 3048,
      "CH": 3049,
      "Ġà¤ķà¥ĩ": 3050,
      "Ġà¨µ": 3051,
      "ĠCl": 3052,
      "àºĻàº": 3053,
      "ux": 3054,
      "ÏİÎ½": 3055,
      "ĠÐ¾ÑĢ": 3056,
      "nya": 3057,
      "sz": 3058,
      "ĠÎ±ÏĢÏĮ": 3059,
      "Ġáģĭ": 3060,
      "çľ": 3061,
      "erk": 3062,
      "Ŀ¼": 3063,
      "Ġaj": 3064,
      "Ġìķ": 3065,
      "ë¥": 3066,
      "ÛĮÚ©": 3067,
      "ova": 3068,
      "Äģr": 3069,
      "Ġtid": 3070,
      "Ġà¦¦": 3071,
      "Ġï¿½ï¿½ï¿½ï¿½ï¿½": 3072,
      "ĠÎ³Î¹Î±": 3073,
      "US": 3074,
      "å½": 3075,
      "out": 3076,
      "Ø¨Ø±": 3077,
      "ĠÎ¤": 3078,
      "ÎŁ": 3079,
      "atur": 3080,
      "do": 3081,
      "Ã³l": 3082,
      "ĠÙ¾Ø±": 3083,
      "Ġáŀĺ": 3084,
      "Ġ34": 3085,
      "ĠØ§Ø³Øª": 3086,
      "var": 3087,
      "à²Ĥà²¦": 3088,
      "Ġprof": 3089,
      "larÄ±": 3090,
      "inen": 3091,
      "Ùı": 3092,
      "à´¸": 3093,
      "à°¾à°¨": 3094,
      "ID": 3095,
      "à´±": 3096,
      "oo": 3097,
      "ĠMan": 3098,
      "êµ": 3099,
      "ĠBr": 3100,
      "Ġwid": 3101,
      "ìĽ": 3102,
      "eme": 3103,
      "ÚĨ": 3104,
      "Æ¡": 3105,
      "Ġperson": 3106,
      "å¯": 3107,
      "ï¼Į": 3108,
      "à¥ģà¤": 3109,
      "Ø§Ùģ": 3110,
      "Ġhas": 3111,
      "á»ģ": 3112,
      "ĠàªĨ": 3113,
      "à°¯": 3114,
      "Ã´ng": 3115,
      "ĠÐ±Ð°Ð¹": 3116,
      "Ð¸Ð½Ð¸": 3117,
      "chen": 3118,
      "aman": 3119,
      "à²®": 3120,
      "à®£": 3121,
      "à¸Ĭ": 3122,
      "Ġáĥĺ": 3123,
      "å¹´": 3124,
      "ativ": 3125,
      "ores": 3126,
      "½áĢ": 3127,
      "Ġsol": 3128,
      "Ġud": 3129,
      "ÑĭÑģ": 3130,
      "Ġkw": 3131,
      "alis": 3132,
      "à°ª": 3133,
      "àª¨à«ĩ": 3134,
      "Ġàªµ": 3135,
      "ĠNe": 3136,
      "Ġform": 3137,
      "Ġ\".": 3138,
      "ĠÙĪØ§ÙĦ": 3139,
      "ØªØ±": 3140,
      "iÃ°": 3141,
      "able": 3142,
      "à²¿à²¸": 3143,
      "ĠAnd": 3144,
      "ĠNa": 3145,
      "Ä¾": 3146,
      "Ð¾Ñĩ": 3147,
      "ä¸į": 3148,
      "ĠØ³ÛĴ": 3149,
      "ĠÑģÐ¿": 3150,
      "pos": 3151,
      "Ġpat": 3152,
      "à´¨àµįà´¨": 3153,
      "Ġà°¤": 3154,
      "Î¶": 3155,
      "àµįà´¯": 3156,
      "Ġrel": 3157,
      "ĠØ·": 3158,
      "ÎĻ": 3159,
      "36": 3160,
      "íĬ¸": 3161,
      "uks": 3162,
      "ĠÎļ": 3163,
      "ĠPh": 3164,
      "ĠÄ¯": 3165,
      "ĠÎľ": 3166,
      "à´¿à´¯": 3167,
      "ĠÏĮ": 3168,
      "Ð°ÑĤÐ¸": 3169,
      "æķ": 3170,
      "áĥ®": 3171,
      "96": 3172,
      "à±įà°²": 3173,
      "ÑĨÑĮ": 3174,
      "Ã©t": 3175,
      "ados": 3176,
      "Å¡an": 3177,
      "Ġdec": 3178,
      "Ġdos": 3179,
      "ump": 3180,
      "Ġker": 3181,
      "à§įà¦¤": 3182,
      "ļáĥĺ": 3183,
      "Ġdas": 3184,
      "ira": 3185,
      "angan": 3186,
      "ays": 3187,
      "Ġuk": 3188,
      "ĠÏĩ": 3189,
      "ator": 3190,
      "Ġà¦ķà¦°": 3191,
      "Ġ(\"": 3192,
      "ĠØ§Ø²": 3193,
      "Ġce": 3194,
      "bet": 3195,
      "26": 3196,
      "Ð²Ð°": 3197,
      "gy": 3198,
      "AD": 3199,
      "éĹ": 3200,
      "Ġàªħ": 3201,
      "ĠvÉĻ": 3202,
      "íĻ": 3203,
      "ģàº": 3204,
      "cc": 3205,
      "ê¸°": 3206,
      "à«įàª°": 3207,
      "ĠáĥĵáĥĲ": 3208,
      "Ġ48": 3209,
      "AK": 3210,
      "igh": 3211,
      "vel": 3212,
      "ents": 3213,
      "×ļ": 3214,
      "ÑĸÐ·": 3215,
      "Ġ×ľ×Ķ": 3216,
      "aja": 3217,
      "omb": 3218,
      "ìĸ": 3219,
      "Ġev": 3220,
      "uy": 3221,
      "alan": 3222,
      "oi": 3223,
      "ĠâĨ": 3224,
      "gro": 3225,
      "AAAA": 3226,
      "à¸ŀ": 3227,
      "ĠÑĺÐµ": 3228,
      "ĠDet": 3229,
      "á»ĥ": 3230,
      "Ġà²µ": 3231,
      "ä¼ļ": 3232,
      "ĠÐĽ": 3233,
      "æľī": 3234,
      "áĥĲáĥł": 3235,
      "Ġà¶Ń": 3236,
      "Ġpu": 3237,
      "à®±": 3238,
      "à¨¦": 3239,
      "ĠÎĶ": 3240,
      "à©Ī": 3241,
      "ĠInd": 3242,
      "35": 3243,
      "ĠSa": 3244,
      "Ġtar": 3245,
      "ĠÐ°Ð´": 3246,
      "áŀ½": 3247,
      "ork": 3248,
      "à¨¹": 3249,
      "las": 3250,
      "Ġà¦¤": 3251,
      "å®ĺç½ĳ": 3252,
      "Ð°Ð³Ð°": 3253,
      "led": 3254,
      "raf": 3255,
      "Ø§Ø¡": 3256,
      "uta": 3257,
      "ìĿ¸": 3258,
      "une": 3259,
      "alar": 3260,
      "×ķ×Ĳ": 3261,
      "á»§": 3262,
      "à°¿à°ķ": 3263,
      "Ġsiz": 3264,
      "oli": 3265,
      "Īëĭ¤": 3266,
      "ove": 3267,
      "å½©": 3268,
      "Ġà·Ħ": 3269,
      "ĠØ¥": 3270,
      "áĥĿáĥĽ": 3271,
      "Ġmem": 3272,
      "ĠìĹ": 3273,
      "ãĤ¤": 3274,
      "Äįi": 3275,
      "à¶«": 3276,
      "ĠáŀĬ": 3277,
      "ãĤī": 3278,
      "Ġass": 3279,
      "Ä±z": 3280,
      "Ġword": 3281,
      "idad": 3282,
      "orn": 3283,
      "ë¡ľ": 3284,
      "Ġnon": 3285,
      "Ð°Ñı": 3286,
      "atan": 3287,
      "à®®": 3288,
      "ÙĦÛĮ": 3289,
      "Ġ42": 3290,
      "alo": 3291,
      "mu": 3292,
      "à´ª": 3293,
      "Ġì¶ľìŀ¥": 3294,
      "yon": 3295,
      "ĠNew": 3296,
      "çĻ": 3297,
      "gram": 3298,
      "Ġfra": 3299,
      "å®ĺæĸ¹": 3300,
      "àºĩ": 3301,
      "Ġdag": 3302,
      "ĠÑĤÐ°Ðº": 3303,
      "Õ¡Öģ": 3304,
      "ÏĦÎ¬": 3305,
      "ĠÐķ": 3306,
      "è¦": 3307,
      "à¹īà¸²à¸": 3308,
      "ĠÎ¸": 3309,
      "ĠàªĽ": 3310,
      "pi": 3311,
      "ĠAz": 3312,
      "ãĥĪ": 3313,
      "Ġà¤¹à¥Ī": 3314,
      "èĢ": 3315,
      "Õ¸ÖĤÕ©ÕµÕ¸ÖĤÕ¶": 3316,
      "Ġvy": 3317,
      "ĠÔ±": 3318,
      "ÐĽ": 3319,
      "94": 3320,
      "àµįà´ª": 3321,
      "Ð°ÑĢÑĤ": 3322,
      "Ġà¤ªà¥įà¤°": 3323,
      "Ġfrom": 3324,
      "Ġinf": 3325,
      "urn": 3326,
      "ä¿": 3327,
      "Ġah": 3328,
      "ëĵ": 3329,
      "pon": 3330,
      "este": 3331,
      "Ġout": 3332,
      "elo": 3333,
      "ĠInter": 3334,
      "ota": 3335,
      "alit": 3336,
      "lÉĻ": 3337,
      "ĠáĢ±áĢ": 3338,
      "Ġsen": 3339,
      "ÃŃm": 3340,
      "åĿ": 3341,
      "pt": 3342,
      "ular": 3343,
      "ÐµÐ¶": 3344,
      "²áĢ·": 3345,
      "è´": 3346,
      "Ġkam": 3347,
      "Ġà¨ª": 3348,
      "à´ķàµįà´ķ": 3349,
      "à±įà°Ł": 3350,
      "à¤¿à¤¯": 3351,
      "ĠÐºÑĢ": 3352,
      "ĠEx": 3353,
      "Ġáĥ¨": 3354,
      "Ġ90": 3355,
      "àº°": 3356,
      "Ġ2009": 3357,
      "Ġok": 3358,
      "ote": 3359,
      "ÑĭÒ£": 3360,
      "fs": 3361,
      "ande": 3362,
      "Ġdata": 3363,
      "à¤¬": 3364,
      "à°¿à°¨": 3365,
      "Ġ`": 3366,
      "Ġê²": 3367,
      "ĠÐ¨": 3368,
      "Ð¸Ð½Ð°": 3369,
      "Ã¢n": 3370,
      "Ġkad": 3371,
      "à¯įà®±": 3372,
      "ÑįÐ»": 3373,
      "ĠFor": 3374,
      "Ð´Ð°Ð½": 3375,
      "çº": 3376,
      "anc": 3377,
      "iden": 3378,
      "à©Ĥ": 3379,
      "ķáĢ«": 3380,
      "eci": 3381,
      "à¹Ĥ": 3382,
      "áºŃ": 3383,
      "Õ¸ÖĢ": 3384,
      "Ø±ÙĬ": 3385,
      "Ĥ°": 3386,
      "åĵ": 3387,
      "à¦¦": 3388,
      "ED": 3389,
      "ĠÕ¿": 3390,
      "ania": 3391,
      "Ò¯Ð½": 3392,
      "áĪŃ": 3393,
      "eren": 3394,
      "Ã¶z": 3395,
      "Ġkor": 3396,
      "entru": 3397,
      "Ġ.,": 3398,
      "×ķ×ĺ": 3399,
      "anta": 3400,
      "ê±": 3401,
      "asta": 3402,
      "Ġáĭ¨": 3403,
      "Ġà®İ": 3404,
      "ĠÚ©Ø§": 3405,
      "Ġou": 3406,
      "pre": 3407,
      "ÑĢÐ°Ð½": 3408,
      "ĠCar": 3409,
      "Ġ44": 3410,
      "kar": 3411,
      "ĠqÃ«": 3412,
      "Ġhand": 3413,
      "ĠÏĢÎ¿Ïħ": 3414,
      "cial": 3415,
      "¯äºļ": 3416,
      "ãĤĮ": 3417,
      "áŀĩ": 3418,
      "ĠÕ¡Õ": 3419,
      "Ġorgan": 3420,
      "ciÃ³n": 3421,
      "ÑĤÐ¸": 3422,
      "ÑĹ": 3423,
      "Ġ70": 3424,
      "Ġà°°": 3425,
      "Ð´Ð¸": 3426,
      "lad": 3427,
      "Ġpen": 3428,
      "à¯ĭ": 3429,
      "à¦ª": 3430,
      "Õ¸Õ¾": 3431,
      "ĠEur": 3432,
      "Ð½Ð¸Ðº": 3433,
      "Ġkm": 3434,
      "pro": 3435,
      "Ġdur": 3436,
      "Ġ()": 3437,
      "ĠvÃł": 3438,
      "kov": 3439,
      "Ġsek": 3440,
      "ĠÐ¿ÐµÑĢ": 3441,
      "ĥ½": 3442,
      "ãĤĵ": 3443,
      "Ġleg": 3444,
      "cha": 3445,
      "eda": 3446,
      "Ã¤t": 3447,
      "áĪį": 3448,
      "ÑĥÐ¿": 3449,
      "Ġàª¨": 3450,
      "Ġà»": 3451,
      "Ã¡v": 3452,
      "38": 3453,
      "£¼": 3454,
      "Ġger": 3455,
      "Õ¥Õ¿": 3456,
      "ÐµÑĨ": 3457,
      "Ġàª¹": 3458,
      "Ġ37": 3459,
      "à«Ģàª": 3460,
      "ĠÐ°ÑĢ": 3461,
      "ÑĤÐ°ÑĢ": 3462,
      "isti": 3463,
      "à±Ĥà°": 3464,
      "ÐºÐ¾": 3465,
      "ÑįÐ³": 3466,
      "æĹ¥": 3467,
      "Ġnew": 3468,
      "ÑĸÐ¼": 3469,
      "by": 3470,
      "àºĶ": 3471,
      "jon": 3472,
      "ĠIt": 3473,
      "Ġà¶ľ": 3474,
      "ated": 3475,
      "Ġnav": 3476,
      "à´ķ": 3477,
      "ĠAng": 3478,
      "nes": 3479,
      "Ġ×Ķ×ŀ×": 3480,
      "à²°à³ģ": 3481,
      "Ġale": 3482,
      "àµįà´ļ": 3483,
      "à§ĩà¦¨": 3484,
      "eden": 3485,
      "à±Ī": 3486,
      "à¤ľ": 3487,
      "ĠÕ£": 3488,
      "áĭį": 3489,
      "........": 3490,
      "ĠVi": 3491,
      "à¦Ł": 3492,
      "Ġhan": 3493,
      "Ġpun": 3494,
      "ĠÐºÐ¾Ð¼": 3495,
      "Ġnag": 3496,
      "Ġå¤§åıĳ": 3497,
      "ÐµÐ»ÑĮ": 3498,
      "ater": 3499,
      "ĠÚ©Ûģ": 3500,
      "ĠPol": 3501,
      "ĠÙħÛĮ": 3502,
      "ĠDie": 3503,
      "ĠQu": 3504,
      "ĠÐ¿Ð¾Ð´": 3505,
      "à«ģàªĤ": 3506,
      "Ð¾Ð²Ð°": 3507,
      "Õ¤": 3508,
      "ìķĪë§Ī": 3509,
      "æĶ": 3510,
      "Ġlab": 3511,
      "ee": 3512,
      "Ġáį": 3513,
      "ì¹": 3514,
      "áŁħ": 3515,
      "chi": 3516,
      "Ð»Ð¸Ðº": 3517,
      "uka": 3518,
      "pg": 3519,
      "ĠÎ·": 3520,
      "Õ¸Õ²": 3521,
      "oa": 3522,
      "æµ": 3523,
      "Ð°Ð»Ð°": 3524,
      "str": 3525,
      "Ġtek": 3526,
      "Î¹Ïĥ": 3527,
      "ĠvÃµ": 3528,
      "áŀİ": 3529,
      "edi": 3530,
      "ĠÅł": 3531,
      "áĢĦáĢº": 3532,
      "à¤ļ": 3533,
      "Ġole": 3534,
      "à¸²à¸¡": 3535,
      "Ġà¦ħ": 3536,
      "jet": 3537,
      "Ð»Ð°Ð½": 3538,
      "çĲ": 3539,
      "29": 3540,
      "Ġset": 3541,
      "uje": 3542,
      "nen": 3543,
      "ä¸Ĭ": 3544,
      "Ã³r": 3545,
      "Ġyour": 3546,
      "TT": 3547,
      "Ġcent": 3548,
      "inin": 3549,
      "àª¾àª¨": 3550,
      "ory": 3551,
      "ðŁ": 3552,
      "Ġvers": 3553,
      "ìĿĢ": 3554,
      "len": 3555,
      "æŃ": 3556,
      "ÑĭÐº": 3557,
      "ì²": 3558,
      "Ġpop": 3559,
      "uld": 3560,
      "ĠBer": 3561,
      "Ġzu": 3562,
      "Ġà¤¯": 3563,
      "Ġ('": 3564,
      "×Ļ×§": 3565,
      "ikan": 3566,
      "del": 3567,
      "æİ": 3568,
      "Ġai": 3569,
      "ĠAs": 3570,
      "éĽ": 3571,
      "Ġ×¢×ľ": 3572,
      "Ļàµįà´": 3573,
      "ĠPost": 3574,
      "à¶±à·Ĭà¶±": 3575,
      "ĠsÃ¥": 3576,
      "34": 3577,
      "Ġmes": 3578,
      "ages": 3579,
      "ë°": 3580,
      "ĠÃ¤r": 3581,
      "Ð»ÐµÐ½": 3582,
      "ĠâĢĿ,": 3583,
      "Ġ--": 3584,
      "ÑģÐºÐ¸": 3585,
      "Ò¯ÑĢ": 3586,
      "zo": 3587,
      "Ġfi": 3588,
      "à¨¾à¨Ĥ": 3589,
      "ĠÐ¸Ð¼": 3590,
      "à·ĬâĢį": 3591,
      "Ġhal": 3592,
      "ument": 3593,
      "æł": 3594,
      "Ä°": 3595,
      "Ġ39": 3596,
      "Ġkal": 3597,
      "gin": 3598,
      "uni": 3599,
      "ĠØ¨Ø§": 3600,
      "Ð¸Ð¿": 3601,
      "apat": 3602,
      "ĸáĢ": 3603,
      "Īĺ": 3604,
      "Ġ×ľ×Ĳ": 3605,
      "ãĥ«": 3606,
      "ÎŃÏĤ": 3607,
      "Ġà²¤": 3608,
      "Ð°ÑĤÑĮ": 3609,
      "àµģà´¨àµįà´¨": 3610,
      "ava": 3611,
      "ĠÕº": 3612,
      "ÑģÐ¿": 3613,
      "atis": 3614,
      "II": 3615,
      "âĢ¦": 3616,
      "áĥĺáĥĹ": 3617,
      "à²¿à²Ĺ": 3618,
      "ĠÐ²Ð°": 3619,
      "ĠBe": 3620,
      "áŁĴáŀĽ": 3621,
      "Ġbol": 3622,
      "×ĳ×¨": 3623,
      "Ġhi": 3624,
      "áį": 3625,
      "ĠÎµÏĢ": 3626,
      "abil": 3627,
      "Ġsig": 3628,
      "×ª×Ļ": 3629,
      "por": 3630,
      "ude": 3631,
      "Ð°Ð»Ð°ÑĢ": 3632,
      "Ġà¤ī": 3633,
      "uan": 3634,
      "à²¿à²¯": 3635,
      "áĪĿ": 3636,
      "à´¾à´¯": 3637,
      "ĠØ§ÙĦØª": 3638,
      "à¹Ģ": 3639,
      "Ð°Ñİ": 3640,
      "iai": 3641,
      "à²Ĥà²": 3642,
      "à®¿à®²à¯į": 3643,
      "ĠDes": 3644,
      "à¸ģà¸²à¸£": 3645,
      "å¹³": 3646,
      "21": 3647,
      "Ġà¦ľ": 3648,
      "à¸Ĺà¸µà¹Ī": 3649,
      "à®ķ": 3650,
      "ĠìĦ": 3651,
      "ĠÐ¼ÐµÐ½": 3652,
      "ox": 3653,
      "ĠBu": 3654,
      "×ķ×Ŀ": 3655,
      "RO": 3656,
      "èĤ": 3657,
      "à²Ĺà²³": 3658,
      "éģ": 3659,
      "à¯įà®ķà®³": 3660,
      "ÃŃs": 3661,
      "ering": 3662,
      "çĶ¨": 3663,
      "ħáĢ": 3664,
      "Ġint": 3665,
      "bil": 3666,
      "á»Ľ": 3667,
      "68": 3668,
      "Ġmul": 3669,
      "wi": 3670,
      "Ø§Ú©": 3671,
      "ÏģÎ¬": 3672,
      "ĠÐ¤": 3673,
      "áŀľ": 3674,
      "Ã©l": 3675,
      "Ġtill": 3676,
      "Ġsex": 3677,
      "Ġmay": 3678,
      "à³įà²¦": 3679,
      "à®¤à¯įà®¤": 3680,
      "ground": 3681,
      "à¸£à¸°": 3682,
      "Ð£": 3683,
      "UN": 3684,
      "Ġáŀĳ": 3685,
      "tur": 3686,
      "Î»Î¿": 3687,
      "Ġ$(": 3688,
      "Ð»Ð°Ð´": 3689,
      "ĠFran": 3690,
      "à±ģà°²": 3691,
      "ĠVer": 3692,
      "har": 3693,
      "Ġáŀ¢": 3694,
      "ido": 3695,
      "ogy": 3696,
      "Ġcomo": 3697,
      "han": 3698,
      "Ġdal": 3699,
      "Ġci": 3700,
      "áº§": 3701,
      "ĠTo": 3702,
      "ĠDi": 3703,
      "ÏĦÎ±Î¹": 3704,
      "Ġàª°": 3705,
      "ĠÐĸ": 3706,
      "ĠKr": 3707,
      "ĠHe": 3708,
      "àµĢ": 3709,
      "ijn": 3710,
      "asÄ±": 3711,
      "ĠÐ±Ð°ÑĢ": 3712,
      "dan": 3713,
      "ÛĮÙħ": 3714,
      "Ġfe": 3715,
      "à®¿à®°": 3716,
      "ĠÕ¤": 3717,
      "Ġfal": 3718,
      "ĠCo": 3719,
      "Ġ}.": 3720,
      "rem": 3721,
      "ĠÙħØ¹": 3722,
      "à´¿à´ķàµįà´ķ": 3723,
      "Ġsec": 3724,
      "×Ļ×ĵ": 3725,
      "Ġáĥ¡áĥĲáĥ": 3726,
      "apa": 3727,
      "ĠÐ¼Ð¾Ð¶": 3728,
      "ums": 3729,
      "Ð´Ñĸ": 3730,
      "ÑıÑĤ": 3731,
      "ĠÒļ": 3732,
      "ĠEm": 3733,
      "amil": 3734,
      "Ģàº": 3735,
      "ë¦¬": 3736,
      "à³ģà²µ": 3737,
      "Ð¾ÑĤÐ¾": 3738,
      "Ġart": 3739,
      "Õ¸ÖĢÕ": 3740,
      "ÓĻÐ½": 3741,
      "hu": 3742,
      "ìľ": 3743,
      "áŀĬ": 3744,
      "Ġmus": 3745,
      "Õ¡Õ®": 3746,
      "ÐĶ": 3747,
      "ĠMe": 3748,
      "ÙĬÙĦ": 3749,
      "à¹Īà¸Ń": 3750,
      "ĠPo": 3751,
      "Ã©m": 3752,
      "×Ļ×©": 3753,
      "ĠÏĥÏħ": 3754,
      "Ġtod": 3755,
      "Ġmis": 3756,
      "Ġget": 3757,
      "ĠAb": 3758,
      "ĠmÃ¼": 3759,
      "Ġten": 3760,
      "ÎŁÎ": 3761,
      "ÐµÑĤÐ¾": 3762,
      "Ã¶l": 3763,
      "åĳ": 3764,
      "×¢×¨": 3765,
      "Ġikke": 3766,
      "áĢŃáĢ¯áĢ": 3767,
      "ĠÏĥÏĦÎ¿": 3768,
      "Ġgl": 3769,
      "inu": 3770,
      "ĠâĢļ": 3771,
      "ĠØ§ÙĦØ¹": 3772,
      "ots": 3773,
      "umi": 3774,
      "ìļ": 3775,
      "ÐºÑĢ": 3776,
      "Ġ160": 3777,
      "edia": 3778,
      "×ł×Ļ": 3779,
      "Ġkwa": 3780,
      "à²²à³įà²²à²¿": 3781,
      "Ö¸": 3782,
      "Ġhel": 3783,
      "Ġà¶¶": 3784,
      "ĠlÃł": 3785,
      "à®®à¯į": 3786,
      "ÑĭÐ½Ð´Ð°": 3787,
      "Ġkol": 3788,
      "à±įâĢĮ": 3789,
      "Î¿ÏħÎ½": 3790,
      "ĠGo": 3791,
      "Ä«b": 3792,
      "eka": 3793,
      ",\"": 3794,
      "ÙĨØ§": 3795,
      "Ġàª¬": 3796,
      "EM": 3797,
      "irt": 3798,
      "àª²": 3799,
      "arr": 3800,
      "ĠáĥĹ": 3801,
      "Ġkap": 3802,
      "áŀ¶áŁĨ": 3803,
      "pres": 3804,
      "alah": 3805,
      "Ġsob": 3806,
      "Ġdom": 3807,
      "à¤¾à¤®": 3808,
      "Ġpour": 3809,
      "æĸ°": 3810,
      "áŀ¶áŀĢ": 3811,
      "ella": 3812,
      "ÙĬØ¯": 3813,
      "ç§": 3814,
      "ĠÕĢ": 3815,
      "Ġ){": 3816,
      "IA": 3817,
      "ony": 3818,
      "Ġà²Ĩ": 3819,
      "Ġbackground": 3820,
      "eti": 3821,
      "éľ": 3822,
      "×Ļ×ĳ": 3823,
      "Ġnam": 3824,
      "ÏģÎ¯": 3825,
      "ÑĥÑİ": 3826,
      "GG": 3827,
      "æŀ": 3828,
      "à¤®à¤¾": 3829,
      "ÛĮØ§": 3830,
      "à³įà²Ł": 3831,
      "Ġgro": 3832,
      "Ġ46": 3833,
      "wan": 3834,
      "oko": 3835,
      "bar": 3836,
      "Îķ": 3837,
      "rag": 3838,
      "her": 3839,
      "Ġnos": 3840,
      "Ġcas": 3841,
      "Ġcap": 3842,
      "Ġáŀĩ": 3843,
      "ple": 3844,
      "áĥĿáĥĳ": 3845,
      "27": 3846,
      "Ġ49": 3847,
      "Ġà¶ĳ": 3848,
      "à¦¿à¦ķ": 3849,
      "ĠàªĽà«ĩ": 3850,
      "Ð°ÑļÐµ": 3851,
      "elen": 3852,
      "ebru": 3853,
      "ĠÐ´Ð¾": 3854,
      "????": 3855,
      "Ġins": 3856,
      "ĠÕ¢": 3857,
      "Ġvon": 3858,
      "Ġmemb": 3859,
      "åĽ¾": 3860,
      "Î¹Î¿": 3861,
      "ĢáĢ": 3862,
      "à´°àµįâĢį": 3863,
      "rij": 3864,
      "Ġdire": 3865,
      "ton": 3866,
      "à®¤à¯ģ": 3867,
      "org": 3868,
      "iner": 3869,
      "à°Ĥà°¦": 3870,
      "à®¿à®©": 3871,
      "åı°": 3872,
      "Ð°ÑĦ": 3873,
      "mm": 3874,
      "Ġà¨®": 3875,
      "ĠÏĢÏģÎ¿": 3876,
      "iku": 3877,
      "erd": 3878,
      "Ġ\"},": 3879,
      "ĠØ§ÙĦØ£": 3880,
      "á»¥": 3881,
      "Ġ56": 3882,
      "Ġurl": 3883,
      "Ð´Ð°ÑĢ": 3884,
      "OL": 3885,
      "ãģı": 3886,
      "ns": 3887,
      "ļàµįà´ļ": 3888,
      "Ġtan": 3889,
      "±áĢ¬": 3890,
      "à²¿à²ķ": 3891,
      "Ä§": 3892,
      "oja": 3893,
      "Ġesc": 3894,
      "oka": 3895,
      "à¤£": 3896,
      "ps": 3897,
      "kk": 3898,
      "Ġ×¦": 3899,
      "ĠáĥĻ": 3900,
      "Ġsim": 3901,
      "Ø§Ø´": 3902,
      "àªĤàª": 3903,
      "ange": 3904,
      "ider": 3905,
      "áĥĲáĥļ": 3906,
      "Ġloc": 3907,
      "ĠÐŃ": 3908,
      "ĠÏĦÎ±": 3909,
      "×Ļ×ĺ": 3910,
      "à¤¨à¥ĩ": 3911,
      "arm": 3912,
      "Äģk": 3913,
      "umb": 3914,
      "ule": 3915,
      "iste": 3916,
      "Ġë§": 3917,
      "Õ¸ÖĤÕ©ÕµÕ¡Õ¶": 3918,
      "à¦¾à¦²": 3919,
      "à¶¶": 3920,
      "Ġ2008": 3921,
      "Äģm": 3922,
      "ĠAir": 3923,
      "ÙĴ": 3924,
      "à¶¸à·Ĭ": 3925,
      "alog": 3926,
      "à²¨à³įà²¨à³ģ": 3927,
      "Ġ\":{\"": 3928,
      "áº¥t": 3929,
      "à·Ķà·Ģ": 3930,
      "Ġata": 3931,
      "Ġà´¤": 3932,
      "ĠmÃ¡": 3933,
      "ĠnjÃ«": 3934,
      "Ġhab": 3935,
      "à³Ĩà²¯": 3936,
      "ions": 3937,
      "ĠsiÄĻ": 3938,
      "Ġnas": 3939,
      "ìĦľ": 3940,
      "à¸²à¸¢": 3941,
      "Ġacc": 3942,
      "Ġà²ĩ": 3943,
      "Ã«t": 3944,
      "ĠÑĤÐ°": 3945,
      "ãĤ¯": 3946,
      "Ġaw": 3947,
      "ÐµÐ½Ð¸": 3948,
      "uli": 3949,
      "ÏģÏĮ": 3950,
      "Ð¾Ð¸": 3951,
      "Ġlet": 3952,
      "Ġ99": 3953,
      "ĠÐ¿ÑĢÐµÐ´": 3954,
      "Ġcor": 3955,
      "Ø±Ø¨": 3956,
      "van": 3957,
      "à¤¿à¤¤": 3958,
      "Ġprobl": 3959,
      "Ġcheck": 3960,
      "Æ°á»Ŀ": 3961,
      "ovan": 3962,
      "æ²": 3963,
      "Ġmon": 3964,
      "ĠâĢĿ.": 3965,
      "à¯Ĭ": 3966,
      "ĠÙħØŃ": 3967,
      "ĠRes": 3968,
      "Ġä»": 3969,
      "à±Ĭ": 3970,
      "yle": 3971,
      "nÄĽ": 3972,
      "irm": 3973,
      "ĠÙħÙĪ": 3974,
      "aca": 3975,
      "raz": 3976,
      "ĠÐ¹": 3977,
      "à¤Ł": 3978,
      "ĠÐ¿Ð¾Ð»": 3979,
      "ĠAt": 3980,
      "Ð¾ÑĢÐ¼": 3981,
      "dy": 3982,
      "ations": 3983,
      "Ġ3D": 3984,
      "ĠÐ§": 3985,
      "Ġ×Ķ×Ĳ": 3986,
      "Ø§ÙĤ": 3987,
      "Ġtit": 3988,
      "áŀ¶áŀļáŀ": 3989,
      "hat": 3990,
      "amo": 3991,
      "ĠAut": 3992,
      "Ó©Ð»": 3993,
      "á»±": 3994,
      "85": 3995,
      "ĴĮ": 3996,
      "Ġkaj": 3997,
      "Ã¼k": 3998,
      "Ġà¨ľ": 3999,
      "rib": 4000,
      "ä½ĵ": 4001,
      "æ´": 4002,
      "ĠiÅ¡": 4003,
      "Ġinv": 4004,
      "à¯Īà®¯": 4005,
      "ingen": 4006,
      "ÒĵÐ°Ð½": 4007,
      "èµ°": 4008,
      "Ó©Ð½": 4009,
      "Ġpad": 4010,
      "ĠWe": 4011,
      "Ð½Ð¾Ð³Ð¾": 4012,
      "esk": 4013,
      "ĠDo": 4014,
      "æīĭæľº": 4015,
      "Ġlink": 4016,
      "à¸£à¸±": 4017,
      "----": 4018,
      "Ġtro": 4019,
      "à©±à¨": 4020,
      "ĠHotel": 4021,
      "ĠFl": 4022,
      "¨áĥĺ": 4023,
      "ĠSu": 4024,
      "Ø§ØŃ": 4025,
      "46": 4026,
      "ĠÑĤÐ¾": 4027,
      "è¡Į": 4028,
      "ence": 4029,
      "ĠHer": 4030,
      "ë¶": 4031,
      "Ġeste": 4032,
      "ram": 4033,
      "Ġmaj": 4034,
      "Ġhave": 4035,
      "Ġdalam": 4036,
      "ĠPa": 4037,
      "ãĥ©": 4038,
      "Ġï¿½ï¿½ï¿½ï¿½ï¿½ï¿½ï¿½": 4039,
      "éĿ": 4040,
      "ĠKom": 4041,
      "ĠØ±ÙĪ": 4042,
      "Ġ×ĺ": 4043,
      "Ġmel": 4044,
      "ÐºÑĤ": 4045,
      "ëıĦ": 4046,
      "ÉĻs": 4047,
      "inta": 4048,
      "´ì§Ģ": 4049,
      "Ġ~": 4050,
      "Ġoo": 4051,
      "çĶŁ": 4052,
      "×ķ×§": 4053,
      "ĠÃ¨": 4054,
      "Ġels": 4055,
      "àª¹": 4056,
      "à®¯": 4057,
      "Ġà¨¤": 4058,
      "áĢĦáĢ¹áĢ¸áĢ": 4059,
      "esh": 4060,
      "Ġfac": 4061,
      "ĠcÃ³": 4062,
      "istr": 4063,
      "ĠEd": 4064,
      "Ġìĭ": 4065,
      "ĠÂ²": 4066,
      "itar": 4067,
      "×¨×Ĳ": 4068,
      "ĠØ§Ùħ": 4069,
      "Ġben": 4070,
      "Õ¡Õ£": 4071,
      "ĠÎ²": 4072,
      "ĠAll": 4073,
      "zer": 4074,
      "ÏĥÎµÎ¹": 4075,
      "Ġgal": 4076,
      "ĠHa": 4077,
      "oss": 4078,
      "à¨®": 4079,
      "åĩº": 4080,
      "áĥĺáĥľ": 4081,
      "ĠÐºÐ¾Ð½": 4082,
      "ÏĦÎ®": 4083,
      "Ġresp": 4084,
      "Ġdari": 4085,
      "Ġ43": 4086,
      "hl": 4087,
      "ĠÐ¿ÑĢÐ¾": 4088,
      "ĠDa": 4089,
      "áº¹": 4090,
      "ÎµÎ½": 4091,
      "áĥĹ": 4092,
      "åĬ¿": 4093,
      "Ġcre": 4094,
      "Ä¯": 4095,
      "Ġà°Ĩ": 4096,
      "à®¾à®°": 4097,
      "àª£": 4098,
      "àºŃ": 4099,
      "yy": 4100,
      "Ã¶v": 4101,
      "Ð»Ð°": 4102,
      "Ġåĩ": 4103,
      "ĠáĬ¥": 4104,
      "à¹Īà¸ĩ": 4105,
      "ants": 4106,
      "ijas": 4107,
      "áĪµ": 4108,
      "åįķ": 4109,
      "ĠTer": 4110,
      "å¼Ģ": 4111,
      "ĠSex": 4112,
      "Ġçİ": 4113,
      "Ùĳ": 4114,
      "Ġcm": 4115,
      "Ġegy": 4116,
      "à¤¾à¤¤": 4117,
      "Ġåħ": 4118,
      "ĠviÃ°": 4119,
      "iten": 4120,
      "ical": 4121,
      "ĠØªÙĪ": 4122,
      "ĠAM": 4123,
      "Î±ÏĤ": 4124,
      "Ð»Ðµ": 4125,
      "ĠJan": 4126,
      "Ġæľ": 4127,
      "oti": 4128,
      "Ġbal": 4129,
      "àµįà´±": 4130,
      "76": 4131,
      "vat": 4132,
      "Ġà¨ħ": 4133,
      "Ġproduc": 4134,
      "ĠdÃ©": 4135,
      "Ø§Ø¬": 4136,
      "over": 4137,
      "Ġà´İ": 4138,
      "Ġfont": 4139,
      "×ķ×¢": 4140,
      "ìĺ": 4141,
      "Ġ54": 4142,
      "áŀļ": 4143,
      "enc": 4144,
      "Ø±Ø¯": 4145,
      "Ġlu": 4146,
      "Ùĭ": 4147,
      "leg": 4148,
      "Ġserv": 4149,
      "Ġà¤®à¥ĩà¤Ĥ": 4150,
      "oje": 4151,
      "à¯ģà®¤": 4152,
      "idade": 4153,
      "Ġvil": 4154,
      "ĠÐ¾Ñģ": 4155,
      "Ġ\":[": 4156,
      "tre": 4157,
      "Ġht": 4158,
      "à·ħ": 4159,
      "Ġinc": 4160,
      "Î¼Î¿": 4161,
      "Ã¡z": 4162,
      "ukan": 4163,
      "Ġdh": 4164,
      "Ġeller": 4165,
      "Ġê³": 4166,
      "Ġbest": 4167,
      "ĠIm": 4168,
      "aciÃ³": 4169,
      "Ġdir": 4170,
      "ĠJa": 4171,
      "à¤¨à¥įà¤": 4172,
      "ĠÑģÐ°Ð¼": 4173,
      "Ġnap": 4174,
      "CC": 4175,
      "Ġcare": 4176,
      "Ġuit": 4177,
      "å®ĺæĸ¹ç½ĳç«Ļ": 4178,
      "Ġsus": 4179,
      "à¦¼": 4180,
      "Ġpred": 4181,
      "Ġ75": 4182,
      "ÑĭÑı": 4183,
      "eter": 4184,
      "ĠáĥĶ": 4185,
      "íĶ": 4186,
      "RE": 4187,
      "íĻĶ": 4188,
      "Ġ',": 4189,
      "Ã©k": 4190,
      "áĥłáĥ": 4191,
      "alm": 4192,
      "ĠSk": 4193,
      "Õ¡Õ¬": 4194,
      "uko": 4195,
      "ublic": 4196,
      "Ġname": 4197,
      "Ġbez": 4198,
      "Ġ2007": 4199,
      "Ã»": 4200,
      "Ġì¹": 4201,
      "Ġfo": 4202,
      "Ġett": 4203,
      "ÑĭÑĪ": 4204,
      "ĠÅ¾e": 4205,
      "Ġhy": 4206,
      "ØªÛĮ": 4207,
      "ilo": 4208,
      "ÑĤÐµ": 4209,
      "ĠBa": 4210,
      "ìĤ°": 4211,
      "dÉĻ": 4212,
      "à¤²à¥ĩ": 4213,
      "à´Ļàµįà´": 4214,
      "ĠÐ³ÑĢ": 4215,
      "à¸Ķà¹ī": 4216,
      "Ġpak": 4217,
      "Ð¾Ð»ÑĮ": 4218,
      "ÃŁ": 4219,
      "ÑĭÐ¹": 4220,
      "cu": 4221,
      "ĠÕ½": 4222,
      "ĠÏĥÎµ": 4223,
      "Ġsist": 4224,
      "Ġdig": 4225,
      "ST": 4226,
      "ĠMas": 4227,
      "ÑģÑĤÐ°Ð½": 4228,
      "Ġ58": 4229,
      "âĢľ": 4230,
      "Ġnaj": 4231,
      "ĠÐ³Ð¾Ð´": 4232,
      "Ġcontent": 4233,
      "Ġnak": 4234,
      "Ġáŀĸ": 4235,
      "ĠÐ¯": 4236,
      "Ġcel": 4237,
      "å®¶": 4238,
      "IM": 4239,
      "ĠØ§ÙĪ": 4240,
      "àµĤ": 4241,
      "kom": 4242,
      "ÑĸÑĤ": 4243,
      "Ðľ": 4244,
      "Ġsav": 4245,
      "à¤¡": 4246,
      "aro": 4247,
      "Ġprim": 4248,
      "Ġï": 4249,
      "à¨¾à¨°": 4250,
      "Ġot": 4251,
      "Ġjpg": 4252,
      "åĴĮ": 4253,
      "pen": 4254,
      "ĠIs": 4255,
      "áĥĲáĥª": 4256,
      "ĠMon": 4257,
      "ĠFr": 4258,
      "fe": 4259,
      "áĥĶáĥ¡": 4260,
      "à²Ł": 4261,
      "Ġmot": 4262,
      "Ġraz": 4263,
      "ĠÑī": 4264,
      "ÄŁÄ±": 4265,
      "ych": 4266,
      "ĠMin": 4267,
      "Ġ500": 4268,
      "kon": 4269,
      "ĠÎŁ": 4270,
      "ÙĬÙħ": 4271,
      "emi": 4272,
      "Ġvel": 4273,
      "Ġkab": 4274,
      "à³įà²ķ": 4275,
      "ĠÐ°Ð²": 4276,
      "à²£": 4277,
      "ÑĨÑĸ": 4278,
      "à®Łà¯įà®Ł": 4279,
      "ÏģÎ³": 4280,
      "ĠSl": 4281,
      "å¤©": 4282,
      "Æ°á»£": 4283,
      "Ä±nÄ±": 4284,
      "ĠÏĥÏĦÎ·": 4285,
      "åľ°": 4286,
      "ĠKa": 4287,
      "à¤¿à¤¨": 4288,
      "áŀī": 4289,
      "ĠReg": 4290,
      "èĩ": 4291,
      "Ġide": 4292,
      "ags": 4293,
      "Ġà¦ªà§įà¦°": 4294,
      "osa": 4295,
      "arch": 4296,
      "ĠDE": 4297,
      "unk": 4298,
      "ĠÑĪÑĤÐ¾": 4299,
      "à¸·à¸Ń": 4300,
      "ĠÛģÙĪ": 4301,
      "à°¿à°Ĥà°ļ": 4302,
      "AH": 4303,
      "Ġcolor": 4304,
      "ÙĦÙħ": 4305,
      "lin": 4306,
      "Ĺà¸µà¹Ī": 4307,
      "ĠNov": 4308,
      "Ġ.)": 4309,
      "Ġinn": 4310,
      "Ġseb": 4311,
      "ĠEst": 4312,
      "Ġlah": 4313,
      "à°Ĺ": 4314,
      "ĠëĤ": 4315,
      "ĠØ§ÛĮÙĨ": 4316,
      "Ġnull": 4317,
      "à¯ģà®ķà¯įà®ķ": 4318,
      "ikk": 4319,
      "áĥĶáĥł": 4320,
      "load": 4321,
      "à±ģà°Ĥà°": 4322,
      "Ġhv": 4323,
      "Ġved": 4324,
      "else": 4325,
      "ĠlÃ¤": 4326,
      "Ġgu": 4327,
      "Ġlib": 4328,
      "ĠAc": 4329,
      "Î¼ÎŃ": 4330,
      "Ġáīł": 4331,
      "áº¡i": 4332,
      "oks": 4333,
      "Õ¶Õ¥ÖĢÕ«": 4334,
      "Ð°Ð»Ð¸": 4335,
      "ë³": 4336,
      "Ġà²İ": 4337,
      "ÎĳÎ": 4338,
      "umu": 4339,
      "àºµ": 4340,
      "Ġgre": 4341,
      "Ġdon": 4342,
      "ales": 4343,
      "æ±": 4344,
      "htÃ«": 4345,
      "itz": 4346,
      "ÙĢ": 4347,
      "...": 4348,
      "Ġann": 4349,
      "Ġdiv": 4350,
      "ÑĨÐ°": 4351,
      "Ä±l": 4352,
      "ë¥¼": 4353,
      "erg": 4354,
      "Ġwidth": 4355,
      "Ã©ny": 4356,
      "Ġtim": 4357,
      "Ġsit": 4358,
      "ĠEs": 4359,
      "Ġru": 4360,
      "ĠÐ±ÐµÑĢ": 4361,
      "Ġtab": 4362,
      "Ġvideo": 4363,
      "Õ¡Õ°": 4364,
      "Ġàªı": 4365,
      "ëħ¸": 4366,
      "ÑĥÐ·": 4367,
      "Ġtik": 4368,
      "ÑģÑĮ": 4369,
      "oda": 4370,
      "iem": 4371,
      "ĠáĬł": 4372,
      "amente": 4373,
      "ëł": 4374,
      "ĠÏĨ": 4375,
      "fault": 4376,
      "à¦¿à¦¨": 4377,
      "Ø§Ø±ÛĮ": 4378,
      "ago": 4379,
      "ÑĢÐ°": 4380,
      "48": 4381,
      "ÏģÎµ": 4382,
      "Ġ47": 4383,
      "ĠÏħ": 4384,
      "ãģĵ": 4385,
      "à±ģà°¨": 4386,
      "unn": 4387,
      "Ġprogram": 4388,
      "ept": 4389,
      "Ġyo": 4390,
      "Ġà¦°": 4391,
      "ĠÕ¾": 4392,
      "yb": 4393,
      "ului": 4394,
      "Ġà°ªà±įà°°": 4395,
      "Ġwill": 4396,
      "Ġze": 4397,
      "Ġbut": 4398,
      "ÑĭÑĤ": 4399,
      "rt": 4400,
      "kur": 4401,
      "Ġneg": 4402,
      "Ã¡g": 4403,
      "ciÃ³": 4404,
      "åī": 4405,
      "jem": 4406,
      "Ġà¤ķà¥ĭ": 4407,
      "àªª": 4408,
      "Ġà²°": 4409,
      "Ġtul": 4410,
      "×ķ×¤": 4411,
      "Ġpan": 4412,
      "Ò¯Ð¹": 4413,
      "Ð¸Ð¾Ð½": 4414,
      "Ġmax": 4415,
      "vÃŃ": 4416,
      "Ġparti": 4417,
      "áĢ¹áĢ¸áĢ": 4418,
      "ske": 4419,
      "rop": 4420,
      "ĠÑģÐ°": 4421,
      "ĠÑģÑĥ": 4422,
      "ĠMat": 4423,
      "èµ°åĬ¿": 4424,
      "Ġáŀļáŀ": 4425,
      "ron": 4426,
      "Ġhor": 4427,
      "uti": 4428,
      "ette": 4429,
      "Ġhogy": 4430,
      "Ġ&#": 4431,
      "æĭ": 4432,
      "à¦¾à¦®": 4433,
      "ÐµÑħ": 4434,
      "ëĿ¼": 4435,
      "Ġà¹ģà¸": 4436,
      "æ¬": 4437,
      "Ġalle": 4438,
      "ĠPor": 4439,
      "à©°à¨": 4440,
      "ħáĢ¹áĢ": 4441,
      "ĠØ±Ø§": 4442,
      "à¬": 4443,
      "á»Ľi": 4444,
      "½©ç¥¨": 4445,
      "ĠÏĢÎ±": 4446,
      "ãģį": 4447,
      "ĠØ§ÙĦØ³": 4448,
      "Ġrev": 4449,
      "Ġtemp": 4450,
      "ĠÄĮ": 4451,
      "imin": 4452,
      "ĠÄĲ": 4453,
      "ÏĦÏĮ": 4454,
      "adh": 4455,
      "ĠÙĨÛĴ": 4456,
      "Î¿Î»": 4457,
      "Äįn": 4458,
      "Ġtidak": 4459,
      "à¶©": 4460,
      "OT": 4461,
      "Ġtext": 4462,
      "à¶Ńà·Ĵ": 4463,
      "Ã°ur": 4464,
      "Ã°a": 4465,
      "Ġesp": 4466,
      "ÙĪÛĮ": 4467,
      "Ġà¶½": 4468,
      "tar": 4469,
      "Ġ41": 4470,
      "bay": 4471,
      "à®¨à¯įà®¤": 4472,
      "áŀĤ": 4473,
      "uts": 4474,
      "à¦°à§įà¦": 4475,
      "Ã°i": 4476,
      "enda": 4477,
      "×ķ×Ĺ": 4478,
      "lj": 4479,
      "Ġà¦¶": 4480,
      "ĠÐºÐ°Ðº": 4481,
      "áŁī": 4482,
      "Î¿Î½": 4483,
      "Ġlev": 4484,
      "Å¾i": 4485,
      "áĢĲáĢ": 4486,
      "Õ£": 4487,
      "Ð³Ð¾": 4488,
      "ª¨": 4489,
      "Ġpel": 4490,
      "Ġhad": 4491,
      "ä½ľ": 4492,
      "osi": 4493,
      "×ķ×¡": 4494,
      "93": 4495,
      "Ġï¼ī": 4496,
      "ĠvÃ¤": 4497,
      "ownload": 4498,
      "ĠÐ´Ð°ÑĢ": 4499,
      "åıĮ": 4500,
      "ÏīÏĤ": 4501,
      "Äģd": 4502,
      "Ġà°¦": 4503,
      "ĠvÃ½": 4504,
      "Ð°Ð´Ñĭ": 4505,
      "mun": 4506,
      "imit": 4507,
      "Ð½ÑĭÑħ": 4508,
      "uu": 4509,
      "Õ¥Õ½": 4510,
      "uda": 4511,
      "Ġà¤¶": 4512,
      "à´¿à´²àµįâĢį": 4513,
      "ÑĶ": 4514,
      "åĲĪ": 4515,
      "à¸µà¸¢": 4516,
      "Ġste": 4517,
      "Ġdia": 4518,
      "à·Ŀ": 4519,
      "Î¬Î½": 4520,
      "jek": 4521,
      "çīĪ": 4522,
      "Ġhtml": 4523,
      "yst": 4524,
      "ĠHar": 4525,
      "Äĵj": 4526,
      "à¦Ĺ": 4527,
      "mes": 4528,
      "ä¾": 4529,
      "ating": 4530,
      "Ġaqu": 4531,
      "Ö¼": 4532,
      "zn": 4533,
      "ĠÕ¸ÖĤ": 4534,
      "reg": 4535,
      "illa": 4536,
      "Õ¬": 4537,
      "Ġàªķàª°": 4538,
      "Ġprz": 4539,
      "Ġorg": 4540,
      "à·ĥà·Ĭ": 4541,
      "ahan": 4542,
      "Ġâĺ": 4543,
      "ĠPM": 4544,
      "ÏĥÎµ": 4545,
      "áĥĶáĥĳáĥĺáĥ¡": 4546,
      "à²ª": 4547,
      "Ñķ": 4548,
      "Ġà¤ļ": 4549,
      "ĠIl": 4550,
      "Ġitu": 4551,
      "Ġ65": 4552,
      "izi": 4553,
      "Ġcho": 4554,
      "Î¯Î½Î±Î¹": 4555,
      "Ġpart": 4556,
      "ĠÈĻ": 4557,
      "Ġoff": 4558,
      "Ġmm": 4559,
      "ĠAk": 4560,
      "ãĥª": 4561,
      "ador": 4562,
      "´ì§Ģëħ¸": 4563,
      "inÄģ": 4564,
      "Ġpou": 4565,
      "Ġhot": 4566,
      "å½©ç¥¨": 4567,
      "à´¾à´£": 4568,
      "Ø§ÙĨÛĮ": 4569,
      "elij": 4570,
      "ĠÃī": 4571,
      "é¡": 4572,
      "×Ļ×Ĳ": 4573,
      "Ġune": 4574,
      "Ġproc": 4575,
      "86": 4576,
      "à®Ļ": 4577,
      "Ġ53": 4578,
      "Ġroz": 4579,
      "à¹Ģà¸Ľ": 4580,
      "ÙħÙĦ": 4581,
      "à±ģà°ķ": 4582,
      "Ġáŀħ": 4583,
      "à²¿à²°": 4584,
      "bb": 4585,
      "ä¸ī": 4586,
      "anya": 4587,
      "à¤ķà¤¾": 4588,
      "è¾": 4589,
      "Ġjed": 4590,
      "indi": 4591,
      "ebook": 4592,
      "anto": 4593,
      "äºī": 4594,
      "àª¸": 4595,
      "ŀáĢĬ": 4596,
      "Ġtai": 4597,
      "ĠÐ°Ð¹": 4598,
      "Ġzd": 4599,
      "ÑĭÐ½Ð°": 4600,
      "Ø¯Ùĩ": 4601,
      "ogo": 4602,
      "Õ¢": 4603,
      "AB": 4604,
      "ĠÐ´Ð»Ñı": 4605,
      "ĠÚ©Ùĩ": 4606,
      "rod": 4607,
      "ìĽĲ": 4608,
      "ĠMal": 4609,
      "èµ°åĬ¿åĽ¾": 4610,
      "×ķ×©": 4611,
      "Ġproduk": 4612,
      "à´¾à´¨": 4613,
      "ski": 4614,
      "ĠðŁ": 4615,
      "ĠIN": 4616,
      "Ġà¤Ľ": 4617,
      "à·ıà·Ģ": 4618,
      "Å±": 4619,
      "Ġáĥŀ": 4620,
      "Ġcs": 4621,
      "áĪĪ": 4622,
      "ulo": 4623,
      "Id": 4624,
      "Ġ\"]": 4625,
      "à®¾à®©": 4626,
      "ÙĨÛĴ": 4627,
      "Ġtut": 4628,
      "à°°à±įà°": 4629,
      "à¤§": 4630,
      "×Ļ×¢": 4631,
      "ally": 4632,
      "á»¯": 4633,
      "ÐµÐ½Ð°": 4634,
      "ĠHo": 4635,
      "áŀ¢": 4636,
      "Ã¤m": 4637,
      "Ġjs": 4638,
      "æĥ": 4639,
      "à´¾à´°": 4640,
      "Ġinte": 4641,
      "Î»Î·": 4642,
      "ital": 4643,
      "Ġnum": 4644,
      "®áĢ¸áĢ": 4645,
      "ÐĴ": 4646,
      "ÑĥÑĥÐ»": 4647,
      "fo": 4648,
      "à´¨àµįà´": 4649,
      "ĠÑıÐº": 4650,
      "ĠÑĥÑĩ": 4651,
      "ĠÑİ": 4652,
      "Ġ52": 4653,
      "ĠØº": 4654,
      "áŀ¶áŀļ": 4655,
      "Ġà¤ı": 4656,
      "à©į": 4657,
      "Ġmah": 4658,
      "Ġíķ": 4659,
      "omo": 4660,
      "Ġ\\/": 4661,
      "ational": 4662,
      "APP": 4663,
      "ĠÎ»": 4664,
      "Ġblog": 4665,
      "á»©": 4666,
      "Ú¾ÛĮ": 4667,
      "à´¿à´¨": 4668,
      "ÑĭÐ³": 4669,
      "ãģ£ãģ¦": 4670,
      "¯à¦¼": 4671,
      "Ġcer": 4672,
      "Ġalt": 4673,
      "ÃĲ": 4674,
      "Ġant": 4675,
      "Ġvid": 4676,
      "UL": 4677,
      "Ġpap": 4678,
      "Ġend": 4679,
      "ĠTE": 4680,
      "ĠJe": 4681,
      "ĠAp": 4682,
      "à¨¼": 4683,
      "Ã¡k": 4684,
      "Ġlag": 4685,
      "Ġ59": 4686,
      "Ġconc": 4687,
      "æĪı": 4688,
      "ÛĮØ³": 4689,
      "vers": 4690,
      "IK": 4691,
      "ãĤ¢": 4692,
      "à²¿à²¨": 4693,
      "enta": 4694,
      "áĥĺáĥļ": 4695,
      "Ġåı": 4696,
      "ĠMo": 4697,
      "ĠÕ¸ÖĢ": 4698,
      "ĠÖĩ": 4699,
      "åŁ": 4700,
      "Ð¸ÑĤÑĮ": 4701,
      "ils": 4702,
      "row": 4703,
      "fl": 4704,
      "ics": 4705,
      "ĠiÃ§": 4706,
      "ĠAS": 4707,
      "Ã¤Ã¤n": 4708,
      "Ġà¤ķà¥Ģ": 4709,
      "ĠÐ²ÑĢ": 4710,
      "osta": 4711,
      "omen": 4712,
      "jer": 4713,
      "ĠuÅ¾": 4714,
      "ìĬ¤": 4715,
      "Ġbas": 4716,
      "à²¿à²¦à³įà²¦": 4717,
      "jes": 4718,
      "Ġcá»§": 4719,
      "Ġà¦¯": 4720,
      "Ġpentru": 4721,
      "Ġdob": 4722,
      "ĠKar": 4723,
      "Õ¸Õ¶": 4724,
      "Ã¶g": 4725,
      "ĠÎ±Î½": 4726,
      "å¹³åı°": 4727,
      "à¥ĭà¤Ĥ": 4728,
      "ĠÙ¾Ùĩ": 4729,
      "ÑĥÐ¶": 4730,
      "Ġ....": 4731,
      "ãģł": 4732,
      "ĠÓĻ": 4733,
      "Ð»ÐµÐ´": 4734,
      "ìĿ´íĬ¸": 4735,
      "Î»Îµ": 4736,
      "ones": 4737,
      "ë²": 4738,
      "nu": 4739,
      "Ġkel": 4740,
      "ĠÐºÐ¾Ñĺ": 4741,
      "fin": 4742,
      "ĠDr": 4743,
      "æ³¨": 4744,
      "æĻ": 4745,
      "ãĢĤ": 4746,
      "à¸¶": 4747,
      "Ġbed": 4748,
      "Ġnan": 4749,
      "Ġkes": 4750,
      "à´¿à´°": 4751,
      "ÅĦ": 4752,
      "ØªÙĩ": 4753,
      "Ø±Ùħ": 4754,
      "é¢": 4755,
      "áĢĦáĢºáĢ": 4756,
      "iter": 4757,
      "Ð¡Ð": 4758,
      "eve": 4759,
      "Å¡ÃŃ": 4760,
      "ãģĤ": 4761,
      "IR": 4762,
      "àµįà´²": 4763,
      "cel": 4764,
      "Ġcá»§a": 4765,
      "Ġbek": 4766,
      "à²¿à²¤": 4767,
      "áĢ±áĢ": 4768,
      "Å«s": 4769,
      "iau": 4770,
      "play": 4771,
      "Ġbeg": 4772,
      "¥à¸°": 4773,
      "ÑĥÑħ": 4774,
      "Ġnat": 4775,
      "à¯įà®ļ": 4776,
      "à²¿à²Ĥ": 4777,
      "ìĥµ": 4778,
      "79": 4779,
      "ĠÂ¾": 4780,
      "Ġfyr": 4781,
      "Ð°Ð´Ð¸": 4782,
      "Ġeur": 4783,
      "lich": 4784,
      "Ġelement": 4785,
      "ĠTa": 4786,
      "æľĪ": 4787,
      "à¤¿à¤²": 4788,
      "ajo": 4789,
      "Ġnep": 4790,
      "à¦¾à§Ł": 4791,
      "à¥įà¤Ł": 4792,
      "ê±¸": 4793,
      "Ġdefault": 4794,
      "iks": 4795,
      "Ġà¸Ħ": 4796,
      "ĠÑĤÑĥÑĢ": 4797,
      "à¦¹": 4798,
      "Ġà°ĩ": 4799,
      "Ġà°²": 4800,
      "hen": 4801,
      "à·Ļà¶±": 4802,
      "endo": 4803,
      "inter": 4804,
      "Ġred": 4805,
      "ble": 4806,
      "ĠCas": 4807,
      "ĠØ§ÙĦÙĦ": 4808,
      "åĿĢ": 4809,
      "ĠAg": 4810,
      "Ġà°ī": 4811,
      "Ġdoc": 4812,
      "ĠRep": 4813,
      "usta": 4814,
      "ÅĪ": 4815,
      "Ġtam": 4816,
      "Ġsab": 4817,
      "à¦¿à¦¤": 4818,
      "ĠÃĸ": 4819,
      "åįķåıĮ": 4820,
      "Ð°Ð²Ð°": 4821,
      "ÎºÎµ": 4822,
      "ĠÎµÎ¯Î½Î±Î¹": 4823,
      "à¸ĸ": 4824,
      "ĨĮ": 4825,
      "á»ĩn": 4826,
      "Ġbuh": 4827,
      "Ð¾Ñŀ": 4828,
      "obil": 4829,
      "ĠmÃ«": 4830,
      "æĮ": 4831,
      "åĵģ": 4832,
      "æĿ¥": 4833,
      "æĦ": 4834,
      "æ¸¸æĪı": 4835,
      "aku": 4836,
      "à¤¾à¤Ĥ": 4837,
      "eto": 4838,
      "ĠGu": 4839,
      "ĠÉĻ": 4840,
      "ä¸ĩ": 4841,
      "lam": 4842,
      "ĠVal": 4843,
      "ĠRo": 4844,
      "Ð°Ð´Ð°": 4845,
      "à¶ºà·Ĵ": 4846,
      "urg": 4847,
      "ems": 4848,
      "ĠtÉĻ": 4849,
      "XX": 4850,
      "Ġbul": 4851,
      "à²¹": 4852,
      "Å¡i": 4853,
      "kat": 4854,
      "ĠGe": 4855,
      "ÑĤÑĢ": 4856,
      "Ġgy": 4857,
      "ÑģÑĤÑĢ": 4858,
      "ĠMag": 4859,
      "ÑĬÑĢ": 4860,
      "oro": 4861,
      "ĠMay": 4862,
      "Ø±Ùģ": 4863,
      "Ġjeg": 4864,
      "éĺ": 4865,
      "áŀ¶áŀĶ": 4866,
      "Î®ÏĤ": 4867,
      "áŀ¹": 4868,
      "àº»": 4869,
      "Ġ,.": 4870,
      "à®ªà¯įà®ª": 4871,
      "tid": 4872,
      "mat": 4873,
      "Ġesta": 4874,
      "ãģķ": 4875,
      "tica": 4876,
      "ĠÏĦÏīÎ½": 4877,
      "ĠKo": 4878,
      "ãĥ³ãĤ": 4879,
      "Ûķ": 4880,
      "trol": 4881,
      "Ġkul": 4882,
      "Ġhat": 4883,
      "Ġï¼Ī": 4884,
      "Ġaus": 4885,
      "Ġ51": 4886,
      "Ġpass": 4887,
      "Ġfer": 4888,
      "Ġà¤ķà¤°": 4889,
      "Ġprop": 4890,
      "ë§Į": 4891,
      "à¹ĥà¸«": 4892,
      "ÂŃ": 4893,
      "Ġentre": 4894,
      "áŀģ": 4895,
      "ulle": 4896,
      "eza": 4897,
      "àª®àª¾àªĤ": 4898,
      "áĢĢáĢºáĢ": 4899,
      "à·ĬâĢįà¶»": 4900,
      "Ġtas": 4901,
      "Ġ.âĢĿ": 4902,
      "á»įn": 4903,
      "ĠÐ±Ð¸Ð»": 4904,
      "ster": 4905,
      "à©Ģà¨": 4906,
      "ĠOnline": 4907,
      "ĠÐ¿Ð¾Ñģ": 4908,
      "Ġpra": 4909,
      "ĠSan": 4910,
      "Úĵ": 4911,
      "Ġbre": 4912,
      "ĠMen": 4913,
      "ãģ§ãģĻ": 4914,
      "yg": 4915,
      "amos": 4916,
      "Ġzijn": 4917,
      "Ġreturn": 4918,
      "inde": 4919,
      "Õ¡Õ¶Õ«": 4920,
      "ono": 4921,
      "200": 4922,
      "Å¡t": 4923,
      "ties": 4924,
      "Ġkont": 4925,
      "è¦ģ": 4926,
      "ĠÐ±Ð°": 4927,
      "Ġà¨¬": 4928,
      "áŁĴáŀŁ": 4929,
      "ĠÐ°Ð½": 4930,
      "Ġà¶º": 4931,
      "oth": 4932,
      "idi": 4933,
      "å®ī": 4934,
      "Äĵt": 4935,
      "Ġ×Ľ×¨": 4936,
      "à¸²à¸Ļ": 4937,
      "Ä«t": 4938,
      "åħ¬": 4939,
      "ilm": 4940,
      "ĠCol": 4941,
      "Ġëĭ": 4942,
      "usk": 4943,
      "Ġmais": 4944,
      "×Ļ×¡": 4945,
      "åŃĲ": 4946,
      "ques": 4947,
      "à®°à¯į": 4948,
      "lex": 4949,
      "ÒĵÐ°": 4950,
      "ĠÈĻi": 4951,
      "çĲĨ": 4952,
      "nih": 4953,
      "à®ļ": 4954,
      "à³ģà²¤à³įà²¤": 4955,
      "à®¾à®ķ": 4956,
      "ÃŃc": 4957,
      "Ġáĥ¬": 4958,
      "ĠÐĲÐ»": 4959,
      "Ġå°": 4960,
      "ÑĸÒ£": 4961,
      "osh": 4962,
      "Ġ×ĳ×Ĳ": 4963,
      "å¸Ĥ": 4964,
      "áĭŃ": 4965,
      "ãģĹãģ¦": 4966,
      "Ã©sz": 4967,
      "jt": 4968,
      "Ġchi": 4969,
      "áĥĶáĥĳáĥĲ": 4970,
      "àµģà´Ł": 4971,
      "ĠÐ¿Ð¾Ð²": 4972,
      "ĠÕ¥Õ¶": 4973,
      "ĠÐ¾Ð½": 4974,
      "Ġhist": 4975,
      "Ġpolit": 4976,
      "à¦¾à¦ķ": 4977,
      "Ġfalse": 4978,
      "Ã§a": 4979,
      "«ĺ": 4980,
      "ĠØ¨Ø§ÙĦ": 4981,
      "Ġkir": 4982,
      "ĠfÃ¼r": 4983,
      "ĶáĢ¹áĢ": 4984,
      "ĠSer": 4985,
      "ĠÃĩ": 4986,
      "ÙĨÚ¯": 4987,
      "ĠAv": 4988,
      "ĠMod": 4989,
      "ĠHome": 4990,
      "éľ¸": 4991,
      "ĠáŀĽ": 4992,
      "ĠáĢĻáĢ": 4993,
      "àº§": 4994,
      "Ð°Ð½Ð½Ñı": 4995,
      "Ð°Ð½Ð¸": 4996,
      "Ġye": 4997,
      "ĠÃ«": 4998,
      "Ġgel": 4999,
      "usa": 5000,
      "ener": 5001,
      "Ġà¦Ĺ": 5002,
      "ĠSi": 5003,
      "èĪ": 5004,
      "Ġà¸ª": 5005,
      "Ġts": 5006,
      "Ġakan": 5007,
      "uru": 5008,
      "ĠnÃ¤": 5009,
      "ä¸º": 5010,
      "à´Ļàµįà´Ļ": 5011,
      "ĠÃ³": 5012,
      "Ġ×ķ×©": 5013,
      "à¸±à¸ĩ": 5014,
      "à´¿à´ļàµįà´ļ": 5015,
      "çĻ»": 5016,
      "ĠâĢĭâĢĭ": 5017,
      "Ġ66": 5018,
      "ãģ¾ãģĻ": 5019,
      "mar": 5020,
      "ling": 5021,
      "Ġì¶ľìŀ¥ìķĪë§Ī": 5022,
      "Ġ95": 5023,
      "press": 5024,
      "à¯ģà®ķ": 5025,
      "dag": 5026,
      "32": 5027,
      "à¸ĵ": 5028,
      "à¶»à·Ĭ": 5029,
      "Ġvai": 5030,
      "ĠSc": 5031,
      "Õº": 5032,
      "Ã©p": 5033,
      "à¯Ģ": 5034,
      "Ġheight": 5035,
      "à¤¾à¤¸": 5036,
      "¯åıĳ": 5037,
      "Ġãĥ»": 5038,
      "Ġstud": 5039,
      "èī": 5040,
      "Ġ57": 5041,
      "à§ģà¦": 5042,
      "tive": 5043,
      "ĠÙħØ³": 5044,
      "Ġunder": 5045,
      "Ġáĥ£áĥ": 5046,
      "ä¸ª": 5047,
      "xx": 5048,
      "bat": 5049,
      "ĠáŀĤ": 5050,
      "ĠOp": 5051,
      "elef": 5052,
      "cip": 5053,
      "ades": 5054,
      "Ġjan": 5055,
      "àª¨àª¾": 5056,
      "ÑĥÐ³": 5057,
      "mb": 5058,
      "esto": 5059,
      "Î½Î·": 5060,
      "Ġà¨¦à©ĩ": 5061,
      "itet": 5062,
      "fic": 5063,
      "Ġges": 5064,
      "ëŀ": 5065,
      "Ġpada": 5066,
      "ĠmÃ¥": 5067,
      "Ã©ho": 5068,
      "ayo": 5069,
      "nÃ½": 5070,
      "Ġing": 5071,
      "à°¨à°¿": 5072,
      "ody": 5073,
      "Ġbij": 5074,
      "Ġ').": 5075,
      "ĠDen": 5076,
      "à°¨à±įà°¨": 5077,
      "Ġnev": 5078,
      "ĠÃŀ": 5079,
      "idh": 5080,
      "ĠÏĢÎµ": 5081,
      "ĠØ¹ÙĦÙī": 5082,
      "nej": 5083,
      "×ķ×ĺ×ķ×Ł": 5084,
      "à¦¿à§Ł": 5085,
      "ĠÕ¡Õ¶": 5086,
      "äºīéľ¸": 5087,
      "itat": 5088,
      "Ġà¨ĩ": 5089,
      "ĠÛģÛĮÚº": 5090,
      "ulu": 5091,
      "uch": 5092,
      "kr": 5093,
      "åħ¨": 5094,
      "Ø¥": 5095,
      "à²¾à²¨": 5096,
      "Ġfel": 5097,
      "Ø¯Ùħ": 5098,
      "nak": 5099,
      "Ġsing": 5100,
      "xa": 5101,
      "ef": 5102,
      "àª¾àª®": 5103,
      "Ã¡ch": 5104,
      "Ġà´ļ": 5105,
      "áĥĿáĥľ": 5106,
      "ÅŁÄ±": 5107,
      "Ġà°Ĺ": 5108,
      "áĥĶáĥĽ": 5109,
      "rov": 5110,
      "anie": 5111,
      "ĠÎ¸Î±": 5112,
      "Ð¼Ð°": 5113,
      "ĠAG": 5114,
      "çł": 5115,
      "Ġtah": 5116,
      "Ã¼m": 5117,
      "Ġlig": 5118,
      "áĬĵ": 5119,
      "Ġbef": 5120,
      "ÙĪØ¨": 5121,
      "·¸": 5122,
      "Ġåĩ¯åıĳ": 5123,
      "LE": 5124,
      "ĠkÃ¤": 5125,
      "áº¯": 5126,
      "iny": 5127,
      "Ġjak": 5128,
      "nis": 5129,
      "ĠÐ±ÐµÐ»": 5130,
      "ÐµÑĤÐµ": 5131,
      "Ġtip": 5132,
      "Ġ):": 5133,
      "Ã¡d": 5134,
      "à¹Ħà¸Ķà¹ī": 5135,
      "ĠáĮ": 5136,
      "à¦¾à¦¦": 5137,
      "ÑģÐºÐ°": 5138,
      "Ġà´ĩ": 5139,
      "ref": 5140,
      "àª¨à«Ģ": 5141,
      "Ġà¦ļ": 5142,
      "à°¾à°°à±ģ": 5143,
      "urt": 5144,
      "ÑĭÑħ": 5145,
      "Ð¾ÑĦ": 5146,
      "ÎĻÎ": 5147,
      "adas": 5148,
      "Ġdz": 5149,
      "aten": 5150,
      "Ġà¤ĩ": 5151,
      "Ġ×ŀ×©": 5152,
      "Ġdok": 5153,
      "ĠÃ·": 5154,
      "ä¸ļ": 5155,
      "ĠmeÃ°": 5156,
      "ÑĥÐ²Ð°": 5157,
      "Ġ//": 5158,
      "à«Ĥ": 5159,
      "andi": 5160,
      "ĠÎĻ": 5161,
      "plic": 5162,
      "Ġáŀı": 5163,
      "js": 5164,
      "à¨£": 5165,
      "à¤¾à¤Ī": 5166,
      "ĠÐ³Ñį": 5167,
      "íĺ": 5168,
      "à¨µ": 5169,
      "ading": 5170,
      "df": 5171,
      "ĠÕ¡Õµ": 5172,
      "Ð¾Ñı": 5173,
      "ÑĤÑĮ": 5174,
      "Î¿ÏħÏĤ": 5175,
      "vin": 5176,
      "Ġmore": 5177,
      "à§įà¦Ł": 5178,
      "ober": 5179,
      "eva": 5180,
      "Ġinde": 5181,
      "vet": 5182,
      "Ø³ØªØ§ÙĨ": 5183,
      "Ġsan": 5184,
      "Ġpeng": 5185,
      "Ġfir": 5186,
      "Ġao": 5187,
      "ÒĵÑĭ": 5188,
      "ÐĲÐĿ": 5189,
      "olt": 5190,
      "cs": 5191,
      "Ġ×¤×ķ×ĺ×ķ×Ł": 5192,
      "à¤¿à¤ı": 5193,
      "ÑĸÑģ": 5194,
      "Ġfar": 5195,
      "Ð¾ÑĢÑĤ": 5196,
      "entes": 5197,
      "asti": 5198,
      "à¹īà¸Ń": 5199,
      "ume": 5200,
      "ĠìĤ¬": 5201,
      "Ġbiz": 5202,
      "102": 5203,
      "api": 5204,
      "Õ¹": 5205,
      "Ľà§ĩ": 5206,
      "Ġå®": 5207,
      "Ġstart": 5208,
      "Ġplan": 5209,
      "Ð°Ð»Ñĸ": 5210,
      "Ġnad": 5211,
      "Ġkung": 5212,
      "war": 5213,
      "Ð¸ÑĤÐ¸": 5214,
      "enÃŃ": 5215,
      "Ġtag": 5216,
      "Ð²ÑĢ": 5217,
      "ĠÎ±Ïħ": 5218,
      "Ġtv": 5219,
      "ĠEurop": 5220,
      "tions": 5221,
      "éĻħ": 5222,
      "Ġà·Ģà·Ĵ": 5223,
      "íĸ": 5224,
      "Ġoli": 5225,
      "½ľ": 5226,
      "nolog": 5227,
      "etan": 5228,
      "oria": 5229,
      "Ġich": 5230,
      "ĠÅ¼": 5231,
      "ĠSup": 5232,
      "å¨": 5233,
      "à®¿à®±": 5234,
      "aire": 5235,
      "Õ¡Õ¼": 5236,
      "Ġà²ľ": 5237,
      "Ġà¨²": 5238,
      "à±įà°ª": 5239,
      "Ġà®ī": 5240,
      "à·ĵà¶¸": 5241,
      "ĠMer": 5242,
      "áº¿t": 5243,
      "Ġimport": 5244,
      "Ġà²¦": 5245,
      "ØªÙħ": 5246,
      "ible": 5247,
      "ION": 5248,
      "Ġ:\\": 5249,
      "Ġprin": 5250,
      "Ġcr": 5251,
      "ms": 5252,
      "ÅŃ": 5253,
      "opp": 5254,
      "áŀĺáŁĴáŀ": 5255,
      "ĠÙĩÙħ": 5256,
      "é£": 5257,
      "ÙĨÛĮ": 5258,
      "áĥĴ": 5259,
      "Õ¥ÖĢÕ¨": 5260,
      "ube": 5261,
      "indow": 5262,
      "æĪ·": 5263,
      "ĠÂ¬": 5264,
      "Ġvien": 5265,
      "Ġà²Ĺ": 5266,
      "Ġà¤ªà¤°": 5267,
      "ĠÙħÙĦ": 5268,
      "à¥įà¤µ": 5269,
      "97": 5270,
      "ĠÐ²Ñģ": 5271,
      "Ġpm": 5272,
      "áī½": 5273,
      "Ø¦ÛĴ": 5274,
      "Ð°Ð±Ð¾ÑĤ": 5275,
      "ĠÐ¡Ð": 5276,
      "áĥ§": 5277,
      "Äĵr": 5278,
      "inal": 5279,
      "ĠÐ±Ð¸ÑĢ": 5280,
      "çŃ": 5281,
      "áŁĥ": 5282,
      "®áĢ": 5283,
      "ĠFac": 5284,
      "Î»Î±": 5285,
      "anga": 5286,
      "Ġbak": 5287,
      "Ġêµ": 5288,
      "ä»¥": 5289,
      "Ġsize": 5290,
      "æľ¬": 5291,
      "etr": 5292,
      "TC": 5293,
      "ĠÐ²ÑĸÐ´": 5294,
      "Ġ300": 5295,
      "Ãķ": 5296,
      "ĠØ¬ÙĪ": 5297,
      "Ġbah": 5298,
      "shtÃ«": 5299,
      "Ġkut": 5300,
      "ĠÓ": 5301,
      "Ä±nÄ±n": 5302,
      "gt": 5303,
      "Ġbuhok": 5304,
      "Ð¾Ð¼Ñĥ": 5305,
      "ioni": 5306,
      "áĥĶáĥĳáĥĺ": 5307,
      "ower": 5308,
      "ĠÑģÐº": 5309,
      "áī°": 5310,
      "×©×¨": 5311,
      "Ġban": 5312,
      "Ð¾Ð³ÑĢ": 5313,
      "Ð°ÑĢÐ¸": 5314,
      "Ã¬nh": 5315,
      "rab": 5316,
      "Ġmor": 5317,
      "à»Ģàº": 5318,
      "Ġàª¦": 5319,
      "Ġauf": 5320,
      "Ø¹ÙĦ": 5321,
      "áŀ¶áŀĢáŁĭ": 5322,
      "yi": 5323,
      "Ġnorm": 5324,
      "à¶°": 5325,
      "Ġpom": 5326,
      "íĨ": 5327,
      "Ġapp": 5328,
      "áĥĺáĥĵ": 5329,
      "ments": 5330,
      "37": 5331,
      "à·Ĵà¶±à·Ĭ": 5332,
      "Õ¥Õ²": 5333,
      "Ġsor": 5334,
      "èĥ½": 5335,
      "rÃ¡": 5336,
      "ĠÐºÐ¾ÑĢ": 5337,
      "Ġàª²": 5338,
      "°áĢ": 5339,
      "Ġyap": 5340,
      "Ġri": 5341,
      "ugu": 5342,
      "àµģà´ķ": 5343,
      "à¯Ĥ": 5344,
      "Õ©": 5345,
      "à²¯": 5346,
      "Ġdans": 5347,
      "ĠÑģÐ¼": 5348,
      "ĠgÃ¶": 5349,
      "è¨": 5350,
      "¦à°¿": 5351,
      "urr": 5352,
      "adan": 5353,
      "à¶Ĥ": 5354,
      "ĠMed": 5355,
      "Ġ×Ľ×¨×Ļ×ķ×ª": 5356,
      "put": 5357,
      "ĠsÄĥ": 5358,
      "ĠBo": 5359,
      "ÐµÐ½Ð¸Ñı": 5360,
      "ë¬": 5361,
      "ãĥ¬": 5362,
      "Ġgar": 5363,
      "áĥĿáĥ¡": 5364,
      "Ġà°¬": 5365,
      "àºļ": 5366,
      "oven": 5367,
      "Ġåį": 5368,
      "ĠTur": 5369,
      "åĢ": 5370,
      "ëĮĢ": 5371,
      "iva": 5372,
      "ÓĻÐ½Ðµ": 5373,
      "ÑĥÑĥ": 5374,
      "ÐµÐ½Ð¸Ðµ": 5375,
      "ÉĻk": 5376,
      "ÂŃÂŃ": 5377,
      "essa": 5378,
      "å·¥": 5379,
      "íħ": 5380,
      "ÙĩØ±": 5381,
      "×ķ×¦": 5382,
      "ÎĹ": 5383,
      "nia": 5384,
      "èģ": 5385,
      "ijo": 5386,
      "ĠsÃº": 5387,
      "Ġpov": 5388,
      "Ó£": 5389,
      "alla": 5390,
      "81": 5391,
      "ojn": 5392,
      "ĠDec": 5393,
      "Ð¸ÑĦ": 5394,
      "Ø¹Ø¯": 5395,
      "Ġee": 5396,
      "ogle": 5397,
      "Å¾e": 5398,
      "ëĤ¨": 5399,
      "lay": 5400,
      "áŁĦáŁĩ": 5401,
      "Ġgan": 5402,
      "Ã³d": 5403,
      "Ġsobre": 5404,
      "à·Ģà·ı": 5405,
      "ype": 5406,
      "olu": 5407,
      "atie": 5408,
      "¶áĢ": 5409,
      "Ġà¤¸à¤®": 5410,
      "ĠvÃ¦": 5411,
      "á»ĵ": 5412,
      "Ð°Ð¼Ð¸": 5413,
      "iones": 5414,
      "ĠÎ¬": 5415,
      "Ð´ÐµÑĢ": 5416,
      "à¹Ģà¸£": 5417,
      "Ġpok": 5418,
      "ĠDan": 5419,
      "Ġ&&": 5420,
      "cy": 5421,
      "ĠEng": 5422,
      "uw": 5423,
      "ism": 5424,
      "ĲáĢ¼": 5425,
      "à¤¾à¤¯": 5426,
      "ĠgÃ¶r": 5427,
      "Ġair": 5428,
      "ĠBel": 5429,
      "Ġäº": 5430,
      "vÃ¤": 5431,
      "çĤ": 5432,
      "ĠStr": 5433,
      "ç¤": 5434,
      "gar": 5435,
      "91": 5436,
      "ĠÐ¦": 5437,
      "Ġook": 5438,
      "hod": 5439,
      "OD": 5440,
      "ĠÆ": 5441,
      "à°¾à°¯": 5442,
      "Ð¾ÑĤÑĢ": 5443,
      "Ġçİ¯äºļ": 5444,
      "ĠApr": 5445,
      "ĠâĦ": 5446,
      "Ġà²®à²¾à²": 5447,
      "irk": 5448,
      "uto": 5449,
      "Ġ85": 5450,
      "ãģĹãģŁ": 5451,
      "à¶½à·Ĭ": 5452,
      "ÑĭÐ½ÑĭÒ£": 5453,
      "tek": 5454,
      "Ġà´Ĩ": 5455,
      "ÏģÎ·": 5456,
      "à¤ı": 5457,
      "ines": 5458,
      "dr": 5459,
      "áŀ»áŀĦ": 5460,
      "éĽĨ": 5461,
      "Ò±ÑĢ": 5462,
      "à¤ķà¥įà¤": 5463,
      "Å¡Äį": 5464,
      "ÏĥÎ·ÏĤ": 5465,
      "ĠÅŀ": 5466,
      "æ¯": 5467,
      "Ð°Ð¼Ð°": 5468,
      "Ġcz": 5469,
      "Ä«bas": 5470,
      "ĠÕ°Õ¡Õ´": 5471,
      "Ġpoz": 5472,
      "Ġartic": 5473,
      "iro": 5474,
      "Ġà®İà®©": 5475,
      "ĠÙĦÙĦ": 5476,
      "Ġ×ŀ×Ĳ": 5477,
      "à°ķà±įà°": 5478,
      "ĠëĮĢ": 5479,
      "ĠSal": 5480,
      "Ġáĥķ": 5481,
      "ëĭĪëĭ¤": 5482,
      "92": 5483,
      "áŀ¶áŀĺ": 5484,
      "64": 5485,
      "ÑĻ": 5486,
      "ÏĪ": 5487,
      "Ġà¤¹à¥ĭ": 5488,
      "Ð¾Ñħ": 5489,
      "nost": 5490,
      "area": 5491,
      "EC": 5492,
      "ĠÐ¸Ð»Ð¸": 5493,
      "Ġgener": 5494,
      "ĠCent": 5495,
      "ìĤ¬ì§Ģ": 5496,
      "alia": 5497,
      "Ġrq": 5498,
      "ĠDu": 5499,
      "ãĥ¼ãĤ": 5500,
      "Ðĳ": 5501,
      "·áĢ": 5502,
      "Ð½Ð¸Ð¹": 5503,
      "åĪ°": 5504,
      "Ġà¸£": 5505,
      "yar": 5506,
      "Ġbus": 5507,
      "igen": 5508,
      "ĠOb": 5509,
      "Ġà°ľ": 5510,
      "ĠÏĦÎ¹": 5511,
      "yan": 5512,
      "ĠÃ«shtÃ«": 5513,
      "isen": 5514,
      "UT": 5515,
      "ĠÅŁi": 5516,
      "áĢ¬áĢ¸": 5517,
      "áŀ·áŀĦ": 5518,
      "Õ¡ÕŃ": 5519,
      "31": 5520,
      "Õ¡Õº": 5521,
      "nÃ¡": 5522,
      "Ä±k": 5523,
      "Ġagus": 5524,
      "ird": 5525,
      "ser": 5526,
      "jan": 5527,
      "Ġako": 5528,
      "áŀ¶áŀĽ": 5529,
      "ĠÙħØ´": 5530,
      "Ġà¶ĩ": 5531,
      "äºļæ¸¸": 5532,
      "ÅĽci": 5533,
      "iza": 5534,
      "Ð¾Ñİ": 5535,
      "ÙħØ§": 5536,
      "à´Łàµįà´Ł": 5537,
      "Ð»Ð°Ñģ": 5538,
      "å¤ļ": 5539,
      "Ð¾Ð²Ð°Ð½": 5540,
      "ĻáĢº": 5541,
      "igt": 5542,
      "ĠãĢĲ": 5543,
      "order": 5544,
      "Ġæĺ": 5545,
      "ĠtÃ¤": 5546,
      "ĠdÉĻ": 5547,
      "áŀ¶áŀı": 5548,
      "ific": 5549,
      "ustr": 5550,
      "riv": 5551,
      "àª°à«įàª": 5552,
      "Ġconta": 5553,
      "à²¬": 5554,
      "Õ¡ÕµÕ«Õ¶": 5555,
      "ENT": 5556,
      "ÐµÑģÐ¿": 5557,
      "ĠÐºÐ°ÑĢ": 5558,
      "çĶµ": 5559,
      "iler": 5560,
      "ĠÏĥÏĦÎ·Î½": 5561,
      "ìľ¼": 5562,
      "à®¿à®Ł": 5563,
      "×ķ×ŀ": 5564,
      "ender": 5565,
      "Ð¥": 5566,
      "ĠSam": 5567,
      "×Ļ×ŀ": 5568,
      "Ð¸ÑĺÐµ": 5569,
      "amento": 5570,
      "ĲáĢ¹áĢ": 5571,
      "Ġë³": 5572,
      "Å¡k": 5573,
      "ĠáĥĲáĥł": 5574,
      "ĠbaÅŁ": 5575,
      "ĠÐ¿ÑĢÐ°Ð²": 5576,
      "ÛĮØ´": 5577,
      "Ĺà°¾": 5578,
      "Ð»Ñĸ": 5579,
      "ĠâĻ": 5580,
      "ë©": 5581,
      "ÑĤÐ¾ÑĢ": 5582,
      "ÐµÐºÐ°": 5583,
      "tern": 5584,
      "cie": 5585,
      "Ġê¸": 5586,
      "à¨Ł": 5587,
      "Ġplus": 5588,
      "à°Ĥà°Ł": 5589,
      "imas": 5590,
      "éĩĳ": 5591,
      "nosti": 5592,
      "Ġáŀģ": 5593,
      "uba": 5594,
      "Âº": 5595,
      "AY": 5596,
      "Ġnek": 5597,
      "ĠSte": 5598,
      "ining": 5599,
      "ķáĢ¹áĢ": 5600,
      "Ġà¶»": 5601,
      "Õ¡Õ½Õ¿": 5602,
      "ĲáĢ¬áĢ": 5603,
      "Ġà²ªà³įà²°": 5604,
      "Ġwo": 5605,
      "ĠOl": 5606,
      "Î¸Îµ": 5607,
      "Ãµes": 5608,
      "ands": 5609,
      "àºģ": 5610,
      "Î¯Î±ÏĤ": 5611,
      "Ġmom": 5612,
      "ates": 5613,
      "ĴáĢ": 5614,
      "ĠÂ¸": 5615,
      "Ġapr": 5616,
      "Ġ||": 5617,
      "ĠRed": 5618,
      "ĠRa": 5619,
      "Ġqui": 5620,
      "ãĢĳ": 5621,
      "ĠÕ©": 5622,
      "ĠÐ±ÑĥÐ´": 5623,
      "Ġtá»": 5624,
      "Ġright": 5625,
      "íı": 5626,
      "itas": 5627,
      "iment": 5628,
      "Ġsed": 5629,
      "åħ¥": 5630,
      "×Ļ×¤": 5631,
      "Ã¶k": 5632,
      "rek": 5633,
      "×ľ×Ĳ": 5634,
      "Ã³s": 5635,
      "ÑĢÐµÐ´": 5636,
      "ovÃ¡": 5637,
      "ĨáĢ": 5638,
      "ç¾": 5639,
      "×ķ×Ĵ": 5640,
      "Ġrem": 5641,
      "ING": 5642,
      "ĠìĪĺ": 5643,
      "Ġ!!!": 5644,
      "Ġpie": 5645,
      "Ġmb": 5646,
      "ĠAug": 5647,
      "nt": 5648,
      "jar": 5649,
      "Ġà¦¬à¦¿à¦": 5650,
      "æĪĲ": 5651,
      "Ø³ÛĮ": 5652,
      "Ġà°İ": 5653,
      "Ġ×Ķ×Ĺ": 5654,
      "Ġà°ļà±ĩà°": 5655,
      "Ġ2006": 5656,
      "à§įà¦¬": 5657,
      "¯¸": 5658,
      "Ġnor": 5659,
      "Ġdol": 5660,
      "ãģªãģĦ": 5661,
      "à±įà°µ": 5662,
      "Ġnuk": 5663,
      "éĢŁ": 5664,
      "Ġ64": 5665,
      "à¸±à¹ī": 5666,
      "Ġ×Ķ×©": 5667,
      "Õ´Õ¡Õ¶": 5668,
      "áº¿n": 5669,
      "Ø§ÙĬ": 5670,
      "Ð¼Ð¸": 5671,
      "ding": 5672,
      "IG": 5673,
      "à³įà²®": 5674,
      "iye": 5675,
      "iver": 5676,
      "ĠÙħØ±": 5677,
      "Ġtom": 5678,
      "ÎķÎ": 5679,
      "pan": 5680,
      "ister": 5681,
      "alu": 5682,
      "à¸ģà¸±": 5683,
      "idas": 5684,
      "çľŁ": 5685,
      "åĬł": 5686,
      "à¦ĩ": 5687,
      "lag": 5688,
      "tel": 5689,
      "à³ģà²¦": 5690,
      "Ġvor": 5691,
      "ther": 5692,
      "unda": 5693,
      "sen": 5694,
      "can": 5695,
      "ĠáĥłáĥĿáĥĽ": 5696,
      "ĠÂ§": 5697,
      "Ġ.\"": 5698,
      "Ġkep": 5699,
      "×Ļ×Ľ": 5700,
      "å°ı": 5701,
      "Ð¸ÐºÐ°": 5702,
      "ĠmÉĻ": 5703,
      "à°¿à°¯": 5704,
      "iel": 5705,
      "ĠUnivers": 5706,
      "áĪĺ": 5707,
      "Ġvu": 5708,
      "Ġuma": 5709,
      "áī¥": 5710,
      "Ġbur": 5711,
      "ĠMad": 5712,
      "ĠàªĹ": 5713,
      "Ġfot": 5714,
      "Ġlat": 5715,
      "¡à±ģ": 5716,
      "ĠÐºÓ©": 5717,
      "ãģĳ": 5718,
      "ĠáĢŀáĢ": 5719,
      "ÐŁ": 5720,
      "ÚĪ": 5721,
      "cher": 5722,
      "ĠØªØ±": 5723,
      "å¿«3": 5724,
      "à¦¾à¦¸": 5725,
      "ĠÖĦ": 5726,
      "Ð¸ÑĤÐµÐ»": 5727,
      "ÈĽi": 5728,
      "asan": 5729,
      "Ġè¿": 5730,
      "ĠÐ¿Ð»": 5731,
      "ĠÐ½Ð°Ð¿": 5732,
      "à²Ĥà²¤": 5733,
      "ĠÃģ": 5734,
      "bol": 5735,
      "IP": 5736,
      "Ġà¤ĸ": 5737,
      "Ġig": 5738,
      "Ġbag": 5739,
      "à¸¡à¹Ī": 5740,
      "Ġskal": 5741,
      "ĠKon": 5742,
      "á»Ł": 5743,
      "Ġneb": 5744,
      "ĠKat": 5745,
      "esa": 5746,
      "Ġham": 5747,
      "ĠÐ¶ÓĻÐ½Ðµ": 5748,
      "ĠCat": 5749,
      "aÃ°": 5750,
      "Ġmun": 5751,
      "Ġgrup": 5752,
      "yor": 5753,
      "Ġìĺ¤": 5754,
      "Ġleft": 5755,
      "Ð¸ÑĩÐµ": 5756,
      "ilor": 5757,
      "Ð½Ð¸ÑĨ": 5758,
      "elf": 5759,
      "Ġmind": 5760,
      "ĠDis": 5761,
      "áģ¾": 5762,
      "elser": 5763,
      "ĠEUR": 5764,
      "íĥ": 5765,
      "ÛĮØª": 5766,
      "CHAR": 5767,
      "owa": 5768,
      "Ġmund": 5769,
      "Å¡e": 5770,
      "UM": 5771,
      "ĠÎ´Î¹Î±": 5772,
      "ÑįÐ´": 5773,
      "ļáĢ¹áĢ": 5774,
      "ĠCH": 5775,
      "áĭ«": 5776,
      "cer": 5777,
      "arb": 5778,
      "Ä±nda": 5779,
      "gun": 5780,
      "åĽ½éĻħ": 5781,
      "Ð½Ð¸Ñħ": 5782,
      "Ġvia": 5783,
      "ĠGre": 5784,
      "áŁĴáŀĻ": 5785,
      "ĠCor": 5786,
      "ĠáģĬ": 5787,
      "Ã¼ÅŁ": 5788,
      "eller": 5789,
      "Ġeff": 5790,
      "61": 5791,
      "Ġ3A": 5792,
      "à´³àµįâĢį": 5793,
      "Ġprot": 5794,
      "Ġ\"},{\"": 5795,
      "ìĦ±": 5796,
      "×Ĺ×¨": 5797,
      "ĠLes": 5798,
      "uth": 5799,
      "Ġ×ŀ×Ķ": 5800,
      "áĥĶáĥķ": 5801,
      "Å«t": 5802,
      "igi": 5803,
      "ayan": 5804,
      "à¦¾à¦ĩ": 5805,
      "72": 5806,
      "à¨¾à¨²": 5807,
      "Ġ},": 5808,
      "×ķ×Ļ": 5809,
      "ģà¸²à¸£": 5810,
      "×ĵ×¨": 5811,
      "ĠÐ¾Ð¿": 5812,
      "ije": 5813,
      "Ġsee": 5814,
      "ÏģÏī": 5815,
      "hte": 5816,
      "Ġà¤¸à¥ĩ": 5817,
      "áŀĹ": 5818,
      "ÙĩÙħ": 5819,
      "vent": 5820,
      "ĠÏĦÎ¿Î½": 5821,
      "áĥ£áĥł": 5822,
      "à®¿à®ķ": 5823,
      "hd": 5824,
      "ĠAN": 5825,
      "Ġìĥ": 5826,
      "Ġleng": 5827,
      "Ġkn": 5828,
      "à¦¾à¦¤": 5829,
      "itor": 5830,
      "à´¿à´ķ": 5831,
      "ident": 5832,
      "Ð³ÑĢ": 5833,
      "Ð³Ðµ": 5834,
      "ļáĢ¹": 5835,
      "ĠÐ±ÐµÐ·": 5836,
      "ĠáŁĶ": 5837,
      "ìĿ´ì": 5838,
      "Ġeng": 5839,
      "à®£à¯įà®Ł": 5840,
      "Î´Î¿": 5841,
      "ral": 5842,
      "Ġtitle": 5843,
      "ê²Į": 5844,
      "Ġfilm": 5845,
      "hal": 5846,
      "âĢĻ": 5847,
      "áĥĺáĥĲ": 5848,
      "omm": 5849,
      "heid": 5850,
      "Ġcal": 5851,
      "à·Ļà¶±à·Ĭ": 5852,
      "Ġáĥĳ": 5853,
      "Ġà¦ī": 5854,
      "Ġà¶ļà¶»": 5855,
      "áĥĲáĥ®": 5856,
      "ãĤĪ": 5857,
      "à¤¶": 5858,
      "Ġvs": 5859,
      "ÑįÑħ": 5860,
      "Ð¸Ð´Ð°": 5861,
      "à¹Ģà¸Ľà¹ĩ": 5862,
      "½ľê±¸": 5863,
      "ĠHot": 5864,
      "ÑģÐ°": 5865,
      "áĬĲ": 5866,
      "à¤¾à¤¹": 5867,
      "ÃŃv": 5868,
      "Ã©e": 5869,
      "ÙĪØ²": 5870,
      "Öĩ": 5871,
      "lat": 5872,
      "________": 5873,
      "ĠmÃ¡s": 5874,
      "Ġ:)": 5875,
      "áĥĶáĥĹ": 5876,
      "à¥ģà¤°": 5877,
      "onn": 5878,
      "ario": 5879,
      "Ġmill": 5880,
      "ublik": 5881,
      "ader": 5882,
      "Ġhotel": 5883,
      "à¦Ĥ": 5884,
      "Ġsite": 5885,
      "orld": 5886,
      "ĠÎĿ": 5887,
      "onom": 5888,
      "ece": 5889,
      "100": 5890,
      "Ð¾Ð±ÑĢ": 5891,
      "ĠÐ±ÑĥÐ»": 5892,
      "Ġany": 5893,
      "Ġpla": 5894,
      "æ³ķ": 5895,
      "àµĩà´": 5896,
      "á»Ļt": 5897,
      "Ġ×ķ×Ķ": 5898,
      "ĠáĢĢ": 5899,
      "ì£¼": 5900,
      "dir": 5901,
      "Æ°á»£c": 5902,
      "à¤¾à¤µ": 5903,
      "pet": 5904,
      "àº¡": 5905,
      "àµĬ": 5906,
      "ÅĤa": 5907,
      "ĠÑĳ": 5908,
      "Ġsil": 5909,
      "Ġgod": 5910,
      "ç½ĳåĿĢ": 5911,
      "IV": 5912,
      "Ġstar": 5913,
      "89": 5914,
      "Ġoc": 5915,
      "à´ªàµįà´ª": 5916,
      "Ġdella": 5917,
      "ĠJo": 5918,
      "ãĥ³ãĥ": 5919,
      "Ġlan": 5920,
      "Ġji": 5921,
      "Ð²Ð°Ð½": 5922,
      "èĤ²": 5923,
      "×ł×Ķ": 5924,
      "ĠOs": 5925,
      "ves": 5926,
      "ëĵ¤": 5927,
      "Ġjuga": 5928,
      "ĠWh": 5929,
      "à¦¿à¦°": 5930,
      "Ġàª¶": 5931,
      "Ġ×ķ×©×ª×Ļ": 5932,
      "ĠÙĨÛģ": 5933,
      "ĠPe": 5934,
      "ÑĸÐ»ÑĮ": 5935,
      "ç®": 5936,
      "amin": 5937,
      "à¸§à¸²à¸¡": 5938,
      "ÙĩØ§ÛĮ": 5939,
      "×ł×ķ": 5940,
      "gj": 5941,
      "Ø§Ûģ": 5942,
      "ĻáĢ½": 5943,
      "ric": 5944,
      "eno": 5945,
      "ĠÚª": 5946,
      "ÐĨ": 5947,
      "Ġteg": 5948,
      "Ġclass": 5949,
      "isten": 5950,
      "Ã¡ny": 5951,
      "ĠØ§ÙĦØŃ": 5952,
      "ĠÂ»,": 5953,
      "Ġà¤Ķ": 5954,
      "Ġlar": 5955,
      "Ġisang": 5956,
      "Æ°Æ¡": 5957,
      "Ġvit": 5958,
      "Ġoh": 5959,
      "à´¾à´£àµį": 5960,
      "Ġê°Ģ": 5961,
      "Ġbon": 5962,
      "Ġà¤µà¤¿à¤": 5963,
      "Æ°á»Ľ": 5964,
      "Ġris": 5965,
      "Ġimage": 5966,
      "Ġà¨¹à©Ī": 5967,
      "Ġatau": 5968,
      "Ġkot": 5969,
      "à°ļ": 5970,
      "oms": 5971,
      "à¸ľ": 5972,
      "ĠáĪĺ": 5973,
      "ÑĸÑĩ": 5974,
      "ĠrÃ©": 5975,
      "Õ¡Õ²": 5976,
      "ë¹": 5977,
      "mis": 5978,
      "ĠÃ»": 5979,
      "ÉĻm": 5980,
      "67": 5981,
      "ĠåĪ": 5982,
      "ĠÎĵ": 5983,
      "Ġali": 5984,
      "ê³¼": 5985,
      "Äģt": 5986,
      "ÑģÑĤÐ²Ð¾": 5987,
      "æı": 5988,
      "Úĳ": 5989,
      "Ø¬Ùħ": 5990,
      "ady": 5991,
      "ĠÂ½": 5992,
      "Ã½m": 5993,
      "ĠØ£ÙĨ": 5994,
      "à¦ľ": 5995,
      "éĤ": 5996,
      "à°¿à°¤": 5997,
      "assa": 5998,
      "ĠÐ´ÑĢÑĥ": 5999,
      "Ġdev": 6000,
      "Ð¾Ð»Ð¾Ð³": 6001,
      "ĠzÃ¡": 6002,
      "à¦¾à¦¬": 6003,
      "ied": 6004,
      "ĠÕĦ": 6005,
      "éĥ": 6006,
      "ãĢĳãĢĲ": 6007,
      "Ã«m": 6008,
      "Ġgratis": 6009,
      "é«ĺ": 6010,
      "42": 6011,
      "Ġë¶": 6012,
      "Ġíķĺ": 6013,
      "à®ķà¯įà®ķ": 6014,
      "ĠæĪ": 6015,
      "tie": 6016,
      "ograf": 6017,
      "AV": 6018,
      "Ġà¨°": 6019,
      "à®¾à®²": 6020,
      "à®©à¯į": 6021,
      "Ð½Ð¾Ð¹": 6022,
      "Ô±": 6023,
      "Ġ×Ĳ×ķ": 6024,
      "ĠJoh": 6025,
      "ä¹Ī": 6026,
      "ãģ£ãģŁ": 6027,
      "à¸²à¸ĩ": 6028,
      "à·ĸ": 6029,
      "Ġmargin": 6030,
      "à¦£": 6031,
      "Î¹ÎºÏĮ": 6032,
      "Ġvend": 6033,
      "Ġsn": 6034,
      "Ð½ÑĭÐ¹": 6035,
      "à¯ģà®µ": 6036,
      "²áĢ·áĢ": 6037,
      "Ġiyo": 6038,
      "ç´": 6039,
      "à¸£à¸±à¸ļ": 6040,
      "åı¯": 6041,
      "Ð»ÐµÐº": 6042,
      "kol": 6043,
      "ĠØ§Ùģ": 6044,
      "Ð¾Ð²Ð¸": 6045,
      "ĠChr": 6046,
      "Ãºn": 6047,
      "Ġpam": 6048,
      "Ġorganiz": 6049,
      "Ð½Ð°Ñı": 6050,
      "ÐµÑļ": 6051,
      "å½ķ": 6052,
      "ÐµÐ½Ð½Ñı": 6053,
      "Äģc": 6054,
      "azi": 6055,
      "Ġdib": 6056,
      "Ġä½": 6057,
      "Î¹Î¬": 6058,
      "Ã¨s": 6059,
      "à·ģ": 6060,
      "ì§": 6061,
      "ë§ĪìĤ¬ì§Ģ": 6062,
      "Ð½ÑĭÐµ": 6063,
      "Ġlok": 6064,
      "à²¿à²Ĺà³Ĩ": 6065,
      "pu": 6066,
      "Ġih": 6067,
      "áŁĢ": 6068,
      "Ġib": 6069,
      "ĠLat": 6070,
      "Ġ150": 6071,
      "Ġposition": 6072,
      "áĤĶ": 6073,
      "Ú¯Ø±": 6074,
      "ìŀĲ": 6075,
      "æľĢ": 6076,
      "¸à±įà°¤": 6077,
      "çº¿": 6078,
      "ester": 6079,
      "ĠRom": 6080,
      "¡°": 6081,
      "omat": 6082,
      "áŀ¶áŀŁ": 6083,
      "åĬĽ": 6084,
      "à®´": 6085,
      "Ø¦ÛĮ": 6086,
      "Ġsj": 6087,
      "ĠPart": 6088,
      "×ľ×Ķ": 6089,
      "ĠæĹ": 6090,
      "Ġadalah": 6091,
      "à¸¡à¸µ": 6092,
      "ÙĦØ§": 6093,
      "amen": 6094,
      "ĠÐ°Ð±": 6095,
      "ĠMil": 6096,
      "à«ģàª": 6097,
      "à¤¾à¤ķ": 6098,
      "ÐºÐµ": 6099,
      "ĠsÃ©": 6100,
      "Ġhier": 6101,
      "ĠJul": 6102,
      "wer": 6103,
      "kor": 6104,
      "Ġont": 6105,
      "lass": 6106,
      "ative": 6107,
      "Ġbeh": 6108,
      "ious": 6109,
      "ues": 6110,
      "aria": 6111,
      "ĠÄĳi": 6112,
      "à¤Ń": 6113,
      "atz": 6114,
      "ĠìŀĪ": 6115,
      "Ġfyrir": 6116,
      "à³įâĢĮ": 6117,
      "39": 6118,
      "Ġbefore": 6119,
      "Ð°ÑĢÑĭ": 6120,
      "à²ķà³įà²ķ": 6121,
      "Ø§Ø®": 6122,
      "leri": 6123,
      "ØªÙĪ": 6124,
      "mal": 6125,
      "Ġhis": 6126,
      "uer": 6127,
      "etta": 6128,
      "Ġï¼ģ": 6129,
      "ĠBen": 6130,
      "Ġå¹": 6131,
      "ĠtÃ¶": 6132,
      "à²Ĥà²¦à³ģ": 6133,
      "ĠáŀĶáŁĴáŀļáŀ": 6134,
      "Ġada": 6135,
      "Ġ,\\": 6136,
      "Ð¸ÑıÑĤ": 6137,
      "ĠÏĦÎ¿ÏħÏĤ": 6138,
      "Ġkt": 6139,
      "ĠÑĸÐ½": 6140,
      "äºĭ": 6141,
      "Ð°Ð½Ñĭ": 6142,
      "ëį": 6143,
      "ÑĸÑı": 6144,
      "Ġ×ŀ×¢": 6145,
      "áº·": 6146,
      "é¾": 6147,
      "à¸²à¸ģà¸": 6148,
      "ÐµÒ£": 6149,
      "Ġ88": 6150,
      "å®¢": 6151,
      "ello": 6152,
      "ë¶Ģ": 6153,
      "ĠcÃ¡c": 6154,
      "ĠÃ®nt": 6155,
      "åŃ¦": 6156,
      "ĠÐ¾Ð»": 6157,
      "tra": 6158,
      "abi": 6159,
      "Ġonder": 6160,
      "Ġæĸ": 6161,
      "Ġê·¸": 6162,
      "Ġà¸Ń": 6163,
      "Ð±Ð°": 6164,
      "ĠÐ·Ð½": 6165,
      "ĠÃľ": 6166,
      "Ġ==": 6167,
      "Ġniet": 6168,
      "ls": 6169,
      "ĠVol": 6170,
      "ĠMi": 6171,
      "æĽ": 6172,
      "Ð°ÑĢÐ°": 6173,
      "Ġà¨Ĺ": 6174,
      "à¹ĥà¸«à¹ī": 6175,
      "Ġjest": 6176,
      "ĠAfr": 6177,
      "Ð³ÐµÐ½": 6178,
      "á»Ŀ": 6179,
      "ÑĸÐ¹": 6180,
      "ever": 6181,
      "Õ¡Õ¦": 6182,
      "azione": 6183,
      "Ġtrue": 6184,
      "ivo": 6185,
      "indÉĻ": 6186,
      "ĠÕŃ": 6187,
      "ĠÂ¤": 6188,
      "Ġkey": 6189,
      "Ġ***": 6190,
      "àº´": 6191,
      "Ġëı": 6192,
      "Ġons": 6193,
      "Ġ],": 6194,
      "ĠTor": 6195,
      "ĠEle": 6196,
      "Ġ×¢×Ŀ": 6197,
      "ijos": 6198,
      "Ð¾ÑĢÐ¸": 6199,
      "Ð³Ð¸": 6200,
      "itter": 6201,
      "Ġhom": 6202,
      "à¯įà®²": 6203,
      "Ġuch": 6204,
      "ĠEk": 6205,
      "Õ¥Öģ": 6206,
      "ĠkhÃ´ng": 6207,
      "Ãłn": 6208,
      "ĠÑįÑĤ": 6209,
      "Ġyra": 6210,
      "Ġnicht": 6211,
      "ĠIS": 6212,
      "à¸·à¹Īà¸Ń": 6213,
      "ĠÑģÑĬ": 6214,
      "Ã¢l": 6215,
      "esso": 6216,
      "Ġtype": 6217,
      "ĠÕ¹": 6218,
      "yen": 6219,
      "egor": 6220,
      "ĠUr": 6221,
      "ĠST": 6222,
      "ĠEsp": 6223,
      "à¸±à¸Ļà¸": 6224,
      "ÑĥÐ±Ð»Ð¸Ðº": 6225,
      "Ġwan": 6226,
      "Ġone": 6227,
      "uten": 6228,
      "ANG": 6229,
      "Ġå½©ç¥ŀäºīéľ¸": 6230,
      "Ġsar": 6231,
      "Ġkil": 6232,
      "×Ļ×ļ": 6233,
      "Ġsocial": 6234,
      "rio": 6235,
      "Ġ×Ķ×ª": 6236,
      "Ġ×Ķ×¢": 6237,
      "áĥĲáĥĹ": 6238,
      "áĥĲáĥ¢": 6239,
      "Ġtime": 6240,
      "OP": 6241,
      "áŀ¶áŀĻ": 6242,
      "²áĢ": 6243,
      "ÄĿ": 6244,
      "OK": 6245,
      "Ġsitu": 6246,
      "Ġ:#": 6247,
      "à¨¿à¨Ĩ": 6248,
      "×ľ×Ļ": 6249,
      "Ġjag": 6250,
      "Ġbud": 6251,
      "åĽ¢": 6252,
      "ĠÎĹ": 6253,
      "Ġzo": 6254,
      "Ġgam": 6255,
      "áĢĦáĢºáĢ¸áĢ": 6256,
      "à²°à³įà²": 6257,
      "ĠÐºÐ¾Ð»": 6258,
      "ĠMet": 6259,
      "áŁĲ": 6260,
      "Ã¨n": 6261,
      "rin": 6262,
      "ize": 6263,
      "à§ĩà¦ķ": 6264,
      "ĠOd": 6265,
      "ĠII": 6266,
      "à²¶": 6267,
      "roid": 6268,
      "Ġstat": 6269,
      "ĠØªØŃ": 6270,
      "Ġmad": 6271,
      "Ġkop": 6272,
      "áŁĴáŀľ": 6273,
      "áŀł": 6274,
      "Ø§Øµ": 6275,
      "ÐµÑĢÐ¸": 6276,
      "uke": 6277,
      "TG": 6278,
      "CHARCHAR": 6279,
      "ĠÎ®": 6280,
      "Ġrez": 6281,
      "nal": 6282,
      "_id": 6283,
      "Ġeks": 6284,
      "ĠYou": 6285,
      "»áĢķáĢ": 6286,
      "ĠÎ±ÏĢÎ¿": 6287,
      "ĠBal": 6288,
      "áŀ¶áŀĶáŁĭ": 6289,
      "ÕŃ": 6290,
      "Ġìĸ": 6291,
      "ÑĢÐ°Ð²": 6292,
      "ved": 6293,
      "ĠåĲ": 6294,
      "à¹Ģà¸¥": 6295,
      "Ġsoci": 6296,
      "à¨ª": 6297,
      "Ð¸Ð¼Ð°": 6298,
      "365": 6299,
      "áĤı": 6300,
      "nic": 6301,
      "lem": 6302,
      "Ġà°µà°¿à°": 6303,
      "Ġnec": 6304,
      "ĠAf": 6305,
      "Ġconst": 6306,
      "oga": 6307,
      "aji": 6308,
      "Ġkita": 6309,
      "ĠCan": 6310,
      "éķ": 6311,
      "ultur": 6312,
      "41": 6313,
      "Ġbin": 6314,
      "ĠGal": 6315,
      "Ġ365": 6316,
      "Õ«Õ¯": 6317,
      "Ġà¤¥": 6318,
      "Ġned": 6319,
      "ĠTV": 6320,
      "ĠiÅŁ": 6321,
      "ĠTar": 6322,
      "àµĨà´¯": 6323,
      "ÑģÐ»": 6324,
      "±ä¹Ĳ": 6325,
      "Ġpris": 6326,
      "ĠkÄģ": 6327,
      "aye": 6328,
      "Ġà®Ĩ": 6329,
      "è£": 6330,
      "¥à«Ģ": 6331,
      "Ġáŀĵáŀ·áŀĦ": 6332,
      "Ġinternet": 6333,
      "å®ļ": 6334,
      "ites": 6335,
      "ç¨": 6336,
      "à¥ĩà¤¶": 6337,
      "ÙĬØ§": 6338,
      "ĠÚ©Ø§Ø±": 6339,
      "à®¿à®¤": 6340,
      "à¤¾à¤Ĺ": 6341,
      "itel": 6342,
      "à§ľ": 6343,
      "Ġhon": 6344,
      "å¥½": 6345,
      "§à§": 6346,
      "bal": 6347,
      "Ġnar": 6348,
      "Ġmw": 6349,
      "éĸ": 6350,
      "à¶Ńà·Ķ": 6351,
      "aste": 6352,
      "Ġà¤Ķà¤°": 6353,
      "Ð½Ð´": 6354,
      "åģ": 6355,
      "Ġdisplay": 6356,
      "Ġile": 6357,
      "à¥Į": 6358,
      "Ġaug": 6359,
      "áĥĶáĥĵ": 6360,
      "Ã¼z": 6361,
      "Ġport": 6362,
      "Ġà¤«": 6363,
      "In": 6364,
      "Ġses": 6365,
      "Ãły": 6366,
      "Â»": 6367,
      "sko": 6368,
      "ĠÕ·": 6369,
      "Ġkup": 6370,
      "Ġ3033": 6371,
      "¿áĢ": 6372,
      "utta": 6373,
      "ĠÐ°Ð·": 6374,
      "Ġcha": 6375,
      "èĩª": 6376,
      "ÙĦØ§Ùħ": 6377,
      "à°Ĥà°¤": 6378,
      "eny": 6379,
      "çİ¯äºļ": 6380,
      "ria": 6381,
      "à¤¨à¤¾": 6382,
      "jd": 6383,
      "Ġpublic": 6384,
      "Ġkv": 6385,
      "ÑĢÐ°ÑĤ": 6386,
      "ĠÄĳÆ°á»£c": 6387,
      "Ġtri": 6388,
      "Ġhav": 6389,
      "ges": 6390,
      "aip": 6391,
      "TA": 6392,
      "Ġsay": 6393,
      "íĶĦ": 6394,
      "à·Ĵà¶»": 6395,
      "Ð½Ð¸Ð¼": 6396,
      "à´¤àµį": 6397,
      "ĠDer": 6398,
      "ìĭľ": 6399,
      "Ġlist": 6400,
      "ikt": 6401,
      "62": 6402,
      "ĲáĢŃáĢ¯": 6403,
      "Ġsak": 6404,
      "áĭ°": 6405,
      "à©Ĥà©°": 6406,
      "Ġnog": 6407,
      "×Ļ×¦": 6408,
      "ĠÐºÐµÐ»": 6409,
      "æĸĩ": 6410,
      "osp": 6411,
      "ĠIr": 6412,
      "å§": 6413,
      "Ġll": 6414,
      "Ġtech": 6415,
      "áĥ£áĥļ": 6416,
      "×Ļ×ĸ": 6417,
      "Õ«Öģ": 6418,
      "à¦¾à¦ľ": 6419,
      "nem": 6420,
      "ä¹ĭ": 6421,
      "anje": 6422,
      "ĠiÃ§in": 6423,
      "Ġhref": 6424,
      "Ð»Ñİ": 6425,
      "áŁĤáŀĽ": 6426,
      "àª¾àªµ": 6427,
      "Ġmeny": 6428,
      "Ġdesc": 6429,
      "ĠØ°": 6430,
      "Ġshow": 6431,
      "ĠProd": 6432,
      "kel": 6433,
      "ĠÕĿ": 6434,
      "íħĶ": 6435,
      "áĥª": 6436,
      "Ġà´ªàµįà´°": 6437,
      "Ġsud": 6438,
      "Ġparte": 6439,
      "ibil": 6440,
      "×¤×¨": 6441,
      "Ġë¬": 6442,
      "à±ģà°¨à±įà°¨": 6443,
      "itÃ©": 6444,
      "Ð¼ÐµÐ½": 6445,
      "ÏģÎ¹Ïĥ": 6446,
      "Ġnr": 6447,
      "çķ": 6448,
      "tal": 6449,
      "Ġtest": 6450,
      "Ġlog": 6451,
      "Ġ3033102": 6452,
      "Î¸Î·": 6453,
      "ads": 6454,
      "Ġìľ": 6455,
      "Ġfol": 6456,
      "ÏĩÎµ": 6457,
      "ĠcÄĥ": 6458,
      "ĠØ³Ø±": 6459,
      "ikip": 6460,
      "Ġà¦ĵ": 6461,
      "Ġ68": 6462,
      "áĥ£áĥļáĥĺ": 6463,
      "Ð°Ò³": 6464,
      "eth": 6465,
      "ìĹħ": 6466,
      "×ķ×Ľ": 6467,
      "çĦ": 6468,
      "nych": 6469,
      "ector": 6470,
      "Ġmid": 6471,
      "è®¡": 6472,
      "Õ¥Õ¯": 6473,
      "Ä«g": 6474,
      "anz": 6475,
      "ĠÐ°Ñģ": 6476,
      "à§ģà¦²": 6477,
      "Ð°Ð»ÑĭÒĽ": 6478,
      "ature": 6479,
      "ÏĥÎµÎ¹ÏĤ": 6480,
      "Ġadmin": 6481,
      "ĠNE": 6482,
      "à´£àµįà´Ł": 6483,
      "à¥ĩà¤²": 6484,
      "ÑģÑĤÐ°Ð²": 6485,
      "Ġsum": 6486,
      "ĠTop": 6487,
      "ĠSie": 6488,
      "à¸²à¸ģ": 6489,
      "à¯įà®ķà®³à¯į": 6490,
      "Ġhem": 6491,
      "à¹Īà¸²à¸ĩ": 6492,
      "adu": 6493,
      "Ġ2000": 6494,
      "Ð»ÓĻÑĢ": 6495,
      "ĠÕ¬": 6496,
      "Ġdid": 6497,
      "áŁģáŁĩ": 6498,
      "áŀ¶áŀĦ": 6499,
      "áĪĭ": 6500,
      "Õ«ÖĢ": 6501,
      "Ð½Ð¸ÑĤÐµ": 6502,
      "åĭ": 6503,
      "unta": 6504,
      "ĠØ¹ÙĨ": 6505,
      "Ġkok": 6506,
      "ĠSel": 6507,
      "áĥ¥": 6508,
      "à®¿à®©à¯į": 6509,
      "Ġpon": 6510,
      "ĠMart": 6511,
      "à¹Īà¸§": 6512,
      "akat": 6513,
      "ĠÐºÐ¾Ð¼Ð¿": 6514,
      "Ġwer": 6515,
      "bin": 6516,
      "ķáĢ¼áĢ": 6517,
      "Ġekki": 6518,
      "ÙħØ¯": 6519,
      "×£": 6520,
      "Ġëª¨": 6521,
      "Ġàªħàª¨à«ĩ": 6522,
      "ĠAmer": 6523,
      "à¸µà¹ī": 6524,
      "Ð¼Ð°ÑĤ": 6525,
      "Ġà¦Ń": 6526,
      "Ġ,,": 6527,
      "71": 6528,
      "ool": 6529,
      "ley": 6530,
      "Ġgra": 6531,
      "ĠKur": 6532,
      "Ġ78": 6533,
      "ecial": 6534,
      "Ġproj": 6535,
      "ÅĤo": 6536,
      "49": 6537,
      "ÙħÙĨ": 6538,
      "ĠÐºÐ°ÑĤ": 6539,
      "ĠĈ": 6540,
      "aza": 6541,
      "åīį": 6542,
      "ÙĢÙĢ": 6543,
      "à¤¾à¤ľ": 6544,
      "Ð¸Ð¹Ð³": 6545,
      "ĳáĢ": 6546,
      "Ġold": 6547,
      "à·Ĥ": 6548,
      "ĠnÃ¡": 6549,
      "Ġdist": 6550,
      "ÙĪØ§": 6551,
      "Ġwar": 6552,
      "Ð²Ð¾ÑĢ": 6553,
      "ÎºÎ±": 6554,
      "áĮĪ": 6555,
      "63": 6556,
      "ĠÕ«Õ¶": 6557,
      "Ġket": 6558,
      "×ŀ×Ķ": 6559,
      "ĠÃ¥r": 6560,
      "Ġadd": 6561,
      "åĮĸ": 6562,
      "Ð½Ð¸Ð½Ð³": 6563,
      "Ð°ÑĨÐ¸Ñı": 6564,
      "Ġarticle": 6565,
      "Ð»Ð¾": 6566,
      "Ġtudi": 6567,
      "å¿ĥ": 6568,
      "áŀĲ": 6569,
      "itan": 6570,
      "ĠÐ½Ð°ÑĢ": 6571,
      "à®¿à®ķà¯įà®ķ": 6572,
      "Æ°Æ¡ng": 6573,
      "IE": 6574,
      "ĠÂ³": 6575,
      "Ġfind": 6576,
      "omi": 6577,
      "Ġvz": 6578,
      "Ġfamil": 6579,
      "å¨±ä¹Ĳ": 6580,
      "Ã³k": 6581,
      "Ġfig": 6582,
      "Ġpil": 6583,
      "ÑħÐ¾Ð´": 6584,
      "Ġjou": 6585,
      "Ġgir": 6586,
      "Ġfram": 6587,
      "ĠSm": 6588,
      "Ġtrong": 6589,
      "á»ģu": 6590,
      "Ġoper": 6591,
      "Ġà¶ī": 6592,
      "Ġ×Ķ×ŀ": 6593,
      "ĠPort": 6594,
      "ĠNor": 6595,
      "îĢ": 6596,
      "ÙĬØ³": 6597,
      "owe": 6598,
      "inh": 6599,
      "Ġ×ĳ×ŀ×": 6600,
      "Ġcn": 6601,
      "è·": 6602,
      "à¤°à¥Ģ": 6603,
      "Ġåľ": 6604,
      "ĠÐ±Ñŀ": 6605,
      "Ġnou": 6606,
      "×Ļ×ķ": 6607,
      "Ġupp": 6608,
      "Ġspr": 6609,
      "Ġmenj": 6610,
      "ĠÕ¨": 6611,
      "ĠÑįÐº": 6612,
      "imul": 6613,
      "Ġhay": 6614,
      "Ġ:\"": 6615,
      "ëŁ": 6616,
      "ipp": 6617,
      "Ġ×©×Ķ": 6618,
      "àª¯": 6619,
      "×ĲÖ·": 6620,
      "ÑĥÐ»ÑĮ": 6621,
      "Ġlap": 6622,
      "Ã¶s": 6623,
      "OV": 6624,
      "Ġmaar": 6625,
      "ÙĪØ¹": 6626,
      "ĠÃ®ntÃ¢l": 6627,
      "áĪ¨": 6628,
      "Ġmik": 6629,
      "ĸáĥĶ": 6630,
      "Ð½ÑĭÒ£": 6631,
      "Ġalla": 6632,
      "Äģj": 6633,
      "RS": 6634,
      "èĢħ": 6635,
      "amis": 6636,
      "êµŃ": 6637,
      "à²¾à²¦": 6638,
      "Æ°á»Ŀi": 6639,
      "Ġmir": 6640,
      "Ġfree": 6641,
      "Ġktor": 6642,
      "ĠAss": 6643,
      "ĠØ¯ÛĮ": 6644,
      "Ġleb": 6645,
      "áĥĿáĥķ": 6646,
      "hor": 6647,
      "elefon": 6648,
      "à°¨à±ģ": 6649,
      "ÐµÐ½ÑĮ": 6650,
      "odo": 6651,
      "áĥĳ": 6652,
      "Ãĥ": 6653,
      "Ġáĥ®": 6654,
      "Ġdapat": 6655,
      "ĠNu": 6656,
      "ĠMus": 6657,
      "ĠFacebook": 6658,
      "Ð½Ñĥ": 6659,
      "hol": 6660,
      "Ġà¸Ļ": 6661,
      "ĠÙĩØ§ÛĮ": 6662,
      "áĥĻ": 6663,
      "ĠÃ¸": 6664,
      "ĠIz": 6665,
      "Ø¯Ø±": 6666,
      "Ġà¨ī": 6667,
      "áº§n": 6668,
      "ÛĮÙĦ": 6669,
      "Ã±a": 6670,
      "Ġour": 6671,
      "çŁ": 6672,
      "à§ģà¦°": 6673,
      "Ġsw": 6674,
      "ĠNews": 6675,
      "ĠLu": 6676,
      "áĢ¯áĢŃ": 6677,
      "uman": 6678,
      "Ð¸Ð»Ð¸": 6679,
      "Ãºs": 6680,
      "ĠÐ½Ð°Ñģ": 6681,
      "Ġäºļæ¸¸": 6682,
      "Ġ×ĳ×¢": 6683,
      "ĠRec": 6684,
      "ĠPers": 6685,
      "à¸Ĥà¸Ńà¸ĩ": 6686,
      "à¯įà®³": 6687,
      "meld": 6688,
      "ĠEt": 6689,
      "ëĤĺ": 6690,
      "omain": 6691,
      "ĠÐ½Ð¾Ð²": 6692,
      "Ġcond": 6693,
      "à´¦": 6694,
      "Ġbei": 6695,
      "è¶": 6696,
      "apan": 6697,
      "MA": 6698,
      "áĪ«": 6699,
      "à³Ī": 6700,
      "ĠÂ».": 6701,
      "Ġmp": 6702,
      "Ġnes": 6703,
      "áŀĦáŁĴáŀ": 6704,
      "áĥĶáĥłáĥ": 6705,
      "ÑĸÑģÑĤ": 6706,
      "Õ·": 6707,
      "iyy": 6708,
      "ĠPal": 6709,
      "Ġ();": 6710,
      "inda": 6711,
      "ĲáĢ¬": 6712,
      "masÄ±": 6713,
      "à²¿à²¦à³Ĩ": 6714,
      "Õ«Õ½": 6715,
      "Õ¡Õ¤": 6716,
      "oon": 6717,
      "Ġ×Ķ×¤": 6718,
      "Ġsang": 6719,
      "Î¿Î¹": 6720,
      "odi": 6721,
      "nder": 6722,
      "Ġdetail": 6723,
      "´Ģ": 6724,
      "Ġ×Ļ×©": 6725,
      "Ġitem": 6726,
      "ÑĩÐ°": 6727,
      "Ġabout": 6728,
      "ÑĤÐ°Ð½": 6729,
      "Ð¾Ð½Ð¸": 6730,
      "Ġä¸Ģ": 6731,
      "AI": 6732,
      "ĠçĶ": 6733,
      "à·ıà¶»": 6734,
      "à±Ĩà°²": 6735,
      "ÑģÑĤÐ²Ð°": 6736,
      "cis": 6737,
      "Ġ×Ķ×¨": 6738,
      "Ġwy": 6739,
      "êµ¬": 6740,
      "my": 6741,
      "rd": 6742,
      "cio": 6743,
      "ĠíĻ": 6744,
      "ĠÑĥÐ»": 6745,
      "Ġorang": 6746,
      "Ġline": 6747,
      "los": 6748,
      "vol": 6749,
      "ĠÐ¼Ð¸Ð½": 6750,
      "Ġpin": 6751,
      "çĻ»å½ķ": 6752,
      "à¤¿à¤¸": 6753,
      "Ġindex": 6754,
      "ìĹĲìĦľ": 6755,
      "±Û": 6756,
      "ters": 6757,
      "Ġborder": 6758,
      "Ä·": 6759,
      "Ã¡ll": 6760,
      "ures": 6761,
      "Ġqil": 6762,
      "),": 6763,
      "Ġbor": 6764,
      "à¶ľà·ļ": 6765,
      "unu": 6766,
      "lari": 6767,
      "ĠØ¨ÙĨ": 6768,
      "ÄĹl": 6769,
      "ľáĢŃáĢ¯": 6770,
      "à¹ĥà¸Ļà¸": 6771,
      "Ð°ÑĨÑĮ": 6772,
      "ÐĹ": 6773,
      "Ġ!!": 6774,
      "²à±ĭ": 6775,
      "Ġà·ĥà·Ĵ": 6776,
      "Ġwaar": 6777,
      "Ġseu": 6778,
      "Ġlast": 6779,
      "áĥĲáĥłáĥĹ": 6780,
      "ìĨĮ": 6781,
      "Ġproblem": 6782,
      "ĠáŀĲ": 6783,
      "obile": 6784,
      "à¦¿à¦²": 6785,
      "ÄŁi": 6786,
      "Ø¨ÙĬ": 6787,
      "Ġmá»Ļt": 6788,
      "àµģà´¤": 6789,
      "Ġwak": 6790,
      "ango": 6791,
      "eten": 6792,
      "Ġà¤ķà¤¾": 6793,
      "Ġpdf": 6794,
      "ĠBy": 6795,
      "isto": 6796,
      "Ġauto": 6797,
      "ovÃ©": 6798,
      "TE": 6799,
      "Ġble": 6800,
      "é¾Ļ": 6801,
      "áĥĿáĥĵ": 6802,
      "ÙĪØ³": 6803,
      "Ò·": 6804,
      "Ð´Ð°Ð³": 6805,
      "ĠThis": 6806,
      "ĠMy": 6807,
      "ĠvÃ¤l": 6808,
      "Ġ400": 6809,
      "çĤ¹": 6810,
      "Î±Ïĥ": 6811,
      "Ġà¤¸à¤Ĥ": 6812,
      "ĠÐ³Ð¾": 6813,
      "Ã¤tt": 6814,
      "Ġ$('": 6815,
      "ÐµÑĤÐ°": 6816,
      "Î±Ïģ": 6817,
      "sten": 6818,
      "mon": 6819,
      "Ġutil": 6820,
      "ĠSz": 6821,
      "agai": 6822,
      "à¤¾à¤¦": 6823,
      "Ð°ÑģÑĭ": 6824,
      "irs": 6825,
      "ĠáŀĶáŀ¶áŀĵ": 6826,
      "ĠØ¨Ú¾ÛĮ": 6827,
      "ÑįÐ¹": 6828,
      "Ä±s": 6829,
      "lah": 6830,
      "47": 6831,
      "áŁĴáŀĵáŀ»áŀĦ": 6832,
      "à²°à³Ĩ": 6833,
      "Ġwal": 6834,
      "ĠfÃ¥": 6835,
      "à²¿à²Ĥà²¦": 6836,
      "Ġrad": 6837,
      "èĭ": 6838,
      "à²¾à²µ": 6839,
      "à®²à¯į": 6840,
      "iu": 6841,
      "Ġkos": 6842,
      "ãģ©": 6843,
      "áŁĬ": 6844,
      "à´ķàµįà´": 6845,
      "ĠWa": 6846,
      "rap": 6847,
      "Ġtrad": 6848,
      "ieÅ¡": 6849,
      "ĠÐ¼Ñĥ": 6850,
      "Ġimp": 6851,
      "ĠUm": 6852,
      "áĥ¨áĥĺ": 6853,
      "sÃ¥": 6854,
      "ĠØ§ÙĦÙĤ": 6855,
      "Ġexp": 6856,
      "ĠOff": 6857,
      "ĠArt": 6858,
      "ÐµÐ½Ð¾": 6859,
      "ĽáĢ½": 6860,
      "ĠÏĦÎ¹ÏĤ": 6861,
      "ĠÃį": 6862,
      "Ġdre": 6863,
      "erial": 6864,
      "éĥ¨": 6865,
      "Ġáĥľ": 6866,
      "Ġsyst": 6867,
      "áĥĺáĥł": 6868,
      "ÑıÑĢ": 6869,
      "Ð¸ÑĢÐ°": 6870,
      "Ã©d": 6871,
      "isha": 6872,
      "ĠÐ°Ðº": 6873,
      "áĥĵáĥĲ": 6874,
      "à²·": 6875,
      "itÃł": 6876,
      "enie": 6877,
      "Ġmend": 6878,
      "ĠMu": 6879,
      "Ð¾ÑĹ": 6880,
      "43": 6881,
      "eria": 6882,
      "Ãłng": 6883,
      "nos": 6884,
      "ĠãĢį": 6885,
      "àº°àº": 6886,
      "à²Ĺà³Ĩ": 6887,
      "¶Ķ": 6888,
      "Ġterm": 6889,
      "à¶³": 6890,
      "Õ«Õ¿": 6891,
      "cm": 6892,
      "Ġactiv": 6893,
      "Ġsich": 6894,
      "Ġska": 6895,
      "Ġreview": 6896,
      "ĠPas": 6897,
      "Ġ\">": 6898,
      "ĠÛĮÛģ": 6899,
      "Ġfut": 6900,
      "ä¿¡": 6901,
      "Ġpage": 6902,
      "ĠAL": 6903,
      "Õ¡Õ¢": 6904,
      "ĠÖ²": 6905,
      "ĠÐ¿Ð¾ÑģÑĤ": 6906,
      "rum": 6907,
      "rar": 6908,
      "................": 6909,
      "ĠÐ½Ð°Ð²": 6910,
      "Ä£": 6911,
      "larÄ±n": 6912,
      "Ġâĸ": 6913,
      "Ġimages": 6914,
      "ĠHy": 6915,
      "åķ": 6916,
      "à¥įà¤¥": 6917,
      "è¿Ĳ": 6918,
      "à¨ľ": 6919,
      "à¸Ńà¸¢": 6920,
      "IF": 6921,
      "ļĮ": 6922,
      "ĠOct": 6923,
      "àµįâĢĮ": 6924,
      "ĠÐ½ÑĮ": 6925,
      "àµ¼": 6926,
      "ÑģÑĮÐº": 6927,
      "rid": 6928,
      "ãĥĹ": 6929,
      "Ð½ÑĭÐ¼": 6930,
      "ex": 6931,
      "ĠÕ¡Õ¼": 6932,
      "Ġprov": 6933,
      "Ò¯Ð»": 6934,
      "ture": 6935,
      "ĠÂ´": 6936,
      "Ġuw": 6937,
      "inas": 6938,
      "ektr": 6939,
      "Ġ2005": 6940,
      "Ġ2C": 6941,
      "åł": 6942,
      "med": 6943,
      "ĠåĽ": 6944,
      "áĥĺáĥª": 6945,
      "ĠÐ½Ð¾": 6946,
      "Ġsistem": 6947,
      "ĠVis": 6948,
      "Ġcompl": 6949,
      "àµ½": 6950,
      "Ð¾ÑĢÐ°": 6951,
      "jal": 6952,
      "ĠÐ±Ñĥ": 6953,
      "Ġml": 6954,
      "Å¡anas": 6955,
      "otos": 6956,
      "ľÐµ": 6957,
      "ĠÑĢÐ°Ñģ": 6958,
      "ĠKu": 6959,
      "è²": 6960,
      "à¸į": 6961,
      "Ġbuy": 6962,
      "ĠInst": 6963,
      "à«įàªŁ": 6964,
      "Ã¡nÃŃ": 6965,
      "à²Ĥà²¡": 6966,
      "à±įà°¸": 6967,
      "à°ķà±ģ": 6968,
      "Ã³t": 6969,
      "inger": 6970,
      "ĠEv": 6971,
      "æ°´": 6972,
      "ÑĢÐ¾": 6973,
      "raj": 6974,
      "ĠsÃ«": 6975,
      "à§ĩà¦²": 6976,
      "Ġà¦ªà¦°": 6977,
      "Ġia": 6978,
      "Ġanda": 6979,
      "so": 6980,
      "bel": 6981,
      "ĠØ§ÛĮÚ©": 6982,
      "à¨Ĺ": 6983,
      "enk": 6984,
      "Ġ.[": 6985,
      "rik": 6986,
      "amat": 6987,
      "ãģĻãĤĭ": 6988,
      "áŀ·áŀĵ": 6989,
      "Ø¯Ø§Ø±": 6990,
      "ÓĻÐ¼": 6991,
      "ÅĻÃŃ": 6992,
      "56": 6993,
      "Ġvá»Ľi": 6994,
      "æ£": 6995,
      "å£": 6996,
      "Ä«dz": 6997,
      "Ġnah": 6998,
      "åĲİ": 6999,
      "à§ĩà¦¶": 7000,
      "ÕµÕ¡Õ¶": 7001,
      "ÑĪÐ°": 7002,
      "Ġliv": 7003,
      "Õ¡ÖĦ": 7004,
      "áī³": 7005,
      "à°Ĥà°¡": 7006,
      "Ø¢": 7007,
      "Ð»Ð°ÑĤ": 7008,
      "amas": 7009,
      "abe": 7010,
      "à¤¤à¤¾": 7011,
      "UP": 7012,
      "ĠÎ´ÎµÎ½": 7013,
      "ÐłÑķ": 7014,
      "Ð½Ð¾Ð²": 7015,
      "Î½Îµ": 7016,
      "ä¸»": 7017,
      "Ġà¶Ĩ": 7018,
      "ëıĻ": 7019,
      "Ø§ÙĨÙĩ": 7020,
      "eke": 7021,
      "Ġmaks": 7022,
      "àª¾àª¯": 7023,
      "à¦¶": 7024,
      "Ġsah": 7025,
      "Ġ98": 7026,
      "miÅŁ": 7027,
      "Ġsie": 7028,
      "stÃ¤": 7029,
      "ĠØ®ÙĪ": 7030,
      "ãģĪ": 7031,
      "áŀķ": 7032,
      "ids": 7033,
      "Ġä¸Ń": 7034,
      "ĠHol": 7035,
      "íķ´": 7036,
      "ìľ¼ë¡ľ": 7037,
      "áº¡n": 7038,
      "à®ª": 7039,
      "Ð½Ð°ÑĤÐ°": 7040,
      "ĠÙģØ±": 7041,
      "ĠSE": 7042,
      "Ġhj": 7043,
      "Ġdoor": 7044,
      "×Ļ×Ļ×Ŀ": 7045,
      "Ġestas": 7046,
      "ĠIP": 7047,
      "Ãģ": 7048,
      "wn": 7049,
      "ĠÐ²Ð¸Ð´": 7050,
      "Ġkui": 7051,
      "ĠApp": 7052,
      "à¹īà¸§": 7053,
      "ĠÐ·Ð°Ð¿": 7054,
      "Ġincl": 7055,
      "ĠÂ®": 7056,
      "Ġrend": 7057,
      "ĠPR": 7058,
      "ÐµÑĤÑĤ": 7059,
      "uku": 7060,
      "Ġ600": 7061,
      "ball": 7062,
      "Ð°Ñī": 7063,
      "åľº": 7064,
      "ĠWeb": 7065,
      "zu": 7066,
      "ezi": 7067,
      "Ġà¸¡": 7068,
      "æŀľ": 7069,
      "Ġland": 7070,
      "elijk": 7071,
      "ilt": 7072,
      "ĠÐµÐ´": 7073,
      "±áĢ¸áĢ": 7074,
      "Ġkit": 7075,
      "Ġcatalog": 7076,
      "Ġbrand": 7077,
      "ÐĲÐł": 7078,
      "idan": 7079,
      "ãĤ¿": 7080,
      "inc": 7081,
      "à§įà¦·": 7082,
      "ekin": 7083,
      "Ġug": 7084,
      "à±įà°ļ": 7085,
      "Ã¥n": 7086,
      "dd": 7087,
      "ĠGer": 7088,
      "ĠAB": 7089,
      "Ġ\":[\"": 7090,
      "ÉĻl": 7091,
      "Æ°á»Ŀng": 7092,
      "iniz": 7093,
      "ĠÙħÙĤ": 7094,
      "Ġzn": 7095,
      "éĽĨåĽ¢": 7096,
      "Õ¡Õ·": 7097,
      "ĠÕį": 7098,
      "Ġbisa": 7099,
      "ĠPosted": 7100,
      "Ġ.-": 7101,
      "èª": 7102,
      "á»¯ng": 7103,
      "Ð«": 7104,
      "ĠØ¢ÙĨ": 7105,
      "Ġdest": 7106,
      "áŀŁáŁĭ": 7107,
      "áĮį": 7108,
      "à¹īà¸Ńà¸ĩ": 7109,
      "à¸£à¸´": 7110,
      "54": 7111,
      "Ġlahko": 7112,
      "inan": 7113,
      "ĠáĢĲáĢ": 7114,
      "áŀ¶áŁĨáŀĦ": 7115,
      "IB": 7116,
      "Ġ×Ľ×ľ": 7117,
      "Ġsau": 7118,
      "Î¼ÏĮ": 7119,
      "day": 7120,
      "Ġmig": 7121,
      "ĠDel": 7122,
      "ĠÎ¼ÎŃ": 7123,
      "Ġzap": 7124,
      "ĠGi": 7125,
      "Ø§Ø·": 7126,
      "ÉĻb": 7127,
      "ĠVo": 7128,
      "ĠTel": 7129,
      "ĠSP": 7130,
      "ÙĦÙĬ": 7131,
      "×ĳ×¢": 7132,
      "ķáĢ«áĢĲáĢ": 7133,
      "ÏģÎŃ": 7134,
      "ĠÐºÐ¾": 7135,
      "ĠkÃµ": 7136,
      "®áĢ¸": 7137,
      "uden": 7138,
      "ĠÎ±Î½Î±": 7139,
      "Ġaga": 7140,
      "áŁĴáŀĺ": 7141,
      "Ġà®ļà¯Ĩ": 7142,
      "Ġà¦ıà¦ķ": 7143,
      "teri": 7144,
      "Ġtamb": 7145,
      "áĭµ": 7146,
      "áĤĶáĢ": 7147,
      "ëĲ": 7148,
      "lav": 7149,
      "×ĵ×Ļ": 7150,
      "ĠÐ¼Ð°ÑĤ": 7151,
      "ĠSil": 7152,
      "æĬķ": 7153,
      "Ãłnh": 7154,
      "box": 7155,
      "ĠnÃ£o": 7156,
      "Ġenc": 7157,
      "Î¹ÎºÎ®": 7158,
      "ĠÐĿÐ°": 7159,
      "ÏģÏİ": 7160,
      "Ġuu": 7161,
      "Ġning": 7162,
      "å¯¹": 7163,
      "Ø§ÙĪ": 7164,
      "ikin": 7165,
      "stra": 7166,
      "agy": 7167,
      "ĠÎ¹": 7168,
      "áīł": 7169,
      "Ð¸Ð½Ðµ": 7170,
      "Ã§Ãµes": 7171,
      "Ġcil": 7172,
      "à°ªà±įà°ª": 7173,
      "Õ¶Õ¥ÖĢÕ¨": 7174,
      "gal": 7175,
      "ĠÐ±ÑĢ": 7176,
      "Õ¡ÖĢÕ¤": 7177,
      "Ġê¸°": 7178,
      "ĠWH": 7179,
      "ĠCa": 7180,
      "ãģĬ": 7181,
      "ham": 7182,
      "ĠÑĩÑĤÐ¾": 7183,
      "ĠÎµÎº": 7184,
      "ĠES": 7185,
      "å¿«ä¸ī": 7186,
      "ãĢģ": 7187,
      "uran": 7188,
      "ellen": 7189,
      "Ġì¹´ì§Ģëħ¸": 7190,
      "ĠÑĤÐµÑĢ": 7191,
      "ĠÑĢÐ°Ð±Ð¾ÑĤ": 7192,
      "à¸Ħà¸§à¸²à¸¡": 7193,
      "xe": 7194,
      "ĠÐ½Ð°Ð¼": 7195,
      "à²¾à²¯": 7196,
      "à¥ģà¤¨": 7197,
      "ÑįÐ¼": 7198,
      "Ġì§": 7199,
      "ĠØ§ÙĦÙģ": 7200,
      "ĠÕ«ÖĢ": 7201,
      "Ġ\").": 7202,
      "×ĳ×ľ": 7203,
      "Ġrom": 7204,
      "ĠkÃ¶z": 7205,
      "Ð°ÑĬ": 7206,
      "ĻáĢ¾": 7207,
      "Ġ''": 7208,
      "ãĤ£": 7209,
      "àµģà´®": 7210,
      "Ġà¸«": 7211,
      "Ġ×ŀ×ª": 7212,
      "Ġrak": 7213,
      "Ġpet": 7214,
      "Ġdro": 7215,
      "àª¡": 7216,
      "eds": 7217,
      "ÑĭÑģÑĤ": 7218,
      "Ġbit": 7219,
      "è°": 7220,
      "Ã¼t": 7221,
      "Ãį": 7222,
      "58": 7223,
      "ĠÐĨ": 7224,
      "Ġtheir": 7225,
      "ĠCr": 7226,
      "à²¿à²²": 7227,
      "Ð¾Ð½Ð´": 7228,
      "Ġ77": 7229,
      "à·Ĳà¶±": 7230,
      "ÑĸÑĹ": 7231,
      "iej": 7232,
      "RA": 7233,
      "ĠLi": 7234,
      "à©įà¨°": 7235,
      "Im": 7236,
      "ĠlÃŃ": 7237,
      "áģ¿áĢ": 7238,
      "Ä±lÄ±": 7239,
      "Ã¶t": 7240,
      "Ġalso": 7241,
      "áĥĿáĥļ": 7242,
      "áº£i": 7243,
      "à¸£à¸²à¸": 7244,
      "akar": 7245,
      "ĠÂ¶": 7246,
      "Ġgeb": 7247,
      "è§£": 7248,
      "gel": 7249,
      "Ġï¿½ï¿½ï¿½ï¿½ï¿½ï¿½ï¿½ï¿½ï¿½ï¿½": 7250,
      "Ġ×Ķ×¡": 7251,
      "Ġlik": 7252,
      "à¸£à¹Į": 7253,
      "Ú©ÛĮ": 7254,
      "Ġ×ľ×ŀ×": 7255,
      "Ġvet": 7256,
      "à¸Ļà¹Ģà¸": 7257,
      "ÑģÐ°Ð½": 7258,
      "ndan": 7259,
      "Ġsul": 7260,
      "Ġkart": 7261,
      "à²¾à²²": 7262,
      "Ġshe": 7263,
      "ĠSport": 7264,
      "ĠÐ°ÑĤ": 7265,
      "Ġoleh": 7266,
      "ĠNet": 7267,
      "Ø®Øª": 7268,
      "gh": 7269,
      "ager": 7270,
      "Ġveg": 7271,
      "ĠmÃ©s": 7272,
      "æĹ¶å½©": 7273,
      "antes": 7274,
      "Ġawá»įn": 7275,
      "á»ķ": 7276,
      "ÙĩÙĨ": 7277,
      "Õ¾Õ¡Õ®": 7278,
      "utt": 7279,
      "ĠØ¶": 7280,
      "Ġvous": 7281,
      "éĴ": 7282,
      "é¦": 7283,
      "àª¦": 7284,
      "imb": 7285,
      "Ġà¶Ķ": 7286,
      "ĠØ§Ù¾": 7287,
      "Ġ120": 7288,
      "ÙħÛĮ": 7289,
      "áŀĶáŁĴáŀļáŀ": 7290,
      "ħáĢºáĢ": 7291,
      "Ġmedia": 7292,
      "ĠBi": 7293,
      "æĸĻ": 7294,
      "å¤ĸ": 7295,
      "à¶ºà·ı": 7296,
      "à±ģà°¤": 7297,
      "rez": 7298,
      "cion": 7299,
      "ĠÐ°Ð¼": 7300,
      "Ġconf": 7301,
      "Ó©Ð³": 7302,
      "Ð°ÑĢÐ´": 7303,
      "issa": 7304,
      "chod": 7305,
      "AND": 7306,
      "Ġsat": 7307,
      "àªĹ": 7308,
      "mit": 7309,
      "ĠÎµÎ½": 7310,
      "Ġkatika": 7311,
      "à°¾à°Ĥà°": 7312,
      "Î¤": 7313,
      "Ġì§Ģ": 7314,
      "ĠÃµ": 7315,
      "ìłķ": 7316,
      "ãĤģ": 7317,
      "taa": 7318,
      "Ġsuper": 7319,
      "Ìģ": 7320,
      "ĠØ§ÙĦÙĨ": 7321,
      "Ġprost": 7322,
      "Ġeh": 7323,
      "Î¼Î¬": 7324,
      "Ġprzy": 7325,
      "ĠogsÃ¥": 7326,
      "ĠFil": 7327,
      "éĿ¢": 7328,
      "à¥įà¤®": 7329,
      "nek": 7330,
      "Ð»Ð°ÑĢÐ¸": 7331,
      "ÏĩÎµÎ¹": 7332,
      "ÉĻy": 7333,
      "ĠÑģÐ°Ð»": 7334,
      "ãģĵãģ¨": 7335,
      "Ð¿ÑĢÐ°Ð²": 7336,
      "rea": 7337,
      "ĠÐ¾Ð²": 7338,
      "ais": 7339,
      "çİ°": 7340,
      "àº²àºĻ": 7341,
      "Ġìļ": 7342,
      "Ġposs": 7343,
      "OB": 7344,
      "Ġ:-": 7345,
      "num": 7346,
      "ĠÎ¿Î¹": 7347,
      "Ġcli": 7348,
      "ĠKl": 7349,
      "ÙĬÙĪ": 7350,
      "Ø§Ø¶": 7351,
      "hs": 7352,
      "Ġvari": 7353,
      "site": 7354,
      "ĠÑĤÐ°ÑĢ": 7355,
      "à¥įà¤¯à¤¾": 7356,
      "×Ľ×ľ": 7357,
      "ĠâĨĴ": 7358,
      "Ġens": 7359,
      "Äĥr": 7360,
      "Ġ×Ķ×ķ×Ĳ": 7361,
      "ĠÏħÏĢ": 7362,
      "Ġbid": 7363,
      "uste": 7364,
      "Ġmost": 7365,
      "áŁĦáŀĻ": 7366,
      "ungen": 7367,
      "igo": 7368,
      "ĠàªŃ": 7369,
      "Ġszer": 7370,
      "Ġfund": 7371,
      "åĨĮ": 7372,
      "à¦ļ": 7373,
      "ãģĭãĤī": 7374,
      "à®¾à®¤": 7375,
      "ÒĽÐ°": 7376,
      "Ġà¶¢": 7377,
      "Ġwi": 7378,
      "àµįà´³": 7379,
      "Ġprice": 7380,
      "ìŀ¥": 7381,
      "hich": 7382,
      "ĠRev": 7383,
      "ĠØ¬ÙĬ": 7384,
      "Ġ×ĸ×Ķ": 7385,
      "Ġdels": 7386,
      "åĪ©": 7387,
      "ĠÑĢÐ¾Ð·": 7388,
      "ĠÐ¿Ð°ÑĢ": 7389,
      "ĠHet": 7390,
      "ÑĸÐ¿": 7391,
      "ÙĦØ¨": 7392,
      "Ġkter": 7393,
      "à¹Īà¸²": 7394,
      "Ð»Ð°Ð³": 7395,
      "ismo": 7396,
      "ĠÆı": 7397,
      "Ġhak": 7398,
      "íĦ": 7399,
      "Ġà´°": 7400,
      "Ġà¨¦à©Ģ": 7401,
      "Ġorig": 7402,
      "Ã¤ng": 7403,
      "far": 7404,
      "kit": 7405,
      "iran": 7406,
      "idades": 7407,
      "Ġfre": 7408,
      "ä½ĵèĤ²": 7409,
      "ĠÐ¾ÑĢÐ³Ð°Ð½": 7410,
      "ĠÐ»Ñİ": 7411,
      "Ġprofes": 7412,
      "ä¹Ł": 7413,
      "à³įà²µ": 7414,
      "ÎĿ": 7415,
      "Ġlike": 7416,
      "Ġep": 7417,
      "áŀıáŁĴáŀı": 7418,
      "àµģà´ŁàµĨ": 7419,
      "esc": 7420,
      "ĠÚ©ÙĨ": 7421,
      "Ġple": 7422,
      "Ġmain": 7423,
      "åĬ¨": 7424,
      "ikat": 7425,
      "Ġera": 7426,
      "àºĩàº": 7427,
      "ĠTrans": 7428,
      "Ġ.:": 7429,
      "æĹ¶æĹ¶å½©": 7430,
      "iec": 7431,
      "Ġsou": 7432,
      "à´¨àµįâĢį": 7433,
      "ÄĹj": 7434,
      "ĠGro": 7435,
      "ëª": 7436,
      "áĪĽ": 7437,
      "ÄĽt": 7438,
      "Ġblock": 7439,
      "Ġald": 7440,
      "ĠServ": 7441,
      "rad": 7442,
      "etu": 7443,
      "ĆĈ": 7444,
      "ÑĬÐ»": 7445,
      "ľáĢ¯áĢ": 7446,
      "ĠÙħØª": 7447,
      "éĢļ": 7448,
      "áŀ¹áŀĦ": 7449,
      "à§¦": 7450,
      "fu": 7451,
      "Ġdeg": 7452,
      "à¦Ń": 7453,
      "orit": 7454,
      "Ġà¸Ī": 7455,
      "ĠÐ¿Ð¾Ðº": 7456,
      "ĠIntern": 7457,
      "ĠGoogle": 7458,
      "à»į": 7459,
      "à¶¸à·ı": 7460,
      "Ġbh": 7461,
      "ĠØ¬Ø¯": 7462,
      "ĠnÃ³": 7463,
      "Ġdaar": 7464,
      "ĠIsl": 7465,
      "Ġkuwa": 7466,
      "Ġ(){": 7467,
      "Õ²": 7468,
      "isÃ«": 7469,
      "ideos": 7470,
      "Ph": 7471,
      "ĠngÆ°á»Ŀi": 7472,
      "ĠOm": 7473,
      "ÐµÑĢÑĤ": 7474,
      "fur": 7475,
      "Ġlin": 7476,
      "ãĤĦ": 7477,
      "à¨¾à¨¨": 7478,
      "sto": 7479,
      "ĠÑĤÒ¯": 7480,
      "à´¿à´Ł": 7481,
      "ĠÐ¸ÑģÑĤ": 7482,
      "oki": 7483,
      "Ġtap": 7484,
      "Ġnach": 7485,
      "ĠDon": 7486,
      "çīĮ": 7487,
      "åİħ": 7488,
      "Ġexper": 7489,
      "ĠUp": 7490,
      "Ð¸Ð»Ð°": 7491,
      "Ð·Ðµ": 7492,
      "ĠProf": 7493,
      "ÙħØ±": 7494,
      "Äħc": 7495,
      "Ãľ": 7496,
      "ĠDownload": 7497,
      "ìĬ": 7498,
      "à¤ģ": 7499,
      "ÏĥÎ¹": 7500,
      "ĠVa": 7501,
      "ĠGl": 7502,
      "à¨Ī": 7503,
      "Ġsr": 7504,
      "Ġpros": 7505,
      "à¤¾à¤ī": 7506,
      "ĠÎµÏĢÎ¹": 7507,
      "ĠÐ¿Ð¾Ð¼": 7508,
      "Ġkost": 7509,
      "anh": 7510,
      "ĠarÄ«": 7511,
      "Ġ');": 7512,
      "ĠÃĲÂµ": 7513,
      "Ġeine": 7514,
      "Ã¼rk": 7515,
      "à¯ģà®¤à¯įà®¤": 7516,
      "Ġàª¹àª¤": 7517,
      "ĠNi": 7518,
      "à¤¼": 7519,
      "ĠãĢĭ": 7520,
      "Ġdv": 7521,
      "Ġans": 7522,
      "æŁ": 7523,
      "Ú¯ÛĮ": 7524,
      "ebut": 7525,
      "Ġ</": 7526,
      "áĥĿáĥĴ": 7527,
      "ĠæĿ": 7528,
      "Ġà¨ķà¨°": 7529,
      "Ġbeste": 7530,
      "ØªØ§": 7531,
      "Õ¥ÖĢÕ«": 7532,
      "Ġsind": 7533,
      "Ġere": 7534,
      "way": 7535,
      "ief": 7536,
      "Ġdocument": 7537,
      "ÙĪÙĤ": 7538,
      "ĠBas": 7539,
      "à±ģà°°": 7540,
      "embre": 7541,
      "Ġà¦¥": 7542,
      "ĠÙħØ¯": 7543,
      "ÃŃch": 7544,
      "qa": 7545,
      "isu": 7546,
      "Ġyer": 7547,
      "ÏĨÎ¿": 7548,
      "Ġintern": 7549,
      "ä»£": 7550,
      "Ġyan": 7551,
      "Ġdil": 7552,
      "à¸¹à¹ī": 7553,
      "Ġkus": 7554,
      "à®¾à®Ł": 7555,
      "Ð°ÑĶ": 7556,
      "tikel": 7557,
      "Ġà²¶": 7558,
      "Ġdah": 7559,
      "ĠPump": 7560,
      "à¶±à¶º": 7561,
      "à°¬": 7562,
      "Ð°Ð»Ñĭ": 7563,
      "53": 7564,
      "ĠÐµÐ»": 7565,
      "à¥įà¤¨": 7566,
      "Äĵm": 7567,
      "ĠÓ©Ð·": 7568,
      "à¶½à·ı": 7569,
      "à°²à±ĭ": 7570,
      "ÙĩâĢĮ": 7571,
      "aje": 7572,
      "Ġà²ļ": 7573,
      "à¤¾à¤ĩ": 7574,
      "Ġcome": 7575,
      "çĿ": 7576,
      "Ãłi": 7577,
      "ĠìĿ´ë": 7578,
      "ĠÅ¼e": 7579,
      "áĥķáĥĶáĥļ": 7580,
      "à°¾à°¤": 7581,
      "pat": 7582,
      "ĠÐ½Ð°ÑĪ": 7583,
      "ĠTra": 7584,
      "ãĥķ": 7585,
      "ÙĦØ³": 7586,
      "Ã¸l": 7587,
      "egi": 7588,
      "Ġà´Ĵ": 7589,
      "Ġ×ŀ×Ĺ": 7590,
      "ĠÐ·Ð°Ðº": 7591,
      "Ġmeer": 7592,
      "upa": 7593,
      "à¹ģà¸¥à¸°": 7594,
      "Ġíĺ": 7595,
      "Ġavec": 7596,
      "ÑıÐ½": 7597,
      "atud": 7598,
      "ĠpÄģr": 7599,
      "Ġheb": 7600,
      "áŁĦáŀĢ": 7601,
      "dÄ±r": 7602,
      "ĠáĢĢáĢ": 7603,
      "è¿Ľ": 7604,
      "Ãī": 7605,
      "mak": 7606,
      "Ġà¹Ĥ": 7607,
      "à°ľ": 7608,
      "pad": 7609,
      "Ġà¨¨à©Ĥà©°": 7610,
      "Ġpadding": 7611,
      "ĠFree": 7612,
      "Ġë°Ķ": 7613,
      "com": 7614,
      "ĠáŀĵáŁħ": 7615,
      "Ġelektr": 7616,
      "áĥĶáĥĳáĥ¡": 7617,
      "à±įà°®": 7618,
      "Ġven": 7619,
      "Ġolan": 7620,
      "ĠHD": 7621,
      "ÅĽÄĩ": 7622,
      "Ġcamp": 7623,
      "ĠBlack": 7624,
      "ĶáĢºáĢ": 7625,
      "ĠLo": 7626,
      "å¦": 7627,
      "à°¾à°®": 7628,
      "oren": 7629,
      "Ġview": 7630,
      "à«ĩàª²": 7631,
      "à¥ĩà¤¤": 7632,
      "Î¡": 7633,
      "ards": 7634,
      "ĠÙĨØ¸": 7635,
      "à°£": 7636,
      "Õ¸ÖĤÕµ": 7637,
      "ray": 7638,
      "Ġref": 7639,
      "éļ": 7640,
      "tl": 7641,
      "Ġauch": 7642,
      "Ãĩ": 7643,
      "Ġaku": 7644,
      "à¤¿à¤°": 7645,
      "ĠÛ±Û": 7646,
      "ĠÖĥ": 7647,
      "Ġbis": 7648,
      "ĠÔµ": 7649,
      "áŀ½áŀĻ": 7650,
      "Ð¼Ð°Ð½": 7651,
      "ytt": 7652,
      "uns": 7653,
      "ips": 7654,
      "åĮº": 7655,
      "äºİ": 7656,
      "à¦¯à¦¼": 7657,
      "Ø¨Ø§Ø±": 7658,
      "Ġï¼Ł": 7659,
      "ĠÅ½": 7660,
      "à¹Ħà¸Ľ": 7661,
      "ĠÎŃÎ½Î±": 7662,
      "à°¿à°ķà°¿": 7663,
      "qip": 7664,
      "ĺáĢ": 7665,
      "ĠÒ»": 7666,
      "Ġters": 7667,
      "ÙĦÙī": 7668,
      "Ð°ÐºÑĤ": 7669,
      "ÐºÐ¾Ð²": 7670,
      "Ġvl": 7671,
      "Ġps": 7672,
      "Ġnel": 7673,
      "ĠMot": 7674,
      "å½©ç¥ŀ": 7675,
      "ÏĥÏĦÎµ": 7676,
      "Ġdei": 7677,
      "ÐµÐ½Ð´": 7678,
      "atik": 7679,
      "amm": 7680,
      "Ġå¥": 7681,
      "Ġthey": 7682,
      "Ġkons": 7683,
      "à¦¨à§įà¦": 7684,
      "Ð±ÐµÐº": 7685,
      "ivi": 7686,
      "amer": 7687,
      "Ġtrav": 7688,
      "ĠsÃŃ": 7689,
      "ĠSub": 7690,
      "à¦¤à§ĩ": 7691,
      "ikipedia": 7692,
      "Ġ><": 7693,
      "à¶»à·Ķ": 7694,
      "Ä«v": 7695,
      "à´Ĺ": 7696,
      "ÑĢÐ°Ð·": 7697,
      "Ġáĥ¥": 7698,
      "Ġtw": 7699,
      "Ġà²Ī": 7700,
      "àºĶàº": 7701,
      "à¤°à¥įà¤¨": 7702,
      "Äĵl": 7703,
      "ĠáĥĲáĥĽ": 7704,
      "Ġà¶±à·Ĵ": 7705,
      "à´¾à´¤": 7706,
      "Ä«bu": 7707,
      "ife": 7708,
      "Ġnab": 7709,
      "Ġà¨ļ": 7710,
      "ĠÐ¶ÑĭÐ»": 7711,
      "Ġ?????": 7712,
      "æ¥": 7713,
      "Ġyar": 7714,
      "uck": 7715,
      "kez": 7716,
      "æº": 7717,
      "àªľ": 7718,
      "endi": 7719,
      "Ġkay": 7720,
      "Ð¸Ð¶": 7721,
      "Ġíı": 7722,
      "Ġdra": 7723,
      "83": 7724,
      "ĠÐ¸ÑĪ": 7725,
      "ovi": 7726,
      "lara": 7727,
      "Ġwhich": 7728,
      "ÑĤÐº": 7729,
      "ĠÂ£": 7730,
      "å»": 7731,
      "ÐµÐ¼Ð°": 7732,
      "Ã±o": 7733,
      "Ġkem": 7734,
      "áº£n": 7735,
      "ische": 7736,
      "Ġ×Ķ×Ľ": 7737,
      "ĠÐ½Ð°Ð´": 7738,
      "ĠPres": 7739,
      "Ð¾ÒĽ": 7740,
      "Ð¼ÐµÑĤ": 7741,
      "à¯ģà®Ł": 7742,
      "Ð¸ÑĩÐµÑģÐº": 7743,
      "Ä«j": 7744,
      "ope": 7745,
      "69": 7746,
      "Ġà¦¸à¦®": 7747,
      "ĠVideo": 7748,
      "ç»ı": 7749,
      "has": 7750,
      "Ġmol": 7751,
      "ìĻ": 7752,
      "Ð¾Ð³Ð°": 7753,
      "ãĥŃ": 7754,
      "Ð¸ÒĽ": 7755,
      "ilar": 7756,
      "ĠApril": 7757,
      "ÏĦÎ±Î½": 7758,
      "Ġrealiz": 7759,
      "×Ļ×Ĺ": 7760,
      "Ð²ÐµÑĤ": 7761,
      "ĠTak": 7762,
      "uro": 7763,
      "ĠÐ²Ñĭ": 7764,
      "Ġprac": 7765,
      "à¸ł": 7766,
      "ÑĪÐµ": 7767,
      "Ġáĥ¤": 7768,
      "ĠØªØ¹": 7769,
      "ÐµÐ»Ð¸": 7770,
      "ÏĥÎ±": 7771,
      "ĠâĢº": 7772,
      "Ġmereka": 7773,
      "ĠSol": 7774,
      "à¯įà®©": 7775,
      "ÏĦÎ¯": 7776,
      "Ġthem": 7777,
      "Ġlak": 7778,
      "Ġdun": 7779,
      "à²¾à²Ĺà²¿": 7780,
      "ÑįÑįÑĢ": 7781,
      "eca": 7782,
      "amu": 7783,
      "Ġ62": 7784,
      "idir": 7785,
      "DE": 7786,
      "Ã¡b": 7787,
      "mail": 7788,
      "ishi": 7789,
      "Ð°Ð·Ð°ÒĽ": 7790,
      "ours": 7791,
      "icha": 7792,
      "ĠØ¯Ø§ÙĨ": 7793,
      "ìłĦ": 7794,
      "à°²à±ģ": 7795,
      "riz": 7796,
      "iju": 7797,
      "GA": 7798,
      "ĠØ§ÙĦØ¬": 7799,
      "Ð´ÑĭÒ£": 7800,
      "jak": 7801,
      "ĠØ§ÙĦØ¥": 7802,
      "à¯ģà®®": 7803,
      "inÉĻ": 7804,
      "ames": 7805,
      "Ġnhi": 7806,
      "Ġms": 7807,
      "Ġalg": 7808,
      "ĠIng": 7809,
      "Ð¾Ð½Ð°": 7810,
      "ffer": 7811,
      "Ã¼s": 7812,
      "ices": 7813,
      "Ġà²Ĵ": 7814,
      "Ġà¦²": 7815,
      "ĠAnda": 7816,
      "æģ": 7817,
      "ÐµÑĢÐ³": 7818,
      "idu": 7819,
      "ĠÒ³Ð°Ð¼": 7820,
      "á»ĳng": 7821,
      "à¸¸à¸Ķ": 7822,
      "Ö°": 7823,
      "ĠÐ¿ÑĢÐ¾Ð´": 7824,
      "ĠettÃ¤": 7825,
      "ìķĦ": 7826,
      "éģĵ": 7827,
      "áĥĲáĥĺ": 7828,
      "ĠâĦĸ": 7829,
      "Ñļ": 7830,
      "Î¹ÎºÎ¬": 7831,
      "Äģl": 7832,
      "Ġà¤ıà¤ķ": 7833,
      "Ġ×ŀ×¡": 7834,
      "ĠÒĽÐ°ÑĢ": 7835,
      "ÑĥÐ²Ð°ÑļÐµ": 7836,
      "ds": 7837,
      "ĠÙĨÛģÛĮÚº": 7838,
      "ĠÐ±Ð°Ð»": 7839,
      "Ġpul": 7840,
      "Ġoldu": 7841,
      "PS": 7842,
      "à´¿à´¤": 7843,
      "à¤ķà¤¾à¤°": 7844,
      "Ġáĥ©": 7845,
      "ĠÙħØ§": 7846,
      "ĠgÃ¼n": 7847,
      "ĠLib": 7848,
      "cias": 7849,
      "ĠáĥĴáĥĲáĥĽ": 7850,
      "Ġà¤Ĺà¤°": 7851,
      "itos": 7852,
      "ĠÒ±": 7853,
      "ĠVe": 7854,
      "è½¦": 7855,
      "åĪĴ": 7856,
      "áĥĿáĥł": 7857,
      "pk": 7858,
      "Ġdav": 7859,
      "Ġ84": 7860,
      "Ġdesign": 7861,
      "82": 7862,
      "àº²àºĻàº": 7863,
      "à¹Īà¸Ńà¸ĩ": 7864,
      "à°¿à°ª": 7865,
      "ÑĨÐ¸Ñı": 7866,
      "lement": 7867,
      "Ġprav": 7868,
      "Ð»Ð°Ð²": 7869,
      "uter": 7870,
      "ovo": 7871,
      "áŀĢáŀ¶áŀļáŀ": 7872,
      "ÐµÑĦ": 7873,
      "orr": 7874,
      "ĠÐ±ÑĭÐ»": 7875,
      "Ðħ": 7876,
      "nar": 7877,
      "Ġting": 7878,
      "imu": 7879,
      "Ġkind": 7880,
      "à¯įà®µ": 7881,
      "Ø´ÙĨ": 7882,
      "à¹Īà¸Ļ": 7883,
      "Ġjust": 7884,
      "áĥ¬": 7885,
      "àº·": 7886,
      "à¶¢": 7887,
      "Ð°ÑģÐ¸": 7888,
      "Ã¢y": 7889,
      "Ġits": 7890,
      "Ġ72": 7891,
      "Ð½Ð¾ÑģÑĤÐ¸": 7892,
      "vert": 7893,
      "onte": 7894,
      "ĠDom": 7895,
      "ÑģÐµ": 7896,
      "aty": 7897,
      "Ġgev": 7898,
      "æĪĳ": 7899,
      "aly": 7900,
      "ML": 7901,
      "Ġwork": 7902,
      "Ġphp": 7903,
      "Ġnatur": 7904,
      "ç©": 7905,
      "ä»¶": 7906,
      "åįģ": 7907,
      "tav": 7908,
      "roj": 7909,
      "inte": 7910,
      "ĠìķĦ": 7911,
      "Ġpriv": 7912,
      "Ġdik": 7913,
      "æĥħ": 7914,
      "onder": 7915,
      "berg": 7916,
      "Ġsho": 7917,
      "à®Ļà¯įà®ķ": 7918,
      "wy": 7919,
      "ska": 7920,
      "avo": 7921,
      "Ġ×ĳ×¨": 7922,
      "Ġ82": 7923,
      "æ³¨åĨĮ": 7924,
      "ÙĩÙĬ": 7925,
      "Ġà¨Ĩ": 7926,
      "ĠÂ¿": 7927,
      "Î¼ÏĢ": 7928,
      "ĠÑīÐ¾": 7929,
      "Ġkry": 7930,
      "ĠSing": 7931,
      "ĠPat": 7932,
      "Ġ\");": 7933,
      "iness": 7934,
      "Ġess": 7935,
      "æľŁ": 7936,
      "ØªÛĴ": 7937,
      "ÉĻrbay": 7938,
      "Äĥm": 7939,
      "Ãĸ": 7940,
      "Ġnom": 7941,
      "tico": 7942,
      "ĠSw": 7943,
      "ĠSom": 7944,
      "ÙĬØª": 7945,
      "à®±à¯įà®±": 7946,
      "Ã¨re": 7947,
      "ires": 7948,
      "imal": 7949,
      "ĠìĿ´ì": 7950,
      "ãģ¡": 7951,
      "Î£": 7952,
      "à¥įà¤²": 7953,
      "esp": 7954,
      "cat": 7955,
      "05": 7956,
      "à°¹": 7957,
      "×ł×Ļ×Ŀ": 7958,
      "OW": 7959,
      "çµ": 7960,
      "agg": 7961,
      "Ġpay": 7962,
      "åº¦": 7963,
      "à¸¨": 7964,
      "ĠÃ¾aÃ°": 7965,
      "Ġsaj": 7966,
      "åı£": 7967,
      "ãģĽ": 7968,
      "ĠØ§ÙĦØ´": 7969,
      "ĠÎºÎ¬": 7970,
      "Ġhid": 7971,
      "Ġeu": 7972,
      "ĠAugust": 7973,
      "pli": 7974,
      "ĠØ§Ø±": 7975,
      "ì²ľ": 7976,
      "Õ¸ÖĤÕ½": 7977,
      "ãĤ·": 7978,
      "Ġà²ħà²µ": 7979,
      "Ġà¨µà¨¿à¨": 7980,
      "Ġbra": 7981,
      "áĢĢáĢ¹": 7982,
      "ÑĸÐ½ÑĸÒ£": 7983,
      "ÐµÑģÐ¿ÑĥÐ±Ð»Ð¸Ðº": 7984,
      "anan": 7985,
      "Ġdru": 7986,
      "Ø°Ø§": 7987,
      "×¨×Ļ×Ŀ": 7988,
      "ape": 7989,
      "Ġà²Ń": 7990,
      "Ġ97": 7991,
      "Ġ74": 7992,
      "à¹īà¸²": 7993,
      "à¹Ħà¸¡à¹Ī": 7994,
      "ÑĨÐ¸": 7995,
      "ĠØ¨Ø±Ø§ÛĮ": 7996,
      "ĠPod": 7997,
      "enz": 7998,
      "anti": 7999,
      "ieg": 8000,
      "eft": 8001,
      "ĠâĢľ,": 8002,
      "Ġkah": 8003,
      "æ©": 8004,
      "Ð½Ð³": 8005,
      "à¸Īà¸°": 8006,
      "Ġzv": 8007,
      "Ġbun": 8008,
      "ĠAR": 8009,
      "Î»Î»Î¬": 8010,
      "gang": 8011,
      "St": 8012,
      "AAAAAAAA": 8013,
      "ratis": 8014,
      "Ġ×ľ×¢": 8015,
      "Ġub": 8016,
      "Ġhindi": 8017,
      "eler": 8018,
      "Î´Î±": 8019,
      "ription": 8020,
      "æķ°": 8021,
      "ØµÙĦ": 8022,
      "ĠÖī": 8023,
      "ĠÑģÐ°Ð¹": 8024,
      "ä»¬": 8025,
      "Ð¹Ð»": 8026,
      "Ġàªªà«įàª°": 8027,
      "Ġzak": 8028,
      "Ġà°¶": 8029,
      "ĠFebru": 8030,
      "æ°ĳ": 8031,
      "Ú»": 8032,
      "ĠØ¬ÙĨ": 8033,
      "Ġ×ķ×Ĳ": 8034,
      "à¤¿à¤¯à¤¾": 8035,
      "Ð½Ð¾Ð³": 8036,
      "Ġnhá»¯ng": 8037,
      "à³įà²·": 8038,
      "ogra": 8039,
      "éħ": 8040,
      "Ð¸ÑģÑĤÐ¾Ð½": 8041,
      "ĠìŀĲ": 8042,
      "ĠtÃ¶r": 8043,
      "à¦¾à¦¹": 8044,
      "iba": 8045,
      "Ġfem": 8046,
      "Ġabs": 8047,
      "ĠMax": 8048,
      "àªŁ": 8049,
      "Ġà´¬": 8050,
      "ĠØªÙĩ": 8051,
      "Ġ250": 8052,
      "à²ļ": 8053,
      "ĠØ§ÙĦØ¨": 8054,
      "Ãĵ": 8055,
      "ople": 8056,
      "ĠÐ¿ÑĢÐ¸": 8057,
      "ĠktÃ³": 8058,
      "Ð»Ñĭ": 8059,
      "}.": 8060,
      "ĠÄĳá»Ļ": 8061,
      "Ġstand": 8062,
      "å±±": 8063,
      "Ġdien": 8064,
      "};": 8065,
      "Ġngud": 8066,
      "Ġjar": 8067,
      "ĠSec": 8068,
      "ĠDep": 8069,
      "Ġ\"},\"": 8070,
      "åŁİ": 8071,
      "à¤¹à¥Ģ": 8072,
      "nings": 8073,
      "ĠØ¨ÙĦ": 8074,
      "Ġaya": 8075,
      "ĠGa": 8076,
      "Î¿ÏĤ": 8077,
      "Pr": 8078,
      "ĠÖħ": 8079,
      "ĠÎ¦": 8080,
      "Ġupor": 8081,
      "ĠnhÆ°": 8082,
      "ask": 8083,
      "áŁĨáŀĸ": 8084,
      "ÐºÐ¾Ð»": 8085,
      "imulyo": 8086,
      "Ġren": 8087,
      "èĬ": 8088,
      "Úª": 8089,
      "Ø§Ø¦ÛĮ": 8090,
      "ÃĦ": 8091,
      "87": 8092,
      "Ġà°¹": 8093,
      "ĠÕ¨Õ¶": 8094,
      "Ġngudimulyo": 8095,
      "Ġjy": 8096,
      "å¾Ĺ": 8097,
      "Æ°á»Ľc": 8098,
      "Ġà°Ń": 8099,
      "Ġà¦¹à§Ł": 8100,
      "Ġwel": 8101,
      "Ġobj": 8102,
      "ë°Ķ": 8103,
      "Öĥ": 8104,
      "à©ĭà¨Ĥ": 8105,
      "mark": 8106,
      "lov": 8107,
      "isch": 8108,
      "HE": 8109,
      "==": 8110,
      "ĠkÃ¶": 8111,
      "Ġdep": 8112,
      "ëĭĪ": 8113,
      "Õ¡Õ´Õ¢": 8114,
      "Ġbers": 8115,
      "ĠChe": 8116,
      "Ġà»Ģàº": 8117,
      "Ġprote": 8118,
      "áºŃn": 8119,
      "ĠÃ¦": 8120,
      "Ġfj": 8121,
      "ÙĪØ¬": 8122,
      "Ġìłķ": 8123,
      "Ġteh": 8124,
      "á»©c": 8125,
      "Ġ×ľ×©": 8126,
      "ĠÐ´Ð²": 8127,
      "Ġproduct": 8128,
      "ĠKe": 8129,
      "ĠBir": 8130,
      "æıĲ": 8131,
      "à²¾à²Ĥ": 8132,
      "iyo": 8133,
      "ĠÚ©ÛĲ": 8134,
      "ĠÑĥÑĢ": 8135,
      "Ġwie": 8136,
      "à²¾à²®": 8137,
      "Ġnone": 8138,
      "ibi": 8139,
      "Ġzi": 8140,
      "à´¾à´²": 8141,
      "Ê»": 8142,
      "Ġà§¨": 8143,
      "ĠÃ¾ess": 8144,
      "à´±àµįà´±": 8145,
      "Ġ96": 8146,
      "¤ĳ": 8147,
      "ugh": 8148,
      "ikl": 8149,
      "hem": 8150,
      "å°±": 8151,
      "Ø¡": 8152,
      "OC": 8153,
      "Ġfav": 8154,
      "íĦ°": 8155,
      "Ã©c": 8156,
      "imet": 8157,
      "edz": 8158,
      "ĠØ§ÙĦØ®": 8159,
      "Ġpes": 8160,
      "à·Ĵà¶ļ": 8161,
      "ļáĢ": 8162,
      "å¢": 8163,
      "elm": 8164,
      "ĶáĢ¹áĢ¸áĢ": 8165,
      "Ġà´ī": 8166,
      "íĻĶìĿ´íĬ¸": 8167,
      "íĶĦíĻĶìĿ´íĬ¸": 8168,
      "ÐµÐ´Ñĸ": 8169,
      "»áĢĸáĢ": 8170,
      "ĠãĢĮ": 8171,
      "Ġà²®à²¾à²¡": 8172,
      "ĠÑģÑĥÑĢ": 8173,
      "ĠÐ±Ð¸": 8174,
      "Ġ^": 8175,
      "Ð½Ð°Ð»": 8176,
      "plo": 8177,
      "Ġzdrav": 8178,
      "Ġord": 8179,
      "Ġjob": 8180,
      "ĠEN": 8181,
      "à¸±à¸ļ": 8182,
      "ottom": 8183,
      "ĠØ§ÙĦØ¯": 8184,
      "áĥĺáĥ¢": 8185,
      "eres": 8186,
      "ĠÐ¿Ð¾ÑĢ": 8187,
      "Ġ63": 8188,
      "zk": 8189,
      "sch": 8190,
      "],\"": 8191,
      "ĠÐ´ÑĢ": 8192,
      "æ¶": 8193,
      "á»±c": 8194,
      "à¸±à¸Ķ": 8195,
      "ession": 8196,
      "Ġ×Ĳ×ľ": 8197,
      "à°Łà±įà°Ł": 8198,
      "room": 8199,
      "ĠìĿ¸": 8200,
      "¬¬": 8201,
      "DA": 8202,
      "Ġ2004": 8203,
      "Õ¸ÖĢÕ®": 8204,
      "ĠÑĤÐµÐ»": 8205,
      "igu": 8206,
      "Ġà¸ļ": 8207,
      "ĠÐ¶Ð°": 8208,
      "ĠÃ¾vÃŃ": 8209,
      "áĢ¬áĢĢáĢ¹áĢ": 8210,
      "ĠBR": 8211,
      "Ó©Ó©": 8212,
      "Ġmenu": 8213,
      "Ġdim": 8214,
      "ĠGod": 8215,
      "à¤ķà¥įà¤·": 8216,
      "ÃŃr": 8217,
      "áŁĴáŀļáŀ»": 8218,
      "à¦Łà¦¿": 8219,
      "ÛĮØ²": 8220,
      "Ú¾Ø§": 8221,
      "Ã´i": 8222,
      "Ġdating": 8223,
      "emos": 8224,
      "Key": 8225,
      "åĲĹ": 8226,
      "ws": 8227,
      "Ð½Ð°Ð¹": 8228,
      "Ġnews": 8229,
      "à¨¤à©ĩ": 8230,
      "ÏĦÎŃ": 8231,
      "lÉĻri": 8232,
      "inti": 8233,
      "ĠìĿ´": 8234,
      "ĠNg": 8235,
      "ïº": 8236,
      "á»Ń": 8237,
      "rz": 8238,
      "Ġhelp": 8239,
      "ĠUl": 8240,
      "ĠPet": 8241,
      "éĹ¨": 8242,
      "ĠáĢľáĢ": 8243,
      "ĠÃ¶z": 8244,
      "Ġsport": 8245,
      "Ġprez": 8246,
      "Ġ89": 8247,
      "à¹Ģà¸Ĥ": 8248,
      "Ó¯": 8249,
      "ĠÅ¡e": 8250,
      "Ġproces": 8251,
      "àª¾àª¤": 8252,
      "cent": 8253,
      "ĠÒĽÐ¸Ð»": 8254,
      "ÙģØ±": 8255,
      "Ð³Ð¾Ð²": 8256,
      "akin": 8257,
      "ĠÐ¼Ð°Ð»": 8258,
      "Ġsaya": 8259,
      "Ġqual": 8260,
      "ÙĤØª": 8261,
      "Ð¾Ð´Ð°": 8262,
      "qi": 8263,
      "Ġreal": 8264,
      "Ġiy": 8265,
      "ĠSur": 8266,
      "och": 8267,
      "acional": 8268,
      "ä¿Ŀ": 8269,
      "ream": 8270,
      "84": 8271,
      "ĠDit": 8272,
      "ĠÐµÐº": 8273,
      "Ġpero": 8274,
      "Ġcomun": 8275,
      "æŃ£": 8276,
      "nÄ«": 8277,
      "ĠÑıÐºÑĸ": 8278,
      "Ġhome": 8279,
      "owy": 8280,
      "×ķ×ŀ×": 8281,
      "Ġprom": 8282,
      "çī©": 8283,
      "Ø³Ùħ": 8284,
      "epat": 8285,
      "éª": 8286,
      "ÅĤy": 8287,
      "Ġsama": 8288,
      "Ġ86": 8289,
      "Ġito": 8290,
      "à°¿à°°": 8291,
      "ÑĽ": 8292,
      "ÏĦÎ¹ÎºÏĮ": 8293,
      "Ġæĸ°": 8294,
      "Ġdira": 8295,
      "ĠPark": 8296,
      "ĠGar": 8297,
      "imiz": 8298,
      "Ġoor": 8299,
      "áŁł": 8300,
      "wat": 8301,
      "Ġrespons": 8302,
      "à±Ĥ": 8303,
      "Ø²Ø§Ø±": 8304,
      "Ð½Ð¾Ð¼": 8305,
      "Åĳl": 8306,
      "entar": 8307,
      "Ġfran": 8308,
      "Ġasi": 8309,
      "áĢĦáĢ¹áĢ¸": 8310,
      "Å¡a": 8311,
      "ĠØ´Ø±": 8312,
      "Ġoma": 8313,
      "Ġequ": 8314,
      "Ġdies": 8315,
      "Ġbere": 8316,
      "áŀĵáŁĴáŀı": 8317,
      "Î¬Ïģ": 8318,
      "Ġ×ĳ×©": 8319,
      "ror": 8320,
      "iso": 8321,
      "Ġunha": 8322,
      "à´´": 8323,
      "ugar": 8324,
      "ĠáĢ¡": 8325,
      "tific": 8326,
      "Ġhun": 8327,
      "ĠRE": 8328,
      "ĠPara": 8329,
      "åĨħ": 8330,
      "ÑīÐµ": 8331,
      "Ġ×Ķ×§": 8332,
      "ĠFer": 8333,
      "ĠClass": 8334,
      "áŁĴáŀĭ": 8335,
      "à°¾à°ķ": 8336,
      "Ġà¦«": 8337,
      "ëĵľ": 8338,
      "à¹Ģà¸Ķ": 8339,
      "rif": 8340,
      "inar": 8341,
      "ĠÙħØ¬": 8342,
      "à°¾à°Ł": 8343,
      "à¤¨à¥Ģ": 8344,
      "ÑĨÑĭ": 8345,
      "itÃ¤": 8346,
      "ĠÚ©ÛĮØ§": 8347,
      "×Ĳ×¨": 8348,
      "Ò¯Ò¯Ð»": 8349,
      "íļĮ": 8350,
      "Ġedhe": 8351,
      "á»ģn": 8352,
      "á»£": 8353,
      "eptember": 8354,
      "ĠKh": 8355,
      "Ð¸ÑĽ": 8356,
      "BA": 8357,
      "ĠØ±Ûģ": 8358,
      "Ġsag": 8359,
      "ÓĻÑĤ": 8360,
      "à¹ģ": 8361,
      "Ã¾": 8362,
      "ides": 8363,
      "ĠOf": 8364,
      "Ġà¦Ĩà¦®": 8365,
      "Ġà¦ĩ": 8366,
      "Ġdop": 8367,
      "è¿Ļ": 8368,
      "ãĤ¦": 8369,
      "pap": 8370,
      "Ġmail": 8371,
      "Ġà¹Ħ": 8372,
      "Ġmass": 8373,
      "ìĥģ": 8374,
      "tem": 8375,
      "adem": 8376,
      "Ġå¿": 8377,
      "ĠâĹ": 8378,
      "ĠÅĽ": 8379,
      "æĹĹ": 8380,
      "áĥĿáĥłáĥ": 8381,
      "jat": 8382,
      "ĠáĬĲ": 8383,
      "Ġlebih": 8384,
      "ÉĻd": 8385,
      "Ã¦k": 8386,
      "xy": 8387,
      "ĠÕ°Õ¥Õ¿": 8388,
      "èĲ": 8389,
      "Ã°ar": 8390,
      "¥¿": 8391,
      "tev": 8392,
      "Ġbro": 8393,
      "ĠID": 8394,
      "åħĥ": 8395,
      "áŁĴáŀĳ": 8396,
      "Ð²ÐµÑĢ": 8397,
      "iska": 8398,
      "eze": 8399,
      "NA": 8400,
      "Ġcam": 8401,
      "Ġ2003": 8402,
      "Õ¥Õ´": 8403,
      "ÑĩÐ¸": 8404,
      "Ð°Ð½Ñģ": 8405,
      "Äı": 8406,
      "rob": 8407,
      "inden": 8408,
      "aco": 8409,
      "Ġà¦Ł": 8410,
      "ìĸĳ": 8411,
      "Î¼Î±ÏĦÎ±": 8412,
      "áº§u": 8413,
      "ingu": 8414,
      "Ġvas": 8415,
      "Ġdeal": 8416,
      "Ġaur": 8417,
      "ĠSim": 8418,
      "Ġ83": 8419,
      "Î»Î¿Î³": 8420,
      "xi": 8421,
      "éĥ½": 8422,
      "Õ¸Õ½": 8423,
      "ĠÐ°Ð¶": 8424,
      "ĠÄī": 8425,
      "Ġdeb": 8426,
      "çŃī": 8427,
      "à¦§": 8428,
      "åıĸ": 8429,
      "Ġê²ĥ": 8430,
      "Ġtij": 8431,
      "Ġost": 8432,
      "à¸´à¸Ķ": 8433,
      "ĠìĹ¬": 8434,
      "Ġstyle": 8435,
      "Ġkepada": 8436,
      "Ø§ÙħÙĦ": 8437,
      "ÐłÂµ": 8438,
      "Î¼Î·": 8439,
      "ungs": 8440,
      "atzen": 8441,
      "Ġplay": 8442,
      "áŁĨáŀİ": 8443,
      "à¥ĩà¤°": 8444,
      "ÐµÑĽ": 8445,
      "Ð¡Ð¢": 8446,
      "Ãĳ": 8447,
      "Ġama": 8448,
      "à®³à¯į": 8449,
      "idos": 8450,
      "ìĽĶ": 8451,
      "ware": 8452,
      "à²¦à²²à³įà²²à²¿": 8453,
      "eber": 8454,
      "à¸Ļà¸µà¹ī": 8455,
      "×Ļ×Ĵ": 8456,
      "nas": 8457,
      "IZ": 8458,
      "ĠØ§Ø¨": 8459,
      "Ġperf": 8460,
      "Ġmell": 8461,
      "Ġimg": 8462,
      "ÄįnÃŃ": 8463,
      "Ġvot": 8464,
      "ĠmÃµ": 8465,
      "Ġats": 8466,
      "ĠBon": 8467,
      "ĠAzÉĻrbay": 8468,
      "Ġ76": 8469,
      "ãģ¤": 8470,
      "ÃŃl": 8471,
      "ĠÐºÐ°Ð»": 8472,
      "Ã¯": 8473,
      "ĠvÃ¦re": 8474,
      "Ġsaat": 8475,
      "Ġmula": 8476,
      "Ø¤": 8477,
      "Ð±ÑĢ": 8478,
      "unan": 8479,
      "iyet": 8480,
      "ĠæĪĳ": 8481,
      "ë¯¸": 8482,
      "ãĥ¥": 8483,
      "Ġ×¤×¨": 8484,
      "ĠAllah": 8485,
      "Ġà´ľ": 8486,
      "ĠØªÙħ": 8487,
      "dom": 8488,
      "anyak": 8489,
      "ĠBil": 8490,
      "Ġć": 8491,
      "ìĹ¬": 8492,
      "59": 8493,
      "æĬĢ": 8494,
      "Ġresult": 8495,
      "Ġfirst": 8496,
      "Ġeru": 8497,
      "ĠIB": 8498,
      "ìĪĺ": 8499,
      "à¸ĺ": 8500,
      "elig": 8501,
      "act": 8502,
      "ĠÑĩÐ°Ñģ": 8503,
      "ĠÏĮÏĦÎ¹": 8504,
      "ìķ½": 8505,
      "åĳĺ": 8506,
      "áĥĺáĥĻ": 8507,
      "à²Ĥà²¬": 8508,
      "à¤¾à¤ª": 8509,
      "UD": 8510,
      "ç«¯": 8511,
      "à§ĥ": 8512,
      "ĠFa": 8513,
      "ÙĪØ§ÙĨ": 8514,
      "ĶáĢº": 8515,
      "Ġzar": 8516,
      "áĪħ": 8517,
      "áĢĢáĢŃáĢ¯": 8518,
      "itus": 8519,
      "asjon": 8520,
      "Ġà¸ŀ": 8521,
      "Ġnin": 8522,
      "Ġëĵ": 8523,
      "ĠáĬ¨": 8524,
      "Ġà¦ĸ": 8525,
      "ĠÙĦÙĩ": 8526,
      "ĠÙ¾Ø§Ú©": 8527,
      "ĠÃ¶n": 8528,
      "ĠPS": 8529,
      "à¹Ģà¸Ĺ": 8530,
      "à¸±à¸§": 8531,
      "ÃŃnh": 8532,
      "rim": 8533,
      "ift": 8534,
      "52": 8535,
      "ĠâĶ": 8536,
      "Ġà°Ī": 8537,
      "Ġbank": 8538,
      "ÙģØª": 8539,
      "ÑįÑĤ": 8540,
      "rs": 8541,
      "ful": 8542,
      "Ġcum": 8543,
      "ÃŃk": 8544,
      "lip": 8545,
      "ĠCity": 8546,
      "áĪļ": 8547,
      "à§ĩà¦Ľà§ĩ": 8548,
      "à¥įà¤ª": 8549,
      "PR": 8550,
      "Ġwax": 8551,
      "åĲĮ": 8552,
      "×³": 8553,
      "Ġà®Ĵ": 8554,
      "Ġ×ĳ×Ķ": 8555,
      "Ġ1000": 8556,
      "åĲį": 8557,
      "ited": 8558,
      "indows": 8559,
      "fir": 8560,
      "arg": 8561,
      "anna": 8562,
      "Ġëĭ¤": 8563,
      "ĠNam": 8564,
      "Ã¦Ã°": 8565,
      "àµģà´³": 8566,
      "à®²à¯įà®²": 8567,
      "Ô±Õ": 8568,
      "vir": 8569,
      "Ġsend": 8570,
      "ģáĢº": 8571,
      "Ġother": 8572,
      "ÓĻÐº": 8573,
      "Ġ81": 8574,
      "áī£": 8575,
      "EST": 8576,
      "Ġthu": 8577,
      "ĠFe": 8578,
      "ĠDI": 8579,
      "çłģ": 8580,
      "à°ķà±įà°ķ": 8581,
      "×ŀ×¨": 8582,
      "Ġ×ĵ×Ļ": 8583,
      "ĠÐ²ÑĢÐµÐ¼": 8584,
      "Ġkj": 8585,
      "Ġ69": 8586,
      "æĶ¿": 8587,
      "Ð°Ð½ÑĤ": 8588,
      "uen": 8589,
      "bor": 8590,
      "Ġkak": 8591,
      "ĠDem": 8592,
      "Ð»Ð°Ð¼": 8593,
      "--------": 8594,
      "Ġ});": 8595,
      "Äįe": 8596,
      "inga": 8597,
      "Ġfam": 8598,
      "ìĸ´": 8599,
      "ãĤ«": 8600,
      "iyor": 8601,
      "Ġáŀł": 8602,
      "Ä±na": 8603,
      "rak": 8604,
      "ctor": 8605,
      "atÄĥ": 8606,
      "Ġà¸Ĺ": 8607,
      "ĠÑģÐ¸": 8608,
      "Ġcc": 8609,
      "Ġafter": 8610,
      "ĠMol": 8611,
      "ĠKi": 8612,
      "ĠKas": 8613,
      "ĠBest": 8614,
      "à¸±à¸ģà¸": 8615,
      "Ø§Ø¯Ùĩ": 8616,
      "Ġæµ": 8617,
      "ĠÄĳÃ£": 8618,
      "Ġàª«": 8619,
      "Ġzen": 8620,
      "Ġuse": 8621,
      "Ġmens": 8622,
      "ĠilÉĻ": 8623,
      "ĠRob": 8624,
      "åºĹ": 8625,
      "àª¥à«Ģ": 8626,
      "vu": 8627,
      "MS": 8628,
      "Ġtun": 8629,
      "Ġanti": 8630,
      "ì½ľê±¸": 8631,
      "à¯ģà®±": 8632,
      "ÑıÐ¼": 8633,
      "Ġsid": 8634,
      "ĠestÃ¡": 8635,
      "æīĭæľºçīĪ": 8636,
      "à¸Ľà¸£à¸°": 8637,
      "bj": 8638,
      "ĠÐ·Ð°Ð¼": 8639,
      "ĠBur": 8640,
      "è¿ĩ": 8641,
      "ç¤¾": 8642,
      "åħ³": 8643,
      "ãĤı": 8644,
      "Î»Î¬": 8645,
      "Ġ×ĳ×ª": 8646,
      "Ġpast": 8647,
      "Ġdownload": 8648,
      "ĠKos": 8649,
      "æĢĿ": 8650,
      "istan": 8651,
      "ĠInform": 8652,
      "íķĺëĬĶ": 8653,
      "çĲĥ": 8654,
      "à«įàª¤": 8655,
      "ÙĦÙĥ": 8656,
      "Ð°Ñĳ": 8657,
      "ĠìłĦ": 8658,
      "Ġtet": 8659,
      "Ġfull": 8660,
      "è¡¨": 8661,
      "à°Ĥà°²à±ĭ": 8662,
      "àª³": 8663,
      "Ġà§§à§": 8664,
      "ĠÎĴ": 8665,
      "Ġkoh": 8666,
      "Ġdaha": 8667,
      "Äįen": 8668,
      "ĠÙĪØ±": 8669,
      "Ġopp": 8670,
      "Ġkann": 8671,
      "Ġizan": 8672,
      "éĹ´": 8673,
      "çĽ®": 8674,
      "´ëĿ¼": 8675,
      "ĶáĢ¹": 8676,
      "Ġà´µà´¿à´": 8677,
      "Ġlive": 8678,
      "ĠFre": 8679,
      "àµĨà´¨àµįà´¨": 8680,
      "à²¦à³ģ": 8681,
      "ÏĦÎ¹ÎºÎ®": 8682,
      "cho": 8683,
      "arte": 8684,
      "ĠÐĳÐµÐ»": 8685,
      "ĠÐºÐ¸": 8686,
      "æİĴ": 8687,
      "ãĥĥãĤ¯": 8688,
      "à²ľ": 8689,
      "Ð¸ÑĨÐ°": 8690,
      "nim": 8691,
      "isc": 8692,
      "51": 8693,
      "ĠÐ¿Ð¾Ð·": 8694,
      "áŀ¶áŀĸ": 8695,
      "Ġáŀľ": 8696,
      "ĠÙ¹": 8697,
      "Ġwp": 8698,
      "Ġlim": 8699,
      "å®ŀ": 8700,
      "Ð´Ð·": 8701,
      "Î¼Î²": 8702,
      "ness": 8703,
      "Ġà®ĩà®°": 8704,
      "Ġmg": 8705,
      "ĠCap": 8706,
      "riend": 8707,
      "ĬáĢ¹áĢ": 8708,
      "ĠÐ±Ð°Ñģ": 8709,
      "à¥ĭà¤Ĺ": 8710,
      "à¤«": 8711,
      "Ġà²µà²¿à²": 8712,
      "Ġ×Ķ×ĳ": 8713,
      "Ġmur": 8714,
      "Ġdla": 8715,
      "Ġ,âĢĿ": 8716,
      "ÑĥÑĢÑģ": 8717,
      "ĠZa": 8718,
      "ĠMak": 8719,
      "OG": 8720,
      "à¸´à¸ķ": 8721,
      "ÙħØ§ÙĨ": 8722,
      "osto": 8723,
      "ĠÙĨÙĪ": 8724,
      "Ġanmeld": 8725,
      "ĠUs": 8726,
      "éĩį": 8727,
      "áĥĺáĥĽ": 8728,
      "Ġàªķà«ĩ": 8729,
      "Ġsiis": 8730,
      "Ġminut": 8731,
      "Ġchat": 8732,
      "ÑıÐ²": 8733,
      "zat": 8734,
      "ĽĦ": 8735,
      "ĠÐ¼Ð°Ñģ": 8736,
      "ĠMul": 8737,
      "Ćć": 8738,
      "Ð»Ð°ÑĪ": 8739,
      "Ġ67": 8740,
      "á»ĩt": 8741,
      "ÑĭÐ²": 8742,
      "rah": 8743,
      "Ġ×ķ×ŀ×": 8744,
      "à¸±à¸Ļ": 8745,
      "à©Ģà¨Ĩ": 8746,
      "à¥ĩà¤ķà¥ĭ": 8747,
      "ring": 8748,
      "Ġsubd": 8749,
      "ì¶ľìŀ¥ë§ĪìĤ¬ì§Ģ": 8750,
      "iller": 8751,
      "Ð»Ð¾Ð²": 8752,
      "ÎºÏĮ": 8753,
      "isin": 8754,
      "Ġéĩ": 8755,
      "ĠCons": 8756,
      "å¿«ä¹Ĳ": 8757,
      "à¦¾à¦ª": 8758,
      "ced": 8759,
      "Ġàªļ": 8760,
      "ĠÑĤÓ©": 8761,
      "Ġteen": 8762,
      "ÙĨØª": 8763,
      "Õ¡ÕµÕ«": 8764,
      "±áĢĽ": 8765,
      "Ġtelah": 8766,
      "ĠFi": 8767,
      "ì°": 8768,
      "Å¡ana": 8769,
      "fen": 8770,
      "Ġà¤¡": 8771,
      "ĠbÅ«": 8772,
      "éĩĮ": 8773,
      "áĢ·áĢ": 8774,
      "ezd": 8775,
      "Ġìĺ¤íĶĦíĻĶìĿ´íĬ¸": 8776,
      "ĠÐ¿Ð¾Ñĩ": 8777,
      "Ġrequ": 8778,
      "àª§": 8779,
      "ĠWest": 8780,
      "ĠUN": 8781,
      "ungan": 8782,
      "itate": 8783,
      "date": 8784,
      "avi": 8785,
      "Ġtelefon": 8786,
      "abo": 8787,
      "Ġà¤¹à¥Īà¤Ĥ": 8788,
      "Ġkhi": 8789,
      "ĠPen": 8790,
      "FF": 8791,
      "ÙĬÙģ": 8792,
      "Ð±Ð¾ÑĢ": 8793,
      "Ġà¶Ĵ": 8794,
      "Ġkami": 8795,
      "ãĥĥãĥĪ": 8796,
      "ÉĻlÉĻr": 8797,
      "±àµĨ": 8798,
      "skap": 8799,
      "ander": 8800,
      "ĠØ¥ÙĦÙī": 8801,
      "ĠÐºÑŀ": 8802,
      "Ġanak": 8803,
      "à°¿à°²": 8804,
      "azio": 8805,
      "atta": 8806,
      "ĠÑĤÐµÑħ": 8807,
      "ĠPC": 8808,
      "íĮ": 8809,
      "æį": 8810,
      "áŁģáŀŁ": 8811,
      "á»Ŀi": 8812,
      "Î»ÎŃ": 8813,
      "SS": 8814,
      "ĠáĢĽáĢ": 8815,
      "ĠVil": 8816,
      "ÖĢÕ¡Õ¶": 8817,
      "lim": 8818,
      "car": 8819,
      "à°Ĥà°Ĺà°¾": 8820,
      "reen": 8821,
      "Phone": 8822,
      "Ġáº": 8823,
      "ĠÐ´ÐµÐ¿": 8824,
      "ĠUSD": 8825,
      "ĠMont": 8826,
      "æľį": 8827,
      "ÑģÑįÐ½": 8828,
      "Ġmask": 8829,
      "ìĬµ": 8830,
      "ãĥŀ": 8831,
      "Ö´": 8832,
      "Ġbaz": 8833,
      "Ġbad": 8834,
      "Ġano": 8835,
      "áĥĲáĥĻ": 8836,
      "estiv": 8837,
      "cul": 8838,
      "ĠçļĦ": 8839,
      "Ġà´¶": 8840,
      "Ġà¤ķà¤¾à¤°": 8841,
      "Ġspec": 8842,
      "Ġgew": 8843,
      "Ð°Ð»ÑĤ": 8844,
      "Ã§Ä±": 8845,
      "ijk": 8846,
      "Ġ×ŀ×§": 8847,
      "ĠÐ¼Ð¾Ð¶Ðµ": 8848,
      "ĠCi": 8849,
      "áĥĲáĥĴ": 8850,
      "×ķ×ł×Ķ": 8851,
      "Ð´Ñĥ": 8852,
      "akse": 8853,
      "****": 8854,
      "ĠÐ¿Ð°Ð´": 8855,
      "ĠvÃµi": 8856,
      "Ġindiv": 8857,
      "ĠPentru": 8858,
      "Ġíķľ": 8859,
      "à¨¬": 8860,
      "Î»Î®": 8861,
      "oba": 8862,
      "hir": 8863,
      "abor": 8864,
      "Ġâķ": 8865,
      "Ġrest": 8866,
      "Ġkuri": 8867,
      "åĪĨå½©": 8868,
      "ÙĦÙĩ": 8869,
      "Ð°Ð½Ðµ": 8870,
      "reb": 8871,
      "ÓĻÑģ": 8872,
      "))": 8873,
      "Ġà¦¬à¦²": 8874,
      "ĠØ¯ÙĪ": 8875,
      "á»ı": 8876,
      "Ð³Ñĸ": 8877,
      "ovat": 8878,
      "ãģ¿": 8879,
      "Å©": 8880,
      "oji": 8881,
      "ĠÐ¡ÑĤ": 8882,
      "ĠÃ¼Ã§": 8883,
      "Ġnost": 8884,
      "è®¡åĪĴ": 8885,
      "à¤¾à¤ļ": 8886,
      "Ø§Ùĭ": 8887,
      "Ð½Ð°ÑĤ": 8888,
      "»áĢķ": 8889,
      "Ġ×Ķ×ł": 8890,
      "ĠÔ¿": 8891,
      "Ġmam": 8892,
      "áĢ¬áĢĦáĢ¹áĢ": 8893,
      "à¸Ńà¸ļ": 8894,
      "à´¨àµįà´¤": 8895,
      "à¥ģà¤²": 8896,
      "ĠÐ±Ð°ÑĪ": 8897,
      "Ġnur": 8898,
      "Ġinfo": 8899,
      "ĠSta": 8900,
      "à¶ł": 8901,
      "Ð²Ð°ÑĢ": 8902,
      "iais": 8903,
      "ĠÎ¾": 8904,
      "àª¶": 8905,
      "ÑĦÐ¾ÑĢÐ¼": 8906,
      "Ġvez": 8907,
      "ãģĦãĤĭ": 8908,
      "Ġåľ¨": 8909,
      "Ġà¤Ł": 8910,
      "Ġuchun": 8911,
      "ĠTw": 8912,
      "elik": 8913,
      "Ġæī": 8914,
      "Ġà¸ķ": 8915,
      "ç¾İ": 8916,
      "Ø¨Ø¯": 8917,
      "Ġbox": 8918,
      "ney": 8919,
      "ĠÐ´Ð¾Ð»": 8920,
      "Ġupang": 8921,
      "Ġbill": 8922,
      "ris": 8923,
      "kal": 8924,
      "ĠÐ±ÑĸÑĢ": 8925,
      "ĠnÃ¥": 8926,
      "liy": 8927,
      "ĠTÃ¼rk": 8928,
      "à§įà¦ª": 8929,
      "rive": 8930,
      "olg": 8931,
      "may": 8932,
      "ĠÐ³Ð¾Ð»": 8933,
      "ĠJes": 8934,
      "Ġ61": 8935,
      "sÃ©g": 8936,
      "encia": 8937,
      "Ġáŀķ": 8938,
      "ĠÚĪ": 8939,
      "ĠØ¬Ùħ": 8940,
      "ĠÐ´Ð°Ð²": 8941,
      "Ġsku": 8942,
      "Ġmont": 8943,
      "ĠSH": 8944,
      "ĠAh": 8945,
      "à¹īà¸²à¸Ļ": 8946,
      "à«ĩàª®": 8947,
      "Ġbab": 8948,
      "Äĵc": 8949,
      "zz": 8950,
      "annya": 8951,
      "Ġ94": 8952,
      "Ġ91": 8953,
      "Õ¥Õ¬Õ¸ÖĤ": 8954,
      "Ð¾ÑĤÐ¾ÑĢ": 8955,
      "Ð³Ð¸Ð¹Ð½": 8956,
      "log": 8957,
      "Ġmap": 8958,
      "Ð°ÑĢÑĥ": 8959,
      "tat": 8960,
      "iyat": 8961,
      "ĠNy": 8962,
      "áĥłáĥĹ": 8963,
      "inis": 8964,
      "Ġsubdomain": 8965,
      "Ġstor": 8966,
      "ĠMac": 8967,
      "ĠâĢİ": 8968,
      "ĠvÃŃ": 8969,
      "ĠJos": 8970,
      "Ð¶Ð°Ð²": 8971,
      "uses": 8972,
      "Ġà²®à²¤à³įà²¤": 8973,
      "Ġsun": 8974,
      "Ġped": 8975,
      "ĠAnt": 8976,
      "éĶ": 8977,
      "ÖĦÕ«": 8978,
      "Ã©se": 8979,
      "ĠDar": 8980,
      "ĠCC": 8981,
      "à´¾à´¯à´¿": 8982,
      "ety": 8983,
      "07": 8984,
      "ĠÎ¤Î¿": 8985,
      "Ġforma": 8986,
      "taj": 8987,
      "Ġ73": 8988,
      "à®¿à®µ": 8989,
      "uq": 8990,
      "img": 8991,
      "ĠíĮ": 8992,
      "Ġì°": 8993,
      "Ġoder": 8994,
      "Ġkell": 8995,
      "íı¬": 8996,
      "è¯·": 8997,
      "áĥ¨": 8998,
      "ĠNr": 8999,
      "ĠBes": 9000,
      "æĢ§": 9001,
      "à¹Ģà¸Ľà¹ĩà¸Ļà¸": 9002,
      "ĠNovember": 9003,
      "dek": 9004,
      "ĶáŀŁáŁĭ": 9005,
      "ĠØ§ÙĦØµ": 9006,
      "ĠÑľÐµ": 9007,
      "ĠAD": 9008,
      "Î¿ÏħÎ¼Îµ": 9009,
      "mp": 9010,
      "ĠØ§ÛĮ": 9011,
      "ĠÎµÎ¯": 9012,
      "ĠÂ©": 9013,
      "Ġmac": 9014,
      "ãĤ³": 9015,
      "×ķ×Ķ": 9016,
      "ĠKan": 9017,
      "Ã¥l": 9018,
      "èµĦ": 9019,
      "vious": 9020,
      "jÃ³": 9021,
      "imm": 9022,
      "gl": 9023,
      "ĠÐ½ÐµÐº": 9024,
      "Ġtin": 9025,
      "ĠpÅĻÃŃ": 9026,
      "ĠSen": 9027,
      "ÏĦÎ¿ÏĤ": 9028,
      "asy": 9029,
      "ĢáĢŃáĢ¯": 9030,
      "ĠÐ·Ð°Ð²": 9031,
      "Ġish": 9032,
      "Ġcop": 9033,
      "è§Ħ": 9034,
      "åĬ¡": 9035,
      "àª¨à«įàª": 9036,
      "Õ¡Õ¾Õ¸ÖĢ": 9037,
      "ÏĢÎ±": 9038,
      "Ġ93": 9039,
      "íķĻ": 9040,
      "à´²àµįà´²": 9041,
      "mek": 9042,
      "kv": 9043,
      "ĠÐłÐµÑģÐ¿ÑĥÐ±Ð»Ð¸Ðº": 9044,
      "äºĮ": 9045,
      "à¶¯à·Ķ": 9046,
      "egu": 9047,
      "agen": 9048,
      "Ġkre": 9049,
      "áºŃt": 9050,
      "à¶ºà·ļ": 9051,
      "yal": 9052,
      "udio": 9053,
      "Te": 9054,
      "IJ": 9055,
      "Ġlength": 9056,
      "ÙĦÙģ": 9057,
      "ÏĥÏĦ": 9058,
      "Ġà¸ģ": 9059,
      "Ġ×Ķ×Ĵ": 9060,
      "Ġmodel": 9061,
      "ÐĺÐ": 9062,
      "erne": 9063,
      "Ġà¤¨à¥ĩ": 9064,
      "ĠpÃ¤": 9065,
      "Ġday": 9066,
      "avad": 9067,
      "æĺİ": 9068,
      "å·ŀ": 9069,
      "ÙĤÛĮ": 9070,
      "IO": 9071,
      "888": 9072,
      "à±ģà°µ": 9073,
      "à¥ĥ": 9074,
      "ĠÐ´Ð·": 9075,
      "ĠÐ°Ð¿": 9076,
      "Ġkum": 9077,
      "à¥įà¤ķ": 9078,
      "ÑĥÑģÑĤ": 9079,
      "NS": 9080,
      "ĠãģĿ": 9081,
      "Ġ×ŀ×ł": 9082,
      "Ġlaik": 9083,
      "Õ¡ÖĢÕ¯": 9084,
      "ĠSeptember": 9085,
      "Ġà´İà´¨àµįà´¨": 9086,
      "Ġ900": 9087,
      "ìĺ¤": 9088,
      "ĠáĭŃ": 9089,
      "ĠÐºÓ©ÑĢ": 9090,
      "Ġcir": 9091,
      "åĽŀ": 9092,
      "Ð¸Ð¼Ð¸": 9093,
      "Ġmobil": 9094,
      "Ġä¸į": 9095,
      "Ġà¤ĩà¤¸": 9096,
      "ĠØ¨Ø§Ø²": 9097,
      "ĠÐ¿Ð°": 9098,
      "ĠKal": 9099,
      "ĠBak": 9100,
      "áŁį": 9101,
      "áŀīáŁĴáŀ": 9102,
      "enye": 9103,
      "arbe": 9104,
      "BF": 9105,
      "Ġáį¢": 9106,
      "ĠÚĨÛĲ": 9107,
      "Ġhg": 9108,
      "çī¹": 9109,
      "ĠPan": 9110,
      "ë£": 9111,
      "à¸¸à¸ĵ": 9112,
      "à¸´à¸Ļà¸": 9113,
      "àª¿àªķ": 9114,
      "rok": 9115,
      "ĠSet": 9116,
      "Ġæŀ": 9117,
      "Ġàª®àª¾àª": 9118,
      "ĠÐ³Ð¸": 9119,
      "Ġnow": 9120,
      "ĠéĢ": 9121,
      "Ġplat": 9122,
      "ĠÃĹ": 9123,
      "ìļĶ": 9124,
      "á»įc": 9125,
      "×©×ª": 9126,
      "ĠÐ·Ð°Ð±": 9127,
      "ĠÅ¡t": 9128,
      "Ġsuk": 9129,
      "ìłģ": 9130,
      "à¤¹à¤°": 9131,
      "itle": 9132,
      "hk": 9133,
      "à¶±à·ı": 9134,
      "à²¾à²°à³Ĩ": 9135,
      "eken": 9136,
      "ĠØ¨Ø¯": 9137,
      "Ġzb": 9138,
      "ĠHal": 9139,
      "Ġ71": 9140,
      "Õ¡ÖĢÕ¿": 9141,
      "iske": 9142,
      "Ġà¨¹à©ĭ": 9143,
      "ĠÃª": 9144,
      "raw": 9145,
      "ĠáŀĬáŁĤáŀĽ": 9146,
      "ĠÏĥÎ±ÏĤ": 9147,
      "ĠÄĳá»ĥ": 9148,
      "Ġpow": 9149,
      "Ġmoet": 9150,
      "ĠBus": 9151,
      "ØªÙĬ": 9152,
      "zd": 9153,
      "ĠáĬ¥áĬķ": 9154,
      "ĠÙħÛĮâĢĮ": 9155,
      "Ġmoun": 9156,
      "ĠMor": 9157,
      "Ġê³ł": 9158,
      "Ġiden": 9159,
      "Ġbot": 9160,
      "ĠMic": 9161,
      "ì¹´ëĿ¼": 9162,
      "ä»ĸ": 9163,
      "á»ĳi": 9164,
      "Ø¨ÙĦ": 9165,
      "ily": 9166,
      "LA": 9167,
      "Ġverd": 9168,
      "Ġnaar": 9169,
      "Ġarg": 9170,
      "×¥": 9171,
      "ªàµįà´ª": 9172,
      "kil": 9173,
      "Ad": 9174,
      "èį": 9175,
      "ÏĦÎµÏĤ": 9176,
      "Ã¡p": 9177,
      "icht": 9178,
      "Ġthá»ĥ": 9179,
      "ĠáĥĿ": 9180,
      "Ġàªªàª°": 9181,
      "à±ģà°²à±ģ": 9182,
      "ÑĤÐ¸ÑĢ": 9183,
      "umo": 9184,
      "stand": 9185,
      "ĠÐ¼ÐµÑĤ": 9186,
      "ÏĦÎ±ÏĤ": 9187,
      "ĠÐ´ÐµÐ»": 9188,
      "Ġ800": 9189,
      "à§ĩà¦ĩ": 9190,
      "à§Ĥ": 9191,
      "Ġpens": 9192,
      "áŀ·áŀı": 9193,
      "Ð»Ð¸Ð²": 9194,
      "ÏĢÎµ": 9195,
      "ĠØ§ÙĦÙĥ": 9196,
      "ĠpÅĻed": 9197,
      "Ġlai": 9198,
      "Ġach": 9199,
      "áŀĶáŀ¶áŀĵ": 9200,
      "Ã¦l": 9201,
      "CE": 9202,
      "ĠÙĦÛĮ": 9203,
      "Ġlong": 9204,
      "å±ķ": 9205,
      "à®¾à®°à¯į": 9206,
      "lega": 9207,
      "ĠÐ¾Ð±Ð»": 9208,
      "Ġcontr": 9209,
      "ĠTR": 9210,
      "ìŀĦ": 9211,
      "Ð°ÑĨÐ¸Ð¸": 9212,
      "sv": 9213,
      "ĠáĢŀ": 9214,
      "ĠÅ¾iv": 9215,
      "Ġhol": 9216,
      "Ġly": 9217,
      "ĠfÃ¸r": 9218,
      "äº¬": 9219,
      "à¯ģà®³": 9220,
      "iji": 9221,
      "ican": 9222,
      "Ġâľ": 9223,
      "Ġà¶ĭ": 9224,
      "Ġà²¯": 9225,
      "ĠÑģÑĤÑĢ": 9226,
      "å®¢æĪ·": 9227,
      "à¸²à¸Ħ": 9228,
      "ÙĤØ©": 9229,
      "ĠÐºÐ°ÐºÐ¾": 9230,
      "Ġbilan": 9231,
      "ĠPri": 9232,
      "Ġ79": 9233,
      "áŀ¾áŀĦ": 9234,
      "Ð¶Ðµ": 9235,
      "Ġà²ī": 9236,
      "ĠØ«": 9237,
      "à¹Ĩ": 9238,
      "à¸£à¸¡": 9239,
      "zÄħ": 9240,
      "oru": 9241,
      "Ġwere": 9242,
      "Ġradi": 9243,
      "áŀ¶áŀħ": 9244,
      "Ø³Ø¨": 9245,
      "Ð°ÑĤÐ°ÑĢ": 9246,
      "ĠØ§ÙĦØ±": 9247,
      "ĠÎµÎ¾": 9248,
      "ĠLas": 9249,
      "æĦı": 9250,
      "Ãºbl": 9251,
      "Ã³g": 9252,
      "Ã¦t": 9253,
      "Ġzam": 9254,
      "äº§": 9255,
      "áŀĺáŀ¶áŀĵ": 9256,
      "uble": 9257,
      "ithe": 9258,
      "cep": 9259,
      "ĻáĢ»": 9260,
      "ĠØ¯Ø§Ø±": 9261,
      "Ġmut": 9262,
      "Ġiki": 9263,
      "æĻĤ": 9264,
      "à»ģàº": 9265,
      "àµĪ": 9266,
      "Ð½Ð°Ñĩ": 9267,
      "Äĥng": 9268,
      "almente": 9269,
      "ĠJanuar": 9270,
      "Ġkod": 9271,
      "Ð¸Ð»ÑĮ": 9272,
      "ÐµÑĤÑģÑı": 9273,
      "Ġê²½": 9274,
      "ĠÕ¥ÖĢÕ": 9275,
      "orth": 9276,
      "abar": 9277,
      "Ġàª¥": 9278,
      "ĠÕºÕ¡Õ¿": 9279,
      "Ġqo": 9280,
      "ĠRus": 9281,
      "Ġ???": 9282,
      "çľĭ": 9283,
      "à²ķà³įà²ķà³Ĩ": 9284,
      "Ĺàºµ": 9285,
      "Ġimportant": 9286,
      "Ġdost": 9287,
      "Ġcomment": 9288,
      "Ġapl": 9289,
      "àª¿àª¯": 9290,
      "UK": 9291,
      "Class": 9292,
      "Ġyn": 9293,
      "Ġsuc": 9294,
      "ĠMel": 9295,
      "rot": 9296,
      "kaz": 9297,
      "enter": 9298,
      "egen": 9299,
      "666": 9300,
      "ĠÙĪÛģ": 9301,
      "ĠÏĢÏģÎ¿Ïĥ": 9302,
      "Ġwho": 9303,
      "ĠsÃ©r": 9304,
      "Ġ??": 9305,
      "æ¼": 9306,
      "ä¸İ": 9307,
      "à¸£à¸ĩ": 9308,
      "Ġï¿½ï¿½ï¿½ï¿½ï¿½ï¿½ï¿½ï¿½ï¿½": 9309,
      "à¹Ģà¸«": 9310,
      "0000": 9311,
      "ĠÕĨ": 9312,
      "ĠÑĩÐµ": 9313,
      "ĠSA": 9314,
      "dn": 9315,
      "Ġlagi": 9316,
      "Ġcur": 9317,
      "ĠKol": 9318,
      "åįĹ": 9319,
      "ÑĬÑĤ": 9320,
      "Ġedil": 9321,
      "ĠTu": 9322,
      "ĠCasino": 9323,
      "áĥĽáĥĲ": 9324,
      "eck": 9325,
      "Ġrum": 9326,
      "Ð°ÑĹ": 9327,
      "\\\"": 9328,
      "Ġneed": 9329,
      "Ġdrug": 9330,
      "Ø®Ø±": 9331,
      "dar": 9332,
      "Ġ92": 9333,
      "Ġà¤ħà¤¨": 9334,
      "Ġinformation": 9335,
      "ĠhÃ¤r": 9336,
      "Ġelse": 9337,
      "ĠPak": 9338,
      "à°°à±į": 9339,
      "Ò»": 9340,
      "Å£i": 9341,
      "ĠsÃ¼": 9342,
      "áģ¾áĢĢ": 9343,
      "omas": 9344,
      "ĠÙĦØ§": 9345,
      "Ġsome": 9346,
      "ìĭł": 9347,
      "à®¿à®¤à¯įà®¤": 9348,
      "ols": 9349,
      "Ġà¸Ľ": 9350,
      "ĠØ®ÙĪØ¯": 9351,
      "ĠÐ´ÐµÐºÐ°": 9352,
      "Ġkle": 9353,
      "ĠCal": 9354,
      "Î·Î½": 9355,
      "±áĢĶáĢ": 9356,
      "erta": 9357,
      "Ġactu": 9358,
      "ë²ķ": 9359,
      "perti": 9360,
      "imento": 9361,
      "Ġà¹ģà¸¥à¸°": 9362,
      "Ġà´ħà´µ": 9363,
      "ĠØ³ÙĪ": 9364,
      "Ġ×ľ×¤": 9365,
      "ĠÏĥÏĦÎ±": 9366,
      "Ġworden": 9367,
      "ÑĢÐ´": 9368,
      "ĠSv": 9369,
      "ĠSand": 9370,
      "ĠNext": 9371,
      "à²²à³ģ": 9372,
      "ÙĬØ§Øª": 9373,
      "ukt": 9374,
      "åİ¿": 9375,
      "Ú©ÙĨ": 9376,
      "hand": 9377,
      "ĠØŁ": 9378,
      "Ġtud": 9379,
      "eling": 9380,
      "Ġunivers": 9381,
      "ķáĢ«áĢ": 9382,
      "Ġëħ": 9383,
      "Ġ×Ĳ×¤": 9384,
      "ĠÐ³Ð°ÑĢ": 9385,
      "Ġfinan": 9386,
      "dÄ±": 9387,
      "ĠëĤĺ": 9388,
      "Ġà¦Ľ": 9389,
      "ĠØ¨ÛĮ": 9390,
      "ĠÐºÒ¯": 9391,
      "Ġ[/": 9392,
      "ĠNav": 9393,
      "ĠDav": 9394,
      "ÑĢÑĤ": 9395,
      "ÑĢÐ¸": 9396,
      "fel": 9397,
      "Ġokt": 9398,
      "Ġdef": 9399,
      "ĠWat": 9400,
      "Ð°Ð¾": 9401,
      "dal": 9402,
      "ahr": 9403,
      "Ġhart": 9404,
      "Ġhari": 9405,
      "ĠSon": 9406,
      "à·Ķà¶«": 9407,
      "ossa": 9408,
      "ries": 9409,
      "ĠÕ¦": 9410,
      "ĠÐ¾Ñĩ": 9411,
      "Ġhod": 9412,
      "çĿĢ": 9413,
      "à¯Īà®ķ": 9414,
      "Ð°Ð¹Ð½": 9415,
      "skÃ©": 9416,
      "elles": 9417,
      "01": 9418,
      "ÑĩÑĭ": 9419,
      "usu": 9420,
      "ĠPD": 9421,
      "stan": 9422,
      "ihan": 9423,
      "atas": 9424,
      "08": 9425,
      "Ġvast": 9426,
      "Ġsatu": 9427,
      "Ġdod": 9428,
      "ĠLatv": 9429,
      "ĠCont": 9430,
      "à±Īà°¨": 9431,
      "ÄįiÅ³": 9432,
      "ustom": 9433,
      "Ġå¼": 9434,
      "ĠáŀĻ": 9435,
      "ĠØªÙĨ": 9436,
      "ç²": 9437,
      "à´¶": 9438,
      "à³įà²ª": 9439,
      "olf": 9440,
      "Ġgaz": 9441,
      "Ġflo": 9442,
      "Ġbehar": 9443,
      "Ġani": 9444,
      "ĠIk": 9445,
      "àºģàº": 9446,
      "ÏģÎ®": 9447,
      "mÉĻk": 9448,
      "Ġwhat": 9449,
      "ĠSem": 9450,
      "æ¡": 9451,
      "rie": 9452,
      "Ġlum": 9453,
      "Ġfoto": 9454,
      "ĠVan": 9455,
      "à´²àµįâĢį": 9456,
      "ÑĤÑĸ": 9457,
      "inya": 9458,
      "ĠÒĽÐ¾Ð»": 9459,
      "Ġdivers": 9460,
      "é©": 9461,
      "à´¿à´¨àµįà´": 9462,
      "à¥įà¤°à¥Ģ": 9463,
      "ÑĸÐ½Ð´Ðµ": 9464,
      "uki": 9465,
      "mÄ±ÅŁ": 9466,
      "Ġvad": 9467,
      "Ġbeen": 9468,
      "ligt": 9469,
      "Ġà°ı": 9470,
      "ãĥĨ": 9471,
      "abb": 9472,
      "ĠÑģÐ°Ð½": 9473,
      "ĠÃļ": 9474,
      "Ġgood": 9475,
      "ĠInn": 9476,
      "Ġ->": 9477,
      "áĢĦáĢ·": 9478,
      "iday": 9479,
      "ĠÒļÐ°Ð·Ð°ÒĽ": 9480,
      "ĠVers": 9481,
      "ç±": 9482,
      "inder": 9483,
      "Ġdisc": 9484,
      "ãģ®ãģ§": 9485,
      "roll": 9486,
      "job": 9487,
      "ĠÃİ": 9488,
      "Ġopen": 9489,
      "å¼ı": 9490,
      "Ð³Ò¯Ð¹": 9491,
      "ĠáĥĴáĥĲáĥľ": 9492,
      "ĠÙĨÙĩ": 9493,
      "ĠÓĺ": 9494,
      "Ġsens": 9495,
      "è¯´": 9496,
      "åĪĹ": 9497,
      "à°ļà±įà°ļ": 9498,
      "Ø§ÙĨØ¯": 9499,
      "ĠAfrika": 9500,
      "ê²½": 9501,
      "áĥ¦": 9502,
      "ÏĬ": 9503,
      "UB": 9504,
      "ĠfrÃ¡": 9505,
      "emm": 9506,
      "amshi": 9507,
      "ĠLeg": 9508,
      "ë¹Ħì": 9509,
      "âĢ¦âĢ¦": 9510,
      "áĥĺáĥĲáĥľ": 9511,
      "à§įà¦¥": 9512,
      "Õ¸ÖĤÖĢ": 9513,
      "ÏĥÎ¿": 9514,
      "ilik": 9515,
      "esz": 9516,
      "QW": 9517,
      "Ġáĥª": 9518,
      "ĠàªĨàªµ": 9519,
      "ĠveÄį": 9520,
      "Ò±Ð»": 9521,
      "itud": 9522,
      "eker": 9523,
      "à°°à°¿à°": 9524,
      "ÙĳÙİ": 9525,
      "ÐµÐ³ÐµÐ½": 9526,
      "Ð³Ð°ÑĢ": 9527,
      "bang": 9528,
      "anja": 9529,
      "ĠÐ¿Ð¾ÑĤ": 9530,
      "ĠÐĪ": 9531,
      "Úĺ": 9532,
      "×ŀ×ķ": 9533,
      "Ð´Ð°Ð¹": 9534,
      "Ð°ÑĤÑĭÐ½": 9535,
      "uhan": 9536,
      "Ġà²®à³ģ": 9537,
      "Ġelementor": 9538,
      "ĠLE": 9539,
      "à¸ĭ": 9540,
      "atori": 9541,
      "ĠEU": 9542,
      "á»ī": 9543,
      "àµģà´¨àµįà´¨àµģ": 9544,
      "Ġbund": 9545,
      "áĪ°": 9546,
      "àµįà´ŀ": 9547,
      "Ø¨ÛĮ": 9548,
      "abr": 9549,
      "Ġpang": 9550,
      "Ġhow": 9551,
      "áŁĴáŀĵáŀĢ": 9552,
      "ÙĨÙĬ": 9553,
      "Ã¦g": 9554,
      "ĨáŁĴáŀĵ": 9555,
      "Õ¡ÖĢÕ£": 9556,
      "Ð²Ð°Ð»": 9557,
      "Ġvr": 9558,
      "åı¸": 9559,
      "àµģà´³àµįà´³": 9560,
      "ĠÏĢÎ¿": 9561,
      "Ġvolt": 9562,
      "Ġresta": 9563,
      "Ġged": 9564,
      "ìłľ": 9565,
      "ÎŃÏģ": 9566,
      "ebruik": 9567,
      "ĠáĪĪ": 9568,
      "ĠÐºÐ°Ð¼": 9569,
      "Ġglob": 9570,
      "Ġblack": 9571,
      "ĠCast": 9572,
      "Ġ;-": 9573,
      "uat": 9574,
      "Î»Î¯": 9575,
      "Ġener": 9576,
      "æĿĳ": 9577,
      "å°Ĩ": 9578,
      "à©ľ": 9579,
      "à¤¤à¥ĩ": 9580,
      "Ã¢nd": 9581,
      "ĠÙĦÙĪ": 9582,
      "Ġhigh": 9583,
      "ĠAC": 9584,
      "à¤¾à¤ı": 9585,
      "ÏĦÎ¹ÎºÎ¬": 9586,
      "unci": 9587,
      "ollow": 9588,
      "Ġras": 9589,
      "ĠGen": 9590,
      "ê¸Ī": 9591,
      "Å¼y": 9592,
      "zia": 9593,
      "emo": 9594,
      "Ġà«": 9595,
      "ĠvÅ¡": 9596,
      "icz": 9597,
      "ĠÐ½Ð°Ñĺ": 9598,
      "áĥĺáĥķ": 9599,
      "wala": 9600,
      "Ġati": 9601,
      "äº¤": 9602,
      "áŁĨáŀĵ": 9603,
      "×©×Ķ": 9604,
      "Îľ": 9605,
      "edy": 9606,
      "cas": 9607,
      "ĠÐ¿ÑĸÐ´": 9608,
      "å»º": 9609,
      "ĠØ§ØŃ": 9610,
      "Ġonly": 9611,
      "ĠOut": 9612,
      "çĽ¸": 9613,
      "ãĥī": 9614,
      "à°¾à°µ": 9615,
      "×¨×Ļ": 9616,
      "icial": 9617,
      "ĠTim": 9618,
      "éķ¿": 9619,
      "473": 9620,
      "áĥĶáĥļáĥĺ": 9621,
      "áº½": 9622,
      "à¶ºà¶ļà·Ĭ": 9623,
      "àŃ": 9624,
      "Ġë¹": 9625,
      "Ġç§": 9626,
      "Ġà°Ĵ": 9627,
      "Ġshum": 9628,
      "Ġever": 9629,
      "Ġcos": 9630,
      "çĽ´": 9631,
      "áŀ¼áŀĽ": 9632,
      "áŀĴáŀ": 9633,
      "à¨¿à©±à¨": 9634,
      "was": 9635,
      "usti": 9636,
      "Ġrefer": 9637,
      "ĠHor": 9638,
      "Ġ>>": 9639,
      "ì¹´ì§Ģëħ¸": 9640,
      "ĠâĨĳ": 9641,
      "Ġkg": 9642,
      "Ġagçİ¯äºļ": 9643,
      "Ġ%;": 9644,
      "áŁĴáŀĦ": 9645,
      "×¨×Ľ": 9646,
      "ljen": 9647,
      "ities": 9648,
      "Ġarbe": 9649,
      "inst": 9650,
      "agu": 9651,
      "ĸáĢ¼áĢ": 9652,
      "ĠØ²ÛĮ": 9653,
      "áĥķáĥĺáĥ¡": 9654,
      "à¤¿à¤®": 9655,
      "ÎµÏĦÎ±Î¹": 9656,
      "Īìķ½": 9657,
      "Ġrqt": 9658,
      "Ġpog": 9659,
      "ĠVir": 9660,
      "ĠBre": 9661,
      "æĬ¥": 9662,
      "Ã«ve": 9663,
      "Ġà°¯": 9664,
      "Ġthan": 9665,
      "ĠInternet": 9666,
      "ĠAP": 9667,
      "ondo": 9668,
      "istÃ¤": 9669,
      "eksi": 9670,
      "Ġsis": 9671,
      "Ġpic": 9672,
      "Ġina": 9673,
      "Ò³Ð¾Ð¸": 9674,
      "ÎŁÎ¥": 9675,
      "lk": 9676,
      "ĠÕ´Õ¡Õ½": 9677,
      "áĥĶáĥĴ": 9678,
      "à¹Ģà¸ª": 9679,
      "try": 9680,
      "abel": 9681,
      "Ġtent": 9682,
      "eiro": 9683,
      "Ġmake": 9684,
      "ģéĢŁ": 9685,
      "ĠÃ¼z": 9686,
      "Ġà®ķà¯Ĭ": 9687,
      "ĠØ³Ø§ÙĦ": 9688,
      "ç³": 9689,
      "à¤¾à¤ģ": 9690,
      "onesia": 9691,
      "Type": 9692,
      "06": 9693,
      "Ġáĥ¢": 9694,
      "ĠØ§ÙĨØª": 9695,
      "Ġsik": 9696,
      "ĠmÄĽ": 9697,
      "ĠSRS": 9698,
      "àµģà´µ": 9699,
      "Ð¾Ð²Ðµ": 9700,
      "isme": 9701,
      "ingi": 9702,
      "iger": 9703,
      "ĠÃºt": 9704,
      "ĠCu": 9705,
      "éĢģ": 9706,
      "Ã¹ng": 9707,
      "ĠÐ¸Ð¼Ð°": 9708,
      "Ġill": 9709,
      "ÙĪØ±ÛĮ": 9710,
      "lep": 9711,
      "ĠÐ½Ñı": 9712,
      "ĠGener": 9713,
      "æµ·": 9714,
      "Ð½Ð¾Ðµ": 9715,
      "Ġvagy": 9716,
      "æ´²": 9717,
      "ĠÏĢÎ¿Î»": 9718,
      "ĠIf": 9719,
      "áŀ»áŀĵ": 9720,
      "áĥĺáĥļáĥĺ": 9721,
      "ÙĦÙĪ": 9722,
      "Ã¡st": 9723,
      "Ġlis": 9724,
      "Îł": 9725,
      "Ġrqid": 9726,
      "åįļ": 9727,
      "áĬŃ": 9728,
      "oke": 9729,
      "laÅŁ": 9730,
      "istas": 9731,
      "GC": 9732,
      "Ġtersebut": 9733,
      "Ġlain": 9734,
      "Ġanal": 9735,
      "Ġaktiv": 9736,
      "ĠTech": 9737,
      "ĠRad": 9738,
      "Ġãģ¨": 9739,
      "ãĤ»": 9740,
      "eira": 9741,
      "ľì¶ľìŀ¥": 9742,
      "ĠÐĹÐ°": 9743,
      "Ġbig": 9744,
      "ĠLA": 9745,
      "à¸²à¸§": 9746,
      "à·Ĵà¶±": 9747,
      "à²Łà³įà²Ł": 9748,
      "ÑģÑĤÐ²ÐµÐ½": 9749,
      "Ð°ÑĤÐµÐ»": 9750,
      "oci": 9751,
      "iren": 9752,
      "asyon": 9753,
      "Ġà¤°à¤¹": 9754,
      "Ġperi": 9755,
      "Ġnok": 9756,
      "Ġlen": 9757,
      "ĠfÃ¥r": 9758,
      "à²§": 9759,
      "à°Ń": 9760,
      "kn": 9761,
      "arn": 9762,
      "Ġç»": 9763,
      "Ġ×ķ×ĳ": 9764,
      "ĠÐ²ÐµÑĢ": 9765,
      "ĠÎ¼Î±ÏĤ": 9766,
      "ĠÂ±": 9767,
      "Ġtor": 9768,
      "Ġkim": 9769,
      "Ġbáº¡n": 9770,
      "Ġara": 9771,
      "Ġaquest": 9772,
      "udz": 9773,
      "à°¾à°²à±ģ": 9774,
      "ĠÎ¼Î¹Î±": 9775,
      "ĠNEW": 9776,
      "à¹īà¸Ļ": 9777,
      "Õ¸Öģ": 9778,
      "isht": 9779,
      "QU": 9780,
      "ĠÃ¼Ã§Ã¼n": 9781,
      "Ġselv": 9782,
      "×ķ×£": 9783,
      "ÐºÐ°Ð½": 9784,
      "Ġà¹ĥ": 9785,
      "Ġà¨¤à©ĩ": 9786,
      "ĠÂ¼": 9787,
      "Ġstrat": 9788,
      "Ġfunk": 9789,
      "à®¾à®µ": 9790,
      "ĠØ¨Ø¹Ø¯": 9791,
      "ĠOne": 9792,
      "ê²©": 9793,
      "ê´Ģ": 9794,
      "åķĨ": 9795,
      "zon": 9796,
      "ä½į": 9797,
      "àºª": 9798,
      "Ø§Ø¦ÛĴ": 9799,
      "ÐµÑļÐµ": 9800,
      "Ġsearch": 9801,
      "Ġpng": 9802,
      "è£ħ": 9803,
      "uren": 9804,
      "adingin": 9805,
      "Ġ×ŀ×ĵ": 9806,
      "Ġsept": 9807,
      "Ġlot": 9808,
      "Ġaiadingin": 9809,
      "ÑĤÑĮÑģÑı": 9810,
      "Ð°Ð½Ð¸Ñı": 9811,
      "Ġà´²": 9812,
      "ĠÐ±Ð¾ÑĢ": 9813,
      "Ġwant": 9814,
      "éĢī": 9815,
      "æīĢ": 9816,
      "pak": 9817,
      "jas": 9818,
      "Ġàªĸ": 9819,
      "ĠÑĤÑĥ": 9820,
      "ĠÃ¾e": 9821,
      "Ġefter": 9822,
      "áĢŃáĢ¯áĢĦáĢ¹áĢ": 9823,
      "qq": 9824,
      "iac": 9825,
      "ŀàµįà´ŀ": 9826,
      "Ġtout": 9827,
      "ĠnÃº": 9828,
      "Ġeb": 9829,
      "æł¼": 9830,
      "à±ģà°¡à±ģ": 9831,
      "Õ¸ÖĤÕ©ÕµÕ¸ÖĤÕ¶Õ¨": 9832,
      "Ġáŀĺáŀ¶áŀĵ": 9833,
      "ĠÐ·Ð°ÑĢ": 9834,
      "Ġput": 9835,
      "Ġdam": 9836,
      "ĠEz": 9837,
      "å®¢æĪ·ç«¯": 9838,
      "à²¿à²²à³įà²²": 9839,
      "ÑĭÐ»Ð°ÑĢ": 9840,
      "09": 9841,
      "Ġë¶Ģ": 9842,
      "Ġà»ģàº": 9843,
      "Ġvalue": 9844,
      "Ġtok": 9845,
      "ÑĤÐ°Ð»": 9846,
      "Ġà¶´à·ĬâĢįà¶»": 9847,
      "Ġu00": 9848,
      "ĠTre": 9849,
      "Ã¡ra": 9850,
      "_m": 9851,
      "Ġwhen": 9852,
      "ĠnÉĻ": 9853,
      "áŀ½áŀĵ": 9854,
      "à¸±à¹īà¸ĩ": 9855,
      "àªµàª¾": 9856,
      "ÏĢÎ¿Ïħ": 9857,
      "à¦¥": 9858,
      "Ä¼u": 9859,
      "opa": 9860,
      "alth": 9861,
      "Ġà¦ķà¦°à§ĩ": 9862,
      "Ġnamshi": 9863,
      "Ġbild": 9864,
      "èĻ": 9865,
      "å¤ĩ": 9866,
      "à¸ģà¸±à¸ļ": 9867,
      "×ŀ×ª": 9868,
      "ÐµÑĺ": 9869,
      "Ġà¤ĺ": 9870,
      "ĠÐ´Ðµ": 9871,
      "Ġsyn": 9872,
      "Ġlid": 9873,
      "Ġautor": 9874,
      "ê¹": 9875,
      "à¥ĩà¤ª": 9876,
      "Ã¡ng": 9877,
      "Ġà®ªà¯ĭ": 9878,
      "ĠÚ©Ø±Ø¯": 9879,
      "Ġtari": 9880,
      "Ġolar": 9881,
      "hold": 9882,
      "Ġë²": 9883,
      "ĠÐłÑĳ": 9884,
      "Ġlav": 9885,
      "Ġapar": 9886,
      "àµįà´µ": 9887,
      "},{\"": 9888,
      "à¦¿à§Łà§ĩ": 9889,
      "×¨×Ķ": 9890,
      "Ġà¶ļà·Ĵà¶º": 9891,
      "Ġ×Ĵ×Ŀ": 9892,
      "ĠÐ´Ð¾Ðº": 9893,
      "ë§ĮëĤ¨": 9894,
      "à¤ĸ": 9895,
      "Û°": 9896,
      "Ð»ÐµÐ¼": 9897,
      "åľ¨çº¿": 9898,
      "à²¨à³Ĩ": 9899,
      "vÄĵ": 9900,
      "fÃ¶r": 9901,
      "HT": 9902,
      "ĲáĢ²áĢ·": 9903,
      "ĠÐ½Ð°Ð·": 9904,
      "Ġyaz": 9905,
      "ĠZe": 9906,
      "à¤¥": 9907,
      "igan": 9908,
      "Ġâĩ": 9909,
      "ĠUk": 9910,
      "ĠDire": 9911,
      "à´¬": 9912,
      "Ð´ÐµÐ»": 9913,
      "erb": 9914,
      "ĠtÄģ": 9915,
      "Ġstran": 9916,
      "Ġebay": 9917,
      "Ġchild": 9918,
      "ĠWindows": 9919,
      "à¹Ģà¸ŀ": 9920,
      "à¸Ńà¸Ļ": 9921,
      "ultura": 9922,
      "inÄĹ": 9923,
      "illi": 9924,
      "icas": 9925,
      "04": 9926,
      "Ġfaz": 9927,
      "Ġbase": 9928,
      "à¹ĥà¸Ĭ": 9929,
      "AHI": 9930,
      "ØªØ¨": 9931,
      "Õ¸Õ¬": 9932,
      "xo": 9933,
      "itr": 9934,
      "ĲáĢºáĢ": 9935,
      "ĠÑŀÐ·": 9936,
      "ĠÐ¼Ð°": 9937,
      "ĠÐİ": 9938,
      "Ġlook": 9939,
      "Ġbay": 9940,
      "Ġ].": 9941,
      "sti": 9942,
      "alen": 9943,
      "ĠÕĢÕ¡Õµ": 9944,
      "Ġpush": 9945,
      "Ġmoment": 9946,
      "ĠUt": 9947,
      "à®©à¯įà®±": 9948,
      "Ð¾Ð½Ð¾Ð¼": 9949,
      "Ġà¸Ĥ": 9950,
      "Ġrap": 9951,
      "íĸī": 9952,
      "à²¦à³Ĩ": 9953,
      "ĠáŀĽáŁĦáŀĢ": 9954,
      "Ġàªªàª£": 9955,
      "ĠÐ¶Ð¸Ð²": 9956,
      "Ø®Øµ": 9957,
      "Ã¶d": 9958,
      "nega": 9959,
      "ison": 9960,
      "KA": 9961,
      "ĠÐ½Ð°Ð¹": 9962,
      "Ġthere": 9963,
      "íķ´ì": 9964,
      "ÙĬÙĩ": 9965,
      "phone": 9966,
      "jav": 9967,
      "hy": 9968,
      "ĠáĢĴáĢ": 9969,
      "ĠÐ¿ÑĢÐ¾ÑĤ": 9970,
      "ĠHG": 9971,
      "à¦¿à¦¸": 9972,
      "hv": 9973,
      "ĠÑĤÐ°Ð¼": 9974,
      "à·ıà¶½": 9975,
      "Õ¡Õ¶Õ¤": 9976,
      "ÑĤÑįÐ¹": 9977,
      "Ð¾Ðµ": 9978,
      "Ã¸d": 9979,
      "ingar": 9980,
      "adr": 9981,
      "Ġì²": 9982,
      "ĠÒ¯Ð·": 9983,
      "Ġgran": 9984,
      "Ġ4074": 9985,
      "ãģĤãĤĭ": 9986,
      "à®µà®°": 9987,
      "à¤Ī": 9988,
      "Ð°ÑĢÐ¼": 9989,
      "ÅŁa": 9990,
      "ĠÃ©g": 9991,
      "ĠmoÅ¾": 9992,
[...]
