{"Ŀ": 0, "Ó": 1, "Ń": 2, "ñ": 3, "S": 4, "h": 5, "*": 6, "i": 7, "Ý": 8, "ľ": 9, "Á": 10, "P": 11, "è": 12, "ô": 13, ")": 14, "Ã": 15, "¤": 16, "Ė": 17, "æ": 18, "ā": 19, "(": 20, "±": 21, "&": 22, "Ò": 23, "X": 24, "£": 25, "È": 26, "ĺ": 27, "ß": 28, "m": 29, "Ð": 30, "ļ": 31, "4": 32, "Ġ": 33, "$": 34, "ć": 35, "¾": 36, "k": 37, "ë": 38, "¡": 39, "Î": 40, "Y": 41, "Ì": 42, "t": 43, "]": 44, "¿": 45, "ĸ": 46, "ħ": 47, "O": 48, "ą": 49, "v": 50, "\"": 51, "á": 52, "^": 53, "Ī": 54, "Ü": 55, "ö": 56, "9": 57, "Ĵ": 58, "Ģ": 59, "[": 60, "Č": 61, "%": 62, "Ê": 63, "#": 64, "¶": 65, "F": 66, ".": 67, "8": 68, "z": 69, "Ą": 70, "¢": 71, "·": 72, "Ě": 73, "é": 74, ":": 75, "ĭ": 76, "¯": 77, "¸": 78, "V": 79, "n": 80, "ě": 81, "3": 82, "'": 83, "Ĥ": 84, "Â": 85, "G": 86, "ı": 87, "ä": 88, "ĵ": 89, "¨": 90, "Ĺ": 91, "ĕ": 92, "å": 93, "º": 94, "?": 95, "ò": 96, "C": 97, "É": 98, "ķ": 99, "E": 100, "2": 101, "ē": 102, "«": 103, "ă": 104, "¬": 105, "\\": 106, "o": 107, "Í": 108, "Õ": 109, "Ċ": 110, "ĥ": 111, "÷": 112, "ł": 113, "e": 114, "³": 115, "¼": 116, "q": 117, "A": 118, "f": 119, "Þ": 120, "d": 121, "þ": 122, "ė": 123, "®": 124, "Ē": 125, "į": 126, "+": 127, "c": 128, "ċ": 129, "Į": 130, "ī": 131, "Ä": 132, "j": 133, "Ā": 134, "Ï": 135, "~": 136, "ø": 137, "p": 138, "ð": 139, "Ľ": 140, "Å": 141, "¥": 142, "W": 143, "{": 144, "ĝ": 145, "Ĝ": 146, "õ": 147, "Ğ": 148, "R": 149, "ù": 150, "|": 151, "L": 152, "/": 153, "ç": 154, ";": 155, "N": 156, "Ć": 157, "`": 158, "K": 159, "¹": 160, "l": 161, "ģ": 162, "Ö": 163, "T": 164, "â": 165, "x": 166, "Ĩ": 167, "Ĉ": 168, "°": 169, "İ": 170, "U": 171, "Ę": 172, "0": 173, "À": 174, "Ñ": 175, "Æ": 176, "č": 177, "Ç": 178, "×": 179, "»": 180, "²": 181, "7": 182, "s": 183, "1": 184, "b": 185, "y": 186, "Ă": 187, "Ħ": 188, "Ķ": 189, "½": 190, "ª": 191, "w": 192, "ì": 193, "ď": 194, "ġ": 195, "ó": 196, "g": 197, "B": 198, "Ú": 199, ">": 200, "Q": 201, "ĉ": 202, "ÿ": 203, "à": 204, "Đ": 205, "ý": 206, "Ď": 207, "<": 208, "}": 209, "ü": 210, "Ł": 211, "6": 212, "í": 213, "_": 214, "D": 215, "5": 216, "ê": 217, "µ": 218, "î": 219, "-": 220, "a": 221, "ú": 222, "Ĭ": 223, "đ": 224, "u": 225, "©": 226, "Z": 227, "Ë": 228, "ğ": 229, "§": 230, "!": 231, "J": 232, "r": 233, "Ô": 234, "¦": 235, "ĩ": 236, "ã": 237, "Û": 238, ",": 239, "I": 240, "´": 241, "ŀ": 242, "ï": 243, "Ù": 244, "ę": 245, "Ļ": 246, "ĳ": 247, "Ĳ": 248, "=": 249, "û": 250, "M": 251, "Ø": 252, "Ĕ": 253, "H": 254, "@": 255, "Ġ.": 256, "ĠÐ": 257, "Ġà": 258, "Ð°": 259, "Ġ,": 260, "an": 261, "en": 262, "er": 263, "in": 264, "áĥ": 265, "Ġs": 266, "Ġd": 267, "ar": 268, "à¸": 269, "áĢ": 270, "Ġp": 271, "à¤": 272, "Ġa": 273, "Ð¾": 274, "Ġt": 275, "Ðµ": 276, "Ð¸": 277, "Ð½": 278, "Ġm": 279, "ÑĤ": 280, "ÑĢ": 281, "es": 282, "áŀ": 283, "on": 284, "ĠØ": 285, "à°": 286, "Ġn": 287, "à²": 288, "at": 289, "Ġ-": 290, "al": 291, "Ġk": 292, "or": 293, "Ġc": 294, "à¦": 295, "el": 296, "is": 297, "à´": 298, "Ġb": 299, "Ð»": 300, "Ñģ": 301, "et": 302, "as": 303, "âĢ": 304, "Ġ1": 305, "Ġv": 306, "Ġl": 307, "à®": 308, "it": 309, "Ġ2": 310, "Ġ×": 311, "Ø§": 312, "Ġ:": 313, "Ġh": 314, "il": 315, "ĠâĢ": 316, "Ġo": 317, "un": 318, "àª": 319, "Ñĥ": 320, "Ð°Ð": 321, "re": 322, "om": 323, "Ġf": 324, "à·": 325, "am": 326, "ĠÙ": 327, "ĠS": 328, "à¥": 329, "os": 330, "ĠA": 331, "Ð´": 332, "à¶": 333, "ad": 334, "¿½": 335, "ï¿½": 336, "Ġà¤": 337, "ĠÎ": 338, "em": 339, "ur": 340, "Ġ(": 341, "Ġg": 342, "ĠÃ": 343, "Ñĭ": 344, "Ðº": 345, "ti": 346, "ak": 347, "ĠM": 348, "Ġi": 349, "Ġw": 350, "ãģ": 351, "àµ": 352, "Ġ)": 353, "ch": 354, "Ø±": 355, "ed": 356, "ĠP": 357, "us": 358, "ol": 359, "ÛĮ": 360, "Ġde": 361, "à±": 362, "à¯": 363, "ĠC": 364, "à³": 365, "ÙĦ": 366, "Ġ\"": 367, "Ġe": 368, "Ã¡": 369, "à¨": 370, "Ð¾Ð": 371, "ik": 372, "ro": 373, "ÙĨ": 374, "Õ¡": 375, "Ġ0": 376, "ĠT": 377, "ÙĪ": 378, "id": 379, "Ġj": 380, "ĠB": 381, "×Ļ": 382, "ra": 383, "Ñĸ": 384, "ul": 385, "Ġ20": 386, "à§": 387, "ï¿½ï¿½": 388, "ĠD": 389, "ent": 390, "×ķ": 391, "Ġin": 392, "ie": 393, "ir": 394, "áŁ": 395, "ag": 396, "ing": 397, "Î±": 398, "Ã©": 399, "Ġ/": 400, "à¹": 401, "ĠÑ": 402, "im": 403, "ut": 404, "ic": 405, "Ð¼": 406, "ÏĦ": 407, "Ġ3": 408, "Õ¡Õ": 409, "ĠØ§": 410, "ot": 411, "Ġà¦": 412, "Î¿": 413, "um": 414, "ĠK": 415, "ĠÕ": 416, "×ķ×": 417, "Ġr": 418, "ia": 419, "ta": 420, "ig": 421, "le": 422, "Ã¤": 423, "ĠE": 424, "Ä±": 425, "Î¹": 426, "ĠL": 427, "Ã«": 428, "Ð²": 429, "te": 430, "ÃŃ": 431, "ĠÑģ": 432, "ang": 433, "ÉĻ": 434, "Ġy": 435, "and": 436, "à«": 437, "Ġz": 438, "ĠN": 439, "àµį": 440, "Ġà°": 441, "Ð³": 442, "Ùħ": 443, "ĠÂ": 444, "áĥĲ": 445, "ĠH": 446, "×Ļ×": 447, "Øª": 448, "ÙĬ": 449, "Ġà²": 450, "ĠI": 451, "ĠÐ¿": 452, "ek": 453, "à¤¾": 454, "Ð°Ð½": 455, "Ġàª": 456, "à¯į": 457, "àº": 458, "ĠR": 459, "Ñı": 460, "Ø¯": 461, "ãĤ": 462, "Ġ201": 463, "Ð°ÑĢ": 464, "he": 465, "Îµ": 466, "Ġáĥ": 467, "á»": 468, "st": 469, "Ú©": 470, "ãĢ": 471, "ĠF": 472, "od": 473, "ĠÐ½": 474, "Î½": 475, "ay": 476, "ãĥ": 477, "Ã³": 478, "Ġ4": 479, "ab": 480, "ĠG": 481, "Ġ5": 482, "Ġcom": 483, "Ð°Ñ": 484, "ac": 485, "Ùĩ": 486, "Ġà¶": 487, "ov": 488, "qu": 489, "ĠV": 490, "ap": 491, "Ġì": 492, "eg": 493, "ah": 494, "ĠW": 495, "áĥĲáĥ": 496, "ĠÐ±": 497, "Ġáŀ": 498, "ĠÐº": 499, "Ġen": 500, "Ġ'": 501, "Ð·": 502, "àµįà´": 503, "Ġà¨": 504, "ÖĢ": 505, "áĥĺ": 506, "ĠÐ´": 507, "Ġà®": 508, "Ġà´": 509, "ÐµÐ½": 510, "..": 511, "ion": 512, "Ïģ": 513, "ri": 514, "Ã¶": 515, "Ïĥ": 516, "00": 517, "ĠÑĤ": 518, "ok": 519, "Ø³": 520, "ud": 521, "Å¡": 522, "ÑģÑĤ": 523, "ĠâĢĭ": 524, "uk": 525, "ĠO": 526, "Ð°ÑĤ": 527, "à³į": 528, "à¦¾": 529, "Ã¼": 530, "à¤¾à¤": 531, "à©": 532, "ĠÙħ": 533, "Ġun": 534, "à±į": 535, "Õ¸": 536, "Ġna": 537, "est": 538, "Ð°Ð»": 539, "Ð¿": 540, "Ġla": 541, "ĠãĢ": 542, "à¥į": 543, "Ġse": 544, "Ġal": 545, "ĠÐ²": 546, "ĠJ": 547, "à¥įà¤": 548, "Äģ": 549, "à¯įà®": 550, "ist": 551, "ÏĢ": 552, "Ð¸Ñ": 553, "og": 554, "ÑĮ": 555, "ĠÐ¼": 556, "iv": 557, "à³įà²": 558, "Ġu": 559, "Ġ;": 560, "ĠÚ©": 561, "Ġå": 562, "Ð±": 563, "iz": 564, "Ġre": 565, "áĥĶ": 566, "ter": 567, "ä¸": 568, "ĠÐ¸": 569, "Äį": 570, "Ġá": 571, "ĠÐ¾": 572, "Ĵáŀ": 573, "Ð¹": 574, "×¨": 575, "ï¼": 576, "Ø¨": 577, "ĠØ§ÙĦ": 578, "à²¿": 579, "Õ¥": 580, "Ġ|": 581, "av": 582, "ÐµÑĢ": 583, "ÏĤ": 584, "ec": 585, "à¸²": 586, "Õ¶": 587, "áŁĴáŀ": 588, "Ïħ": 589, "Ã°": 590, "Î·": 591, "à±įà°": 592, "end": 593, "op": 594, "à°¿": 595, "Ġ6": 596, "à¦¾à¦": 597, "Ġ?": 598, "ĠÐ°": 599, "à§ĩ": 600, "ai": 601, "ers": 602, "Ġqu": 603, "aj": 604, "áĥĶáĥ": 605, "Ñį": 606, "Õ«": 607, "à¥ĩ": 608, "Ġan": 609, "Ġpr": 610, "×Ķ": 611, "ĠØ¨": 612, "áº": 613, "ĠU": 614, "áŀ¶": 615, "Ġst": 616, "ij": 617, "à·Ĭ": 618, "Ġ7": 619, "ÑĪ": 620, "eb": 621, "Ġ=": 622, "Ñĩ": 623, "ĠÐ·": 624, "la": 625, "à°¾": 626, "àª¾": 627, "Ġpro": 628, "Ð¾Ð²": 629, "à¸²à¸": 630, "Ġar": 631, "Ġat": 632, "ng": 633, "Ã¥": 634, "Å¾": 635, "Ġto": 636, "ï¿½ï¿½ï¿½ï¿½": 637, "Ġï¼": 638, "li": 639, "×ľ": 640, "áĢ¹": 641, "áĥĺáĥ": 642, "Ġdi": 643, "à´¿": 644, "ĠáĢ": 645, "Ð¾ÑĢ": 646, "ÒĽ": 647, "Ġ8": 648, "ow": 649, "Ġth": 650, "Ġsa": 651, "Ġ9": 652, "Ġon": 653, "ub": 654, "Ð¸Ð½": 655, "ĠÄ": 656, "ÅŁ": 657, "Ø§Ø": 658, "à±ģ": 659, "Ġel": 660, "Ûģ": 661, "Ð¾Ð»": 662, "Ġ×Ķ": 663, "ci": 664, "ÖĤ": 665, "ĠâĢĻ": 666, "ka": 667, "Ġ%": 668, "Ġpar": 669, "ob": 670, "ÛĴ": 671, "Ġë": 672, "à²¿à²": 673, "ev": 674, "à§į": 675, "Î»": 676, "ĠÏĦ": 677, "à§įà¦": 678, "Ġcon": 679, "Ġ\":": 680, "à¤¿": 681, "ou": 682, "ĠÙĪ": 683, "ga": 684, "ne": 685, "Ò¯": 686, "ant": 687, "ŀ×": 688, "áĪ": 689, "Ġ\",": 690, "Ġ...": 691, "à¯ģ": 692, "à·Ĵ": 693, "à¸Ļ": 694, "ww": 695, "áŀ¶áŀ": 696, "ìĿ": 697, "Ġthe": 698, "Ġ!": 699, "à®¿": 700, "de": 701, "à°¾à°": 702, "ÐµÑĤ": 703, "Ð°Ð¼": 704, "ĠÐ¿ÑĢ": 705, "up": 706, "Ð¾Ð½": 707, "Ġis": 708, "se": 709, "az": 710, "Îº": 711, "äº": 712, "áĢ¸": 713, "Ġwww": 714, "Ø§ÙĨ": 715, "Î¯": 716, "à²¾": 717, "à´¿à´": 718, "Õ¸ÖĤ": 719, "à³ģ": 720, "à¤°": 721, "Ġ10": 722, "ib": 723, "à¦¿": 724, "ine": 725, "àª¾àª": 726, "Ġ19": 727, "Î¼": 728, "Ġof": 729, "ÑĨ": 730, "Ġfor": 731, "Ð¸ÑĤ": 732, "áĢ¬": 733, "Ġet": 734, "Ñħ": 735, "Õ¡Õ¶": 736, "sk": 737, "ez": 738, "ĠØ¯": 739, "Ø¹": 740, "à²¾à²": 741, "à¶±": 742, "ĠâĢľ": 743, "Ġtr": 744, "ĠâĢĵ": 745, "ep": 746, "ost": 747, "Ġer": 748, "Ġch": 749, "na": 750, "oc": 751, "Ð°Ð²": 752, "Ó©": 753, "à®¿à®": 754, "tt": 755, "Ġà¸": 756, "io": 757, "ip": 758, "Ġæ": 759, "Ġes": 760, "Ġda": 761, "à¹Ī": 762, "Ġ\",\"": 763, "ÓĻ": 764, "ĠÑĢ": 765, "ug": 766, "ni": 767, "×ª": 768, "nd": 769, "à¤¿à¤": 770, "à°¿à°": 771, "ÏĮ": 772, "×Ĳ": 773, "Ð°Ñģ": 774, "ÐµÐ»": 775, "Ð°Ð´": 776, "oj": 777, "Ø©": 778, "ya": 779, "ind": 780, "áĥĿ": 781, "Ùģ": 782, "ess": 783, "Ġand": 784, "áĢº": 785, "lar": 786, "Ġte": 787, "Ġx": 788, "Ã§": 789, "ĠØª": 790, "à¸Ń": 791, "àµģ": 792, "ĠÑĥ": 793, "ÙĤ": 794, "Ä«": 795, "Ġâ": 796, "à¦°": 797, "ort": 798, "Î¬": 799, "Ð°Ð¹": 800, "eng": 801, "à¥Ģ": 802, "à«ĩ": 803, "Ãł": 804, "ĠÐ½Ð°": 805, "Ãº": 806, "Ġque": 807, "Î¿Ïħ": 808, "Ð¾Ð´": 809, "à³Ĩ": 810, "à¸£": 811, "Ġ×Ĳ": 812, "Äĥ": 813, "art": 814, "ung": 815, "ell": 816, "Ĥà°": 817, "ĠÐ³": 818, "Ġper": 819, "ÑĭÐ½": 820, "ast": 821, "Ġog": 822, "Ġsp": 823, "Ð¾Ð¼": 824, "Ð¶": 825, "Ð°Ðº": 826, "Ø§Ø±": 827, "Ġ12": 828, "Ã¦": 829, "Ð¾ÑĤ": 830, "ĠâĢĿ": 831, "ce": 832, "åı": 833, "Ġle": 834, "ari": 835, "à¥ĭ": 836, "ada": 837, "ĠØ³": 838, "ill": 839, "áĢ¸áĢ": 840, "Ġdo": 841, "Ġma": 842, "Ð¸Ð»": 843, "ana": 844, "áĢ¯": 845, "Ã½": 846, "à¹ī": 847, "und": 848, "à´¾": 849, "Äĵ": 850, "áĢ¹áĢ": 851, "Ġ×ľ": 852, "Ġng": 853, "ja": 854, "Ġ×ĳ": 855, "Ġsi": 856, "ere": 857, "Ġ&": 858, "à¤¨": 859, "ha": 860, "à·ı": 861, "à¯ģà®": 862, "ĠÐ¶": 863, "áĥĿáĥ": 864, "are": 865, "Ø´": 866, "Ģà¸": 867, "wa": 868, "ma": 869, "tr": 870, "×ĳ": 871, "áĢŃ": 872, "à¨¾": 873, "Ġ11": 874, "OM": 875, "si": 876, "Ð¾Ð³": 877, "ĠZ": 878, "àµģà´": 879, "×¢": 880, "all": 881, "Ġà¤ķ": 882, "ÐµÐ´": 883, "Õ¥Õ": 884, "à¤ķ": 885, "Ġor": 886, "ate": 887, "à´¾à´": 888, "20": 889, "à¶º": 890, "Ġq": 891, "Õ¸ÖĤÕ": 892, "×©": 893, "Ġ#": 894, "Ġne": 895, "ation": 896, "Ġï¿½": 897, "ģà¸": 898, "Ø§ÙĦ": 899, "×ķ×ª": 900, "ÐµÐº": 901, "Ø²": 902, "ht": 903, "ÖĢÕ": 904, "Ġas": 905, "Ġam": 906, "ĠÐ¡": 907, "Ġà·": 908, "pl": 909, "ĠÏĢ": 910, "Ġï¼Į": 911, "å®": 912, "ans": 913, "áī": 914, "ĠÙĨ": 915, "ĠÂ»": 916, "Ð¸Ðº": 917, "ens": 918, "WW": 919, "ina": 920, "×ł": 921, "Ãª": 922, "à±ģà°": 923, "je": 924, "ĠÚ": 925, "Ġad": 926, "à¦¿à¦": 927, "Ġop": 928, "ver": 929, "Ð°Ð·": 930, "ru": 931, "ĠWWW": 932, "à¸ĩ": 933, "Ġme": 934, "×Ļ×Ŀ": 935, "Ø¬": 936, "Ã¸": 937, "à²°": 938, "à®¾": 939, "Ð½Ð¾": 940, "ĠÏĥ": 941, "Ġ15": 942, "ĠÎº": 943, "ĠCOM": 944, "Ġç": 945, "to": 946, "à«Ģ": 947, "iy": 948, "Ġ[": 949, "ØŃ": 950, "ÑģÐº": 951, "ļáŀ": 952, "ÐµÐ¼": 953, "ata": 954, "Ġ]": 955, "±áĢ": 956, "Ġ×©": 957, "ĠÃ©": 958, "Ġno": 959, "ÎŃ": 960, "Ïī": 961, "Ġ\":\"": 962, "à«į": 963, "Ġka": 964, "ara": 965, "Äħ": 966, "pr": 967, "à«įàª": 968, "ord": 969, "Ġver": 970, "Ð¸ÑĢ": 971, "Ġê": 972, "ĠIn": 973, "ko": 974, "Ġje": 975, "ĠÎ±": 976, "ho": 977, "Ġ200": 978, "à¸±": 979, "à¶»": 980, "ke": 981, "ĠY": 982, "à¹Ģà¸": 983, "ÄĹ": 984, "tion": 985, "Ġdie": 986, "à¸µ": 987, "ard": 988, "Ġja": 989, "íķ": 990, "hi": 991, "Ġpo": 992, "Ġà¥": 993, "ĠÑħ": 994, "æľ": 995, "ĠÙ¾": 996, "Ġï¿½ï¿½ï¿½ï¿½": 997, "áĭ": 998, "åĪ": 999, "ite": 1000, "ve": 1001, "Ġsk": 1002, "áĢĦ": 1003, "à®¾à®": 1004, "Ġim": 1005, "tu": 1006, "Ġbe": 1007, "emb": 1008, "ien": 1009, "à²¦": 1010, "Ġ16": 1011, "Ġdel": 1012, "ong": 1013, "áĬ": 1014, "ĠØĮ": 1015, "Ð¸Ð¹": 1016, "Ð¸Ð¼": 1017, "âĢį": 1018, "à·Ķ": 1019, "ass": 1020, "ĠÄĳ": 1021, "à¶Ń": 1022, "ľì": 1023, "ali": 1024, "Ð°Ð³": 1025, "Ġ18": 1026, "ala": 1027, "ĠÙĦ": 1028, "à·Ģ": 1029, "ki": 1030, "Ġ×ŀ×": 1031, "orm": 1032, "áĢĢ": 1033, "ÄŁ": 1034, "Î±Î¹": 1035, "à§ĩà¦": 1036, "ÅĤ": 1037, "Ã³n": 1038, "Î³": 1039, "Úº": 1040, "Ð¾Ñ": 1041, "Ð¸Ñı": 1042, "Î®": 1043, "ont": 1044, "Ġvan": 1045, "no": 1046, "ĠãĢģ": 1047, "uc": 1048, "AA": 1049, "Ò£": 1050, "Ġap": 1051, "Ġil": 1052, "ĠAl": 1053, "ini": 1054, "Ġ22": 1055, "Ġpre": 1056, "×ĵ": 1057, "me": 1058, "ÙĪØ±": 1059, "ale": 1060, "Ùĥ": 1061, "Ġà¤¸": 1062, "Ġ13": 1063, "Ġso": 1064, "Ġpl": 1065, "Ġol": 1066, "Ġ14": 1067, "ust": 1068, "à¨¾à¨": 1069, "eri": 1070, "Ġ×ķ": 1071, "à¸¡": 1072, "Ġni": 1073, "Ġku": 1074, "Ïĩ": 1075, "Ġdes": 1076, "ĠØ¬": 1077, "ks": 1078, "Ġsh": 1079, "Ġ}": 1080, "à¶¸": 1081, "ĠÐľ": 1082, "22": 1083, "ļĦ": 1084, "à¥ĩà¤": 1085, "ff": 1086, "da": 1087, "å¤": 1088, "Ä±n": 1089, "Ġav": 1090, "ĠÐł": 1091, "ĠÐĲ": 1092, "ĠÎµ": 1093, "ÑĥÑĢ": 1094, "ele": 1095, "à»": 1096, "Ø§Øª": 1097, "ĠÑĩ": 1098, "sa": 1099, "Ãµ": 1100, "ier": 1101, "ĠãĢĤ": 1102, "ÄĽ": 1103, "à¥ģ": 1104, "ĠÙģ": 1105, "Ġ×Ķ×": 1106, "Ġ00": 1107, "ih": 1108, "Ã¶r": 1109, "Ġà¥¤": 1110, "ny": 1111, "Ġ30": 1112, "ĠÐŁ": 1113, "//": 1114, "àª¨": 1115, "ĠÐļ": 1116, "Òĵ": 1117, "ĠØ¹": 1118, "Ð´Ð°": 1119, "ide": 1120, "Ġdu": 1121, "åħ": 1122, "ĠÐµ": 1123, "Ġmed": 1124, "ÑĥÐ»": 1125, "à¶ļ": 1126, "th": 1127, "Ġra": 1128, "ttp": 1129, "ĠÐĳ": 1130, "10": 1131, "Ġmen": 1132, "ba": 1133, "Ġit": 1134, "lo": 1135, "çļĦ": 1136, "ĠÎ¼": 1137, "Ġ17": 1138, "ĠÂ«": 1139, "ama": 1140, "ĠØ±": 1141, "Ġac": 1142, "áŀĵ": 1143, "ore": 1144, "ÑĬ": 1145, "der": 1146, "kan": 1147, "Ñİ": 1148, "ä»": 1149, "Ã¨": 1150, "Ġve": 1151, "âĢĮ": 1152, "£áĥ": 1153, "Ġvi": 1154, "Ðł": 1155, "à°¨": 1156, "à¸Ļà¸": 1157, "Å³": 1158, "Ġhttp": 1159, "Ġ://": 1160, "ĠtÃ«": 1161, "ÑĸÐ½": 1162, "Ġè": 1163, "ç½": 1164, "ÉĻr": 1165, "ts": 1166, "ĠÒĽ": 1167, "áŀĦ": 1168, "ran": 1169, "ÄĻ": 1170, "Ġsu": 1171, "áŀĢ": 1172, "Î¹Îº": 1173, "áĥĶáĥĳ": 1174, "Ĥ¬": 1175, "ĠãĢĳ": 1176, "ãĢĲ": 1177, "Ġro": 1178, "if": 1179, "Ã©s": 1180, "áĥĺáĥ¡": 1181, "à«ĭ": 1182, "tic": 1183, "Ġter": 1184, "ĠÒ": 1185, "ĠÅ": 1186, "ĠSt": 1187, "ĠÑĪ": 1188, "Ġag": 1189, "ys": 1190, "ÐĲ": 1191, "ĠÃ¡": 1192, "Ð½Ñĭ": 1193, "Ġex": 1194, "áĢºáĢ": 1195, "ita": 1196, "Ġ{": 1197, "à°°": 1198, "Ġdan": 1199, "à¸§": 1200, "Ø§Ùħ": 1201, "Ġtil": 1202, "à°Ĥà°": 1203, "ãģ®": 1204, "ÐµÑģ": 1205, "à±ĩ": 1206, "Ġob": 1207, "ika": 1208, "æĸ": 1209, "ĠCh": 1210, "ĠØ´": 1211, "Ġir": 1212, "ku": 1213, "Ġvar": 1214, "à¯įà®ķ": 1215, "Ġ).": 1216, "88": 1217, "Ġ25": 1218, "di": 1219, "Ø³Øª": 1220, "àª°": 1221, "Ïį": 1222, "za": 1223, "áĢŃáĢ¯": 1224, "à¸Ķ": 1225, "Öģ": 1226, "ç½ĳ": 1227, "Õ¸Õ": 1228, "age": 1229, "Ġ+": 1230, "Ġdet": 1231, "Ã£": 1232, "Ġgr": 1233, "Ġ>": 1234, "åĽ": 1235, "×Ĺ": 1236, "àµĨ": 1237, "ĠÛģ": 1238, "à©Ģ": 1239, "Ð°Ð±": 1240, "ey": 1241, "Ð¾Ð±": 1242, "Ġby": 1243, "AN": 1244, "Î¹Î±": 1245, "à¶±à·Ĭ": 1246, "Ø®": 1247, "Î´": 1248, "ëĭ": 1249, "Ġ2019": 1250, "à¸¢": 1251, "Ð½Ð°": 1252, "Ġom": 1253, "à®°": 1254, "Ġya": 1255, "ler": 1256, "Ġta": 1257, "ĠX": 1258, "va": 1259, "Ġà¤ª": 1260, "Ð¾Ñģ": 1261, "Ġfr": 1262, "ze": 1263, "ŀ¥": 1264, "à±ĭ": 1265, "ati": 1266, "ĠÐ½Ðµ": 1267, "ult": 1268, "ge": 1269, "11": 1270, "uh": 1271, "Ġest": 1272, "ile": 1273, "ning": 1274, "Æ°": 1275, "àµįâĢį": 1276, "Ġab": 1277, "per": 1278, "à¦¨": 1279, "Ã¢": 1280, "×¤": 1281, "ond": 1282, "à¸´": 1283, "à¤¤": 1284, "tor": 1285, "à²¨": 1286, "à¤®": 1287, "à¤²": 1288, "×ĺ": 1289, "ĠAn": 1290, "ĠÐ´Ð°": 1291, "ĠâĢ¦": 1292, "Ġiz": 1293, "Ã¡l": 1294, "ĠÐ·Ð°": 1295, "Ð¸Ð²": 1296, "Ã«r": 1297, "à²²": 1298, "×§": 1299, "ĲáĢ": 1300, "Ġwa": 1301, "Ġza": 1302, "ish": 1303, "Ġmin": 1304, "à²Ĥ": 1305, "à¯Ī": 1306, "à²µ": 1307, "ĠÃĲ": 1308, "Ġha": 1309, "ä¹": 1310, "Ġber": 1311, "Ġpara": 1312, "Ġang": 1313, "ķáĢ": 1314, "Øµ": 1315, "Ġbl": 1316, "our": 1317, "Ġem": 1318, "ann": 1319, "Ġyang": 1320, "Ġkom": 1321, "ente": 1322, "à©ĩ": 1323, "Ġaf": 1324, "Ð°ÑĪ": 1325, "ĠÑı": 1326, "½©": 1327, "Ġ),": 1328, "Õ¡Õ¯": 1329, "Ġhe": 1330, "łáĥ": 1331, "Ġko": 1332, "Ġ21": 1333, "Ð°ÑĨ": 1334, "à¨¿": 1335, "ĠãĢĳãĢĲ": 1336, "Ġí": 1337, "Ã¡n": 1338, "era": 1339, "ĠÙĩ": 1340, "Ã¡s": 1341, "ÎµÎ¹": 1342, "Ġ24": 1343, "ãģĦ": 1344, "Ġsom": 1345, "ĠÐ¢": 1346, "Ø§ÛĮ": 1347, "Ġki": 1348, "pe": 1349, "Ġ23": 1350, "Å«": 1351, "à¨°": 1352, "ice": 1353, "Ú¯": 1354, "ten": 1355, "Ġ×Ľ": 1356, "ani": 1357, "Åĳ": 1358, "´ì": 1359, "ÅĻ": 1360, "ĠâĢĺ": 1361, "à®¤": 1362, "¨àµįà´": 1363, "Ġvo": 1364, "à¯įà®¤": 1365, "ÖĦ": 1366, "ĠQ": 1367, "ĠÂŃ": 1368, "ĻáĢ": 1369, "ĠÐĿ": 1370, "Ġba": 1371, "ĠÔ": 1372, "æĹ": 1373, "Ġmo": 1374, "Ġé": 1375, "ĠÐ»": 1376, "ue": 1377, "Ġpor": 1378, "ĠAr": 1379, "à²¤": 1380, "Ġum": 1381, "ä½": 1382, "Ġed": 1383, "Ġmet": 1384, "Õµ": 1385, "à´¤": 1386, "Ġkon": 1387, "Ġser": 1388, "ÛĮÚº": 1389, "ack": 1390, "ies": 1391, "×ŀ×": 1392, "Ġ2017": 1393, "Õ¥ÖĢ": 1394, "ÏĨ": 1395, "ĠÑį": 1396, "Ġ×¢": 1397, "Ð¾Ðº": 1398, "à·Ļ": 1399, "Ð¸Ð·": 1400, "atu": 1401, "AR": 1402, "ĠáĥĽ": 1403, "à¦¾à¦°": 1404, "à¤Ĥ": 1405, "int": 1406, "mi": 1407, "Ġak": 1408, "ER": 1409, "inn": 1410, "ĠØ®": 1411, "ÑĭÐ»": 1412, "à·ļ": 1413, "Ġpa": 1414, "ÙĪÙĨ": 1415, "Ġà¹": 1416, "ĠpÃ¥": 1417, "ft": 1418, "__": 1419, "Ġ\\": 1420, "be": 1421, "ade": 1422, "Ġ2018": 1423, "res": 1424, "Ð½Ð¸": 1425, "ly": 1426, "Ġden": 1427, "Ġkan": 1428, "à¸ļ": 1429, "ĠÃ¾": 1430, "Õ¡Õµ": 1431, "ĠÛ": 1432, "à§ģ": 1433, "Ġà¤®": 1434, "Ġhet": 1435, "ãĥ¼": 1436, "áŁĭ": 1437, "Ġmar": 1438, "¶ľì": 1439, "Ã¤r": 1440, "Ø·": 1441, "99": 1442, "Õ¿": 1443, "zi": 1444, "ink": 1445, "Ġva": 1446, "ado": 1447, "ith": 1448, "ĠÅ¡": 1449, "ĠÐĴ": 1450, "Ùİ": 1451, "Ġres": 1452, "×ŀ": 1453, "Ð¸Ñĺ": 1454, "ķàµįà´": 1455, "çĶ": 1456, "à¥įà¤°": 1457, "ry": 1458, "uj": 1459, "aci": 1460, "à¤¸": 1461, "ui": 1462, "¶ľìŀ¥": 1463, "Î¸": 1464, "Ġà¤¹": 1465, "Ġman": 1466, "åį": 1467, "áŀ·": 1468, "Ġder": 1469, "ica": 1470, "åĬ": 1471, "33": 1472, "à°²": 1473, "form": 1474, "ÏĦÎ±": 1475, "we": 1476, "ĠÏĦÎ·": 1477, "ĠMar": 1478, "×Ľ": 1479, "ua": 1480, "amp": 1481, "áĥķ": 1482, "ìĹ": 1483, "ment": 1484, "Ïİ": 1485, "ena": 1486, "ich": 1487, "ement": 1488, "rav": 1489, "à¶½": 1490, "ĠÑģÐµ": 1491, "áŀĺ": 1492, "Ã£o": 1493, "Ġhar": 1494, "Ġbo": 1495, "à´°": 1496, "à¶§": 1497, "asi": 1498, "ach": 1499, "ÛĮÙĨ": 1500, "Ð°Ð¿": 1501, "Ð¡": 1502, "Ġãĥ": 1503, "one": 1504, "gr": 1505, "ĠÐĶ": 1506, "×Ŀ": 1507, "Ġdis": 1508, "Ġos": 1509, "Ġli": 1510, "ame": 1511, "Ã´": 1512, "åĲ": 1513, "à¸°": 1514, "Ð¸Ñĩ": 1515, "ert": 1516, "ĠÑģÑĤ": 1517, "Ġï¿½ï¿½": 1518, "uz": 1519, "Ġus": 1520, "Ġ..": 1521, "Ú¾": 1522, "Ø§Ø¯": 1523, "Ð¸Ñģ": 1524, "AT": 1525, "ili": 1526, "ĠØ¢": 1527, "ë§": 1528, "Ð°ÑĤÐ°": 1529, "lik": 1530, "Ð¾Ð¹": 1531, "áĢ¬áĢ": 1532, "els": 1533, "à²Ĺ": 1534, "yr": 1535, "Ġod": 1536, "ull": 1537, "nÃŃ": 1538, "ÑĥÐ´": 1539, "§Ģ": 1540, "Ġà¦ķ": 1541, "--": 1542, "Ð¸ÑĤÐµ": 1543, "ĠDe": 1544, "66": 1545, "ĠáĬ": 1546, "amb": 1547, "ino": 1548, "zy": 1549, "ĠÕ°": 1550, "à¤¾à¤°": 1551, "ene": 1552, "à§Ł": 1553, "×ķ×¨": 1554, "ins": 1555, "ÏģÎ¿": 1556, "ight": 1557, "oh": 1558, "Ð»Ð°ÑĢ": 1559, "à¤¹": 1560, "ç¥": 1561, "ree": 1562, "Ġpol": 1563, "à¸ģ": 1564, "lu": 1565, "æĪ": 1566, "??": 1567, "ela": 1568, "×¡": 1569, "IN": 1570, "Ġco": 1571, "Ġpos": 1572, "ash": 1573, "mer": 1574, "Ñŀ": 1575, "Õ¡ÖĢ": 1576, "ĠPro": 1577, "¡áĢ": 1578, "à¥įà¤¯": 1579, "Ġph": 1580, "Ġà¶ļ": 1581, "Ùī": 1582, "åľ": 1583, "ĠØŃ": 1584, "ami": 1585, "tiv": 1586, "ÏĦÎ¿": 1587, "Ġà¦¸": 1588, "ĠÐŀ": 1589, "Ġsz": 1590, "ìĿ´": 1591, "ÑĥÐ²": 1592, "50": 1593, "Ð³Ð°": 1594, "Ġbu": 1595, "ako": 1596, "ĠÑĦ": 1597, "adi": 1598, "Ġaz": 1599, "ĠÎ´": 1600, "fa": 1601, "Ð¸Ð´": 1602, "Ġbr": 1603, "ãģ§": 1604, "ew": 1605, "ca": 1606, "áŁĨ": 1607, "sp": 1608, "ett": 1609, "ida": 1610, "à¸¥": 1611, "à¶¯": 1612, "yn": 1613, "asa": 1614, "Ð°Ñħ": 1615, "Ġsem": 1616, "Ġàº": 1617, "áĥ£áĥ": 1618, "ÙĪÙĦ": 1619, "Ġles": 1620, "Ġ$": 1621, "ĠEn": 1622, "áŀ»": 1623, "Ġáģ": 1624, "áŀŁ": 1625, "àº²": 1626, "ĠâĢŀ": 1627, "ej": 1628, "Ġeg": 1629, "ura": 1630, "ity": 1631, "ĠÎºÎ±Î¹": 1632, "ĠLa": 1633, "à®©": 1634, "ÏĦÎµ": 1635, "áŀĶ": 1636, "åĪĨ": 1637, "bl": 1638, "Ġ×Ļ": 1639, "Ġà¦¬": 1640, "×Ĵ": 1641, "Ġinter": 1642, "à¸Ĺ": 1643, "à°ķ": 1644, "gan": 1645, "à¸ª": 1646, "Ġà°ª": 1647, "Ġ,\"": 1648, "à®Ł": 1649, "Õ¸ÖĤÕ´": 1650, "EN": 1651, "ĠÑĸ": 1652, "Ġ100": 1653, "Ġà·Ģ": 1654, "à±Ģ": 1655, "ï»": 1656, "77": 1657, "Ġ×¤": 1658, "Ġke": 1659, "Õ«Õ¶": 1660, "Ġ26": 1661, "å¹": 1662, "Ð¸ÑĪ": 1663, "eld": 1664, "ÑĢÑĥ": 1665, "à·Ĳ": 1666, "Ð¾Ð¶": 1667, "ian": 1668, "à²³": 1669, "Ġup": 1670, "ĠPr": 1671, "àª¿": 1672, "Ġï¼ļ": 1673, "áŁģ": 1674, "à·ĥ": 1675, "à¦²": 1676, "Ġthis": 1677, "Ġur": 1678, "ĠaÃ°": 1679, "Ð½Ðµ": 1680, "Ð´Ñĭ": 1681, "port": 1682, "ll": 1683, "ĠÄį": 1684, "ÙĨØ¯": 1685, "áŁĴáŀļáŀ": 1686, "Ð°Ñĩ": 1687, "ŀáĢ": 1688, "ĠThe": 1689, "à¥Ī": 1690, "unt": 1691, "ck": 1692, "à¸ģà¸": 1693, "Ð¾Ð·": 1694, "Ġpag": 1695, "ÐºÐ°": 1696, "ĠSe": 1697, "áģ": 1698, "ìķ": 1699, "Ã©r": 1700, "ÐµÐ·": 1701, "®à¯į": 1702, "àºĻ": 1703, "áŀı": 1704, "ĠTh": 1705, "à²ķ": 1706, "ê³": 1707, "Ġ50": 1708, "Ġ_": 1709, "Ġ×ŀ": 1710, "Ġche": 1711, "Ã¼n": 1712, "áĮ": 1713, "ĠÃ®": 1714, "px": 1715, "Ġ01": 1716, "ãģĹ": 1717, "ķàµįà´ķ": 1718, "Ġut": 1719, "ons": 1720, "Õ«Õ": 1721, "à«ĩàª": 1722, "ĠÃŃ": 1723, "rat": 1724, "iss": 1725, "áĤ": 1726, "mo": 1727, "ĠÚ©ÛĮ": 1728, "ĠÃ¼": 1729, "Ġpod": 1730, "Ġti": 1731, "ĠáĪ": 1732, "eta": 1733, "Ġ*": 1734, "Ã¤n": 1735, "Ð¸Ñħ": 1736, "Å¼": 1737, "ĠØ£": 1738, "à«ģ": 1739, "ber": 1740, "ĠÅ¾": 1741, "ê°": 1742, "½©ç¥": 1743, "Ġnie": 1744, "Ġáĭ": 1745, "Õ¡ÖĢÕ": 1746, "ëĬ": 1747, "oll": 1748, "Ġà²®": 1749, "Ġ2016": 1750, "ãģ«": 1751, "åıĳ": 1752, "Ġpri": 1753, "ss": 1754, "à±Ĩ": 1755, "ĠÖ": 1756, "Ġáĥĵ": 1757, "ÏĦÎ·": 1758, "Ġà¦ª": 1759, "Ġ40": 1760, "line": 1761, "zen": 1762, "Ġval": 1763, "ĠáĥĲáĥ": 1764, "Ã¡r": 1765, "ÙĬØ©": 1766, "ĠÃ§": 1767, "Ġ28": 1768, "ãģª": 1769, "à¸Ħ": 1770, "Ø§Ø¨": 1771, "×Ł": 1772, "Ã®": 1773, "Ġ02": 1774, "ici": 1775, "ive": 1776, "ven": 1777, "ona": 1778, "Ġtak": 1779, "×ķ×Ł": 1780, "ëĭ¤": 1781, "ÐµÐ¹": 1782, "ete": 1783, "ÏģÎ±": 1784, "ila": 1785, "Ã¼r": 1786, "Ġ27": 1787, "Ġmu": 1788, "red": 1789, "Ġä¸": 1790, "Ð¸ÑģÑĤ": 1791, "ÉĻn": 1792, "ÑĥÐ½": 1793, "....": 1794, "Ġ07": 1795, "ĠÃ¶": 1796, "ise": 1797, "Ø§Ø¦": 1798, "¨àµįà´¨": 1799, "ĠÚ©ÛĴ": 1800, "à¦ķ": 1801, "nh": 1802, "Ġho": 1803, "Ò³": 1804, "ÑĤÐ¾": 1805, "ÑĤÐ°": 1806, "kl": 1807, "ON": 1808, "ãģ¨": 1809, "å¿": 1810, "Ġà²ķ": 1811, "ction": 1812, "Ġny": 1813, "che": 1814, "ky": 1815, "ĠSh": 1816, "man": 1817, "Ġà·ĥ": 1818, "55": 1819, "ĽáĢ": 1820, "Ġbir": 1821, "xt": 1822, "Ġà¶´": 1823, "Ġà²¸": 1824, "Ġ09": 1825, "ÐĲÐ": 1826, "ÐµÐ³": 1827, "sh": 1828, "bo": 1829, "ĠUn": 1830, "áĥ¡": 1831, "ÑĦ": 1832, "Æ°á»": 1833, "Ġ08": 1834, "Ġfun": 1835, "è¿": 1836, "Ġà¤¬": 1837, "à®³": 1838, "ĠÙĤ": 1839, "áŀĽ": 1840, "Ġà®ª": 1841, "ãģ¦": 1842, "ct": 1843, "ern": 1844, "40": 1845, "Õ¥Õ¬": 1846, "à¸«": 1847, "æĺ": 1848, "Ä±r": 1849, "à§ĩà¦°": 1850, "Ġpe": 1851, "Ð¸ÑĨ": 1852, "Ġáĥ¡": 1853, "ÑĤÑĭ": 1854, "ĠnÃ«": 1855, "Ġlo": 1856, "pa": 1857, "ĠÂ°": 1858, "gi": 1859, "Ð¾Ð¿": 1860, "Ð¾ÑģÑĤ": 1861, "àª¤": 1862, "ÏĢÎ¿": 1863, "æī": 1864, "Ġau": 1865, "àªĤ": 1866, "Ġ000": 1867, "Õ¸ÖĤÕ©": 1868, "ĠÏĦÎ¿": 1869, "Ð½Ñı": 1870, "Ġà°ķ": 1871, "12": 1872, "ĠÚ¯": 1873, "Ġàªķ": 1874, "à¨¿à¨": 1875, "30": 1876, "áĥĲáĥľ": 1877, "kt": 1878, "ista": 1879, "aka": 1880, "ãĥ³": 1881, "any": 1882, "à³ĩ": 1883, "aya": 1884, "Ġeen": 1885, "á»į": 1886, "å®ĺ": 1887, "Ġmi": 1888, "isi": 1889, "ç«": 1890, "ats": 1891, "ëĬĶ": 1892, "rit": 1893, "Ġmas": 1894, "ä¼": 1895, "Ġ29": 1896, "ĠÐĵ": 1897, "ÏĥÎ·": 1898, "ÑĸÐ»": 1899, "à±įà°°": 1900, "ĠÙħÙĨ": 1901, "eh": 1902, "à¸²à¸£": 1903, "ei": 1904, "ato": 1905, "co": 1906, "Ġek": 1907, "à¸ķ": 1908, "ÐµÐ²": 1909, "äºº": 1910, "à¦¤": 1911, "Ø±ÛĮ": 1912, "ĠEl": 1913, "ori": 1914, "Ġpas": 1915, "jo": 1916, "Ġund": 1917, "Ġà¤¨": 1918, "den": 1919, "Ġik": 1920, "Ġ05": 1921, "ĠÎ½": 1922, "Ã²": 1923, "ES": 1924, "Ð³Ð°Ð½": 1925, "ick": 1926, "Ġeta": 1927, "áĥł": 1928, "ĠØ§ÙĦÙħ": 1929, "Ġaut": 1930, "itu": 1931, "ĠÐ¾Ð´": 1932, "vo": 1933, "ende": 1934, "ano": 1935, "ĠâĢĶ": 1936, "ï»¿": 1937, "ÑģÑĤÐ²": 1938, "Ġsam": 1939, "65": 1940, "Ð½Ñĸ": 1941, "Ġmod": 1942, "à§ĭ": 1943, "Ġ2015": 1944, "cht": 1945, "à¹Ħ": 1946, "ĠÕ´": 1947, "áŀ¸": 1948, "ĠCom": 1949, "Ø¶": 1950, "Ġà®ķ": 1951, "áĬķ": 1952, "Ð»Ð¸": 1953, "ãĤĭ": 1954, "15": 1955, "ĠÃ®n": 1956, "ãģĮ": 1957, "Ø¦": 1958, "Ġx22": 1959, "cia": 1960, "Ġay": 1961, "ĠÏĦÎ¿Ïħ": 1962, "ema": 1963, "Ħì": 1964, "Ġmga": 1965, "Ã±": 1966, "fer": 1967, "emp": 1968, "ĠØ¯Ø±": 1969, "use": 1970, "les": 1971, "ild": 1972, "eni": 1973, "à°¾à°°": 1974, "à±ĩà°": 1975, "àª®": 1976, "olog": 1977, "ĠMa": 1978, "min": 1979, "ĠÐ¾ÑĤ": 1980, "Ġbi": 1981, "ĠÃł": 1982, "vi": 1983, "Ġ06": 1984, "ãģŁ": 1985, "à´¯": 1986, "ĠÑĨ": 1987, "éĢ": 1988, "Ġty": 1989, "Ġwe": 1990, "æ¸": 1991, "Ġcont": 1992, "Ġprod": 1993, "Ġ04": 1994, "ãģĻ": 1995, "ega": 1996, "Ġcol": 1997, "à¯įà®ª": 1998, "Ġdat": 1999, "áĢ·": 2000, "ĠÕ§": 2001, "Ġnu": 2002, "áº¡": 2003, "lig": 2004, "ĠâĤ¬": 2005, "ÏīÎ½": 2006, "Î¼Î±": 2007, "à¤°à¥įà¤": 2008, "Õ¸ÖĤÕ©Õµ": 2009, "&#": 2010, "Ù¾": 2011, "à·Ħ": 2012, "ju": 2013, "áº¿": 2014, "Ġ2020": 2015, "Ġmat": 2016, "èµ": 2017, "uri": 2018, "itt": 2019, "á»ĩ": 2020, "Å¥": 2021, "à¹ĥ": 2022, "à¦¬": 2023, "Î¯Î±": 2024, "ÛĲ": 2025, "à¦®": 2026, "Ġà¶¸": 2027, "{\"": 2028, "âĢĿ": 2029, "Ġà°®": 2030, "å°": 2031, "aga": 2032, "è½": 2033, "Õ¨": 2034, "Ð¾Ð³Ð¾": 2035, "ÑĥÑĤ": 2036, "sl": 2037, "ĶáĢ": 2038, "Ġoch": 2039, ");": 2040, "Ð¾Ñĺ": 2041, "ÙĪØ¯": 2042, "ĠáŀĶ": 2043, "àªķ": 2044, "Ġà´ª": 2045, "à¸µà¹Ī": 2046, "Ġnh": 2047, "à§įà¦°": 2048, "Õ¡Õ´": 2049, "Ġpers": 2050, "men": 2051, "ento": 2052, "Ãªn": 2053, "ĠìĿ": 2054, "ĠÐ£": 2055, "Ġà°µ": 2056, "ĠãĤ": 2057, "Ġ03": 2058, "ĠÐĺ": 2059, "tik": 2060, "oz": 2061, "Ġ×ł": 2062, "ķà¯įà®ķ": 2063, "ÙĬÙĨ": 2064, "Ġcu": 2065, "ĠSp": 2066, "ase": 2067, "Ð°Ð¶": 2068, "×ķ×ľ": 2069, "Ġmak": 2070, "Ġàªª": 2071, "Ġent": 2072, "à³įà²²": 2073, "bu": 2074, "à²¡": 2075, "à¸¸": 2076, "àªµ": 2077, "çī": 2078, "ÅĽ": 2079, "ank": 2080, "Ġuna": 2081, "áĢ¯áĢ": 2082, "ĠÎ³": 2083, "×Ļ×ª": 2084, "ĠáĥĴ": 2085, "à¸·": 2086, "ãģ¯": 2087, "áŀ¶áŀĵ": 2088, "Ġind": 2089, "ÐºÐ¸": 2090, "ike": 2091, "Î½Î±": 2092, "au": 2093, "60": 2094, "áĢŃáĢ": 2095, "ĠÑĺ": 2096, "à®²": 2097, "yo": 2098, "ark": 2099, "isk": 2100, "Ġ2013": 2101, "Ġcl": 2102, "Ġhttps": 2103, "AL": 2104, "ĠÙĬ": 2105, "áŁĦ": 2106, "à·ĵ": 2107, "ime": 2108, "Ð»Ñı": 2109, "Ġsel": 2110, "Ġ2014": 2111, "ÑĥÐ¼": 2112, "à¸Ńà¸ĩ": 2113, "ìĦ": 2114, "äºļ": 2115, "app": 2116, "19": 2117, "Ġmer": 2118, "ĠÑŀ": 2119, "eli": 2120, "à¯įà®Ł": 2121, "ren": 2122, "ÏģÎ¹": 2123, "ĠÐ±Ð¾Ð»": 2124, "à¯Īà®": 2125, "ĠLe": 2126, "´ë": 2127, "Ġà¤ħ": 2128, "ji": 2129, "ĠÕ¯": 2130, "ĠpÃ«r": 2131, "Ġ;&#": 2132, "OR": 2133, "àµįà´¤": 2134, "ÐµÐ½ÑĤ": 2135, "à´Ĥ": 2136, "val": 2137, "ĠÐ¾Ð±": 2138, "let": 2139, "ire": 2140, "Ġà¤°": 2141, "80": 2142, "17": 2143, "Ġà°¸": 2144, "Ġà°ħ": 2145, "ito": 2146, "»áĢ": 2147, "una": 2148, "ome": 2149, "Ġgo": 2150, "ĠRe": 2151, "Ø£": 2152, "è®": 2153, "Ð¸Ðµ": 2154, "Ġreg": 2155, "ĠÃ©s": 2156, "ors": 2157, "à³įà²¤": 2158, "ÈĽ": 2159, "à´Ł": 2160, "ret": 2161, "ÐµÑ": 2162, "Ġ35": 2163, "ĠÓ©": 2164, "Ðŀ": 2165, "44": 2166, "alam": 2167, "à¤ª": 2168, "Ġà¨¸": 2169, "Ðĺ": 2170, "ty": 2171, "ora": 2172, "ĠÎ¿": 2173, "à°Ĥ": 2174, "ure": 2175, "iti": 2176, "Ġ=\"": 2177, "ane": 2178, "Å¯": 2179, "àµĩ": 2180, "Ġ×©×ľ": 2181, "à¹ģà¸": 2182, "oma": 2183, "Ġwith": 2184, "AS": 2185, "ĠÃ¥": 2186, "à¶Ńà·Ĭ": 2187, "ĠÕ¸": 2188, "Ġsv": 2189, "ÑģÑı": 2190, "áŁĤ": 2191, "bi": 2192, "Ø°": 2193, "Ġáī": 2194, "att": 2195, "×¦": 2196, "áĢ¬áĢ¸áĢ": 2197, "ä¸Ģ": 2198, "uar": 2199, "ĠÐ¸Ð·": 2200, "ĠáŀĢ": 2201, "à§įà¦¯": 2202, "àµĭ": 2203, "elt": 2204, "¼áĢ": 2205, "ave": 2206, "que": 2207, "å¼": 2208, "Ġbet": 2209, "ÃŃt": 2210, "à¤Ĺ": 2211, "ÑĥÑģ": 2212, "ĠTr": 2213, "net": 2214, "ĠAd": 2215, "Ġà®µ": 2216, "Ð°ÑģÑĤ": 2217, "Ġtra": 2218, "Ġbil": 2219, "ìł": 2220, "Ġà´ķ": 2221, "Ġà¨¦": 2222, "Ã¡t": 2223, "ÑĭÐ¼": 2224, "yd": 2225, "lÄ±": 2226, "Ġï¿½ï¿½ï¿½ï¿½ï¿½ï¿½": 2227, "het": 2228, "Ġkl": 2229, "urs": 2230, "Ġ2012": 2231, "à·Ĵà¶º": 2232, "ĠÃº": 2233, "Ġà¤µ": 2234, "áŀ¾": 2235, "íķĺ": 2236, "æĿ": 2237, "Ġatt": 2238, "ä¸ĭ": 2239, "Ġà®®": 2240, "ija": 2241, "Ġbes": 2242, "ĠÅŁ": 2243, "af": 2244, "ĠÕ¥": 2245, "Ġà²¨": 2246, "ix": 2247, "par": 2248, "Ġà¤Ĺ": 2249, "è¯": 2250, "Ġbar": 2251, "Ġ<": 2252, "Ġall": 2253, "Ġju": 2254, "ÐºÑĸ": 2255, "ember": 2256, "mas": 2257, "ĠâĢ¢": 2258, "à´¿à´²": 2259, "æĸ¹": 2260, "ë§Ī": 2261, "18": 2262, "Õ¾": 2263, "ĠÐĹ": 2264, "à³įà²°": 2265, "Ġà¦Ĩ": 2266, "ola": 2267, "Ġå¤": 2268, "Ġvis": 2269, "nÃ©": 2270, "ald": 2271, "å¸": 2272, "iri": 2273, "ÐµÑĪ": 2274, "Î²": 2275, "Ġà¨ķ": 2276, "ĠÚ©Ø±": 2277, "ĠÎ¼Îµ": 2278, "à²¿à²¦": 2279, "lan": 2280, "×Ļ×¨": 2281, "Ġà¶ħ": 2282, "Ġtu": 2283, "Ã«s": 2284, "imi": 2285, "áĥļ": 2286, "Ð¿ÑĢ": 2287, "aw": 2288, "Õ¡Õ¿": 2289, "nie": 2290, "Ġàª¸": 2291, "Ġà¤ľ": 2292, "åĽ½": 2293, "Ġkat": 2294, "25": 2295, "Ġà®ħ": 2296, "yt": 2297, "áŀĻ": 2298, "AG": 2299, "å·": 2300, "à²¾à²°": 2301, "Ġdhe": 2302, "ĠÚĨ": 2303, "áº£": 2304, "13": 2305, "tir": 2306, "ace": 2307, "Ã¸r": 2308, "Ġkas": 2309, "à¹ĩ": 2310, "Ġkar": 2311, "ede": 2312, "ld": 2313, "ings": 2314, "½©ç¥ŀ": 2315, "Õ¸ÖĤÕ¶": 2316, "Ġáŀĵ": 2317, "Ġ×Ĺ": 2318, "ç»": 2319, "à©°": 2320, "fr": 2321, "Ġyou": 2322, "ãģ¾": 2323, "Ø§Ø³": 2324, "ĠÙħÛĮÚº": 2325, "ĠÛĶ": 2326, "Ò±": 2327, "à¸Ī": 2328, "à¤¾à¤¨": 2329, "enn": 2330, "Ġà¤¦": 2331, "Ġkr": 2332, "ĠÐ¿Ð¾": 2333, "à¯ĩ": 2334, "ĠÑģÐ²": 2335, "åº": 2336, "ĠÎ½Î±": 2337, "Ð°ÒĽ": 2338, "aciÃ³n": 2339, "ula": 2340, "als": 2341, "aren": 2342, "AC": 2343, "å¤§": 2344, "ect": 2345, "aha": 2346, "Ġkh": 2347, "ige": 2348, "à¦¾à¦¨": 2349, "ese": 2350, "áĢĦáĢ¹": 2351, "ye": 2352, "àµįà´Ł": 2353, "à¸¹": 2354, "ĠØ§ÙĨ": 2355, "Ġsl": 2356, "ima": 2357, "à¶ļà·Ĭ": 2358, "ĠØ¨Ùĩ": 2359, "tig": 2360, "EL": 2361, "Ġà¦ı": 2362, "AM": 2363, "ÑįÑį": 2364, "áĥĲáĥĽ": 2365, "à¹Į": 2366, "ott": 2367, "ĠAm": 2368, "ĠÃ¤": 2369, "ute": 2370, "ê¸": 2371, ").": 2372, "Ġge": 2373, "åĨ": 2374, "Ġid": 2375, "Ġsc": 2376, "à¤ķà¥ĭ": 2377, "ì¶ľìŀ¥": 2378, "Ġà²ħ": 2379, "Ġfa": 2380, "à¤¦": 2381, "Ġà¤Ĩ": 2382, "Ġ×ĵ": 2383, "ÅĨ": 2384, "Ġrec": 2385, "its": 2386, "áĢĦáĢ¹áĢ": 2387, "à´®": 2388, "Äĩ": 2389, "Ġàª®": 2390, "Ð°Ñĺ": 2391, "14": 2392, "UR": 2393, "Ġà²¹": 2394, "ii": 2395, "iew": 2396, "Ġdin": 2397, "Ġmag": 2398, "ĠÎĳ": 2399, "éĩ": 2400, "à´³": 2401, "Ġein": 2402, "à§Ģ": 2403, "à©ĭ": 2404, "à¶ľ": 2405, "Ù¹": 2406, "oto": 2407, "ken": 2408, "ÑĭÑĢ": 2409, "uv": 2410, "isa": 2411, "otel": 2412, "Ġsy": 2413, "OS": 2414, "Ð¸Ð¹Ð½": 2415, "Ġà®¤": 2416, "ĠÐ°Ð»": 2417, "iga": 2418, "Ġul": 2419, "×Ļ×ł": 2420, "erv": 2421, "à³įà²¨": 2422, "à¸Ľ": 2423, "16": 2424, "Ġ);": 2425, "ÛĮØ±": 2426, "áĥĶáĥļ": 2427, "Ðķ": 2428, "ĠÒ¯": 2429, "à¤µ": 2430, "ĠÛĮ": 2431, "ath": 2432, "åŃ": 2433, "du": 2434, "Ġgi": 2435, "Ġmy": 2436, "pp": 2437, "çİ": 2438, "à¨¤": 2439, "mÉĻ": 2440, "Ã¦r": 2441, "Ġ×Ĵ": 2442, "ë¡": 2443, "ĠCon": 2444, "àµģà´Ĥ": 2445, "à³Ĥ": 2446, "ÑĸÐ´": 2447, "},": 2448, "ÙĪÙħ": 2449, "Ġnot": 2450, "ÑĸÐº": 2451, "ero": 2452, "à°®": 2453, "áŀļáŀ": 2454, "Õ¶Õ¥ÖĢ": 2455, "æ¸¸": 2456, "nda": 2457, "oni": 2458, "ign": 2459, "gen": 2460, "Ĭ¤": 2461, "áĥĵ": 2462, "Ġà¦®": 2463, "á»Ļ": 2464, "Ġ32": 2465, "ãĤĴ": 2466, "ras": 2467, "ubl": 2468, "Ġthat": 2469, "ÐµÐ¿": 2470, "ÈĻ": 2471, "áŁĴáŀĵ": 2472, "ĠáŀŁ": 2473, "à´¨": 2474, "ando": 2475, "Ġjst": 2476, "ĠÂ·": 2477, "tim": 2478, "own": 2479, "ãģĭ": 2480, "Ġjstree": 2481, "of": 2482, "Î½Î¿": 2483, "Ġ×¨": 2484, "Õ½": 2485, "Øº": 2486, "Ñĳ": 2487, "Ġï»¿": 2488, "ÏĦÎ¹Îº": 2489, "aliz": 2490, "Ã©g": 2491, "ces": 2492, "ìĿĺ": 2493, "àª¾àª°": 2494, "74": 2495, "áº¥": 2496, "Ġwas": 2497, "tuk": 2498, "Ġsal": 2499, "Ġga": 2500, "ĠØµ": 2501, "ars": 2502, "ÙĲ": 2503, "áŀĳ": 2504, "á»ĳ": 2505, "Ġìŀ": 2506, "àª¾àªĤ": 2507, "ĠØ²": 2508, "ros": 2509, "old": 2510, "akan": 2511, "Ġà¶¯": 2512, "Ð°Ð»ÑĮ": 2513, "Ġca": 2514, "à²²à³įà²²": 2515, "90": 2516, "ea": 2517, "Õ¡Õ¯Õ¡Õ¶": 2518, "ĠÙģÙĬ": 2519, "olo": 2520, "iek": 2521, "Ġà´µ": 2522, "Ð°Ñŀ": 2523, "Ġnj": 2524, "Õ¡Õ½": 2525, "Õ´": 2526, "çĽ": 2527, "ĠÎ±ÏĢ": 2528, "Ã§Ã£o": 2529, "ben": 2530, "à³įà²¯": 2531, "è¡": 2532, "à°¤": 2533, "**": 2534, "Ġfil": 2535, "esta": 2536, "ìĹĲ": 2537, "iko": 2538, "à¨¨": 2539, "ante": 2540, "ìĿĦ": 2541, "Ġà¤¤": 2542, "Ã¥r": 2543, "Ġpost": 2544, "ET": 2545, "Âµ": 2546, "ÎµÎ¯": 2547, "à±įà°¨": 2548, "ľáĢ": 2549, "ole": 2550, "æ³": 2551, "×ķ×ĳ": 2552, "ock": 2553, "Ġmeg": 2554, "Ð¸Ð¸": 2555, "ÛĮØ¯": 2556, "à»Ī": 2557, "Ø§Ø²": 2558, "anda": 2559, "Ġà²¬": 2560, "ÐĿ": 2561, "×ķ×ĵ": 2562, "à¥Ĥ": 2563, "Ġtrans": 2564, "ets": 2565, "ìĭ": 2566, "ĠOn": 2567, "à¶´": 2568, "70": 2569, "ÑĥÐ±": 2570, "à¨ķ": 2571, "Ġà¤Ń": 2572, "Ġson": 2573, "ëı": 2574, "ĠÐŁÑĢ": 2575, "alt": 2576, "Ġdit": 2577, "Ð°Ñļ": 2578, "ĠØ¨Ø±": 2579, "×Ļ×ķ×ª": 2580, "Ġmil": 2581, "Ġà°ļ": 2582, "ģáĢ": 2583, "à¤¾à¤²": 2584, "à®¿à®²": 2585, "ĠÕ¶": 2586, "Ġ×§": 2587, "ose": 2588, "ph": 2589, "Ġgen": 2590, "AP": 2591, "ition": 2592, "à´µ": 2593, "ì§Ģ": 2594, "×ķ×ł": 2595, "×ĸ": 2596, "æĺ¯": 2597, "Ġà¶±": 2598, "Ġinform": 2599, "Ð°Ð½Ð´": 2600, "enti": 2601, "áĥĽ": 2602, "Ã¹": 2603, "ãģ£": 2604, "iki": 2605, "Ġà¤²": 2606, "ake": 2607, "Ġher": 2608, "éĻ": 2609, "78": 2610, "ĠÎŃ": 2611, "Ġnet": 2612, "Ġsin": 2613, "ĠPar": 2614, "Ã¤Ã¤": 2615, "ĠTe": 2616, "Ġà®ļ": 2617, "Ġ2011": 2618, "áŀ¼": 2619, "ĠØ§Ø³": 2620, "Ġkun": 2621, "à³Ĩà²": 2622, "Ġmeng": 2623, "Ã¼l": 2624, "Ã©n": 2625, "áŁĩ": 2626, "áīµ": 2627, "Ã¡m": 2628, "ĠÐ¥": 2629, "Ġdar": 2630, "Ġseg": 2631, "ger": 2632, "Ġà°¨": 2633, "24": 2634, "uma": 2635, "×Ļ×ľ": 2636, "à©±": 2637, "à°¿à°Ĥà°": 2638, "Ġuz": 2639, "Ġfunction": 2640, "ĠBl": 2641, "Ä±m": 2642, "à¯ģà®®à¯į": 2643, "Ø«": 2644, "Ġpres": 2645, "ĠNo": 2646, "gu": 2647, "Ġjo": 2648, "ê°Ģ": 2649, "engan": 2650, "ker": 2651, "Ð¸Ð³": 2652, "Ġ31": 2653, "Ġwat": 2654, "ĠfÃ¶r": 2655, "ĠÃĳ": 2656, "àº²àº": 2657, "ico": 2658, "Ġà¦¨": 2659, "eko": 2660, "ĠPre": 2661, "Ġdem": 2662, "Ã¬": 2663, "Ġpot": 2664, "ione": 2665, "Ġà²ª": 2666, "ÓĻÑĢ": 2667, "Î¾": 2668, "Ðļ": 2669, "åĩ": 2670, "Ġcomp": 2671, "Ġbel": 2672, "Ġsub": 2673, "åİ": 2674, "aki": 2675, "à¤¯": 2676, "IS": 2677, "à®¿à®¯": 2678, "Ġfin": 2679, "ode": 2680, "imo": 2681, "å¥": 2682, "à±įà°¯": 2683, "ĠSo": 2684, "à®µ": 2685, "Ġvoor": 2686, "à·ľ": 2687, "73": 2688, "à³Ĭ": 2689, "ĠÙĥ": 2690, "à²¾à²Ĺ": 2691, "jen": 2692, "Ġï¿½ï¿½ï¿½ï¿½ï¿½ï¿½ï¿½ï¿½": 2693, "ĠÛģÛĴ": 2694, "à°¾à°²": 2695, "Ø§Ùĩ": 2696, "Ġà¦¹": 2697, "fi": 2698, "Ġà´ħ": 2699, "Ġvir": 2700, "Ġà¨¹": 2701, "eder": 2702, "Ð¢": 2703, "ams": 2704, "ç«Ļ": 2705, "Õ¡Õ¾": 2706, "Ġmal": 2707, "Ñī": 2708, "à´²": 2709, "ĠÎł": 2710, "Ø±ÙĪ": 2711, "Ġìł": 2712, "ê²": 2713, "å¿«": 2714, "Ġtur": 2715, "lÉĻr": 2716, "ail": 2717, "akt": 2718, "Ġ×ª": 2719, "Ġpi": 2720, "ĠáŁ": 2721, "è§": 2722, "à¹Īà¸²à¸": 2723, "Ð¸Ð±": 2724, "àµįà´°": 2725, "Ġkur": 2726, "à¦¸": 2727, "Ã½ch": 2728, "ÃŃa": 2729, "ste": 2730, "ĠÑĤÑĢ": 2731, "ãĤ¹": 2732, "ĠGr": 2733, "×Ļ×Ķ": 2734, "Ġnga": 2735, "ÐµÑģÑĤ": 2736, "Ã³w": 2737, "land": 2738, "æĹ¶": 2739, "Ġvol": 2740, "à°µ": 2741, "Ġlang": 2742, "ÐµÐ±": 2743, "Ġstr": 2744, "Ġnov": 2745, "ÑĭÐ·": 2746, "à«ĭàª": 2747, "ym": 2748, "Ġfl": 2749, "ê³ł": 2750, "Ġdr": 2751, "zt": 2752, "Î¼Îµ": 2753, "ego": 2754, "ÐºÑĥ": 2755, "Ġsup": 2756, "ë¦": 2757, "å¾": 2758, "sta": 2759, "æ°": 2760, "ban": 2761, "Ġáĥł": 2762, "ÐµÑĩ": 2763, "aba": 2764, "agi": 2765, "à°¸": 2766, "æĬ": 2767, "Ġà´¸": 2768, "Ġ::": 2769, "ÉĻt": 2770, "à¸³": 2771, "áĥľ": 2772, "à²¨à³įà²¨": 2773, "Îĳ": 2774, "Õ¥ÖĢÕ": 2775, "à´¤àµįà´¤": 2776, "ĠÎķ": 2777, "Ġaan": 2778, "IT": 2779, "Ġwh": 2780, "go": 2781, "23": 2782, "45": 2783, "Ġover": 2784, "Ð¸Ð½Ð³": 2785, "IC": 2786, "Ä¼": 2787, "ëĤ": 2788, "Ġcan": 2789, "Ġmit": 2790, "ÄĹs": 2791, "ĠáĢ¡áĢ": 2792, "Ġ@": 2793, "å±": 2794, "kin": 2795, "Ó©ÑĢ": 2796, "aa": 2797, "ĠØ§ÙĪØ±": 2798, "ĠSch": 2799, "Ġ45": 2800, "ĠOr": 2801, "Ġå½©ç¥ŀ": 2802, "Î±Î½": 2803, "Ġlos": 2804, "000": 2805, "Ġef": 2806, "ĠÐ²Ð¾": 2807, "ìĤ¬": 2808, "áĥĲáĥĵ": 2809, "Äģs": 2810, "åĮ": 2811, "ĠØ¹ÙĦ": 2812, "Ġå¤§": 2813, "ÏĦÎ¹": 2814, "Ã¤l": 2815, "Ġàªľ": 2816, "usi": 2817, "ĠPer": 2818, "ÑĸÐ²": 2819, "Ã¶n": 2820, "ãĥ¼ãĥ": 2821, "rip": 2822, "Ġlas": 2823, "Ġare": 2824, "Ġ33": 2825, "get": 2826, "Ġpal": 2827, "ÙĪÚº": 2828, "vis": 2829, "Ġweb": 2830, "à²¤à³įà²¤": 2831, "eks": 2832, "udi": 2833, "aks": 2834, "Ö·": 2835, "Ġsm": 2836, "Ġret": 2837, "ä¸Ń": 2838, "ÑĥÑĩ": 2839, "ÐµÐºÑĤ": 2840, "Ã¡c": 2841, "æľº": 2842, "à°¦": 2843, "ivers": 2844, "ĠÏĦÎ·Î½": 2845, "Ġà®ĩ": 2846, "Ġï¿½ï¿½ï¿½": 2847, "ĠÐ¸Ð½": 2848, "ket": 2849, "à³ĭ": 2850, "uf": 2851, "áŀĸ": 2852, "ary": 2853, "Ġà§": 2854, "Ġist": 2855, "br": 2856, "ÑįÐ½": 2857, "ook": 2858, "è½½": 2859, "Ò¯Ò¯": 2860, "ä¹Ĳ": 2861, "Ø§Ø¹": 2862, "Ġ60": 2863, "98": 2864, "Ġnd": 2865, "Î¿Ïį": 2866, "elle": 2867, "ëħ": 2868, "ÙĬØ±": 2869, "¨à¯įà®¤": 2870, "ner": 2871, "Ø¸": 2872, "con": 2873, "ìĿ¼": 2874, "Ġtal": 2875, "Ġif": 2876, "ament": 2877, "à«įàª¯": 2878, "ely": 2879, "à´£": 2880, "íķľ": 2881, "ãĤĤ": 2882, "Ġà´¨": 2883, "cl": 2884, "áĥĲáĥłáĥ": 2885, "Ġsur": 2886, "ÑĭÒĽ": 2887, "Ġini": 2888, "Ġez": 2889, "wo": 2890, "ĠPl": 2891, "ÑĸÑĢ": 2892, "!!": 2893, "Õ¯": 2894, "rac": 2895, "Ġà¨¨": 2896, "à¯Ĩ": 2897, "yl": 2898, "Ġ×¡": 2899, "æĢ": 2900, "esi": 2901, "ĠÕ«": 2902, "Ġà´®": 2903, "ìĥ": 2904, "à©ģ": 2905, "ual": 2906, "ush": 2907, "Ġ36": 2908, "Ġsch": 2909, "à¨¸": 2910, "ÑĭÐ¿": 2911, "ÃŃn": 2912, "ÑįÑĢ": 2913, "Ġtot": 2914, "áŀħ": 2915, "ÎµÏĤ": 2916, "osti": 2917, "Ġsta": 2918, "ĠÄ°": 2919, "à°¡": 2920, "Ġei": 2921, "ìķĪ": 2922, "ideo": 2923, "ç½ĳç«Ļ": 2924, "ĠEr": 2925, "cz": 2926, "ĠUS": 2927, "áĥĲáĥ¡": 2928, "àº±": 2929, "Ġàª¤": 2930, "Ġuntuk": 2931, "nik": 2932, "hr": 2933, "Ġmai": 2934, "ĠÏĦÎ·ÏĤ": 2935, "à³Ģ": 2936, "×Ļ×Ł": 2937, "Ð½Ð¾ÑģÑĤ": 2938, "tif": 2939, "Ä±ÅŁ": 2940, "à¤¿à¤ķ": 2941, "à¥įà¤¤": 2942, "iet": 2943, "28": 2944, "ĠÚ©ÙĪ": 2945, "åľ¨": 2946, "Ã«n": 2947, "Ġonline": 2948, "Ð°Ð½Ð°": 2949, "à°Ł": 2950, "ĠÎºÎ±": 2951, "Ġinst": 2952, "Ðĵ": 2953, "áĥ¢": 2954, "Ġhu": 2955, "ÑĥÐº": 2956, "Ġtop": 2957, "Ð´Ðµ": 2958, "aran": 2959, "ĠÒ³": 2960, "Ġbat": 2961, "Ġ38": 2962, "Ð¾ÑĪ": 2963, "Ġdengan": 2964, "ìŀ": 2965, "áĢĢáĢ": 2966, "áĥĲáĥķ": 2967, "____": 2968, "Ñĺ": 2969, "ĠÎ£": 2970, "ãģĨ": 2971, "esti": 2972, "ery": 2973, "ÑĤÐµÑĢ": 2974, "à¨²": 2975, "Ġìĺ": 2976, "95": 2977, "Ġgj": 2978, "íĬ": 2979, "áĢĢáĢ¹áĢ": 2980, "à¥ĩà¤Ĥ": 2981, "Ġals": 2982, "Ġà¹Ģà¸": 2983, "yk": 2984, "Ð¸ÑĺÐ°": 2985, "ĮĢ": 2986, "Ġcat": 2987, "àª¿àª": 2988, "po": 2989, "Ġnem": 2990, "ekt": 2991, "oy": 2992, "Ġ2010": 2993, "75": 2994, "à¨Ĥ": 2995, "Î»Î»": 2996, "ille": 2997, "Ġcar": 2998, "à¸Ĥ": 2999, "æīĭ": 3000, "ĠÑĢÐ°Ð·": 3001, "ÑĥÑĪ": 3002, "Ġcons": 3003, "ĠÑģÐ¾": 3004, "Ġ×Ĳ×ª": 3005, "Å£": 3006, "ĠpÅĻ": 3007, "Ġë°": 3008, "Õ¥Õ¶": 3009, "ãĤĬ": 3010, "Ġ55": 3011, "äºĨ": 3012, "Ġ×ĸ": 3013, "met": 3014, "à²¸": 3015, "gg": 3016, "á»ĭ": 3017, "ªà¯įà®ª": 3018, "ä¸ĭè½½": 3019, "ional": 3020, "CT": 3021, "áŁĴáŀı": 3022, "ml": 3023, "IL": 3024, "áŁĴáŀļ": 3025, "Ġtre": 3026, "sc": 3027, "Ġãģ": 3028, "âĢĭ": 3029, "Ġtel": 3030, "uss": 3031, "à»ī": 3032, "à±įà°¤": 3033, "Ġê°": 3034, "ance": 3035, "Ġà®¨": 3036, "Î¯Î½": 3037, "áĥĶáĥľ": 3038, "for": 3039, "ĠBar": 3040, "Ġback": 3041, "dz": 3042, "Ġamb": 3043, "ÙĩØ§": 3044, "Ġ80": 3045, "ĠÑģÐ»": 3046, "Ġtem": 3047, "ãĥĥ": 3048, "CH": 3049, "Ġà¤ķà¥ĩ": 3050, "Ġà¨µ": 3051, "ĠCl": 3052, "àºĻàº": 3053, "ux": 3054, "ÏİÎ½": 3055, "ĠÐ¾ÑĢ": 3056, "nya": 3057, "sz": 3058, "ĠÎ±ÏĢÏĮ": 3059, "Ġáģĭ": 3060, "çľ": 3061, "erk": 3062, "Ŀ¼": 3063, "Ġaj": 3064, "Ġìķ": 3065, "ë¥": 3066, "ÛĮÚ©": 3067, "ova": 3068, "Äģr": 3069, "Ġtid": 3070, "Ġà¦¦": 3071, "Ġï¿½ï¿½ï¿½ï¿½ï¿½": 3072, "ĠÎ³Î¹Î±": 3073, "US": 3074, "å½": 3075, "out": 3076, "Ø¨Ø±": 3077, "ĠÎ¤": 3078, "ÎŁ": 3079, "atur": 3080, "do": 3081, "Ã³l": 3082, "ĠÙ¾Ø±": 3083, "Ġáŀĺ": 3084, "Ġ34": 3085, "ĠØ§Ø³Øª": 3086, "var": 3087, "à²Ĥà²¦": 3088, "Ġprof": 3089, "larÄ±": 3090, "inen": 3091, "Ùı": 3092, "à´¸": 3093, "à°¾à°¨": 3094, "ID": 3095, "à´±": 3096, "oo": 3097, "ĠMan": 3098, "êµ": 3099, "ĠBr": 3100, "Ġwid": 3101, "ìĽ": 3102, "eme": 3103, "ÚĨ": 3104, "Æ¡": 3105, "Ġperson": 3106, "å¯": 3107, "ï¼Į": 3108, "à¥ģà¤": 3109, "Ø§Ùģ": 3110, "Ġhas": 3111, "á»ģ": 3112, "ĠàªĨ": 3113, "à°¯": 3114, "Ã´ng": 3115, "ĠÐ±Ð°Ð¹": 3116, "Ð¸Ð½Ð¸": 3117, "chen": 3118, "aman": 3119, "à²®": 3120, "à®£": 3121, "à¸Ĭ": 3122, "Ġáĥĺ": 3123, "å¹´": 3124, "ativ": 3125, "ores": 3126, "½áĢ": 3127, "Ġsol": 3128, "Ġud": 3129, "ÑĭÑģ": 3130, "Ġkw": 3131, "alis": 3132, "à°ª": 3133, "àª¨à«ĩ": 3134, "Ġàªµ": 3135, "ĠNe": 3136, "Ġform": 3137, "Ġ\".": 3138, "ĠÙĪØ§ÙĦ": 3139, "ØªØ±": 3140, "iÃ°": 3141, "able": 3142, "à²¿à²¸": 3143, "ĠAnd": 3144, "ĠNa": 3145, "Ä¾": 3146, "Ð¾Ñĩ": 3147, "ä¸į": 3148, "ĠØ³ÛĴ": 3149, "ĠÑģÐ¿": 3150, "pos": 3151, "Ġpat": 3152, "à´¨àµįà´¨": 3153, "Ġà°¤": 3154, "Î¶": 3155, "àµįà´¯": 3156, "Ġrel": 3157, "ĠØ·": 3158, "ÎĻ": 3159, "36": 3160, "íĬ¸": 3161, "uks": 3162, "ĠÎļ": 3163, "ĠPh": 3164, "ĠÄ¯": 3165, "ĠÎľ": 3166, "à´¿à´¯": 3167, "ĠÏĮ": 3168, "Ð°ÑĤÐ¸": 3169, "æķ": 3170, "áĥ®": 3171, "96": 3172, "à±įà°²": 3173, "ÑĨÑĮ": 3174, "Ã©t": 3175, "ados": 3176, "Å¡an": 3177, "Ġdec": 3178, "Ġdos": 3179, "ump": 3180, "Ġker": 3181, "à§įà¦¤": 3182, "ļáĥĺ": 3183, "Ġdas": 3184, "ira": 3185, "angan": 3186, "ays": 3187, "Ġuk": 3188, "ĠÏĩ": 3189, "ator": 3190, "Ġà¦ķà¦°": 3191, "Ġ(\"": 3192, "ĠØ§Ø²": 3193, "Ġce": 3194, "bet": 3195, "26": 3196, "Ð²Ð°": 3197, "gy": 3198, "AD": 3199, "éĹ": 3200, "Ġàªħ": 3201, "ĠvÉĻ": 3202, "íĻ": 3203, "ģàº": 3204, "cc": 3205, "ê¸°": 3206, "à«įàª°": 3207, "ĠáĥĵáĥĲ": 3208, "Ġ48": 3209, "AK": 3210, "igh": 3211, "vel": 3212, "ents": 3213, "×ļ": 3214, "ÑĸÐ·": 3215, "Ġ×ľ×Ķ": 3216, "aja": 3217, "omb": 3218, "ìĸ": 3219, "Ġev": 3220, "uy": 3221, "alan": 3222, "oi": 3223, "ĠâĨ": 3224, "gro": 3225, "AAAA": 3226, "à¸ŀ": 3227, "ĠÑĺÐµ": 3228, "ĠDet": 3229, "á»ĥ": 3230, "Ġà²µ": 3231, "ä¼ļ": 3232, "ĠÐĽ": 3233, "æľī": 3234, "áĥĲáĥł": 3235, "Ġà¶Ń": 3236, "Ġpu": 3237, "à®±": 3238, "à¨¦": 3239, "ĠÎĶ": 3240, "à©Ī": 3241, "ĠInd": 3242, "35": 3243, "ĠSa": 3244, "Ġtar": 3245, "ĠÐ°Ð´": 3246, "áŀ½": 3247, "ork": 3248, "à¨¹": 3249, "las": 3250, "Ġà¦¤": 3251, "å®ĺç½ĳ": 3252, "Ð°Ð³Ð°": 3253, "led": 3254, "raf": 3255, "Ø§Ø¡": 3256, "uta": 3257, "ìĿ¸": 3258, "une": 3259, "alar": 3260, "×ķ×Ĳ": 3261, "á»§": 3262, "à°¿à°ķ": 3263, "Ġsiz": 3264, "oli": 3265, "Īëĭ¤": 3266, "ove": 3267, "å½©": 3268, "Ġà·Ħ": 3269, "ĠØ¥": 3270, "áĥĿáĥĽ": 3271, "Ġmem": 3272, "ĠìĹ": 3273, "ãĤ¤": 3274, "Äįi": 3275, "à¶«": 3276, "ĠáŀĬ": 3277, "ãĤī": 3278, "Ġass": 3279, "Ä±z": 3280, "Ġword": 3281, "idad": 3282, "orn": 3283, "ë¡ľ": 3284, "Ġnon": 3285, "Ð°Ñı": 3286, "atan": 3287, "à®®": 3288, "ÙĦÛĮ": 3289, "Ġ42": 3290, "alo": 3291, "mu": 3292, "à´ª": 3293, "Ġì¶ľìŀ¥": 3294, "yon": 3295, "ĠNew": 3296, "çĻ": 3297, "gram": 3298, "Ġfra": 3299, "å®ĺæĸ¹": 3300, "àºĩ": 3301, "Ġdag": 3302, "ĠÑĤÐ°Ðº": 3303, "Õ¡Öģ": 3304, "ÏĦÎ¬": 3305, "ĠÐķ": 3306, "è¦": 3307, "à¹īà¸²à¸": 3308, "ĠÎ¸": 3309, "ĠàªĽ": 3310, "pi": 3311, "ĠAz": 3312, "ãĥĪ": 3313, "Ġà¤¹à¥Ī": 3314, "èĢ": 3315, "Õ¸ÖĤÕ©ÕµÕ¸ÖĤÕ¶": 3316, "Ġvy": 3317, "ĠÔ±": 3318, "ÐĽ": 3319, "94": 3320, "àµįà´ª": 3321, "Ð°ÑĢÑĤ": 3322, "Ġà¤ªà¥įà¤°": 3323, "Ġfrom": 3324, "Ġinf": 3325, "urn": 3326, "ä¿": 3327, "Ġah": 3328, "ëĵ": 3329, "pon": 3330, "este": 3331, "Ġout": 3332, "elo": 3333, "ĠInter": 3334, "ota": 3335, "alit": 3336, "lÉĻ": 3337, "ĠáĢ±áĢ": 3338, "Ġsen": 3339, "ÃŃm": 3340, "åĿ": 3341, "pt": 3342, "ular": 3343, "ÐµÐ¶": 3344, "²áĢ·": 3345, "è´": 3346, "Ġkam": 3347, "Ġà¨ª": 3348, "à´ķàµįà´ķ": 3349, "à±įà°Ł": 3350, "à¤¿à¤¯": 3351, "ĠÐºÑĢ": 3352, "ĠEx": 3353, "Ġáĥ¨": 3354, "Ġ90": 3355, "àº°": 3356, "Ġ2009": 3357, "Ġok": 3358, "ote": 3359, "ÑĭÒ£": 3360, "fs": 3361, "ande": 3362, "Ġdata": 3363, "à¤¬": 3364, "à°¿à°¨": 3365, "Ġ`": 3366, "Ġê²": 3367, "ĠÐ¨": 3368, "Ð¸Ð½Ð°": 3369, "Ã¢n": 3370, "Ġkad": 3371, "à¯įà®±": 3372, "ÑįÐ»": 3373, "ĠFor": 3374, "Ð´Ð°Ð½": 3375, "çº": 3376, "anc": 3377, "iden": 3378, "à©Ĥ": 3379, "ķáĢ«": 3380, "eci": 3381, "à¹Ĥ": 3382, "áºŃ": 3383, "Õ¸ÖĢ": 3384, "Ø±ÙĬ": 3385, "Ĥ°": 3386, "åĵ": 3387, "à¦¦": 3388, "ED": 3389, "ĠÕ¿": 3390, "ania": 3391, "Ò¯Ð½": 3392, "áĪŃ": 3393, "eren": 3394, "Ã¶z": 3395, "Ġkor": 3396, "entru": 3397, "Ġ.,": 3398, "×ķ×ĺ": 3399, "anta": 3400, "ê±": 3401, "asta": 3402, "Ġáĭ¨": 3403, "Ġà®İ": 3404, "ĠÚ©Ø§": 3405, "Ġou": 3406, "pre": 3407, "ÑĢÐ°Ð½": 3408, "ĠCar": 3409, "Ġ44": 3410, "kar": 3411, "ĠqÃ«": 3412, "Ġhand": 3413, "ĠÏĢÎ¿Ïħ": 3414, "cial": 3415, "¯äºļ": 3416, "ãĤĮ": 3417, "áŀĩ": 3418, "ĠÕ¡Õ": 3419, "Ġorgan": 3420, "ciÃ³n": 3421, "ÑĤÐ¸": 3422, "ÑĹ": 3423, "Ġ70": 3424, "Ġà°°": 3425, "Ð´Ð¸": 3426, "lad": 3427, "Ġpen": 3428, "à¯ĭ": 3429, "à¦ª": 3430, "Õ¸Õ¾": 3431, "ĠEur": 3432, "Ð½Ð¸Ðº": 3433, "Ġkm": 3434, "pro": 3435, "Ġdur": 3436, "Ġ()": 3437, "ĠvÃł": 3438, "kov": 3439, "Ġsek": 3440, "ĠÐ¿ÐµÑĢ": 3441, "ĥ½": 3442, "ãĤĵ": 3443, "Ġleg": 3444, "cha": 3445, "eda": 3446, "Ã¤t": 3447, "áĪį": 3448, "ÑĥÐ¿": 3449, "Ġàª¨": 3450, "Ġà»": 3451, "Ã¡v": 3452, "38": 3453, "£¼": 3454, "Ġger": 3455, "Õ¥Õ¿": 3456, "ÐµÑĨ": 3457, "Ġàª¹": 3458, "Ġ37": 3459, "à«Ģàª": 3460, "ĠÐ°ÑĢ": 3461, "ÑĤÐ°ÑĢ": 3462, "isti": 3463, "à±Ĥà°": 3464, "ÐºÐ¾": 3465, "ÑįÐ³": 3466, "æĹ¥": 3467, "Ġnew": 3468, "ÑĸÐ¼": 3469, "by": 3470, "àºĶ": 3471, "jon": 3472, "ĠIt": 3473, "Ġà¶ľ": 3474, "ated": 3475, "Ġnav": 3476, "à´ķ": 3477, "ĠAng": 3478, "nes": 3479, "Ġ×Ķ×ŀ×": 3480, "à²°à³ģ": 3481, "Ġale": 3482, "àµįà´ļ": 3483, "à§ĩà¦¨": 3484, "eden": 3485, "à±Ī": 3486, "à¤ľ": 3487, "ĠÕ£": 3488, "áĭį": 3489, "........": 3490, "ĠVi": 3491, "à¦Ł": 3492, "Ġhan": 3493, "Ġpun": 3494, "ĠÐºÐ¾Ð¼": 3495, "Ġnag": 3496, "Ġå¤§åıĳ": 3497, "ÐµÐ»ÑĮ": 3498, "ater": 3499, "ĠÚ©Ûģ": 3500, "ĠPol": 3501, "ĠÙħÛĮ": 3502, "ĠDie": 3503, "ĠQu": 3504, "ĠÐ¿Ð¾Ð´": 3505, "à«ģàªĤ": 3506, "Ð¾Ð²Ð°": 3507, "Õ¤": 3508, "ìķĪë§Ī": 3509, "æĶ": 3510, "Ġlab": 3511, "ee": 3512, "Ġáį": 3513, "ì¹": 3514, "áŁħ": 3515, "chi": 3516, "Ð»Ð¸Ðº": 3517, "uka": 3518, "pg": 3519, "ĠÎ·": 3520, "Õ¸Õ²": 3521, "oa": 3522, "æµ": 3523, "Ð°Ð»Ð°": 3524, "str": 3525, "Ġtek": 3526, "Î¹Ïĥ": 3527, "ĠvÃµ": 3528, "áŀİ": 3529, "edi": 3530, "ĠÅł": 3531, "áĢĦáĢº": 3532, "à¤ļ": 3533, "Ġole": 3534, "à¸²à¸¡": 3535, "Ġà¦ħ": 3536, "jet": 3537, "Ð»Ð°Ð½": 3538, "çĲ": 3539, "29": 3540, "Ġset": 3541, "uje": 3542, "nen": 3543, "ä¸Ĭ": 3544, "Ã³r": 3545, "Ġyour": 3546, "TT": 3547, "Ġcent": 3548, "inin": 3549, "àª¾àª¨": 3550, "ory": 3551, "ðŁ": 3552, "Ġvers": 3553, "ìĿĢ": 3554, "len": 3555, "æŃ": 3556, "ÑĭÐº": 3557, "ì²": 3558, "Ġpop": 3559, "uld": 3560, "ĠBer": 3561, "Ġzu": 3562, "Ġà¤¯": 3563, "Ġ('": 3564, "×Ļ×§": 3565, "ikan": 3566, "del": 3567, "æİ": 3568, "Ġai": 3569, "ĠAs": 3570, "éĽ": 3571, "Ġ×¢×ľ": 3572, "Ļàµįà´": 3573, "ĠPost": 3574, "à¶±à·Ĭà¶±": 3575, "ĠsÃ¥": 3576, "34": 3577, "Ġmes": 3578, "ages": 3579, "ë°": 3580, "ĠÃ¤r": 3581, "Ð»ÐµÐ½": 3582, "ĠâĢĿ,": 3583, "Ġ--": 3584, "ÑģÐºÐ¸": 3585, "Ò¯ÑĢ": 3586, "zo": 3587, "Ġfi": 3588, "à¨¾à¨Ĥ": 3589, "ĠÐ¸Ð¼": 3590, "à·ĬâĢį": 3591, "Ġhal": 3592, "ument": 3593, "æł": 3594, "Ä°": 3595, "Ġ39": 3596, "Ġkal": 3597, "gin": 3598, "uni": 3599, "ĠØ¨Ø§": 3600, "Ð¸Ð¿": 3601, "apat": 3602, "ĸáĢ": 3603, "Īĺ": 3604, "Ġ×ľ×Ĳ": 3605, "ãĥ«": 3606, "ÎŃÏĤ": 3607, "Ġà²¤": 3608, "Ð°ÑĤÑĮ": 3609, "àµģà´¨àµįà´¨": 3610, "ava": 3611, "ĠÕº": 3612, "ÑģÐ¿": 3613, "atis": 3614, "II": 3615, "âĢ¦": 3616, "áĥĺáĥĹ": 3617, "à²¿à²Ĺ": 3618, "ĠÐ²Ð°": 3619, "ĠBe": 3620, "áŁĴáŀĽ": 3621, "Ġbol": 3622, "×ĳ×¨": 3623, "Ġhi": 3624, "áį": 3625, "ĠÎµÏĢ": 3626, "abil": 3627, "Ġsig": 3628, "×ª×Ļ": 3629, "por": 3630, "ude": 3631, "Ð°Ð»Ð°ÑĢ": 3632, "Ġà¤ī": 3633, "uan": 3634, "à²¿à²¯": 3635, "áĪĿ": 3636, "à´¾à´¯": 3637, "ĠØ§ÙĦØª": 3638, "à¹Ģ": 3639, "Ð°Ñİ": 3640, "iai": 3641, "à²Ĥà²": 3642, "à®¿à®²à¯į": 3643, "ĠDes": 3644, "à¸ģà¸²à¸£": 3645, "å¹³": 3646, "21": 3647, "Ġà¦ľ": 3648, "à¸Ĺà¸µà¹Ī": 3649, "à®ķ": 3650, "ĠìĦ": 3651, "ĠÐ¼ÐµÐ½": 3652, "ox": 3653, "ĠBu": 3654, "×ķ×Ŀ": 3655, "RO": 3656, "èĤ": 3657, "à²Ĺà²³": 3658, "éģ": 3659, "à¯įà®ķà®³": 3660, "ÃŃs": 3661, "ering": 3662, "çĶ¨": 3663, "ħáĢ": 3664, "Ġint": 3665, "bil": 3666, "á»Ľ": 3667, "68": 3668, "Ġmul": 3669, "wi": 3670, "Ø§Ú©": 3671, "ÏģÎ¬": 3672, "ĠÐ¤": 3673, "áŀľ": 3674, "Ã©l": 3675, "Ġtill": 3676, "Ġsex": 3677, "Ġmay": 3678, "à³įà²¦": 3679, "à®¤à¯įà®¤": 3680, "ground": 3681, "à¸£à¸°": 3682, "Ð£": 3683, "UN": 3684, "Ġáŀĳ": 3685, "tur": 3686, "Î»Î¿": 3687, "Ġ$(": 3688, "Ð»Ð°Ð´": 3689, "ĠFran": 3690, "à±ģà°²": 3691, "ĠVer": 3692, "har": 3693, "Ġáŀ¢": 3694, "ido": 3695, "ogy": 3696, "Ġcomo": 3697, "han": 3698, "Ġdal": 3699, "Ġci": 3700, "áº§": 3701, "ĠTo": 3702, "ĠDi": 3703, "ÏĦÎ±Î¹": 3704, "Ġàª°": 3705, "ĠÐĸ": 3706, "ĠKr": 3707, "ĠHe": 3708, "àµĢ": 3709, "ijn": 3710, "asÄ±": 3711, "ĠÐ±Ð°ÑĢ": 3712, "dan": 3713, "ÛĮÙħ": 3714, "Ġfe": 3715, "à®¿à®°": 3716, "ĠÕ¤": 3717, "Ġfal": 3718, "ĠCo": 3719, "Ġ}.": 3720, "rem": 3721, "ĠÙħØ¹": 3722, "à´¿à´ķàµįà´ķ": 3723, "Ġsec": 3724, "×Ļ×ĵ": 3725, "Ġáĥ¡áĥĲáĥ": 3726, "apa": 3727, "ĠÐ¼Ð¾Ð¶": 3728, "ums": 3729, "Ð´Ñĸ": 3730, "ÑıÑĤ": 3731, "ĠÒļ": 3732, "ĠEm": 3733, "amil": 3734, "Ģàº": 3735, "ë¦¬": 3736, "à³ģà²µ": 3737, "Ð¾ÑĤÐ¾": 3738, "Ġart": 3739, "Õ¸ÖĢÕ": 3740, "ÓĻÐ½": 3741, "hu": 3742, "ìľ": 3743, "áŀĬ": 3744, "Ġmus": 3745, "Õ¡Õ®": 3746, "ÐĶ": 3747, "ĠMe": 3748, "ÙĬÙĦ": 3749, "à¹Īà¸Ń": 3750, "ĠPo": 3751, "Ã©m": 3752, "×Ļ×©": 3753, "ĠÏĥÏħ": 3754, "Ġtod": 3755, "Ġmis": 3756, "Ġget": 3757, "ĠAb": 3758, "ĠmÃ¼": 3759, "Ġten": 3760, "ÎŁÎ": 3761, "ÐµÑĤÐ¾": 3762, "Ã¶l": 3763, "åĳ": 3764, "×¢×¨": 3765, "Ġikke": 3766, "áĢŃáĢ¯áĢ": 3767, "ĠÏĥÏĦÎ¿": 3768, "Ġgl": 3769, "inu": 3770, "ĠâĢļ": 3771, "ĠØ§ÙĦØ¹": 3772, "ots": 3773, "umi": 3774, "ìļ": 3775, "ÐºÑĢ": 3776, "Ġ160": 3777, "edia": 3778, "×ł×Ļ": 3779, "Ġkwa": 3780, "à²²à³įà²²à²¿": 3781, "Ö¸": 3782, "Ġhel": 3783, "Ġà¶¶": 3784, "ĠlÃł": 3785, "à®®à¯į": 3786, "ÑĭÐ½Ð´Ð°": 3787, "Ġkol": 3788, "à±įâĢĮ": 3789, "Î¿ÏħÎ½": 3790, "ĠGo": 3791, "Ä«b": 3792, "eka": 3793, ",\"": 3794, "ÙĨØ§": 3795, "Ġàª¬": 3796, "EM": 3797, "irt": 3798, "àª²": 3799, "arr": 3800, "ĠáĥĹ": 3801, "Ġkap": 3802, "áŀ¶áŁĨ": 3803, "pres": 3804, "alah": 3805, "Ġsob": 3806, "Ġdom": 3807, "à¤¾à¤®": 3808, "Ġpour": 3809, "æĸ°": 3810, "áŀ¶áŀĢ": 3811, "ella": 3812, "ÙĬØ¯": 3813, "ç§": 3814, "ĠÕĢ": 3815, "Ġ){": 3816, "IA": 3817, "ony": 3818, "Ġà²Ĩ": 3819, "Ġbackground": 3820, "eti": 3821, "éľ": 3822, "×Ļ×ĳ": 3823, "Ġnam": 3824, "ÏģÎ¯": 3825, "ÑĥÑİ": 3826, "GG": 3827, "æŀ": 3828, "à¤®à¤¾": 3829, "ÛĮØ§": 3830, "à³įà²Ł": 3831, "Ġgro": 3832, "Ġ46": 3833, "wan": 3834, "oko": 3835, "bar": 3836, "Îķ": 3837, "rag": 3838, "her": 3839, "Ġnos": 3840, "Ġcas": 3841, "Ġcap": 3842, "Ġáŀĩ": 3843, "ple": 3844, "áĥĿáĥĳ": 3845, "27": 3846, "Ġ49": 3847, "Ġà¶ĳ": 3848, "à¦¿à¦ķ": 3849, "ĠàªĽà«ĩ": 3850, "Ð°ÑļÐµ": 3851, "elen": 3852, "ebru": 3853, "ĠÐ´Ð¾": 3854, "????": 3855, "Ġins": 3856, "ĠÕ¢": 3857, "Ġvon": 3858, "Ġmemb": 3859, "åĽ¾": 3860, "Î¹Î¿": 3861, "ĢáĢ": 3862, "à´°àµįâĢį": 3863, "rij": 3864, "Ġdire": 3865, "ton": 3866, "à®¤à¯ģ": 3867, "org": 3868, "iner": 3869, "à°Ĥà°¦": 3870, "à®¿à®©": 3871, "åı°": 3872, "Ð°ÑĦ": 3873, "mm": 3874, "Ġà¨®": 3875, "ĠÏĢÏģÎ¿": 3876, "iku": 3877, "erd": 3878, "Ġ\"},": 3879, "ĠØ§ÙĦØ£": 3880, "á»¥": 3881, "Ġ56": 3882, "Ġurl": 3883, "Ð´Ð°ÑĢ": 3884, "OL": 3885, "ãģı": 3886, "ns": 3887, "ļàµįà´ļ": 3888, "Ġtan": 3889, "±áĢ¬": 3890, "à²¿à²ķ": 3891, "Ä§": 3892, "oja": 3893, "Ġesc": 3894, "oka": 3895, "à¤£": 3896, "ps": 3897, "kk": 3898, "Ġ×¦": 3899, "ĠáĥĻ": 3900, "Ġsim": 3901, "Ø§Ø´": 3902, "àªĤàª": 3903, "ange": 3904, "ider": 3905, "áĥĲáĥļ": 3906, "Ġloc": 3907, "ĠÐŃ": 3908, "ĠÏĦÎ±": 3909, "×Ļ×ĺ": 3910, "à¤¨à¥ĩ": 3911, "arm": 3912, "Äģk": 3913, "umb": 3914, "ule": 3915, "iste": 3916, "Ġë§": 3917, "Õ¸ÖĤÕ©ÕµÕ¡Õ¶": 3918, "à¦¾à¦²": 3919, "à¶¶": 3920, "Ġ2008": 3921, "Äģm": 3922, "ĠAir": 3923, "ÙĴ": 3924, "à¶¸à·Ĭ": 3925, "alog": 3926, "à²¨à³įà²¨à³ģ": 3927, "Ġ\":{\"": 3928, "áº¥t": 3929, "à·Ķà·Ģ": 3930, "Ġata": 3931, "Ġà´¤": 3932, "ĠmÃ¡": 3933, "ĠnjÃ«": 3934, "Ġhab": 3935, "à³Ĩà²¯": 3936, "ions": 3937, "ĠsiÄĻ": 3938, "Ġnas": 3939, "ìĦľ": 3940, "à¸²à¸¢": 3941, "Ġacc": 3942, "Ġà²ĩ": 3943, "Ã«t": 3944, "ĠÑĤÐ°": 3945, "ãĤ¯": 3946, "Ġaw": 3947, "ÐµÐ½Ð¸": 3948, "uli": 3949, "ÏģÏĮ": 3950, "Ð¾Ð¸": 3951, "Ġlet": 3952, "Ġ99": 3953, "ĠÐ¿ÑĢÐµÐ´": 3954, "Ġcor": 3955, "Ø±Ø¨": 3956, "van": 3957, "à¤¿à¤¤": 3958, "Ġprobl": 3959, "Ġcheck": 3960, "Æ°á»Ŀ": 3961, "ovan": 3962, "æ²": 3963, "Ġmon": 3964, "ĠâĢĿ.": 3965, "à¯Ĭ": 3966, "ĠÙħØŃ": 3967, "ĠRes": 3968, "Ġä»": 3969, "à±Ĭ": 3970, "yle": 3971, "nÄĽ": 3972, "irm": 3973, "ĠÙħÙĪ": 3974, "aca": 3975, "raz": 3976, "ĠÐ¹": 3977, "à¤Ł": 3978, "ĠÐ¿Ð¾Ð»": 3979, "ĠAt": 3980, "Ð¾ÑĢÐ¼": 3981, "dy": 3982, "ations": 3983, "Ġ3D": 3984, "ĠÐ§": 3985, "Ġ×Ķ×Ĳ": 3986, "Ø§ÙĤ": 3987, "Ġtit": 3988, "áŀ¶áŀļáŀ": 3989, "hat": 3990, "amo": 3991, "ĠAut": 3992, "Ó©Ð»": 3993, "á»±": 3994, "85": 3995, "ĴĮ": 3996, "Ġkaj": 3997, "Ã¼k": 3998, "Ġà¨ľ": 3999, "rib": 4000, "ä½ĵ": 4001, "æ´": 4002, "ĠiÅ¡": 4003, "Ġinv": 4004, "à¯Īà®¯": 4005, "ingen": 4006, "ÒĵÐ°Ð½": 4007, "èµ°": 4008, "Ó©Ð½": 4009, "Ġpad": 4010, "ĠWe": 4011, "Ð½Ð¾Ð³Ð¾": 4012, "esk": 4013, "ĠDo": 4014, "æīĭæľº": 4015, "Ġlink": 4016, "à¸£à¸±": 4017, "----": 4018, "Ġtro": 4019, "à©±à¨": 4020, "ĠHotel": 4021, "ĠFl": 4022, "¨áĥĺ": 4023, "ĠSu": 4024, "Ø§ØŃ": 4025, "46": 4026, "ĠÑĤÐ¾": 4027, "è¡Į": 4028, "ence": 4029, "ĠHer": 4030, "ë¶": 4031, "Ġeste": 4032, "ram": 4033, "Ġmaj": 4034, "Ġhave": 4035, "Ġdalam": 4036, "ĠPa": 4037, "ãĥ©": 4038, "Ġï¿½ï¿½ï¿½ï¿½ï¿½ï¿½ï¿½": 4039, "éĿ": 4040, "ĠKom": 4041, "ĠØ±ÙĪ": 4042, "Ġ×ĺ": 4043, "Ġmel": 4044, "ÐºÑĤ": 4045, "ëıĦ": 4046, "ÉĻs": 4047, "inta": 4048, "´ì§Ģ": 4049, "Ġ~": 4050, "Ġoo": 4051, "çĶŁ": 4052, "×ķ×§": 4053, "ĠÃ¨": 4054, "Ġels": 4055, "àª¹": 4056, "à®¯": 4057, "Ġà¨¤": 4058, "áĢĦáĢ¹áĢ¸áĢ": 4059, "esh": 4060, "Ġfac": 4061, "ĠcÃ³": 4062, "istr": 4063, "ĠEd": 4064, "Ġìĭ": 4065, "ĠÂ²": 4066, "itar": 4067, "×¨×Ĳ": 4068, "ĠØ§Ùħ": 4069, "Ġben": 4070, "Õ¡Õ£": 4071, "ĠÎ²": 4072, "ĠAll": 4073, "zer": 4074, "ÏĥÎµÎ¹": 4075, "Ġgal": 4076, "ĠHa": 4077, "oss": 4078, "à¨®": 4079, "åĩº": 4080, "áĥĺáĥľ": 4081, "ĠÐºÐ¾Ð½": 4082, "ÏĦÎ®": 4083, "Ġresp": 4084, "Ġdari": 4085, "Ġ43": 4086, "hl": 4087, "ĠÐ¿ÑĢÐ¾": 4088, "ĠDa": 4089, "áº¹": 4090, "ÎµÎ½": 4091, "áĥĹ": 4092, "åĬ¿": 4093, "Ġcre": 4094, "Ä¯": 4095, "Ġà°Ĩ": 4096, "à®¾à®°": 4097, "àª£": 4098, "àºŃ": 4099, "yy": 4100, "Ã¶v": 4101, "Ð»Ð°": 4102, "Ġåĩ": 4103, "ĠáĬ¥": 4104, "à¹Īà¸ĩ": 4105, "ants": 4106, "ijas": 4107, "áĪµ": 4108, "åįķ": 4109, "ĠTer": 4110, "å¼Ģ": 4111, "ĠSex": 4112, "Ġçİ": 4113, "Ùĳ": 4114, "Ġcm": 4115, "Ġegy": 4116, "à¤¾à¤¤": 4117, "Ġåħ": 4118, "ĠviÃ°": 4119, "iten": 4120, "ical": 4121, "ĠØªÙĪ": 4122, "ĠAM": 4123, "Î±ÏĤ": 4124, "Ð»Ðµ": 4125, "ĠJan": 4126, "Ġæľ": 4127, "oti": 4128, "Ġbal": 4129, "àµįà´±": 4130, "76": 4131, "vat": 4132, "Ġà¨ħ": 4133, "Ġproduc": 4134, "ĠdÃ©": 4135, "Ø§Ø¬": 4136, "over": 4137, "Ġà´İ": 4138, "Ġfont": 4139, "×ķ×¢": 4140, "ìĺ": 4141, "Ġ54": 4142, "áŀļ": 4143, "enc": 4144, "Ø±Ø¯": 4145, "Ġlu": 4146, "Ùĭ": 4147, "leg": 4148, "Ġserv": 4149, "Ġà¤®à¥ĩà¤Ĥ": 4150, "oje": 4151, "à¯ģà®¤": 4152, "idade": 4153, "Ġvil": 4154, "ĠÐ¾Ñģ": 4155, "Ġ\":[": 4156, "tre": 4157, "Ġht": 4158, "à·ħ": 4159, "Ġinc": 4160, "Î¼Î¿": 4161, "Ã¡z": 4162, "ukan": 4163, "Ġdh": 4164, "Ġeller": 4165, "Ġê³": 4166, "Ġbest": 4167, "ĠIm": 4168, "aciÃ³": 4169, "Ġdir": 4170, "ĠJa": 4171, "à¤¨à¥įà¤": 4172, "ĠÑģÐ°Ð¼": 4173, "Ġnap": 4174, "CC": 4175, "Ġcare": 4176, "Ġuit": 4177, "å®ĺæĸ¹ç½ĳç«Ļ": 4178, "Ġsus": 4179, "à¦¼": 4180, "Ġpred": 4181, "Ġ75": 4182, "ÑĭÑı": 4183, "eter": 4184, "ĠáĥĶ": 4185, "íĶ": 4186, "RE": 4187, "íĻĶ": 4188, "Ġ',": 4189, "Ã©k": 4190, "áĥłáĥ": 4191, "alm": 4192, "ĠSk": 4193, "Õ¡Õ¬": 4194, "uko": 4195, "ublic": 4196, "Ġname": 4197, "Ġbez": 4198, "Ġ2007": 4199, "Ã»": 4200, "Ġì¹": 4201, "Ġfo": 4202, "Ġett": 4203, "ÑĭÑĪ": 4204, "ĠÅ¾e": 4205, "Ġhy": 4206, "ØªÛĮ": 4207, "ilo": 4208, "ÑĤÐµ": 4209, "ĠBa": 4210, "ìĤ°": 4211, "dÉĻ": 4212, "à¤²à¥ĩ": 4213, "à´Ļàµįà´": 4214, "ĠÐ³ÑĢ": 4215, "à¸Ķà¹ī": 4216, "Ġpak": 4217, "Ð¾Ð»ÑĮ": 4218, "ÃŁ": 4219, "ÑĭÐ¹": 4220, "cu": 4221, "ĠÕ½": 4222, "ĠÏĥÎµ": 4223, "Ġsist": 4224, "Ġdig": 4225, "ST": 4226, "ĠMas": 4227, "ÑģÑĤÐ°Ð½": 4228, "Ġ58": 4229, "âĢľ": 4230, "Ġnaj": 4231, "ĠÐ³Ð¾Ð´": 4232, "Ġcontent": 4233, "Ġnak": 4234, "Ġáŀĸ": 4235, "ĠÐ¯": 4236, "Ġcel": 4237, "å®¶": 4238, "IM": 4239, "ĠØ§ÙĪ": 4240, "àµĤ": 4241, "kom": 4242, "ÑĸÑĤ": 4243, "Ðľ": 4244, "Ġsav": 4245, "à¤¡": 4246, "aro": 4247, "Ġprim": 4248, "Ġï": 4249, "à¨¾à¨°": 4250, "Ġot": 4251, "Ġjpg": 4252, "åĴĮ": 4253, "pen": 4254, "ĠIs": 4255, "áĥĲáĥª": 4256, "ĠMon": 4257, "ĠFr": 4258, "fe": 4259, "áĥĶáĥ¡": 4260, "à²Ł": 4261, "Ġmot": 4262, "Ġraz": 4263, "ĠÑī": 4264, "ÄŁÄ±": 4265, "ych": 4266, "ĠMin": 4267, "Ġ500": 4268, "kon": 4269, "ĠÎŁ": 4270, "ÙĬÙħ": 4271, "emi": 4272, "Ġvel": 4273, "Ġkab": 4274, "à³įà²ķ": 4275, "ĠÐ°Ð²": 4276, "à²£": 4277, "ÑĨÑĸ": 4278, "à®Łà¯įà®Ł": 4279, "ÏģÎ³": 4280, "ĠSl": 4281, "å¤©": 4282, "Æ°á»£": 4283, "Ä±nÄ±": 4284, "ĠÏĥÏĦÎ·": 4285, "åľ°": 4286, "ĠKa": 4287, "à¤¿à¤¨": 4288, "áŀī": 4289, "ĠReg": 4290, "èĩ": 4291, "Ġide": 4292, "ags": 4293, "Ġà¦ªà§įà¦°": 4294, "osa": 4295, "arch": 4296, "ĠDE": 4297, "unk": 4298, "ĠÑĪÑĤÐ¾": 4299, "à¸·à¸Ń": 4300, "ĠÛģÙĪ": 4301, "à°¿à°Ĥà°ļ": 4302, "AH": 4303, "Ġcolor": 4304, "ÙĦÙħ": 4305, "lin": 4306, "Ĺà¸µà¹Ī": 4307, "ĠNov": 4308, "Ġ.)": 4309, "Ġinn": 4310, "Ġseb": 4311, "ĠEst": 4312, "Ġlah": 4313, "à°Ĺ": 4314, "ĠëĤ": 4315, "ĠØ§ÛĮÙĨ": 4316, "Ġnull": 4317, "à¯ģà®ķà¯įà®ķ": 4318, "ikk": 4319, "áĥĶáĥł": 4320, "load": 4321, "à±ģà°Ĥà°": 4322, "Ġhv": 4323, "Ġved": 4324, "else": 4325, "ĠlÃ¤": 4326, "Ġgu": 4327, "Ġlib": 4328, "ĠAc": 4329, "Î¼ÎŃ": 4330, "Ġáīł": 4331, "áº¡i": 4332, "oks": 4333, "Õ¶Õ¥ÖĢÕ«": 4334, "Ð°Ð»Ð¸": 4335, "ë³": 4336, "Ġà²İ": 4337, "ÎĳÎ": 4338, "umu": 4339, "àºµ": 4340, "Ġgre": 4341, "Ġdon": 4342, "ales": 4343, "æ±": 4344, "htÃ«": 4345, "itz": 4346, "ÙĢ": 4347, "...": 4348, "Ġann": 4349, "Ġdiv": 4350, "ÑĨÐ°": 4351, "Ä±l": 4352, "ë¥¼": 4353, "erg": 4354, "Ġwidth": 4355, "Ã©ny": 4356, "Ġtim": 4357, "Ġsit": 4358, "ĠEs": 4359, "Ġru": 4360, "ĠÐ±ÐµÑĢ": 4361, "Ġtab": 4362, "Ġvideo": 4363, "Õ¡Õ°": 4364, "Ġàªı": 4365, "ëħ¸": 4366, "ÑĥÐ·": 4367, "Ġtik": 4368, "ÑģÑĮ": 4369, "oda": 4370, "iem": 4371, "ĠáĬł": 4372, "amente": 4373, "ëł": 4374, "ĠÏĨ": 4375, "fault": 4376, "à¦¿à¦¨": 4377, "Ø§Ø±ÛĮ": 4378, "ago": 4379, "ÑĢÐ°": 4380, "48": 4381, "ÏģÎµ": 4382, "Ġ47": 4383, "ĠÏħ": 4384, "ãģĵ": 4385, "à±ģà°¨": 4386, "unn": 4387, "Ġprogram": 4388, "ept": 4389, "Ġyo": 4390, "Ġà¦°": 4391, "ĠÕ¾": 4392, "yb": 4393, "ului": 4394, "Ġà°ªà±įà°°": 4395, "Ġwill": 4396, "Ġze": 4397, "Ġbut": 4398, "ÑĭÑĤ": 4399, "rt": 4400, "kur": 4401, "Ġneg": 4402, "Ã¡g": 4403, "ciÃ³": 4404, "åī": 4405, "jem": 4406, "Ġà¤ķà¥ĭ": 4407, "àªª": 4408, "Ġà²°": 4409, "Ġtul": 4410, "×ķ×¤": 4411, "Ġpan": 4412, "Ò¯Ð¹": 4413, "Ð¸Ð¾Ð½": 4414, "Ġmax": 4415, "vÃŃ": 4416, "Ġparti": 4417, "áĢ¹áĢ¸áĢ": 4418, "ske": 4419, "rop": 4420, "ĠÑģÐ°": 4421, "ĠÑģÑĥ": 4422, "ĠMat": 4423, "èµ°åĬ¿": 4424, "Ġáŀļáŀ": 4425, "ron": 4426, "Ġhor": 4427, "uti": 4428, "ette": 4429, "Ġhogy": 4430, "Ġ&#": 4431, "æĭ": 4432, "à¦¾à¦®": 4433, "ÐµÑħ": 4434, "ëĿ¼": 4435, "Ġà¹ģà¸": 4436, "æ¬": 4437, "Ġalle": 4438, "ĠPor": 4439, "à©°à¨": 4440, "ħáĢ¹áĢ": 4441, "ĠØ±Ø§": 4442, "à¬": 4443, "á»Ľi": 4444, "½©ç¥¨": 4445, "ĠÏĢÎ±": 4446, "ãģį": 4447, "ĠØ§ÙĦØ³": 4448, "Ġrev": 4449, "Ġtemp": 4450, "ĠÄĮ": 4451, "imin": 4452, "ĠÄĲ": 4453, "ÏĦÏĮ": 4454, "adh": 4455, "ĠÙĨÛĴ": 4456, "Î¿Î»": 4457, "Äįn": 4458, "Ġtidak": 4459, "à¶©": 4460, "OT": 4461, "Ġtext": 4462, "à¶Ńà·Ĵ": 4463, "Ã°ur": 4464, "Ã°a": 4465, "Ġesp": 4466, "ÙĪÛĮ": 4467, "Ġà¶½": 4468, "tar": 4469, "Ġ41": 4470, "bay": 4471, "à®¨à¯įà®¤": 4472, "áŀĤ": 4473, "uts": 4474, "à¦°à§įà¦": 4475, "Ã°i": 4476, "enda": 4477, "×ķ×Ĺ": 4478, "lj": 4479, "Ġà¦¶": 4480, "ĠÐºÐ°Ðº": 4481, "áŁī": 4482, "Î¿Î½": 4483, "Ġlev": 4484, "Å¾i": 4485, "áĢĲáĢ": 4486, "Õ£": 4487, "Ð³Ð¾": 4488, "ª¨": 4489, "Ġpel": 4490, "Ġhad": 4491, "ä½ľ": 4492, "osi": 4493, "×ķ×¡": 4494, "93": 4495, "Ġï¼ī": 4496, "ĠvÃ¤": 4497, "ownload": 4498, "ĠÐ´Ð°ÑĢ": 4499, "åıĮ": 4500, "ÏīÏĤ": 4501, "Äģd": 4502, "Ġà°¦": 4503, "ĠvÃ½": 4504, "Ð°Ð´Ñĭ": 4505, "mun": 4506, "imit": 4507, "Ð½ÑĭÑħ": 4508, "uu": 4509, "Õ¥Õ½": 4510, "uda": 4511, "Ġà¤¶": 4512, "à´¿à´²àµįâĢį": 4513, "ÑĶ": 4514, "åĲĪ": 4515, "à¸µà¸¢": 4516, "Ġste": 4517, "Ġdia": 4518, "à·Ŀ": 4519, "Î¬Î½": 4520, "jek": 4521, "çīĪ": 4522, "Ġhtml": 4523, "yst": 4524, "ĠHar": 4525, "Äĵj": 4526, "à¦Ĺ": 4527, "mes": 4528, "ä¾": 4529, "ating": 4530, "Ġaqu": 4531, "Ö¼": 4532, "zn": 4533, "ĠÕ¸ÖĤ": 4534, "reg": 4535, "illa": 4536, "Õ¬": 4537, "Ġàªķàª°": 4538, "Ġprz": 4539, "Ġorg": 4540, "à·ĥà·Ĭ": 4541, "ahan": 4542, "Ġâĺ": 4543, "ĠPM": 4544, "ÏĥÎµ": 4545, "áĥĶáĥĳáĥĺáĥ¡": 4546, "à²ª": 4547, "Ñķ": 4548, "Ġà¤ļ": 4549, "ĠIl": 4550, "Ġitu": 4551, "Ġ65": 4552, "izi": 4553, "Ġcho": 4554, "Î¯Î½Î±Î¹": 4555, "Ġpart": 4556, "ĠÈĻ": 4557, "Ġoff": 4558, "Ġmm": 4559, "ĠAk": 4560, "ãĥª": 4561, "ador": 4562, "´ì§Ģëħ¸": 4563, "inÄģ": 4564, "Ġpou": 4565, "Ġhot": 4566, "å½©ç¥¨": 4567, "à´¾à´£": 4568, "Ø§ÙĨÛĮ": 4569, "elij": 4570, "ĠÃī": 4571, "é¡": 4572, "×Ļ×Ĳ": 4573, "Ġune": 4574, "Ġproc": 4575, "86": 4576, "à®Ļ": 4577, "Ġ53": 4578, "Ġroz": 4579, "à¹Ģà¸Ľ": 4580, "ÙħÙĦ": 4581, "à±ģà°ķ": 4582, "Ġáŀħ": 4583, "à²¿à²°": 4584, "bb": 4585, "ä¸ī": 4586, "anya": 4587, "à¤ķà¤¾": 4588, "è¾": 4589, "Ġjed": 4590, "indi": 4591, "ebook": 4592, "anto": 4593, "äºī": 4594, "àª¸": 4595, "ŀáĢĬ": 4596, "Ġtai": 4597, "ĠÐ°Ð¹": 4598, "Ġzd": 4599, "ÑĭÐ½Ð°": 4600, "Ø¯Ùĩ": 4601, "ogo": 4602, "Õ¢": 4603, "AB": 4604, "ĠÐ´Ð»Ñı": 4605, "ĠÚ©Ùĩ": 4606, "rod": 4607, "ìĽĲ": 4608, "ĠMal": 4609, "èµ°åĬ¿åĽ¾": 4610, "×ķ×©": 4611, "Ġproduk": 4612, "à´¾à´¨": 4613, "ski": 4614, "ĠðŁ": 4615, "ĠIN": 4616, "Ġà¤Ľ": 4617, "à·ıà·Ģ": 4618, "Å±": 4619, "Ġáĥŀ": 4620, "Ġcs": 4621, "áĪĪ": 4622, "ulo": 4623, "Id": 4624, "Ġ\"]": 4625, "à®¾à®©": 4626, "ÙĨÛĴ": 4627, "Ġtut": 4628, "à°°à±įà°": 4629, "à¤§": 4630, "×Ļ×¢": 4631, "ally": 4632, "á»¯": 4633, "ÐµÐ½Ð°": 4634, "ĠHo": 4635, "áŀ¢": 4636, "Ã¤m": 4637, "Ġjs": 4638, "æĥ": 4639, "à´¾à´°": 4640, "Ġinte": 4641, "Î»Î·": 4642, "ital": 4643, "Ġnum": 4644, "®áĢ¸áĢ": 4645, "ÐĴ": 4646, "ÑĥÑĥÐ»": 4647, "fo": 4648, "à´¨àµįà´": 4649, "ĠÑıÐº": 4650, "ĠÑĥÑĩ": 4651, "ĠÑİ": 4652, "Ġ52": 4653, "ĠØº": 4654, "áŀ¶áŀļ": 4655, "Ġà¤ı": 4656, "à©į": 4657, "Ġmah": 4658, "Ġíķ": 4659, "omo": 4660, "Ġ\\/": 4661, "ational": 4662, "APP": 4663, "ĠÎ»": 4664, "Ġblog": 4665, "á»©": 4666, "Ú¾ÛĮ": 4667, "à´¿à´¨": 4668, "ÑĭÐ³": 4669, "ãģ£ãģ¦": 4670, "¯à¦¼": 4671, "Ġcer": 4672, "Ġalt": 4673, "ÃĲ": 4674, "Ġant": 4675, "Ġvid": 4676, "UL": 4677, "Ġpap": 4678, "Ġend": 4679, "ĠTE": 4680, "ĠJe": 4681, "ĠAp": 4682, "à¨¼": 4683, "Ã¡k": 4684, "Ġlag": 4685, "Ġ59": 4686, "Ġconc": 4687, "æĪı": 4688, "ÛĮØ³": 4689, "vers": 4690, "IK": 4691, "ãĤ¢": 4692, "à²¿à²¨": 4693, "enta": 4694, "áĥĺáĥļ": 4695, "Ġåı": 4696, "ĠMo": 4697, "ĠÕ¸ÖĢ": 4698, "ĠÖĩ": 4699, "åŁ": 4700, "Ð¸ÑĤÑĮ": 4701, "ils": 4702, "row": 4703, "fl": 4704, "ics": 4705, "ĠiÃ§": 4706, "ĠAS": 4707, "Ã¤Ã¤n": 4708, "Ġà¤ķà¥Ģ": 4709, "ĠÐ²ÑĢ": 4710, "osta": 4711, "omen": 4712, "jer": 4713, "ĠuÅ¾": 4714, "ìĬ¤": 4715, "Ġbas": 4716, "à²¿à²¦à³įà²¦": 4717, "jes": 4718, "Ġcá»§": 4719, "Ġà¦¯": 4720, "Ġpentru": 4721, "Ġdob": 4722, "ĠKar": 4723, "Õ¸Õ¶": 4724, "Ã¶g": 4725, "ĠÎ±Î½": 4726, "å¹³åı°": 4727, "à¥ĭà¤Ĥ": 4728, "ĠÙ¾Ùĩ": 4729, "ÑĥÐ¶": 4730, "Ġ....": 4731, "ãģł": 4732, "ĠÓĻ": 4733, "Ð»ÐµÐ´": 4734, "ìĿ´íĬ¸": 4735, "Î»Îµ": 4736, "ones": 4737, "ë²": 4738, "nu": 4739, "Ġkel": 4740, "ĠÐºÐ¾Ñĺ": 4741, "fin": 4742, "ĠDr": 4743, "æ³¨": 4744, "æĻ": 4745, "ãĢĤ": 4746, "à¸¶": 4747, "Ġbed": 4748, "Ġnan": 4749, "Ġkes": 4750, "à´¿à´°": 4751, "ÅĦ": 4752, "ØªÙĩ": 4753, "Ø±Ùħ": 4754, "é¢": 4755, "áĢĦáĢºáĢ": 4756, "iter": 4757, "Ð¡Ð": 4758, "eve": 4759, "Å¡ÃŃ": 4760, "ãģĤ": 4761, "IR": 4762, "àµįà´²": 4763, "cel": 4764, "Ġcá»§a": 4765, "Ġbek": 4766, "à²¿à²¤": 4767, "áĢ±áĢ": 4768, "Å«s": 4769, "iau": 4770, "play": 4771, "Ġbeg": 4772, "¥à¸°": 4773, "ÑĥÑħ": 4774, "Ġnat": 4775, "à¯įà®ļ": 4776, "à²¿à²Ĥ": 4777, "ìĥµ": 4778, "79": 4779, "ĠÂ¾": 4780, "Ġfyr": 4781, "Ð°Ð´Ð¸": 4782, "Ġeur": 4783, "lich": 4784, "Ġelement": 4785, "ĠTa": 4786, "æľĪ": 4787, "à¤¿à¤²": 4788, "ajo": 4789, "Ġnep": 4790, "à¦¾à§Ł": 4791, "à¥įà¤Ł": 4792, "ê±¸": 4793, "Ġdefault": 4794, "iks": 4795, "Ġà¸Ħ": 4796, "ĠÑĤÑĥÑĢ": 4797, "à¦¹": 4798, "Ġà°ĩ": 4799, "Ġà°²": 4800, "hen": 4801, "à·Ļà¶±": 4802, "endo": 4803, "inter": 4804, "Ġred": 4805, "ble": 4806, "ĠCas": 4807, "ĠØ§ÙĦÙĦ": 4808, "åĿĢ": 4809, "ĠAg": 4810, "Ġà°ī": 4811, "Ġdoc": 4812, "ĠRep": 4813, "usta": 4814, "ÅĪ": 4815, "Ġtam": 4816, "Ġsab": 4817, "à¦¿à¦¤": 4818, "ĠÃĸ": 4819, "åįķåıĮ": 4820, "Ð°Ð²Ð°": 4821, "ÎºÎµ": 4822, "ĠÎµÎ¯Î½Î±Î¹": 4823, "à¸ĸ": 4824, "ĨĮ": 4825, "á»ĩn": 4826, "Ġbuh": 4827, "Ð¾Ñŀ": 4828, "obil": 4829, "ĠmÃ«": 4830, "æĮ": 4831, "åĵģ": 4832, "æĿ¥": 4833, "æĦ": 4834, "æ¸¸æĪı": 4835, "aku": 4836, "à¤¾à¤Ĥ": 4837, "eto": 4838, "ĠGu": 4839, "ĠÉĻ": 4840, "ä¸ĩ": 4841, "lam": 4842, "ĠVal": 4843, "ĠRo": 4844, "Ð°Ð´Ð°": 4845, "à¶ºà·Ĵ": 4846, "urg": 4847, "ems": 4848, "ĠtÉĻ": 4849, "XX": 4850, "Ġbul": 4851, "à²¹": 4852, "Å¡i": 4853, "kat": 4854, "ĠGe": 4855, "ÑĤÑĢ": 4856, "Ġgy": 4857, "ÑģÑĤÑĢ": 4858, "ĠMag": 4859, "ÑĬÑĢ": 4860, "oro": 4861, "ĠMay": 4862, "Ø±Ùģ": 4863, "Ġjeg": 4864, "éĺ": 4865, "áŀ¶áŀĶ": 4866, "Î®ÏĤ": 4867, "áŀ¹": 4868, "àº»": 4869, "Ġ,.": 4870, "à®ªà¯įà®ª": 4871, "tid": 4872, "mat": 4873, "Ġesta": 4874, "ãģķ": 4875, "tica": 4876, "ĠÏĦÏīÎ½": 4877, "ĠKo": 4878, "ãĥ³ãĤ": 4879, "Ûķ": 4880, "trol": 4881, "Ġkul": 4882, "Ġhat": 4883, "Ġï¼Ī": 4884, "Ġaus": 4885, "Ġ51": 4886, "Ġpass": 4887, "Ġfer": 4888, "Ġà¤ķà¤°": 4889, "Ġprop": 4890, "ë§Į": 4891, "à¹ĥà¸«": 4892, "ÂŃ": 4893, "Ġentre": 4894, "áŀģ": 4895, "ulle": 4896, "eza": 4897, "àª®àª¾àªĤ": 4898, "áĢĢáĢºáĢ": 4899, "à·ĬâĢįà¶»": 4900, "Ġtas": 4901, "Ġ.âĢĿ": 4902, "á»įn": 4903, "ĠÐ±Ð¸Ð»": 4904, "ster": 4905, "à©Ģà¨": 4906, "ĠOnline": 4907, "ĠÐ¿Ð¾Ñģ": 4908, "Ġpra": 4909, "ĠSan": 4910, "Úĵ": 4911, "Ġbre": 4912, "ĠMen": 4913, "ãģ§ãģĻ": 4914, "yg": 4915, "amos": 4916, "Ġzijn": 4917, "Ġreturn": 4918, "inde": 4919, "Õ¡Õ¶Õ«": 4920, "ono": 4921, "200": 4922, "Å¡t": 4923, "ties": 4924, "Ġkont": 4925, "è¦ģ": 4926, "ĠÐ±Ð°": 4927, "Ġà¨¬": 4928, "áŁĴáŀŁ": 4929, "ĠÐ°Ð½": 4930, "Ġà¶º": 4931, "oth": 4932, "idi": 4933, "å®ī": 4934, "Äĵt": 4935, "Ġ×Ľ×¨": 4936, "à¸²à¸Ļ": 4937, "Ä«t": 4938, "åħ¬": 4939, "ilm": 4940, "ĠCol": 4941, "Ġëĭ": 4942, "usk": 4943, "Ġmais": 4944, "×Ļ×¡": 4945, "åŃĲ": 4946, "ques": 4947, "à®°à¯į": 4948, "lex": 4949, "ÒĵÐ°": 4950, "ĠÈĻi": 4951, "çĲĨ": 4952, "nih": 4953, "à®ļ": 4954, "à³ģà²¤à³įà²¤": 4955, "à®¾à®ķ": 4956, "ÃŃc": 4957, "Ġáĥ¬": 4958, "ĠÐĲÐ»": 4959, "Ġå°": 4960, "ÑĸÒ£": 4961, "osh": 4962, "Ġ×ĳ×Ĳ": 4963, "å¸Ĥ": 4964, "áĭŃ": 4965, "ãģĹãģ¦": 4966, "Ã©sz": 4967, "jt": 4968, "Ġchi": 4969, "áĥĶáĥĳáĥĲ": 4970, "àµģà´Ł": 4971, "ĠÐ¿Ð¾Ð²": 4972, "ĠÕ¥Õ¶": 4973, "ĠÐ¾Ð½": 4974, "Ġhist": 4975, "Ġpolit": 4976, "à¦¾à¦ķ": 4977, "Ġfalse": 4978, "Ã§a": 4979, "«ĺ": 4980, "ĠØ¨Ø§ÙĦ": 4981, "Ġkir": 4982, "ĠfÃ¼r": 4983, "ĶáĢ¹áĢ": 4984, "ĠSer": 4985, "ĠÃĩ": 4986, "ÙĨÚ¯": 4987, "ĠAv": 4988, "ĠMod": 4989, "ĠHome": 4990, "éľ¸": 4991, "ĠáŀĽ": 4992, "ĠáĢĻáĢ": 4993, "àº§": 4994, "Ð°Ð½Ð½Ñı": 4995, "Ð°Ð½Ð¸": 4996, "Ġye": 4997, "ĠÃ«": 4998, "Ġgel": 4999, "usa": 5000, "ener": 5001, "Ġà¦Ĺ": 5002, "ĠSi": 5003, "èĪ": 5004, "Ġà¸ª": 5005, "Ġts": 5006, "Ġakan": 5007, "uru": 5008, "ĠnÃ¤": 5009, "ä¸º": 5010, "à´Ļàµįà´Ļ": 5011, "ĠÃ³": 5012, "Ġ×ķ×©": 5013, "à¸±à¸ĩ": 5014, "à´¿à´ļàµįà´ļ": 5015, "çĻ»": 5016, "ĠâĢĭâĢĭ": 5017, "Ġ66": 5018, "ãģ¾ãģĻ": 5019, "mar": 5020, "ling": 5021, "Ġì¶ľìŀ¥ìķĪë§Ī": 5022, "Ġ95": 5023, "press": 5024, "à¯ģà®ķ": 5025, "dag": 5026, "32": 5027, "à¸ĵ": 5028, "à¶»à·Ĭ": 5029, "Ġvai": 5030, "ĠSc": 5031, "Õº": 5032, "Ã©p": 5033, "à¯Ģ": 5034, "Ġheight": 5035, "à¤¾à¤¸": 5036, "¯åıĳ": 5037, "Ġãĥ»": 5038, "Ġstud": 5039, "èī": 5040, "Ġ57": 5041, "à§ģà¦": 5042, "tive": 5043, "ĠÙħØ³": 5044, "Ġunder": 5045, "Ġáĥ£áĥ": 5046, "ä¸ª": 5047, "xx": 5048, "bat": 5049, "ĠáŀĤ": 5050, "ĠOp": 5051, "elef": 5052, "cip": 5053, "ades": 5054, "Ġjan": 5055, "àª¨àª¾": 5056, "ÑĥÐ³": 5057, "mb": 5058, "esto": 5059, "Î½Î·": 5060, "Ġà¨¦à©ĩ": 5061, "itet": 5062, "fic": 5063, "Ġges": 5064, "ëŀ": 5065, "Ġpada": 5066, "ĠmÃ¥": 5067, "Ã©ho": 5068, "ayo": 5069, "nÃ½": 5070, "Ġing": 5071, "à°¨à°¿": 5072, "ody": 5073, "Ġbij": 5074, "Ġ').": 5075, "ĠDen": 5076, "à°¨à±įà°¨": 5077, "Ġnev": 5078, "ĠÃŀ": 5079, "idh": 5080, "ĠÏĢÎµ": 5081, "ĠØ¹ÙĦÙī": 5082, "nej": 5083, "×ķ×ĺ×ķ×Ł": 5084, "à¦¿à§Ł": 5085, "ĠÕ¡Õ¶": 5086, "äºīéľ¸": 5087, "itat": 5088, "Ġà¨ĩ": 5089, "ĠÛģÛĮÚº": 5090, "ulu": 5091, "uch": 5092, "kr": 5093, "åħ¨": 5094, "Ø¥": 5095, "à²¾à²¨": 5096, "Ġfel": 5097, "Ø¯Ùħ": 5098, "nak": 5099, "Ġsing": 5100, "xa": 5101, "ef": 5102, "àª¾àª®": 5103, "Ã¡ch": 5104, "Ġà´ļ": 5105, "áĥĿáĥľ": 5106, "ÅŁÄ±": 5107, "Ġà°Ĺ": 5108, "áĥĶáĥĽ": 5109, "rov": 5110, "anie": 5111, "ĠÎ¸Î±": 5112, "Ð¼Ð°": 5113, "ĠAG": 5114, "çł": 5115, "Ġtah": 5116, "Ã¼m": 5117, "Ġlig": 5118, "áĬĵ": 5119, "Ġbef": 5120, "ÙĪØ¨": 5121, "·¸": 5122, "Ġåĩ¯åıĳ": 5123, "LE": 5124, "ĠkÃ¤": 5125, "áº¯": 5126, "iny": 5127, "Ġjak": 5128, "nis": 5129, "ĠÐ±ÐµÐ»": 5130, "ÐµÑĤÐµ": 5131, "Ġtip": 5132, "Ġ):": 5133, "Ã¡d": 5134, "à¹Ħà¸Ķà¹ī": 5135, "ĠáĮ": 5136, "à¦¾à¦¦": 5137, "ÑģÐºÐ°": 5138, "Ġà´ĩ": 5139, "ref": 5140, "àª¨à«Ģ": 5141, "Ġà¦ļ": 5142, "à°¾à°°à±ģ": 5143, "urt": 5144, "ÑĭÑħ": 5145, "Ð¾ÑĦ": 5146, "ÎĻÎ": 5147, "adas": 5148, "Ġdz": 5149, "aten": 5150, "Ġà¤ĩ": 5151, "Ġ×ŀ×©": 5152, "Ġdok": 5153, "ĠÃ·": 5154, "ä¸ļ": 5155, "ĠmeÃ°": 5156, "ÑĥÐ²Ð°": 5157, "Ġ//": 5158, "à«Ĥ": 5159, "andi": 5160, "ĠÎĻ": 5161, "plic": 5162, "Ġáŀı": 5163, "js": 5164, "à¨£": 5165, "à¤¾à¤Ī": 5166, "ĠÐ³Ñį": 5167, "íĺ": 5168, "à¨µ": 5169, "ading": 5170, "df": 5171, "ĠÕ¡Õµ": 5172, "Ð¾Ñı": 5173, "ÑĤÑĮ": 5174, "Î¿ÏħÏĤ": 5175, "vin": 5176, "Ġmore": 5177, "à§įà¦Ł": 5178, "ober": 5179, "eva": 5180, "Ġinde": 5181, "vet": 5182, "Ø³ØªØ§ÙĨ": 5183, "Ġsan": 5184, "Ġpeng": 5185, "Ġfir": 5186, "Ġao": 5187, "ÒĵÑĭ": 5188, "ÐĲÐĿ": 5189, "olt": 5190, "cs": 5191, "Ġ×¤×ķ×ĺ×ķ×Ł": 5192, "à¤¿à¤ı": 5193, "ÑĸÑģ": 5194, "Ġfar": 5195, "Ð¾ÑĢÑĤ": 5196, "entes": 5197, "asti": 5198, "à¹īà¸Ń": 5199, "ume": 5200, "ĠìĤ¬": 5201, "Ġbiz": 5202, "102": 5203, "api": 5204, "Õ¹": 5205, "Ľà§ĩ": 5206, "Ġå®": 5207, "Ġstart": 5208, "Ġplan": 5209, "Ð°Ð»Ñĸ": 5210, "Ġnad": 5211, "Ġkung": 5212, "war": 5213, "Ð¸ÑĤÐ¸": 5214, "enÃŃ": 5215, "Ġtag": 5216, "Ð²ÑĢ": 5217, "ĠÎ±Ïħ": 5218, "Ġtv": 5219, "ĠEurop": 5220, "tions": 5221, "éĻħ": 5222, "Ġà·Ģà·Ĵ": 5223, "íĸ": 5224, "Ġoli": 5225, "½ľ": 5226, "nolog": 5227, "etan": 5228, "oria": 5229, "Ġich": 5230, "ĠÅ¼": 5231, "ĠSup": 5232, "å¨": 5233, "à®¿à®±": 5234, "aire": 5235, "Õ¡Õ¼": 5236, "Ġà²ľ": 5237, "Ġà¨²": 5238, "à±įà°ª": 5239, "Ġà®ī": 5240, "à·ĵà¶¸": 5241, "ĠMer": 5242, "áº¿t": 5243, "Ġimport": 5244, "Ġà²¦": 5245, "ØªÙħ": 5246, "ible": 5247, "ION": 5248, "Ġ:\\": 5249, "Ġprin": 5250, "Ġcr": 5251, "ms": 5252, "ÅŃ": 5253, "opp": 5254, "áŀĺáŁĴáŀ": 5255, "ĠÙĩÙħ": 5256, "é£": 5257, "ÙĨÛĮ": 5258, "áĥĴ": 5259, "Õ¥ÖĢÕ¨": 5260, "ube": 5261, "indow": 5262, "æĪ·": 5263, "ĠÂ¬": 5264, "Ġvien": 5265, "Ġà²Ĺ": 5266, "Ġà¤ªà¤°": 5267, "ĠÙħÙĦ": 5268, "à¥įà¤µ": 5269, "97": 5270, "ĠÐ²Ñģ": 5271, "Ġpm": 5272, "áī½": 5273, "Ø¦ÛĴ": 5274, "Ð°Ð±Ð¾ÑĤ": 5275, "ĠÐ¡Ð": 5276, "áĥ§": 5277, "Äĵr": 5278, "inal": 5279, "ĠÐ±Ð¸ÑĢ": 5280, "çŃ": 5281, "áŁĥ": 5282, "®áĢ": 5283, "ĠFac": 5284, "Î»Î±": 5285, "anga": 5286, "Ġbak": 5287, "Ġêµ": 5288, "ä»¥": 5289, "Ġsize": 5290, "æľ¬": 5291, "etr": 5292, "TC": 5293, "ĠÐ²ÑĸÐ´": 5294, "Ġ300": 5295, "Ãķ": 5296, "ĠØ¬ÙĪ": 5297, "Ġbah": 5298, "shtÃ«": 5299, "Ġkut": 5300, "ĠÓ": 5301, "Ä±nÄ±n": 5302, "gt": 5303, "Ġbuhok": 5304, "Ð¾Ð¼Ñĥ": 5305, "ioni": 5306, "áĥĶáĥĳáĥĺ": 5307, "ower": 5308, "ĠÑģÐº": 5309, "áī°": 5310, "×©×¨": 5311, "Ġban": 5312, "Ð¾Ð³ÑĢ": 5313, "Ð°ÑĢÐ¸": 5314, "Ã¬nh": 5315, "rab": 5316, "Ġmor": 5317, "à»Ģàº": 5318, "Ġàª¦": 5319, "Ġauf": 5320, "Ø¹ÙĦ": 5321, "áŀ¶áŀĢáŁĭ": 5322, "yi": 5323, "Ġnorm": 5324, "à¶°": 5325, "Ġpom": 5326, "íĨ": 5327, "Ġapp": 5328, "áĥĺáĥĵ": 5329, "ments": 5330, "37": 5331, "à·Ĵà¶±à·Ĭ": 5332, "Õ¥Õ²": 5333, "Ġsor": 5334, "èĥ½": 5335, "rÃ¡": 5336, "ĠÐºÐ¾ÑĢ": 5337, "Ġàª²": 5338, "°áĢ": 5339, "Ġyap": 5340, "Ġri": 5341, "ugu": 5342, "àµģà´ķ": 5343, "à¯Ĥ": 5344, "Õ©": 5345, "à²¯": 5346, "Ġdans": 5347, "ĠÑģÐ¼": 5348, "ĠgÃ¶": 5349, "è¨": 5350, "¦à°¿": 5351, "urr": 5352, "adan": 5353, "à¶Ĥ": 5354, "ĠMed": 5355, "Ġ×Ľ×¨×Ļ×ķ×ª": 5356, "put": 5357, "ĠsÄĥ": 5358, "ĠBo": 5359, "ÐµÐ½Ð¸Ñı": 5360, "ë¬": 5361, "ãĥ¬": 5362, "Ġgar": 5363, "áĥĿáĥ¡": 5364, "Ġà°¬": 5365, "àºļ": 5366, "oven": 5367, "Ġåį": 5368, "ĠTur": 5369, "åĢ": 5370, "ëĮĢ": 5371, "iva": 5372, "ÓĻÐ½Ðµ": 5373, "ÑĥÑĥ": 5374, "ÐµÐ½Ð¸Ðµ": 5375, "ÉĻk": 5376, "ÂŃÂŃ": 5377, "essa": 5378, "å·¥": 5379, "íħ": 5380, "ÙĩØ±": 5381, "×ķ×¦": 5382, "ÎĹ": 5383, "nia": 5384, "èģ": 5385, "ijo": 5386, "ĠsÃº": 5387, "Ġpov": 5388, "Ó£": 5389, "alla": 5390, "81": 5391, "ojn": 5392, "ĠDec": 5393, "Ð¸ÑĦ": 5394, "Ø¹Ø¯": 5395, "Ġee": 5396, "ogle": 5397, "Å¾e": 5398, "ëĤ¨": 5399, "lay": 5400, "áŁĦáŁĩ": 5401, "Ġgan": 5402, "Ã³d": 5403, "Ġsobre": 5404, "à·Ģà·ı": 5405, "ype": 5406, "olu": 5407, "atie": 5408, "¶áĢ": 5409, "Ġà¤¸à¤®": 5410, "ĠvÃ¦": 5411, "á»ĵ": 5412, "Ð°Ð¼Ð¸": 5413, "iones": 5414, "ĠÎ¬": 5415, "Ð´ÐµÑĢ": 5416, "à¹Ģà¸£": 5417, "Ġpok": 5418, "ĠDan": 5419, "Ġ&&": 5420, "cy": 5421, "ĠEng": 5422, "uw": 5423, "ism": 5424, "ĲáĢ¼": 5425, "à¤¾à¤¯": 5426, "ĠgÃ¶r": 5427, "Ġair": 5428, "ĠBel": 5429, "Ġäº": 5430, "vÃ¤": 5431, "çĤ": 5432, "ĠStr": 5433, "ç¤": 5434, "gar": 5435, "91": 5436, "ĠÐ¦": 5437, "Ġook": 5438, "hod": 5439, "OD": 5440, "ĠÆ": 5441, "à°¾à°¯": 5442, "Ð¾ÑĤÑĢ": 5443, "Ġçİ¯äºļ": 5444, "ĠApr": 5445, "ĠâĦ": 5446, "Ġà²®à²¾à²": 5447, "irk": 5448, "uto": 5449, "Ġ85": 5450, "ãģĹãģŁ": 5451, "à¶½à·Ĭ": 5452, "ÑĭÐ½ÑĭÒ£": 5453, "tek": 5454, "Ġà´Ĩ": 5455, "ÏģÎ·": 5456, "à¤ı": 5457, "ines": 5458, "dr": 5459, "áŀ»áŀĦ": 5460, "éĽĨ": 5461, "Ò±ÑĢ": 5462, "à¤ķà¥įà¤": 5463, "Å¡Äį": 5464, "ÏĥÎ·ÏĤ": 5465, "ĠÅŀ": 5466, "æ¯": 5467, "Ð°Ð¼Ð°": 5468, "Ġcz": 5469, "Ä«bas": 5470, "ĠÕ°Õ¡Õ´": 5471, "Ġpoz": 5472, "Ġartic": 5473, "iro": 5474, "Ġà®İà®©": 5475, "ĠÙĦÙĦ": 5476, "Ġ×ŀ×Ĳ": 5477, "à°ķà±įà°": 5478, "ĠëĮĢ": 5479, "ĠSal": 5480, "Ġáĥķ": 5481, "ëĭĪëĭ¤": 5482, "92": 5483, "áŀ¶áŀĺ": 5484, "64": 5485, "ÑĻ": 5486, "ÏĪ": 5487, "Ġà¤¹à¥ĭ": 5488, "Ð¾Ñħ": 5489, "nost": 5490, "area": 5491, "EC": 5492, "ĠÐ¸Ð»Ð¸": 5493, "Ġgener": 5494, "ĠCent": 5495, "ìĤ¬ì§Ģ": 5496, "alia": 5497, "Ġrq": 5498, "ĠDu": 5499, "ãĥ¼ãĤ": 5500, "Ðĳ": 5501, "·áĢ": 5502, "Ð½Ð¸Ð¹": 5503, "åĪ°": 5504, "Ġà¸£": 5505, "yar": 5506, "Ġbus": 5507, "igen": 5508, "ĠOb": 5509, "Ġà°ľ": 5510, "ĠÏĦÎ¹": 5511, "yan": 5512, "ĠÃ«shtÃ«": 5513, "isen": 5514, "UT": 5515, "ĠÅŁi": 5516, "áĢ¬áĢ¸": 5517, "áŀ·áŀĦ": 5518, "Õ¡ÕŃ": 5519, "31": 5520, "Õ¡Õº": 5521, "nÃ¡": 5522, "Ä±k": 5523, "Ġagus": 5524, "ird": 5525, "ser": 5526, "jan": 5527, "Ġako": 5528, "áŀ¶áŀĽ": 5529, "ĠÙħØ´": 5530, "Ġà¶ĩ": 5531, "äºļæ¸¸": 5532, "ÅĽci": 5533, "iza": 5534, "Ð¾Ñİ": 5535, "ÙħØ§": 5536, "à´Łàµįà´Ł": 5537, "Ð»Ð°Ñģ": 5538, "å¤ļ": 5539, "Ð¾Ð²Ð°Ð½": 5540, "ĻáĢº": 5541, "igt": 5542, "ĠãĢĲ": 5543, "order": 5544, "Ġæĺ": 5545, "ĠtÃ¤": 5546, "ĠdÉĻ": 5547, "áŀ¶áŀı": 5548, "ific": 5549, "ustr": 5550, "riv": 5551, "àª°à«įàª": 5552, "Ġconta": 5553, "à²¬": 5554, "Õ¡ÕµÕ«Õ¶": 5555, "ENT": 5556, "ÐµÑģÐ¿": 5557, "ĠÐºÐ°ÑĢ": 5558, "çĶµ": 5559, "iler": 5560, "ĠÏĥÏĦÎ·Î½": 5561, "ìľ¼": 5562, "à®¿à®Ł": 5563, "×ķ×ŀ": 5564, "ender": 5565, "Ð¥": 5566, "ĠSam": 5567, "×Ļ×ŀ": 5568, "Ð¸ÑĺÐµ": 5569, "amento": 5570, "ĲáĢ¹áĢ": 5571, "Ġë³": 5572, "Å¡k": 5573, "ĠáĥĲáĥł": 5574, "ĠbaÅŁ": 5575, "ĠÐ¿ÑĢÐ°Ð²": 5576, "ÛĮØ´": 5577, "Ĺà°¾": 5578, "Ð»Ñĸ": 5579, "ĠâĻ": 5580, "ë©": 5581, "ÑĤÐ¾ÑĢ": 5582, "ÐµÐºÐ°": 5583, "tern": 5584, "cie": 5585, "Ġê¸": 5586, "à¨Ł": 5587, "Ġplus": 5588, "à°Ĥà°Ł": 5589, "imas": 5590, "éĩĳ": 5591, "nosti": 5592, "Ġáŀģ": 5593, "uba": 5594, "Âº": 5595, "AY": 5596, "Ġnek": 5597, "ĠSte": 5598, "ining": 5599, "ķáĢ¹áĢ": 5600, "Ġà¶»": 5601, "Õ¡Õ½Õ¿": 5602, "ĲáĢ¬áĢ": 5603, "Ġà²ªà³įà²°": 5604, "Ġwo": 5605, "ĠOl": 5606, "Î¸Îµ": 5607, "Ãµes": 5608, "ands": 5609, "àºģ": 5610, "Î¯Î±ÏĤ": 5611, "Ġmom": 5612, "ates": 5613, "ĴáĢ": 5614, "ĠÂ¸": 5615, "Ġapr": 5616, "Ġ||": 5617, "ĠRed": 5618, "ĠRa": 5619, "Ġqui": 5620, "ãĢĳ": 5621, "ĠÕ©": 5622, "ĠÐ±ÑĥÐ´": 5623, "Ġtá»": 5624, "Ġright": 5625, "íı": 5626, "itas": 5627, "iment": 5628, "Ġsed": 5629, "åħ¥": 5630, "×Ļ×¤": 5631, "Ã¶k": 5632, "rek": 5633, "×ľ×Ĳ": 5634, "Ã³s": 5635, "ÑĢÐµÐ´": 5636, "ovÃ¡": 5637, "ĨáĢ": 5638, "ç¾": 5639, "×ķ×Ĵ": 5640, "Ġrem": 5641, "ING": 5642, "ĠìĪĺ": 5643, "Ġ!!!": 5644, "Ġpie": 5645, "Ġmb": 5646, "ĠAug": 5647, "nt": 5648, "jar": 5649, "Ġà¦¬à¦¿à¦": 5650, "æĪĲ": 5651, "Ø³ÛĮ": 5652, "Ġà°İ": 5653, "Ġ×Ķ×Ĺ": 5654, "Ġà°ļà±ĩà°": 5655, "Ġ2006": 5656, "à§įà¦¬": 5657, "¯¸": 5658, "Ġnor": 5659, "Ġdol": 5660, "ãģªãģĦ": 5661, "à±įà°µ": 5662, "Ġnuk": 5663, "éĢŁ": 5664, "Ġ64": 5665, "à¸±à¹ī": 5666, "Ġ×Ķ×©": 5667, "Õ´Õ¡Õ¶": 5668, "áº¿n": 5669, "Ø§ÙĬ": 5670, "Ð¼Ð¸": 5671, "ding": 5672, "IG": 5673, "à³įà²®": 5674, "iye": 5675, "iver": 5676, "ĠÙħØ±": 5677, "Ġtom": 5678, "ÎķÎ": 5679, "pan": 5680, "ister": 5681, "alu": 5682, "à¸ģà¸±": 5683, "idas": 5684, "çľŁ": 5685, "åĬł": 5686, "à¦ĩ": 5687, "lag": 5688, "tel": 5689, "à³ģà²¦": 5690, "Ġvor": 5691, "ther": 5692, "unda": 5693, "sen": 5694, "can": 5695, "ĠáĥłáĥĿáĥĽ": 5696, "ĠÂ§": 5697, "Ġ.\"": 5698, "Ġkep": 5699, "×Ļ×Ľ": 5700, "å°ı": 5701, "Ð¸ÐºÐ°": 5702, "ĠmÉĻ": 5703, "à°¿à°¯": 5704, "iel": 5705, "ĠUnivers": 5706, "áĪĺ": 5707, "Ġvu": 5708, "Ġuma": 5709, "áī¥": 5710, "Ġbur": 5711, "ĠMad": 5712, "ĠàªĹ": 5713, "Ġfot": 5714, "Ġlat": 5715, "¡à±ģ": 5716, "ĠÐºÓ©": 5717, "ãģĳ": 5718, "ĠáĢŀáĢ": 5719, "ÐŁ": 5720, "ÚĪ": 5721, "cher": 5722, "ĠØªØ±": 5723, "å¿«3": 5724, "à¦¾à¦¸": 5725, "ĠÖĦ": 5726, "Ð¸ÑĤÐµÐ»": 5727, "ÈĽi": 5728, "asan": 5729, "Ġè¿": 5730, "ĠÐ¿Ð»": 5731, "ĠÐ½Ð°Ð¿": 5732, "à²Ĥà²¤": 5733, "ĠÃģ": 5734, "bol": 5735, "IP": 5736, "Ġà¤ĸ": 5737, "Ġig": 5738, "Ġbag": 5739, "à¸¡à¹Ī": 5740, "Ġskal": 5741, "ĠKon": 5742, "á»Ł": 5743, "Ġneb": 5744, "ĠKat": 5745, "esa": 5746, "Ġham": 5747, "ĠÐ¶ÓĻÐ½Ðµ": 5748, "ĠCat": 5749, "aÃ°": 5750, "Ġmun": 5751, "Ġgrup": 5752, "yor": 5753, "Ġìĺ¤": 5754, "Ġleft": 5755, "Ð¸ÑĩÐµ": 5756, "ilor": 5757, "Ð½Ð¸ÑĨ": 5758, "elf": 5759, "Ġmind": 5760, "ĠDis": 5761, "áģ¾": 5762, "elser": 5763, "ĠEUR": 5764, "íĥ": 5765, "ÛĮØª": 5766, "CHAR": 5767, "owa": 5768, "Ġmund": 5769, "Å¡e": 5770, "UM": 5771, "ĠÎ´Î¹Î±": 5772, "ÑįÐ´": 5773, "ļáĢ¹áĢ": 5774, "ĠCH": 5775, "áĭ«": 5776, "cer": 5777, "arb": 5778, "Ä±nda": 5779, "gun": 5780, "åĽ½éĻħ": 5781, "Ð½Ð¸Ñħ": 5782, "Ġvia": 5783, "ĠGre": 5784, "áŁĴáŀĻ": 5785, "ĠCor": 5786, "ĠáģĬ": 5787, "Ã¼ÅŁ": 5788, "eller": 5789, "Ġeff": 5790, "61": 5791, "Ġ3A": 5792, "à´³àµįâĢį": 5793, "Ġprot": 5794, "Ġ\"},{\"": 5795, "ìĦ±": 5796, "×Ĺ×¨": 5797, "ĠLes": 5798, "uth": 5799, "Ġ×ŀ×Ķ": 5800, "áĥĶáĥķ": 5801, "Å«t": 5802, "igi": 5803, "ayan": 5804, "à¦¾à¦ĩ": 5805, "72": 5806, "à¨¾à¨²": 5807, "Ġ},": 5808, "×ķ×Ļ": 5809, "ģà¸²à¸£": 5810, "×ĵ×¨": 5811, "ĠÐ¾Ð¿": 5812, "ije": 5813, "Ġsee": 5814, "ÏģÏī": 5815, "hte": 5816, "Ġà¤¸à¥ĩ": 5817, "áŀĹ": 5818, "ÙĩÙħ": 5819, "vent": 5820, "ĠÏĦÎ¿Î½": 5821, "áĥ£áĥł": 5822, "à®¿à®ķ": 5823, "hd": 5824, "ĠAN": 5825, "Ġìĥ": 5826, "Ġleng": 5827, "Ġkn": 5828, "à¦¾à¦¤": 5829, "itor": 5830, "à´¿à´ķ": 5831, "ident": 5832, "Ð³ÑĢ": 5833, "Ð³Ðµ": 5834, "ļáĢ¹": 5835, "ĠÐ±ÐµÐ·": 5836, "ĠáŁĶ": 5837, "ìĿ´ì": 5838, "Ġeng": 5839, "à®£à¯įà®Ł": 5840, "Î´Î¿": 5841, "ral": 5842, "Ġtitle": 5843, "ê²Į": 5844, "Ġfilm": 5845, "hal": 5846, "âĢĻ": 5847, "áĥĺáĥĲ": 5848, "omm": 5849, "heid": 5850, "Ġcal": 5851, "à·Ļà¶±à·Ĭ": 5852, "Ġáĥĳ": 5853, "Ġà¦ī": 5854, "Ġà¶ļà¶»": 5855, "áĥĲáĥ®": 5856, "ãĤĪ": 5857, "à¤¶": 5858, "Ġvs": 5859, "ÑįÑħ": 5860, "Ð¸Ð´Ð°": 5861, "à¹Ģà¸Ľà¹ĩ": 5862, "½ľê±¸": 5863, "ĠHot": 5864, "ÑģÐ°": 5865, "áĬĲ": 5866, "à¤¾à¤¹": 5867, "ÃŃv": 5868, "Ã©e": 5869, "ÙĪØ²": 5870, "Öĩ": 5871, "lat": 5872, "________": 5873, "ĠmÃ¡s": 5874, "Ġ:)": 5875, "áĥĶáĥĹ": 5876, "à¥ģà¤°": 5877, "onn": 5878, "ario": 5879, "Ġmill": 5880, "ublik": 5881, "ader": 5882, "Ġhotel": 5883, "à¦Ĥ": 5884, "Ġsite": 5885, "orld": 5886, "ĠÎĿ": 5887, "onom": 5888, "ece": 5889, "100": 5890, "Ð¾Ð±ÑĢ": 5891, "ĠÐ±ÑĥÐ»": 5892, "Ġany": 5893, "Ġpla": 5894, "æ³ķ": 5895, "àµĩà´": 5896, "á»Ļt": 5897, "Ġ×ķ×Ķ": 5898, "ĠáĢĢ": 5899, "ì£¼": 5900, "dir": 5901, "Æ°á»£c": 5902, "à¤¾à¤µ": 5903, "pet": 5904, "àº¡": 5905, "àµĬ": 5906, "ÅĤa": 5907, "ĠÑĳ": 5908, "Ġsil": 5909, "Ġgod": 5910, "ç½ĳåĿĢ": 5911, "IV": 5912, "Ġstar": 5913, "89": 5914, "Ġoc": 5915, "à´ªàµįà´ª": 5916, "Ġdella": 5917, "ĠJo": 5918, "ãĥ³ãĥ": 5919, "Ġlan": 5920, "Ġji": 5921, "Ð²Ð°Ð½": 5922, "èĤ²": 5923, "×ł×Ķ": 5924, "ĠOs": 5925, "ves": 5926, "ëĵ¤": 5927, "Ġjuga": 5928, "ĠWh": 5929, "à¦¿à¦°": 5930, "Ġàª¶": 5931, "Ġ×ķ×©×ª×Ļ": 5932, "ĠÙĨÛģ": 5933, "ĠPe": 5934, "ÑĸÐ»ÑĮ": 5935, "ç®": 5936, "amin": 5937, "à¸§à¸²à¸¡": 5938, "ÙĩØ§ÛĮ": 5939, "×ł×ķ": 5940, "gj": 5941, "Ø§Ûģ": 5942, "ĻáĢ½": 5943, "ric": 5944, "eno": 5945, "ĠÚª": 5946, "ÐĨ": 5947, "Ġteg": 5948, "Ġclass": 5949, "isten": 5950, "Ã¡ny": 5951, "ĠØ§ÙĦØŃ": 5952, "ĠÂ»,": 5953, "Ġà¤Ķ": 5954, "Ġlar": 5955, "Ġisang": 5956, "Æ°Æ¡": 5957, "Ġvit": 5958, "Ġoh": 5959, "à´¾à´£àµį": 5960, "Ġê°Ģ": 5961, "Ġbon": 5962, "Ġà¤µà¤¿à¤": 5963, "Æ°á»Ľ": 5964, "Ġris": 5965, "Ġimage": 5966, "Ġà¨¹à©Ī": 5967, "Ġatau": 5968, "Ġkot": 5969, "à°ļ": 5970, "oms": 5971, "à¸ľ": 5972, "ĠáĪĺ": 5973, "ÑĸÑĩ": 5974, "ĠrÃ©": 5975, "Õ¡Õ²": 5976, "ë¹": 5977, "mis": 5978, "ĠÃ»": 5979, "ÉĻm": 5980, "67": 5981, "ĠåĪ": 5982, "ĠÎĵ": 5983, "Ġali": 5984, "ê³¼": 5985, "Äģt": 5986, "ÑģÑĤÐ²Ð¾": 5987, "æı": 5988, "Úĳ": 5989, "Ø¬Ùħ": 5990, "ady": 5991, "ĠÂ½": 5992, "Ã½m": 5993, "ĠØ£ÙĨ": 5994, "à¦ľ": 5995, "éĤ": 5996, "à°¿à°¤": 5997, "assa": 5998, "ĠÐ´ÑĢÑĥ": 5999, "Ġdev": 6000, "Ð¾Ð»Ð¾Ð³": 6001, "ĠzÃ¡": 6002, "à¦¾à¦¬": 6003, "ied": 6004, "ĠÕĦ": 6005, "éĥ": 6006, "ãĢĳãĢĲ": 6007, "Ã«m": 6008, "Ġgratis": 6009, "é«ĺ": 6010, "42": 6011, "Ġë¶": 6012, "Ġíķĺ": 6013, "à®ķà¯įà®ķ": 6014, "ĠæĪ": 6015, "tie": 6016, "ograf": 6017, "AV": 6018, "Ġà¨°": 6019, "à®¾à®²": 6020, "à®©à¯į": 6021, "Ð½Ð¾Ð¹": 6022, "Ô±": 6023, "Ġ×Ĳ×ķ": 6024, "ĠJoh": 6025, "ä¹Ī": 6026, "ãģ£ãģŁ": 6027, "à¸²à¸ĩ": 6028, "à·ĸ": 6029, "Ġmargin": 6030, "à¦£": 6031, "Î¹ÎºÏĮ": 6032, "Ġvend": 6033, "Ġsn": 6034, "Ð½ÑĭÐ¹": 6035, "à¯ģà®µ": 6036, "²áĢ·áĢ": 6037, "Ġiyo": 6038, "ç´": 6039, "à¸£à¸±à¸ļ": 6040, "åı¯": 6041, "Ð»ÐµÐº": 6042, "kol": 6043, "ĠØ§Ùģ": 6044, "Ð¾Ð²Ð¸": 6045, "ĠChr": 6046, "Ãºn": 6047, "Ġpam": 6048, "Ġorganiz": 6049, "Ð½Ð°Ñı": 6050, "ÐµÑļ": 6051, "å½ķ": 6052, "ÐµÐ½Ð½Ñı": 6053, "Äģc": 6054, "azi": 6055, "Ġdib": 6056, "Ġä½": 6057, "Î¹Î¬": 6058, "Ã¨s": 6059, "à·ģ": 6060, "ì§": 6061, "ë§ĪìĤ¬ì§Ģ": 6062, "Ð½ÑĭÐµ": 6063, "Ġlok": 6064, "à²¿à²Ĺà³Ĩ": 6065, "pu": 6066, "Ġih": 6067, "áŁĢ": 6068, "Ġib": 6069, "ĠLat": 6070, "Ġ150": 6071, "Ġposition": 6072, "áĤĶ": 6073, "Ú¯Ø±": 6074, "ìŀĲ": 6075, "æľĢ": 6076, "¸à±įà°¤": 6077, "çº¿": 6078, "ester": 6079, "ĠRom": 6080, "¡°": 6081, "omat": 6082, "áŀ¶áŀŁ": 6083, "åĬĽ": 6084, "à®´": 6085, "Ø¦ÛĮ": 6086, "Ġsj": 6087, "ĠPart": 6088, "×ľ×Ķ": 6089, "ĠæĹ": 6090, "Ġadalah": 6091, "à¸¡à¸µ": 6092, "ÙĦØ§": 6093, "amen": 6094, "ĠÐ°Ð±": 6095, "ĠMil": 6096, "à«ģàª": 6097, "à¤¾à¤ķ": 6098, "ÐºÐµ": 6099, "ĠsÃ©": 6100, "Ġhier": 6101, "ĠJul": 6102, "wer": 6103, "kor": 6104, "Ġont": 6105, "lass": 6106, "ative": 6107, "Ġbeh": 6108, "ious": 6109, "ues": 6110, "aria": 6111, "ĠÄĳi": 6112, "à¤Ń": 6113, "atz": 6114, "ĠìŀĪ": 6115, "Ġfyrir": 6116, "à³įâĢĮ": 6117, "39": 6118, "Ġbefore": 6119, "Ð°ÑĢÑĭ": 6120, "à²ķà³įà²ķ": 6121, "Ø§Ø®": 6122, "leri": 6123, "ØªÙĪ": 6124, "mal": 6125, "Ġhis": 6126, "uer": 6127, "etta": 6128, "Ġï¼ģ": 6129, "ĠBen": 6130, "Ġå¹": 6131, "ĠtÃ¶": 6132, "à²Ĥà²¦à³ģ": 6133, "ĠáŀĶáŁĴáŀļáŀ": 6134, "Ġada": 6135, "Ġ,\\": 6136, "Ð¸ÑıÑĤ": 6137, "ĠÏĦÎ¿ÏħÏĤ": 6138, "Ġkt": 6139, "ĠÑĸÐ½": 6140, "äºĭ": 6141, "Ð°Ð½Ñĭ": 6142, "ëį": 6143, "ÑĸÑı": 6144, "Ġ×ŀ×¢": 6145, "áº·": 6146, "é¾": 6147, "à¸²à¸ģà¸": 6148, "ÐµÒ£": 6149, "Ġ88": 6150, "å®¢": 6151, "ello": 6152, "ë¶Ģ": 6153, "ĠcÃ¡c": 6154, "ĠÃ®nt": 6155, "åŃ¦": 6156, "ĠÐ¾Ð»": 6157, "tra": 6158, "abi": 6159, "Ġonder": 6160, "Ġæĸ": 6161, "Ġê·¸": 6162, "Ġà¸Ń": 6163, "Ð±Ð°": 6164, "ĠÐ·Ð½": 6165, "ĠÃľ": 6166, "Ġ==": 6167, "Ġniet": 6168, "ls": 6169, "ĠVol": 6170, "ĠMi": 6171, "æĽ": 6172, "Ð°ÑĢÐ°": 6173, "Ġà¨Ĺ": 6174, "à¹ĥà¸«à¹ī": 6175, "Ġjest": 6176, "ĠAfr": 6177, "Ð³ÐµÐ½": 6178, "á»Ŀ": 6179, "ÑĸÐ¹": 6180, "ever": 6181, "Õ¡Õ¦": 6182, "azione": 6183, "Ġtrue": 6184, "ivo": 6185, "indÉĻ": 6186, "ĠÕŃ": 6187, "ĠÂ¤": 6188, "Ġkey": 6189, "Ġ***": 6190, "àº´": 6191, "Ġëı": 6192, "Ġons": 6193, "Ġ],": 6194, "ĠTor": 6195, "ĠEle": 6196, "Ġ×¢×Ŀ": 6197, "ijos": 6198, "Ð¾ÑĢÐ¸": 6199, "Ð³Ð¸": 6200, "itter": 6201, "Ġhom": 6202, "à¯įà®²": 6203, "Ġuch": 6204, "ĠEk": 6205, "Õ¥Öģ": 6206, "ĠkhÃ´ng": 6207, "Ãłn": 6208, "ĠÑįÑĤ": 6209, "Ġyra": 6210, "Ġnicht": 6211, "ĠIS": 6212, "à¸·à¹Īà¸Ń": 6213, "ĠÑģÑĬ": 6214, "Ã¢l": 6215, "esso": 6216, "Ġtype": 6217, "ĠÕ¹": 6218, "yen": 6219, "egor": 6220, "ĠUr": 6221, "ĠST": 6222, "ĠEsp": 6223, "à¸±à¸Ļà¸": 6224, "ÑĥÐ±Ð»Ð¸Ðº": 6225, "Ġwan": 6226, "Ġone": 6227, "uten": 6228, "ANG": 6229, "Ġå½©ç¥ŀäºīéľ¸": 6230, "Ġsar": 6231, "Ġkil": 6232, "×Ļ×ļ": 6233, "Ġsocial": 6234, "rio": 6235, "Ġ×Ķ×ª": 6236, "Ġ×Ķ×¢": 6237, "áĥĲáĥĹ": 6238, "áĥĲáĥ¢": 6239, "Ġtime": 6240, "OP": 6241, "áŀ¶áŀĻ": 6242, "²áĢ": 6243, "ÄĿ": 6244, "OK": 6245, "Ġsitu": 6246, "Ġ:#": 6247, "à¨¿à¨Ĩ": 6248, "×ľ×Ļ": 6249, "Ġjag": 6250, "Ġbud": 6251, "åĽ¢": 6252, "ĠÎĹ": 6253, "Ġzo": 6254, "Ġgam": 6255, "áĢĦáĢºáĢ¸áĢ": 6256, "à²°à³įà²": 6257, "ĠÐºÐ¾Ð»": 6258, "ĠMet": 6259, "áŁĲ": 6260, "Ã¨n": 6261, "rin": 6262, "ize": 6263, "à§ĩà¦ķ": 6264, "ĠOd": 6265, "ĠII": 6266, "à²¶": 6267, "roid": 6268, "Ġstat": 6269, "ĠØªØŃ": 6270, "Ġmad": 6271, "Ġkop": 6272, "áŁĴáŀľ": 6273, "áŀł": 6274, "Ø§Øµ": 6275, "ÐµÑĢÐ¸": 6276, "uke": 6277, "TG": 6278, "CHARCHAR": 6279, "ĠÎ®": 6280, "Ġrez": 6281, "nal": 6282, "_id": 6283, "Ġeks": 6284, "ĠYou": 6285, "»áĢķáĢ": 6286, "ĠÎ±ÏĢÎ¿": 6287, "ĠBal": 6288, "áŀ¶áŀĶáŁĭ": 6289, "ÕŃ": 6290, "Ġìĸ": 6291, "ÑĢÐ°Ð²": 6292, "ved": 6293, "ĠåĲ": 6294, "à¹Ģà¸¥": 6295, "Ġsoci": 6296, "à¨ª": 6297, "Ð¸Ð¼Ð°": 6298, "365": 6299, "áĤı": 6300, "nic": 6301, "lem": 6302, "Ġà°µà°¿à°": 6303, "Ġnec": 6304, "ĠAf": 6305, "Ġconst": 6306, "oga": 6307, "aji": 6308, "Ġkita": 6309, "ĠCan": 6310, "éķ": 6311, "ultur": 6312, "41": 6313, "Ġbin": 6314, "ĠGal": 6315, "Ġ365": 6316, "Õ«Õ¯": 6317, "Ġà¤¥": 6318, "Ġned": 6319, "ĠTV": 6320, "ĠiÅŁ": 6321, "ĠTar": 6322, "àµĨà´¯": 6323, "ÑģÐ»": 6324, "±ä¹Ĳ": 6325, "Ġpris": 6326, "ĠkÄģ": 6327, "aye": 6328, "Ġà®Ĩ": 6329, "è£": 6330, "¥à«Ģ": 6331, "Ġáŀĵáŀ·áŀĦ": 6332, "Ġinternet": 6333, "å®ļ": 6334, "ites": 6335, "ç¨": 6336, "à¥ĩà¤¶": 6337, "ÙĬØ§": 6338, "ĠÚ©Ø§Ø±": 6339, "à®¿à®¤": 6340, "à¤¾à¤Ĺ": 6341, "itel": 6342, "à§ľ": 6343, "Ġhon": 6344, "å¥½": 6345, "§à§": 6346, "bal": 6347, "Ġnar": 6348, "Ġmw": 6349, "éĸ": 6350, "à¶Ńà·Ķ": 6351, "aste": 6352, "Ġà¤Ķà¤°": 6353, "Ð½Ð´": 6354, "åģ": 6355, "Ġdisplay": 6356, "Ġile": 6357, "à¥Į": 6358, "Ġaug": 6359, "áĥĶáĥĵ": 6360, "Ã¼z": 6361, "Ġport": 6362, "Ġà¤«": 6363, "In": 6364, "Ġses": 6365, "Ãły": 6366, "Â»": 6367, "sko": 6368, "ĠÕ·": 6369, "Ġkup": 6370, "Ġ3033": 6371, "¿áĢ": 6372, "utta": 6373, "ĠÐ°Ð·": 6374, "Ġcha": 6375, "èĩª": 6376, "ÙĦØ§Ùħ": 6377, "à°Ĥà°¤": 6378, "eny": 6379, "çİ¯äºļ": 6380, "ria": 6381, "à¤¨à¤¾": 6382, "jd": 6383, "Ġpublic": 6384, "Ġkv": 6385, "ÑĢÐ°ÑĤ": 6386, "ĠÄĳÆ°á»£c": 6387, "Ġtri": 6388, "Ġhav": 6389, "ges": 6390, "aip": 6391, "TA": 6392, "Ġsay": 6393, "íĶĦ": 6394, "à·Ĵà¶»": 6395, "Ð½Ð¸Ð¼": 6396, "à´¤àµį": 6397, "ĠDer": 6398, "ìĭľ": 6399, "Ġlist": 6400, "ikt": 6401, "62": 6402, "ĲáĢŃáĢ¯": 6403, "Ġsak": 6404, "áĭ°": 6405, "à©Ĥà©°": 6406, "Ġnog": 6407, "×Ļ×¦": 6408, "ĠÐºÐµÐ»": 6409, "æĸĩ": 6410, "osp": 6411, "ĠIr": 6412, "å§": 6413, "Ġll": 6414, "Ġtech": 6415, "áĥ£áĥļ": 6416, "×Ļ×ĸ": 6417, "Õ«Öģ": 6418, "à¦¾à¦ľ": 6419, "nem": 6420, "ä¹ĭ": 6421, "anje": 6422, "ĠiÃ§in": 6423, "Ġhref": 6424, "Ð»Ñİ": 6425, "áŁĤáŀĽ": 6426, "àª¾àªµ": 6427, "Ġmeny": 6428, "Ġdesc": 6429, "ĠØ°": 6430, "Ġshow": 6431, "ĠProd": 6432, "kel": 6433, "ĠÕĿ": 6434, "íħĶ": 6435, "áĥª": 6436, "Ġà´ªàµįà´°": 6437, "Ġsud": 6438, "Ġparte": 6439, "ibil": 6440, "×¤×¨": 6441, "Ġë¬": 6442, "à±ģà°¨à±įà°¨": 6443, "itÃ©": 6444, "Ð¼ÐµÐ½": 6445, "ÏģÎ¹Ïĥ": 6446, "Ġnr": 6447, "çķ": 6448, "tal": 6449, "Ġtest": 6450, "Ġlog": 6451, "Ġ3033102": 6452, "Î¸Î·": 6453, "ads": 6454, "Ġìľ": 6455, "Ġfol": 6456, "ÏĩÎµ": 6457, "ĠcÄĥ": 6458, "ĠØ³Ø±": 6459, "ikip": 6460, "Ġà¦ĵ": 6461, "Ġ68": 6462, "áĥ£áĥļáĥĺ": 6463, "Ð°Ò³": 6464, "eth": 6465, "ìĹħ": 6466, "×ķ×Ľ": 6467, "çĦ": 6468, "nych": 6469, "ector": 6470, "Ġmid": 6471, "è®¡": 6472, "Õ¥Õ¯": 6473, "Ä«g": 6474, "anz": 6475, "ĠÐ°Ñģ": 6476, "à§ģà¦²": 6477, "Ð°Ð»ÑĭÒĽ": 6478, "ature": 6479, "ÏĥÎµÎ¹ÏĤ": 6480, "Ġadmin": 6481, "ĠNE": 6482, "à´£àµįà´Ł": 6483, "à¥ĩà¤²": 6484, "ÑģÑĤÐ°Ð²": 6485, "Ġsum": 6486, "ĠTop": 6487, "ĠSie": 6488, "à¸²à¸ģ": 6489, "à¯įà®ķà®³à¯į": 6490, "Ġhem": 6491, "à¹Īà¸²à¸ĩ": 6492, "adu": 6493, "Ġ2000": 6494, "Ð»ÓĻÑĢ": 6495, "ĠÕ¬": 6496, "Ġdid": 6497, "áŁģáŁĩ": 6498, "áŀ¶áŀĦ": 6499, "áĪĭ": 6500, "Õ«ÖĢ": 6501, "Ð½Ð¸ÑĤÐµ": 6502, "åĭ": 6503, "unta": 6504, "ĠØ¹ÙĨ": 6505, "Ġkok": 6506, "ĠSel": 6507, "áĥ¥": 6508, "à®¿à®©à¯į": 6509, "Ġpon": 6510, "ĠMart": 6511, "à¹Īà¸§": 6512, "akat": 6513, "ĠÐºÐ¾Ð¼Ð¿": 6514, "Ġwer": 6515, "bin": 6516, "ķáĢ¼áĢ": 6517, "Ġekki": 6518, "ÙħØ¯": 6519, "×£": 6520, "Ġëª¨": 6521, "Ġàªħàª¨à«ĩ": 6522, "ĠAmer": 6523, "à¸µà¹ī": 6524, "Ð¼Ð°ÑĤ": 6525, "Ġà¦Ń": 6526, "Ġ,,": 6527, "71": 6528, "ool": 6529, "ley": 6530, "Ġgra": 6531, "ĠKur": 6532, "Ġ78": 6533, "ecial": 6534, "Ġproj": 6535, "ÅĤo": 6536, "49": 6537, "ÙħÙĨ": 6538, "ĠÐºÐ°ÑĤ": 6539, "ĠĈ": 6540, "aza": 6541, "åīį": 6542, "ÙĢÙĢ": 6543, "à¤¾à¤ľ": 6544, "Ð¸Ð¹Ð³": 6545, "ĳáĢ": 6546, "Ġold": 6547, "à·Ĥ": 6548, "ĠnÃ¡": 6549, "Ġdist": 6550, "ÙĪØ§": 6551, "Ġwar": 6552, "Ð²Ð¾ÑĢ": 6553, "ÎºÎ±": 6554, "áĮĪ": 6555, "63": 6556, "ĠÕ«Õ¶": 6557, "Ġket": 6558, "×ŀ×Ķ": 6559, "ĠÃ¥r": 6560, "Ġadd": 6561, "åĮĸ": 6562, "Ð½Ð¸Ð½Ð³": 6563, "Ð°ÑĨÐ¸Ñı": 6564, "Ġarticle": 6565, "Ð»Ð¾": 6566, "Ġtudi": 6567, "å¿ĥ": 6568, "áŀĲ": 6569, "itan": 6570, "ĠÐ½Ð°ÑĢ": 6571, "à®¿à®ķà¯įà®ķ": 6572, "Æ°Æ¡ng": 6573, "IE": 6574, "ĠÂ³": 6575, "Ġfind": 6576, "omi": 6577, "Ġvz": 6578, "Ġfamil": 6579, "å¨±ä¹Ĳ": 6580, "Ã³k": 6581, "Ġfig": 6582, "Ġpil": 6583, "ÑħÐ¾Ð´": 6584, "Ġjou": 6585, "Ġgir": 6586, "Ġfram": 6587, "ĠSm": 6588, "Ġtrong": 6589, "á»ģu": 6590, "Ġoper": 6591, "Ġà¶ī": 6592, "Ġ×Ķ×ŀ": 6593, "ĠPort": 6594, "ĠNor": 6595, "îĢ": 6596, "ÙĬØ³": 6597, "owe": 6598, "inh": 6599, "Ġ×ĳ×ŀ×": 6600, "Ġcn": 6601, "è·": 6602, "à¤°à¥Ģ": 6603, "Ġåľ": 6604, "ĠÐ±Ñŀ": 6605, "Ġnou": 6606, "×Ļ×ķ": 6607, "Ġupp": 6608, "Ġspr": 6609, "Ġmenj": 6610, "ĠÕ¨": 6611, "ĠÑįÐº": 6612, "imul": 6613, "Ġhay": 6614, "Ġ:\"": 6615, "ëŁ": 6616, "ipp": 6617, "Ġ×©×Ķ": 6618, "àª¯": 6619, "×ĲÖ·": 6620, "ÑĥÐ»ÑĮ": 6621, "Ġlap": 6622, "Ã¶s": 6623, "OV": 6624, "Ġmaar": 6625, "ÙĪØ¹": 6626, "ĠÃ®ntÃ¢l": 6627, "áĪ¨": 6628, "Ġmik": 6629, "ĸáĥĶ": 6630, "Ð½ÑĭÒ£": 6631, "Ġalla": 6632, "Äģj": 6633, "RS": 6634, "èĢħ": 6635, "amis": 6636, "êµŃ": 6637, "à²¾à²¦": 6638, "Æ°á»Ŀi": 6639, "Ġmir": 6640, "Ġfree": 6641, "Ġktor": 6642, "ĠAss": 6643, "ĠØ¯ÛĮ": 6644, "Ġleb": 6645, "áĥĿáĥķ": 6646, "hor": 6647, "elefon": 6648, "à°¨à±ģ": 6649, "ÐµÐ½ÑĮ": 6650, "odo": 6651, "áĥĳ": 6652, "Ãĥ": 6653, "Ġáĥ®": 6654, "Ġdapat": 6655, "ĠNu": 6656, "ĠMus": 6657, "ĠFacebook": 6658, "Ð½Ñĥ": 6659, "hol": 6660, "Ġà¸Ļ": 6661, "ĠÙĩØ§ÛĮ": 6662, "áĥĻ": 6663, "ĠÃ¸": 6664, "ĠIz": 6665, "Ø¯Ø±": 6666, "Ġà¨ī": 6667, "áº§n": 6668, "ÛĮÙĦ": 6669, "Ã±a": 6670, "Ġour": 6671, "çŁ": 6672, "à§ģà¦°": 6673, "Ġsw": 6674, "ĠNews": 6675, "ĠLu": 6676, "áĢ¯áĢŃ": 6677, "uman": 6678, "Ð¸Ð»Ð¸": 6679, "Ãºs": 6680, "ĠÐ½Ð°Ñģ": 6681, "Ġäºļæ¸¸": 6682, "Ġ×ĳ×¢": 6683, "ĠRec": 6684, "ĠPers": 6685, "à¸Ĥà¸Ńà¸ĩ": 6686, "à¯įà®³": 6687, "meld": 6688, "ĠEt": 6689, "ëĤĺ": 6690, "omain": 6691, "ĠÐ½Ð¾Ð²": 6692, "Ġcond": 6693, "à´¦": 6694, "Ġbei": 6695, "è¶": 6696, "apan": 6697, "MA": 6698, "áĪ«": 6699, "à³Ī": 6700, "ĠÂ».": 6701, "Ġmp": 6702, "Ġnes": 6703, "áŀĦáŁĴáŀ": 6704, "áĥĶáĥłáĥ": 6705, "ÑĸÑģÑĤ": 6706, "Õ·": 6707, "iyy": 6708, "ĠPal": 6709, "Ġ();": 6710, "inda": 6711, "ĲáĢ¬": 6712, "masÄ±": 6713, "à²¿à²¦à³Ĩ": 6714, "Õ«Õ½": 6715, "Õ¡Õ¤": 6716, "oon": 6717, "Ġ×Ķ×¤": 6718, "Ġsang": 6719, "Î¿Î¹": 6720, "odi": 6721, "nder": 6722, "Ġdetail": 6723, "´Ģ": 6724, "Ġ×Ļ×©": 6725, "Ġitem": 6726, "ÑĩÐ°": 6727, "Ġabout": 6728, "ÑĤÐ°Ð½": 6729, "Ð¾Ð½Ð¸": 6730, "Ġä¸Ģ": 6731, "AI": 6732, "ĠçĶ": 6733, "à·ıà¶»": 6734, "à±Ĩà°²": 6735, "ÑģÑĤÐ²Ð°": 6736, "cis": 6737, "Ġ×Ķ×¨": 6738, "Ġwy": 6739, "êµ¬": 6740, "my": 6741, "rd": 6742, "cio": 6743, "ĠíĻ": 6744, "ĠÑĥÐ»": 6745, "Ġorang": 6746, "Ġline": 6747, "los": 6748, "vol": 6749, "ĠÐ¼Ð¸Ð½": 6750, "Ġpin": 6751, "çĻ»å½ķ": 6752, "à¤¿à¤¸": 6753, "Ġindex": 6754, "ìĹĲìĦľ": 6755, "±Û": 6756, "ters": 6757, "Ġborder": 6758, "Ä·": 6759, "Ã¡ll": 6760, "ures": 6761, "Ġqil": 6762, "),": 6763, "Ġbor": 6764, "à¶ľà·ļ": 6765, "unu": 6766, "lari": 6767, "ĠØ¨ÙĨ": 6768, "ÄĹl": 6769, "ľáĢŃáĢ¯": 6770, "à¹ĥà¸Ļà¸": 6771, "Ð°ÑĨÑĮ": 6772, "ÐĹ": 6773, "Ġ!!": 6774, "²à±ĭ": 6775, "Ġà·ĥà·Ĵ": 6776, "Ġwaar": 6777, "Ġseu": 6778, "Ġlast": 6779, "áĥĲáĥłáĥĹ": 6780, "ìĨĮ": 6781, "Ġproblem": 6782, "ĠáŀĲ": 6783, "obile": 6784, "à¦¿à¦²": 6785, "ÄŁi": 6786, "Ø¨ÙĬ": 6787, "Ġmá»Ļt": 6788, "àµģà´¤": 6789, "Ġwak": 6790, "ango": 6791, "eten": 6792, "Ġà¤ķà¤¾": 6793, "Ġpdf": 6794, "ĠBy": 6795, "isto": 6796, "Ġauto": 6797, "ovÃ©": 6798, "TE": 6799, "Ġble": 6800, "é¾Ļ": 6801, "áĥĿáĥĵ": 6802, "ÙĪØ³": 6803, "Ò·": 6804, "Ð´Ð°Ð³": 6805, "ĠThis": 6806, "ĠMy": 6807, "ĠvÃ¤l": 6808, "Ġ400": 6809, "çĤ¹": 6810, "Î±Ïĥ": 6811, "Ġà¤¸à¤Ĥ": 6812, "ĠÐ³Ð¾": 6813, "Ã¤tt": 6814, "Ġ$('": 6815, "ÐµÑĤÐ°": 6816, "Î±Ïģ": 6817, "sten": 6818, "mon": 6819, "Ġutil": 6820, "ĠSz": 6821, "agai": 6822, "à¤¾à¤¦": 6823, "Ð°ÑģÑĭ": 6824, "irs": 6825, "ĠáŀĶáŀ¶áŀĵ": 6826, "ĠØ¨Ú¾ÛĮ": 6827, "ÑįÐ¹": 6828, "Ä±s": 6829, "lah": 6830, "47": 6831, "áŁĴáŀĵáŀ»áŀĦ": 6832, "à²°à³Ĩ": 6833, "Ġwal": 6834, "ĠfÃ¥": 6835, "à²¿à²Ĥà²¦": 6836, "Ġrad": 6837, "èĭ": 6838, "à²¾à²µ": 6839, "à®²à¯į": 6840, "iu": 6841, "Ġkos": 6842, "ãģ©": 6843, "áŁĬ": 6844, "à´ķàµįà´": 6845, "ĠWa": 6846, "rap": 6847, "Ġtrad": 6848, "ieÅ¡": 6849, "ĠÐ¼Ñĥ": 6850, "Ġimp": 6851, "ĠUm": 6852, "áĥ¨áĥĺ": 6853, "sÃ¥": 6854, "ĠØ§ÙĦÙĤ": 6855, "Ġexp": 6856, "ĠOff": 6857, "ĠArt": 6858, "ÐµÐ½Ð¾": 6859, "ĽáĢ½": 6860, "ĠÏĦÎ¹ÏĤ": 6861, "ĠÃį": 6862, "Ġdre": 6863, "erial": 6864, "éĥ¨": 6865, "Ġáĥľ": 6866, "Ġsyst": 6867, "áĥĺáĥł": 6868, "ÑıÑĢ": 6869, "Ð¸ÑĢÐ°": 6870, "Ã©d": 6871, "isha": 6872, "ĠÐ°Ðº": 6873, "áĥĵáĥĲ": 6874, "à²·": 6875, "itÃł": 6876, "enie": 6877, "Ġmend": 6878, "ĠMu": 6879, "Ð¾ÑĹ": 6880, "43": 6881, "eria": 6882, "Ãłng": 6883, "nos": 6884, "ĠãĢį": 6885, "àº°àº": 6886, "à²Ĺà³Ĩ": 6887, "¶Ķ": 6888, "Ġterm": 6889, "à¶³": 6890, "Õ«Õ¿": 6891, "cm": 6892, "Ġactiv": 6893, "Ġsich": 6894, "Ġska": 6895, "Ġreview": 6896, "ĠPas": 6897, "Ġ\">": 6898, "ĠÛĮÛģ": 6899, "Ġfut": 6900, "ä¿¡": 6901, "Ġpage": 6902, "ĠAL": 6903, "Õ¡Õ¢": 6904, "ĠÖ²": 6905, "ĠÐ¿Ð¾ÑģÑĤ": 6906, "rum": 6907, "rar": 6908, "................": 6909, "ĠÐ½Ð°Ð²": 6910, "Ä£": 6911, "larÄ±n": 6912, "Ġâĸ": 6913, "Ġimages": 6914, "ĠHy": 6915, "åķ": 6916, "à¥įà¤¥": 6917, "è¿Ĳ": 6918, "à¨ľ": 6919, "à¸Ńà¸¢": 6920, "IF": 6921, "ļĮ": 6922, "ĠOct": 6923, "àµįâĢĮ": 6924, "ĠÐ½ÑĮ": 6925, "àµ¼": 6926, "ÑģÑĮÐº": 6927, "rid": 6928, "ãĥĹ": 6929, "Ð½ÑĭÐ¼": 6930, "ex": 6931, "ĠÕ¡Õ¼": 6932, "Ġprov": 6933, "Ò¯Ð»": 6934, "ture": 6935, "ĠÂ´": 6936, "Ġuw": 6937, "inas": 6938, "ektr": 6939, "Ġ2005": 6940, "Ġ2C": 6941, "åł": 6942, "med": 6943, "ĠåĽ": 6944, "áĥĺáĥª": 6945, "ĠÐ½Ð¾": 6946, "Ġsistem": 6947, "ĠVis": 6948, "Ġcompl": 6949, "àµ½": 6950, "Ð¾ÑĢÐ°": 6951, "jal": 6952, "ĠÐ±Ñĥ": 6953, "Ġml": 6954, "Å¡anas": 6955, "otos": 6956, "ľÐµ": 6957, "ĠÑĢÐ°Ñģ": 6958, "ĠKu": 6959, "è²": 6960, "à¸į": 6961, "Ġbuy": 6962, "ĠInst": 6963, "à«įàªŁ": 6964, "Ã¡nÃŃ": 6965, "à²Ĥà²¡": 6966, "à±įà°¸": 6967, "à°ķà±ģ": 6968, "Ã³t": 6969, "inger": 6970, "ĠEv": 6971, "æ°´": 6972, "ÑĢÐ¾": 6973, "raj": 6974, "ĠsÃ«": 6975, "à§ĩà¦²": 6976, "Ġà¦ªà¦°": 6977, "Ġia": 6978, "Ġanda": 6979, "so": 6980, "bel": 6981, "ĠØ§ÛĮÚ©": 6982, "à¨Ĺ": 6983, "enk": 6984, "Ġ.[": 6985, "rik": 6986, "amat": 6987, "ãģĻãĤĭ": 6988, "áŀ·áŀĵ": 6989, "Ø¯Ø§Ø±": 6990, "ÓĻÐ¼": 6991, "ÅĻÃŃ": 6992, "56": 6993, "Ġvá»Ľi": 6994, "æ£": 6995, "å£": 6996, "Ä«dz": 6997, "Ġnah": 6998, "åĲİ": 6999, "à§ĩà¦¶": 7000, "ÕµÕ¡Õ¶": 7001, "ÑĪÐ°": 7002, "Ġliv": 7003, "Õ¡ÖĦ": 7004, "áī³": 7005, "à°Ĥà°¡": 7006, "Ø¢": 7007, "Ð»Ð°ÑĤ": 7008, "amas": 7009, "abe": 7010, "à¤¤à¤¾": 7011, "UP": 7012, "ĠÎ´ÎµÎ½": 7013, "ÐłÑķ": 7014, "Ð½Ð¾Ð²": 7015, "Î½Îµ": 7016, "ä¸»": 7017, "Ġà¶Ĩ": 7018, "ëıĻ": 7019, "Ø§ÙĨÙĩ": 7020, "eke": 7021, "Ġmaks": 7022, "àª¾àª¯": 7023, "à¦¶": 7024, "Ġsah": 7025, "Ġ98": 7026, "miÅŁ": 7027, "Ġsie": 7028, "stÃ¤": 7029, "ĠØ®ÙĪ": 7030, "ãģĪ": 7031, "áŀķ": 7032, "ids": 7033, "Ġä¸Ń": 7034, "ĠHol": 7035, "íķ´": 7036, "ìľ¼ë¡ľ": 7037, "áº¡n": 7038, "à®ª": 7039, "Ð½Ð°ÑĤÐ°": 7040, "ĠÙģØ±": 7041, "ĠSE": 7042, "Ġhj": 7043, "Ġdoor": 7044, "×Ļ×Ļ×Ŀ": 7045, "Ġestas": 7046, "ĠIP": 7047, "Ãģ": 7048, "wn": 7049, "ĠÐ²Ð¸Ð´": 7050, "Ġkui": 7051, "ĠApp": 7052, "à¹īà¸§": 7053, "ĠÐ·Ð°Ð¿": 7054, "Ġincl": 7055, "ĠÂ®": 7056, "Ġrend": 7057, "ĠPR": 7058, "ÐµÑĤÑĤ": 7059, "uku": 7060, "Ġ600": 7061, "ball": 7062, "Ð°Ñī": 7063, "åľº": 7064, "ĠWeb": 7065, "zu": 7066, "ezi": 7067, "Ġà¸¡": 7068, "æŀľ": 7069, "Ġland": 7070, "elijk": 7071, "ilt": 7072, "ĠÐµÐ´": 7073, "±áĢ¸áĢ": 7074, "Ġkit": 7075, "Ġcatalog": 7076, "Ġbrand": 7077, "ÐĲÐł": 7078, "idan": 7079, "ãĤ¿": 7080, "inc": 7081, "à§įà¦·": 7082, "ekin": 7083, "Ġug": 7084, "à±įà°ļ": 7085, "Ã¥n": 7086, "dd": 7087, "ĠGer": 7088, "ĠAB": 7089, "Ġ\":[\"": 7090, "ÉĻl": 7091, "Æ°á»Ŀng": 7092, "iniz": 7093, "ĠÙħÙĤ": 7094, "Ġzn": 7095, "éĽĨåĽ¢": 7096, "Õ¡Õ·": 7097, "ĠÕį": 7098, "Ġbisa": 7099, "ĠPosted": 7100, "Ġ.-": 7101, "èª": 7102, "á»¯ng": 7103, "Ð«": 7104, "ĠØ¢ÙĨ": 7105, "Ġdest": 7106, "áŀŁáŁĭ": 7107, "áĮį": 7108, "à¹īà¸Ńà¸ĩ": 7109, "à¸£à¸´": 7110, "54": 7111, "Ġlahko": 7112, "inan": 7113, "ĠáĢĲáĢ": 7114, "áŀ¶áŁĨáŀĦ": 7115, "IB": 7116, "Ġ×Ľ×ľ": 7117, "Ġsau": 7118, "Î¼ÏĮ": 7119, "day": 7120, "Ġmig": 7121, "ĠDel": 7122, "ĠÎ¼ÎŃ": 7123, "Ġzap": 7124, "ĠGi": 7125, "Ø§Ø·": 7126, "ÉĻb": 7127, "ĠVo": 7128, "ĠTel": 7129, "ĠSP": 7130, "ÙĦÙĬ": 7131, "×ĳ×¢": 7132, "ķáĢ«áĢĲáĢ": 7133, "ÏģÎŃ": 7134, "ĠÐºÐ¾": 7135, "ĠkÃµ": 7136, "®áĢ¸": 7137, "uden": 7138, "ĠÎ±Î½Î±": 7139, "Ġaga": 7140, "áŁĴáŀĺ": 7141, "Ġà®ļà¯Ĩ": 7142, "Ġà¦ıà¦ķ": 7143, "teri": 7144, "Ġtamb": 7145, "áĭµ": 7146, "áĤĶáĢ": 7147, "ëĲ": 7148, "lav": 7149, "×ĵ×Ļ": 7150, "ĠÐ¼Ð°ÑĤ": 7151, "ĠSil": 7152, "æĬķ": 7153, "Ãłnh": 7154, "box": 7155, "ĠnÃ£o": 7156, "Ġenc": 7157, "Î¹ÎºÎ®": 7158, "ĠÐĿÐ°": 7159, "ÏģÏİ": 7160, "Ġuu": 7161, "Ġning": 7162, "å¯¹": 7163, "Ø§ÙĪ": 7164, "ikin": 7165, "stra": 7166, "agy": 7167, "ĠÎ¹": 7168, "áīł": 7169, "Ð¸Ð½Ðµ": 7170, "Ã§Ãµes": 7171, "Ġcil": 7172, "à°ªà±įà°ª": 7173, "Õ¶Õ¥ÖĢÕ¨": 7174, "gal": 7175, "ĠÐ±ÑĢ": 7176, "Õ¡ÖĢÕ¤": 7177, "Ġê¸°": 7178, "ĠWH": 7179, "ĠCa": 7180, "ãģĬ": 7181, "ham": 7182, "ĠÑĩÑĤÐ¾": 7183, "ĠÎµÎº": 7184, "ĠES": 7185, "å¿«ä¸ī": 7186, "ãĢģ": 7187, "uran": 7188, "ellen": 7189, "Ġì¹´ì§Ģëħ¸": 7190, "ĠÑĤÐµÑĢ": 7191, "ĠÑĢÐ°Ð±Ð¾ÑĤ": 7192, "à¸Ħà¸§à¸²à¸¡": 7193, "xe": 7194, "ĠÐ½Ð°Ð¼": 7195, "à²¾à²¯": 7196, "à¥ģà¤¨": 7197, "ÑįÐ¼": 7198, "Ġì§": 7199, "ĠØ§ÙĦÙģ": 7200, "ĠÕ«ÖĢ": 7201, "Ġ\").": 7202, "×ĳ×ľ": 7203, "Ġrom": 7204, "ĠkÃ¶z": 7205, "Ð°ÑĬ": 7206, "ĻáĢ¾": 7207, "Ġ''": 7208, "ãĤ£": 7209, "àµģà´®": 7210, "Ġà¸«": 7211, "Ġ×ŀ×ª": 7212, "Ġrak": 7213, "Ġpet": 7214, "Ġdro": 7215, "àª¡": 7216, "eds": 7217, "ÑĭÑģÑĤ": 7218, "Ġbit": 7219, "è°": 7220, "Ã¼t": 7221, "Ãį": 7222, "58": 7223, "ĠÐĨ": 7224, "Ġtheir": 7225, "ĠCr": 7226, "à²¿à²²": 7227, "Ð¾Ð½Ð´": 7228, "Ġ77": 7229, "à·Ĳà¶±": 7230, "ÑĸÑĹ": 7231, "iej": 7232, "RA": 7233, "ĠLi": 7234, "à©įà¨°": 7235, "Im": 7236, "ĠlÃŃ": 7237, "áģ¿áĢ": 7238, "Ä±lÄ±": 7239, "Ã¶t": 7240, "Ġalso": 7241, "áĥĿáĥļ": 7242, "áº£i": 7243, "à¸£à¸²à¸": 7244, "akar": 7245, "ĠÂ¶": 7246, "Ġgeb": 7247, "è§£": 7248, "gel": 7249, "Ġï¿½ï¿½ï¿½ï¿½ï¿½ï¿½ï¿½ï¿½ï¿½ï¿½": 7250, "Ġ×Ķ×¡": 7251, "Ġlik": 7252, "à¸£à¹Į": 7253, "Ú©ÛĮ": 7254, "Ġ×ľ×ŀ×": 7255, "Ġvet": 7256, "à¸Ļà¹Ģà¸": 7257, "ÑģÐ°Ð½": 7258, "ndan": 7259, "Ġsul": 7260, "Ġkart": 7261, "à²¾à²²": 7262, "Ġshe": 7263, "ĠSport": 7264, "ĠÐ°ÑĤ": 7265, "Ġoleh": 7266, "ĠNet": 7267, "Ø®Øª": 7268, "gh": 7269, "ager": 7270, "Ġveg": 7271, "ĠmÃ©s": 7272, "æĹ¶å½©": 7273, "antes": 7274, "Ġawá»įn": 7275, "á»ķ": 7276, "ÙĩÙĨ": 7277, "Õ¾Õ¡Õ®": 7278, "utt": 7279, "ĠØ¶": 7280, "Ġvous": 7281, "éĴ": 7282, "é¦": 7283, "àª¦": 7284, "imb": 7285, "Ġà¶Ķ": 7286, "ĠØ§Ù¾": 7287, "Ġ120": 7288, "ÙħÛĮ": 7289, "áŀĶáŁĴáŀļáŀ": 7290, "ħáĢºáĢ": 7291, "Ġmedia": 7292, "ĠBi": 7293, "æĸĻ": 7294, "å¤ĸ": 7295, "à¶ºà·ı": 7296, "à±ģà°¤": 7297, "rez": 7298, "cion": 7299, "ĠÐ°Ð¼": 7300, "Ġconf": 7301, "Ó©Ð³": 7302, "Ð°ÑĢÐ´": 7303, "issa": 7304, "chod": 7305, "AND": 7306, "Ġsat": 7307, "àªĹ": 7308, "mit": 7309, "ĠÎµÎ½": 7310, "Ġkatika": 7311, "à°¾à°Ĥà°": 7312, "Î¤": 7313, "Ġì§Ģ": 7314, "ĠÃµ": 7315, "ìłķ": 7316, "ãĤģ": 7317, "taa": 7318, "Ġsuper": 7319, "Ìģ": 7320, "ĠØ§ÙĦÙĨ": 7321, "Ġprost": 7322, "Ġeh": 7323, "Î¼Î¬": 7324, "Ġprzy": 7325, "ĠogsÃ¥": 7326, "ĠFil": 7327, "éĿ¢": 7328, "à¥įà¤®": 7329, "nek": 7330, "Ð»Ð°ÑĢÐ¸": 7331, "ÏĩÎµÎ¹": 7332, "ÉĻy": 7333, "ĠÑģÐ°Ð»": 7334, "ãģĵãģ¨": 7335, "Ð¿ÑĢÐ°Ð²": 7336, "rea": 7337, "ĠÐ¾Ð²": 7338, "ais": 7339, "çİ°": 7340, "àº²àºĻ": 7341, "Ġìļ": 7342, "Ġposs": 7343, "OB": 7344, "Ġ:-": 7345, "num": 7346, "ĠÎ¿Î¹": 7347, "Ġcli": 7348, "ĠKl": 7349, "ÙĬÙĪ": 7350, "Ø§Ø¶": 7351, "hs": 7352, "Ġvari": 7353, "site": 7354, "ĠÑĤÐ°ÑĢ": 7355, "à¥įà¤¯à¤¾": 7356, "×Ľ×ľ": 7357, "ĠâĨĴ": 7358, "Ġens": 7359, "Äĥr": 7360, "Ġ×Ķ×ķ×Ĳ": 7361, "ĠÏħÏĢ": 7362, "Ġbid": 7363, "uste": 7364, "Ġmost": 7365, "áŁĦáŀĻ": 7366, "ungen": 7367, "igo": 7368, "ĠàªŃ": 7369, "Ġszer": 7370, "Ġfund": 7371, "åĨĮ": 7372, "à¦ļ": 7373, "ãģĭãĤī": 7374, "à®¾à®¤": 7375, "ÒĽÐ°": 7376, "Ġà¶¢": 7377, "Ġwi": 7378, "àµįà´³": 7379, "Ġprice": 7380, "ìŀ¥": 7381, "hich": 7382, "ĠRev": 7383, "ĠØ¬ÙĬ": 7384, "Ġ×ĸ×Ķ": 7385, "Ġdels": 7386, "åĪ©": 7387, "ĠÑĢÐ¾Ð·": 7388, "ĠÐ¿Ð°ÑĢ": 7389, "ĠHet": 7390, "ÑĸÐ¿": 7391, "ÙĦØ¨": 7392, "Ġkter": 7393, "à¹Īà¸²": 7394, "Ð»Ð°Ð³": 7395, "ismo": 7396, "ĠÆı": 7397, "Ġhak": 7398, "íĦ": 7399, "Ġà´°": 7400, "Ġà¨¦à©Ģ": 7401, "Ġorig": 7402, "Ã¤ng": 7403, "far": 7404, "kit": 7405, "iran": 7406, "idades": 7407, "Ġfre": 7408, "ä½ĵèĤ²": 7409, "ĠÐ¾ÑĢÐ³Ð°Ð½": 7410, "ĠÐ»Ñİ": 7411, "Ġprofes": 7412, "ä¹Ł": 7413, "à³įà²µ": 7414, "ÎĿ": 7415, "Ġlike": 7416, "Ġep": 7417, "áŀıáŁĴáŀı": 7418, "àµģà´ŁàµĨ": 7419, "esc": 7420, "ĠÚ©ÙĨ": 7421, "Ġple": 7422, "Ġmain": 7423, "åĬ¨": 7424, "ikat": 7425, "Ġera": 7426, "àºĩàº": 7427, "ĠTrans": 7428, "Ġ.:": 7429, "æĹ¶æĹ¶å½©": 7430, "iec": 7431, "Ġsou": 7432, "à´¨àµįâĢį": 7433, "ÄĹj": 7434, "ĠGro": 7435, "ëª": 7436, "áĪĽ": 7437, "ÄĽt": 7438, "Ġblock": 7439, "Ġald": 7440, "ĠServ": 7441, "rad": 7442, "etu": 7443, "ĆĈ": 7444, "ÑĬÐ»": 7445, "ľáĢ¯áĢ": 7446, "ĠÙħØª": 7447, "éĢļ": 7448, "áŀ¹áŀĦ": 7449, "à§¦": 7450, "fu": 7451, "Ġdeg": 7452, "à¦Ń": 7453, "orit": 7454, "Ġà¸Ī": 7455, "ĠÐ¿Ð¾Ðº": 7456, "ĠIntern": 7457, "ĠGoogle": 7458, "à»į": 7459, "à¶¸à·ı": 7460, "Ġbh": 7461, "ĠØ¬Ø¯": 7462, "ĠnÃ³": 7463, "Ġdaar": 7464, "ĠIsl": 7465, "Ġkuwa": 7466, "Ġ(){": 7467, "Õ²": 7468, "isÃ«": 7469, "ideos": 7470, "Ph": 7471, "ĠngÆ°á»Ŀi": 7472, "ĠOm": 7473, "ÐµÑĢÑĤ": 7474, "fur": 7475, "Ġlin": 7476, "ãĤĦ": 7477, "à¨¾à¨¨": 7478, "sto": 7479, "ĠÑĤÒ¯": 7480, "à´¿à´Ł": 7481, "ĠÐ¸ÑģÑĤ": 7482, "oki": 7483, "Ġtap": 7484, "Ġnach": 7485, "ĠDon": 7486, "çīĮ": 7487, "åİħ": 7488, "Ġexper": 7489, "ĠUp": 7490, "Ð¸Ð»Ð°": 7491, "Ð·Ðµ": 7492, "ĠProf": 7493, "ÙħØ±": 7494, "Äħc": 7495, "Ãľ": 7496, "ĠDownload": 7497, "ìĬ": 7498, "à¤ģ": 7499, "ÏĥÎ¹": 7500, "ĠVa": 7501, "ĠGl": 7502, "à¨Ī": 7503, "Ġsr": 7504, "Ġpros": 7505, "à¤¾à¤ī": 7506, "ĠÎµÏĢÎ¹": 7507, "ĠÐ¿Ð¾Ð¼": 7508, "Ġkost": 7509, "anh": 7510, "ĠarÄ«": 7511, "Ġ');": 7512, "ĠÃĲÂµ": 7513, "Ġeine": 7514, "Ã¼rk": 7515, "à¯ģà®¤à¯įà®¤": 7516, "Ġàª¹àª¤": 7517, "ĠNi": 7518, "à¤¼": 7519, "ĠãĢĭ": 7520, "Ġdv": 7521, "Ġans": 7522, "æŁ": 7523, "Ú¯ÛĮ": 7524, "ebut": 7525, "Ġ</": 7526, "áĥĿáĥĴ": 7527, "ĠæĿ": 7528, "Ġà¨ķà¨°": 7529, "Ġbeste": 7530, "ØªØ§": 7531, "Õ¥ÖĢÕ«": 7532, "Ġsind": 7533, "Ġere": 7534, "way": 7535, "ief": 7536, "Ġdocument": 7537, "ÙĪÙĤ": 7538, "ĠBas": 7539, "à±ģà°°": 7540, "embre": 7541, "Ġà¦¥": 7542, "ĠÙħØ¯": 7543, "ÃŃch": 7544, "qa": 7545, "isu": 7546, "Ġyer": 7547, "ÏĨÎ¿": 7548, "Ġintern": 7549, "ä»£": 7550, "Ġyan": 7551, "Ġdil": 7552, "à¸¹à¹ī": 7553, "Ġkus": 7554, "à®¾à®Ł": 7555, "Ð°ÑĶ": 7556, "tikel": 7557, "Ġà²¶": 7558, "Ġdah": 7559, "ĠPump": 7560, "à¶±à¶º": 7561, "à°¬": 7562, "Ð°Ð»Ñĭ": 7563, "53": 7564, "ĠÐµÐ»": 7565, "à¥įà¤¨": 7566, "Äĵm": 7567, "ĠÓ©Ð·": 7568, "à¶½à·ı": 7569, "à°²à±ĭ": 7570, "ÙĩâĢĮ": 7571, "aje": 7572, "Ġà²ļ": 7573, "à¤¾à¤ĩ": 7574, "Ġcome": 7575, "çĿ": 7576, "Ãłi": 7577, "ĠìĿ´ë": 7578, "ĠÅ¼e": 7579, "áĥķáĥĶáĥļ": 7580, "à°¾à°¤": 7581, "pat": 7582, "ĠÐ½Ð°ÑĪ": 7583, "ĠTra": 7584, "ãĥķ": 7585, "ÙĦØ³": 7586, "Ã¸l": 7587, "egi": 7588, "Ġà´Ĵ": 7589, "Ġ×ŀ×Ĺ": 7590, "ĠÐ·Ð°Ðº": 7591, "Ġmeer": 7592, "upa": 7593, "à¹ģà¸¥à¸°": 7594, "Ġíĺ": 7595, "Ġavec": 7596, "ÑıÐ½": 7597, "atud": 7598, "ĠpÄģr": 7599, "Ġheb": 7600, "áŁĦáŀĢ": 7601, "dÄ±r": 7602, "ĠáĢĢáĢ": 7603, "è¿Ľ": 7604, "Ãī": 7605, "mak": 7606, "Ġà¹Ĥ": 7607, "à°ľ": 7608, "pad": 7609, "Ġà¨¨à©Ĥà©°": 7610, "Ġpadding": 7611, "ĠFree": 7612, "Ġë°Ķ": 7613, "com": 7614, "ĠáŀĵáŁħ": 7615, "Ġelektr": 7616, "áĥĶáĥĳáĥ¡": 7617, "à±įà°®": 7618, "Ġven": 7619, "Ġolan": 7620, "ĠHD": 7621, "ÅĽÄĩ": 7622, "Ġcamp": 7623, "ĠBlack": 7624, "ĶáĢºáĢ": 7625, "ĠLo": 7626, "å¦": 7627, "à°¾à°®": 7628, "oren": 7629, "Ġview": 7630, "à«ĩàª²": 7631, "à¥ĩà¤¤": 7632, "Î¡": 7633, "ards": 7634, "ĠÙĨØ¸": 7635, "à°£": 7636, "Õ¸ÖĤÕµ": 7637, "ray": 7638, "Ġref": 7639, "éļ": 7640, "tl": 7641, "Ġauch": 7642, "Ãĩ": 7643, "Ġaku": 7644, "à¤¿à¤°": 7645, "ĠÛ±Û": 7646, "ĠÖĥ": 7647, "Ġbis": 7648, "ĠÔµ": 7649, "áŀ½áŀĻ": 7650, "Ð¼Ð°Ð½": 7651, "ytt": 7652, "uns": 7653, "ips": 7654, "åĮº": 7655, "äºİ": 7656, "à¦¯à¦¼": 7657, "Ø¨Ø§Ø±": 7658, "Ġï¼Ł": 7659, "ĠÅ½": 7660, "à¹Ħà¸Ľ": 7661, "ĠÎŃÎ½Î±": 7662, "à°¿à°ķà°¿": 7663, "qip": 7664, "ĺáĢ": 7665, "ĠÒ»": 7666, "Ġters": 7667, "ÙĦÙī": 7668, "Ð°ÐºÑĤ": 7669, "ÐºÐ¾Ð²": 7670, "Ġvl": 7671, "Ġps": 7672, "Ġnel": 7673, "ĠMot": 7674, "å½©ç¥ŀ": 7675, "ÏĥÏĦÎµ": 7676, "Ġdei": 7677, "ÐµÐ½Ð´": 7678, "atik": 7679, "amm": 7680, "Ġå¥": 7681, "Ġthey": 7682, "Ġkons": 7683, "à¦¨à§įà¦": 7684, "Ð±ÐµÐº": 7685, "ivi": 7686, "amer": 7687, "Ġtrav": 7688, "ĠsÃŃ": 7689, "ĠSub": 7690, "à¦¤à§ĩ": 7691, "ikipedia": 7692, "Ġ><": 7693, "à¶»à·Ķ": 7694, "Ä«v": 7695, "à´Ĺ": 7696, "ÑĢÐ°Ð·": 7697, "Ġáĥ¥": 7698, "Ġtw": 7699, "Ġà²Ī": 7700, "àºĶàº": 7701, "à¤°à¥įà¤¨": 7702, "Äĵl": 7703, "ĠáĥĲáĥĽ": 7704, "Ġà¶±à·Ĵ": 7705, "à´¾à´¤": 7706, "Ä«bu": 7707, "ife": 7708, "Ġnab": 7709, "Ġà¨ļ": 7710, "ĠÐ¶ÑĭÐ»": 7711, "Ġ?????": 7712, "æ¥": 7713, "Ġyar": 7714, "uck": 7715, "kez": 7716, "æº": 7717, "àªľ": 7718, "endi": 7719, "Ġkay": 7720, "Ð¸Ð¶": 7721, "Ġíı": 7722, "Ġdra": 7723, "83": 7724, "ĠÐ¸ÑĪ": 7725, "ovi": 7726, "lara": 7727, "Ġwhich": 7728, "ÑĤÐº": 7729, "ĠÂ£": 7730, "å»": 7731, "ÐµÐ¼Ð°": 7732, "Ã±o": 7733, "Ġkem": 7734, "áº£n": 7735, "ische": 7736, "Ġ×Ķ×Ľ": 7737, "ĠÐ½Ð°Ð´": 7738, "ĠPres": 7739, "Ð¾ÒĽ": 7740, "Ð¼ÐµÑĤ": 7741, "à¯ģà®Ł": 7742, "Ð¸ÑĩÐµÑģÐº": 7743, "Ä«j": 7744, "ope": 7745, "69": 7746, "Ġà¦¸à¦®": 7747, "ĠVideo": 7748, "ç»ı": 7749, "has": 7750, "Ġmol": 7751, "ìĻ": 7752, "Ð¾Ð³Ð°": 7753, "ãĥŃ": 7754, "Ð¸ÒĽ": 7755, "ilar": 7756, "ĠApril": 7757, "ÏĦÎ±Î½": 7758, "Ġrealiz": 7759, "×Ļ×Ĺ": 7760, "Ð²ÐµÑĤ": 7761, "ĠTak": 7762, "uro": 7763, "ĠÐ²Ñĭ": 7764, "Ġprac": 7765, "à¸ł": 7766, "ÑĪÐµ": 7767, "Ġáĥ¤": 7768, "ĠØªØ¹": 7769, "ÐµÐ»Ð¸": 7770, "ÏĥÎ±": 7771, "ĠâĢº": 7772, "Ġmereka": 7773, "ĠSol": 7774, "à¯įà®©": 7775, "ÏĦÎ¯": 7776, "Ġthem": 7777, "Ġlak": 7778, "Ġdun": 7779, "à²¾à²Ĺà²¿": 7780, "ÑįÑįÑĢ": 7781, "eca": 7782, "amu": 7783, "Ġ62": 7784, "idir": 7785, "DE": 7786, "Ã¡b": 7787, "mail": 7788, "ishi": 7789, "Ð°Ð·Ð°ÒĽ": 7790, "ours": 7791, "icha": 7792, "ĠØ¯Ø§ÙĨ": 7793, "ìłĦ": 7794, "à°²à±ģ": 7795, "riz": 7796, "iju": 7797, "GA": 7798, "ĠØ§ÙĦØ¬": 7799, "Ð´ÑĭÒ£": 7800, "jak": 7801, "ĠØ§ÙĦØ¥": 7802, "à¯ģà®®": 7803, "inÉĻ": 7804, "ames": 7805, "Ġnhi": 7806, "Ġms": 7807, "Ġalg": 7808, "ĠIng": 7809, "Ð¾Ð½Ð°": 7810, "ffer": 7811, "Ã¼s": 7812, "ices": 7813, "Ġà²Ĵ": 7814, "Ġà¦²": 7815, "ĠAnda": 7816, "æģ": 7817, "ÐµÑĢÐ³": 7818, "idu": 7819, "ĠÒ³Ð°Ð¼": 7820, "á»ĳng": 7821, "à¸¸à¸Ķ": 7822, "Ö°": 7823, "ĠÐ¿ÑĢÐ¾Ð´": 7824, "ĠettÃ¤": 7825, "ìķĦ": 7826, "éģĵ": 7827, "áĥĲáĥĺ": 7828, "ĠâĦĸ": 7829, "Ñļ": 7830, "Î¹ÎºÎ¬": 7831, "Äģl": 7832, "Ġà¤ıà¤ķ": 7833, "Ġ×ŀ×¡": 7834, "ĠÒĽÐ°ÑĢ": 7835, "ÑĥÐ²Ð°ÑļÐµ": 7836, "ds": 7837, "ĠÙĨÛģÛĮÚº": 7838, "ĠÐ±Ð°Ð»": 7839, "Ġpul": 7840, "Ġoldu": 7841, "PS": 7842, "à´¿à´¤": 7843, "à¤ķà¤¾à¤°": 7844, "Ġáĥ©": 7845, "ĠÙħØ§": 7846, "ĠgÃ¼n": 7847, "ĠLib": 7848, "cias": 7849, "ĠáĥĴáĥĲáĥĽ": 7850, "Ġà¤Ĺà¤°": 7851, "itos": 7852, "ĠÒ±": 7853, "ĠVe": 7854, "è½¦": 7855, "åĪĴ": 7856, "áĥĿáĥł": 7857, "pk": 7858, "Ġdav": 7859, "Ġ84": 7860, "Ġdesign": 7861, "82": 7862, "àº²àºĻàº": 7863, "à¹Īà¸Ńà¸ĩ": 7864, "à°¿à°ª": 7865, "ÑĨÐ¸Ñı": 7866, "lement": 7867, "Ġprav": 7868, "Ð»Ð°Ð²": 7869, "uter": 7870, "ovo": 7871, "áŀĢáŀ¶áŀļáŀ": 7872, "ÐµÑĦ": 7873, "orr": 7874, "ĠÐ±ÑĭÐ»": 7875, "Ðħ": 7876, "nar": 7877, "Ġting": 7878, "imu": 7879, "Ġkind": 7880, "à¯įà®µ": 7881, "Ø´ÙĨ": 7882, "à¹Īà¸Ļ": 7883, "Ġjust": 7884, "áĥ¬": 7885, "àº·": 7886, "à¶¢": 7887, "Ð°ÑģÐ¸": 7888, "Ã¢y": 7889, "Ġits": 7890, "Ġ72": 7891, "Ð½Ð¾ÑģÑĤÐ¸": 7892, "vert": 7893, "onte": 7894, "ĠDom": 7895, "ÑģÐµ": 7896, "aty": 7897, "Ġgev": 7898, "æĪĳ": 7899, "aly": 7900, "ML": 7901, "Ġwork": 7902, "Ġphp": 7903, "Ġnatur": 7904, "ç©": 7905, "ä»¶": 7906, "åįģ": 7907, "tav": 7908, "roj": 7909, "inte": 7910, "ĠìķĦ": 7911, "Ġpriv": 7912, "Ġdik": 7913, "æĥħ": 7914, "onder": 7915, "berg": 7916, "Ġsho": 7917, "à®Ļà¯įà®ķ": 7918, "wy": 7919, "ska": 7920, "avo": 7921, "Ġ×ĳ×¨": 7922, "Ġ82": 7923, "æ³¨åĨĮ": 7924, "ÙĩÙĬ": 7925, "Ġà¨Ĩ": 7926, "ĠÂ¿": 7927, "Î¼ÏĢ": 7928, "ĠÑīÐ¾": 7929, "Ġkry": 7930, "ĠSing": 7931, "ĠPat": 7932, "Ġ\");": 7933, "iness": 7934, "Ġess": 7935, "æľŁ": 7936, "ØªÛĴ": 7937, "ÉĻrbay": 7938, "Äĥm": 7939, "Ãĸ": 7940, "Ġnom": 7941, "tico": 7942, "ĠSw": 7943, "ĠSom": 7944, "ÙĬØª": 7945, "à®±à¯įà®±": 7946, "Ã¨re": 7947, "ires": 7948, "imal": 7949, "ĠìĿ´ì": 7950, "ãģ¡": 7951, "Î£": 7952, "à¥įà¤²": 7953, "esp": 7954, "cat": 7955, "05": 7956, "à°¹": 7957, "×ł×Ļ×Ŀ": 7958, "OW": 7959, "çµ": 7960, "agg": 7961, "Ġpay": 7962, "åº¦": 7963, "à¸¨": 7964, "ĠÃ¾aÃ°": 7965, "Ġsaj": 7966, "åı£": 7967, "ãģĽ": 7968, "ĠØ§ÙĦØ´": 7969, "ĠÎºÎ¬": 7970, "Ġhid": 7971, "Ġeu": 7972, "ĠAugust": 7973, "pli": 7974, "ĠØ§Ø±": 7975, "ì²ľ": 7976, "Õ¸ÖĤÕ½": 7977, "ãĤ·": 7978, "Ġà²ħà²µ": 7979, "Ġà¨µà¨¿à¨": 7980, "Ġbra": 7981, "áĢĢáĢ¹": 7982, "ÑĸÐ½ÑĸÒ£": 7983, "ÐµÑģÐ¿ÑĥÐ±Ð»Ð¸Ðº": 7984, "anan": 7985, "Ġdru": 7986, "Ø°Ø§": 7987, "×¨×Ļ×Ŀ": 7988, "ape": 7989, "Ġà²Ń": 7990, "Ġ97": 7991, "Ġ74": 7992, "à¹īà¸²": 7993, "à¹Ħà¸¡à¹Ī": 7994, "ÑĨÐ¸": 7995, "ĠØ¨Ø±Ø§ÛĮ": 7996, "ĠPod": 7997, "enz": 7998, "anti": 7999, "ieg": 8000, "eft": 8001, "ĠâĢľ,": 8002, "Ġkah": 8003, "æ©": 8004, "Ð½Ð³": 8005, "à¸Īà¸°": 8006, "Ġzv": 8007, "Ġbun": 8008, "ĠAR": 8009, "Î»Î»Î¬": 8010, "gang": 8011, "St": 8012, "AAAAAAAA": 8013, "ratis": 8014, "Ġ×ľ×¢": 8015, "Ġub": 8016, "Ġhindi": 8017, "eler": 8018, "Î´Î±": 8019, "ription": 8020, "æķ°": 8021, "ØµÙĦ": 8022, "ĠÖī": 8023, "ĠÑģÐ°Ð¹": 8024, "ä»¬": 8025, "Ð¹Ð»": 8026, "Ġàªªà«įàª°": 8027, "Ġzak": 8028, "Ġà°¶": 8029, "ĠFebru": 8030, "æ°ĳ": 8031, "Ú»": 8032, "ĠØ¬ÙĨ": 8033, "Ġ×ķ×Ĳ": 8034, "à¤¿à¤¯à¤¾": 8035, "Ð½Ð¾Ð³": 8036, "Ġnhá»¯ng": 8037, "à³įà²·": 8038, "ogra": 8039, "éħ": 8040, "Ð¸ÑģÑĤÐ¾Ð½": 8041, "ĠìŀĲ": 8042, "ĠtÃ¶r": 8043, "à¦¾à¦¹": 8044, "iba": 8045, "Ġfem": 8046, "Ġabs": 8047, "ĠMax": 8048, "àªŁ": 8049, "Ġà´¬": 8050, "ĠØªÙĩ": 8051, "Ġ250": 8052, "à²ļ": 8053, "ĠØ§ÙĦØ¨": 8054, "Ãĵ": 8055, "ople": 8056, "ĠÐ¿ÑĢÐ¸": 8057, "ĠktÃ³": 8058, "Ð»Ñĭ": 8059, "}.": 8060, "ĠÄĳá»Ļ": 8061, "Ġstand": 8062, "å±±": 8063, "Ġdien": 8064, "};": 8065, "Ġngud": 8066, "Ġjar": 8067, "ĠSec": 8068, "ĠDep": 8069, "Ġ\"},\"": 8070, "åŁİ": 8071, "à¤¹à¥Ģ": 8072, "nings": 8073, "ĠØ¨ÙĦ": 8074, "Ġaya": 8075, "ĠGa": 8076, "Î¿ÏĤ": 8077, "Pr": 8078, "ĠÖħ": 8079, "ĠÎ¦": 8080, "Ġupor": 8081, "ĠnhÆ°": 8082, "ask": 8083, "áŁĨáŀĸ": 8084, "ÐºÐ¾Ð»": 8085, "imulyo": 8086, "Ġren": 8087, "èĬ": 8088, "Úª": 8089, "Ø§Ø¦ÛĮ": 8090, "ÃĦ": 8091, "87": 8092, "Ġà°¹": 8093, "ĠÕ¨Õ¶": 8094, "Ġngudimulyo": 8095, "Ġjy": 8096, "å¾Ĺ": 8097, "Æ°á»Ľc": 8098, "Ġà°Ń": 8099, "Ġà¦¹à§Ł": 8100, "Ġwel": 8101, "Ġobj": 8102, "ë°Ķ": 8103, "Öĥ": 8104, "à©ĭà¨Ĥ": 8105, "mark": 8106, "lov": 8107, "isch": 8108, "HE": 8109, "==": 8110, "ĠkÃ¶": 8111, "Ġdep": 8112, "ëĭĪ": 8113, "Õ¡Õ´Õ¢": 8114, "Ġbers": 8115, "ĠChe": 8116, "Ġà»Ģàº": 8117, "Ġprote": 8118, "áºŃn": 8119, "ĠÃ¦": 8120, "Ġfj": 8121, "ÙĪØ¬": 8122, "Ġìłķ": 8123, "Ġteh": 8124, "á»©c": 8125, "Ġ×ľ×©": 8126, "ĠÐ´Ð²": 8127, "Ġproduct": 8128, "ĠKe": 8129, "ĠBir": 8130, "æıĲ": 8131, "à²¾à²Ĥ": 8132, "iyo": 8133, "ĠÚ©ÛĲ": 8134, "ĠÑĥÑĢ": 8135, "Ġwie": 8136, "à²¾à²®": 8137, "Ġnone": 8138, "ibi": 8139, "Ġzi": 8140, "à´¾à´²": 8141, "Ê»": 8142, "Ġà§¨": 8143, "ĠÃ¾ess": 8144, "à´±àµįà´±": 8145, "Ġ96": 8146, "¤ĳ": 8147, "ugh": 8148, "ikl": 8149, "hem": 8150, "å°±": 8151, "Ø¡": 8152, "OC": 8153, "Ġfav": 8154, "íĦ°": 8155, "Ã©c": 8156, "imet": 8157, "edz": 8158, "ĠØ§ÙĦØ®": 8159, "Ġpes": 8160, "à·Ĵà¶ļ": 8161, "ļáĢ": 8162, "å¢": 8163, "elm": 8164, "ĶáĢ¹áĢ¸áĢ": 8165, "Ġà´ī": 8166, "íĻĶìĿ´íĬ¸": 8167, "íĶĦíĻĶìĿ´íĬ¸": 8168, "ÐµÐ´Ñĸ": 8169, "»áĢĸáĢ": 8170, "ĠãĢĮ": 8171, "Ġà²®à²¾à²¡": 8172, "ĠÑģÑĥÑĢ": 8173, "ĠÐ±Ð¸": 8174, "Ġ^": 8175, "Ð½Ð°Ð»": 8176, "plo": 8177, "Ġzdrav": 8178, "Ġord": 8179, "Ġjob": 8180, "ĠEN": 8181, "à¸±à¸ļ": 8182, "ottom": 8183, "ĠØ§ÙĦØ¯": 8184, "áĥĺáĥ¢": 8185, "eres": 8186, "ĠÐ¿Ð¾ÑĢ": 8187, "Ġ63": 8188, "zk": 8189, "sch": 8190, "],\"": 8191, "ĠÐ´ÑĢ": 8192, "æ¶": 8193, "á»±c": 8194, "à¸±à¸Ķ": 8195, "ession": 8196, "Ġ×Ĳ×ľ": 8197, "à°Łà±įà°Ł": 8198, "room": 8199, "ĠìĿ¸": 8200, "¬¬": 8201, "DA": 8202, "Ġ2004": 8203, "Õ¸ÖĢÕ®": 8204, "ĠÑĤÐµÐ»": 8205, "igu": 8206, "Ġà¸ļ": 8207, "ĠÐ¶Ð°": 8208, "ĠÃ¾vÃŃ": 8209, "áĢ¬áĢĢáĢ¹áĢ": 8210, "ĠBR": 8211, "Ó©Ó©": 8212, "Ġmenu": 8213, "Ġdim": 8214, "ĠGod": 8215, "à¤ķà¥įà¤·": 8216, "ÃŃr": 8217, "áŁĴáŀļáŀ»": 8218, "à¦Łà¦¿": 8219, "ÛĮØ²": 8220, "Ú¾Ø§": 8221, "Ã´i": 8222, "Ġdating": 8223, "emos": 8224, "Key": 8225, "åĲĹ": 8226, "ws": 8227, "Ð½Ð°Ð¹": 8228, "Ġnews": 8229, "à¨¤à©ĩ": 8230, "ÏĦÎŃ": 8231, "lÉĻri": 8232, "inti": 8233, "ĠìĿ´": 8234, "ĠNg": 8235, "ïº": 8236, "á»Ń": 8237, "rz": 8238, "Ġhelp": 8239, "ĠUl": 8240, "ĠPet": 8241, "éĹ¨": 8242, "ĠáĢľáĢ": 8243, "ĠÃ¶z": 8244, "Ġsport": 8245, "Ġprez": 8246, "Ġ89": 8247, "à¹Ģà¸Ĥ": 8248, "Ó¯": 8249, "ĠÅ¡e": 8250, "Ġproces": 8251, "àª¾àª¤": 8252, "cent": 8253, "ĠÒĽÐ¸Ð»": 8254, "ÙģØ±": 8255, "Ð³Ð¾Ð²": 8256, "akin": 8257, "ĠÐ¼Ð°Ð»": 8258, "Ġsaya": 8259, "Ġqual": 8260, "ÙĤØª": 8261, "Ð¾Ð´Ð°": 8262, "qi": 8263, "Ġreal": 8264, "Ġiy": 8265, "ĠSur": 8266, "och": 8267, "acional": 8268, "ä¿Ŀ": 8269, "ream": 8270, "84": 8271, "ĠDit": 8272, "ĠÐµÐº": 8273, "Ġpero": 8274, "Ġcomun": 8275, "æŃ£": 8276, "nÄ«": 8277, "ĠÑıÐºÑĸ": 8278, "Ġhome": 8279, "owy": 8280, "×ķ×ŀ×": 8281, "Ġprom": 8282, "çī©": 8283, "Ø³Ùħ": 8284, "epat": 8285, "éª": 8286, "ÅĤy": 8287, "Ġsama": 8288, "Ġ86": 8289, "Ġito": 8290, "à°¿à°°": 8291, "ÑĽ": 8292, "ÏĦÎ¹ÎºÏĮ": 8293, "Ġæĸ°": 8294, "Ġdira": 8295, "ĠPark": 8296, "ĠGar": 8297, "imiz": 8298, "Ġoor": 8299, "áŁł": 8300, "wat": 8301, "Ġrespons": 8302, "à±Ĥ": 8303, "Ø²Ø§Ø±": 8304, "Ð½Ð¾Ð¼": 8305, "Åĳl": 8306, "entar": 8307, "Ġfran": 8308, "Ġasi": 8309, "áĢĦáĢ¹áĢ¸": 8310, "Å¡a": 8311, "ĠØ´Ø±": 8312, "Ġoma": 8313, "Ġequ": 8314, "Ġdies": 8315, "Ġbere": 8316, "áŀĵáŁĴáŀı": 8317, "Î¬Ïģ": 8318, "Ġ×ĳ×©": 8319, "ror": 8320, "iso": 8321, "Ġunha": 8322, "à´´": 8323, "ugar": 8324, "ĠáĢ¡": 8325, "tific": 8326, "Ġhun": 8327, "ĠRE": 8328, "ĠPara": 8329, "åĨħ": 8330, "ÑīÐµ": 8331, "Ġ×Ķ×§": 8332, "ĠFer": 8333, "ĠClass": 8334, "áŁĴáŀĭ": 8335, "à°¾à°ķ": 8336, "Ġà¦«": 8337, "ëĵľ": 8338, "à¹Ģà¸Ķ": 8339, "rif": 8340, "inar": 8341, "ĠÙħØ¬": 8342, "à°¾à°Ł": 8343, "à¤¨à¥Ģ": 8344, "ÑĨÑĭ": 8345, "itÃ¤": 8346, "ĠÚ©ÛĮØ§": 8347, "×Ĳ×¨": 8348, "Ò¯Ò¯Ð»": 8349, "íļĮ": 8350, "Ġedhe": 8351, "á»ģn": 8352, "á»£": 8353, "eptember": 8354, "ĠKh": 8355, "Ð¸ÑĽ": 8356, "BA": 8357, "ĠØ±Ûģ": 8358, "Ġsag": 8359, "ÓĻÑĤ": 8360, "à¹ģ": 8361, "Ã¾": 8362, "ides": 8363, "ĠOf": 8364, "Ġà¦Ĩà¦®": 8365, "Ġà¦ĩ": 8366, "Ġdop": 8367, "è¿Ļ": 8368, "ãĤ¦": 8369, "pap": 8370, "Ġmail": 8371, "Ġà¹Ħ": 8372, "Ġmass": 8373, "ìĥģ": 8374, "tem": 8375, "adem": 8376, "Ġå¿": 8377, "ĠâĹ": 8378, "ĠÅĽ": 8379, "æĹĹ": 8380, "áĥĿáĥłáĥ": 8381, "jat": 8382, "ĠáĬĲ": 8383, "Ġlebih": 8384, "ÉĻd": 8385, "Ã¦k": 8386, "xy": 8387, "ĠÕ°Õ¥Õ¿": 8388, "èĲ": 8389, "Ã°ar": 8390, "¥¿": 8391, "tev": 8392, "Ġbro": 8393, "ĠID": 8394, "åħĥ": 8395, "áŁĴáŀĳ": 8396, "Ð²ÐµÑĢ": 8397, "iska": 8398, "eze": 8399, "NA": 8400, "Ġcam": 8401, "Ġ2003": 8402, "Õ¥Õ´": 8403, "ÑĩÐ¸": 8404, "Ð°Ð½Ñģ": 8405, "Äı": 8406, "rob": 8407, "inden": 8408, "aco": 8409, "Ġà¦Ł": 8410, "ìĸĳ": 8411, "Î¼Î±ÏĦÎ±": 8412, "áº§u": 8413, "ingu": 8414, "Ġvas": 8415, "Ġdeal": 8416, "Ġaur": 8417, "ĠSim": 8418, "Ġ83": 8419, "Î»Î¿Î³": 8420, "xi": 8421, "éĥ½": 8422, "Õ¸Õ½": 8423, "ĠÐ°Ð¶": 8424, "ĠÄī": 8425, "Ġdeb": 8426, "çŃī": 8427, "à¦§": 8428, "åıĸ": 8429, "Ġê²ĥ": 8430, "Ġtij": 8431, "Ġost": 8432, "à¸´à¸Ķ": 8433, "ĠìĹ¬": 8434, "Ġstyle": 8435, "Ġkepada": 8436, "Ø§ÙħÙĦ": 8437, "ÐłÂµ": 8438, "Î¼Î·": 8439, "ungs": 8440, "atzen": 8441, "Ġplay": 8442, "áŁĨáŀİ": 8443, "à¥ĩà¤°": 8444, "ÐµÑĽ": 8445, "Ð¡Ð¢": 8446, "Ãĳ": 8447, "Ġama": 8448, "à®³à¯į": 8449, "idos": 8450, "ìĽĶ": 8451, "ware": 8452, "à²¦à²²à³įà²²à²¿": 8453, "eber": 8454, "à¸Ļà¸µà¹ī": 8455, "×Ļ×Ĵ": 8456, "nas": 8457, "IZ": 8458, "ĠØ§Ø¨": 8459, "Ġperf": 8460, "Ġmell": 8461, "Ġimg": 8462, "ÄįnÃŃ": 8463, "Ġvot": 8464, "ĠmÃµ": 8465, "Ġats": 8466, "ĠBon": 8467, "ĠAzÉĻrbay": 8468, "Ġ76": 8469, "ãģ¤": 8470, "ÃŃl": 8471, "ĠÐºÐ°Ð»": 8472, "Ã¯": 8473, "ĠvÃ¦re": 8474, "Ġsaat": 8475, "Ġmula": 8476, "Ø¤": 8477, "Ð±ÑĢ": 8478, "unan": 8479, "iyet": 8480, "ĠæĪĳ": 8481, "ë¯¸": 8482, "ãĥ¥": 8483, "Ġ×¤×¨": 8484, "ĠAllah": 8485, "Ġà´ľ": 8486, "ĠØªÙħ": 8487, "dom": 8488, "anyak": 8489, "ĠBil": 8490, "Ġć": 8491, "ìĹ¬": 8492, "59": 8493, "æĬĢ": 8494, "Ġresult": 8495, "Ġfirst": 8496, "Ġeru": 8497, "ĠIB": 8498, "ìĪĺ": 8499, "à¸ĺ": 8500, "elig": 8501, "act": 8502, "ĠÑĩÐ°Ñģ": 8503, "ĠÏĮÏĦÎ¹": 8504, "ìķ½": 8505, "åĳĺ": 8506, "áĥĺáĥĻ": 8507, "à²Ĥà²¬": 8508, "à¤¾à¤ª": 8509, "UD": 8510, "ç«¯": 8511, "à§ĥ": 8512, "ĠFa": 8513, "ÙĪØ§ÙĨ": 8514, "ĶáĢº": 8515, "Ġzar": 8516, "áĪħ": 8517, "áĢĢáĢŃáĢ¯": 8518, "itus": 8519, "asjon": 8520, "Ġà¸ŀ": 8521, "Ġnin": 8522, "Ġëĵ": 8523, "ĠáĬ¨": 8524, "Ġà¦ĸ": 8525, "ĠÙĦÙĩ": 8526, "ĠÙ¾Ø§Ú©": 8527, "ĠÃ¶n": 8528, "ĠPS": 8529, "à¹Ģà¸Ĺ": 8530, "à¸±à¸§": 8531, "ÃŃnh": 8532, "rim": 8533, "ift": 8534, "52": 8535, "ĠâĶ": 8536, "Ġà°Ī": 8537, "Ġbank": 8538, "ÙģØª": 8539, "ÑįÑĤ": 8540, "rs": 8541, "ful": 8542, "Ġcum": 8543, "ÃŃk": 8544, "lip": 8545, "ĠCity": 8546, "áĪļ": 8547, "à§ĩà¦Ľà§ĩ": 8548, "à¥įà¤ª": 8549, "PR": 8550, "Ġwax": 8551, "åĲĮ": 8552, "×³": 8553, "Ġà®Ĵ": 8554, "Ġ×ĳ×Ķ": 8555, "Ġ1000": 8556, "åĲį": 8557, "ited": 8558, "indows": 8559, "fir": 8560, "arg": 8561, "anna": 8562, "Ġëĭ¤": 8563, "ĠNam": 8564, "Ã¦Ã°": 8565, "àµģà´³": 8566, "à®²à¯įà®²": 8567, "Ô±Õ": 8568, "vir": 8569, "Ġsend": 8570, "ģáĢº": 8571, "Ġother": 8572, "ÓĻÐº": 8573, "Ġ81": 8574, "áī£": 8575, "EST": 8576, "Ġthu": 8577, "ĠFe": 8578, "ĠDI": 8579, "çłģ": 8580, "à°ķà±įà°ķ": 8581, "×ŀ×¨": 8582, "Ġ×ĵ×Ļ": 8583, "ĠÐ²ÑĢÐµÐ¼": 8584, "Ġkj": 8585, "Ġ69": 8586, "æĶ¿": 8587, "Ð°Ð½ÑĤ": 8588, "uen": 8589, "bor": 8590, "Ġkak": 8591, "ĠDem": 8592, "Ð»Ð°Ð¼": 8593, "--------": 8594, "Ġ});": 8595, "Äįe": 8596, "inga": 8597, "Ġfam": 8598, "ìĸ´": 8599, "ãĤ«": 8600, "iyor": 8601, "Ġáŀł": 8602, "Ä±na": 8603, "rak": 8604, "ctor": 8605, "atÄĥ": 8606, "Ġà¸Ĺ": 8607, "ĠÑģÐ¸": 8608, "Ġcc": 8609, "Ġafter": 8610, "ĠMol": 8611, "ĠKi": 8612, "ĠKas": 8613, "ĠBest": 8614, "à¸±à¸ģà¸": 8615, "Ø§Ø¯Ùĩ": 8616, "Ġæµ": 8617, "ĠÄĳÃ£": 8618, "Ġàª«": 8619, "Ġzen": 8620, "Ġuse": 8621, "Ġmens": 8622, "ĠilÉĻ": 8623, "ĠRob": 8624, "åºĹ": 8625, "àª¥à«Ģ": 8626, "vu": 8627, "MS": 8628, "Ġtun": 8629, "Ġanti": 8630, "ì½ľê±¸": 8631, "à¯ģà®±": 8632, "ÑıÐ¼": 8633, "Ġsid": 8634, "ĠestÃ¡": 8635, "æīĭæľºçīĪ": 8636, "à¸Ľà¸£à¸°": 8637, "bj": 8638, "ĠÐ·Ð°Ð¼": 8639, "ĠBur": 8640, "è¿ĩ": 8641, "ç¤¾": 8642, "åħ³": 8643, "ãĤı": 8644, "Î»Î¬": 8645, "Ġ×ĳ×ª": 8646, "Ġpast": 8647, "Ġdownload": 8648, "ĠKos": 8649, "æĢĿ": 8650, "istan": 8651, "ĠInform": 8652, "íķĺëĬĶ": 8653, "çĲĥ": 8654, "à«įàª¤": 8655, "ÙĦÙĥ": 8656, "Ð°Ñĳ": 8657, "ĠìłĦ": 8658, "Ġtet": 8659, "Ġfull": 8660, "è¡¨": 8661, "à°Ĥà°²à±ĭ": 8662, "àª³": 8663, "Ġà§§à§": 8664, "ĠÎĴ": 8665, "Ġkoh": 8666, "Ġdaha": 8667, "Äįen": 8668, "ĠÙĪØ±": 8669, "Ġopp": 8670, "Ġkann": 8671, "Ġizan": 8672, "éĹ´": 8673, "çĽ®": 8674, "´ëĿ¼": 8675, "ĶáĢ¹": 8676, "Ġà´µà´¿à´": 8677, "Ġlive": 8678, "ĠFre": 8679, "àµĨà´¨àµįà´¨": 8680, "à²¦à³ģ": 8681, "ÏĦÎ¹ÎºÎ®": 8682, "cho": 8683, "arte": 8684, "ĠÐĳÐµÐ»": 8685, "ĠÐºÐ¸": 8686, "æİĴ": 8687, "ãĥĥãĤ¯": 8688, "à²ľ": 8689, "Ð¸ÑĨÐ°": 8690, "nim": 8691, "isc": 8692, "51": 8693, "ĠÐ¿Ð¾Ð·": 8694, "áŀ¶áŀĸ": 8695, "Ġáŀľ": 8696, "ĠÙ¹": 8697, "Ġwp": 8698, "Ġlim": 8699, "å®ŀ": 8700, "Ð´Ð·": 8701, "Î¼Î²": 8702, "ness": 8703, "Ġà®ĩà®°": 8704, "Ġmg": 8705, "ĠCap": 8706, "riend": 8707, "ĬáĢ¹áĢ": 8708, "ĠÐ±Ð°Ñģ": 8709, "à¥ĭà¤Ĺ": 8710, "à¤«": 8711, "Ġà²µà²¿à²": 8712, "Ġ×Ķ×ĳ": 8713, "Ġmur": 8714, "Ġdla": 8715, "Ġ,âĢĿ": 8716, "ÑĥÑĢÑģ": 8717, "ĠZa": 8718, "ĠMak": 8719, "OG": 8720, "à¸´à¸ķ": 8721, "ÙħØ§ÙĨ": 8722, "osto": 8723, "ĠÙĨÙĪ": 8724, "Ġanmeld": 8725, "ĠUs": 8726, "éĩį": 8727, "áĥĺáĥĽ": 8728, "Ġàªķà«ĩ": 8729, "Ġsiis": 8730, "Ġminut": 8731, "Ġchat": 8732, "ÑıÐ²": 8733, "zat": 8734, "ĽĦ": 8735, "ĠÐ¼Ð°Ñģ": 8736, "ĠMul": 8737, "Ćć": 8738, "Ð»Ð°ÑĪ": 8739, "Ġ67": 8740, "á»ĩt": 8741, "ÑĭÐ²": 8742, "rah": 8743, "Ġ×ķ×ŀ×": 8744, "à¸±à¸Ļ": 8745, "à©Ģà¨Ĩ": 8746, "à¥ĩà¤ķà¥ĭ": 8747, "ring": 8748, "Ġsubd": 8749, "ì¶ľìŀ¥ë§ĪìĤ¬ì§Ģ": 8750, "iller": 8751, "Ð»Ð¾Ð²": 8752, "ÎºÏĮ": 8753, "isin": 8754, "Ġéĩ": 8755, "ĠCons": 8756, "å¿«ä¹Ĳ": 8757, "à¦¾à¦ª": 8758, "ced": 8759, "Ġàªļ": 8760, "ĠÑĤÓ©": 8761, "Ġteen": 8762, "ÙĨØª": 8763, "Õ¡ÕµÕ«": 8764, "±áĢĽ": 8765, "Ġtelah": 8766, "ĠFi": 8767, "ì°": 8768, "Å¡ana": 8769, "fen": 8770, "Ġà¤¡": 8771, "ĠbÅ«": 8772, "éĩĮ": 8773, "áĢ·áĢ": 8774, "ezd": 8775, "Ġìĺ¤íĶĦíĻĶìĿ´íĬ¸": 8776, "ĠÐ¿Ð¾Ñĩ": 8777, "Ġrequ": 8778, "àª§": 8779, "ĠWest": 8780, "ĠUN": 8781, "ungan": 8782, "itate": 8783, "date": 8784, "avi": 8785, "Ġtelefon": 8786, "abo": 8787, "Ġà¤¹à¥Īà¤Ĥ": 8788, "Ġkhi": 8789, "ĠPen": 8790, "FF": 8791, "ÙĬÙģ": 8792, "Ð±Ð¾ÑĢ": 8793, "Ġà¶Ĵ": 8794, "Ġkami": 8795, "ãĥĥãĥĪ": 8796, "ÉĻlÉĻr": 8797, "±àµĨ": 8798, "skap": 8799, "ander": 8800, "ĠØ¥ÙĦÙī": 8801, "ĠÐºÑŀ": 8802, "Ġanak": 8803, "à°¿à°²": 8804, "azio": 8805, "atta": 8806, "ĠÑĤÐµÑħ": 8807, "ĠPC": 8808, "íĮ": 8809, "æį": 8810, "áŁģáŀŁ": 8811, "á»Ŀi": 8812, "Î»ÎŃ": 8813, "SS": 8814, "ĠáĢĽáĢ": 8815, "ĠVil": 8816, "ÖĢÕ¡Õ¶": 8817, "lim": 8818, "car": 8819, "à°Ĥà°Ĺà°¾": 8820, "reen": 8821, "Phone": 8822, "Ġáº": 8823, "ĠÐ´ÐµÐ¿": 8824, "ĠUSD": 8825, "ĠMont": 8826, "æľį": 8827, "ÑģÑįÐ½": 8828, "Ġmask": 8829, "ìĬµ": 8830, "ãĥŀ": 8831, "Ö´": 8832, "Ġbaz": 8833, "Ġbad": 8834, "Ġano": 8835, "áĥĲáĥĻ": 8836, "estiv": 8837, "cul": 8838, "ĠçļĦ": 8839, "Ġà´¶": 8840, "Ġà¤ķà¤¾à¤°": 8841, "Ġspec": 8842, "Ġgew": 8843, "Ð°Ð»ÑĤ": 8844, "Ã§Ä±": 8845, "ijk": 8846, "Ġ×ŀ×§": 8847, "ĠÐ¼Ð¾Ð¶Ðµ": 8848, "ĠCi": 8849, "áĥĲáĥĴ": 8850, "×ķ×ł×Ķ": 8851, "Ð´Ñĥ": 8852, "akse": 8853, "****": 8854, "ĠÐ¿Ð°Ð´": 8855, "ĠvÃµi": 8856, "Ġindiv": 8857, "ĠPentru": 8858, "Ġíķľ": 8859, "à¨¬": 8860, "Î»Î®": 8861, "oba": 8862, "hir": 8863, "abor": 8864, "Ġâķ": 8865, "Ġrest": 8866, "Ġkuri": 8867, "åĪĨå½©": 8868, "ÙĦÙĩ": 8869, "Ð°Ð½Ðµ": 8870, "reb": 8871, "ÓĻÑģ": 8872, "))": 8873, "Ġà¦¬à¦²": 8874, "ĠØ¯ÙĪ": 8875, "á»ı": 8876, "Ð³Ñĸ": 8877, "ovat": 8878, "ãģ¿": 8879, "Å©": 8880, "oji": 8881, "ĠÐ¡ÑĤ": 8882, "ĠÃ¼Ã§": 8883, "Ġnost": 8884, "è®¡åĪĴ": 8885, "à¤¾à¤ļ": 8886, "Ø§Ùĭ": 8887, "Ð½Ð°ÑĤ": 8888, "»áĢķ": 8889, "Ġ×Ķ×ł": 8890, "ĠÔ¿": 8891, "Ġmam": 8892, "áĢ¬áĢĦáĢ¹áĢ": 8893, "à¸Ńà¸ļ": 8894, "à´¨àµįà´¤": 8895, "à¥ģà¤²": 8896, "ĠÐ±Ð°ÑĪ": 8897, "Ġnur": 8898, "Ġinfo": 8899, "ĠSta": 8900, "à¶ł": 8901, "Ð²Ð°ÑĢ": 8902, "iais": 8903, "ĠÎ¾": 8904, "àª¶": 8905, "ÑĦÐ¾ÑĢÐ¼": 8906, "Ġvez": 8907, "ãģĦãĤĭ": 8908, "Ġåľ¨": 8909, "Ġà¤Ł": 8910, "Ġuchun": 8911, "ĠTw": 8912, "elik": 8913, "Ġæī": 8914, "Ġà¸ķ": 8915, "ç¾İ": 8916, "Ø¨Ø¯": 8917, "Ġbox": 8918, "ney": 8919, "ĠÐ´Ð¾Ð»": 8920, "Ġupang": 8921, "Ġbill": 8922, "ris": 8923, "kal": 8924, "ĠÐ±ÑĸÑĢ": 8925, "ĠnÃ¥": 8926, "liy": 8927, "ĠTÃ¼rk": 8928, "à§įà¦ª": 8929, "rive": 8930, "olg": 8931, "may": 8932, "ĠÐ³Ð¾Ð»": 8933, "ĠJes": 8934, "Ġ61": 8935, "sÃ©g": 8936, "encia": 8937, "Ġáŀķ": 8938, "ĠÚĪ": 8939, "ĠØ¬Ùħ": 8940, "ĠÐ´Ð°Ð²": 8941, "Ġsku": 8942, "Ġmont": 8943, "ĠSH": 8944, "ĠAh": 8945, "à¹īà¸²à¸Ļ": 8946, "à«ĩàª®": 8947, "Ġbab": 8948, "Äĵc": 8949, "zz": 8950, "annya": 8951, "Ġ94": 8952, "Ġ91": 8953, "Õ¥Õ¬Õ¸ÖĤ": 8954, "Ð¾ÑĤÐ¾ÑĢ": 8955, "Ð³Ð¸Ð¹Ð½": 8956, "log": 8957, "Ġmap": 8958, "Ð°ÑĢÑĥ": 8959, "tat": 8960, "iyat": 8961, "ĠNy": 8962, "áĥłáĥĹ": 8963, "inis": 8964, "Ġsubdomain": 8965, "Ġstor": 8966, "ĠMac": 8967, "ĠâĢİ": 8968, "ĠvÃŃ": 8969, "ĠJos": 8970, "Ð¶Ð°Ð²": 8971, "uses": 8972, "Ġà²®à²¤à³įà²¤": 8973, "Ġsun": 8974, "Ġped": 8975, "ĠAnt": 8976, "éĶ": 8977, "ÖĦÕ«": 8978, "Ã©se": 8979, "ĠDar": 8980, "ĠCC": 8981, "à´¾à´¯à´¿": 8982, "ety": 8983, "07": 8984, "ĠÎ¤Î¿": 8985, "Ġforma": 8986, "taj": 8987, "Ġ73": 8988, "à®¿à®µ": 8989, "uq": 8990, "img": 8991, "ĠíĮ": 8992, "Ġì°": 8993, "Ġoder": 8994, "Ġkell": 8995, "íı¬": 8996, "è¯·": 8997, "áĥ¨": 8998, "ĠNr": 8999, "ĠBes": 9000, "æĢ§": 9001, "à¹Ģà¸Ľà¹ĩà¸Ļà¸": 9002, "ĠNovember": 9003, "dek": 9004, "ĶáŀŁáŁĭ": 9005, "ĠØ§ÙĦØµ": 9006, "ĠÑľÐµ": 9007, "ĠAD": 9008, "Î¿ÏħÎ¼Îµ": 9009, "mp": 9010, "ĠØ§ÛĮ": 9011, "ĠÎµÎ¯": 9012, "ĠÂ©": 9013, "Ġmac": 9014, "ãĤ³": 9015, "×ķ×Ķ": 9016, "ĠKan": 9017, "Ã¥l": 9018, "èµĦ": 9019, "vious": 9020, "jÃ³": 9021, "imm": 9022, "gl": 9023, "ĠÐ½ÐµÐº": 9024, "Ġtin": 9025, "ĠpÅĻÃŃ": 9026, "ĠSen": 9027, "ÏĦÎ¿ÏĤ": 9028, "asy": 9029, "ĢáĢŃáĢ¯": 9030, "ĠÐ·Ð°Ð²": 9031, "Ġish": 9032, "Ġcop": 9033, "è§Ħ": 9034, "åĬ¡": 9035, "àª¨à«įàª": 9036, "Õ¡Õ¾Õ¸ÖĢ": 9037, "ÏĢÎ±": 9038, "Ġ93": 9039, "íķĻ": 9040, "à´²àµįà´²": 9041, "mek": 9042, "kv": 9043, "ĠÐłÐµÑģÐ¿ÑĥÐ±Ð»Ð¸Ðº": 9044, "äºĮ": 9045, "à¶¯à·Ķ": 9046, "egu": 9047, "agen": 9048, "Ġkre": 9049, "áºŃt": 9050, "à¶ºà·ļ": 9051, "yal": 9052, "udio": 9053, "Te": 9054, "IJ": 9055, "Ġlength": 9056, "ÙĦÙģ": 9057, "ÏĥÏĦ": 9058, "Ġà¸ģ": 9059, "Ġ×Ķ×Ĵ": 9060, "Ġmodel": 9061, "ÐĺÐ": 9062, "erne": 9063, "Ġà¤¨à¥ĩ": 9064, "ĠpÃ¤": 9065, "Ġday": 9066, "avad": 9067, "æĺİ": 9068, "å·ŀ": 9069, "ÙĤÛĮ": 9070, "IO": 9071, "888": 9072, "à±ģà°µ": 9073, "à¥ĥ": 9074, "ĠÐ´Ð·": 9075, "ĠÐ°Ð¿": 9076, "Ġkum": 9077, "à¥įà¤ķ": 9078, "ÑĥÑģÑĤ": 9079, "NS": 9080, "ĠãģĿ": 9081, "Ġ×ŀ×ł": 9082, "Ġlaik": 9083, "Õ¡ÖĢÕ¯": 9084, "ĠSeptember": 9085, "Ġà´İà´¨àµįà´¨": 9086, "Ġ900": 9087, "ìĺ¤": 9088, "ĠáĭŃ": 9089, "ĠÐºÓ©ÑĢ": 9090, "Ġcir": 9091, "åĽŀ": 9092, "Ð¸Ð¼Ð¸": 9093, "Ġmobil": 9094, "Ġä¸į": 9095, "Ġà¤ĩà¤¸": 9096, "ĠØ¨Ø§Ø²": 9097, "ĠÐ¿Ð°": 9098, "ĠKal": 9099, "ĠBak": 9100, "áŁį": 9101, "áŀīáŁĴáŀ": 9102, "enye": 9103, "arbe": 9104, "BF": 9105, "Ġáį¢": 9106, "ĠÚĨÛĲ": 9107, "Ġhg": 9108, "çī¹": 9109, "ĠPan": 9110, "ë£": 9111, "à¸¸à¸ĵ": 9112, "à¸´à¸Ļà¸": 9113, "àª¿àªķ": 9114, "rok": 9115, "ĠSet": 9116, "Ġæŀ": 9117, "Ġàª®àª¾àª": 9118, "ĠÐ³Ð¸": 9119, "Ġnow": 9120, "ĠéĢ": 9121, "Ġplat": 9122, "ĠÃĹ": 9123, "ìļĶ": 9124, "á»įc": 9125, "×©×ª": 9126, "ĠÐ·Ð°Ð±": 9127, "ĠÅ¡t": 9128, "Ġsuk": 9129, "ìłģ": 9130, "à¤¹à¤°": 9131, "itle": 9132, "hk": 9133, "à¶±à·ı": 9134, "à²¾à²°à³Ĩ": 9135, "eken": 9136, "ĠØ¨Ø¯": 9137, "Ġzb": 9138, "ĠHal": 9139, "Ġ71": 9140, "Õ¡ÖĢÕ¿": 9141, "iske": 9142, "Ġà¨¹à©ĭ": 9143, "ĠÃª": 9144, "raw": 9145, "ĠáŀĬáŁĤáŀĽ": 9146, "ĠÏĥÎ±ÏĤ": 9147, "ĠÄĳá»ĥ": 9148, "Ġpow": 9149, "Ġmoet": 9150, "ĠBus": 9151, "ØªÙĬ": 9152, "zd": 9153, "ĠáĬ¥áĬķ": 9154, "ĠÙħÛĮâĢĮ": 9155, "Ġmoun": 9156, "ĠMor": 9157, "Ġê³ł": 9158, "Ġiden": 9159, "Ġbot": 9160, "ĠMic": 9161, "ì¹´ëĿ¼": 9162, "ä»ĸ": 9163, "á»ĳi": 9164, "Ø¨ÙĦ": 9165, "ily": 9166, "LA": 9167, "Ġverd": 9168, "Ġnaar": 9169, "Ġarg": 9170, "×¥": 9171, "ªàµįà´ª": 9172, "kil": 9173, "Ad": 9174, "èį": 9175, "ÏĦÎµÏĤ": 9176, "Ã¡p": 9177, "icht": 9178, "Ġthá»ĥ": 9179, "ĠáĥĿ": 9180, "Ġàªªàª°": 9181, "à±ģà°²à±ģ": 9182, "ÑĤÐ¸ÑĢ": 9183, "umo": 9184, "stand": 9185, "ĠÐ¼ÐµÑĤ": 9186, "ÏĦÎ±ÏĤ": 9187, "ĠÐ´ÐµÐ»": 9188, "Ġ800": 9189, "à§ĩà¦ĩ": 9190, "à§Ĥ": 9191, "Ġpens": 9192, "áŀ·áŀı": 9193, "Ð»Ð¸Ð²": 9194, "ÏĢÎµ": 9195, "ĠØ§ÙĦÙĥ": 9196, "ĠpÅĻed": 9197, "Ġlai": 9198, "Ġach": 9199, "áŀĶáŀ¶áŀĵ": 9200, "Ã¦l": 9201, "CE": 9202, "ĠÙĦÛĮ": 9203, "Ġlong": 9204, "å±ķ": 9205, "à®¾à®°à¯į": 9206, "lega": 9207, "ĠÐ¾Ð±Ð»": 9208, "Ġcontr": 9209, "ĠTR": 9210, "ìŀĦ": 9211, "Ð°ÑĨÐ¸Ð¸": 9212, "sv": 9213, "ĠáĢŀ": 9214, "ĠÅ¾iv": 9215, "Ġhol": 9216, "Ġly": 9217, "ĠfÃ¸r": 9218, "äº¬": 9219, "à¯ģà®³": 9220, "iji": 9221, "ican": 9222, "Ġâľ": 9223, "Ġà¶ĭ": 9224, "Ġà²¯": 9225, "ĠÑģÑĤÑĢ": 9226, "å®¢æĪ·": 9227, "à¸²à¸Ħ": 9228, "ÙĤØ©": 9229, "ĠÐºÐ°ÐºÐ¾": 9230, "Ġbilan": 9231, "ĠPri": 9232, "Ġ79": 9233, "áŀ¾áŀĦ": 9234, "Ð¶Ðµ": 9235, "Ġà²ī": 9236, "ĠØ«": 9237, "à¹Ĩ": 9238, "à¸£à¸¡": 9239, "zÄħ": 9240, "oru": 9241, "Ġwere": 9242, "Ġradi": 9243, "áŀ¶áŀħ": 9244, "Ø³Ø¨": 9245, "Ð°ÑĤÐ°ÑĢ": 9246, "ĠØ§ÙĦØ±": 9247, "ĠÎµÎ¾": 9248, "ĠLas": 9249, "æĦı": 9250, "Ãºbl": 9251, "Ã³g": 9252, "Ã¦t": 9253, "Ġzam": 9254, "äº§": 9255, "áŀĺáŀ¶áŀĵ": 9256, "uble": 9257, "ithe": 9258, "cep": 9259, "ĻáĢ»": 9260, "ĠØ¯Ø§Ø±": 9261, "Ġmut": 9262, "Ġiki": 9263, "æĻĤ": 9264, "à»ģàº": 9265, "àµĪ": 9266, "Ð½Ð°Ñĩ": 9267, "Äĥng": 9268, "almente": 9269, "ĠJanuar": 9270, "Ġkod": 9271, "Ð¸Ð»ÑĮ": 9272, "ÐµÑĤÑģÑı": 9273, "Ġê²½": 9274, "ĠÕ¥ÖĢÕ": 9275, "orth": 9276, "abar": 9277, "Ġàª¥": 9278, "ĠÕºÕ¡Õ¿": 9279, "Ġqo": 9280, "ĠRus": 9281, "Ġ???": 9282, "çľĭ": 9283, "à²ķà³įà²ķà³Ĩ": 9284, "Ĺàºµ": 9285, "Ġimportant": 9286, "Ġdost": 9287, "Ġcomment": 9288, "Ġapl": 9289, "àª¿àª¯": 9290, "UK": 9291, "Class": 9292, "Ġyn": 9293, "Ġsuc": 9294, "ĠMel": 9295, "rot": 9296, "kaz": 9297, "enter": 9298, "egen": 9299, "666": 9300, "ĠÙĪÛģ": 9301, "ĠÏĢÏģÎ¿Ïĥ": 9302, "Ġwho": 9303, "ĠsÃ©r": 9304, "Ġ??": 9305, "æ¼": 9306, "ä¸İ": 9307, "à¸£à¸ĩ": 9308, "Ġï¿½ï¿½ï¿½ï¿½ï¿½ï¿½ï¿½ï¿½ï¿½": 9309, "à¹Ģà¸«": 9310, "0000": 9311, "ĠÕĨ": 9312, "ĠÑĩÐµ": 9313, "ĠSA": 9314, "dn": 9315, "Ġlagi": 9316, "Ġcur": 9317, "ĠKol": 9318, "åįĹ": 9319, "ÑĬÑĤ": 9320, "Ġedil": 9321, "ĠTu": 9322, "ĠCasino": 9323, "áĥĽáĥĲ": 9324, "eck": 9325, "Ġrum": 9326, "Ð°ÑĹ": 9327, "\\\"": 9328, "Ġneed": 9329, "Ġdrug": 9330, "Ø®Ø±": 9331, "dar": 9332, "Ġ92": 9333, "Ġà¤ħà¤¨": 9334, "Ġinformation": 9335, "ĠhÃ¤r": 9336, "Ġelse": 9337, "ĠPak": 9338, "à°°à±į": 9339, "Ò»": 9340, "Å£i": 9341, "ĠsÃ¼": 9342, "áģ¾áĢĢ": 9343, "omas": 9344, "ĠÙĦØ§": 9345, "Ġsome": 9346, "ìĭł": 9347, "à®¿à®¤à¯įà®¤": 9348, "ols": 9349, "Ġà¸Ľ": 9350, "ĠØ®ÙĪØ¯": 9351, "ĠÐ´ÐµÐºÐ°": 9352, "Ġkle": 9353, "ĠCal": 9354, "Î·Î½": 9355, "±áĢĶáĢ": 9356, "erta": 9357, "Ġactu": 9358, "ë²ķ": 9359, "perti": 9360, "imento": 9361, "Ġà¹ģà¸¥à¸°": 9362, "Ġà´ħà´µ": 9363, "ĠØ³ÙĪ": 9364, "Ġ×ľ×¤": 9365, "ĠÏĥÏĦÎ±": 9366, "Ġworden": 9367, "ÑĢÐ´": 9368, "ĠSv": 9369, "ĠSand": 9370, "ĠNext": 9371, "à²²à³ģ": 9372, "ÙĬØ§Øª": 9373, "ukt": 9374, "åİ¿": 9375, "Ú©ÙĨ": 9376, "hand": 9377, "ĠØŁ": 9378, "Ġtud": 9379, "eling": 9380, "Ġunivers": 9381, "ķáĢ«áĢ": 9382, "Ġëħ": 9383, "Ġ×Ĳ×¤": 9384, "ĠÐ³Ð°ÑĢ": 9385, "Ġfinan": 9386, "dÄ±": 9387, "ĠëĤĺ": 9388, "Ġà¦Ľ": 9389, "ĠØ¨ÛĮ": 9390, "ĠÐºÒ¯": 9391, "Ġ[/": 9392, "ĠNav": 9393, "ĠDav": 9394, "ÑĢÑĤ": 9395, "ÑĢÐ¸": 9396, "fel": 9397, "Ġokt": 9398, "Ġdef": 9399, "ĠWat": 9400, "Ð°Ð¾": 9401, "dal": 9402, "ahr": 9403, "Ġhart": 9404, "Ġhari": 9405, "ĠSon": 9406, "à·Ķà¶«": 9407, "ossa": 9408, "ries": 9409, "ĠÕ¦": 9410, "ĠÐ¾Ñĩ": 9411, "Ġhod": 9412, "çĿĢ": 9413, "à¯Īà®ķ": 9414, "Ð°Ð¹Ð½": 9415, "skÃ©": 9416, "elles": 9417, "01": 9418, "ÑĩÑĭ": 9419, "usu": 9420, "ĠPD": 9421, "stan": 9422, "ihan": 9423, "atas": 9424, "08": 9425, "Ġvast": 9426, "Ġsatu": 9427, "Ġdod": 9428, "ĠLatv": 9429, "ĠCont": 9430, "à±Īà°¨": 9431, "ÄįiÅ³": 9432, "ustom": 9433, "Ġå¼": 9434, "ĠáŀĻ": 9435, "ĠØªÙĨ": 9436, "ç²": 9437, "à´¶": 9438, "à³įà²ª": 9439, "olf": 9440, "Ġgaz": 9441, "Ġflo": 9442, "Ġbehar": 9443, "Ġani": 9444, "ĠIk": 9445, "àºģàº": 9446, "ÏģÎ®": 9447, "mÉĻk": 9448, "Ġwhat": 9449, "ĠSem": 9450, "æ¡": 9451, "rie": 9452, "Ġlum": 9453, "Ġfoto": 9454, "ĠVan": 9455, "à´²àµįâĢį": 9456, "ÑĤÑĸ": 9457, "inya": 9458, "ĠÒĽÐ¾Ð»": 9459, "Ġdivers": 9460, "é©": 9461, "à´¿à´¨àµįà´": 9462, "à¥įà¤°à¥Ģ": 9463, "ÑĸÐ½Ð´Ðµ": 9464, "uki": 9465, "mÄ±ÅŁ": 9466, "Ġvad": 9467, "Ġbeen": 9468, "ligt": 9469, "Ġà°ı": 9470, "ãĥĨ": 9471, "abb": 9472, "ĠÑģÐ°Ð½": 9473, "ĠÃļ": 9474, "Ġgood": 9475, "ĠInn": 9476, "Ġ->": 9477, "áĢĦáĢ·": 9478, "iday": 9479, "ĠÒļÐ°Ð·Ð°ÒĽ": 9480, "ĠVers": 9481, "ç±": 9482, "inder": 9483, "Ġdisc": 9484, "ãģ®ãģ§": 9485, "roll": 9486, "job": 9487, "ĠÃİ": 9488, "Ġopen": 9489, "å¼ı": 9490, "Ð³Ò¯Ð¹": 9491, "ĠáĥĴáĥĲáĥľ": 9492, "ĠÙĨÙĩ": 9493, "ĠÓĺ": 9494, "Ġsens": 9495, "è¯´": 9496, "åĪĹ": 9497, "à°ļà±įà°ļ": 9498, "Ø§ÙĨØ¯": 9499, "ĠAfrika": 9500, "ê²½": 9501, "áĥ¦": 9502, "ÏĬ": 9503, "UB": 9504, "ĠfrÃ¡": 9505, "emm": 9506, "amshi": 9507, "ĠLeg": 9508, "ë¹Ħì": 9509, "âĢ¦âĢ¦": 9510, "áĥĺáĥĲáĥľ": 9511, "à§įà¦¥": 9512, "Õ¸ÖĤÖĢ": 9513, "ÏĥÎ¿": 9514, "ilik": 9515, "esz": 9516, "QW": 9517, "Ġáĥª": 9518, "ĠàªĨàªµ": 9519, "ĠveÄį": 9520, "Ò±Ð»": 9521, "itud": 9522, "eker": 9523, "à°°à°¿à°": 9524, "ÙĳÙİ": 9525, "ÐµÐ³ÐµÐ½": 9526, "Ð³Ð°ÑĢ": 9527, "bang": 9528, "anja": 9529, "ĠÐ¿Ð¾ÑĤ": 9530, "ĠÐĪ": 9531, "Úĺ": 9532, "×ŀ×ķ": 9533, "Ð´Ð°Ð¹": 9534, "Ð°ÑĤÑĭÐ½": 9535, "uhan": 9536, "Ġà²®à³ģ": 9537, "Ġelementor": 9538, "ĠLE": 9539, "à¸ĭ": 9540, "atori": 9541, "ĠEU": 9542, "á»ī": 9543, "àµģà´¨àµįà´¨àµģ": 9544, "Ġbund": 9545, "áĪ°": 9546, "àµįà´ŀ": 9547, "Ø¨ÛĮ": 9548, "abr": 9549, "Ġpang": 9550, "Ġhow": 9551, "áŁĴáŀĵáŀĢ": 9552, "ÙĨÙĬ": 9553, "Ã¦g": 9554, "ĨáŁĴáŀĵ": 9555, "Õ¡ÖĢÕ£": 9556, "Ð²Ð°Ð»": 9557, "Ġvr": 9558, "åı¸": 9559, "àµģà´³àµįà´³": 9560, "ĠÏĢÎ¿": 9561, "Ġvolt": 9562, "Ġresta": 9563, "Ġged": 9564, "ìłľ": 9565, "ÎŃÏģ": 9566, "ebruik": 9567, "ĠáĪĪ": 9568, "ĠÐºÐ°Ð¼": 9569, "Ġglob": 9570, "Ġblack": 9571, "ĠCast": 9572, "Ġ;-": 9573, "uat": 9574, "Î»Î¯": 9575, "Ġener": 9576, "æĿĳ": 9577, "å°Ĩ": 9578, "à©ľ": 9579, "à¤¤à¥ĩ": 9580, "Ã¢nd": 9581, "ĠÙĦÙĪ": 9582, "Ġhigh": 9583, "ĠAC": 9584, "à¤¾à¤ı": 9585, "ÏĦÎ¹ÎºÎ¬": 9586, "unci": 9587, "ollow": 9588, "Ġras": 9589, "ĠGen": 9590, "ê¸Ī": 9591, "Å¼y": 9592, "zia": 9593, "emo": 9594, "Ġà«": 9595, "ĠvÅ¡": 9596, "icz": 9597, "ĠÐ½Ð°Ñĺ": 9598, "áĥĺáĥķ": 9599, "wala": 9600, "Ġati": 9601, "äº¤": 9602, "áŁĨáŀĵ": 9603, "×©×Ķ": 9604, "Îľ": 9605, "edy": 9606, "cas": 9607, "ĠÐ¿ÑĸÐ´": 9608, "å»º": 9609, "ĠØ§ØŃ": 9610, "Ġonly": 9611, "ĠOut": 9612, "çĽ¸": 9613, "ãĥī": 9614, "à°¾à°µ": 9615, "×¨×Ļ": 9616, "icial": 9617, "ĠTim": 9618, "éķ¿": 9619, "473": 9620, "áĥĶáĥļáĥĺ": 9621, "áº½": 9622, "à¶ºà¶ļà·Ĭ": 9623, "àŃ": 9624, "Ġë¹": 9625, "Ġç§": 9626, "Ġà°Ĵ": 9627, "Ġshum": 9628, "Ġever": 9629, "Ġcos": 9630, "çĽ´": 9631, "áŀ¼áŀĽ": 9632, "áŀĴáŀ": 9633, "à¨¿à©±à¨": 9634, "was": 9635, "usti": 9636, "Ġrefer": 9637, "ĠHor": 9638, "Ġ>>": 9639, "ì¹´ì§Ģëħ¸": 9640, "ĠâĨĳ": 9641, "Ġkg": 9642, "Ġagçİ¯äºļ": 9643, "Ġ%;": 9644, "áŁĴáŀĦ": 9645, "×¨×Ľ": 9646, "ljen": 9647, "ities": 9648, "Ġarbe": 9649, "inst": 9650, "agu": 9651, "ĸáĢ¼áĢ": 9652, "ĠØ²ÛĮ": 9653, "áĥķáĥĺáĥ¡": 9654, "à¤¿à¤®": 9655, "ÎµÏĦÎ±Î¹": 9656, "Īìķ½": 9657, "Ġrqt": 9658, "Ġpog": 9659, "ĠVir": 9660, "ĠBre": 9661, "æĬ¥": 9662, "Ã«ve": 9663, "Ġà°¯": 9664, "Ġthan": 9665, "ĠInternet": 9666, "ĠAP": 9667, "ondo": 9668, "istÃ¤": 9669, "eksi": 9670, "Ġsis": 9671, "Ġpic": 9672, "Ġina": 9673, "Ò³Ð¾Ð¸": 9674, "ÎŁÎ¥": 9675, "lk": 9676, "ĠÕ´Õ¡Õ½": 9677, "áĥĶáĥĴ": 9678, "à¹Ģà¸ª": 9679, "try": 9680, "abel": 9681, "Ġtent": 9682, "eiro": 9683, "Ġmake": 9684, "ģéĢŁ": 9685, "ĠÃ¼z": 9686, "Ġà®ķà¯Ĭ": 9687, "ĠØ³Ø§ÙĦ": 9688, "ç³": 9689, "à¤¾à¤ģ": 9690, "onesia": 9691, "Type": 9692, "06": 9693, "Ġáĥ¢": 9694, "ĠØ§ÙĨØª": 9695, "Ġsik": 9696, "ĠmÄĽ": 9697, "ĠSRS": 9698, "àµģà´µ": 9699, "Ð¾Ð²Ðµ": 9700, "isme": 9701, "ingi": 9702, "iger": 9703, "ĠÃºt": 9704, "ĠCu": 9705, "éĢģ": 9706, "Ã¹ng": 9707, "ĠÐ¸Ð¼Ð°": 9708, "Ġill": 9709, "ÙĪØ±ÛĮ": 9710, "lep": 9711, "ĠÐ½Ñı": 9712, "ĠGener": 9713, "æµ·": 9714, "Ð½Ð¾Ðµ": 9715, "Ġvagy": 9716, "æ´²": 9717, "ĠÏĢÎ¿Î»": 9718, "ĠIf": 9719, "áŀ»áŀĵ": 9720, "áĥĺáĥļáĥĺ": 9721, "ÙĦÙĪ": 9722, "Ã¡st": 9723, "Ġlis": 9724, "Îł": 9725, "Ġrqid": 9726, "åįļ": 9727, "áĬŃ": 9728, "oke": 9729, "laÅŁ": 9730, "istas": 9731, "GC": 9732, "Ġtersebut": 9733, "Ġlain": 9734, "Ġanal": 9735, "Ġaktiv": 9736, "ĠTech": 9737, "ĠRad": 9738, "Ġãģ¨": 9739, "ãĤ»": 9740, "eira": 9741, "ľì¶ľìŀ¥": 9742, "ĠÐĹÐ°": 9743, "Ġbig": 9744, "ĠLA": 9745, "à¸²à¸§": 9746, "à·Ĵà¶±": 9747, "à²Łà³įà²Ł": 9748, "ÑģÑĤÐ²ÐµÐ½": 9749, "Ð°ÑĤÐµÐ»": 9750, "oci": 9751, "iren": 9752, "asyon": 9753, "Ġà¤°à¤¹": 9754, "Ġperi": 9755, "Ġnok": 9756, "Ġlen": 9757, "ĠfÃ¥r": 9758, "à²§": 9759, "à°Ń": 9760, "kn": 9761, "arn": 9762, "Ġç»": 9763, "Ġ×ķ×ĳ": 9764, "ĠÐ²ÐµÑĢ": 9765, "ĠÎ¼Î±ÏĤ": 9766, "ĠÂ±": 9767, "Ġtor": 9768, "Ġkim": 9769, "Ġbáº¡n": 9770, "Ġara": 9771, "Ġaquest": 9772, "udz": 9773, "à°¾à°²à±ģ": 9774, "ĠÎ¼Î¹Î±": 9775, "ĠNEW": 9776, "à¹īà¸Ļ": 9777, "Õ¸Öģ": 9778, "isht": 9779, "QU": 9780, "ĠÃ¼Ã§Ã¼n": 9781, "Ġselv": 9782, "×ķ×£": 9783, "ÐºÐ°Ð½": 9784, "Ġà¹ĥ": 9785, "Ġà¨¤à©ĩ": 9786, "ĠÂ¼": 9787, "Ġstrat": 9788, "Ġfunk": 9789, "à®¾à®µ": 9790, "ĠØ¨Ø¹Ø¯": 9791, "ĠOne": 9792, "ê²©": 9793, "ê´Ģ": 9794, "åķĨ": 9795, "zon": 9796, "ä½į": 9797, "àºª": 9798, "Ø§Ø¦ÛĴ": 9799, "ÐµÑļÐµ": 9800, "Ġsearch": 9801, "Ġpng": 9802, "è£ħ": 9803, "uren": 9804, "adingin": 9805, "Ġ×ŀ×ĵ": 9806, "Ġsept": 9807, "Ġlot": 9808, "Ġaiadingin": 9809, "ÑĤÑĮÑģÑı": 9810, "Ð°Ð½Ð¸Ñı": 9811, "Ġà´²": 9812, "ĠÐ±Ð¾ÑĢ": 9813, "Ġwant": 9814, "éĢī": 9815, "æīĢ": 9816, "pak": 9817, "jas": 9818, "Ġàªĸ": 9819, "ĠÑĤÑĥ": 9820, "ĠÃ¾e": 9821, "Ġefter": 9822, "áĢŃáĢ¯áĢĦáĢ¹áĢ": 9823, "qq": 9824, "iac": 9825, "ŀàµįà´ŀ": 9826, "Ġtout": 9827, "ĠnÃº": 9828, "Ġeb": 9829, "æł¼": 9830, "à±ģà°¡à±ģ": 9831, "Õ¸ÖĤÕ©ÕµÕ¸ÖĤÕ¶Õ¨": 9832, "Ġáŀĺáŀ¶áŀĵ": 9833, "ĠÐ·Ð°ÑĢ": 9834, "Ġput": 9835, "Ġdam": 9836, "ĠEz": 9837, "å®¢æĪ·ç«¯": 9838, "à²¿à²²à³įà²²": 9839, "ÑĭÐ»Ð°ÑĢ": 9840, "09": 9841, "Ġë¶Ģ": 9842, "Ġà»ģàº": 9843, "Ġvalue": 9844, "Ġtok": 9845, "ÑĤÐ°Ð»": 9846, "Ġà¶´à·ĬâĢįà¶»": 9847, "Ġu00": 9848, "ĠTre": 9849, "Ã¡ra": 9850, "_m": 9851, "Ġwhen": 9852, "ĠnÉĻ": 9853, "áŀ½áŀĵ": 9854, "à¸±à¹īà¸ĩ": 9855, "àªµàª¾": 9856, "ÏĢÎ¿Ïħ": 9857, "à¦¥": 9858, "Ä¼u": 9859, "opa": 9860, "alth": 9861, "Ġà¦ķà¦°à§ĩ": 9862, "Ġnamshi": 9863, "Ġbild": 9864, "èĻ": 9865, "å¤ĩ": 9866, "à¸ģà¸±à¸ļ": 9867, "×ŀ×ª": 9868, "ÐµÑĺ": 9869, "Ġà¤ĺ": 9870, "ĠÐ´Ðµ": 9871, "Ġsyn": 9872, "Ġlid": 9873, "Ġautor": 9874, "ê¹": 9875, "à¥ĩà¤ª": 9876, "Ã¡ng": 9877, "Ġà®ªà¯ĭ": 9878, "ĠÚ©Ø±Ø¯": 9879, "Ġtari": 9880, "Ġolar": 9881, "hold": 9882, "Ġë²": 9883, "ĠÐłÑĳ": 9884, "Ġlav": 9885, "Ġapar": 9886, "àµįà´µ": 9887, "},{\"": 9888, "à¦¿à§Łà§ĩ": 9889, "×¨×Ķ": 9890, "Ġà¶ļà·Ĵà¶º": 9891, "Ġ×Ĵ×Ŀ": 9892, "ĠÐ´Ð¾Ðº": 9893, "ë§ĮëĤ¨": 9894, "à¤ĸ": 9895, "Û°": 9896, "Ð»ÐµÐ¼": 9897, "åľ¨çº¿": 9898, "à²¨à³Ĩ": 9899, "vÄĵ": 9900, "fÃ¶r": 9901, "HT": 9902, "ĲáĢ²áĢ·": 9903, "ĠÐ½Ð°Ð·": 9904, "Ġyaz": 9905, "ĠZe": 9906, "à¤¥": 9907, "igan": 9908, "Ġâĩ": 9909, "ĠUk": 9910, "ĠDire": 9911, "à´¬": 9912, "Ð´ÐµÐ»": 9913, "erb": 9914, "ĠtÄģ": 9915, "Ġstran": 9916, "Ġebay": 9917, "Ġchild": 9918, "ĠWindows": 9919, "à¹Ģà¸ŀ": 9920, "à¸Ńà¸Ļ": 9921, "ultura": 9922, "inÄĹ": 9923, "illi": 9924, "icas": 9925, "04": 9926, "Ġfaz": 9927, "Ġbase": 9928, "à¹ĥà¸Ĭ": 9929, "AHI": 9930, "ØªØ¨": 9931, "Õ¸Õ¬": 9932, "xo": 9933, "itr": 9934, "ĲáĢºáĢ": 9935, "ĠÑŀÐ·": 9936, "ĠÐ¼Ð°": 9937, "ĠÐİ": 9938, "Ġlook": 9939, "Ġbay": 9940, "Ġ].": 9941, "sti": 9942, "alen": 9943, "ĠÕĢÕ¡Õµ": 9944, "Ġpush": 9945, "Ġmoment": 9946, "ĠUt": 9947, "à®©à¯įà®±": 9948, "Ð¾Ð½Ð¾Ð¼": 9949, "Ġà¸Ĥ": 9950, "Ġrap": 9951, "íĸī": 9952, "à²¦à³Ĩ": 9953, "ĠáŀĽáŁĦáŀĢ": 9954, "Ġàªªàª£": 9955, "ĠÐ¶Ð¸Ð²": 9956, "Ø®Øµ": 9957, "Ã¶d": 9958, "nega": 9959, "ison": 9960, "KA": 9961, "ĠÐ½Ð°Ð¹": 9962, "Ġthere": 9963, "íķ´ì": 9964, "ÙĬÙĩ": 9965, "phone": 9966, "jav": 9967, "hy": 9968, "ĠáĢĴáĢ": 9969, "ĠÐ¿ÑĢÐ¾ÑĤ": 9970, "ĠHG": 9971, "à¦¿à¦¸": 9972, "hv": 9973, "ĠÑĤÐ°Ð¼": 9974, "à·ıà¶½": 9975, "Õ¡Õ¶Õ¤": 9976, "ÑĤÑįÐ¹": 9977, "Ð¾Ðµ": 9978, "Ã¸d": 9979, "ingar": 9980, "adr": 9981, "Ġì²": 9982, "ĠÒ¯Ð·": 9983, "Ġgran": 9984, "Ġ4074": 9985, "ãģĤãĤĭ": 9986, "à®µà®°": 9987, "à¤Ī": 9988, "Ð°ÑĢÐ¼": 9989, "ÅŁa": 9990, "ĠÃ©g": 9991, "ĠmoÅ¾": 9992, "Ġhver": 9993, "ä¸ŃåĽ½": 9994, "Ú«": 9995, "688": 9996, "Ġviet": 9997, "Ġnod": 9998, "Ġfan": 9999, "ÐµÑĪÐµ": 10000, "apt": 10001, "aden": 10002, "ŀáĢĬáĢ¹": 10003, "ĠÔ²": 10004, "ĠÃ¾ar": 10005, "ĠcÃ´ng": 10006, "ĠSams": 10007, "ãĥ¼ãĤ¹": 10008, "à·Ĵà¶Ń": 10009, "à°¿à°Ĥà°¦à°¿": 10010, "à®¾à®²à¯į": 10011, "ÑģÑĭÐ½": 10012, "Ã©rt": 10013, "iciÃ³n": 10014, "ĠØ³ÛĮ": 10015, "ĠKer": 10016, "Ð°ÑļÐ°": 10017, "Ã¢m": 10018, "02": 10019, "Ġ×ľ×ĳ": 10020, "ĠÕ¥ÖĤ": 10021, "Ġprincip": 10022, "ĠFoto": 10023, "×ł×ĺ": 10024, "ply": 10025, "ansa": 10026, "Ġthi": 10027, "Ġsunt": 10028, "ĠkÃ«": 10029, "Ġkin": 10030, "Ġjul": 10031, "Ġasp": 10032, "ê°Ħ": 10033, "oca": 10034, "Ġ×Ķ×Ķ": 10035, "Ġvery": 10036, "Ġvida": 10037, "Ġsebagai": 10038, "Ġcontra": 10039, "å¥ĸ": 10040, "à±ĩà°¦": 10041, "icio": 10042, "Ĩį": 10043, "Ġ×ľ×Ĺ": 10044, "ĠÐ·Ð°Ð´": 10045, "à´¿àµ½": 10046, "àª¬": 10047, "Ġov": 10048, "Õ§": 10049, "adores": 10050, "Ġjet": 10051, "Ġcin": 10052, "Ġ87": 10053, "bh": 10054, "ĠmoÅ¼": 10055, "Ġdifer": 10056, "Ġbottom": 10057, "à¤¾à¤°à¥Ģ": 10058, "Õ½Õ¿": 10059, "Î³Îº": 10060, "Ã¼ks": 10061, "Ã¥d": 10062, "wal": 10063, "Ġáĥ§": 10064, "ĠØ§ÙĦÙĦÙĩ": 10065, "Ġsono": 10066, "Ġparas": 10067, "ĠAzÉĻrbaycan": 10068, "ÑĥÐ»ÑĮÑĤ": 10069, "ningen": 10070, "ļáĢºáĢ": 10071, "Ġáĥĺáĥ¡": 10072, "Ġmov": 10073, "ĠfrÃ¥n": 10074, "angi": 10075, "Ġà¨ħà¨¤à©ĩ": 10076, "Ġecon": 10077, "Ġdetails": 10078, "ĠMah": 10079, "Äįno": 10080, "vÃ©ny": 10081, "TER": 10082, "ĠviÅĨ": 10083, "Ġhulle": 10084, "ãģĦãģĨ": 10085, "à¤¿à¤µ": 10086, "imp": 10087, "æ¯Ķ": 10088, "áĥ£": 10089, "åĪ¶": 10090, "ativa": 10091, "ĠÕ¶Õ¡ÕŃ": 10092, "Ġtá»«": 10093, "Ġpob": 10094, "Ġheeft": 10095, "Ġcost": 10096, "áĥĺáĥĿ": 10097, "Ð³Ð¾Ð»": 10098, "ĠÐ¼ÐµÐ´": 10099, "ĠÐ¼Ð°ÑĢ": 10100, "ĠprÃŃ": 10101, "Ġpret": 10102, "Ġpeople": 10103, "à²¿à²µ": 10104, "à¥ĩà¤ĸ": 10105, "ÐµÐºÑģ": 10106, "GB": 10107, "Ġdefin": 10108, "Ġdy": 10109, "à±ģà°Ĺ": 10110, "à°¾à°¦": 10111, "ÑĸÐ½Ðµ": 10112, "Î©": 10113, "used": 10114, "bud": 10115, "ĠeÃ°a": 10116, "æ£ĭ": 10117, "àº¹": 10118, "ovÃ½": 10119, "alÄ±": 10120, "ĠpÃ¤Ã¤": 10121, "ĠPlus": 10122, "à¤¤à¥Ģ": 10123, "Æ¡n": 10124, "nica": 10125, "lek": 10126, "Ġkull": 10127, "ë¬¸": 10128, "à¸Ł": 10129, "tes": 10130, "son": 10131, "03": 10132, "Ġadv": 10133, "âĢĭâĢĭ": 10134, "à²¾à²ľ": 10135, "Ð´Ð¸Ð½": 10136, "Ã¤ll": 10137, "ĠÙĨÙħ": 10138, "Ġwerden": 10139, "Ġprev": 10140, "Ġeven": 10141, "Ġdey": 10142, "Ġà°®à°°": 10143, "Ġveel": 10144, "ĠEsc": 10145, "è³": 10146, "çģ": 10147, "ÙĬÙĥ": 10148, "tas": 10149, "oter": 10150, "BN": 10151, "Ġsvoj": 10152, "ë³´": 10153, "juk": 10154, "ĠÕ°Õ¡Õµ": 10155, "ĠÒĹ": 10156, "Ġkamp": 10157, "ĠPra": 10158, "Ġ700": 10159, "à§ĩà¦Ľ": 10160, "áĢŃáĢ³": 10161, "à¤¾à¤Ł": 10162, "Ð²Ð°ÑĤ": 10163, "Ã±os": 10164, "cess": 10165, "Ġà¦ħà¦¨": 10166, "Ġ×©×Ĳ": 10167, "Ġpem": 10168, "ÐµÐ½Ðµ": 10169, "Ð´Ð°Ð»": 10170, "Ð³ÑĥÑĥÐ»": 10171, "km": 10172, "Ġàª¤à«ĩ": 10173, "ëħĦ": 10174, "æ¢": 10175, "Ð°ÑĺÑĥ": 10176, "oft": 10177, "inÃ«": 10178, "enden": 10179, "Col": 10180, "Ġàªī": 10181, "Ġrep": 10182, "ç®¡": 10183, "Ð»ÑĭÒĽ": 10184, "Ð¸Ð·Ð²": 10185, "Î·ÏĤ": 10186, "ÂŃÂŃÂŃÂŃ": 10187, "istrat": 10188, "ason": 10189, "ĠTi": 10190, "ĠStyle": 10191, "æĴ": 10192, "åı·": 10193, "×ķ×ĸ": 10194, "Õ°": 10195, "ÑģÑĭ": 10196, "ÏĮÏĦÎµ": 10197, "zenia": 10198, "rÃ³": 10199, "arta": 10200, "akti": 10201, "ĠãĢĬ": 10202, "ĠáŀĹ": 10203, "Ġwebsite": 10204, "ĠsÄħ": 10205, "Ġaff": 10206, "ÙĤÙĦ": 10207, "×ł×ķ×ª": 10208, "½Ķ": 10209, "Ġà®ħà®¤": 10210, "Ġjen": 10211, "Ġcle": 10212, "à¹Īà¸²à¸Ļ": 10213, "Ø¬Ùĩ": 10214, "ipas": 10215, "anj": 10216, "agram": 10217, "ĠáŀĢáŁĴáŀĵáŀ»áŀĦ": 10218, "ĠÐ²ÑĬ": 10219, "ĠÐ£ÐºÑĢ": 10220, "ĠJeg": 10221, "ĠBet": 10222, "Ġ2002": 10223, "ÑĩÐ¸Ð»": 10224, "Ġï¿½ï¿½ï¿½ï¿½ï¿½ï¿½ï¿½ï¿½ï¿½ï¿½ï¿½ï¿½": 10225, "ĠÕ´Õ«": 10226, "Ġsoo": 10227, "Î³ÏģÎ±": 10228, "nit": 10229, "Ġà¤²à¤¿à¤ı": 10230, "ĠÑĤÐ°Ð±": 10231, "Ġmotor": 10232, "ĠOg": 10233, "Ø¯Ø§": 10234, "uno": 10235, "miss": 10236, "mad": 10237, "ĠolduÄŁ": 10238, "ĠiPhone": 10239, "ĠView": 10240, "ĠSK": 10241, "á»ĳc": 10242, "kas": 10243, "Ļà§įà¦": 10244, "Ġebayimg": 10245, "wah": 10246, "EK": 10247, "Ġàºģ": 10248, "Ġgov": 10249, "Ġfoi": 10250, "Ġconstru": 10251, "Ġayaa": 10252, "à´Ļàµįà´Ļà´³": 10253, "à²¾à²¸": 10254, "ÑĪÑĤ": 10255, "Ð½ÑĭÑı": 10256, "Ã©es": 10257, "ĶáĢ²": 10258, "Ħľ": 10259, "Ġê³µ": 10260, "ĠÙħØ·": 10261, "ĠÐ±ÑŀÐ»": 10262, "Ġsent": 10263, "ĠlÄ«dz": 10264, "áĮ¥": 10265, "à¹Īà¸¡": 10266, "à¶±à·Ĭà¶±à·ļ": 10267, "à´¿à´²àµįà´²": 10268, "unde": 10269, "Ġìĥģ": 10270, "ĠØ´Ø¯": 10271, "ĠÐłÂµ": 10272, "ĠLand": 10273, "èĦ": 10274, "çĪ": 10275, "à¸´à¸Ļ": 10276, "×ĲÖ¸": 10277, "elas": 10278, "ĠÏĥÏĦÎ¹": 10279, "Ġyi": 10280, "Ġsua": 10281, "à¶Ńà·Ĭà¶Ń": 10282, "à´¡": 10283, "ÑĸÐ»Ñĸ": 10284, "Ġwerk": 10285, "ĠÐ¸Ð½ÑĤÐµÑĢ": 10286, "ĠÏĢÎ±ÏģÎ±": 10287, "ordan": 10288, "AF": 10289, "ĠWHAK": 10290, "æ¬¡": 10291, "vik": 10292, "umat": 10293, "Ġfinn": 10294, "ĠPublic": 10295, "ĠAli": 10296, "Ġemb": 10297, "iser": 10298, "ĠØ±ÙĪØ²": 10299, "Ġhai": 10300, "Ġdell": 10301, "à´¾à´¨àµįâĢį": 10302, "ÙĦÙĪØ¯": 10303, "ÑıÐ´": 10304, "ĦáĢ": 10305, "Ġà°¸à°Ĥà°": 10306, "Ġà¨¦à¨¾": 10307, "Ġwell": 10308, "Ġprimer": 10309, "ĠFo": 10310, "Ð¸Ð½Ð¸Ð½Ð³": 10311, "ÎµÏħ": 10312, "usan": 10313, "tia": 10314, "die": 10315, "ĴĪ": 10316, "Ġà¤Ĺà¤°à¥įà¤¨": 10317, "Ġ\")": 10318, "åĸ": 10319, "à°§": 10320, "ojen": 10321, "1_": 10322, "ĠæŃ": 10323, "ĠÕ®": 10324, "Ġain": 10325, "áĤĪ": 10326, "iaj": 10327, "INE": 10328, "ĠÏĥÏħÎ½": 10329, "Ġuns": 10330, "áĥĶáĥ¢": 10331, "Õ«Õ´": 10332, "Ð¸Ñĳ": 10333, "Ġà¶±à·ľ": 10334, "ĠgÃ¼": 10335, "ĠBol": 10336, "àª¨à«ĭ": 10337, "à¤¸à¥įà¤¤": 10338, "Ø´Øª": 10339, "Ġå¾": 10340, "ĠÑīÐµ": 10341, "ĠÑģÐ¾Ð»": 10342, "Ġnormal": 10343, "ĠMur": 10344, "ĠîĢ": 10345, "ìĹŃ": 10346, "Ø¹Ø©": 10347, "Õ¡Õ¶Õ¡Õ¯": 10348, "zeko": 10349, "urrent": 10350, "oso": 10351, "ĠJu": 10352, "ĠCel": 10353, "ØŃØ¯": 10354, "×Ļ×¨×Ķ": 10355, "oval": 10356, "ĠÑħÐ°ÑĢ": 10357, "Ġmenjadi": 10358, "ĠFin": 10359, "ìĬµëĭĪëĭ¤": 10360, "áĪ³": 10361, "à¨°à©Ģ": 10362, "ÎµÎº": 10363, "Ã¼y": 10364, "uÅŁ": 10365, "lish": 10366, "ĠÑĦÐ¾ÑĢÐ¼": 10367, "Ġster": 10368, "àµ¾": 10369, "ÙĪØª": 10370, "Ð´ÑĭÒĽ": 10371, "ĠØ®ÙĦ": 10372, "Ġm2": 10373, "Ġkra": 10374, "ĠPi": 10375, "Ġ2F": 10376, "å²": 10377, "à©Ģà¨Ĩà¨Ĥ": 10378, "Ø´Ø±": 10379, "Ä«ba": 10380, "Ã¶y": 10381, "arda": 10382, "ĠÐļÑĢ": 10383, "ĠÐºÐµÑĢ": 10384, "Õ¡Õ»": 10385, "ÑģÐºÐµ": 10386, "acion": 10387, "Ġáī°": 10388, "Ġà²®à²¤à³įà²¤à³ģ": 10389, "Ġzm": 10390, "Ġwindow": 10391, "ĠWar": 10392, "Ġ35473": 10393, "ãĥģ": 10394, "ãĥ¡": 10395, "×ķ×ª×¨": 10396, "Ð¾Ð³ÑĢÐ°ÑĦ": 10397, "Ð¸Ð´Ð°Ð½": 10398, "ÏģÎµÎ¯": 10399, "prav": 10400, "king": 10401, "hur": 10402, "Ġtat": 10403, "Ġkommer": 10404, "Ġedo": 10405, "Ġapa": 10406, "âĢĶ": 10407, "ribu": 10408, "Ġå¯": 10409, "ĠâĢ¦.": 10410, "Ġ3547320": 10411, "è§Ĩ": 10412, "å½ĵ": 10413, "Ø§ÛĮÛĮ": 10414, "Ã°u": 10415, "ľáĢĬ": 10416, "Ġsmall": 10417, "Ġpaano": 10418, "Ġgratu": 10419, "ĠXX": 10420, "èĪ°": 10421, "áŀħáŁĴáŀ": 10422, "mann": 10423, "iniÅ³": 10424, "Ġspre": 10425, "ĠLos": 10426, "èµĽ": 10427, "à¨¿à©°à¨": 10428, "Ð²Ð¾": 10429, "Ã§o": 10430, "ĠÙĤØ±": 10431, "à¦¿à¦¬": 10432, "aciones": 10433, "Ġvin": 10434, "Ġtransform": 10435, "Ġkontr": 10436, "ĠMore": 10437, "ãĥĲ": 10438, "áĭ³": 10439, "atura": 10440, "ĠÎºÎ±ÏĦÎ±": 10441, "Ġsudah": 10442, "Ġprem": 10443, "Ġled": 10444, "ĠNh": 10445, "ãģ¾ãģĹãģŁ": 10446, "Å¡u": 10447, "eba": 10448, "Ġè¿Ļ": 10449, "ĠÐłÑķ": 10450, "Ġpresent": 10451, "ĠInternational": 10452, "ĠCe": 10453, "ÙĤØ¯": 10454, "Ä±ÄŁ": 10455, "Ã¡i": 10456, "±áĢ¬áĢ": 10457, "SA": 10458, "IX": 10459, "ĠÑģÑĢ": 10460, "ĠÐ½Ð°Ñĩ": 10461, "Ġporno": 10462, "Ġhvor": 10463, "å¥³": 10464, "à¯ģà®¨à¯įà®¤": 10465, "ÙĥÙĨ": 10466, "Ġcáº£": 10467, "ĠLond": 10468, "ĠAT": 10469, "áĥĲáĥ¨áĥĺ": 10470, "burg": 10471, "Ġë§Ī": 10472, "ĠØ§Ø¬": 10473, "Ġkasut": 10474, "à²ķà³įà²·": 10475, "tos": 10476, "amba": 10477, "ĠâĢľ.": 10478, "ĠÄĳáº¿n": 10479, "ĠJune": 10480, "æĢİ": 10481, "áģĢ": 10482, "Ð½Ð¾Ñģ": 10483, "Ð±Ð¸": 10484, "ÏĮÎ½": 10485, "ÉĻh": 10486, "ipe": 10487, "ģáĢ²áĢ·áĢ": 10488, "Ġton": 10489, "Ġcasino": 10490, "à¦¬à§ĩ": 10491, "Ã¨ncia": 10492, "fn": 10493, "ĠìĬ¤": 10494, "Ġext": 10495, "fat": 10496, "ĠåĪĨ": 10497, "Ġjedn": 10498, "Ġdenne": 10499, "ĠIT": 10500, "ĠFilm": 10501, "è©": 10502, "çĭ": 10503, "à¯ģà®ķà¯įà®ķà¯ģ": 10504, "àª¾àª®àª¾àªĤ": 10505, "Ã¸n": 10506, "tics": 10507, "oku": 10508, "ķáĢ«áĢĲáĢļáĢ¹": 10509, "ĠSuper": 10510, "ĠFebruary": 10511, "stav": 10512, "omet": 10513, "bur": 10514, "allery": 10515, "Ġ×Ķ×ĸ": 10516, "ĠÃ§ok": 10517, "Ġway": 10518, "Ġner": 10519, "Ġked": 10520, "Ġago": 10521, "Ġ$(\"": 10522, "à¦ĸ": 10523, "rain": 10524, "erste": 10525, "Ġseperti": 10526, "Ġbody": 10527, "ĠSloven": 10528, "áĢŃáĢ¯áĢ¸áĢ": 10529, "ÐļÐĺ": 10530, "Äģv": 10531, "Ġì£¼": 10532, "Ġdeze": 10533, "ë©´": 10534, "áĥļáĥĺáĥ¡": 10535, "tres": 10536, "igur": 10537, "ķáĢºáĢ": 10538, "Ġinto": 10539, "Ġband": 10540, "ä»»": 10541, "à¤¨à¥įà¤¦": 10542, "ÙĪØ±Øª": 10543, "Ð´ÑĭÐ½": 10544, "yun": 10545, "etti": 10546, "Ġà¸¢": 10547, "Ġ×ĳ×Ĺ": 10548, "ĠÒĽÐ°Ð»": 10549, "ĠÐ¼Ð¾Ð³": 10550, "Ġroku": 10551, "Ġmest": 10552, "Ġdeur": 10553, "æ´»": 10554, "tÃ©": 10555, "stu": 10556, "Ġsell": 10557, "Ġaltern": 10558, "ĠShe": 10559, "ĠMos": 10560, "áº©": 10561, "zea": 10562, "hed": 10563, "abu": 10564, "Ġà¨¨à©ĩ": 10565, "Ġevent": 10566, "ĠRos": 10567, "Ġà¦¨à¦¾": 10568, "ĠPos": 10569, "à¥ī": 10570, "ÉĻc": 10571, "ystem": 10572, "adda": 10573, "Ġwebkit": 10574, "Ġpopul": 10575, "Ġbang": 10576, "eku": 10577, "CA": 10578, "Ġsai": 10579, "ĠPop": 10580, "áĥĲáĥ¨": 10581, "à¸Ĺà¸³": 10582, "Ð½Ð¾ÑĹ": 10583, "ÏĢÎ¿Î¹": 10584, "ardo": 10585, "Ġáĥŀáĥł": 10586, "Ġeduc": 10587, "éĩı": 10588, "å°ĳ": 10589, "à®¾à®©à¯į": 10590, "HA": 10591, "Ġsti": 10592, "ĠpiÃ¹": 10593, "Ġhalam": 10594, "ĠComp": 10595, "æ£ĭçīĮ": 10596, "zar": 10597, "rer": 10598, "asc": 10599, "apo": 10600, "Ġ×Ķ×¦": 10601, "Ġlep": 10602, "Ġjaar": 10603, "Ġjako": 10604, "Ġenerg": 10605, "ĠKor": 10606, "Ġ%,": 10607, "elor": 10608, "Ġå½©ç¥ŀäºīéľ¸8": 10609, "ĠâĢ²": 10610, "è¥¿": 10611, "×¤×ª": 10612, "Ð»ÐµÑĢ": 10613, "Ã¡si": 10614, "Ġzah": 10615, "à´·": 10616, "à±įà°¦": 10617, "à©°à¨¦": 10618, "ÐµÑĤÐ¸": 10619, "¼ìĤ°": 10620, "onta": 10621, "forma": 10622, "à¸Ńà¸²à¸": 10623, "à°¿à°µ": 10624, "isan": 10625, "Ġà¶¸à·ļ": 10626, "Ġtwe": 10627, "Ġkval": 10628, "Ġili": 10629, "Ð»ÑĮ": 10630, "ĠdÃŃ": 10631, "Ġbook": 10632, "ĠVar": 10633, "ĠAndroid": 10634, "Ð°Ð¼Ñĸ": 10635, "like": 10636, "ĠÃĦ": 10637, "Ġpus": 10638, "å¤§åıĳ": 10639, "Sel": 10640, "EA": 10641, "Ġàºª": 10642, "á»ĩu": 10643, "ÙĥØ©": 10644, "ÑĨÐµ": 10645, "Î³Î¿": 10646, "Ġëª": 10647, "ĠáĥĽáĥĿáĥ": 10648, "Ġà¸ģà¸": 10649, "ĠÔ³": 10650, "ĠÐ¼Ð¸Ð»": 10651, "ĠÏĢÎµÏģÎ¹": 10652, "Ġhaar": 10653, "ëª¨": 10654, "Äįka": 10655, "ĠÑģÐµÑĢ": 10656, "Ġ2001": 10657, "×ľ×Ļ×Ŀ": 10658, "Ð¸ÑĤÐµÐ»ÑĮ": 10659, "sg": 10660, "Ġlit": 10661, "ĠBay": 10662, "à¹ĥà¸Ī": 10663, "à³ĥ": 10664, "à²¿à²Ĺà²³": 10665, "Õ¾Õ¥Õ¬": 10666, "icos": 10667, "iap": 10668, "ĠÚ©Ùħ": 10669, "ĠØ´Ø¯Ùĩ": 10670, "ĠÐ¿ÑĢÐ¾ÑĨ": 10671, "Ġky": 10672, "Ġanim": 10673, "ĠStar": 10674, "åıĬ": 10675, "à§įà¦²": 10676, "Ð¸Ñİ": 10677, "imum": 10678, "ĨáĢŃáĢ¯áĢ": 10679, "Ġì¤ĳ": 10680, "ĠÐ±Ð¾": 10681, "ĠnhÃł": 10682, "Ġ110": 10683, "ÏĦÏħ": 10684, "oten": 10685, "Ġà®ļà¯Ĩà®¯": 10686, "ĠBlog": 10687, "æĹĹèĪ°": 10688, "Ãªncia": 10689, "rom": 10690, "dib": 10691, "ĠÑįÐ¼": 10692, "ĠKir": 10693, "ĠGes": 10694, "åŀ": 10695, "à´¹": 10696, "yc": 10697, "rup": 10698, "Ġì¹´": 10699, "ĠÐ´Ð°Ð½": 10700, "ĠÂ¡": 10701, "çľŁäºº": 10702, "ļáĢº": 10703, "Ġà¸§": 10704, "Ġdate": 10705, "àµģà´£": 10706, "Ø§Ø¯ÛĮ": 10707, "ÑĤÑĥ": 10708, "nym": 10709, "eket": 10710, "alik": 10711, "ĠÅĻ": 10712, "ĠmÃł": 10713, "Ġegin": 10714, "ulan": 10715, "ĠØ³Ùħ": 10716, "Ġviz": 10717, "ĠSin": 10718, "Ġà²¨à³Ģ": 10719, "ĠÙĨØ§Ùħ": 10720, "ĠÎ¿ÏĢÎ¿": 10721, "Ġkama": 10722, "ĠKI": 10723, "Ø§ÙĦÛĮ": 10724, "ĨáŁĴáŀĵáŀ¶áŁĨ": 10725, "ĠPRO": 10726, "ĠChina": 10727, "á»Ļi": 10728, "à²¾à²ķ": 10729, "ÑĪÑĭ": 10730, "eles": 10731, "ĠÎ¼ÏĢÎ¿": 10732, "Ġsep": 10733, "ĠTal": 10734, "ĠChrist": 10735, "klad": 10736, "ean": 10737, "ĠÙ¾Ø§Ú©Ø³ØªØ§ÙĨ": 10738, "Ġkund": 10739, "Ġjog": 10740, "Ġust": 10741, "áĢĢáĢº": 10742, "à¸¹à¹Ī": 10743, "à¸«à¸Ļ": 10744, "ÑĢÐ¾Ð½": 10745, "Ä±ÄŁÄ±": 10746, "agan": 10747, "ĠíĶ": 10748, "ĠÔ»": 10749, "ĠPower": 10750, "ÙĬØ¹": 10751, "elu": 10752, "Ar": 10753, "Ġrin": 10754, "Ġkli": 10755, "ĠDev": 10756, "á»ħ": 10757, "àª¾àªľ": 10758, "àª¾àª¸": 10759, "Ġì¡°": 10760, "Ġà¶ļà·ľ": 10761, "Ġzab": 10762, "Ġhur": 10763, "ìĤ¬ìĿ´íĬ¸": 10764, "ê°ķ": 10765, "è¢": 10766, "áŁĴáŀĲ": 10767, "Ð¸ÑĨÐ¸": 10768, "Äįne": 10769, "kap": 10770, "Ġbila": 10771, "ĠForm": 10772, "ÏĥÏĦÎ·": 10773, "»áĢĸáĢħáĢ¹áĢ": 10774, "nj": 10775, "ĠØ§Ø¹": 10776, "ĠÐºÐ»": 10777, "ĠkÃ¼l": 10778, "ĠAy": 10779, "è®¾": 10780, "çĽŁ": 10781, "×ķ×ļ": 10782, "mg": 10783, "ĠÑĤÐ°Ð»": 10784, "Ġsug": 10785, "Ġmuk": 10786, "Ġjau": 10787, "Ġdette": 10788, "Ġbev": 10789, "ĠSamsung": 10790, "áŀ¾áŀĻ": 10791, "à¤²à¤¾à¤Ī": 10792, "ÏģÎ¿Ïį": 10793, "redit": 10794, "oper": 10795, "egar": 10796, "èī²": 10797, "àµ»": 10798, "à²Ĺà²³à³ģ": 10799, "ÃŃd": 10800, "uel": 10801, "ĠPrevious": 10802, "áĥĺáĥ£áĥ": 10803, "×©×Ļ×Ŀ": 10804, "ÑĩÐµ": 10805, "ÏĥÏĦÎ¿": 10806, "Å©ng": 10807, "Ã¶tt": 10808, "tima": 10809, "sm": 10810, "elsen": 10811, "Ġobs": 10812, "Ġkeh": 10813, "Ġinteres": 10814, "Ġhum": 10815, "ĠNap": 10816, "ĠLiet": 10817, "ÙĪÙĬ": 10818, "ustri": 10819, "WA": 10820, "BO": 10821, "ĠWi": 10822, "ĠJanuary": 10823, "éĤĢ": 10824, "áŀĽáŁĭ": 10825, "àµįà´®": 10826, "à°¨à±į": 10827, "qt": 10828, "db": 10829, "57": 10830, "Ġfit": 10831, "Ġchar": 10832, "Ġamer": 10833, "ï¼ĮãĢĳãĢĲ": 10834, "ç¨ĭ": 10835, "ãĤµ": 10836, "áīĢ": 10837, "Äĵs": 10838, "unya": 10839, "amic": 10840, "ĠÐºÐ°Ð½": 10841, "Ġvse": 10842, "Ġcoins": 10843, "à³ĩà²¶": 10844, "pend": 10845, "ĠØ§ÙĨØ¯": 10846, "ĠtÃ©": 10847, "ĠJun": 10848, "ĠHel": 10849, "ëªħ": 10850, "áŀ¶áŀıáŁĭ": 10851, "à¸ģà¸¥": 10852, "º«": 10853, "alau": 10854, "SE": 10855, "ĠÐ´Ð¾ÑģÑĤ": 10856, "Ġsont": 10857, "Ġprogr": 10858, "tivo": 10859, "ather": 10860, "ĠìĿ¼": 10861, "ĠÐ´Ð¾Ð±": 10862, "Ġsystem": 10863, "Ġmaz": 10864, "çŁ¥": 10865, "ãģĿ": 10866, "àº¥": 10867, "ÐłÑķÐł": 10868, "ÎºÎ¿": 10869, "Ġquan": 10870, "Ġcompr": 10871, "ĠSeg": 10872, "ç³»": 10873, "à¹īà¸Ļà¸": 10874, "à¦ķà§ĩ": 10875, "à¤¿à¤Ĥ": 10876, "×ĵ×Ļ×Ŀ": 10877, "ingo": 10878, "ĠÙĩØ§": 10879, "Ġekonom": 10880, "Ġcada": 10881, "ĠÞ": 10882, "ĠÒĵ": 10883, "à¸²à¸ŀ": 10884, "à°³": 10885, "à«ĩàªµ": 10886, "Õ»": 10887, "ÑĨÑı": 10888, "Ãªu": 10889, "sson": 10890, "sel": 10891, "nin": 10892, "etik": 10893, "ĽáĢ¾": 10894, "ĠãĢĳãĢĲï¼ĮãĢĳãĢĲ": 10895, "Ġsev": 10896, "Ġjam": 10897, "Ġempres": 10898, "Ġautom": 10899, "ĠData": 10900, "ĠCre": 10901, "áģ¿áĢķáĢ": 10902, "à¤ķà¥įà¤¤": 10903, "Ð½Ð°Ñģ": 10904, "identi": 10905, "Ġà¶ħà¶´": 10906, "ĠÑģÐ°Ð¼Ð¾": 10907, "Ġmata": 10908, "Ġkaip": 10909, "áŁĴáŀļáŀ¼": 10910, "áģ¾áĢĢáĢ": 10911, "à¶Ńà¶»": 10912, "Ð¤": 10913, "bre": 10914, "ĠÙ¾ÛĮ": 10915, "ĠØ¢Ø²": 10916, "ĠEin": 10917, "æĤ": 10918, "áŀĸáŀ¸": 10919, "à§ģà¦¨": 10920, "ÑĭÐµ": 10921, "ĠÑĩÐ°ÑģÑĤ": 10922, "Ġmos": 10923, "nÃ½ch": 10924, "elli": 10925, "Ġå·": 10926, "Ġà·Ģà·Ĳ": 10927, "Ġauk": 10928, "æķĻ": 10929, "inio": 10930, "ĠPhil": 10931, "áŁ¡": 10932, "zes": 10933, "uhe": 10934, "obi": 10935, "ford": 10936, "Ġqar": 10937, "Ġfirm": 10938, "æµģ": 10939, "à¸Ķà¸¢": 10940, "à¸©": 10941, "à¦ĵ": 10942, "à¥ĩà¤¸": 10943, "Ú¯Ø§Ùĩ": 10944, "2019": 10945, "ĠJohn": 10946, "á»ĵng": 10947, "à«įàª²": 10948, "Äįa": 10949, "vest": 10950, "ĠÙħØµ": 10951, "ĠÑĢÐµ": 10952, "ĠÐ³Ð°Ð·": 10953, "Ġrek": 10954, "ĠBat": 10955, "Qu": 10956, "×ķ×ł×ķ×ª": 10957, "ÑĸÑħ": 10958, "ÑĥÑĢÐ°": 10959, "Ġáį¡": 10960, "ĠÛģÙħ": 10961, "ĠÕİ": 10962, "Ġ\\\"": 10963, "ĠSep": 10964, "ĠPag": 10965, "è¨Ģ": 10966, "ÕĢ": 10967, "dat": 10968, "bes": 10969, "Ġà¤Ńà¤ı": 10970, "ĠÐĿÐµ": 10971, "ĠÐ¡Ð¿": 10972, "Ġeftir": 10973, "Ġcen": 10974, "Ġ\";": 10975, "Ġá»Ł": 10976, "èµ·": 10977, "àº²àºį": 10978, "×ĳ×Ķ": 10979, "Î´Î¹Î±": 10980, "·à¥įà¤Ł": 10981, "Ġà¤§": 10982, "Ġnun": 10983, "Ġment": 10984, "ĠLis": 10985, "âĢ¦]": 10986, "Ã³m": 10987, "ningar": 10988, "ĠÐ·Ð°ÑĤ": 10989, "áŀº": 10990, "Ä¼a": 10991, "tan": 10992, "dÉĻn": 10993, "Ġ×ŀ×¦": 10994, "Ġamin": 10995, "Ġ][": 10996, "ĠDas": 10997, "Åŀ": 10998, "$(": 10999, "ĠÐ½ÐµÐ¼": 11000, "Ġrol": 11001, "ĠIII": 11002, "ĠAqu": 11003, "ä½¿": 11004, "Ø§Ø¹Ø©": 11005, "Ð»Ð¸Ñĩ": 11006, "ÈĻte": 11007, "TV": 11008, "ĠÙĨÛĮ": 11009, "Ġnen": 11010, "Ġhul": 11011, "Ġfak": 11012, "Ġbien": 11013, "ĠFir": 11014, "×ŀ×Ļ": 11015, "×³Â": 11016, "aling": 11017, "ĠÐºÐ¾ÑĤÐ¾ÑĢ": 11018, "ĠzÅĤ": 11019, "Ġsad": 11020, "ĠNot": 11021, "áŀ¶áŀĵáŁĭ": 11022, "yj": 11023, "pis": 11024, "ĽáĢ¬áĢ": 11025, "ĠÙĩÙĪ": 11026, "Ġana": 11027, "ĠBah": 11028, "Ġ://:": 11029, "à´Ń": 11030, "à®¾à®¯": 11031, "à¨¾à¨Ī": 11032, "Ð°ÑĤÐ¸Ð²": 11033, "ĠåĮ": 11034, "ĠáĢķáĢ": 11035, "àº¸": 11036, "à´ķàµįà´·": 11037, "reet": 11038, "ravet": 11039, "ojnÃ«": 11040, "nat": 11041, "NE": 11042, "ĠàªŁ": 11043, "Ġbanyak": 11044, "Ġarr": 11045, "Ġ[âĢ¦]": 11046, "à¤¨à¥į": 11047, "×ŀ×¢": 11048, "Ð±Ðµ": 11049, "Ð°Ð½Ð¾": 11050, "eniyet": 11051, "ements": 11052, "ĠèĢ": 11053, "ĠvÃ¡l": 11054, "ĠsÃ³": 11055, "èŃ": 11056, "à²°à³į": 11057, "Ã¼nk": 11058, "umÄģ": 11059, "fb": 11060, "ected": 11061, "Ġà°Ł": 11062, "ĠÐ°ÐºÑĤ": 11063, "ãĥ³ãĥĪ": 11064, "ĠÓ¨": 11065, "ĠÐ¼Ð¸": 11066, "ÏĦÏģÎ¿": 11067, "oved": 11068, "2D": 11069, "Ġà´Ĵà´°": 11070, "ĠÐľÐ°Ðº": 11071, "Ġbuk": 11072, "Ġalb": 11073, "¡à°¿": 11074, "okat": 11075, "Ġhere": 11076, "æĦŁ": 11077, "à²¿à²°à³ģà²µ": 11078, "Ð´ÑĸÒ£": 11079, "izo": 11080, "chten": 11081, "All": 11082, "Ġà¶¸à·Ļ": 11083, "éĤĢè¯·": 11084, "àª¿àª¤": 11085, "Ø§ÙĦÙħ": 11086, "×Ļ×¨×ķ×ª": 11087, "Õ¡ÕµÕ¶": 11088, "pes": 11089, "lash": 11090, "Ĺàºµà»Ī": 11091, "Ġà¦ıà¦¬": 11092, "ĠÛĮØ§": 11093, "Ġ×ķ×ľ": 11094, "ĠÑģÐ»ÐµÐ´": 11095, "Ġtie": 11096, "Ġknow": 11097, "ãĥ£": 11098, "ÑĥÑĺ": 11099, "anza": 11100, "ĠØ¯ÙĪØ±": 11101, "Ġspe": 11102, "Ġjas": 11103, "ĠSant": 11104, "ç«ĭ": 11105, "ÑĭÒĵ": 11106, "Ã¤Ã¤r": 11107, "mos": 11108, "lio": 11109, "ajn": 11110, "Ġ×Ĳ×Ĺ": 11111, "ĠÐ·ÐµÐ¼": 11112, "Ġwil": 11113, "Ġspecial": 11114, "Ġcenter": 11115, "Ġcara": 11116, "ĠDesign": 11117, "ĠCD": 11118, "ĠBarcel": 11119, "Ã¤k": 11120, "vid": 11121, "mir": 11122, "ĠÐ·Ð°Ñģ": 11123, "Ġworld": 11124, "Ġvec": 11125, "ĠsÃ¶": 11126, "Ġmang": 11127, "Ġinsp": 11128, "Ġdog": 11129, "Ġandre": 11130, "ĠRam": 11131, "ĠNie": 11132, "ÙĥØ±": 11133, "Ð¨": 11134, "nÃŃch": 11135, "ĠÐ±Ò¯": 11136, "Ġvill": 11137, "à±ģà°Ĥà°¦à°¿": 11138, "Ð°Ð³Ð°Ð½": 11139, "ĠØ¨Ø§Ø±": 11140, "ĠÐ¸ÑĤ": 11141, "Ġzad": 11142, "è®¯": 11143, "à±Ĥà°°": 11144, "gam": 11145, "Ġsavo": 11146, "à²®à³įà²®": 11147, "zyst": 11148, "fort": 11149, "ĠæŀģéĢŁ": 11150, "Ġzaman": 11151, "Ġjej": 11152, "é»": 11153, "ÐºÐ°Ð·": 11154, "in_id": 11155, "Ġà°ķà±ĭ": 11156, "ĠUSA": 11157, "áĮł": 11158, "à·Ĵà¶¶": 11159, "à¤¾à¤¬": 11160, "mel": 11161, "aring": 11162, "alÄ±ÅŁ": 11163, "ĻáĢ½áĢ¬": 11164, "ĠsÃµ": 11165, "à³įà²³": 11166, "à¯įà®®": 11167, "zak": 11168, "ript": 11169, "lÄ±k": 11170, "UA": 11171, "ĠÐ´ÑĢÑĥÐ³": 11172, "Ġwould": 11173, "ĠCamp": 11174, "Ġá»į": 11175, "Ò¯Ð¼": 11176, "lit": 11177, "eniyetmÉĻ": 11178, "EZ": 11179, "ĠÎ´Î·": 11180, "ĠtÃµ": 11181, "ĠshumÃ«": 11182, "Ġsha": 11183, "×¨×Ĵ": 11184, "ĿáĢ": 11185, "Ġ×Ĳ×ķ×ª": 11186, "Ġgad": 11187, "Ġcasa": 11188, "ĠGra": 11189, "ĠBiz": 11190, "áĥĲáĥļáĥĺ": 11191, "à¸£à¸µ": 11192, "Ã¡sa": 11193, "Ã¡j": 11194, "ĠÐ³Ð¾ÑĢ": 11195, "ĠhÃ¤": 11196, "ĠBor": 11197, "ãĤį": 11198, "áŀ»áŁĨ": 11199, "áįį": 11200, "à³ĩà²ķ": 11201, "Ð¼ÐµÑĢ": 11202, "ÎµÎ»": 11203, "ublish": 11204, "pk10": 11205, "ised": 11206, "ľáĢ¬áĢ": 11207, "Ġtog": 11208, "Ġmog": 11209, "ĠYa": 11210, "à°¾à°Ĺ": 11211, "set": 11212, "ĠÚ©Ø´": 11213, "ĠÑħÑįÑĢ": 11214, "ãĥŁ": 11215, "à¸Ķà¸µ": 11216, "Òĳ": 11217, "ÑĭÑĩ": 11218, "Äįni": 11219, "ĬáŁĴáŀĭ": 11220, "Ġê±": 11221, "Ġlehet": 11222, "Ð¸ÐºÐ¸": 11223, "Ã²n": 11224, "zin": 11225, "ajÄģ": 11226, "ĠÐ¿ÑĢÐ¾Ð²": 11227, "ĠÃ¡ll": 11228, "ĠnÄĽ": 11229, "Ġgaan": 11230, "áĪī": 11231, "ÙĬÙĤ": 11232, "ÑĤÐ¾Ð¼": 11233, "ĠáĢħáĢ": 11234, "Ġà°ļà±Ĩ": 11235, "Ġtodo": 11236, "Ġnaz": 11237, "ĠMotor": 11238, "ç»ĵ": 11239, "áĤķáĢ": 11240, "ÐµÑī": 11241, "±áĢĲáĢ¬áĢ": 11242, "ivat": 11243, "Ġutiliz": 11244, "Ġuc": 11245, "Ġlj": 11246, "ì¶ľìŀ¥ìĥµ": 11247, "à¥¦": 11248, "\",\"": 11249, "ĠÐ¿ÑĢÐ¾ÑģÑĤ": 11250, "ìļ©": 11251, "àª¾àª²": 11252, "bon": 11253, "Ġìĭľ": 11254, "Ġlinkin_id": 11255, "ĠdealId": 11256, "ĠOctober": 11257, "ĠBud": 11258, "ä¼ł": 11259, "à¸·à¹Īà¸Ńà¸ĩ": 11260, "Ð¸ÑĤÐµÑĤ": 11261, "Î¼ÎŃÎ½": 11262, "Ã¡ri": 11263, "tac": 11264, "odu": 11265, "Ġ×ŀ×Ľ": 11266, "ĠAcc": 11267, "ÑıÐ·": 11268, "ÑĤÑĭÑĢ": 11269, "Ð¡ÐĤ": 11270, "ÏħÎ½": 11271, "ihat": 11272, "cem": 11273, "antas": 11274, "ĠáĢħ": 11275, "ĠÐŀÐ±": 11276, "ĠÐ¶Ð°ÑĤ": 11277, "Ġniv": 11278, "Ġlove": 11279, "Ġimm": 11280, "ĠOS": 11281, "ĠDur": 11282, "icip": 11283, "ĠÐ²Ð¾Ð·": 11284, "Ġry": 11285, "Ġolarak": 11286, "Ġbib": 11287, "ĠHand": 11288, "éĸĵ": 11289, "è·¯": 11290, "ãĥ§": 11291, "à¸¢à¸§": 11292, "Ø§ÛĮØª": 11293, "dien": 11294, "Re": 11295, "Ġsonra": 11296, "Ġmud": 11297, "Î¸ÎµÎ¯": 11298, "Î±Î»": 11299, "Äįas": 11300, "uge": 11301, "iril": 11302, "Ġzast": 11303, "Ġsegu": 11304, "ĠmÃ¤r": 11305, "Ġgem": 11306, "à¹ĥà¸Ļ": 11307, "à´¸àµį": 11308, "Ã¼h": 11309, "ĠÑįÑĢ": 11310, "Ġthro": 11311, "Ġsana": 11312, "ĠjÃ¤r": 11313, "Ġdelle": 11314, "ĠdÃ¼ÅŁ": 11315, "åİ»": 11316, "åĻ": 11317, "work": 11318, "iset": 11319, "FA": 11320, "ĠÐ²Ð¾Ð´": 11321, "Ġtahun": 11322, "Ġkomun": 11323, "Ġgay": 11324, "ĠDat": 11325, "áĥŀ": 11326, "à»ĥ": 11327, "à²Ń": 11328, "Õ¿ÖĢ": 11329, "ÏİÏĤ": 11330, "ampai": 11331, "ĠÐĺÐ½": 11332, "Ġwidget": 11333, "Ġmuch": 11334, "Ġkuk": 11335, "Ġelec": 11336, "ĠIndonesia": 11337, "Ù¹ÛĮ": 11338, "×ľ×ķ": 11339, "Ġ×Ķ×Ļ": 11340, "ĠÎ§": 11341, "èĥ": 11342, "ãĥĭ": 11343, "ãģ«ãģª": 11344, "Ã¥de": 11345, "utan": 11346, "ilan": 11347, "amh": 11348, "ĠÑĤÐµ": 11349, "ĠRem": 11350, "ĠBank": 11351, "Ġ\":[],\"": 11352, "ÑĨÑĨÐ°": 11353, "ÏģÎ¿Ïħ": 11354, "iyyÉĻt": 11355, "iera": 11356, "ĠÐºÐ°Ð±": 11357, "Ġrob": 11358, "ĠPorno": 11359, "ĠIB_": 11360, "éĵ": 11361, "à°Ĥà°¦à°¿": 11362, "à§ĩà¦ĸ": 11363, "ÏģÏĩ": 11364, "</": 11365, "ĠkÃ¶n": 11366, "ĠVen": 11367, "ĠBook": 11368, "èĢĥ": 11369, "asÄ±nda": 11370, "arios": 11371, "Tag": 11372, "ĻáĢ¹áĢ¸áĢ": 11373, "Ġà¦ľà¦¨": 11374, "Ġwir": 11375, "Ġaux": 11376, "áºŃp": 11377, "àºŃàºĩ": 11378, "Ð´Ð¶": 11379, "ĠìĦ±": 11380, "Ġà¶ĳà¶ļ": 11381, "ĠØ¯Ø§ÙĨÙĦÙĪØ¯": 11382, "Ġ×ŀ×ĳ": 11383, "Ġwordt": 11384, "Ġvaj": 11385, "Ġtáº¡i": 11386, "Ġmarket": 11387, "ì¶ľìŀ¥ìķĪë§Ī": 11388, "à·ĬâĢįà¶º": 11389, "Ġà®İà®©à¯įà®±": 11390, "ĠÎĽ": 11391, "Ġslu": 11392, "Ġkali": 11393, "Ġbos": 11394, "ĠMai": 11395, "áŀ¶áŀĩ": 11396, "à¦¾à¦Ĥ": 11397, "ÐłÑĳ": 11398, "lab": 11399, "SI": 11400, "KK": 11401, "BC": 11402, "Ġkai": 11403, "Ġczy": 11404, "à´ļàµįà´ļ": 11405, "à²³à³įà²³": 11406, "×ķ×ł×Ļ×Ŀ": 11407, "ÑĢÑĥÐ¿": 11408, "Ð³ÐµÑĢ": 11409, "Å¾en": 11410, "ĠÑĥÐ·": 11411, "ĠÐ¸Ð»": 11412, "ĠÐµÑĢ": 11413, "Ġpur": 11414, "Ġnim": 11415, "ĠVU": 11416, "ĠLoc": 11417, "áŁĤáŀĦ": 11418, "had": 11419, "Ġhaz": 11420, "ĠSab": 11421, "Ġ\"]},{\"": 11422, "íĶ¼": 11423, "çĸ": 11424, "Ð¾Ò³": 11425, "ÐŃ": 11426, "MT": 11427, "ĠÑģÐ°ÑĢ": 11428, "Ġpir": 11429, "ĠlÃłm": 11430, "Ġcab": 11431, "íĥĢ": 11432, "íĴĪ": 11433, "æĮģ": 11434, "àº±àºļ": 11435, "à¥ĩà¤Ł": 11436, "Ø³Ø±": 11437, "Ö¹": 11438, "tet": 11439, "Ġtad": 11440, "Ġnej": 11441, "Ġhard": 11442, "Ġded": 11443, "Ã¡ban": 11444, "rl": 11445, "ĠØ³Ø¨": 11446, "ĠÐ¸Ñħ": 11447, "ĠÐ±Ñĭ": 11448, "Ð´ÓĻ": 11449, "ÎµÎ¹ÏĤ": 11450, "Ġ×Ĳ×Ļ×Ł": 11451, "Ġarte": 11452, "à¤¾à¤¥": 11453, "Õ«Õ»": 11454, "ÑĥÐ´Ð°": 11455, "ÏĦÎ¹ÎºÎŃÏĤ": 11456, "mt": 11457, "Ġsáº½": 11458, "à²¨à³į": 11459, "ÑģÑĤÑĮ": 11460, "nan": 11461, "Ġà¨ªà©įà¨°": 11462, "ĠyaÅŁ": 11463, "Ġvra": 11464, "Ġcup": 11465, "ĠAle": 11466, "áĢĢáĢ¼áĢ": 11467, "à¸Ńà¸£à¹Į": 11468, "à·ĳ": 11469, "àªĤàªĹ": 11470, "à©ģà¨°": 11471, "tige": 11472, "iert": 11473, "iei": 11474, "íĨ¡": 11475, "à®¿à®Łà¯įà®Ł": 11476, "ÑģÐ¾Ð½": 11477, "ches": 11478, "bed": 11479, "ĠÎĳÏħ": 11480, "Ġxa": 11481, "Ġmere": 11482, "ãĥ¼ãĥ«": 11483, "ãĥĳ": 11484, "Ð½ÐµÑģ": 11485, "ÏįÏĦÎµ": 11486, "Ġprest": 11487, "Ġmasa": 11488, "ĠPL": 11489, "à´¾à´°àµįâĢį": 11490, "ØªØ§Ø¨": 11491, "ules": 11492, "\\/": 11493, "GT": 11494, "Ġà¥§": 11495, "ĠÏĢÏģÏĮ": 11496, "Ġvá»ģ": 11497, "Ġplac": 11498, "à´¾à´ķàµįà´ķ": 11499, "ÑĸÑĪ": 11500, "ÉĻrÉĻ": 11501, "zet": 11502, "nud": 11503, "iaus": 11504, "anger": 11505, "anka": 11506, "ĠÔ´": 11507, "ĠÑĢÐ°Ð¹": 11508, "ĠÎ¶": 11509, "ĠSar": 11510, "à§ĩà¦ķà§ĩ": 11511, "roup": 11512, "nika": 11513, "ĠÒĽÒ±ÑĢ": 11514, "Ġtoim": 11515, "Ġinsan": 11516, "Ġ))": 11517, "laus": 11518, "ĠØªÙĤ": 11519, "ĠÐ±Ð°Ð¹Ð½Ð°": 11520, "Ġ};": 11521, "Ġtablet": 11522, "Ġä¹Ĳ": 11523, "ÙĭØ§": 11524, "Ð½Ð°Ð³Ð°": 11525, "olar": 11526, "eki": 11527, "CI": 11528, "ĠÕ°Õ¡Õ´Õ¡ÖĢ": 11529, "ĠÐ¿Ð°Ð¹": 11530, "ĠÎĺ": 11531, "Ġzum": 11532, "Ġsrc": 11533, "Ġextra": 11534, "áĥĺáĥłáĥ": 11535, "à±Ģà°°": 11536, "ÐµÐ»Ð°": 11537, "ograph": 11538, "Ġàªıàªķ": 11539, "Ġtes": 11540, "ĠnÃły": 11541, "ãĥĩ": 11542, "áĥĶáĥĳáĥ£áĥļáĥĺ": 11543, "×ŀ×ł": 11544, "fik": 11545, "asse": 11546, "_F": 11547, "Ġhann": 11548, "à¸²à¸Ķ": 11549, "à¤ķà¥ĩ": 11550, "pil": 11551, "Ġãģĵ": 11552, "Ġà¦¡": 11553, "ĠÛĮÚ©": 11554, "ĠÑĶ": 11555, "ĠelÅĳ": 11556, "åħ«": 11557, "à³ģà²¦à³ģ": 11558, "à§ĭà¦¨": 11559, "à¥įà¤¦": 11560, "ÄĹt": 11561, "Ã¨t": 11562, "¶áĢ¯": 11563, "itte": 11564, "ĠÙĪØ²": 11565, "Ġ×Ľ×Ļ": 11566, "Ġsingaw": 11567, "Ġond": 11568, "Ġnatge": 11569, "ĠCha": 11570, "Ġ\"}": 11571, "íĺ¸": 11572, "æ·": 11573, "icia": 11574, "Ġtotal": 11575, "Ġstop": 11576, "Ġ,-": 11577, "Ġ***--": 11578, "æ¨": 11579, "ãģķãĤĵ": 11580, "à³įà²¸": 11581, "Ã¸j": 11582, "No": 11583, "Ġcall": 11584, "ĠBro": 11585, "ë§¤": 11586, "àµįà´¥": 11587, "Äĥn": 11588, "Ġ|--": 11589, "Ġhistor": 11590, "ĠCON": 11591, "àµĨà´Ł": 11592, "à®Ļà¯įà®ķà®³": 11593, "Ð°Ð¼Ðµ": 11594, "tain": 11595, "hin": 11596, "Ġáŀĩáŀ¶": 11597, "ĠØŃÚ©": 11598, "ĠÑĤÐµÐ¼": 11599, "ìĭ¤": 11600, "ãģĦãģ¾ãģĻ": 11601, "à¦Ľ": 11602, "Ã³b": 11603, "styr": 11604, "din": 11605, "LI": 11606, "Ġêµ¬": 11607, "Ġà¤ķà¤¿": 11608, "ĠÚ©Ø±ÙĨÛĴ": 11609, "Ġseri": 11610, "Ġprojek": 11611, "ĠPlan": 11612, "áŁĪ": 11613, "ÙĥØ³": 11614, "Ð½Ð°Ð½": 11615, "±áĢĲáĢ¼": 11616, "Ġè¯": 11617, "Ġpoc": 11618, "Ġpemb": 11619, "Ġemail": 11620, "ĠTarget": 11621, "ĠTag": 11622, "ç¦": 11623, "áīħ": 11624, "áĢ¯áĢ¶": 11625, "Ùĵ": 11626, "ÖĢÕ¤": 11627, "¾áĢ": 11628, "},\"": 11629, "iding": 11630, "ĠÑģÐ¸ÑģÑĤ": 11631, "ĠEuro": 11632, "ĠArch": 11633, "äºĶ": 11634, "áī¸": 11635, "Ø§Ø³ÛĮ": 11636, "ÐµÐ²Ð°": 11637, "tick": 11638, "List": 11639, "Ġà¤Ńà¥Ģ": 11640, "Ġà¤Ĩà¤ª": 11641, "Ġà¤¤à¥įà¤¯": 11642, "Ġtry": 11643, "Ġhac": 11644, "íķĺê³ł": 11645, "æ°Ĺ": 11646, "Äĥtor": 11647, "ous": 11648, "adow": 11649, "_p": 11650, "Ġà¤®à¤¹": 11651, "ĠÕª": 11652, "ĠÑĥÐ½": 11653, "ĠÄįas": 11654, "Ġsempre": 11655, "ĠpÅ¯": 11656, "Ġgebruik": 11657, "Ġbai": 11658, "Ġaby": 11659, "ĠMari": 11660, "ĠHotels": 11661, "æĢİä¹Ī": 11662, "åĪĨå¿«3": 11663, "à¨¿à¨¸": 11664, "Õ¥Õ¼": 11665, "nÃ©ho": 11666, "dh": 11667, "ĠØ¬Ø§ÙĨ": 11668, "ĠÐ½Ð¸": 11669, "ĠÐºÐ°Ð·": 11670, "Ġtiek": 11671, "Ġmana": 11672, "ä¸ľ": 11673, "ikka": 11674, "Ġhl": 11675, "å±Ģ": 11676, "Ð°ÐºÐ¾": 11677, "ÏģÎ¹Î±": 11678, "acht": 11679, "AZ": 11680, "ĠÑĤÐ°Ð½": 11681, "ĠÑģÓ©": 11682, "Ġtemper": 11683, "Ġboleh": 11684, "ĠNeg": 11685, "ãĥ³ãĤ°": 11686, "à«ĩàª¶": 11687, "¥à¹īà¸§": 11688, "ycz": 11689, "XBF": 11690, "Ġshk": 11691, "ĠWorld": 11692, "à¸¶à¸ĩ": 11693, "ÑģÐ¸": 11694, "Ãºt": 11695, "ives": 11696, "ingga": 11697, "ahi": 11698, "ĠÐ¿Ð¾ÑĤÑĢ": 11699, "Ġcart": 11700, "ĠNem": 11701, "ç¼": 11702, "áĥĺáĥ¨": 11703, "Ðĸ": 11704, "Ã¼d": 11705, "ril": 11706, "ikal": 11707, "erc": 11708, "ektiv": 11709, "ĠÐºÑĬ": 11710, "Ġtav": 11711, "Ġdá»¥": 11712, "ì¶Ķ": 11713, "ãĤ¸": 11714, "Ø¹Ùħ": 11715, "Õ¡Õ£ÖĢ": 11716, "ÎµÏĢ": 11717, "inos": 11718, "Ġhos": 11719, "æºĲ": 11720, "skÃ¡": 11721, "Ġà°ħà°¨": 11722, "Ġà¦¬à§įà¦¯": 11723, "Ġ×ľ×§": 11724, "Ġyak": 11725, "Ġves": 11726, "Ġcard": 11727, "ĠSanta": 11728, "à¸ģà¸£": 11729, "Ġà¦¤à¦¾à¦°": 11730, "ĠÐ´Ð¾Ð¼": 11731, "ĠnÃ¥r": 11732, "ĠmÃ´": 11733, "ĠAK": 11734, "éĤĢè¯·çłģ": 11735, "äºļæ´²": 11736, "áŁģáŀī": 11737, "Ø¨Ùĩ": 11738, "×¡×ĺ": 11739, "ÑıÐ³": 11740, "Ãºc": 11741, "vas": 11742, "nam": 11743, "cÄ±": 11744, "Ġà¶±à·Ĳ": 11745, "ĠØªØµ": 11746, "Ġ×ĲÖ·": 11747, "ĠlÃµ": 11748, "Ġdass": 11749, "áĢ¬áĢĦáĢ¹áĢ¸áĢ": 11750, "Ð¾ÑģÐ¿": 11751, "Ãªm": 11752, "vr": 11753, "tai": 11754, "CHARCHARCHARCHAR": 11755, "Ġservice": 11756, "ĠSun": 11757, "ĠPeng": 11758, "ĠLin": 11759, "á»ĥn": 11760, "à·Ħà·Ĵ": 11761, "à°¿à°¸à±įà°¤": 11762, "Äįky": 11763, "vy": 11764, "apon": 11765, "acions": 11766, "Ļà§įà¦Ĺ": 11767, "ĠMun": 11768, "ĠJak": 11769, "áº±": 11770, "Ñĵ": 11771, "ogu": 11772, "imÄħ": 11773, "ĠÑĤÐ¾Ð¿": 11774, "ĠÐ¼Ð¾Ð´": 11775, "Ġstra": 11776, "Ġspeci": 11777, "à³įà²¥": 11778, "Õ¸ÖĤÖģ": 11779, "Ð½ÑĥÑİ": 11780, "yti": 11781, "gn": 11782, "antu": 11783, "Ġà¸Ķ": 11784, "Ġà°ļà±ĩà°¸": 11785, "ĠØ§Ø¯": 11786, "ĠÐ²ÑģÐµ": 11787, "usto": 11788, "owych": 11789, "Ġà¨Ń": 11790, "Ġrun": 11791, "ĠjanÃ«": 11792, "à«ĭàªķ": 11793, "Õ¡Õ¶Õ¸ÖĤÕ´": 11794, "Ġ×²": 11795, "ĠMB": 11796, "ĠKun": 11797, "ĠChar": 11798, "é£ŀ": 11799, "áĥĲáĥ¥": 11800, "ÙĨØ¬": 11801, "lis": 11802, "jum": 11803, "embro": 11804, "ĲáĢ¼áĢ": 11805, "ĠÃ¾Ã¡": 11806, "Ġtodos": 11807, "Ġclick": 11808, "ĠcheckK": 11809, "ÐŀÐł": 11810, "Ð°ÑĤÐ¾ÑĢ": 11811, "iru": 11812, "inge": 11813, "Part": 11814, "Del": 11815, "ĠÕ£Õ¸ÖĢÕ®": 11816, "ĠÐ´ÓĻ": 11817, "ĠÂ¹": 11818, "Ġsht": 11819, "Ġmateri": 11820, "ĠVideos": 11821, "ĠKap": 11822, "ĠHE": 11823, "ĠGratis": 11824, "Ã¶m": 11825, "Ã³p": 11826, "ANT": 11827, "ĳáĢ¬áĢ¸áĢ": 11828, "ĠÒ»ÓĻÐ¼": 11829, "ĠÒ·": 11830, "ĠÐĲÑĢ": 11831, "Ġhalamang": 11832, "×ķ×¨×Ļ×Ŀ": 11833, "aber": 11834, "Ġsolid": 11835, "Ġsizes": 11836, "ĠTom": 11837, "ĠKam": 11838, "Ð½ÑĸÐº": 11839, "ŀáĢĬáĢº": 11840, "Ġà´¨à´¿à´": 11841, "ĠÕ´Õ¥Õ": 11842, "ĠÐ´ÐµÐ¹": 11843, "é¡µ": 11844, "çİ©": 11845, "à¹ĥà¸Ĭà¹ī": 11846, "¼áĢ¬áĢ¸áĢ": 11847, "amine": 11848, "Ġíı¬": 11849, "ĠãĤ¢": 11850, "Ġáī¥": 11851, "ĠÑĺÐ°": 11852, "ĠÐ¿ÑĢÐ°ÑĨ": 11853, "ĠÐ·Ð²": 11854, "Ġtako": 11855, "Ġsok": 11856, "Ġlay": 11857, "ĠPap": 11858, "Ġä¹": 11859, "à§įà¦®": 11860, "ÙĪØ±Ø¯": 11861, "Î»Î¹": 11862, "uur": 11863, "SH": 11864, "Ġãĥĸ": 11865, "ĠâĢ¹": 11866, "Ġà·Ģà·Ļ": 11867, "ĠReal": 11868, "ĠIb": 11869, "ĠAus": 11870, "ãĥĸ": 11871, "à¦«": 11872, "Î¿ÏįÎ½": 11873, "udo": 11874, "ĠÙĪÙİ": 11875, "ĠØ·Ø±": 11876, "Ġ×Ļ×ķ×ª×¨": 11877, "ĠUK": 11878, "à¸²à¸ª": 11879, "×ŀ×©": 11880, "×ľ×§": 11881, "Õ¡ÖĢÕ±": 11882, "Ð¸ÑĩÐºÐ¸": 11883, "count": 11884, "ĠìĽ": 11885, "Ġspan": 11886, "Ġnang": 11887, "Ġmedi": 11888, "Ġlarge": 11889, "Ġkans": 11890, "Ġfakt": 11891, "ĠPok": 11892, "ĠNaj": 11893, "ĠMarch": 11894, "ê³µ": 11895, "fan": 11896, "acak": 11897, "111": 11898, "Ġìĺģ": 11899, "Ġsangat": 11900, "Ġpav": 11901, "ĠhÃłng": 11902, "Ġhit": 11903, "Ġhip": 11904, "Ġapro": 11905, "Ð°ÑİÑĤ": 11906, "Å«r": 11907, "egory": 11908, "Ġtol": 11909, "Ġpati": 11910, "Ġora": 11911, "Ġdic": 11912, "yang": 11913, "ebr": 11914, "ĠáĢĻ": 11915, "Ġrte": 11916, "ĠFar": 11917, "Ġ$('#": 11918, "Ġ#:": 11919, "è¦ĭ": 11920, "àº²àºĩ": 11921, "àµģà´±": 11922, "Å¡anu": 11923, "andid": 11924, "Ġnoch": 11925, "Ġlek": 11926, "Ġdute": 11927, "Ġask": 11928, "Ġą": 11929, "àºį": 11930, "à§Ģà¦°": 11931, "ross": 11932, "lament": 11933, "evi": 11934, "PT": 11935, "ĠáŁ¢": 11936, "Ġcontrol": 11937, "ĠFR": 11938, "à´¾à´µ": 11939, "Ø´Ø§Ø±": 11940, "Ð¯": 11941, "kop": 11942, "Ġ×ĳ×ł": 11943, "Ġzav": 11944, "Ġurm": 11945, "ĠpÃºbl": 11946, "à¸Ńà¸Ķ": 11947, "ÙĪÙĨÙĩ": 11948, "Ã¸re": 11949, "gat": 11950, "etail": 11951, "Ġë°Ķì¹´ëĿ¼": 11952, "Ġmuz": 11953, "ĠTorres": 11954, "ë¹ĦìĬ¤": 11955, "à®¾à®³": 11956, "à¦¾à¦Ĺ": 11957, "ÑĥÐ»ÑĤ": 11958, "Ð¾Òĵ": 11959, "vad": 11960, "ugi": 11961, "ģ¬": 11962, "Ġ×ķ×¢": 11963, "Ġmange": 11964, "Ġblir": 11965, "Ġanche": 11966, "ĠEL": 11967, "à¹Ģà¸Ħ": 11968, "à«įàªµ": 11969, "à¥ģà¤ª": 11970, "ÑĥÑĥÐ´": 11971, "Ã³ÅĤ": 11972, "Ġsoc": 11973, "áĬ¨": 11974, "à´ķàµįà´ķàµį": 11975, "ÆĴ": 11976, "alaxy": 11977, "Ġà·Ħà·Ĳ": 11978, "Ġàª°àª¹": 11979, "ĠØªØ§": 11980, "ĠÑģÑĢÐµÐ´": 11981, "Ġnghi": 11982, "ĠXL": 11983, "ãĤ°": 11984, "áŁĴáŀĦáŁĥ": 11985, "áĥĸáĥĶ": 11986, "àµĩà´°": 11987, "àµģà´¤àµįà´¤": 11988, "àªµàª¾àª¨": 11989, "àª°à«Ģ": 11990, "Ð¬": 11991, "angu": 11992, "ĠÙħØŃÙħØ¯": 11993, "Ġvisual": 11994, "Ġnik": 11995, "Ġesper": 11996, "ĠWo": 11997, "ĠGR": 11998, "Ð¿ÐµÑĢ": 11999, "AAOS": 12000, "Ġëį": 12001, "Ġvoc": 12002, "Ġsop": 12003, "çĦ¶": 12004, "åħ¬åı¸": 12005, "ãĤ§": 12006, "ãģŃ": 12007, "à±ĩà°¶": 12008, "Ð»ÑİÑĩ": 12009, "Ð°ÑĨÐ¸ÑĺÐ°": 12010, "ihin": 12011, "enza": 12012, "Ġ×Ĵ×¢": 12013, "Ġnuo": 12014, "ĠPlay": 12015, "áĬł": 12016, "à´¿à´¨àµįà´±àµĨ": 12017, "à®³à¯įà®³": 12018, "Ø±Ø¶": 12019, "Ð¸Ð½Ð¾": 12020, "arra": 12021, "999": 12022, "ĠÃ§alÄ±ÅŁ": 12023, "Ġzg": 12024, "Ġrestaur": 12025, "ĠmÃ¡is": 12026, "ĠJag": 12027, "Ġ122": 12028, "Ä±nÄ±z": 12029, "¡à°¾": 12030, "olat": 12031, "ĠÃ§Ä±": 12032, "Ġmic": 12033, "Ġeinen": 12034, "ãģ°": 12035, "à°¾à°¨à°¿à°ķà°¿": 12036, "à¦¨à§įà¦¤": 12037, "Ð¸ÑĪÐ¸": 12038, "ÃŃtÃ¡s": 12039, "lection": 12040, "ĠrÃ¡": 12041, "Ġestis": 12042, "à¯Ĩà®°": 12043, "Ú¾ÛĴ": 12044, "Ð¾Ñī": 12045, "Ð³ÓĻ": 12046, "sts": 12047, "liga": 12048, "arden": 12049, "Images": 12050, "ĠØ¬Ø³": 12051, "ĠØ¨ÙĪØ¯": 12052, "ĠÐ·Ð°Ñħ": 12053, "Ġtempo": 12054, "Ġregul": 12055, "ĠNÃ«": 12056, "áĥĶáĥ¥": 12057, "à°·": 12058, "evo": 12059, "etas": 12060, "anÄ±": 12061, "ĠáĪµ": 12062, "ĠÔ±Õµ": 12063, "Ġshop": 12064, "Ġadres": 12065, "íĨł": 12066, "à³Ĩà²²": 12067, "enci": 12068, "emente": 12069, "dzie": 12070, "Ġà¶´à·Ĵ": 12071, "Ġ×©×ł": 12072, "ĠÐ¶Ð°ÑĢ": 12073, "Ġkata": 12074, "Ġie": 12075, "Ġdek": 12076, "ĠClub": 12077, "ordin": 12078, "omis": 12079, "czy": 12080, "Ĭ¬": 12081, "Ġáŀļ": 12082, "ĠÐ±Ð¾Ð¹": 12083, "ĠÎ¼Î±": 12084, "Ġfrem": 12085, "à´¾à´Ĥ": 12086, "col": 12087, "appä¸ĭè½½": 12088, "Ġwana": 12089, "Ġperm": 12090, "ĠgiÃ¡": 12091, "ĠSn": 12092, "à¯ĩà®°": 12093, "Ø±ÛĮÚ©": 12094, "illÃ¤": 12095, "iese": 12096, "gaz": 12097, "AMAHI": 12098, "ĠÙ¾ÛĮØ´": 12099, "ĠÐ¢Ð¾": 12100, "Ġmark": 12101, "Ġgaran": 12102, "Ġexperien": 12103, "Ġdl": 12104, "Ġabsol": 12105, "áŁı": 12106, "áĭİ": 12107, "Å¡ie": 12108, "´ĳ": 12109, "etar": 12110, "alde": 12111, "ĠÐ¼ÐµÑģ": 12112, "à°¾à°¯à°¿": 12113, "à¦¿à¦¶": 12114, "Ð¸ÑģÑĤÑĢ": 12115, "Ð¸Ð²Ð°": 12116, "ÏĥÏī": 12117, "Ġå¤§åıĳå½©ç¥ŀ": 12118, "ĠÐ¼ÐµÐ½ÐµÐ½": 12119, "Ġkaz": 12120, "åł´": 12121, "à²¿à²®": 12122, "larda": 12123, "SD": 12124, "ĠÚ©ÙĬ": 12125, "Ġoz": 12126, "Ġgoed": 12127, "Ġgia": 12128, "Ġdiff": 12129, "ĠWHAKAMAHI": 12130, "ëŁ¬": 12131, "Ð°ÑĤÐµ": 12132, "Ð°Ð³Ð¸": 12133, "inka": 12134, "ieren": 12135, "ieb": 12136, "angg": 12137, "ĠáŀĢáŀ¶áŀļ": 12138, "ĠÏħÏĢÎ¿": 12139, "ĠBan": 12140, "Ġ/\"": 12141, "ê³Ħ": 12142, "ç¤º": 12143, "à°¤à±įà°¤": 12144, "à®¾à®®": 12145, "Î¯ÎµÏĤ": 12146, "Ãºl": 12147, "Ġà¶¯à·Ļ": 12148, "Ġtum": 12149, "ĠjÅ«s": 12150, "Ġbude": 12151, "Ġbli": 12152, "ĠCam": 12153, "è¿ĳ": 12154, "àº«": 12155, "à¥įà¤ļ": 12156, "Úģ": 12157, "×ķ×ĳ×Ķ": 12158, "Ã²ng": 12159, "ĠìĿĺ": 12160, "Ġà°¤à±Ĩà°²": 12161, "Ġprzez": 12162, "ĠfÃ¸l": 12163, "Ġaber": 12164, "ĠSum": 12165, "Ġ1999": 12166, "áŁĴáŀļáŀ¸": 12167, "à·Ĵà·ĥ": 12168, "à¶¯à·Ĭ": 12169, "à©įà¨¹": 12170, "agement": 12171, "74688": 12172, "ĠáĭĪ": 12173, "Ġáĥ¡áĥĲáĥĽ": 12174, "ĠÐ¼Ð°Ð¹": 12175, "ĠÐºÐ¾ÑĺÐ¸": 12176, "ĠmÃ¡r": 12177, "ĠKont": 12178, "åĮĹ": 12179, "Ð½Ñį": 12180, "Ã«sh": 12181, "ĠÛ½": 12182, "ĠÒļÐ°Ð·Ð°ÒĽÑģÑĤÐ°Ð½": 12183, "ĠÎµÏħ": 12184, "ĠfÃ©": 12185, "Ġcoun": 12186, "ĠRel": 12187, "à¹Ģà¸ģà¸": 12188, "ÑĸÐ±": 12189, "Ä±ndan": 12190, "wang": 12191, "text": 12192, "isz": 12193, "ĠíĨ": 12194, "ĠÑģÑĥÐ´": 12195, "Ġsaid": 12196, "Ġlocal": 12197, "Ġcou": 12198, "æ±Ĥ": 12199, "å¼ĢæĪ·": 12200, "à¤Ĥà¤Ĺ": 12201, "Ù¹Ø±": 12202, "ÑĤÐ°Ð¹": 12203, "aju": 12204, "Ġê²Į": 12205, "ĠÑģÐ¿ÑĢ": 12206, "Ġsays": 12207, "Ġave": 12208, "ĠDV": 12209, "á»ĭch": 12210, "à²µà³ģ": 12211, "onia": 12212, "bas": 12213, "3d": 12214, "Ġê¹": 12215, "Ġtart": 12216, "Ġjih": 12217, "Ġfat": 12218, "ĠSeb": 12219, "åºĶ": 12220, "à©Ģà¨¤": 12221, "ÑĤÑĭÒĽ": 12222, "omp": 12223, "idente": 12224, "XBFXBF": 12225, "ķà¹Ī": 12226, "Ĭé¾Ļ": 12227, "Ġà´¯": 12228, "ĠÕ¯Õ¡ÖĢ": 12229, "ĠÐ¿ÑĢÐµÐ·": 12230, "ĠÄĳÃ³": 12231, "ĠTot": 12232, "ëĦ": 12233, "à°¾à°ľ": 12234, "oden": 12235, "angk": 12236, "Ġì¹´íĨ¡": 12237, "Ġàªµàª¿àª": 12238, "ĠÙĪØª": 12239, "Ġ×Ĳ×Ĺ×¨": 12240, "ĠimageKey": 12241, "áĤıáĢ": 12242, "Ġnous": 12243, "Ġhefur": 12244, "Ġfast": 12245, "ĠCE": 12246, "æ©Ļ": 12247, "áŁĤáŀĢ": 12248, "áŀ¡": 12249, "áĥ£áĥłáĥ": 12250, "Ø§Úº": 12251, "Ä¡": 12252, "tein": 12253, "Ġà²²": 12254, "ê·": 12255, "éĻ¢": 12256, "èº«": 12257, "è±": 12258, "áĪª": 12259, "áĥĶáĥľáĥ¢": 12260, "à¤¨à¤¿": 12261, "akas": 12262, "ICA": 12263, "Ġæĺ¨": 12264, "à¤²à¥Ģ": 12265, "Ð²Ð¸": 12266, "etes": 12267, "ĠìĹ°": 12268, "ĠáĥĶáĥłáĥĹ": 12269, "ĠÎĶE": 12270, "Ġdot": 12271, "ĠTy": 12272, "Ð°ÑĤÑĭ": 12273, "ipo": 12274, "ims": 12275, "ĠÐ±Ð¸Ð´": 12276, "Ġizm": 12277, "Ġfinal": 12278, "ĠAlb": 12279, "áŁĴáŀļáŀ¼áŀľ": 12280, "à´¿à´µ": 12281, "Î´Î¹": 12282, "ipa": 12283, "Ġæķ": 12284, "ĠÐ¸Ñģ": 12285, "Ġobchod": 12286, "ĠmaxImages": 12287, "Ġdk": 12288, "ĠcheckKravet": 12289, "ĠDol": 12290, "à¶·": 12291, "à²·à³įà²Ł": 12292, "àª¾àª£": 12293, "×¨×ª": 12294, "ĠìķĪ": 12295, "Ġfog": 12296, "ãĤĪãģĨ": 12297, "ÙĩØ¯": 12298, "²áŁĴáŀĻ": 12299, "uksen": 12300, "kus": 12301, "ateur": 12302, "Ġà°Ĵà°ķ": 12303, "ĠuÄį": 12304, "é¦ĸ": 12305, "ãĤ¨": 12306, "àªļ": 12307, "upe": 12308, "ĠÃ¼ber": 12309, "Ġnaman": 12310, "åĻ¨": 12311, "×ķ×¨×Ķ": 12312, "Ð°ÐºÐ°": 12313, "±áĢľ": 12314, "ľìļ": 12315, "ĠÐºÑĥ": 12316, "ĠÏĥÏĦÎ¹ÏĤ": 12317, "ĠÎ±ÏħÏĦÏĮ": 12318, "Ġtj": 12319, "Ġsame": 12320, "Ġhr": 12321, "Ġcomments": 12322, "ä½ķ": 12323, "áĢ¹áĢ¸": 12324, "rec": 12325, "Ġà¶ħà·Ģ": 12326, "ĠÑįÐ»": 12327, "ĠVic": 12328, "ĠNord": 12329, "ĠHist": 12330, "è»": 12331, "áĥĶáĥĳáĥĺáĥĹ": 12332, "à°¿à°®": 12333, "cak": 12334, "ajar": 12335, "Ġzas": 12336, "Ġvies": 12337, "Ġqa": 12338, "Ġlitt": 12339, "çĥ": 12340, "áĥĲáĥĸ": 12341, "Ð¸Ñī": 12342, "ĠØ±Ø³": 12343, "ĠÑģÑĤÑĢÐ°Ð½": 12344, "ĠÑģÐ²ÐµÑĤ": 12345, "Ġweek": 12346, "à±įà°²à±ĭ": 12347, "à¥ĩà¤ķ": 12348, "Ð´ÑĢ": 12349, "yu": 12350, "ambi": 12351, "agn": 12352, "Ġæľī": 12353, "ĠâĢ³": 12354, "ĠÐŀÑĤ": 12355, "ĠszÃ¡m": 12356, "ĠpolÃŃ": 12357, "áº·t": 12358, "×ĳ×Ļ×Ŀ": 12359, "Ã¡ly": 12360, "inÄĹs": 12361, "ibu": 12362, "ĠÃĵ": 12363, "ĠlÃ¡": 12364, "Ġbuvo": 12365, "Ġakc": 12366, "Ġ?âĢĿ": 12367, "å§Ķ": 12368, "Ö¶": 12369, "ÎĻÎļ": 12370, "ischen": 12371, "fil": 12372, "dra": 12373, "ĠÎŃÏĩÎµÎ¹": 12374, "Ġseks": 12375, "Ġkommun": 12376, "ä»Ģ": 12377, "oran": 12378, "erea": 12379, "777": 12380, "Ġsemua": 12381, "ÐĲÐĶ": 12382, "ÐµÑĨÑĨÐ°": 12383, "Å¾d": 12384, "Ġ×Ķ×Ļ×Ĳ": 12385, "ĠÎºÎ±ÏĦÎ¬": 12386, "Ġtay": 12387, "Ġfost": 12388, "Ġbata": 12389, "ĠLED": 12390, "á»«": 12391, "à¸ĩà¸²à¸Ļ": 12392, "ÙĬØ²": 12393, "×ŀ×Ł": 12394, "ÐµÑĢÐ°": 12395, "ijÄģ": 12396, "ĠáĢĶáĢ": 12397, "ĠÐ¿ÑĢÐ¾ÑĦ": 12398, "Ġsistema": 12399, "ĠkÃ¼": 12400, "Ġgol": 12401, "Ġevery": 12402, "Ġcod": 12403, "ĠMaj": 12404, "ĠBut": 12405, "åĲĳ": 12406, "å¸ĥ": 12407, "ÑģÐºÐ¸Ð¹": 12408, "Åº": 12409, "yer": 12410, "emat": 12411, "ĠÐ¿Ð»Ð°Ð½": 12412, "à©Į": 12413, "à¤¨à¥įà¤¤": 12414, "Õ±": 12415, "neh": 12416, "lus": 12417, "lia": 12418, "apos": 12419, "SK": 12420, "Ġáĥ¡áĥĲáĥ¥": 12421, "ĠØ§Ø®": 12422, "ĠcÅ©ng": 12423, "ĠNum": 12424, "ä¸ĸ": 12425, "áŀ¶áŀıáŀ·": 12426, "à°ķà±įà°·": 12427, "à¤¾à¤²à¥ĩ": 12428, "back": 12429, "ĻáĢºáĢ¬áĢ¸áĢ": 12430, "Ġtranspar": 12431, "ĠsÃ¤": 12432, "ĠpÃµ": 12433, "Ġl200": 12434, "Ġkub": 12435, "Ġhoe": 12436, "Ġcustom": 12437, "ĠYork": 12438, "ĠMP": 12439, "ç¬¬": 12440, "à¤¸à¥ĩ": 12441, "ÏĦÎ·ÏĦÎ±": 12442, "adz": 12443, "ĠÐ¡ÑĢ": 12444, "Ġtx": 12445, "Ġcss": 12446, "ĠNon": 12447, "à¹Īà¸Ļà¸": 12448, "ÄįÃŃ": 12449, "Ä«gi": 12450, "vien": 12451, "itik": 12452, "etter": 12453, "Ġà®ĩà®¨à¯įà®¤": 12454, "ĠØ§Ùĵ": 12455, "ĠÐ¿Ð¾Ð½": 12456, "ĠÐºÐ¾Ð¸": 12457, "Ġpoder": 12458, "ĠOk": 12459, "ĠFeder": 12460, "à³įà²ļ": 12461, "Ú©Ø±": 12462, "qar": 12463, "Ġà¦ıà¦¬à¦Ĥ": 12464, "ĠÑĢÐµÐ·": 12465, "Ġseus": 12466, "Ġram": 12467, "ĠgÄ§": 12468, "Ġetc": 12469, "ĠNA": 12470, "ä¾Ľ": 12471, "à¤¾à¤²à¥Ģ": 12472, "Ã©si": 12473, "lige": 12474, "Ġà¤ħà¤ª": 12475, "ĠÑĽ": 12476, "ĠÐ±Ð¾Ð»ÑĮ": 12477, "Ġpasi": 12478, "Ġliter": 12479, "ĠBul": 12480, "æ»": 12481, "à±įà°ķ": 12482, "à§ĩà¦Ł": 12483, "ÐµÐ´Ð¾Ð½": 12484, "¹£": 12485, "ource": 12486, "ninger": 12487, "ĠÐ´Ð¾Ð¿": 12488, "Ġnhiá»ģu": 12489, "ĠkeÃ§": 12490, "ĠjÄģ": 12491, "ĠKing": 12492, "Ġ/]": 12493, "à®¿à®ªà¯įà®ª": 12494, "¥àº°": 12495, "maq": 12496, "gest": 12497, "ĠÑĢÐµÐ³": 12498, "ĠÐ·Ð°Ð³": 12499, "Ġspot": 12500, "Ġseda": 12501, "Ġori": 12502, "ÉĻlÉĻ": 12503, "rÃŃ": 12504, "Ġà¦¥à§ĩà¦ķà§ĩ": 12505, "ĠÐ¿ÑĢÐ¾Ð±": 12506, "Ġpert": 12507, "ĠMA": 12508, "æ¬¾": 12509, "æ®": 12510, "à¶¯à·ĵ": 12511, "Õ¥Õ¬Õ«": 12512, "dur": 12513, "aler": 12514, "Ġjos": 12515, "Ġdibdib": 12516, "ĠWhite": 12517, "ìĻĢ": 12518, "Ã¡il": 12519, "Ġà¥¨": 12520, "ĠndÃ«r": 12521, "à°¾à°¸": 12522, "Ð³Ó©": 12523, "Ð°Ñĥ": 12524, "ÏīÏĥÎ·": 12525, "Ä±mÄ±z": 12526, "ombre": 12527, "ederland": 12528, "PA": 12529, "Ġåĳ": 12530, "ĠÙ¿": 12531, "Ġjav": 12532, "Ġhen": 12533, "Ġbene": 12534, "ÐµÑĢÑĸ": 12535, "Å¾ÃŃ": 12536, "ÄĹjo": 12537, "clus": 12538, "Group": 12539, "EE": 12540, "Ġà·ĥà·Ħ": 12541, "Ġà°¡": 12542, "Ġkort": 12543, "Ġjur": 12544, "Ġbagi": 12545, "ĠTags": 12546, "ĠFC": 12547, "áŁĢáŀı": 12548, "à¶ļà·Ķ": 12549, "à´¿à´ªàµįà´ª": 12550, "à¤°à¥įà¤®": 12551, "ĠãģĬ": 12552, "ĠÑĤÐ¸": 12553, "ĠÑģÐ¾Ð±": 12554, "ĠÐ¼ÑĥÐ·": 12555, "Ġshqip": 12556, "Ġlui": 12557, "Ġlub": 12558, "Ġdesde": 12559, "ĠJac": 12560, "æĹĹèĪ°åİħ": 12561, "à¦²à§ĩ": 12562, "×Ļ×ł×Ķ": 12563, "ÑĭÐ½Ð°Ð½": 12564, "Ä±b": 12565, "Â«": 12566, "zej": 12567, "tual": 12568, "orks": 12569, "anten": 12570, "Łà«ĩ": 12571, "Ġà®°": 12572, "ĠÚħ": 12573, "Ġ220": 12574, "àµģà´£àµįà´Ł": 12575, "à¤²à¤¾": 12576, "ÈĽii": 12577, "orte": 12578, "azo": 12579, "ĠÐİÐ·": 12580, "Ġporn": 12581, "Ġmie": 12582, "áĥ£áĥłáĥĺ": 12583, "áº¥p": 12584, "ivil": 12585, "akukan": 12586, "ĠÐ¶Ð°Ð½Ð°": 12587, "ĠÎ¥": 12588, "Ġzw": 12589, "Ġnal": 12590, "Ġken": 12591, "ĠProgram": 12592, "ĠOrgan": 12593, "ĠÕ¡Õ´": 12594, "áĭĪ": 12595, "áĥĲáĥ£áĥ": 12596, "à¸§à¸¢": 12597, "Ò±Ð¼": 12598, "Ġè®": 12599, "ĠåŃ": 12600, "ĠØ§ÙĦØ°": 12601, "ĠÑıÐ·": 12602, "ĠÄĳá»ĭ": 12603, "Ġnii": 12604, "ĠnÃ©": 12605, "Ġface": 12606, "ĠE0": 12607, "Ġ180": 12608, "æİ¥": 12609, "Ø³Ø§ÙĨ": 12610, "Ð½Ð¸Ð¾ÑĤ": 12611, "ÎµÏģ": 12612, "µľ": 12613, "BB": 12614, "ĠÕ±": 12615, "ĠÏĥÏĦÎ¿Î½": 12616, "Ġngh": 12617, "Ġhá»įc": 12618, "Ġgreat": 12619, "Ġentry": 12620, "ĠBos": 12621, "íķł": 12622, "à¸Ħà¸¸à¸ĵ": 12623, "Î¯Î¶": 12624, "zim": 12625, "ournal": 12626, "ises": 12627, "Ġìłľ": 12628, "Ġà²ķà²¾à²°": 12629, "ĠÐ¿Ð¾Ð¿": 12630, "ĠÐ·Ð´": 12631, "ĠÐ´Ð¾Ð±ÑĢ": 12632, "Ġmand": 12633, "ĠDecember": 12634, "à¨Ĩ": 12635, "ÙĦØ©": 12636, "ÉĻdÉĻ": 12637, "±áĢĢ": 12638, "wood": 12639, "ikut": 12640, "ĠÃ¡r": 12641, "Ġsuur": 12642, "Ġjun": 12643, "à»Ħ": 12644, "ÑĪÐ¸": 12645, "ÏħÏĥ": 12646, "ektor": 12647, "ĠØ§ÙĦØ·": 12648, "ĠÐ°Ð´Ð°Ð¼": 12649, "Ġtha": 12650, "Ġgang": 12651, "ĠSee": 12652, "ì§Ħ": 12653, "áº»": 12654, "à¸¡à¸²à¸": 12655, "à¦¦à§ĩà¦°": 12656, "Ã¡ci": 12657, "otas": 12658, "Ġà®µà¯ĩ": 12659, "Ġcit": 12660, "ĠSy": 12661, "ĠBarcelona": 12662, "ĠBM": 12663, "è´¹": 12664, "çı": 12665, "æ°Ķ": 12666, "áŀĴ": 12667, "ÙĪØ§ÙĦ": 12668, "Î¼Î®": 12669, "Å¡ki": 12670, "°áĢ¸áĢ": 12671, "zione": 12672, "owany": 12673, "arto": 12674, "ĠÎĳÏĢ": 12675, "Ġprv": 12676, "Ġkrit": 12677, "Ġhil": 12678, "æĥ³": 12679, "áŁĴáŀľáŀ¾": 12680, "Ð½Ð°ÑĢ": 12681, "ÐµÑģÐµ": 12682, "±áĢķ": 12683, "Ġê°ķ": 12684, "ĠçĽ": 12685, "ĠÙĪØ³": 12686, "Ġwikipedia": 12687, "Ġnei": 12688, "ĠbaÄŁ": 12689, "ĠBit": 12690, "æ¥Ń": 12691, "ÑįÑģ": 12692, "jÄĻ": 12693, "ĠìŀĪëĭ¤": 12694, "Ġáĥ«": 12695, "ĠÐ±Ð¸Ð»Ð°Ð½": 12696, "Ġtao": 12697, "ĠMes": 12698, "Ã¼nd": 12699, "hn": 12700, "aux": 12701, "ĠáĥĹáĥĲáĥķ": 12702, "ĠØ´ÙĩØ±": 12703, "Ġviss": 12704, "ĠTest": 12705, "ĠBrit": 12706, "åħ·": 12707, "áŀĵáŁģáŁĩ": 12708, "à¯ģà®³à¯įà®³": 12709, "Ð¸ÑĺÐ°ÑĤÐ°": 12710, "ÐµÑģÑģ": 12711, "Ãło": 12712, "atti": 12713, "ĠÐ¶Ð°Ñģ": 12714, "Ġeuro": 12715, "ĠAdmin": 12716, "à°¦à°¿": 12717, "à¦ķà§įà¦¤": 12718, "yyyy": 12719, "mÃ«": 12720, "AAOSw": 12721, "ĠÎĪ": 12722, "ĠmÃ©": 12723, "Ġbaik": 12724, "Ġanmeldelser": 12725, "ĠTek": 12726, "ĠBaÅŁ": 12727, "à¶®": 12728, "Ø§Ø±ÙĬ": 12729, "Ð¼Ð¸Ð½": 12730, "ÏĩÎ¿ÏħÎ½": 12731, "siy": 12732, "ingan": 12733, "iland": 12734, "aban": 12735, "IST": 12736, "Ġå½": 12737, "Ġà¨µà¨¿à¨ļ": 12738, "ĠÎ¼ÎµÏĦÎ±": 12739, "Ġyax": 12740, "ĠkanÃ«": 12741, "àµĭà´Ł": 12742, "Ð²ÑĢÐ¾Ð¿": 12743, "Î¹ÎºÎ®ÏĤ": 12744, "sies": 12745, "itaj": 12746, "iros": 12747, "Ġà´¸à´Ĥ": 12748, "Ġàª¡": 12749, "ĠÕ¡ÕµÕ¶": 12750, "Ġvah": 12751, "Ġric": 12752, "ĠgÃ¥": 12753, "Ġenn": 12754, "ĠHan": 12755, "ĠEg": 12756, "å¸¸": 12757, "áŀ¹áŀĢ": 12758, "×ķ×ľ×Ŀ": 12759, "ssÃ¤": 12760, "chts": 12761, "aker": 12762, "Ġ×Ĳ×ł": 12763, "Ġsett": 12764, "æİĴåĪĹ": 12765, "à¨¾à¨¹": 12766, "à¦ķà§įà¦·": 12767, "ÑĥÐ²Ð°Ð½Ð½Ñı": 12768, "ords": 12769, "nb": 12770, "erm": 12771, "ĠÐ¼ÓĻ": 12772, "ĠÐºÐµÐ·": 12773, "ĠtrÃªn": 12774, "Ġmint": 12775, "Ġintegr": 12776, "Ġartik": 12777, "ĠTrip": 12778, "Ġ10px": 12779, "ì¡°": 12780, "éĹ»": 12781, "çĦ¡": 12782, "à¹Ģà¸§": 12783, "fall": 12784, "ajÄħ": 12785, "Sh": 12786, "ĠìĨĮ": 12787, "Ġà¸ģà¸²à¸£": 12788, "ĠØªÚ¾Ø§": 12789, "ĠÑĤÑŀ": 12790, "Ġsign": 12791, "æĽ´": 12792, "ãģ§ãģį": 12793, "àª¤àª¾": 12794, "×ĳ×Ļ": 12795, "ĠÎļÎ±": 12796, "Ġprojekt": 12797, "Ġmaterial": 12798, "Ġgur": 12799, "à©±à¨ķ": 12800, "à¤Ľ": 12801, "Î¼Î¹": 12802, "elÅĳ": 12803, "alle": 12804, "Ġà¦¸à¦Ĥ": 12805, "ĠÙĪØ¬": 12806, "Ġ×ĳ×§": 12807, "ĠÑģÐ¾Ð½": 12808, "ĠÐ¿ÑĢÐµÑĤ": 12809, "ĠÐ´ÐµÐ½": 12810, "ĠÃĲÂº": 12811, "ĠtÃ¶rvÃ©ny": 12812, "Ġhanya": 12813, "Ġdor": 12814, "ĠMach": 12815, "å¼Ģå¥ĸ": 12816, "áŁĴáŀĶ": 12817, "à¶Ńà·ı": 12818, "à´§": 12819, "Ò¯Ð·": 12820, "Ð°Ð½Ð¾Ð²": 12821, "utu": 12822, "prod": 12823, "itis": 12824, "Ġfill": 12825, "ĠKim": 12826, "ĠBab": 12827, "àº²àº¡": 12828, "Æ°á»£ng": 12829, "rÃ«": 12830, "Ġgrand": 12831, "Ġdaug": 12832, "Ġdiz": 12833, "ĠbÅ«t": 12834, "Ġ='": 12835, "áŁģáŀĽ": 12836, "àº±àºĻàº": 12837, "à±įà°¨à°¿": 12838, "à¤¾à¤¨à¥Ģ": 12839, "Ø¨Øª": 12840, "ĠÐĺÐ·": 12841, "ĠÐºÒ¯Ð½": 12842, "ĠNational": 12843, "áŁĴáŀĬ": 12844, "àº±àºĻ": 12845, "à®ªà¯įà®ªà®Łà¯įà®Ł": 12846, "àªŃ": 12847, "Õ¥ÖĦ": 12848, "ongo": 12849, "onda": 12850, "ĠÐĲÐ½": 12851, "Ġprocess": 12852, "Ġprie": 12853, "ìĦ¸": 12854, "ç¥ŀ": 12855, "à¹Ģà¸ķ": 12856, "×ķ×ķ": 12857, "±áģ¾áĢĢ": 12858, "undo": 12859, "koz": 12860, "iyan": 12861, "ĠâĤ": 12862, "Ġ×ľ×Ľ": 12863, "Ġyon": 12864, "Ġqay": 12865, "Ġgeg": 12866, "êµĲ": 12867, "åİŁ": 12868, "Ð´ÐµÐ½": 12869, "uit": 12870, "ict": 12871, "Ġà¤²à¤¾à¤Ĺ": 12872, "ĠÒ¯ÑĪ": 12873, "ĠÐºÑĥÐ¿": 12874, "Ġstore": 12875, "Ġnote": 12876, "Ġmult": 12877, "Ġ130": 12878, "à®¤à¯įà®¤à®¿à®²à¯į": 12879, "Ð¾Ð²Ð¾ÑĢ": 12880, "Ð°Ð´Ð·": 12881, "emu": 12882, "Ġpartic": 12883, "à¨¿à¨²": 12884, "×ł×¡": 12885, "ÅĨu": 12886, "pas": 12887, "ARA": 12888, "Ġà´¦": 12889, "ĠÑĤÑĢÐµÐ±": 12890, "ĠÐ°ÒĽ": 12891, "Ġditu": 12892, "Ġberk": 12893, "ĠMit": 12894, "ĠLietuv": 12895, "Ġ1998": 12896, "áĥ®áĥķ": 12897, "ÏĥÏĦÎ±": 12898, "skÃ½": 12899, "indÉĻn": 12900, "ardi": 12901, "ĠÙħØ³Øª": 12902, "ĠÐ°ÑĪ": 12903, "Ġyear": 12904, "Ġotr": 12905, "ãģĤãĤĬ": 12906, "âĢĮÙĩØ§ÛĮ": 12907, "áĥĲáĥ¤": 12908, "present": 12909, "Ġàª¤àª®": 12910, "ĠmÃ¶": 12911, "Ġcsak": 12912, "Ú©Øª": 12913, "Ð¸ÑĤÑĥ": 12914, "oyal": 12915, "ĠÕ¥ÖĢÕ¯": 12916, "ĠÎ±Î»Î»Î¬": 12917, "Ġwird": 12918, "Ġtub": 12919, "ĠPP": 12920, "à¶Ńà·ĬâĢį": 12921, "à±ĥ": 12922, "à°¿à°¸": 12923, "×Ĳ×ª": 12924, "wl": 12925, "san": 12926, "rosoft": 12927, "ĠáĪĽ": 12928, "Ġà´Ł": 12929, "Ġmedic": 12930, "Ġchu": 12931, "à¸Ħà¸£": 12932, "à¸´à¸§": 12933, "Î¿ÏħÏģÎ³": 12934, "ojo": 12935, "estival": 12936, "ĠÑıÐ²": 12937, "Ġling": 12938, "Ð´Ð¸ÑĢ": 12939, "Ð°Ð½Ð³": 12940, "Î´Î·": 12941, "imes": 12942, "cies": 12943, "Ġrah": 12944, "Ġnaud": 12945, "Ġhele": 12946, "ĠNik": 12947, "ĠBras": 12948, "áŀĢáŀĺáŁĴáŀ": 12949, "áĪĨ": 12950, "à´¿à´ķàµįà´ķàµģà´¨àµįà´¨": 12951, "à«ĩàªŁ": 12952, "×ŀ×Ļ×Ŀ": 12953, "×¨×ĺ": 12954, "lang": 12955, "ikia": 12956, "_s": 12957, "Ġà¤¨à¥ĩà¤ª": 12958, "ĠØ§ÙĦØªÙĬ": 12959, "Ġvide": 12960, "Ġpend": 12961, "Ġmaa": 12962, "Ġgeh": 12963, "íİ": 12964, "Ð¼Ñĸ": 12965, "Î²Î¬": 12966, "bul": 12967, "aysia": 12968, "akter": 12969, "Ġáĭ«": 12970, "ĠÒĽÒ±": 12971, "ĠÎľÎ±": 12972, "èĢģ": 12973, "æĶ¾": 12974, "à¸£à¸·à¸Ń": 12975, "à¶¯à·ı": 12976, "à´¾à´Ł": 12977, "à³ķ": 12978, "ights": 12979, "ĠáŀŁáŀĺ": 12980, "ĠÑĢÐ°Ð·Ð²": 12981, "ĠÐ¸ÑģÐ¿": 12982, "ĠvÃ¦r": 12983, "Ġproced": 12984, "Ġnut": 12985, "Ġflex": 12986, "ĠUTC": 12987, "×ĳ×ķ×ĵ": 12988, "Ð¸ÑĤÐ¾": 12989, "ussen": 12990, "pj": 12991, "Ġéĩĳ": 12992, "ĠÐĲÐ²": 12993, "ĠÐ¢ÑĢ": 12994, "ĠÎ´Î¹": 12995, "Ġminist": 12996, "ĠPel": 12997, "à¹Ģà¸¡": 12998, "unge": 12999, "UE": 13000, "Ġ×ŀ×Ĵ": 13001, "ĠÐ¾ÒĽ": 13002, "Ġtec": 13003, "Ġláº¡i": 13004, "Ġhafa": 13005, "Ġgjith": 13006, "Ġgali": 13007, "ĠTil": 13008, "ĠEnglish": 13009, "à¨¡": 13010, "Å¾it": 13011, "ward": 13012, "itiv": 13013, "htu": 13014, "edd": 13015, "Ġà¶´à·Ĳ": 13016, "ĠÒĽÑŀ": 13017, "ĠÃħ": 13018, "Ġpirm": 13019, "Ġgeen": 13020, "Ġbg": 13021, "ĠAustr": 13022, "Ġ\".\"": 13023, "imus": 13024, "iano": 13025, "Ġà¶¶à·Ģ": 13026, "Ġà°ķà±Ĭ": 13027, "Ġàª®àª¾àªŁà«ĩ": 13028, "Ġtimbang": 13029, "Ġmiss": 13030, "Ġima": 13031, "áĥĲáĥĳ": 13032, "acji": 13033, "ĠÕ«Õ¶Õ¹": 13034, "Ġlabor": 13035, "Ġinvest": 13036, "àª¾àª¦": 13037, "ÏĦÏīÎ½": 13038, "orts": 13039, "asz": 13040, "UC": 13041, "ĠÐ¼Ð°Ð³": 13042, "ĠÎ¬Î»Î»": 13043, "Ġyah": 13044, "ĠvÃło": 13045, "Ġodp": 13046, "Ġhely": 13047, "Ġhelt": 13048, "Ġattr": 13049, "ãģĺ": 13050, "áŁĴáŀĴáŀ": 13051, "à¸³à¸«": 13052, "aron": 13053, "ORT": 13054, "Ġà®µà®°": 13055, "ĠÐ¼ÐµÑģÑĤ": 13056, "Ġnecess": 13057, "Ġnebo": 13058, "åŀĭ": 13059, "å·¥ä½ľ": 13060, "à³ĩà²³": 13061, "yat": 13062, "cka": 13063, "ĠÎ¸ÎŃ": 13064, "Ġtash": 13065, "Ġsod": 13066, "Ġberb": 13067, "ĠDouble": 13068, "Ġ140": 13069, "áī¸áĭį": 13070, "à¸Ńà¸¢à¹Īà¸²à¸ĩ": 13071, "à¯ģà®ªà¯įà®ª": 13072, "Ø§Ø«": 13073, "olen": 13074, "ision": 13075, "iber": 13076, "VA": 13077, "Ġà¨ķà¨¿": 13078, "Ġà¬": 13079, "ĠØ¯Ø³Øª": 13080, "ĠØ¢Ùħ": 13081, "ĠÒ®": 13082, "Ġsinh": 13083, "Ġread": 13084, "Ġalebo": 13085, "Ġaast": 13086, "ĠHouse": 13087, "ì¹ĺ": 13088, "æ±Ł": 13089, "å¾Ī": 13090, "Ø§ØªÚ¾": 13091, "ivery": 13092, "ilen": 13093, "hus": 13094, "_S": 13095, "ĠÑģÐ»ÑĥÑĩ": 13096, "àª¿àª²": 13097, "à¤¹à¥Ģà¤Ĥ": 13098, "undi": 13099, "ection": 13100, "ĠÛ²": 13101, "Ġpolitik": 13102, "Ġ!âĢĿ": 13103, "åįİ": 13104, "âĢĺ": 13105, "áĤĢ": 13106, "ÏĦÎ¿Ïį": 13107, "ough": 13108, "istes": 13109, "Selector": 13110, "Ġàª¸àª¾àª": 13111, "ĠÑħÐ¾ÑĢ": 13112, "Ġluc": 13113, "Ġdirect": 13114, "Ġdela": 13115, "à·Ħà·ı": 13116, "à²¾à²¡": 13117, "ÙĪÙĪ": 13118, "iaÅĤ": 13119, "MP": 13120, "ĠÙĪØ£": 13121, "Ġ×ĳ×¡": 13122, "ĠÎľÎµ": 13123, "Ġparticip": 13124, "Ġpoj": 13125, "Ġduke": 13126, "Ġ','": 13127, "áĥĶáĥĿ": 13128, "à²µà²¨à³įà²¨à³ģ": 13129, "à«ĩàª°": 13130, "à§ĭà¦Ĺ": 13131, "Î¸ÎŃ": 13132, "Äįet": 13133, "Ġæĺ¨å¤©": 13134, "ĠáĥĶáĥ¡": 13135, "ĠÎłÎ±": 13136, "Ġsamt": 13137, "ĠFem": 13138, "ĠCO": 13139, "à¯Īà®ķà¯įà®ķ": 13140, "à«įàª¯à«ģàªĤ": 13141, "à¦¾à¦¶": 13142, "Ð¸ÑģÐ¸": 13143, "ÏĮÏĤ": 13144, "ekk": 13145, "atte": 13146, "ĠÃĺ": 13147, "áº«": 13148, "à§įà¦§": 13149, "Õ¾Õ¸ÖĤÕ´": 13150, "ÕĪ": 13151, "Î¹ÎºÎ¿": 13152, "kii": 13153, "Element": 13154, "Ġà¸Ĭ": 13155, "Ġà¸¥": 13156, "Ġà²¬à³Ĩ": 13157, "Ġà¨ĸ": 13158, "Ġtir": 13159, "Ġsecara": 13160, "ĠPred": 13161, "ĠChi": 13162, "Ã¼ck": 13163, "vor": 13164, "ecek": 13165, "alin": 13166, "_d": 13167, "Ġplace": 13168, "Ġmulti": 13169, "Ġmodern": 13170, "ĠdeÄŁ": 13171, "ĠPaul": 13172, "é¢ĺ": 13173, "à³Ĩà²¸": 13174, "Ð¾Ð»Ð¾Ð³Ð¸Ñı": 13175, "Ð°ÑĢÑĥÑģ": 13176, "Ð°Ð¼Ð¾": 13177, "Î¥": 13178, "Äĵja": 13179, "Äįek": 13180, "ľìķ": 13181, "Ġuporab": 13182, "Ġilg": 13183, "Ġbundles": 13184, "ĠResp": 13185, "ĠCop": 13186, "à°¿à°Ĺ": 13187, "ÐĲÐ¢": 13188, "Î¾Î·": 13189, "¥áĢ": 13190, "rej": 13191, "irin": 13192, "Ġä¸ī": 13193, "ĠØ§Øª": 13194, "ĠÐŀÐ´": 13195, "ĠÃ¡t": 13196, "Ġlov": 13197, "Ġhotell": 13198, "à´¿à´Łàµįà´Ł": 13199, "Ã®n": 13200, "tua": 13201, "orang": 13202, "Ġ×Ķ×ĵ": 13203, "ĠÑĤÐ¾Ð¼": 13204, "ĠÑģÐ¿ÐµÑĨ": 13205, "ĠÃĲÂµÃĲ": 13206, "Ġej": 13207, "ĠHi": 13208, "à®¿à®´": 13209, "ÚĻ": 13210, "Ã°um": 13211, "ĤáĢ": 13212, "Ġà¸Ĺà¸µà¹Ī": 13213, "Ġà¨«": 13214, "Ġteng": 13215, "Ġsvar": 13216, "Ġsot": 13217, "Ġpasa": 13218, "ĠhÃ¡": 13219, "Ġcontinu": 13220, "áĥĺáĥ¡áĥ¢": 13221, "à¥ĩà¤µ": 13222, "vez": 13223, "Ġsle": 13224, "ĠBed": 13225, "å¸Ī": 13226, "å¦Ĥ": 13227, "ãĥ¼ãĥĪ": 13228, "áŀĩáŀ¶": 13229, "ÙĲÙĬ": 13230, "Õ¸Õ¿": 13231, "ÄĻd": 13232, "niri": 13233, "Ġèĩ": 13234, "Ġæ¾": 13235, "Ġà¶ļà·ħ": 13236, "ĠÕºÕ¥Õ¿": 13237, "Ġnez": 13238, "ĠHow": 13239, "è®º": 13240, "äºĽ": 13241, "áº¥y": 13242, "à°Ĥà°ļ": 13243, "Ð¸ÑģÑĮ": 13244, "ÐµÐ³Ð¾": 13245, "Ä¾a": 13246, "Ãºng": 13247, "jÃ«": 13248, "Ġà¤µà¥įà¤¯": 13249, "ĠÃ¢": 13250, "Ġmoz": 13251, "Ġfiz": 13252, "Ġfebru": 13253, "íĸĪëĭ¤": 13254, "éĺ³": 13255, "à±įà°²à±ģ": 13256, "à¨¸à¨¼": 13257, "Õ¸ÖĢÕ¤": 13258, "idd": 13259, "ESS": 13260, "Ġ×ŀ×ŀ×": 13261, "Ġtax": 13262, "Ġpont": 13263, "Ġmum": 13264, "Ġdokument": 13265, "áŁĲáŀĻ": 13266, "à¹Ģà¸Ľà¹ĩà¸Ļ": 13267, "ÙĨÙĩ": 13268, "×¨×Ĳ×ľ": 13269, "quer": 13270, "Ġìľł": 13271, "Ġæ²": 13272, "ĠØ¨Ø§Ø´": 13273, "ĠÒĽÑĭÐ·": 13274, "ĠtÃŃ": 13275, "Ġemp": 13276, "áĥĲáĥłáĥĺ": 13277, "Ġà¤ªà¤¹": 13278, "ĠÙ¾Ûģ": 13279, "ĠÕ¡Õ·": 13280, "ĠÑħÐ°Ð»": 13281, "Ġhang": 13282, "Ġgibi": 13283, "Ġdoen": 13284, "Ġdarb": 13285, "ĠLab": 13286, "ĠFra": 13287, "ĠEste": 13288, "ãĤŃ": 13289, "à¥įà¤·": 13290, "Ġä¹Ĳæ©Ļ": 13291, "Ġà²¹à³Ĭ": 13292, "Ġà°²à±ĭ": 13293, "ĠÑĥÐ¼": 13294, "ĠÄ«": 13295, "ĠPerson": 13296, "Ã¸y": 13297, "lie": 13298, "iene": 13299, "atin": 13300, "arkan": 13301, "Ġáį£": 13302, "ĠáĪĿ": 13303, "ĠàªĨàªª": 13304, "Ġzur": 13305, "Ġproper": 13306, "ĠTab": 13307, "Ġ101": 13308, "à±ĩà°°": 13309, "à«ĩàªķ": 13310, "Î¹Î½": 13311, "win": 13312, "wie": 13313, "olla": 13314, "oe": 13315, "Ġrezult": 13316, "Ġpier": 13317, "Ġdov": 13318, "Ġchá»ī": 13319, "Ġcad": 13320, "ĠPed": 13321, "ĠKaw": 13322, "ĠJuly": 13323, "ĠFrank": 13324, "ãģ«ãģ¯": 13325, "àª¾àª°à«ĩ": 13326, "Úĸ": 13327, "roz": 13328, "owi": 13329, "hoz": 13330, "ĠÐ¼Ð¾Ð»": 13331, "Ġuwsa": 13332, "Ġtym": 13333, "Ġpeny": 13334, "Ġosob": 13335, "Ġmemil": 13336, "ĠProduc": 13337, "ĠPu": 13338, "ĠEf": 13339, "çİĭ": 13340, "áĥĿáĥ¤": 13341, "à²°à²¿à²¸": 13342, "à²¨à³ģ": 13343, "à¤ł": 13344, "Ùį": 13345, "Ø§ÙĨÙĬ": 13346, "das": 13347, "arÃ¡": 13348, "ĠÐ¿ÑĢÐ¾Ð³ÑĢ": 13349, "Ġtema": 13350, "Ġselle": 13351, "Ġkuko": 13352, "ĠBL": 13353, "ĠAlle": 13354, "Ġ.....": 13355, "à´¾à´¸": 13356, "à³Į": 13357, "Äĥri": 13358, "yz": 13359, "Ġfik": 13360, "Ġaang": 13361, "Ġ/>": 13362, "tab": 13363, "itra": 13364, "gende": 13365, "anse": 13366, "288": 13367, "ħáĢ¬áĢ¸áĢ": 13368, "ĠÛģÛĮ": 13369, "ĠÙĥÙĦ": 13370, "ĠÑĤÐµÐº": 13371, "Ġshi": 13372, "ĠmyÃ¶s": 13373, "Ġbekezd": 13374, "ĠInt": 13375, "ĠFeb": 13376, "ï¼Ĳ": 13377, "æĸ¯": 13378, "ä¸Ģä¸ª": 13379, "à±Ģà°¸": 13380, "Õ¡Õ©": 13381, "ÏģÎµÏĤ": 13382, "Ã¡lnÃŃ": 13383, "wij": 13384, "lÃ¡": 13385, "jÃ³r": 13386, "erde": 13387, "ĠåĬ": 13388, "Ġà°«": 13389, "ĠÄĳá»Ļng": 13390, "Ġua": 13391, "ĠnÃ¦r": 13392, "ĠEX": 13393, "ĠArtikel": 13394, "à¶ºà¶§": 13395, "ÙĪÙģ": 13396, "Ã¥nd": 13397, "yrbil": 13398, "Ġìĭł": 13399, "Ġä»Ĭ": 13400, "ĠÑĤÒ¯ÑĢ": 13401, "ĠÃ§ox": 13402, "Ġrast": 13403, "Ġfort": 13404, "ĠPot": 13405, "Ġ')": 13406, "æĪĺ": 13407, "á»Ĺ": 13408, "à¹īà¸²à¸ĩ": 13409, "à¨¿à©±à¨ļ": 13410, "à¤¾à¤¨à¥ĩ": 13411, "Ð¾Ð¾": 13412, "Å¡tÄĽ": 13413, "Äįiau": 13414, "tÄ±r": 13415, "ĠÒ²": 13416, "ĠÐ¿ÑĢÐ¾Ð¸Ð·Ð²": 13417, "ĠÐ½ÐµÐ´": 13418, "ĠÐ®": 13419, "Ġlle": 13420, "ĠKit": 13421, "ĠDig": 13422, "ãģĦãģŁ": 13423, "ÖĢÕ¡": 13424, "Ð½Ð¾ÑģÑĤÑĮ": 13425, "Ä©": 13426, "stru": 13427, "iteit": 13428, "ioon": 13429, "Or": 13430, "ĽáĢ½áĢŃáĢ": 13431, "Ġì¶Ķ": 13432, "Ġà¤¸à¤°": 13433, "ĠÙĪÛĮ": 13434, "Ġsort": 13435, "Ġside": 13436, "ìĿ´ëĭ¤": 13437, "ç§į": 13438, "à¸Ĺà¸¢": 13439, "ÑįÑįÐ»": 13440, "Ð°ÑĤÐµÐ»ÑĮ": 13441, "itza": 13442, "ĠÃ©v": 13443, "Ġhebben": 13444, "Ġbok": 13445, "ĠMoliner": 13446, "ĠApple": 13447, "ëĳ": 13448, "æĹł": 13449, "à¸±à¸ģ": 13450, "×Ļ×£": 13451, "Ä±sÄ±": 13452, "unun": 13453, "rÃ©": 13454, "Sub": 13455, "ĠØ®Ø¯Ùħ": 13456, "Ġprej": 13457, "ĠPil": 13458, "ĠAlex": 13459, "èģĶ": 13460, "çĹ": 13461, "æīĵ": 13462, "osten": 13463, "ĠëĲ": 13464, "ĠØ¹ÙħÙĦ": 13465, "Ġ×Ķ×ŀ×©": 13466, "ĠÕĬ": 13467, "ĠÐļÐ¾Ð¼": 13468, "Ġvik": 13469, "Ġpublik": 13470, "Ġarm": 13471, "ĠTH": 13472, "ĠSouth": 13473, "ĠApart": 13474, "Ġ210": 13475, "Ø³ÙĬ": 13476, "Öħ": 13477, "ject": 13478, "azz": 13479, "Ġë§Į": 13480, "Ġlati": 13481, "ĠGalaxy": 13482, "ĠCP": 13483, "æĬķæ³¨": 13484, "à³Ĭà²Ĥà²¡": 13485, "Õ¡Õ¶Öģ": 13486, "Ã½s": 13487, "«áĢ": 13488, "sb": 13489, "ension": 13490, "ľáĢ¯áĢķáĢ¹áĢ": 13491, "Ġçľ": 13492, "Ġáĥ¨áĥĶáĥĽ": 13493, "Ġà¨ĩà¨¸": 13494, "ĠÑģÑĤÐ°ÑĢ": 13495, "Ġsá»±": 13496, "ĠVel": 13497, "ä»Ģä¹Ī": 13498, "ÛĮÙĨÛĮ": 13499, "utas": 13500, "agt": 13501, "Ġëĵ±": 13502, "Ġà¨µà¨¿à©±à¨ļ": 13503, "ĠÑĥÐ¿": 13504, "Ġetter": 13505, "áĥĸ": 13506, "à«įàª¯à«ĭ": 13507, "Ù¼": 13508, "Ð½Ð¸ÐºÐ°": 13509, "Ã©ri": 13510, "Ġ×©×ĳ": 13511, "ĠÐłÐħ": 13512, "ĠÐĲÐ±": 13513, "Ġfu": 13514, "Ġexc": 13515, "Ġdispon": 13516, "ĠHigh": 13517, "Ġ240": 13518, "à¤¢": 13519, "Ð»Ñĥ": 13520, "lak": 13521, "esearch": 13522, "DR": 13523, "Ġà°ªà±Ĩ": 13524, "Ġdyn": 13525, "ĠcatalogGroup": 13526, "szer": 13527, "inni": 13528, "ickÃ©": 13529, "arin": 13530, "Ġëª¨íħĶ": 13531, "ĠØŃØ§ÙĦ": 13532, "ĠÑįÑĤÐ¾": 13533, "Ġovat": 13534, "Ġmart": 13535, "ĠdÃ©c": 13536, "Ġaiz": 13537, "è¿ĺ": 13538, "Ð¸ÑģÑı": 13539, "tte": 13540, "lÃ¤": 13541, "anu": 13542, "CO": 13543, "ĠåĨ": 13544, "Ġtransport": 13545, "Ġkabel": 13546, "åĶ": 13547, "áº£o": 13548, "orde": 13549, "estr": 13550, "Ġà¹Ģà¸ŀ": 13551, "Ġà´Ń": 13552, "Ġ×¤×ķ×Ł": 13553, "Ġweight": 13554, "Ġwaxa": 13555, "Ġtelev": 13556, "ĠnÃŃ": 13557, "Ġhover": 13558, "Ġdisp": 13559, "æģ¯": 13560, "áŁ¢": 13561, "à¦¾à¦°à§įà¦": 13562, "×Ļ×ŀ×": 13563, "ÅĿ": 13564, "ungu": 13565, "oen": 13566, "nn": 13567, "ELE": 13568, "ĠìĻ": 13569, "ĠÚ©Ø§Ùħ": 13570, "Ġvac": 13571, "Ġhiá»ĩn": 13572, "Ġgast": 13573, "Ġfamily": 13574, "Ġark": 13575, "à¸³à¸«à¸£à¸±à¸ļ": 13576, "ÑģÐºÐ°ÑĤÐ°": 13577, "Ð¾ÑģÑĤÐ¸": 13578, "werk": 13579, "hel": 13580, "123": 13581, "Ġæ³": 13582, "Ġáŀĸáŀ¸": 13583, "ĠáĤ": 13584, "Ġà¹Ģ": 13585, "Ġà®Ĵà®°": 13586, "Ġkontrol": 13587, "Ġguz": 13588, "Ġalign": 13589, "ĠLast": 13590, "ëłĪ": 13591, "à°Ĥà°Ĺ": 13592, "ÕĨ": 13593, "Ð§": 13594, "ulta": 13595, "rian": 13596, "reas": 13597, "nav": 13598, "Ġå¿«": 13599, "Ġä¸Ĭ": 13600, "Ġà¨²à¨Ī": 13601, "Ġfavor": 13602, "ĠMc": 13603, "ĠGj": 13604, "à²¾à²£": 13605, "ÙĪÙĩ": 13606, "×¢×Ŀ": 13607, "ÐķÐł": 13608, "Ð°ÑĨÐ¸Ð¾Ð½": 13609, "tib": 13610, "ĠìľĦ": 13611, "Ġåº": 13612, "Ġmess": 13613, "Ġip": 13614, "Ġavea": 13615, "ĠMath": 13616, "Ġî": 13617, "áº¿u": 13618, "à´¿à´²àµĨ": 13619, "±áĢĲáĢ¬": 13620, "utako": 13621, "onas": 13622, "ensa": 13623, "ĠëıĻ": 13624, "Ġà¤ħà¤¸": 13625, "ĠÕĢÕ¡ÕµÕ¡Õ½Õ¿": 13626, "ĠÐľÐ¸Ð½": 13627, "Ġsuch": 13628, "Ġspi": 13629, "ĠMobile": 13630, "Õ¶Õ¥Õ¬": 13631, "Ã¿": 13632, "zel": 13633, "vod": 13634, "til": 13635, "agra": 13636, "ĠâĦ¢": 13637, "Ġà²İà²Ĥà²¦à³ģ": 13638, "Ġolla": 13639, "Ġlie": 13640, "à¸Ńà¸ģà¸": 13641, "à²Ĥà²Ĺ": 13642, "à²¾à²¤": 13643, "à°¾à°¡à±ģ": 13644, "Ú©Ùĩ": 13645, "ulla": 13646, "sku": 13647, "geb": 13648, "ental": 13649, "Ġà¦¨à¦¿à¦": 13650, "ĠØ¯ÙĨ": 13651, "ĠÐ³Ð¾Ð´Ð¸Ð½Ð°": 13652, "Ġthumb": 13653, "Ġrat": 13654, "Ġbonus": 13655, "Ġä»ĸ": 13656, "Ġàªķàª°à«Ģ": 13657, "Ġà¤°à¤¾à¤ľ": 13658, "ĠÐ¹Ñŀ": 13659, "ĠÐ±Ð°Ð½": 13660, "Ġtex": 13661, "Ġprofess": 13662, "Ġic": 13663, "Ġexpl": 13664, "à«įàª¯àª¾": 13665, "ÑĸÐ¶": 13666, "ÉĻz": 13667, "Ã¢u": 13668, "tak": 13669, "icar": 13670, "GAA": 13671, "ĠæĹ¥": 13672, "Ġnháº¥t": 13673, "Ġdá»¥ng": 13674, "ĠEen": 13675, "Ġ123": 13676, "æľĢæĸ°": 13677, "æ²»": 13678, "ãĥł": 13679, "×¢×ª": 13680, "ÐºÐ°ÑĤÐ°": 13681, "Ä«m": 13682, "urb": 13683, "tere": 13684, "skar": 13685, "atr": 13686, "atar": 13687, "Ġà¤ķà¤¾à¤°à¥įà¤¯": 13688, "ĠØ´ÙĨ": 13689, "ĠÕ¡Õ¼Õ¡Õ»": 13690, "Ġyake": 13691, "æł·": 13692, "áŁģáŀĦ": 13693, "à·Ĵà¶¸": 13694, "à©Ģà¨Ĥ": 13695, "à¥įà¤§": 13696, "×ĺ×¨": 13697, "Ð¾ÑĤÐ¾Ð²": 13698, "Ð¸Ð½Ñĥ": 13699, "view": 13700, "Ġæ±": 13701, "ĠáŀļáŀĶáŀŁáŁĭ": 13702, "Ġà¤ħà¤§": 13703, "Ġfly": 13704, "ĠKab": 13705, "Ġ111": 13706, "Ð¼Ð¾ÑĤÑĢ": 13707, "ÏĢÎµÎ¹": 13708, "Ã¡rio": 13709, "stvo": 13710, "lor": 13711, "got": 13712, "Ġçī": 13713, "Ġmaka": 13714, "Ġmade": 13715, "ĠgÃ¶z": 13716, "ĠStand": 13717, "ëĿ¼ìĿ¸": 13718, "à®¸": 13719, "Õ¡Õ¦Õ´": 13720, "Õ¡Õª": 13721, "rou": 13722, "llÃ¤": 13723, "imen": 13724, "ĠØŃÙĤ": 13725, "ĠÐĵÑĢ": 13726, "ĠÃ®ntÃ¢lniri": 13727, "Ġott": 13728, "Ġcul": 13729, "ĠIh": 13730, "ĠEgy": 13731, "à¦¾à¦ģ": 13732, "»¤": 13733, "iman": 13734, "ĠØ³ÙĨ": 13735, "ĠÐ´ÐµÑĤ": 13736, "Ġskup": 13737, "ãģ§ãģ¯": 13738, "áŀŁáŁĴáŀŁ": 13739, "Ð»ÑĸÐº": 13740, "ÐºÑģ": 13741, "nou": 13742, "ended": 13743, "dress": 13744, "ĠÃºl": 13745, "ĠTod": 13746, "ĠNET": 13747, "ĠMaria": 13748, "Ð¼Ñĥ": 13749, "Ð³Ð°Ð°": 13750, "wid": 13751, "ples": 13752, "ojÃ«": 13753, "ares": 13754, "Ġsá»ĳ": 13755, "Ġsve": 13756, "Ġandere": 13757, "ĠPDF": 13758, "ĠMem": 13759, "ĠBag": 13760, "à¹Īà¸²à¸¢": 13761, "à¦¾à¦¦à§ĩà¦°": 13762, "à¤¾à¤¡": 13763, "ÑĥÑĭ": 13764, "Ð½Ð¾ÑĤÐ¾": 13765, "rei": 13766, "mus": 13767, "alarÄ±": 13768, "Ġàª¤à«ĭ": 13769, "ĠØ¨Ú¾": 13770, "ĠÕ¿Õ¥Õ²": 13771, "ĠÐ¾ÑĢÐ³Ð°Ð½Ð¸Ð·": 13772, "Ġimpl": 13773, "è¢«": 13774, "Ã¼let": 13775, "isse": 13776, "isia": 13777, "eyn": 13778, "atzeko": 13779, "________________": 13780, "JA": 13781, "Ġå¦": 13782, "Ġà¦ĺ": 13783, "ĠØ§ÙĪÙĦ": 13784, "ĠÑļ": 13785, "ĠCab": 13786, "çķĮ": 13787, "æ¸¯": 13788, "ãģĦãģ¦": 13789, "à¹īà¸ĩ": 13790, "à¦¾à¦§": 13791, "×ľ×ª": 13792, "time": 13793, "rel": 13794, "kou": 13795, "Ġgut": 13796, "Ġarch": 13797, "áĥķáĥĶáĥľ": 13798, "à¶±à·Ķ": 13799, "Þ¦": 13800, "Ð¼Ð¾": 13801, "Ð°Ð»Ð¾": 13802, "Ġà¦Ĩà¦°": 13803, "ĠÑĤÐ°ÑĪ": 13804, "ĠÑģÐ¸ÑģÑĤÐµÐ¼": 13805, "ĠÐ·Ð½Ð°Ñĩ": 13806, "ĠkÃ¶r": 13807, "Ġkis": 13808, "Ġarea": 13809, "ĠCL": 13810, "á»ĩc": 13811, "à¤¾à¤ķà¥ĭ": 13812, "ÙĪÙĨÙĪ": 13813, "ÐµÑĩÐµ": 13814, "Ã«tÃ«": 13815, "zenie": 13816, "ologia": 13817, "iche": 13818, "Ġà´ļàµĨà´¯": 13819, "Ġà¤ªà¤¨à¤¿": 13820, "Ġorganis": 13821, "Ġdad": 13822, "Ó©ÑĤ": 13823, "ÐµÐ¼Ð»ÐµÐº": 13824, "vs": 13825, "arten": 13826, "Ch": 13827, "Ġáŀ¢áŁĴáŀĵáŀĢ": 13828, "Ġáĥļ": 13829, "ĠÑĤÓ©ÑĢ": 13830, "ĠÐµÑĤ": 13831, "Ġcy": 13832, "ĠNd": 13833, "ĠÕ¡Õ¾": 13834, "é¤": 13835,
[...]
