<unk>	0
<s>	0
</s>	0
<pad>	0
▁	-3.17453
,	-3.77688
.	-3.85487
s	-4.50234
a	-4.85831
e	-5.12856
i	-5.1489
-	-5.17995
:	-5.34051
▁de	-5.46169
t	-5.53226
o	-5.54838
▁a	-5.63367
u	-5.80056
▁-	-5.82301
n	-5.83314
)	-5.90859
▁(	-5.96103
y	-6.03966
en	-6.04761
/	-6.23423
d	-6.23532
▁na	-6.28112
m	-6.29935
▁i	-6.31666
▁la	-6.31737
▁in	-6.33129
er	-6.35622
an	-6.36074
r	-6.37287
'	-6.45089
▁e	-6.4862
k	-6.49569
▁en	-6.50273
▁sa	-6.5307
▁|	-6.55034
in	-6.57369
’	-6.64568
▁A	-6.65688
g	-6.72593
es	-6.73887
te	-6.76805
ta	-6.77082
▁di	-6.77384
na	-6.7789
c	-6.78001
da	-6.78775
▁o	-6.80473
h	-6.81426
▁S	-6.83151
ar	-6.86556
z	-6.87783
▁to	-6.87794
b	-6.8799
...	-6.88919
l	-6.89735
ne	-6.90903
▁se	-6.93853
de	-6.94159
▁–	-6.96191
?	-6.96438
ka	-6.97283
p	-6.98411
le	-7.00245
ni	-7.01391
as	-7.02317
а	-7.02495
▁da	-7.03763
!	-7.04461
ing	-7.05598
▁на	-7.06914
▁do	-7.07364
▁"	-7.08185
▁1	-7.0861
и	-7.10226
"	-7.11151
▁the	-7.11323
re	-7.11998
li	-7.12456
▁v	-7.14851
to	-7.15872
al	-7.16782
la	-7.16919
▁og	-7.17553
f	-7.17681
ti	-7.18148
▁ka	-7.18226
et	-7.18639
j	-7.19433
▁un	-7.21164
x	-7.21189
is	-7.21433
▁que	-7.21829
si	-7.22871
;	-7.23132
ja	-7.23349
▁I	-7.23495
▁M	-7.24833
▁of	-7.27392
v	-7.27619
ga	-7.27662
▁s	-7.27673
ed	-7.2772
S	-7.28157
w	-7.28287
▁at	-7.28367
▁2	-7.2844
▁d	-7.29858
▁“	-7.30424
▁for	-7.31315
at	-7.31473
▁/	-7.31621
▁and	-7.31785
▁l	-7.31806
ko	-7.3202
A	-7.32871
it	-7.33357
▁on	-7.33695
▁ya	-7.33821
os	-7.35965
▁T	-7.37731
_	-7.37875
▁le	-7.38107
no	-7.38288
▁B	-7.38423
ma	-7.39192
▁3	-7.40528
▁ku	-7.41351
▁si	-7.41774
▁is	-7.42348
on	-7.42509
▁te	-7.43537
ra	-7.43643
▁C	-7.43853
▁m	-7.44019
”	-7.44357
▁E	-7.44466
▁z	-7.44617
se	-7.45366
▁za	-7.45577
▁er	-7.46237
C	-7.47468
▁K	-7.47749
▁ja	-7.4802
2	-7.48111
▁je	-7.48928
us	-7.49105
com	-7.50277
▁el	-7.51008
D	-7.51585
ak	-7.51743
у	-7.51826
ch	-7.5226
▁per	-7.53922
▁wa	-7.54083
▁и	-7.54967
st	-7.56601
ki	-7.57218
di	-7.58713
е	-7.58934
▁u	-7.59284
ri	-7.5939
▁4	-7.59477
3	-7.59536
B	-7.59552
▁O	-7.59681
▁за	-7.60812
me	-7.61665
▁10	-7.61687
1	-7.6174
▁P	-7.62691
▁D	-7.63136
wa	-7.63323
▁ne	-7.63799
je	-7.64158
ce	-7.64354
▁no	-7.64617
▁të	-7.64799
ur	-7.64845
▁du	-7.65368
ke	-7.65614
ی	-7.66004
(	-7.66091
▁V	-7.66353
▁po	-7.66925
▁be	-7.67045
sa	-7.67143
▁5	-7.67732
▁L	-7.68629
ul	-7.69101
ir	-7.69153
▁me	-7.69642
id	-7.71451
ve	-7.71763
mi	-7.71948
▁al	-7.7268
q	-7.72981
▁an	-7.7301
kan	-7.73067
▁die	-7.73227
▁yang	-7.73357
▁La	-7.73428
ro	-7.73856
ku	-7.73894
E	-7.74476
K	-7.75578
▁dan	-7.76233
،	-7.76485
ge	-7.76498
il	-7.76521
lar	-7.77349
▁H	-7.78757
▁van	-7.78792
▁N	-7.78818
▁pa	-7.7904
do	-7.79176
T	-7.79294
▁«	-7.79409
ba	-7.8008
F	-7.80344
el	-7.80361
tu	-7.80865
▁و	-7.81024
▁G	-7.81866
ya	-7.82554
N	-7.82656
ca	-7.82954
▁ki	-7.83159
ha	-7.83173
▁et	-7.83305
▁в	-7.83464
▁F	-7.83981
4	-7.8414
▁De	-7.85224
un	-7.85792
va	-7.85911
lo	-7.85978
▁k	-7.86394
▁til	-7.86702
▁re	-7.8692
um	-7.86947
ه	-7.87019
am	-7.8756
ci	-7.87845
://	-7.88127
ia	-7.88193
▁su	-7.88526
be	-7.88741
em	-7.88949
▁R	-7.89101
▁på	-7.89798
í	-7.90549
▁ko	-7.90606
▁w	-7.90873
▁ke	-7.9092
▁ta	-7.9129
▁para	-7.91339
▁y	-7.91693
|	-7.92316
▁del	-7.92325
▁con	-7.92464
ek	-7.92495
▁med	-7.92549
M	-7.92651
▁»	-7.94465
▁ng	-7.94547
▁ma	-7.94752
的	-7.95466
▁12	-7.95472
▁so	-7.95919
é	-7.96086
▁U	-7.96777
za	-7.97142
▁ar	-7.97152
ng	-7.97811
▁ni	-7.97956
▁ve	-7.97998
P	-7.98159
▁6	-7.98167
▁#	-7.984
▁by	-7.9876
»	-8.004
▁0	-8.0043
ny	-8.01172
▁ال	-8.0124
V	-8.01587
▁va	-8.0188
5	-8.02006
]	-8.02195
▁:	-8.028
0	-8.02985
man	-8.03596
mo	-8.03602
▁ang	-8.03661
G	-8.03767
ten	-8.04735
▁у	-8.05145
▁20	-8.05257
W	-8.06206
ly	-8.06384
▁bo	-8.06821
▁av	-8.07283
or	-8.07369
▁ir	-8.07971
ie	-8.08121
т	-8.08377
▁11	-8.08826
▁15	-8.08913
▁som	-8.09508
▁2019	-8.09857
на	-8.10042
ho	-8.10632
▁li	-8.10709
▁ה	-8.10967
м	-8.11282
nya	-8.12033
zi	-8.1225
я	-8.1246
。	-8.12942
▁19	-8.1303
▁да	-8.13108
▁&	-8.13564
L	-8.13679
▁2018	-8.13801
▁7	-8.13871
▁ha	-8.14477
▁g	-8.1448
▁8	-8.14632
▁по	-8.1483
6	-8.14838
▁har	-8.15462
=	-8.15582
8	-8.16147
▁„	-8.16154
н	-8.16282
▁op	-8.16421
po	-8.16554
om	-8.16781
▁vi	-8.17029
ни	-8.17103
im	-8.17301
▁In	-8.17584
▁18	-8.17715
7	-8.18311
O	-8.18429
I	-8.18657
▁om	-8.18793
▁W	-8.19037
H	-8.19157
▁der	-8.19713
),	-8.19805
▁2017	-8.20435
ка	-8.20565
▁pe	-8.20888
▁The	-8.20966
go	-8.21511
▁af	-8.21686
ter	-8.21771
gi	-8.22035
▁ver	-8.22254
▁as	-8.22376
да	-8.22425
о	-8.226
9	-8.22631
х	-8.22649
▁kan	-8.22914
­	-8.22962
▁var	-8.23192
▁t	-8.23282
▁në	-8.23553
ы	-8.23841
▁b	-8.23871
▁14	-8.24018
▁د	-8.24177
#	-8.2442
、	-8.24423
ة	-8.24429
▁16	-8.25012
pa	-8.25289
R	-8.25329
den	-8.25338
▁eta	-8.25441
ji	-8.25485
▁det	-8.25591
▁с	-8.26228
▁[	-8.26241
с	-8.26466
▁13	-8.26712
▁ge	-8.26714
th	-8.2675
▁Na	-8.27199
д	-8.2735
▁nga	-8.27564
▁Re	-8.2757
ning	-8.28464
co	-8.28679
du	-8.2877
▁að	-8.29003
▁á	-8.29047
ի	-8.29083
▁den	-8.29117
▁>	-8.29146
▁het	-8.29246
▁x	-8.29259
ina	-8.29399
we	-8.29449
▁por	-8.29879
ru	-8.30074
lik	-8.30239
‘	-8.30287
।	-8.3034
та	-8.30363
▁Z	-8.30553
▁tu	-8.30635
▁Se	-8.30807
▁کے	-8.30831
▁och	-8.31921
л	-8.32166
+	-8.32226
▁n	-8.3232
▁í	-8.32561
і	-8.32854
vi	-8.32972
▁les	-8.33003
ver	-8.33503
ā	-8.3352
bo	-8.3354
▁pre	-8.33542
mu	-8.33901
).	-8.34076
ut	-8.34169
▁...	-8.34422
he	-8.34958
▁17	-8.34969
▁h	-8.35189
▁p	-8.35207
▁par	-8.35354
ang	-8.35949
▁bi	-8.35983
ad	-8.36238
▁um	-8.37015
“	-8.3707
ي	-8.37092
▁il	-8.37116
▁9	-8.38434
▁c	-8.38814
▁Le	-8.38912
ov	-8.39
▁mi	-8.39253
ž	-8.39882
pe	-8.40045
▁ב	-8.40257
▁'	-8.40393
ju	-8.40776
га	-8.41038
▁се	-8.41171
ler	-8.41241
ai	-8.41257
▁ay	-8.41414
▁€	-8.4151
Z	-8.4174
▁J	-8.4202
▁ba	-8.42156
ik	-8.42478
но	-8.42601
hi	-8.4294
der	-8.42948
▁Sa	-8.43631
▁No	-8.43698
▁pro	-8.4389
▁od	-8.44117
ą	-8.44372
lu	-8.44879
ê	-8.45117
▁cu	-8.45378
X	-8.45488
ze	-8.45552
▁Al	-8.45588
▁es	-8.45682
bi	-8.45902
▁Di	-8.45951
á	-8.46263
so	-8.466
к	-8.46608
jo	-8.47327
▁bu	-8.47428
ă	-8.47866
▁ber	-8.47925
dan	-8.4807
▁2016	-8.48375
ó	-8.4863
▁mu	-8.48858
▁und	-8.49571
г	-8.49678
й	-8.49903
▁не	-8.49924
▁کی	-8.50102
▁En	-8.50351
▁een	-8.5038
▁à	-8.52235
▁El	-8.52265
▁Ka	-8.52592
▁men	-8.5261
ok	-8.52643
ot	-8.52768
▁una	-8.52786
▁21	-8.52813
▁des	-8.52814
▁30	-8.53948
fa	-8.54017
ita	-8.54096
▁ra	-8.54824
vo	-8.55293
▁për	-8.5534
▁και	-8.55694
▁fa	-8.55878
ה	-8.56226
▁man	-8.56245
▁Be	-8.56599
▁ca	-8.57081
ty	-8.57109
J	-8.5716
▁kwa	-8.57304
tar	-8.57393
š	-8.57434
▁з	-8.57538
ш	-8.57907
▁bir	-8.5829
▁22	-8.5835
Y	-8.58471
ts	-8.58724
▁24	-8.58922
▁nu	-8.58972
lan	-8.59055
ہ	-8.59154
ada	-8.59159
&	-8.59798
▁din	-8.59933
U	-8.60021
▁em	-8.60195
▁م	-8.60289
sta	-8.6038
▁oo	-8.61115
▁Vi	-8.61139
ات	-8.61174
ine	-8.61357
ig	-8.61462
▁در	-8.61538
▁f	-8.61704
ky	-8.62008
▁An	-8.62164
bu	-8.62198
▁with	-8.62418
▁С	-8.62494
ж	-8.62645
ol	-8.63025
▁mo	-8.63108
www	-8.63218
▁att	-8.63395
iz	-8.63538
▁com	-8.63724
▁‘	-8.63964
▁է	-8.64016
▁Ma	-8.64209
men	-8.64565
ren	-8.64646
▁میں	-8.64729
▁•	-8.64907
gu	-8.65007
▁dhe	-8.65191
zo	-8.65246
р	-8.65577
▁X	-8.65604
▁ho	-8.65914
ry	-8.65957
▁من	-8.66046
ud	-8.66083
ا	-8.66112
ς	-8.66127
▁mga	-8.66348
sk	-8.66351
nu	-8.66401
ли	-8.66424
▁pri	-8.66797
▁met	-8.66844
ч	-8.6692
▁sem	-8.6707
né	-8.67089
ų	-8.6715
gen	-8.67207
▁To	-8.67349
▁23	-8.67358
▁во	-8.67447
var	-8.67532
10	-8.68733
tur	-8.6909
▁am	-8.69167
ou	-8.6928
yo	-8.69366
▁25	-8.69634
ú	-8.69712
▁Y	-8.69729
ken	-8.70029
kin	-8.70171
ana	-8.70355
▁km	-8.70393
▁és	-8.70688
▁—	-8.70728
ini	-8.71098
ment	-8.71379
tra	-8.71409
▁Po	-8.71426
▁Bu	-8.71915
su	-8.71954
▁ל	-8.72069
▁az	-8.72091
▁+	-8.72134
▁до	-8.72359
Q	-8.72441
▁2015	-8.72486
ye	-8.72674
و	-8.72743
▁iz	-8.72797
م	-8.72879
▁untuk	-8.72925
ers	-8.73159
▁you	-8.73212
▁ini	-8.73427
▁ob	-8.73499
by	-8.73644
ä	-8.73733
▁dengan	-8.73854
ë	-8.74001
▁2020	-8.74088
hu	-8.74781
ים	-8.74878
▁ter	-8.74913
fi	-8.74914
ت	-8.74947
ste	-8.75019
▁Pa	-8.75345
ը	-8.75346
▁Li	-8.75388
з	-8.75778
▁în	-8.75896
han	-8.76526
▁מ	-8.76751
не	-8.77195
▁од	-8.77608
ní	-8.77655
ks	-8.77919
▁or	-8.78115
asi	-8.78362
ton	-8.78398
от	-8.78409
are	-8.78557
▁Ta	-8.78627
ck	-8.78949
▁é	-8.7901
min	-8.7904
▁Home	-8.79129
▁fi	-8.79237
ş	-8.79567
ти	-8.79738
в	-8.79791
те	-8.79796
▁به	-8.79893
п	-8.79934
ber	-8.80756
の	-8.80878
▁jo	-8.81133
б	-8.81137
▁Ja	-8.81371
▁في	-8.81758
ado	-8.81927
▁nie	-8.82156
sen	-8.8233
uk	-8.8281
▁Per	-8.8286
▁lo	-8.83131
ում	-8.83256
▁tak	-8.83272
▁Da	-8.83291
io	-8.83562
pi	-8.83591
ки	-8.83615
▁ب	-8.83957
ла	-8.84023
sh	-8.84219
▁Si	-8.84356
▁co	-8.84367
>	-8.84437
▁Ne	-8.84697
ari	-8.84764
ach	-8.84841
ele	-8.84968
est	-8.85259
▁Me	-8.85365
▁а	-8.85745
▁ce	-8.85868
▁от	-8.85886
ма	-8.85907
▁mai	-8.85926
tion	-8.85947
ban	-8.86081
au	-8.86209
nie	-8.86432
12	-8.8652
dy	-8.86665
▁ny	-8.86686
ת	-8.86733
▁2014	-8.86763
▁http	-8.86836
cha	-8.86863
ben	-8.86909
▁Ko	-8.86922
î	-8.86987
▁för	-8.8705
▁і	-8.87242
ва	-8.87348
ile	-8.87391
▁со	-8.87885
ant	-8.8797
ker	-8.88025
▁Ar	-8.88107
▁che	-8.88191
tor	-8.88193
ven	-8.88283
che	-8.88376
ن	-8.88476
ska	-8.887
Р	-8.89685
▁Do	-8.90236
ej	-8.9034
▁go	-8.90457
à	-8.90627
ist	-8.90729
nt	-8.90788
▁το	-8.91072
▁we	-8.91184
▁r	-8.91318
ran	-8.91324
ner	-8.91481
org	-8.91707
▁У	-8.91916
▁Co	-8.91957
▁Mi	-8.92087
▁100	-8.92173
tan	-8.92665
ll	-8.92708
chi	-8.92804
per	-8.92863
ation	-8.93082
ն	-8.93119
mm	-8.93126
▁е	-8.93135
▁ga	-8.93323
son	-8.93644
ah	-8.94119
▁Mo	-8.94245
tas	-8.94411
▁ser	-8.94566
ite	-8.94622
▁voor	-8.94861
wi	-8.94868
ç	-8.94881
▁he	-8.95134
ية	-8.95275
▁Du	-8.95289
era	-8.95368
▁Ke	-8.95437
▁är	-8.95538
▁2013	-8.9557
oj	-8.95572
이	-8.95593
ez	-8.95636
cu	-8.95757
▁are	-8.95768
▁А	-8.95914
land	-8.96027
net	-8.96061
▁ri	-8.9627
▁Ku	-8.96481
▁о	-8.96708
د	-8.96748
ь	-8.96812
ل	-8.96828
▁Te	-8.96924
▁her	-8.97072
15	-8.97079
▁ti	-8.97233
aj	-8.97305
то	-8.97332
ere	-8.97354
μ	-8.97439
▁was	-8.97458
▁au	-8.97711
è	-8.98036
bar	-8.98256
val	-8.98386
ите	-8.98655
ili	-8.9874
র	-8.98791
20	-8.98814
α	-8.98829
▁that	-8.98862
▁Pro	-8.98931
mer	-8.98993
kar	-8.98998
ов	-8.99125
▁کا	-8.99308
▁50	-8.99393
▁Za	-8.99397
ल	-8.99399
▁2012	-8.99409
gan	-8.99602
30	-8.99616
▁του	-8.99653
tik	-8.99709
▁online	-8.99806
ger	-9.00304
ý	-9.00368
ung	-9.00406
▁К	-9.00461
ę	-9.00788
ida	-9.0089
°	-9.01244
ista	-9.01299
▁can	-9.01571
ent	-9.0179
▁Ki	-9.01856
tes	-9.02017
ди	-9.02192
ان	-9.02283
▁Ba	-9.02391
▁fra	-9.02462
ом	-9.02591
des	-9.02653
ен	-9.03253
▁kon	-9.03815
ster	-9.03963
ali	-9.04004
의	-9.0405
▁pas	-9.0424
tal	-9.0442
▁So	-9.04589
▁Mar	-9.04674
▁ju	-9.04874
▁پر	-9.05334
▁کو	-9.05385
▁over	-9.05537
י	-9.05583
zu	-9.05835
que	-9.06047
ат	-9.06071
dir	-9.06223
▁09	-9.06389
iga	-9.0645
С	-9.06539
▁1.	-9.06591
▁Bo	-9.06763
ih	-9.06917
▁Ver	-9.07077
gar	-9.07101
▁26	-9.07133
▁all	-9.07247
ab	-9.07332
лар	-9.07463
▁mar	-9.07578
lin	-9.07633
11	-9.07686
van	-9.07704
▁Ni	-9.07725
ку	-9.08042
▁vy	-9.08062
▁los	-9.08106
▁ap	-9.08187
▁%	-9.08211
을	-9.08319
▁å	-9.08321
▁27	-9.08401
▁28	-9.08455
ata	-9.0853
fe	-9.0886
▁os	-9.0893
%	-9.09039
ন	-9.09128
18	-9.09328
▁Con	-9.09369
mar	-9.09455
ami	-9.09618
▁са	-9.09744
▁ت	-9.09832
ά	-9.0992
▁Je	-9.10129
tel	-9.10144
▁ji	-9.10211
▁ل	-9.10407
▁mit	-9.10473
lla	-9.10833
ı	-9.10883
▁aan	-9.10978
न	-9.11024
▁pi	-9.11071
▁from	-9.11112
▁min	-9.11168
▁να	-9.11241
▁ah	-9.1126
▁из	-9.11356
ð	-9.11372
▁سے	-9.11388
fo	-9.11431
res	-9.11435
dar	-9.11522
▁اور	-9.11557
▁Ha	-9.11565
ے	-9.11699
▁Ang	-9.12006
mas	-9.12174
ο	-9.12227
ling	-9.12278
▁$	-9.12358
▁та	-9.124
▁В	-9.12416
ic	-9.12432
▁dari	-9.12734
▁və	-9.12747
vu	-9.12902
let	-9.12969
sti	-9.13044
ს	-9.13099
▁از	-9.13135
ال	-9.1317
ло	-9.13188
▁08	-9.13276
น	-9.13349
▁Pe	-9.1359
ю	-9.13661
sz	-9.13667
19	-9.13675
▁про	-9.13779
les	-9.14388
▁amb	-9.14438
】【	-9.14505
▁با	-9.14746
",	-9.14806
14	-9.15086
▁ee	-9.15187
▁Hotel	-9.15285
▁2011	-9.15431
▁при	-9.15447
ate	-9.15513
uri	-9.15639
ag	-9.15895
ft	-9.16082
ή	-9.16111
▁ut	-9.16188
ib	-9.16238
▁Tu	-9.1627
kon	-9.16305
16	-9.16331
▁så	-9.16426
▁של	-9.16581
ları	-9.16752
jen	-9.16762
▁it	-9.16947
▁Mu	-9.17013
▁·	-9.17178
▁Man	-9.17202
isi	-9.1721
س	-9.17425
ות	-9.17688
▁post	-9.1773
ό	-9.1778
▁Ge	-9.17963
ні	-9.17963
aren	-9.18003
▁Su	-9.18163
▁Bi	-9.18208
ion	-9.18214
▁PM	-9.18382
▁që	-9.18574
az	-9.18731
ên	-9.18765
ala	-9.18837
▁ch	-9.18894
一	-9.18932
13	-9.18952
17	-9.18993
ата	-9.19041
sel	-9.19043
nes	-9.19082
▁For	-9.19148
▁ei	-9.19166
uar	-9.19206
wo	-9.19287
ին	-9.19307
▁με	-9.19491
▁της	-9.1959
ش	-9.19748
▁О	-9.19959
”,	-9.2012
50	-9.20472
▁40	-9.20483
ara	-9.20657
lt	-9.20674
▁iyo	-9.20814
▁este	-9.20821
▁την	-9.20831
▁29	-9.20843
ona	-9.20853
▁ў	-9.20879
ə	-9.20915
▁sur	-9.20917
nin	-9.2107
मा	-9.21169
▁για	-9.21251
▁News	-9.21292
del	-9.21552
00	-9.21707
ა	-9.21729
up	-9.21968
大	-9.21976
ene	-9.22018
ů	-9.22018
▁và	-9.22026
ria	-9.22085
وں	-9.22156
▁von	-9.22194
ել	-9.22702
को	-9.22764
▁cho	-9.23
lari	-9.2313
ны	-9.23224
▁im	-9.23393
▁=	-9.23432
ting	-9.23438
ი	-9.23498
ndo	-9.23582
人	-9.23631
ið	-9.23668
▁pod	-9.23817
▁Er	-9.23957
ия	-9.24187
õ	-9.24251
ро	-9.24448
▁We	-9.24908
▁па	-9.2517
▁pu	-9.25193
tt	-9.25196
▁uz	-9.25272
▁dalam	-9.25342
▁Ri	-9.25425
▁hi	-9.25512
▁*	-9.25863
▁your	-9.25985
▁Ro	-9.26232
od	-9.26233
ap	-9.26279
▁yo	-9.263
án	-9.26384
ire	-9.26392
▁Men	-9.26431
▁από	-9.26506
▁الم	-9.26544
lah	-9.2659
vis	-9.26675
ów	-9.26712
="	-9.26721
▁2010	-9.2674
ná	-9.26835
ac	-9.26839
▁је	-9.27057
▁Wa	-9.27128
▁kar	-9.27227
▁mas	-9.27274
pan	-9.27324
▁Ti	-9.27338
ati	-9.27353
yan	-9.27361
▁Det	-9.2743
▁dat	-9.27487
▁një	-9.27491
ын	-9.275
在	-9.27507
▁ва	-9.27581
▁pour	-9.27619
fu	-9.27727
▁tra	-9.27771
▁že	-9.27846
ale	-9.27898
▁ci	-9.27908
▁till	-9.27935
ды	-9.28004
ila	-9.28039
*	-9.28139
mp	-9.28209
▁Ca	-9.28263
ira	-9.28289
č	-9.28363
▁(1)	-9.28444
▁Pre	-9.28467
де	-9.28531
▁07	-9.28543
▁cha	-9.28549
▁01	-9.28749
▁Il	-9.28877
ay	-9.28904
ais	-9.29139
ের	-9.29166
san	-9.29243
25	-9.29243
▁care	-9.29395
▁pag	-9.29414
▁Bar	-9.29497
▁https	-9.29606
▁this	-9.29627
▁Ho	-9.29739
len	-9.29754
▁zu	-9.29935
inn	-9.29943
una	-9.2996
pu	-9.30015
ে	-9.30141
sha	-9.30162
за	-9.3025
▁Fa	-9.30813
▁На	-9.31209
iti	-9.31313
iya	-9.31316
▁sy	-9.31323
tin	-9.31328
▁meg	-9.31472
ī	-9.31478
nd	-9.31583
▁نے	-9.31639
ika	-9.31645
ک	-9.31727
leri	-9.31819
▁می	-9.31834
▁pentru	-9.31859
rin	-9.3221
op	-9.32244
ens	-9.3227
ura	-9.32345
ц	-9.32411
ron	-9.32696
▁pada	-9.32714
kom	-9.32821
01	-9.32883
mos	-9.32894
ın	-9.33116
▁lu	-9.33157
ende	-9.33158
lang	-9.33191
át	-9.33241
my	-9.33364
▁Un	-9.33417
▁ein	-9.3345
дан	-9.33456
tre	-9.33486
ې	-9.33491
▁cm	-9.33717
▁tr	-9.3383
rá	-9.34029
▁Т	-9.34065
ide	-9.34093
年	-9.3413
▁das	-9.34133
▁Die	-9.34452
▁ا	-9.34458
▁kun	-9.3447
lle	-9.34523
rik	-9.34547
▁2.	-9.34562
▁<	-9.34723
▁Ra	-9.34872
las	-9.34872
ski	-9.34892
nda	-9.34995
▁He	-9.35023
bet	-9.35038
\	-9.35144
▁Go	-9.35185
å	-9.35435
ле	-9.35509
▁ze	-9.35571
▁As	-9.35577
ns	-9.35977
ske	-9.36083
▁uu	-9.36188
نا	-9.36194
▁có	-9.3638
万	-9.36389
kt	-9.36517
▁við	-9.36651
에	-9.36659
▁את	-9.36937
lat	-9.36993
ului	-9.37029
ко	-9.37073
ção	-9.37081
▁के	-9.37114
br	-9.37114
dor	-9.3725
▁agus	-9.3725
ő	-9.37412
▁my	-9.37475
▁û	-9.37538
par	-9.3761
▁Jo	-9.37625
▁06	-9.3763
ian	-9.37688
▁ro	-9.37713
▁ו	-9.37754
▁ou	-9.37853
24	-9.37865
▁ad	-9.37934
@	-9.37954
▁ak	-9.38043
▁video	-9.3805
ela	-9.38067
不	-9.3809
▁ikke	-9.38175
for	-9.38251
▁Online	-9.38257
eg	-9.38444
▁په	-9.38526
uje	-9.38527
ر	-9.387
able	-9.38731
shi	-9.38848
▁ہے	-9.38882
ले	-9.38948
र	-9.39177
ий	-9.39183
tter	-9.39243
[	-9.39282
▁San	-9.39511
▁han	-9.39663
▁ש	-9.39664
η	-9.39765
$	-9.39803
ور	-9.39872
ser	-9.39921
cz	-9.40036
▁Car	-9.40227
sch	-9.40335
lı	-9.40358
▁film	-9.40434
ها	-9.4044
▁have	-9.40499
sin	-9.40517
ты	-9.40625
▁nem	-9.40654
▁mal	-9.40709
cy	-9.40711
ك	-9.40869
ción	-9.40976
▁AM	-9.4101
▁akan	-9.41085
▁itu	-9.41224
▁się	-9.41224
▁Q	-9.41355
af	-9.41501
▁dos	-9.4152
:00	-9.41671
ż	-9.41682
hat	-9.41763
▁Lo	-9.41854
▁katika	-9.42159
▁sin	-9.42171
vel	-9.42286
▁gu	-9.42342
▁31	-9.42455
ча	-9.42509
lig	-9.42568
cia	-9.42612
▁أ	-9.42637
ný	-9.4272
imi	-9.42721
23	-9.42829
▁او	-9.42897
▁Б	-9.4302
ei	-9.43083
https	-9.43116
▁ru	-9.4314
ის	-9.43364
ب	-9.43458
ál	-9.43472
ದ	-9.43692
▁New	-9.43754
▁ayaa	-9.43761
가	-9.43785
if	-9.43906
ure	-9.43913
nik	-9.43923
ական	-9.44013
▁not	-9.44135
▁của	-9.44144
ল	-9.44202
▁tidak	-9.44254
ně	-9.44387
ici	-9.44493
▁sam	-9.44599
▁gi	-9.44673
▁tre	-9.44683
▁como	-9.44789
▁ба	-9.44952
ity	-9.45028
21	-9.45036
ι	-9.45113
▁bat	-9.45133
▁და	-9.45138
中	-9.45145
▁Is	-9.45245
nia	-9.45319
▁kaj	-9.45354
▁May	-9.45439
”.	-9.45442
tek	-9.45506
▁Ber	-9.45591
си	-9.4569
and	-9.4574
▁mer	-9.45857
▁ist	-9.45917
▁pie	-9.45954
ف	-9.46013
rat	-9.46034
▁tal	-9.46233
ль	-9.46312
ба	-9.46538
22	-9.4668
▁dia	-9.46689
jar	-9.46692
▁non	-9.46761
xi	-9.46781
mon	-9.46805
мо	-9.4681
▁اس	-9.46936
40	-9.46976
ع	-9.46989
▁alle	-9.46994
ів	-9.47138
ми	-9.47317
din	-9.47368
▁wy	-9.47426
▁St	-9.4748
▁2009	-9.47547
pl	-9.47573
▁05	-9.47597
▁pra	-9.4769
ν	-9.47708
▁DE	-9.47764
▁Ga	-9.47831
ну	-9.47852
és	-9.47947
▁Ci	-9.48107
mat	-9.48162
ff	-9.48284
ам	-9.48297
▁02	-9.48337
▁را	-9.48434
ના	-9.48697
▁eller	-9.48699
09	-9.48816
▁für	-9.48899
有	-9.48991
nar	-9.49084
ган	-9.49099
ರ	-9.49166
क	-9.49219
tro	-9.49273
iem	-9.49468
ј	-9.49509
▁су	-9.49532
▁kr	-9.49537
`	-9.49554
▁mis	-9.49813
▁3.	-9.49825
▁04	-9.49933
con	-9.49969
ם	-9.49982
▁к	-9.49994
nak	-9.50007
nek	-9.50072
▁եւ	-9.50172
har	-9.5019
ua	-9.50309
▁kas	-9.5032
rt	-9.50331
▁tan	-9.50394
▁las	-9.50524
ò	-9.50619
ра	-9.5085
는	-9.50895
ket	-9.51133
ec	-9.51178
".	-9.5122
kor	-9.51239
▁על	-9.5131
ля	-9.51314
illa	-9.51364
▁will	-9.51396
nde	-9.51398
line	-9.51401
▁www	-9.51423
ē	-9.51491
ем	-9.51519
ante	-9.51556
ino	-9.51573
ato	-9.51756
▁است	-9.51983
het	-9.5199
▁60	-9.52024
gel	-9.52047
▁03	-9.52054
▁son	-9.52106
də	-9.52359
lor	-9.52371
▁juga	-9.52429
http	-9.52532
▁Lu	-9.52663
во	-9.52797
ਰ	-9.52935
是	-9.53047
▁els	-9.5319
▁kuwa	-9.53207
met	-9.53221
vin	-9.53275
▁By	-9.53499
iki	-9.53518
fer	-9.53525
▁è	-9.53582
aga	-9.53628
▁Har	-9.53632
▁По	-9.53686
tzen	-9.53689
了	-9.53753
ama	-9.53989
ise	-9.5406
elle	-9.54136
▁și	-9.54222
▁mm	-9.54367
ob	-9.54468
▁کہ	-9.54541
▁vir	-9.54604
ano	-9.54683
▁И	-9.54847
asa	-9.5486
tat	-9.54908
zen	-9.55039
▁@	-9.55115
▁ez	-9.55145
ون	-9.5525
▁που	-9.55251
ան	-9.55264
ى	-9.55313
▁up	-9.55425
▁dar	-9.55504
▁qui	-9.55544
का	-9.55638
▁car	-9.55655
▁į	-9.55679
ين	-9.55705
▁est	-9.55852
го	-9.55907
▁для	-9.56014
ys	-9.5604
▁Г	-9.56052
","	-9.56108
им	-9.56278
ën	-9.56291
▁mag	-9.56464
са	-9.56511
▁më	-9.56527
に	-9.56533
ão	-9.56582
bre	-9.56592
ан	-9.56656
▁On	-9.56764
ega	-9.56833
▁là	-9.56848
ram	-9.5689
▁Д	-9.56916
Г	-9.57046
▁ن	-9.57058
▁Va	-9.57213
▁Es	-9.57303
adi	-9.57348
网	-9.57364
pen	-9.5743
ong	-9.57512
▁على	-9.57522
માં	-9.57574
▁Nu	-9.57685
ón	-9.57692
the	-9.57761
▁kl	-9.57853
त	-9.57906
ish	-9.57938
ola	-9.5803
▁Ve	-9.58069
▁sal	-9.58141
▁→	-9.58215
ef	-9.58321
▁soo	-9.58339
▁bet	-9.58352
ו	-9.58394
ʻ	-9.58402
iko	-9.5873
▁Dr	-9.58779
€	-9.58788
А	-9.58823
ü	-9.59085
dos	-9.59199
eb	-9.59275
ز	-9.59534
rea	-9.59539
ار	-9.59576
▁fel	-9.59602
▁Kar	-9.59672
ani	-9.59697
php	-9.59828
ši	-9.59831
ийн	-9.5984
bra	-9.59973
ով	-9.60051
▁کر	-9.60072
sko	-9.60087
▁vil	-9.60105
dal	-9.60108
ár	-9.60144
▁Hu	-9.60186
▁Ce	-9.60207
▁ale	-9.60236
mes	-9.60244
▁dit	-9.6034
ม	-9.60435
▁wat	-9.60478
one	-9.60493
чи	-9.60604
би	-9.60619
▁hu	-9.60746
▁Posted	-9.6086
▁has	-9.60998
▁Air	-9.61041
▁این	-9.61108
ció	-9.6112
27	-9.61284
лі	-9.61341
▁Kon	-9.61595
ė	-9.61632
қ	-9.61722
▁nan	-9.61729
▁Ru	-9.61817
▁auto	-9.61865
isa	-9.61914
cie	-9.61957
tis	-9.62
▁Post	-9.62104
kat	-9.6215
ం	-9.62152
▁Ter	-9.622
ras	-9.62276
▁{	-9.62293
ке	-9.62338
▁program	-9.62357
▁At	-9.62371
ble	-9.62484
▁г	-9.62563
ves	-9.62565
ర్	-9.62606
を	-9.62631
oni	-9.62663
日	-9.6274
ě	-9.62813
▁Ya	-9.62826
▁als	-9.62888
ille	-9.62904
מ	-9.62914
▁За	-9.62993
▁છે	-9.63124
08	-9.63218
▁М	-9.63255
ito	-9.63278
ар	-9.63301
ps	-9.63317
도	-9.63513
07	-9.63552
ме	-9.63583
ની	-9.63688
ει	-9.637
▁Ab	-9.63906
▁об	-9.64011
지	-9.64059
▁Hi	-9.64077
리	-9.64106
▁sta	-9.64197
ри	-9.64208
eri	-9.64211
ം	-9.64272
▁Ju	-9.64311
▁Ch	-9.64324
ert	-9.64399
▁iš	-9.64442
和	-9.64447
를	-9.64495
▁është	-9.64546
0%	-9.64595
ок	-9.64657
tie	-9.64674
ich	-9.64731
が	-9.64793
05	-9.64801
bel	-9.6481
ori	-9.64814
tos	-9.65067
ক	-9.65098
bil	-9.65155
▁mat	-9.65201
ley	-9.65241
ret	-9.65318
ł	-9.65379
ન	-9.65434
ил	-9.65627
ən	-9.65731
wan	-9.65796
▁Gu	-9.65826
▁ug	-9.6585
vad	-9.65914
▁fe	-9.65932
cho	-9.65936
▁то	-9.65974
60	-9.65992
ix	-9.66085
90	-9.66105
ү	-9.66111
▁uit	-9.66156
ës	-9.66339
uta	-9.66397
▁upp	-9.66402
mal	-9.66441
고	-9.66474
мен	-9.66507
▁sex	-9.66558
म	-9.66563
uz	-9.66657
kel	-9.66679
▁đ	-9.66689
age	-9.66713
▁plan	-9.6673
че	-9.66738
К	-9.66795
▁Par	-9.66952
end	-9.66973
▁های	-9.67029
mit	-9.67099
In	-9.67132
set	-9.67182
ર	-9.67188
æ	-9.6729
▁uma	-9.6733
bor	-9.67369
80	-9.67379
▁air	-9.67441
▁auf	-9.67448
ր	-9.67547
ম	-9.67561
▁All	-9.67643
das	-9.67685
은	-9.67755
ў	-9.67811
▁Val	-9.67857
red	-9.67876
до	-9.67887
zy	-9.67907
gt	-9.67941
use	-9.68011
ast	-9.68104
▁kur	-9.68105
lim	-9.68107
▁hotel	-9.68193
og	-9.68232
ਨ	-9.68253
qu	-9.68273
);	-9.68326
nis	-9.68329
▁yn	-9.68518
02	-9.68535
ски	-9.68587
▁may	-9.68664
bat	-9.68697
▁pm	-9.68743
▁egy	-9.68748
خ	-9.68826
ер	-9.68826
▁chi	-9.68841
▁bar	-9.6885
ssa	-9.68966
▁vo	-9.69021
lon	-9.69074
上	-9.69077
bal	-9.69125
ви	-9.69185
ér	-9.69242
▁anda	-9.69335
ска	-9.69351
ex	-9.6938
04	-9.69653
La	-9.6966
▁vol	-9.69711
ම	-9.69755
기	-9.69813
▁ali	-9.6987
▁ма	-9.69906
qui	-9.70022
ham	-9.70088
ente	-9.7019
▁kom	-9.70263
▁ان	-9.7027
се	-9.70432
yn	-9.70441
▁sp	-9.70481
ô	-9.70492
▁که	-9.70492
ق	-9.70509
ice	-9.70515
▁tai	-9.70601
ет	-9.70603
▁með	-9.70636
ל	-9.70688
▁hogy	-9.7072
cm	-9.70829
28	-9.7084
▁các	-9.70853
29	-9.70922
té	-9.71025
ces	-9.71096
lər	-9.71134
▁بر	-9.71221
–	-9.71231
▁80	-9.7125
zione	-9.71274
▁2008	-9.71285
index	-9.71371
ด	-9.71413
ö	-9.71547
▁TV	-9.71567
▁Az	-9.71636
▁under	-9.71658
▁more	-9.71672
car	-9.71712
imo	-9.71739
pat	-9.71743
▁pen	-9.71766
▁?	-9.71773
▁σε	-9.71871
▁tur	-9.71873
▁200	-9.71874
한	-9.71898
ส	-9.71945
06	-9.72069
dik	-9.7207
ator	-9.72157
▁th	-9.72169
▁ab	-9.72197
99	-9.72262
ça	-9.72298
▁στο	-9.72327
▁şi	-9.7233
ය	-9.72375
▁bisa	-9.72383
ше	-9.724
В	-9.72543
▁נ	-9.72573
ија	-9.72581
▁kita	-9.72638
▁آ	-9.72691
▁Kan	-9.72844
ที่	-9.72888
▁ag	-9.72932
द	-9.73036
cc	-9.73093
▁să	-9.73104
′	-9.7317
lay	-9.73189
Д	-9.73212
▁τα	-9.73241
ub	-9.73277
▁।	-9.73363
title	-9.73422
▁ex	-9.73434
ip	-9.73606
mente	-9.73645
ги	-9.73679
Т	-9.7373
▁roz	-9.73733
▁inte	-9.73766
ring	-9.73791
▁sau	-9.73814
े	-9.73938
gy	-9.74007
▁zijn	-9.74022
los	-9.74029
num	-9.74079
로	-9.74134
ep	-9.74261
qa	-9.74319
rit	-9.74329
▁už	-9.74334
ру	-9.74335
▁Pen	-9.74381
ня	-9.74417
pro	-9.74572
тар	-9.7461
스	-9.74665
ก	-9.74721
▁dem	-9.74759
▁mais	-9.74788
▁س	-9.74863
θ	-9.74971
▁dans	-9.74973
▁qo	-9.74978
her	-9.75028
▁Fi	-9.7507
▁jeg	-9.75105
html	-9.75137
▁Pu	-9.75178
dag	-9.75276
ore	-9.75288
եր	-9.75402
▁ي	-9.75587
mine	-9.75676
kk	-9.75725
jan	-9.75745
ф	-9.75808
kas	-9.75869
ம்	-9.75981
▁dag	-9.7611
ación	-9.76118
ros	-9.76134
gal	-9.76145
100	-9.76148
ъ	-9.76167
′′	-9.76175
▁500	-9.76196
▁tri	-9.76233
લ	-9.76277
▁Next	-9.7629
ties	-9.76348
▁dé	-9.76396
▁המ	-9.76404
▁Pas	-9.76565
▁della	-9.76615
stra	-9.76687
én	-9.767
▁П	-9.76718
dra	-9.76729
зи	-9.7676
П	-9.76793
iste	-9.76864
26	-9.76895
кі	-9.76909
▁sen	-9.77003
kun	-9.77023
ies	-9.77029
ор	-9.77066
▁une	-9.77096
tta	-9.77114
▁st	-9.77115
▁pat	-9.77131
ን	-9.77139
ance	-9.77212
kal	-9.77223
70	-9.77264
ша	-9.77293
▁ви	-9.77308
це	-9.77399
ris	-9.77411
υ	-9.77519
ام	-9.77657
ин	-9.77746
▁j	-9.77767
▁ada	-9.77818
▁4.	-9.77882
▁kad	-9.77938
ime	-9.78006
kur	-9.78015
▁Can	-9.78033
дар	-9.78056
ora	-9.78063
ту	-9.7813
▁lang	-9.78166
aha	-9.78361
vy	-9.78417
jem	-9.78492
▁far	-9.78521
tic	-9.78554
▁32	-9.7859
art	-9.78605
▁hal	-9.78659
sten	-9.78679
▁Dan	-9.78696
ح	-9.78721
ین	-9.78747
ول	-9.78757
▁sobre	-9.7877
dd	-9.78798
▁Her	-9.78815
tte	-9.78829
kov	-9.78864
▁được	-9.7889
·	-9.789
▁א	-9.78963
▁vai	-9.79115
▁tot	-9.79121
▁qu	-9.79138
▁bil	-9.79199
mis	-9.79254
▁kor	-9.79281
▁War	-9.79285
000	-9.79315
û	-9.79331
▁پ	-9.79361
▁fyrir	-9.79456
gr	-9.79466
ğ	-9.7948
ал	-9.79487
ді	-9.79564
ी	-9.7961
月	-9.79646
mb	-9.79661
▁η	-9.79776
zer	-9.79918
▁Sie	-9.79955
▁sub	-9.80034
uma	-9.8005
การ	-9.80117
ล	-9.80117
tir	-9.80147
▁м	-9.80183
▁Gi	-9.80195
▁昨天	-9.80231
far	-9.80233
ं	-9.80294
ության	-9.80298
ర	-9.80322
▁2,	-9.80378
mak	-9.80401
▁под	-9.80497
▁Pra	-9.80538
▁Video	-9.80558
ค	-9.80601
тер	-9.80731
vat	-9.8075
▁İ	-9.80796
▁35	-9.80859
ard	-9.80864
स	-9.80899
AL	-9.80938
Re	-9.80958
▁jag	-9.80993
dre	-9.81027
▁में	-9.81053
tak	-9.81108
bb	-9.81154
ಯ	-9.81205
aan	-9.8122
nen	-9.81352
▁што	-9.81374
▁Den	-9.81512
500	-9.81521
ја	-9.81565
ё	-9.81612
ero	-9.81626
03	-9.81697
Б	-9.81711
▁oli	-9.81719
ego	-9.81727
▁ten	-9.8173
ને	-9.81737
get	-9.81776
▁ac	-9.81896
-1	-9.81978
cht	-9.82001
▁entre	-9.82084
▁Les	-9.82088
会	-9.82098
▁vor	-9.82158
45	-9.82188
sia	-9.82189
▁aj	-9.82307
▁internet	-9.82338
▁Anda	-9.82574
ες	-9.8264
▁Σ	-9.82687
▁вы	-9.82705
log	-9.82725
▁Para	-9.82771
all	-9.82816
ți	-9.82841
tura	-9.82848
▁раз	-9.82857
▁،	-9.82865
të	-9.82875
či	-9.82888
▁sz	-9.82941
ах	-9.8299
jpg	-9.83029
▁inter	-9.83148
rd	-9.83157
▁כ	-9.832
ге	-9.8327
iv	-9.83273
М	-9.83303
ία	-9.83319
hr	-9.83431
leg	-9.83438
▁70	-9.83444
ť	-9.83474
bit	-9.83495
ա	-9.83535
sal	-9.83581
ң	-9.83608
▁Free	-9.83618
▁bei	-9.83626
▁Or	-9.8365
ør	-9.83657
新	-9.83689
市	-9.83716
ija	-9.83723
▁Ak	-9.83784
▁Š	-9.83852
ج	-9.83876
day	-9.8391
▁90	-9.83914
gra	-9.84005
amp	-9.84067
▁adalah	-9.84078
sion	-9.841
ս	-9.84114
▁bij	-9.8419
▁skal	-9.8419
аў	-9.84206
nih	-9.84221
▁ο	-9.84402
tet	-9.84406
war	-9.84427
▁Jan	-9.84517
▁Pri	-9.84537
મ	-9.84653
▁bal	-9.84661
▁Black	-9.84813
ev	-9.84844
▁(2)	-9.84897
▁Previous	-9.84918
▁alla	-9.85016
led	-9.85092
▁Х	-9.85107
▁Tra	-9.85114
▁atau	-9.85144
ins	-9.85154
ii	-9.85247
▁ye	-9.8529
inen	-9.85314
ակ	-9.85354
lum	-9.85362
rar	-9.85377
gg	-9.85414
▁مع	-9.85426
ld	-9.85457
ний	-9.85463
ło	-9.85476
▁tar	-9.85585
ör	-9.85589
▁aku	-9.85617
usi	-9.8562
▁sig	-9.85647
iza	-9.85739
ға	-9.85771
ré	-9.85907
enie	-9.85964
▁zo	-9.85999
их	-9.86005
ella	-9.86019
▁pot	-9.86083
rah	-9.86139
ø	-9.86171
▁but	-9.86192
▁nuk	-9.86203
cat	-9.86293
ей	-9.86352
ท	-9.86365
ల	-9.86482
▁bra	-9.86528
ند	-9.86575
യ	-9.86584
▁(1	-9.86586
일	-9.86614
▁}	-9.8663
▁article	-9.86672
▁అ	-9.86678
О	-9.86693
ು	-9.86729
ре	-9.86777
ence	-9.86848
ների	-9.86887
ល	-9.86895
▁lan	-9.86936
▁Sch	-9.8695
ова	-9.86967
▁وال	-9.87014
▁Sam	-9.87068
iri	-9.87077
sp	-9.87153
は	-9.87213
ٹ	-9.87247
pun	-9.87257
ür	-9.87271
ક	-9.87462
8%	-9.87479
of	-9.87517
ών	-9.87541
▁З	-9.87582
ell	-9.87587
▁ook	-9.87611
32	-9.8765
য়	-9.87727
▁pan	-9.87731
wer	-9.87768
лик	-9.87936
ო	-9.88096
▁NY	-9.88139
▁My	-9.88201
35	-9.88285
pas	-9.8831
▁web	-9.88404
▁Am	-9.88432
▁dapat	-9.88465
mor	-9.88467
▁ako	-9.88535
tä	-9.88595
wy	-9.8861
ica	-9.88611
▁Der	-9.88692
▁ett	-9.88727
lä	-9.88801
post	-9.88808
ा	-9.88822
zar	-9.88848
king	-9.88862
tud	-9.88888
▁val	-9.88892
!!	-9.88896
gang	-9.88934
▁ud	-9.89076
une	-9.89097
▁pun	-9.89126
že	-9.8917
dom	-9.89199
ier	-9.89275
▁trong	-9.89298
▁hor	-9.89315
出	-9.89481
ट	-9.89496
։	-9.89524
lis	-9.89554
yi	-9.89557
▁ما	-9.89561
иш	-9.89633
ové	-9.89692
ե	-9.89714
ās	-9.89881
▁ف	-9.89901
▁են	-9.8991
tri	-9.89998
Se	-9.90112
▁Vo	-9.90165
▁ai	-9.90209
ז	-9.90212
▁го	-9.90213
▁It	-9.90224
▁với	-9.90268
ová	-9.90284
ला	-9.90364
port	-9.90482
vor	-9.90499
ige	-9.90524
-19	-9.90531
lé	-9.90634
pp	-9.90698
vol	-9.90708
ે	-9.90752
ית	-9.90753
▁આ	-9.90828
pre	-9.90937
▁आ	-9.90938
▁അ	-9.90981
cer	-9.91011
▁pos	-9.91026
▁Pi	-9.91049
vet	-9.91161
31	-9.91202
▁ved	-9.91259
nos	-9.91262
Ma	-9.91385
ত	-9.91392
▁45	-9.91585
ön	-9.91739
tha	-9.91757
▁bez	-9.91782
tr	-9.91846
adh	-9.91895
är	-9.91915
ć	-9.91915
ව	-9.91928
시	-9.92071
ប	-9.92085
اد	-9.92091
κ	-9.92149
▁You	-9.92164
▁plus	-9.92187
▁This	-9.92204
▁2007	-9.92206
▁nos	-9.92239
ー	-9.92355
sam	-9.9238
사	-9.924
oz	-9.92403
▁kal	-9.92409
▁Bal	-9.92624
と	-9.92632
▁ná	-9.92666
İ	-9.92706
ła	-9.92722
▁dal	-9.92768
он	-9.92781
dia	-9.92811
자	-9.92843
ит	-9.92904
ല	-9.92953
ן	-9.92983
▁000	-9.93055
200	-9.93092
ação	-9.93117
▁ska	-9.93147
ete	-9.93295
ര	-9.93325
▁gan	-9.93329
▁Е	-9.93355
int	-9.93403
▁má	-9.93419
vid	-9.93424
ого	-9.93429
▁Fe	-9.93437
پ	-9.93443
▁ham	-9.93485
▁Facebook	-9.93564
▁Α	-9.93597
인	-9.93604
cs	-9.93605
ux	-9.93715
▁Download	-9.93727
లు	-9.93733
36	-9.93812
bl	-9.93833
ture	-9.93839
dig	-9.93867
▁Ш	-9.93873
tul	-9.93919
স	-9.93923
▁China	-9.93946
75	-9.94004
۔	-9.94068
ב	-9.94082
ना	-9.94122
▁zi	-9.94179
ல்	-9.94179
▁کې	-9.94218
▁pred	-9.94248
▁των	-9.94293
can	-9.94349
▁kami	-9.94394
nej	-9.94425
ง	-9.94453
issa	-9.94463
ου	-9.94486
awa	-9.94522
нинг	-9.94527
ג	-9.94536
US	-9.9455
ido	-9.94575
▁parte	-9.94655
ova	-9.94698
▁Ad	-9.94768
▁пре	-9.94817
itu	-9.94894
ता	-9.94924
ст	-9.94982
▁ת	-9.95011
ве	-9.95034
ੇ	-9.95061
▁Ob	-9.95078
▁Um	-9.95112
ย	-9.95136
▁Foto	-9.95149
uh	-9.95152
dur	-9.95173
ando	-9.95201
lá	-9.95233
▁data	-9.95261
iva	-9.95267
▁Sh	-9.95296
ල	-9.95314
ци	-9.95336
▁1,	-9.95363
ҳ	-9.95374
ét	-9.95445
hl	-9.95491
De	-9.95515
atu	-9.95574
స్	-9.95657
▁için	-9.95692
▁अ	-9.95752
ਲ	-9.95815
ев	-9.95951
tele	-9.95969
ป	-9.96045
▁στην	-9.96047
ID	-9.9605
▁más	-9.96076
ח	-9.96089
▁ama	-9.96093
▁jest	-9.96132
▁EUR	-9.96199
inta	-9.9624
pis	-9.96346
jer	-9.96359
▁ich	-9.96388
ට	-9.96403
ym	-9.96454
▁لل	-9.96469
Le	-9.96492
bol	-9.96626
oli	-9.96629
ու	-9.96742
▁Cu	-9.968
ding	-9.96863
▁best	-9.96866
▁որ	-9.96901
ት	-9.96912
ман	-9.96995
лан	-9.97036
ette	-9.97044
ill	-9.97106
▁Ben	-9.97148
小	-9.97154
ә	-9.97217
ست	-9.9723
ד	-9.97267
▁free	-9.97268
▁আ	-9.97296
uni	-9.97377
bin	-9.97403
՝	-9.9743
33	-9.97492
pin	-9.97583
pr	-9.97614
berg	-9.97689
න	-9.97705
ть	-9.97739
iden	-9.97853
eve	-9.97904
▁City	-9.97914
rà	-9.97946
ని	-9.97958
ӣ	-9.98119
ാ	-9.98164
▁Chi	-9.98178
▁telefon	-9.98222
nan	-9.98249
▁му	-9.98276
▁kama	-9.98331
▁Ph	-9.98386
vé	-9.98386
▁our	-9.98406
▁super	-9.98433
ple	-9.98497
▁Art	-9.98513
▁gar	-9.98515
▁download	-9.98524
ун	-9.98532
angan	-9.98559
ms	-9.98578
}	-9.98644
hy	-9.98715
në	-9.98723
ната	-9.98724
▁không	-9.98733
ның	-9.98781
ού	-9.98865
сы	-9.98899
▁raz	-9.99016
via	-9.99016
▁Top	-9.99096
umu	-9.99102
ר	-9.99116
▁ਦੇ	-9.99119
▁š	-9.99143
oldid	-9.99144
ما	-9.99197
▁ع	-9.99205
ص	-9.99217
يا	-9.9927
▁mod	-9.99327
▁Cor	-9.99391
▁Đ	-9.99421
▁[...]	-9.99452
ных	-9.99465
ного	-9.99468
ร	-9.99505
ula	-9.99506
по	-9.99631
▁blog	-9.9969
▁time	-9.99699
ey	-9.99701
fin	-9.9984
lit	-9.99852
lak	-9.99883
ు	-9.9989
ன்	-9.99907
高	-9.99946
ct	-9.9996
▁00	-10
ás	-10.0001
wikipedia	-10.0001
uka	-10.0003
ید	-10.0016
▁oleh	-10.0018
▁foto	-10.0024
ade	-10.0026
▁36	-10.0028
km	-10.0029
sson	-10.0033
му	-10.0033
GA	-10.004
▁Mas	-10.0043
▁Gar	-10.0045
стан	-10.0047
ду	-10.0049
اب	-10.0053
▁Cha	-10.0062
▁fer	-10.0063
av	-10.0072
95	-10.0074
▁לה	-10.0075
etan	-10.0078
38	-10.0082
▁come	-10.0084
▁де	-10.0086
უ	-10.0093
ví	-10.0093
▁April	-10.0096
ές	-10.0097
tus	-10.0098
vil	-10.0099
▁top	-10.0105
rak	-10.011
▁ج	-10.0111
▁jak	-10.0119
▁gel	-10.0119
Х	-10.0119
વા	-10.0123
ник	-10.0135
▁ré	-10.0135
jet	-10.0141
enda	-10.0141
▁לא	-10.0143
다	-10.0145
hen	-10.0148
▁door	-10.015
▁5.	-10.0155
,"	-10.0163
원	-10.0164
ਸ	-10.0168
▁Ji	-10.0171
ee	-10.0178
bas	-10.0181
cal	-10.0181
ો	-10.0183
▁cor	-10.0184
▁også	-10.0186
▁की	-10.019
▁Tags	-10.0201
pon	-10.0215
▁că	-10.0215
▁tek	-10.0222
гу	-10.0225
ray	-10.0227
▁Por	-10.0231
া	-10.0234
til	-10.0239
▁ها	-10.0239
ese	-10.0243
▁Th	-10.0243
▁الأ	-10.0247
്	-10.0252
sim	-10.026
gin	-10.0263
į	-10.0265
anda	-10.0267
ima	-10.0271
บ	-10.0271
▁Κ	-10.0283
▁Π	-10.0284
▁як	-10.0286
ute	-10.0287
Ð	-10.0288
▁π	-10.029
▁п	-10.0291
▁х	-10.0291
.”	-10.03
▁cap	-10.03
▁model	-10.0301
چ	-10.0301
ува	-10.0303
▁sé	-10.0308
▁pak	-10.031
ии	-10.0312
地	-10.0313
isti	-10.0317
▁beste	-10.032
σ	-10.0325
don	-10.0325
▁sou	-10.0325
sto	-10.0327
mir	-10.0332
nud	-10.0334
▁ana	-10.0335
▁կ	-10.0336
ನ	-10.0344
nica	-10.0349
eta	-10.0357
ement	-10.0357
家	-10.0358
bon	-10.0362
▁Wi	-10.0364
ха	-10.0368
nut	-10.0369
lam	-10.0372
syon	-10.0376
▁بال	-10.0382
eng	-10.0384
xa	-10.0385
▁saya	-10.0387
oi	-10.039
48	-10.0393
▁Google	-10.0395
อ	-10.04
pur	-10.0402
▁mot	-10.0402
▁seu	-10.0402
ай	-10.0407
▁saat	-10.0431
▁Auto	-10.0432
ena	-10.0436
న	-10.0438
▁lagu	-10.0438
▁cre	-10.0445
▁Av	-10.0445
い	-10.0446
▁més	-10.0447
▁Van	-10.045
▁:)	-10.0458
▁3,	-10.046
tz	-10.0464
ados	-10.0469
ол	-10.0471
▁fram	-10.0475
లో	-10.048
▁fu	-10.0483
ար	-10.0483
▁euro	-10.0489
ša	-10.049
udi	-10.049
到	-10.0491
▁Com	-10.05
је	-10.0501
сан	-10.0505
▁new	-10.0507
اس	-10.0507
▁Em	-10.0507
▁test	-10.0508
▁Op	-10.0512
▁via	-10.0513
pt	-10.0515
ted	-10.0518
▁Ε	-10.0519
▁mes	-10.0524
39	-10.0527
-12	-10.0529
ර	-10.0532
თ	-10.0541
imin	-10.0544
med	-10.0545
ω	-10.0546
vas	-10.0547
ી	-10.0547
▁Super	-10.056
42	-10.0562
▁maka	-10.0564
▁είναι	-10.0567
lov	-10.0571
cí	-10.0579
・	-10.0585
▁år	-10.059
▁fan	-10.0593
▁LED	-10.0594
":"	-10.0597
▁Ма	-10.0597
▁Park	-10.0604
anta	-10.0607
34	-10.061
-10	-10.0615
▁about	-10.0617
kla	-10.0618
▁33	-10.062
▁kui	-10.0621
▁fil	-10.0629
▁bilan	-10.0634
uf	-10.0635
ක	-10.0636
▁365	-10.0638
form	-10.0638
ရ	-10.0647
▁है	-10.065
put	-10.0657
▁հ	-10.0661
▁lebih	-10.0669
gun	-10.0671
ン	-10.0673
če	-10.0677
AAAAAAAAAAAAAAAA	-10.0679
▁WA	-10.0679
):	-10.068
λ	-10.0682
ró	-10.0684
で	-10.0687
eli	-10.0692
anna	-10.0696
▁out	-10.0698
න්	-10.0698
▁бо	-10.0699
ds	-10.0715
5%	-10.072
▁!	-10.0722
▁së	-10.0722
▁تو	-10.0726
▁sk	-10.073
ં	-10.0732
rk	-10.0734
ota	-10.0739
Н	-10.0741
▁θα	-10.0744
lap	-10.0744
▁Sport	-10.0745
ων	-10.0745
▁pou	-10.0748
way	-10.0749
اء	-10.0752
lama	-10.0755
mel	-10.0755
oko	-10.0757
oc	-10.0767
▁Á	-10.0773
ца	-10.0774
sar	-10.0775
▁бар	-10.0785
▁τον	-10.0788
xe	-10.0793
ਮ	-10.0798
▁And	-10.08
ਾਂ	-10.0801
raz	-10.0805
▁အ	-10.0806
ী	-10.0807
▁qa	-10.0808
为	-10.081
lí	-10.0811
▁opp	-10.0814
▁niet	-10.0817
▁Ж	-10.0818
ksi	-10.0819
stu	-10.0826
▁д	-10.0832
gas	-10.0833
ava	-10.0833
प	-10.0841
ব	-10.0846
ët	-10.0846
▁Ка	-10.0847
▁Red	-10.0857
MA	-10.0857
cio	-10.0858
】	-10.0861
▁orang	-10.0862
▁tem	-10.0862
▁NA	-10.0862
ון	-10.0867
ì	-10.0875
stan	-10.0877
ân	-10.0881
tay	-10.0886
ル	-10.0888
▁//	-10.0892
dem	-10.09
▁just	-10.0902
▁aus	-10.0903
apa	-10.0905
▁II	-10.0909
ary	-10.0912
▁não	-10.092
▁ش	-10.0923
lag	-10.0935
▁Tak	-10.0936
ých	-10.0937
▁300	-10.0937
лу	-10.0938
eur	-10.0943
子	-10.0945
aya	-10.0947
▁Kom	-10.0954
data	-10.0955
▁ре	-10.0956
ர	-10.0963
ር	-10.0963
ു	-10.0965
အ	-10.0966
▁Dar	-10.0967
▁dira	-10.097
▁ад	-10.0973
ই	-10.0977
вер	-10.098
▁hat	-10.0989
lega	-10.099
▁sh	-10.099
են	-10.0991
ков	-10.0991
ಕ	-10.0998
rang	-10.0999
ří	-10.1
▁see	-10.1
э	-10.1001
က	-10.1004
hal	-10.1007
ス	-10.101
ül	-10.1012
▁Sal	-10.1013
ύ	-10.102
ње	-10.1028
ர்	-10.1031
ная	-10.1038
ín	-10.1048
▁Var	-10.105
ните	-10.1054
▁ح	-10.1055
tum	-10.1055
365	-10.1056
nych	-10.1058
них	-10.1059
▁forma	-10.1062
لا	-10.1065
:15	-10.1065
▁zá	-10.1069
▁LA	-10.1069
▁ao	-10.1071
▁gen	-10.1076
որ	-10.1077
mba	-10.1087
▁dr	-10.1093
▁Bra	-10.1097
▁if	-10.1098
▁gratis	-10.11
生	-10.1105
Al	-10.1106
И	-10.1107
41	-10.1107
app	-10.1107
分	-10.1111
este	-10.1119
ಲ	-10.1122
▁satu	-10.1123
▁ID	-10.1125
▁Tr	-10.1126
ም	-10.1128
Ba	-10.1129
▁ме	-10.1131
▁või	-10.1136
rs	-10.1136
▁τη	-10.1147
▁이	-10.1149
ത	-10.115
лари	-10.1153
нд	-10.1154
tina	-10.1156
ស	-10.1157
وا	-10.1158
elt	-10.1158
▁სა	-10.116
မ	-10.1164
lə	-10.1169
▁Sta	-10.1169
mek	-10.1169
▁estas	-10.1169
▁34	-10.118
ने	-10.118
▁Р	-10.1181
nost	-10.1182
▁Ur	-10.1183
pil	-10.1186
▁tam	-10.1192
andi	-10.1195
ụ	-10.1197
▁ile	-10.1197
ndi	-10.12
44	-10.12
▁vel	-10.1201
gor	-10.1202
▁nav	-10.1207
ված	-10.1211
GB	-10.1211
▁›	-10.1212
μα	-10.122
▁Qu	-10.1223
▁Ny	-10.1228
▁nag	-10.1229
▁ben	-10.1233
nder	-10.1234
uan	-10.1236
下	-10.1237
▁war	-10.1238
▁một	-10.1244
ന	-10.1248
▁Ban	-10.1249
ര്‍	-10.1252
▁бол	-10.1258
ੀ	-10.1267
star	-10.1272
ਕ	-10.1275
▁site	-10.1277
hin	-10.1278
▁kes	-10.1279
▁دی	-10.1281
є	-10.1281
▁maar	-10.1282
▁Hal	-10.1287
▁hand	-10.1287
▁الت	-10.1295
▁ekki	-10.13
ί	-10.13
▁38	-10.1303
TM	-10.1307
Á	-10.1311
ներ	-10.1311
ía	-10.1316
lash	-10.1317
▁Ein	-10.1323
yar	-10.1328
yl	-10.1332
igi	-10.1334
och	-10.1337
▁esta	-10.134
ande	-10.1346
lip	-10.1347
▁ك	-10.1351
eren	-10.1357
▁수	-10.136
hon	-10.1361
olo	-10.1363
ml	-10.1365
tzeko	-10.1365
▁kap	-10.1367
nem	-10.1374
tag	-10.1378
▁Web	-10.1379
ses	-10.1381
aba	-10.1386
»,	-10.1389
▁tro	-10.1392
▁seg	-10.1403
ọ	-10.1404
រ	-10.1405
tam	-10.1408
isha	-10.1409
▁ago	-10.141
▁HD	-10.1417
ạ	-10.1418
行	-10.1419
ES	-10.1423
hod	-10.1446
:10	-10.1454
ral	-10.1454
nte	-10.1454
ग	-10.1455
വ	-10.1455
து	-10.1459
ज	-10.146
▁Ф	-10.146
მ	-10.1464
▁को	-10.1473
ак	-10.1479
ges	-10.1481
64	-10.1481
dis	-10.1485
ló	-10.1485
AA	-10.1486
▁би	-10.1487
ador	-10.1488
▁ó	-10.1488
과	-10.1489
ят	-10.1492
ər	-10.1493
lab	-10.1493
É	-10.1495
ран	-10.1495
▁mereka	-10.1498
lli	-10.1498
▁kā	-10.1498
▁mil	-10.1499
lv	-10.1502
▁Pan	-10.1503
▁र	-10.1505
▁dig	-10.1506
天	-10.151
▁له	-10.1512
▁avec	-10.1517
▁Od	-10.1519
▁kat	-10.152
rë	-10.1524
ש	-10.1525
▁tik	-10.1527
用	-10.1532
▁Sin	-10.1532
ləri	-10.1534
▁خ	-10.1536
▁masa	-10.154
rum	-10.1545
વ	-10.1551
▁uchun	-10.1557
asta	-10.1558
ś	-10.1563
bri	-10.1565
▁Ze	-10.1566
တ	-10.1566
OS	-10.1571
▁yer	-10.1572
な	-10.1573
сто	-10.1577
low	-10.1579
▁naj	-10.158
▁से	-10.1582
ری	-10.1584
▁Min	-10.1585
jas	-10.1593
ος	-10.1595
▁Sun	-10.1598
ช	-10.1603
mail	-10.1608
▁48	-10.1608
▁net	-10.1608
wal	-10.1611
▁42	-10.1617
▁ای	-10.1617
রা	-10.1619
else	-10.162
še	-10.162
▁Tar	-10.1621
어	-10.1621
szt	-10.1624
▁או	-10.1624
لی	-10.1624
غ	-10.1624
▁ste	-10.1624
▁пра	-10.1625
▁Про	-10.1627
ır	-10.1635
ää	-10.1635
▁hari	-10.1635
▁vous	-10.1637
ط	-10.1639
▁Та	-10.1647
▁Mal	-10.1652
gur	-10.1661
tok	-10.1662
▁ر	-10.1662
ings	-10.1671
સ	-10.1673
▁bor	-10.1673
ող	-10.1674
▁hy	-10.1674
rie	-10.1674
তে	-10.1677
ām	-10.1679
У	-10.1684
▁kepada	-10.1686
88	-10.1686
▁ind	-10.1688
व	-10.1688
কে	-10.1689
ટ	-10.1693
▁ब	-10.1697
uv	-10.1698
umi	-10.1698
cher	-10.1698
ју	-10.1699
▁Ser	-10.17
▁Mon	-10.1701
▁bin	-10.1704
nosti	-10.1707
τ	-10.1711
eko	-10.1714
ട	-10.1714
▁mid	-10.1714
sse	-10.1717
SI	-10.1717
:45	-10.1721
300	-10.1722
▁final	-10.1729
▁gal	-10.1729
▁like	-10.1731
▁أن	-10.1733
oo	-10.1736
վել	-10.1736
▁का	-10.1743
▁part	-10.1744
eu	-10.1745
së	-10.1746
▁>>	-10.1748
ម	-10.1749
▁ik	-10.1751
▁Et	-10.1754
lem	-10.1756
▁дар	-10.1758
ур	-10.1759
ace	-10.1759
▁пред	-10.1764
▁sol	-10.1771
aq	-10.1774
▁स	-10.1775
dr	-10.1783
▁olan	-10.1785
▁Iz	-10.1788
▁ty	-10.1788
▁nicht	-10.1789
ғ	-10.1792
પ	-10.1796
ные	-10.18
ул	-10.1804
▁us	-10.1807
య	-10.1813
▁amin	-10.1816
▁US	-10.1822
лы	-10.1823
mus	-10.1826
чы	-10.1828
ში	-10.1831
ой	-10.1834
qi	-10.1836
esti	-10.1837
▁sich	-10.1839
▁Ali	-10.184
inu	-10.184
▁Tri	-10.1844
▁người	-10.1844
бо	-10.1852
дер	-10.1852
Ha	-10.1855
iye	-10.1855
▁projekt	-10.1857
cul	-10.1863
▁Max	-10.1863
ત	-10.1865
സ്	-10.1873
ต	-10.1875
eva	-10.188
▁inn	-10.1882
▁Indonesia	-10.1891
IN	-10.1892
▁ker	-10.1896
lie	-10.1896
▁6.	-10.1903
트	-10.1906
▁kay	-10.1906
det	-10.1907
▁від	-10.1909
55	-10.1909
Ka	-10.191
多	-10.191
Л	-10.1919
▁ilə	-10.1919
▁få	-10.192
vr	-10.1923
လ	-10.1924
out	-10.1926
ే	-10.1926
▁November	-10.1927
miz	-10.193
ži	-10.1939
▁150	-10.194
ların	-10.1942
▁hem	-10.1943
வ	-10.1945
ean	-10.1946
än	-10.1946
▁ಅ	-10.195
ся	-10.1951
▁هم	-10.1951
па	-10.1954
我	-10.1954
▁Star	-10.1955
ក	-10.1956
▁Sha	-10.1957
▁oma	-10.1961
сь	-10.1967
essa	-10.1969
ման	-10.197
റ	-10.1972
یم	-10.1975
라	-10.1977
▁any	-10.1979
«	-10.198
ո	-10.1982
τε	-10.1987
▁sha	-10.199
news	-10.199
ോ	-10.1998
יה	-10.2
58	-10.2
ule	-10.2002
మ	-10.2003
pad	-10.2007
dri	-10.2009
▁Kor	-10.2021
▁бер	-10.2022
▁sport	-10.2032
ώ	-10.2034
▁ќе	-10.2039
zin	-10.204
®	-10.2041
rov	-10.2043
▁tudi	-10.2053
త	-10.2054
сти	-10.2056
▁loo	-10.2065
▁б	-10.2066
▁37	-10.207
▁frá	-10.2072
▁Fo	-10.2075
好	-10.2075
▁anti	-10.2079
来	-10.2081
տ	-10.2083
에서	-10.2087
რ	-10.2089
▁إ	-10.209
ive	-10.2097
ico	-10.2099
IL	-10.2104
▁sú	-10.2105
же	-10.2105
yr	-10.2112
هم	-10.2112
▁nuo	-10.2112
kum	-10.2115
ේ	-10.2127
▁bak	-10.2128
:20	-10.2129
▁Η	-10.2133
46	-10.2134
▁mem	-10.2135
ային	-10.2138
mmer	-10.2138
▁بھی	-10.2138
47	-10.2142
▁те	-10.2147
▁sama	-10.215
▁help	-10.2151
▁sun	-10.2153
zel	-10.2153
ി	-10.2157
▁бу	-10.2158
▁eine	-10.2163
The	-10.2164
PS	-10.2166
mann	-10.217
▁get	-10.2171
▁izan	-10.2177
ക്ക	-10.2177
Me	-10.2178
تی	-10.2186
dz	-10.2188
▁tv	-10.2188
vent	-10.2188
נה	-10.2194
SS	-10.2196
▁си	-10.2197
usta	-10.2197
nje	-10.22
nas	-10.22
fr	-10.2201
જ	-10.2205
iu	-10.2208
ум	-10.221
▁baş	-10.2212
▁Mac	-10.2217
:30	-10.2222
TV	-10.2226
kwa	-10.2228
2017	-10.2231
▁zen	-10.2236
yen	-10.2242
▁she	-10.2244
േ	-10.2246
▁ol	-10.2248
ug	-10.2252
▁tersebut	-10.2256
ында	-10.2261
▁Film	-10.2265
CA	-10.2267
▁những	-10.2268
amo	-10.2268
aw	-10.2269
ർ	-10.2269
ض	-10.2277
▁cara	-10.2277
▁~	-10.228
▁Ба	-10.228
ো	-10.2284
▁Zo	-10.2289
An	-10.2289
ड	-10.2291
pol	-10.2291
tă	-10.2294
para	-10.2296
ња	-10.2299
▁Af	-10.2304
су	-10.2305
ел	-10.2307
ui	-10.231
φ	-10.231
nov	-10.2312
▁Pol	-10.2315
mbo	-10.2317
56	-10.2319
37	-10.232
▁لا	-10.2321
▁Ο	-10.2327
ans	-10.2335
▁one	-10.2336
▁Bir	-10.2338
ста	-10.2339
uti	-10.2342
тан	-10.2354
▁nou	-10.2355
chen	-10.2357
ക	-10.2359
enia	-10.2361
▁Euro	-10.2361
ţi	-10.2361
ـ	-10.2366
ត	-10.2366
tia	-10.2367
ï	-10.2371
unda	-10.2373
▁ہے۔	-10.2378
53	-10.2381
ved	-10.2381
inin	-10.2385
dat	-10.2392
水	-10.2393
fs	-10.2393
tive	-10.2394
τα	-10.2399
nal	-10.2401
▁Mat	-10.2405
▁Ex	-10.2406
ный	-10.2408
▁Het	-10.2409
ving	-10.2409
▁kot	-10.2414
thi	-10.2421
ış	-10.2421
▁đã	-10.2422
65	-10.2425
-4	-10.2426
ট	-10.2429
yon	-10.243
ವ	-10.243
נו	-10.2431
54	-10.2438
▁Med	-10.2441
▁tin	-10.2442
Ö	-10.2443
-2	-10.2443
ị	-10.2445
ры	-10.2448
장	-10.2457
χ	-10.2458
▁Sen	-10.2459
kir	-10.2464
sie	-10.2465
▁וה	-10.2467
▁75	-10.2468
▁also	-10.2469
dh	-10.2469
lek	-10.2474
43	-10.2475
▁comp	-10.2477
ede	-10.2477
ných	-10.2479
ರ್	-10.2481
לי	-10.2484
tari	-10.2485
rad	-10.2491
▁ek	-10.2492
▁Han	-10.2493
dro	-10.2495
ُ	-10.2496
area	-10.2498
മ	-10.2499
tom	-10.25
ák	-10.2505
ër	-10.2507
ario	-10.2507
лен	-10.2508
▁چې	-10.2508
▁col	-10.2509
ít	-10.2513
imit	-10.2514
ych	-10.2515
por	-10.2515
▁dy	-10.2515
정	-10.2516
▁Tur	-10.2517
▁ایک	-10.2517
▁Vol	-10.2519
nice	-10.252
ो	-10.252
yd	-10.252
▁அ	-10.2521
▁form	-10.2526
sor	-10.2527
49	-10.253
IT	-10.2531
▁mobil	-10.2532
59	-10.2532
ши	-10.2533
aran	-10.2534
▁eru	-10.2535
▁vin	-10.2536
▁start	-10.2536
▁کار	-10.2541
وم	-10.2541
ል	-10.2541
▁44	-10.2542
ow	-10.2545
tika	-10.2547
▁home	-10.2551
▁från	-10.2553
▁hay	-10.2554
гі	-10.2558
▁Mai	-10.2562
рт	-10.2565
ře	-10.2566
66	-10.2568
న్	-10.2571
pak	-10.2574
یت	-10.2581
ña	-10.2586
▁red	-10.2587
▁ban	-10.2589
▁pasi	-10.2595
▁10.	-10.2598
IS	-10.26
▁::	-10.2601
▁app	-10.2606
▁don	-10.2609
成	-10.2609
ath	-10.2611
57	-10.2613
▁local	-10.2615
pal	-10.2616
dí	-10.2619
nic	-10.2623
Na	-10.2624
▁bon	-10.2625
▁ח	-10.2628
ord	-10.2629
nom	-10.2629
ක්	-10.2635
দ	-10.2636
ια	-10.2637
金	-10.264
▁vý	-10.2646
ée	-10.2648
ike	-10.265
жа	-10.2653
▁←	-10.2657
▁Tag	-10.2659
▁É	-10.266
Pa	-10.2662
▁ക	-10.2663
▁Не	-10.2666
▁út	-10.2666
rij	-10.2669
▁IN	-10.2669
2.	-10.2672
▁arī	-10.2673
▁palibot	-10.2675
대	-10.2677
stru	-10.268
▁ק	-10.268
из	-10.2683
erne	-10.2688
▁stor	-10.2691
ից	-10.2692
▁auch	-10.2692
▁tele	-10.2696
nce	-10.2696
▁kali	-10.2699
ह	-10.2699
▁ہیں	-10.2706
▁það	-10.2707
▁мо	-10.2709
ավ	-10.2709
ės	-10.271
山	-10.2712
ន	-10.2712
▁để	-10.2718
▁real	-10.272
een	-10.2722
▁Hor	-10.2731
▁но	-10.2733
kli	-10.2735
oma	-10.2738
▁39	-10.274
IR	-10.2745
ost	-10.2746
IC	-10.2748
本	-10.2751
kus	-10.2753
▁Mini	-10.2754
BA	-10.2759
time	-10.2761
▁set	-10.2763
tó	-10.2763
▁their	-10.2764
ಾ	-10.2765
▁September	-10.2767
▁Ek	-10.2768
tti	-10.2774
▁Bank	-10.2787
iť	-10.2789
ù	-10.279
ِ	-10.2792
лов	-10.2799
▁mon	-10.28
▁Sol	-10.2802
gon	-10.2806
dır	-10.2809
드	-10.2809
▁برای	-10.281
▁Cap	-10.2811
▁alt	-10.2814
ген	-10.2816
公	-10.2817
▁dels	-10.2825
▁fo	-10.2828
â	-10.2831
sco	-10.2832
▁छ	-10.2835
fan	-10.2841
▁Real	-10.2841
▁τους	-10.2852
▁Om	-10.2852
▁Č	-10.2854
tto	-10.286
▁سر	-10.2867
uda	-10.2868
لو	-10.2869
ян	-10.2869
▁عن	-10.2871
▁Zu	-10.2873
▁Im	-10.2876
▁problem	-10.2877
ກ	-10.2878
▁social	-10.2878
▁nog	-10.2879
ság	-10.288
ход	-10.2887
▁hun	-10.2887
▁Des	-10.2889
▁motor	-10.2893
▁voi	-10.2894
!!!	-10.2901
▁wie	-10.2902
ım	-10.2902
ေ	-10.2902
Ш	-10.2903
ania	-10.2904
▁ಕ	-10.2907
ering	-10.2908
teri	-10.291
▁Bel	-10.2914
ave	-10.2914
ذ	-10.2917
ther	-10.2923
క్	-10.2923
SA	-10.2926
uli	-10.2929
ligt	-10.2929
▁Н	-10.2929
աս	-10.2932
amento	-10.2935
cre	-10.2935
▁że	-10.2935
▁nach	-10.2937
:40	-10.2937
▁telah	-10.2938
čí	-10.294
▁क	-10.2941
▁7.	-10.2941
▁pr	-10.2944
idade	-10.2944
ρα	-10.2944
400	-10.295
▁edhe	-10.2951
тай	-10.2954
over	-10.2955
▁અ	-10.2955
定	-10.2962
க்க	-10.2963
86	-10.2963
ס	-10.2963
ები	-10.297
bh	-10.2971
▁без	-10.2975
amente	-10.2977
▁work	-10.2978
ST	-10.2979
▁August	-10.2979
nja	-10.298
▁Па	-10.298
owe	-10.2987
▁nä	-10.299
▁MA	-10.2991
▁fre	-10.2991
nä	-10.2992
▁ev	-10.2994
▁let	-10.2995
ல	-10.2997
ೋ	-10.2998
:50	-10.2999
▁dis	-10.3002
ουν	-10.3008
ilo	-10.3009
~	-10.3009
▁עם	-10.3016
AC	-10.3016
▁SA	-10.3017
▁his	-10.3019
▁fost	-10.3019
:25	-10.3021
ೇ	-10.3027
គ	-10.3029
▁gre	-10.3032
ק	-10.3036
72	-10.3036
ū	-10.3037
▁prze	-10.304
ови	-10.3041
▁Blog	-10.3041
▁menjadi	-10.3042
ρ	-10.3046
▁vis	-10.3049
▁sebagai	-10.3054
To	-10.3054
▁Au	-10.3057
sis	-10.3059
▁public	-10.3061
െ	-10.3064
vá	-10.3065
pel	-10.3066
ስ	-10.3071
▁©	-10.3073
pie	-10.3075
ว	-10.3076
▁65	-10.3076
-3	-10.3083
ները	-10.3084
▁අ	-10.3085
▁Mag	-10.3088
ым	-10.309
▁sudah	-10.3091
▁meng	-10.3093
dim	-10.3096
dien	-10.3096
“,	-10.3097
▁ere	-10.3101
ase	-10.3102
rí	-10.3103
▁0.0	-10.3103
ै	-10.3108
▁bara	-10.3109
aji	-10.3109
▁jou	-10.311
ły	-10.3113
gos	-10.3115
osti	-10.3118
ká	-10.3122
ु	-10.3123
0.000	-10.3131
▁Nov	-10.3134
వ	-10.3136
ған	-10.3139
kit	-10.3139
mme	-10.314
▁total	-10.3145
liga	-10.3146
▁mata	-10.3146
und	-10.3147
▁Internet	-10.3151
mun	-10.3154
▁spo	-10.3156
▁yra	-10.3159
▁Bor	-10.3164
aka	-10.317
mbi	-10.3172
▁iki	-10.3176
аш	-10.3182
▁Os	-10.3184
51	-10.3185
▁organiz	-10.3186
rim	-10.3187
nn	-10.3188
gre	-10.3189
eni	-10.3191
▁2006	-10.3193
pri	-10.3195
uga	-10.3196
县	-10.32
ε	-10.3201
▁sind	-10.3206
vers	-10.3212
hir	-10.3213
▁11.	-10.3214
som	-10.3216
▁Ol	-10.3217
,”	-10.3217
▁bank	-10.322
▁przy	-10.3221
事	-10.3223
▁55	-10.3227
▁tại	-10.3227
▁gran	-10.3231
2019	-10.3233
▁Cal	-10.3234
idh	-10.3235
ೆ	-10.3236
▁κ	-10.3237
":	-10.3237
▁Fu	-10.3239
机	-10.3239
▁2000	-10.324
run	-10.3242
Í	-10.3242
ព	-10.3245
▁(19	-10.3247
igh	-10.3249
aria	-10.3253
ני	-10.3257
▁120	-10.3257
રા	-10.3262
ڈ	-10.3262
թ	-10.3267
▁ал	-10.3268
sty	-10.3269
▁43	-10.327
TI	-10.3271
fen	-10.3271
▁apa	-10.3275
▁(3)	-10.3279
ual	-10.3287
▁ч	-10.3287
lich	-10.3287
ア	-10.3288
ల్	-10.3288
▁Mor	-10.3289
ін	-10.3294
▁því	-10.3296
ction	-10.3296
ında	-10.3296
▁fin	-10.3297
▁Kal	-10.3298
ף	-10.3303
▁nad	-10.3308
zz	-10.3309
▁công	-10.3309
▁tá	-10.3314
или	-10.3316
alo	-10.3318
주	-10.3322
▁bis	-10.3322
ezi	-10.3328
nega	-10.3328
▁تا	-10.3332
रा	-10.3333
ство	-10.3333
▁ning	-10.3335
დ	-10.3335
▁tas	-10.3336
ien	-10.3336
2)	-10.3336
aal	-10.3337
▁Of	-10.3338
之	-10.3339
yê	-10.3342
dha	-10.3344
نگ	-10.3345
uko	-10.3353
▁12.	-10.3355
2,	-10.3363
र्	-10.3363
א	-10.3365
要	-10.3372
្	-10.3375
stro	-10.3376
▁quan	-10.3378
ന്‍	-10.3378
ਾ	-10.3378
▁še	-10.3379
▁maj	-10.3382
lom	-10.3382
З	-10.3383
pet	-10.3384
лек	-10.3385
».	-10.3385
ਚ	-10.3385
tem	-10.3386
:35	-10.3388
ամ	-10.3389
▁4,	-10.339
▁°	-10.3391
▁last	-10.3396
rus	-10.3399
шы	-10.3402
Mo	-10.3403
ной	-10.3404
▁کیا	-10.3409
mise	-10.3411
rek	-10.3412
ής	-10.3413
▁interes	-10.3416
గా	-10.3419
Be	-10.3422
mana	-10.3423
▁Э	-10.3425
▁nam	-10.3426
97	-10.343
ór	-10.3432
合	-10.3435
▁ки	-10.3437
lia	-10.3437
▁kung	-10.3443
mark	-10.3446
对	-10.3447
ද	-10.3447
anza	-10.3449
ظ	-10.345
ats	-10.345
း	-10.3451
▁other	-10.3456
▁Nike	-10.3464
▁xwe	-10.3466
▁xa	-10.3466
بر	-10.3468
ени	-10.3469
▁Tan	-10.3472
мер	-10.3473
▁بعد	-10.3474
52	-10.3478
▁shi	-10.3483
▁banyak	-10.3483
ад	-10.3484
▁grup	-10.3488
-5	-10.349
▁reg	-10.3496
▁ق	-10.3496
▁Μ	-10.3496
▁være	-10.3498
时	-10.3498
bul	-10.3502
бе	-10.3503
ň	-10.3504
ville	-10.3505
▁bạn	-10.3506
RI	-10.3506
▁pol	-10.3506
ją	-10.3507
sol	-10.351
ža	-10.3511
sil	-10.3513
▁kwenye	-10.3515
Pro	-10.3521
eti	-10.3523
nye	-10.3523
ær	-10.3526
▁Sz	-10.3527
서	-10.3532
lic	-10.3534
rio	-10.3535
KA	-10.3536
▁ole	-10.3539
▁bre	-10.3541
▁person	-10.3541
ច	-10.3541
mento	-10.3544
▁gr	-10.3547
▁41	-10.3548
نی	-10.3549
DA	-10.3551
▁hin	-10.3553
ht	-10.3554
▁bag	-10.3555
▁מה	-10.3557
▁cel	-10.3558
▁ха	-10.3562
▁res	-10.3563
inti	-10.3567
IA	-10.357
▁Nam	-10.357
▁Best	-10.357
she	-10.3576
▁br	-10.3576
Sa	-10.3578
bur	-10.3582
▁san	-10.3586
▁Í	-10.3588
▁produkt	-10.3593
സ	-10.3596
wn	-10.3598
nika	-10.3598
zon	-10.3598
ün	-10.36
▁pel	-10.3601
▁Fer	-10.3602
ort	-10.3605
idad	-10.3606
tten	-10.3608
gat	-10.3609
nga	-10.3609
ume	-10.361
مان	-10.3612
nim	-10.3612
▁এ	-10.3614
:05	-10.3616
7%	-10.3622
tica	-10.3622
▁تر	-10.3622
mpa	-10.3625
َ	-10.3627
utu	-10.363
ಸ್	-10.3639
aja	-10.3641
али	-10.3641
ση	-10.365
jes	-10.3651
ose	-10.3654
dam	-10.3656
▁бир	-10.3656
安	-10.3657
し	-10.3661
▁Cre	-10.3662
▁ఆ	-10.3663
бор	-10.3666
lus	-10.3667
cle	-10.3668
:14	-10.3676
բ	-10.3677
▁رو	-10.3677
ett	-10.3681
amba	-10.3681
ري	-10.3681
▁media	-10.3685
▁spe	-10.3685
▁design	-10.3688
ത്	-10.3689
▁سی	-10.3689
heid	-10.369
▁dha	-10.3691
ير	-10.3692
▁τις	-10.3693
▁RE	-10.3695
zem	-10.3696
:21	-10.3696
▁Kas	-10.3697
år	-10.3698
▁Windows	-10.37
▁جو	-10.3701
ته	-10.3701
▁John	-10.3702
▁що	-10.3704
▁moment	-10.3704
▁Son	-10.3708
▁nak	-10.3709
▁YA	-10.3709
▁thể	-10.3709
any	-10.3713
▁full	-10.3716
▁5,	-10.3717
:18	-10.3719
ນ	-10.3719
▁hiyo	-10.3721
yin	-10.3722
ingen	-10.3722
kle	-10.3729
▁sana	-10.3733
lib	-10.3734
:13	-10.3737
96	-10.3739
tai	-10.374
ब	-10.3742
▁Bur	-10.3748
ట్	-10.3749
-06	-10.3749
▁ও	-10.3753
rod	-10.3754
▁Android	-10.3755
մ	-10.3756
Mar	-10.3756
▁está	-10.3757
2018	-10.3759
list	-10.3763
▁سو	-10.3767
▁kommer	-10.3774
kra	-10.3775
▁Tre	-10.3777
anya	-10.3777
ẹ	-10.378
ій	-10.3787
▁sono	-10.3787
▁dute	-10.379
ида	-10.3791
▁bli	-10.3791
च	-10.3793
īt	-10.3794
nou	-10.3796
前	-10.3801
▁nel	-10.3802
anga	-10.3803
ann	-10.3804
band	-10.3805
▁ਦੀ	-10.3806
ane	-10.3807
▁efter	-10.3807
▁مو	-10.3809
▁የ	-10.381
ismo	-10.3812
hor	-10.3813
▁dla	-10.3813
یں	-10.3813
itat	-10.3814
ալ	-10.3815
name	-10.3818
▁Inn	-10.3822
力	-10.3825
▁land	-10.3829
Ro	-10.3829
▁ú	-10.3832
▁mü	-10.3834
▁meer	-10.3835
▁Հ	-10.384
ació	-10.384
▁More	-10.3844
78	-10.3844
cen	-10.3845
:55	-10.3846
▁અને	-10.3849
▁nhà	-10.385
dul	-10.3853
gia	-10.3853
:11	-10.3856
▁lagi	-10.3857
pla	-10.3858
▁Са	-10.3858
த	-10.3858
ਤ	-10.3858
π	-10.3861
টি	-10.3862
%2	-10.3863
▁Mer	-10.3863
▁ph	-10.3869
pot	-10.3869
▁ס	-10.3871
▁hier	-10.3872
sku	-10.3875
ці	-10.3878
▁Ger	-10.388
nike	-10.3885
▁سال	-10.3886
ства	-10.3889
89	-10.3892
▁μ	-10.3893
лық	-10.3893
ã	-10.3894
▁kuri	-10.3895
ಸ	-10.3898
tung	-10.3898
Σ	-10.39
▁или	-10.3905
Ra	-10.3906
hold	-10.3913
ēt	-10.3913
‚	-10.3914
▁gra	-10.3917
anti	-10.392
▁ml	-10.3921
▁پی	-10.3924
tua	-10.393
hd	-10.3933
hla	-10.3936
ను	-10.3937
tě	-10.3937
cent	-10.3937
azione	-10.394
ನ್	-10.3941
화	-10.3942
等	-10.3943
AM	-10.3946
alt	-10.3947
▁She	-10.395
▁Cho	-10.3961
kr	-10.3961
▁ok	-10.3963
り	-10.3963
▁gün	-10.3963
nın	-10.3964
ნ	-10.3964
iyo	-10.3965
:17	-10.3969
▁дека	-10.3969
ole	-10.397
."	-10.3971
ಮ	-10.3977
TA	-10.398
larda	-10.3982
▁ਸ	-10.3983
gli	-10.3985
γ	-10.3985
▁contra	-10.3986
▁ја	-10.3988
▁Fri	-10.3989
▁पर	-10.399
▁wana	-10.3992
:12	-10.3994
მა	-10.4
ود	-10.4001
No	-10.4002
▁ز	-10.4004
▁Ç	-10.4007
ू	-10.4009
TC	-10.4016
69	-10.4016
pos	-10.4016
تر	-10.4016
▁sus	-10.4017
bia	-10.4024
▁46	-10.4025
ney	-10.4026
▁tahun	-10.4026
CO	-10.4033
{	-10.4036
▁får	-10.4037
▁star	-10.4037
▁250	-10.4043
ձ	-10.4045
三	-10.4046
▁қа	-10.4048
▁god	-10.4048
वा	-10.4049
air	-10.4051
▁Bre	-10.4051
ি	-10.4053
▁2019,	-10.4053
:01	-10.4063
ек	-10.4065
ده	-10.4065
adda	-10.4068
▁při	-10.4073
kii	-10.4074
gn	-10.4077
ып	-10.4077
tions	-10.4082
ատ	-10.4082
url	-10.4082
jal	-10.4083
▁pla	-10.4083
wen	-10.4084
:19	-10.4085
▁има	-10.4087
ons	-10.409
▁Bas	-10.4097
▁naar	-10.4104
ĝ	-10.411
▁kale	-10.4111
▁kir	-10.4114
hol	-10.4116
αν	-10.4117
ako	-10.4129
Ã	-10.4135
77	-10.4136
▁xe	-10.4136
▁ш	-10.4137
▁י	-10.4138
▁Zi	-10.4138
▁foi	-10.4138
نے	-10.4139
▁ame	-10.4139
▁wo	-10.4146
oje	-10.4147
79	-10.4154
▁400	-10.4155
ging	-10.4156
▁Ко	-10.4157
▁vid	-10.4159
க	-10.4161
▁إلى	-10.4164
part	-10.4167
ира	-10.417
λε	-10.417
▁Sex	-10.4173
名	-10.4174
▁harga	-10.4174
EL	-10.4174
▁AS	-10.4178
taka	-10.418
▁Ü	-10.4181
▁mor	-10.4183
▁että	-10.4188
uku	-10.4189
Do	-10.4191
▁klo	-10.4194
ís	-10.4196
ली	-10.4198
ligi	-10.4198
ph	-10.4201
▁Ir	-10.4202
▁sch	-10.4203
▁March	-10.4206
ების	-10.4206
▁sistem	-10.4206
dio	-10.4208
ئ	-10.421
▁parti	-10.4211
ust	-10.4213
unk	-10.4214
▁aki	-10.4216
ტ	-10.4218
▁́	-10.4222
ог	-10.4224
아	-10.4226
▁Far	-10.4229
ие	-10.4229
ħ	-10.4229
vien	-10.4232
dah	-10.4235
▁പ	-10.4237
▁સ	-10.4238
▁(2	-10.4238
600	-10.4243
ous	-10.4245
▁Casino	-10.425
yang	-10.4252
spe	-10.4253
▁iPhone	-10.4253
aci	-10.4257
▁long	-10.4257
цы	-10.4257
தி	-10.4258
:23	-10.4261
yu	-10.4269
stre	-10.427
OL	-10.4273
▁Во	-10.4274
lad	-10.4275
:16	-10.4285
కు	-10.4285
vit	-10.4285
▁ста	-10.4286
Ta	-10.4287
ER	-10.4287
▁bur	-10.4289
▁Hel	-10.4292
ուն	-10.4294
Ф	-10.4295
▁mana	-10.4295
美	-10.4299
▁trans	-10.4302
▁Pod	-10.4306
osta	-10.4308
Ar	-10.4312
ина	-10.4313
▁1000	-10.4313
:22	-10.4313
eh	-10.4316
ט	-10.432
kol	-10.4321
sins	-10.4321
ful	-10.4322
esta	-10.4325
nta	-10.4326
▁sie	-10.4329
rada	-10.433
も	-10.433
▁khi	-10.4331
nk	-10.4332
vir	-10.4333
ু	-10.4334
أ	-10.434
›	-10.434
▁प	-10.4342
ema	-10.4344
ller	-10.4345
:03	-10.4345
▁Dia	-10.4348
▁ili	-10.435
▁ప	-10.4354
zio	-10.4354
全	-10.4354
▁8.	-10.4358
ké	-10.437
:02	-10.4371
▁Design	-10.4371
bla	-10.4374
:06	-10.4376
lige	-10.4376
85	-10.4376
▁sil	-10.4377
ības	-10.438
▁че	-10.438
▁49	-10.4381
▁ਹੈ	-10.4381
▁which	-10.4382
▁fl	-10.4386
▁بی	-10.4386
ണ	-10.4387
info	-10.4388
sky	-10.4388
ük	-10.4391
:26	-10.4392
▁più	-10.4398
▁system	-10.4398
প	-10.4399
ské	-10.4402
bes	-10.4403
aus	-10.4404
▁دو	-10.4405
▁had	-10.4407
▁bere	-10.4408
ður	-10.4408
fra	-10.4413
kah	-10.4413
ets	-10.4414
区	-10.4415
▁Մ	-10.4415
ห	-10.4416
61	-10.4418
▁Ap	-10.4419
નો	-10.442
▁service	-10.4423
▁make	-10.4423
▁USA	-10.4425
ayo	-10.4426
CE	-10.4427
ใน	-10.4428
för	-10.443
ք	-10.443
ਟ	-10.4437
ikan	-10.4437
ของ	-10.4438
84	-10.4438
jos	-10.444
▁sunt	-10.444
ង	-10.4441
ити	-10.4442
:27	-10.4445
▁Ս	-10.4446
▁مر	-10.4446
zan	-10.4449
▁Inter	-10.4449
री	-10.445
▁onder	-10.4455
▁100%	-10.4456
RO	-10.4456
ār	-10.4456
ത്ത	-10.4457
▁bol	-10.4458
수	-10.4463
63	-10.4464
kala	-10.4467
▁Ме	-10.4471
:29	-10.4472
▁word	-10.4472
link	-10.4473
DE	-10.4473
dən	-10.4474
93	-10.4477
alu	-10.4481
▁Kol	-10.4481
öl	-10.4484
国	-10.4496
▁Col	-10.4498
ами	-10.4499
uch	-10.4499
vod	-10.4504
ಗೆ	-10.4507
▁الع	-10.4508
▁isang	-10.4511
mur	-10.4514
ць	-10.4514
▁До	-10.4516
▁þess	-10.4516
ана	-10.4517
▁Mark	-10.4518
esi	-10.4518
osa	-10.452
juk	-10.4521
stri	-10.4521
מה	-10.4521
:28	-10.4525
cam	-10.4526
▁አ	-10.4528
▁ഇ	-10.4533
:39	-10.4533
ום	-10.4534
top	-10.4539
:58	-10.4539
▁hàng	-10.4541
hus	-10.4541
að	-10.4545
آ	-10.4547
▁Nor	-10.4549
▁64	-10.4555
▁т	-10.4555
▁kol	-10.4558
▁lei	-10.456
win	-10.4567
य	-10.4567
UR	-10.4571
zia	-10.4572
તા	-10.4577
iku	-10.4578
ovi	-10.4581
▁Мо	-10.4582
:31	-10.4592
面	-10.4593
▁website	-10.4596
:59	-10.4599
ení	-10.4601
col	-10.4604
ія	-10.4608
▁प्र	-10.4609
:08	-10.4612
▁þ	-10.4612
官网	-10.4613
▁fri	-10.4614
sche	-10.4622
▁я	-10.4622
:44	-10.4622
:32	-10.4622
▁link	-10.4624
py	-10.4625
ут	-10.4626
▁Sp	-10.4626
▁seperti	-10.4627
▁”	-10.4631
▁dell	-10.4631
▁July	-10.4637
:37	-10.4637
ден	-10.4639
plan	-10.4644
▁જ	-10.4645
ishi	-10.4649
ా	-10.465
cion	-10.4653
▁Ed	-10.4654
:43	-10.4655
chu	-10.4657
encia	-10.4662
জ	-10.4663
:33	-10.4665
▁13.	-10.4666
tí	-10.4666
اف	-10.4672
▁ג	-10.4676
فر	-10.4677
ություն	-10.4681
jat	-10.4681
jn	-10.4681
해	-10.4688
כ	-10.4688
دار	-10.4689
turi	-10.4689
▁sangat	-10.4689
ಲ್	-10.469
法	-10.469
▁tempo	-10.4691
62	-10.4693
▁they	-10.4696
ový	-10.4697
kker	-10.47
:51	-10.4701
ș	-10.4701
:04	-10.4702
▁ин	-10.4702
gue	-10.4702
▁January	-10.4705
▁acest	-10.4705
:24	-10.4706
ों	-10.4707
ட	-10.4707
క	-10.4708
▁ugu	-10.4712
▁Tor	-10.4716
iro	-10.472
يد	-10.472
ការ	-10.4721
jon	-10.4722
▁list	-10.4723
ità	-10.4723
эн	-10.4725
ité	-10.4725
nit	-10.4727
ث	-10.473
AP	-10.4734
ulu	-10.4736
sid	-10.4737
фи	-10.4738
stand	-10.474
uj	-10.4741
хи	-10.4743
2016	-10.4749
▁دانلود	-10.4749
ос	-10.4751
▁hvor	-10.4751
▁Ac	-10.4751
▁↑	-10.4754
ас	-10.4755
▁tə	-10.4758
лер	-10.4759
▁Plus	-10.4761
▁Β	-10.4763
▁waar	-10.4765
▁anak	-10.4767
手	-10.4768
ojn	-10.4769
book	-10.4776
ries	-10.4778
ыр	-10.4781
▁pār	-10.4782
usa	-10.4785
kke	-10.4787
文	-10.4787
▁lahko	-10.4787
:57	-10.4788
্	-10.4788
▁Azərbaycan	-10.4789
β	-10.479
▁ги	-10.4793
▁Che	-10.4793
▁egin	-10.4797
isto	-10.4797
▁kul	-10.4798
elo	-10.4803
:42	-10.4805
▁Set	-10.4813
ини	-10.4813
▁June	-10.4816
ծ	-10.4817
иб	-10.4818
ได้	-10.4819
Bo	-10.482
성	-10.4822
нов	-10.4823
▁То	-10.4823
kh	-10.4825
יים	-10.4827
eks	-10.4828
▁bulan	-10.4831
ament	-10.4834
ű	-10.4836
▁કે	-10.4837
▁Media	-10.4839
▁bun	-10.484
('	-10.4842
taan	-10.4842
▁pres	-10.4843
SE	-10.4845
iwa	-10.4849
:38	-10.4849
igu	-10.4851
▁α	-10.4851
ත්	-10.4853
AD	-10.4853
▁spa	-10.4855
dzi	-10.4856
:46	-10.4859
▁news	-10.4861
으로	-10.4863
▁PC	-10.4863
աց	-10.4863
▁India	-10.4864
▁Samsung	-10.4865
▁hon	-10.4866
ರು	-10.4867
Ж	-10.4869
תי	-10.4871
lk	-10.4873
▁ger	-10.4873
▁era	-10.4874
nat	-10.4875
▁info	-10.4875
▁இ	-10.4876
▁stra	-10.4879
入	-10.488
UM	-10.4885
▁Ц	-10.4887
یر	-10.4889
▁White	-10.4897
ING	-10.4897
明	-10.4898
▁Ал	-10.4899
bir	-10.4902
live	-10.4904
▁9.	-10.4905
aca	-10.4907
11.	-10.4913
▁Sur	-10.4915
dı	-10.4916
:54	-10.4919
ала	-10.492
▁čas	-10.4923
ojnë	-10.4926
:36	-10.4928
hel	-10.4931
74	-10.4934
:49	-10.4935
TT	-10.4938
kut	-10.4941
ਸ਼	-10.4943
hed	-10.4943
ા	-10.4943
ийг	-10.4945
▁EU	-10.4946
oon	-10.495
alla	-10.4951
aire	-10.4952
▁pal	-10.4953
特	-10.4953
-11	-10.4953
▁tau	-10.4954
ox	-10.4955
CH	-10.4956
ß	-10.4961
▁ச	-10.4962
▁Sy	-10.4963
ુ	-10.4963
▁selv	-10.4963
▁views	-10.4965
ಡ	-10.4969
tif	-10.4971
vik	-10.4973
owy	-10.4974
ON	-10.4975
▁ann	-10.4976
▁Mus	-10.4978
ним	-10.4979
cker	-10.4981
▁Martin	-10.4982
:07	-10.4985
▁pris	-10.4986
రి	-10.4989
xo	-10.4989
「	-10.499
▁15.	-10.4991
ീ	-10.4992
ன	-10.4993
▁Ö	-10.4996
/2	-10.4996
后	-10.4996
87	-10.4997
ash	-10.4997
▁autor	-10.4999
▁One	-10.5
۳	-10.5004
ном	-10.5006
uba	-10.5011
ildi	-10.5014
▁ਨੂੰ	-10.5015
▁PA	-10.5015
▁Tro	-10.5019
atan	-10.5021
ස්	-10.5021
ší	-10.5023
:09	-10.5023
ctor	-10.5024
:47	-10.5025
▁len	-10.5028
:34	-10.5029
:52	-10.5031
iska	-10.5032
상	-10.5033
ვ	-10.5034
外	-10.5034
NA	-10.5039
Ja	-10.5039
▁כל	-10.504
▁ته	-10.5043
ик	-10.5044
kia	-10.5045
gh	-10.5046
endo	-10.5046
▁üçün	-10.505
92	-10.5053
avi	-10.5054
▁ziren	-10.5054
▁Blue	-10.5056
бы	-10.5058
▁who	-10.5065
ава	-10.507
▁bes	-10.507
LA	-10.5073
site	-10.5074
/10	-10.5075
:41	-10.5077
sem	-10.5077
nti	-10.5079
▁οι	-10.508
lja	-10.508
dhi	-10.508
▁jau	-10.5082
့	-10.5082
vert	-10.5083
▁bus	-10.5083
kul	-10.5087
▁casa	-10.5089
▁jam	-10.509
zik	-10.5091
sur	-10.5093
("	-10.5093
ເ	-10.5093
发	-10.5094
心	-10.5095
▁verk	-10.5099
ати	-10.51
南	-10.51
ség	-10.5102
▁ор	-10.5104
ҳо	-10.5105
like	-10.5105
▁ಬ	-10.5106
EA	-10.5106
ني	-10.511
dagi	-10.5111
mil	-10.5111
??	-10.5113
αρ	-10.5114
中国	-10.5118
▁bagi	-10.512
sport	-10.5122
西	-10.5122
în	-10.5124
67	-10.5124
ių	-10.5126
▁October	-10.5131
▁Full	-10.5132
▁bila	-10.5132
▁end	-10.5133
▁cal	-10.5137
ím	-10.5137
」	-10.5137
יות	-10.5138
ער	-10.5139
71	-10.514
fik	-10.5142
ить	-10.5144
化	-10.5145
long	-10.5147
76	-10.5152
MP	-10.5153
Fi	-10.5156
▁Hand	-10.5158
ّ	-10.516
ijos	-10.5163
rem	-10.5164
▁Nie	-10.5164
ated	-10.5164
▁hanya	-10.5165
die	-10.5165
ude	-10.5166
▁52	-10.5166
▁kre	-10.5166
tá	-10.5168
CI	-10.5172
▁Comments	-10.5172
▁use	-10.5172
▁most	-10.5173
主	-10.5174
zim	-10.5176
▁ক	-10.5178
ск	-10.5181
▁Los	-10.5181
ස	-10.5183
rg	-10.5184
gil	-10.5184
イ	-10.5185
дин	-10.5185
langan	-10.5189
tori	-10.5191
:48	-10.5192
:53	-10.52
2012	-10.5201
▁ble	-10.5202
وز	-10.5202
lü	-10.5204
ago	-10.5205
EN	-10.5209
以	-10.5209
▁kina	-10.5216
ತ	-10.5218
전	-10.5227
▁art	-10.5227
▁نہیں	-10.5229
▁USD	-10.5229
Co	-10.5233
Ա	-10.5237
▁Oo	-10.5238
91	-10.5238
ప	-10.5238
▁аз	-10.5239
mist	-10.5239
:56	-10.524
▁Я	-10.524
▁Ik	-10.5245
▁giá	-10.5247
▁hai	-10.5248
sho	-10.5249
-02	-10.525
▁47	-10.5252
▁MP	-10.5254
▁Og	-10.5254
▁daha	-10.5255
қа	-10.5257
ono	-10.5266
▁بن	-10.527
ена	-10.5271
rán	-10.5272
czy	-10.5272
ams	-10.5276
▁pela	-10.5276
▁fun	-10.5279
ҳои	-10.5279
bus	-10.528
ய	-10.528
▁West	-10.5281
shop	-10.5282
▁απο	-10.5285
pres	-10.5287
▁lain	-10.5287
uru	-10.5288
ants	-10.5291
▁sto	-10.5291
▁mere	-10.5292
SP	-10.5292
▁nas	-10.5292
eiro	-10.5293
کی	-10.5294
ො	-10.5295
81	-10.5297
mina	-10.5303
tim	-10.5305
부	-10.5306
IE	-10.5307
▁Ste	-10.5308
лык	-10.5311
▁ry	-10.5312
▁York	-10.5315
nci	-10.5317
-6	-10.5319
IP	-10.5322
800	-10.5323
PA	-10.5329
▁Το	-10.5338
▁Jun	-10.5339
▁க	-10.5339
▁ಆ	-10.5342
▁ಸ	-10.5344
kä	-10.5345
▁Stra	-10.5353
mai	-10.5357
ique	-10.5358
▁кон	-10.5364
自	-10.5366
요	-10.5367
ої	-10.5369
TS	-10.5372
ologi	-10.5374
▁CO	-10.5376
▁modern	-10.5376
▁first	-10.5382
▁Gen	-10.5384
▁place	-10.5389
ió	-10.5393
ಿ	-10.5394
▁Nr	-10.5394
就	-10.5396
сі	-10.5397
▁Club	-10.5398
ls	-10.5398
▁বি	-10.5399
▁uku	-10.54
sini	-10.5403
▁mund	-10.5404
▁Jeg	-10.5406
▁material	-10.5409
▁hindi	-10.5409
اً	-10.5411
▁rec	-10.5414
▁پاکستان	-10.5415
ind	-10.5416
▁ප	-10.5416
▁7,	-10.5418
mini	-10.5419
▁ہو	-10.5419
体	-10.5421
ា	-10.5423
▁sẽ	-10.5427
▁ár	-10.5427
ius	-10.5428
▁này	-10.5429
ց	-10.543
hit	-10.5438
rib	-10.5439
▁kann	-10.5439
ડ	-10.544
จ	-10.5441
▁ד	-10.5441
▁bas	-10.5443
▁kata	-10.5445
గ	-10.5448
▁product	-10.5448
▁Pla	-10.5451
çi	-10.5452
သ	-10.5453
利	-10.5455
cas	-10.5456
▁pl	-10.5456
tang	-10.5461
▁Ч	-10.5461
গ	-10.5462
期	-10.5462
Α	-10.5464
▁show	-10.5465
ská	-10.5468
▁ons	-10.5469
ði	-10.5471
▁daar	-10.5472
▁về	-10.5473
ulan	-10.548
inde	-10.5481
ford	-10.5483
יי	-10.5485
pra	-10.5485
TG	-10.5489
itet	-10.5489
▁14.	-10.549
><	-10.5491
ech	-10.5492
▁kont	-10.5499
▁մ	-10.55
▁Vis	-10.5501
▁Barcelona	-10.5502
ED	-10.5508
ζ	-10.5509
方	-10.5511
▁Þ	-10.5512
与	-10.5513
▁ф	-10.5513
RE	-10.5514
Ñ	-10.5517
lık	-10.5518
DI	-10.5518
AS	-10.552
▁(0)	-10.5522
82	-10.5522
siz	-10.553
▁what	-10.553
най	-10.5531
бар	-10.5538
BI	-10.5542
▁Со	-10.5543
TO	-10.5545
бу	-10.5545
于	-10.5546
ún	-10.5547
▁off	-10.5548
ብ	-10.5548
1)	-10.5548
▁Don	-10.555
പ	-10.5552
▁Model	-10.5555
▁Tá	-10.5557
Vi	-10.5558
ոն	-10.5561
▁gener	-10.5562
▁স	-10.5563
రు	-10.5565
kou	-10.5567
▁Fra	-10.5568
rom	-10.5568
▁Plan	-10.5568
AB	-10.5568
▁آن	-10.5569
▁transport	-10.5569
เป็น	-10.5571
бра	-10.5572
▁MB	-10.5575
▁6,	-10.5575
▁now	-10.5575
▁tha	-10.5577
能	-10.5577
وی	-10.5579
str	-10.5579
-20	-10.5579
▁its	-10.5579
▁mun	-10.558
ət	-10.5585
కి	-10.5585
▁über	-10.5587
sed	-10.5587
▁Br	-10.5588
68	-10.5593
анд	-10.5595
Е	-10.5596
maan	-10.5598
sı	-10.5599
▁Wo	-10.5599
less	-10.5599
▁či	-10.5602
▁हो	-10.5603
▁janë	-10.561
imas	-10.5612
▁vers	-10.5619
▁Ви	-10.562
73	-10.5621
র্	-10.5622
▁ani	-10.5622
▁Eesti	-10.5623
αλ	-10.5629
ult	-10.5629
▁съ	-10.563
դ	-10.563
▁hel	-10.5631
▁mara	-10.5631
▁2005	-10.5632
▁từ	-10.5638
ല്‍	-10.5644
pit	-10.5644
▁Soomaaliya	-10.5645
als	-10.5646
▁Bay	-10.5649
▁đến	-10.5649
IM	-10.565
▁bude	-10.5652
长	-10.5652
▁Allah	-10.5654
ві	-10.5655
—	-10.5656
jó	-10.5656
AK	-10.5658
idi	-10.566
开	-10.566
▁produk	-10.5661
ир	-10.5662
▁mig	-10.5662
ಗ	-10.5662
部	-10.5666
rez	-10.567
tera	-10.567
▁Mel	-10.5671
эр	-10.5672
cin	-10.5674
Ç	-10.5674
há	-10.5676
구	-10.5679
რე	-10.5681
со	-10.5681
оз	-10.5683
تا	-10.5685
▁zł	-10.5688
▁World	-10.5689
вар	-10.5689
▁PRO	-10.5693
▁hefur	-10.5695
▁Ay	-10.5695
▁2018,	-10.5698
▁Last	-10.5699
车	-10.57
▁роз	-10.5702
ilor	-10.5702
▁Play	-10.5703
2020	-10.5703
▁മ	-10.5707
stat	-10.5708
sat	-10.5709
▁ս	-10.5711
▁baru	-10.5711
▁color	-10.5713
▁kamp	-10.5715
тор	-10.5716
teen	-10.5716
-15	-10.5716
ého	-10.572
▁ту	-10.5721
LE	-10.5723
▁inform	-10.5723
▁semua	-10.5723
وس	-10.5726
că	-10.5727
مه	-10.5727
▁day	-10.5727
ائی	-10.5728
έρ	-10.5731
▁sua	-10.5732
▁yeni	-10.5733
MB	-10.5734
āk	-10.5734
▁16.	-10.5738
hur	-10.5738
اه	-10.5738
▁Tele	-10.5739
▁Gra	-10.574
度	-10.574
يل	-10.5743
zko	-10.5744
rze	-10.5746
▁tag	-10.5746
▁19.	-10.5746
enza	-10.5747
ния	-10.5749
▁bel	-10.5753
▁mp	-10.5756
▁werden	-10.5758
พ	-10.576
nú	-10.5761
ុ	-10.5767
98	-10.5768
ń	-10.5768
kka	-10.577
hari	-10.5771
▁indi	-10.5771
▁ने	-10.5773
ण	-10.5773
eme	-10.5774
zor	-10.5774
εί	-10.5775
ಂ	-10.5776
看	-10.5777
CT	-10.5778
xu	-10.578
stad	-10.5783
ight	-10.5783
inte	-10.5786
ott	-10.5789
▁бе	-10.5789
های	-10.5789
▁न	-10.579
▁2019.	-10.579
▁فر	-10.579
ە	-10.579
она	-10.579
か	-10.5791
យ	-10.5792
▁kategori	-10.5793
▁ம	-10.5795
ANG	-10.5795
▁Бу	-10.5797
gle	-10.5798
▁kg	-10.58
▁bro	-10.58
▁cada	-10.5801
▁information	-10.5802
▁Aus	-10.5802
ած	-10.5805
▁φ	-10.5806
94	-10.5807
▁ur	-10.5807
AG	-10.5808
ame	-10.581
▁85	-10.5811
▁té	-10.5811
▁href	-10.5812
sä	-10.5813
ност	-10.5814
▁kuma	-10.5816
▁oder	-10.5821
▁kala	-10.5825
▁Ker	-10.5827
Ü	-10.5832
▁hau	-10.5833
ะ	-10.5835
saysay	-10.5838
pper	-10.5843
都	-10.5843
lf	-10.5843
▁Ham	-10.5843
тен	-10.5844
▁ще	-10.5848
▁Sk	-10.585
▁Ş	-10.5852
રી	-10.5854
▁huo	-10.5857
▁mala	-10.5857
道	-10.5858
bert	-10.5858
ті	-10.5859
об	-10.5861
▁high	-10.5861
գ	-10.5863
img	-10.5864
bro	-10.5865
το	-10.5865
▁17.	-10.5868
щ	-10.5869
▁Ram	-10.5869
bot	-10.587
-07	-10.587
ations	-10.5874
ness	-10.5874
▁18.	-10.5874
را	-10.5876
-8	-10.5877
না	-10.5878
▁prin	-10.5879
▁yi	-10.5881
-05	-10.5881
▁tema	-10.5882
pul	-10.5885
gga	-10.5886
▁த	-10.5888
▁USB	-10.589
▁SE	-10.5892
▁də	-10.5892
3%	-10.5893
osi	-10.5897
▁Ag	-10.5898
կ	-10.5899
▁nó	-10.59
▁pic	-10.5901
▁пере	-10.5904
ever	-10.5906
▁yake	-10.5907
ικό	-10.5908
llo	-10.5911
▁qua	-10.5912
▁אי	-10.5913
؟	-10.5914
▁Day	-10.5919
jú	-10.5921
رو	-10.5921
▁Twitter	-10.5923
ও	-10.5923
ční	-10.5924
▁badan	-10.5926
년	-10.5927
▁Das	-10.5931
jí	-10.5931
став	-10.5934
▁zna	-10.5935
ahan	-10.5936
▁само	-10.5936
rup	-10.5936
acht	-10.5937
ав	-10.5938
ജ	-10.5939
ách	-10.5942
▁kel	-10.5943
media	-10.5945
001	-10.5948
arna	-10.5948
ා	-10.5949
taj	-10.5951
க்	-10.5953
▁خبر	-10.5954
▁Alle	-10.5955
▁nur	-10.5956
oh	-10.5958
şa	-10.596
▁dom	-10.5964
wood	-10.5965
wang	-10.5967
▁ở	-10.5967
▁Ez	-10.597
▁ris	-10.597
▁προ	-10.5972
▁hos	-10.5973
ming	-10.5974
ék	-10.5977
โ	-10.5979
▁With	-10.598
▁sul	-10.5983
sus	-10.5984
▁Apple	-10.5985
ική	-10.5988
רי	-10.599
ట	-10.5992
▁High	-10.5993
EC	-10.5996
▁Paul	-10.5996
kes	-10.5998
▁pul	-10.6
مر	-10.6001
tab	-10.6003
▁51	-10.6007
▁minut	-10.6007
assa	-10.6007
რი	-10.6011
▁ص	-10.6012
▁nje	-10.6014
得	-10.6015
LI	-10.6016
▁here	-10.6019
▁Wikipedia	-10.6019
▁ano	-10.602
ც	-10.6024
каз	-10.6027
2%	-10.6032
rú	-10.6035
akan	-10.6037
▁£	-10.604
рат	-10.6042
▁ди	-10.6044
▁làm	-10.6046
cial	-10.6049
cca	-10.605
▁δια	-10.6052
▁sor	-10.6055
iel	-10.6055
тал	-10.6055
kup	-10.6056
▁admin	-10.6056
etti	-10.6058
▁document	-10.6062
▁sonra	-10.6066
▁sí	-10.6066
cel	-10.6069
dob	-10.6069
çe	-10.6072
▁8,	-10.6072
▁AL	-10.6072
Li	-10.6076
raf	-10.6076
▁gli	-10.6077
eel	-10.6077
bab	-10.6079
Po	-10.6081
wie	-10.6082
mani	-10.6083
▁ко	-10.6084
من	-10.6085
zioni	-10.6086
▁Pie	-10.6087
▁Rus	-10.6088
▁game	-10.6091
▁Sep	-10.6094
▁deze	-10.6096
ध	-10.6098
мі	-10.6102
▁ע	-10.6104
▁IP	-10.6104
RU	-10.6104
▁boleh	-10.6104
▁trên	-10.611
hn	-10.6111
nh	-10.6111
hra	-10.6111
ө	-10.6113
tv	-10.6121
/5	-10.6121
SC	-10.6122
也	-10.6125
▁poz	-10.6125
yer	-10.6125
ੋ	-10.6128
vě	-10.6131
nings	-10.6133
▁ж	-10.6135
த்த	-10.6136
学	-10.614
最	-10.6141
▁če	-10.6143
▁December	-10.6143
aro	-10.6145
▁Pag	-10.6145
larni	-10.6147
লা	-10.6147
rap	-10.6148
▁Се	-10.615
▁olarak	-10.6152
jam	-10.6155
ír	-10.6155
▁Vel	-10.6157
▁전	-10.6161
siya	-10.6163
ware	-10.6165
iq	-10.6167
थ	-10.6168
пер	-10.6169
산	-10.6171
ného	-10.6171
DS	-10.6172
uran	-10.6173
▁די	-10.6174
аль	-10.6174
▁kam	-10.6174
kki	-10.6175
▁Kur	-10.6175
▁Shi	-10.6176
▁Bon	-10.6179
gl	-10.6182
▁(4)	-10.6185
ין	-10.6187
hem	-10.6196
理	-10.62
▁United	-10.6201
tiva	-10.6203
stel	-10.6203
▁App	-10.6203
نس	-10.6203
▁karena	-10.6204
▁хо	-10.6205
▁International	-10.6206
▁när	-10.6207
次	-10.6207
▁shumë	-10.621
▁ક	-10.621
لي	-10.6212
יק	-10.6214
▁הת	-10.6216
工	-10.6216
하	-10.6217
▁Mak	-10.6219
海	-10.6222
▁personal	-10.6224
▁English	-10.6224
mä	-10.6224
oja	-10.6225
▁ਨੇ	-10.6227
یل	-10.623
lio	-10.6236
▁може	-10.6238
ίας	-10.6241
და	-10.6244
▁그	-10.6246
ať	-10.6247
通	-10.625
商	-10.625
▁Bro	-10.6252
/3	-10.6252
has	-10.6253
dit	-10.6255
品	-10.6259
bud	-10.6262
sak	-10.6262
mata	-10.6262
gir	-10.6264
ೀ	-10.6265
%3	-10.6267
▁Land	-10.6267
sul	-10.627
▁Del	-10.6275
þ	-10.6275
▁მ	-10.6277
isten	-10.6277
bah	-10.628
raj	-10.628
▁uw	-10.6281
Š	-10.6283
▁Vy	-10.6283
0000	-10.6285
▁600	-10.6286
owa	-10.6287
▁और	-10.6288
▁Pin	-10.6288
sun	-10.6288
▁pero	-10.6289
将	-10.6291
▁lui	-10.6292
▁Us	-10.6293
▁iş	-10.6295
▁cam	-10.6296
рам	-10.6297
▁მო	-10.6297
▁số	-10.63
mont	-10.6301
▁nhất	-10.6309
▁kontakt	-10.631
▁mini	-10.631
▁Де	-10.631
▁Ing	-10.6313
ული	-10.6313
ид	-10.6313
“.	-10.6314
▁gy	-10.6316
hana	-10.6316
uro	-10.632
πο	-10.632
нда	-10.6321
নে	-10.6322
ување	-10.6324
ပ	-10.6325
ី	-10.6325
tare	-10.6326
个	-10.6326
ību	-10.633
צ	-10.6333
▁face	-10.6337
▁және	-10.6342
▁hann	-10.6344
▁Bak	-10.6346
ñ	-10.6349
1%	-10.6349
ம	-10.635
ਹ	-10.6351
ladi	-10.6352
▁گ	-10.6353
▁Light	-10.6356
rei	-10.6357
6%	-10.6357
נ	-10.6358
动	-10.6358
oor	-10.636
▁Europa	-10.6363
▁sm	-10.6365
▁thu	-10.6365
qo	-10.6367
হ	-10.6372
▁Villa	-10.6378
▁já	-10.6381
▁Cel	-10.6382
tje	-10.6382
ণ	-10.6384
▁vien	-10.6385
פ	-10.6387
▁کہا	-10.6387
یا	-10.6388
lara	-10.6391
HA	-10.6393
ਦ	-10.6394
uu	-10.6395
▁מו	-10.6396
-01-	-10.6397
▁February	-10.6397
▁Ре	-10.6398
▁شده	-10.6398
ಹ	-10.6399
▁kum	-10.64
ży	-10.6403
лет	-10.6405
▁contact	-10.6405
ღ	-10.6408
گ	-10.6408
NI	-10.641
nc	-10.6411
эл	-10.6411
く	-10.6413
▁svo	-10.6415
von	-10.6416
ақ	-10.6416
ός	-10.6418
plat	-10.6419
اق	-10.642
OR	-10.6423
▁partner	-10.6426
<	-10.6426
ус	-10.6431
▁molt	-10.6431
ða	-10.6433
▁Read	-10.6433
▁һәм	-10.6435
ா	-10.6436
▁کل	-10.6436
▁roku	-10.6437
jung	-10.6438
平	-10.6439
င္း	-10.6439
▁Santa	-10.644
▁DA	-10.6443
Τ	-10.6445
စ	-10.6445
▁yon	-10.6445
き	-10.6448
ред	-10.6449
▁Port	-10.6453
but	-10.6454
▁למ	-10.6457
▁Til	-10.6457
ਪ	-10.6458
ência	-10.6458
лаш	-10.6459
มา	-10.6459
dus	-10.646
uc	-10.6462
ೂ	-10.6463
ый	-10.6464
▁Dit	-10.6465
者	-10.6466
լ	-10.6468
▁bit	-10.6468
fel	-10.6472
▁ass	-10.6473
동	-10.6473
▁good	-10.6474
▁ఈ	-10.6475
▁Maria	-10.6476
nun	-10.6476
bis	-10.6478
ário	-10.6479
side	-10.648
ANA	-10.648
▁በ	-10.6482
▁gam	-10.6483
▁House	-10.6483
▁Xa	-10.6484
ರಿ	-10.6487
▁Juli	-10.6488
▁Kha	-10.6489
lei	-10.649
dol	-10.6492
rel	-10.6493
▁ನ	-10.6494
τι	-10.6494
▁base	-10.6497
ကို	-10.6498
ungen	-10.6503
▁δεν	-10.6503
tain	-10.6504
-18	-10.6506
▁Ana	-10.651
▁rep	-10.6512
רו	-10.6514
kite	-10.6514
טי	-10.6515
ಕ್	-10.652
tų	-10.6521
▁pare	-10.6521
sjon	-10.6523
lev	-10.6525
▁Hy	-10.6527
WA	-10.6528
▁Spa	-10.6528
▁SP	-10.6528
와	-10.6528
▁situ	-10.6531
্য	-10.6533
ερ	-10.6533
LO	-10.6533
▁aby	-10.6535
mond	-10.6535
▁ר	-10.6536
առ	-10.6536
▁54	-10.6537
test	-10.6538
ыл	-10.6538
ਜ	-10.6539
ջ	-10.6541
luk	-10.6543
ත	-10.6545
tun	-10.6546
▁Да	-10.655
ҷ	-10.6551
▁conta	-10.6553
▁want	-10.6553
▁Part	-10.6553
UL	-10.6554
ચ	-10.6557
▁म	-10.6558
ូ	-10.6558
HD	-10.6558
од	-10.6558
டி	-10.6561
wu	-10.6563
gro	-10.6568
ộ	-10.6571
▁been	-10.6571
▁11,	-10.6572
FA	-10.6574
▁chu	-10.6575
koa	-10.6575
gem	-10.6578
So	-10.6578
ове	-10.6578
دی	-10.6581
щи	-10.6583
ਗ	-10.6583
▁пры	-10.6585
άν	-10.6586
ив	-10.6587
▁Mil	-10.6589
▁वि	-10.6589
▁kell	-10.659
mia	-10.6591
▁duke	-10.6591
ப	-10.6592
लाई	-10.6593
▁район	-10.6594
▁laga	-10.6594
ką	-10.6598
▁nor	-10.6599
cor	-10.6601
▁normal	-10.6602
кт	-10.6602
▁ग	-10.6604
▁വി	-10.6604
▁primer	-10.6604
nger	-10.6604
zie	-10.6607
▁Dis	-10.6607
tı	-10.6608
יר	-10.6608
▁како	-10.6611
мет	-10.6613
▁мен	-10.6616
▁10,	-10.6618
از	-10.6619
vie	-10.6621
▁waxaa	-10.6621
진	-10.6623
제	-10.6623
HI	-10.6624
▁【	-10.6624
位	-10.6627
rzy	-10.6627
▁Mit	-10.6628
▁how	-10.6628
kti	-10.663
▁ora	-10.663
▁Ven	-10.663
CD	-10.6633
▁diri	-10.6634
сон	-10.6635
zwa	-10.6636
ੂ	-10.6636
ී	-10.6636
▁wel	-10.6637
ությունը	-10.6638
dá	-10.6638
gol	-10.6638
▁कि	-10.664
tii	-10.6641
lina	-10.6644
▁рас	-10.6645
▁نا	-10.6646
▁sing	-10.6646
ök	-10.6646
bí	-10.6648
▁મ	-10.665
▁David	-10.6652
ដ	-10.6656
▁δ	-10.6659
கள்	-10.6659
▁56	-10.6661
▁Uni	-10.6663
2015	-10.6663
Bu	-10.6665
มี	-10.6669
दा	-10.6669
pic	-10.667
▁Kap	-10.6673
可	-10.6674
may	-10.6674
▁ö	-10.6678
▁Yang	-10.6679
ნა	-10.668
▁غ	-10.6681
eda	-10.6683
ળ	-10.6685
ča	-10.6685
▁love	-10.6687
2014	-10.6692
▁when	-10.6692
▁ми	-10.6696
▁delle	-10.6702
isen	-10.6705
▁Hot	-10.6705
▁פ	-10.671
▁vit	-10.6711
mā	-10.6714
▁anche	-10.6715
カ	-10.6718
▁HP	-10.672
می	-10.6721
გ	-10.6721
▁klub	-10.6725
dl	-10.6726
▁כי	-10.6726
▁भ	-10.6728
▁ആ	-10.6731
ám	-10.6732
▁nhiều	-10.6732
GE	-10.6734
-03	-10.6735
ngu	-10.6737
▁21.	-10.6737
▁camp	-10.6739
ком	-10.674
mad	-10.6741
▁22.	-10.6743
▁vend	-10.6745
▁cum	-10.6748
▁Bol	-10.6749
għ	-10.6749
▁kup	-10.675
UN	-10.675
они	-10.675
▁str	-10.6758
vä	-10.6758
mbu	-10.6759
ningen	-10.6761
isk	-10.6763
▁lai	-10.6763
знач	-10.6767
ř	-10.6768
▁pin	-10.6768
FF	-10.6768
kil	-10.6772
▁aka	-10.6772
▁promo	-10.6773
స	-10.6773
ern	-10.6773
ட்ட	-10.6775
▁mange	-10.6775
ила	-10.6776
▁pus	-10.6776
keta	-10.6786
lot	-10.6791
իկ	-10.6792
ર્	-10.6793
AH	-10.6794
900	-10.6796
anie	-10.6797
Mi	-10.6798
▁Kč	-10.6798
ssen	-10.6799
▁find	-10.6801
物	-10.6804
▁realiz	-10.6805
▁Në	-10.6805
▁800	-10.6806
eza	-10.6809
▁direct	-10.6811
▁ай	-10.6811
AT	-10.6812
ræ	-10.6812
ém	-10.6814
▁(4	-10.6815
▁mest	-10.6816
▁úr	-10.6817
▁worden	-10.6819
gad	-10.6822
▁max	-10.6823
▁sheegay	-10.6823
▁ப	-10.6823
ע	-10.6824
cur	-10.6824
раз	-10.6826
ëve	-10.6826
▁ky	-10.6828
ிய	-10.6828
:1	-10.6829
▁Mari	-10.6829
''	-10.6831
▁2.0	-10.6832
ына	-10.6833
els	-10.6834
kari	-10.6834
ээ	-10.6835
ugu	-10.6836
ద	-10.6836
▁veel	-10.6836
hang	-10.6837
វ	-10.6837
▁대	-10.6838
▁cri	-10.6839
▁gro	-10.6841
▁wax	-10.6843
ać	-10.6846
ણ	-10.6848
▁eu	-10.685
▁Autor	-10.685
եւ	-10.6851
▁нь	-10.6852
▁put	-10.6853
▁type	-10.6856
teko	-10.6857
▁mao	-10.6859
bli	-10.6859
加	-10.6862
тел	-10.6863
▁pia	-10.6864
vez	-10.6865
▁Bag	-10.6867
▁ব	-10.687
ມ	-10.687
kha	-10.687
▁Gal	-10.6871
▁UK	-10.6871
ए	-10.6875
mpi	-10.6875
ът	-10.6875
lep	-10.6875
▁escort	-10.6876
۰	-10.6877
ْ	-10.6879
Ä	-10.6879
hara	-10.6881
ttu	-10.6882
용	-10.6884
ijo	-10.6885
ای	-10.6885
یه	-10.6885
▁یہ	-10.689
▁Anti	-10.689
▁20.	-10.6891
▁registr	-10.6893
press	-10.6894
bad	-10.6894
ائ	-10.6894
ित	-10.6896
ោ	-10.6898
ും	-10.6899
.[	-10.69
PC	-10.6901
пи	-10.6901
յան	-10.6904
oro	-10.6905
▁შე	-10.6905
jin	-10.6905
▁years	-10.6906
▁53	-10.6908
▁એ	-10.6909
2013	-10.6909
▁Cat	-10.6909
اج	-10.691
▁Lei	-10.6912
рав	-10.6912
ይ	-10.6913
يات	-10.6913
▁наш	-10.6913
▁baik	-10.6915
ция	-10.6916
له	-10.6916
ello	-10.6917
▁Jam	-10.692
▁są	-10.692
NG	-10.6921
fat	-10.6923
uki	-10.6924
▁გა	-10.6925
BE	-10.6929
▁hafa	-10.6929
ыя	-10.6931
▁При	-10.6932
▁Tom	-10.6932
▁аб	-10.6932
oka	-10.6933
▁نو	-10.6934
ρο	-10.6936
▁như	-10.6939
▁cer	-10.694
തി	-10.6942
wel	-10.6942
▁eng	-10.6943
jak	-10.6943
▁vida	-10.6943
fic	-10.6945
lás	-10.6946
ink	-10.6947
▁nei	-10.6949
▁Beach	-10.6949
▁Trans	-10.6951
্যা	-10.6951
▁nh	-10.6951
▁Δ	-10.6952
גר	-10.6952
▁blir	-10.6954
▁Page	-10.6958
ూ	-10.6959
▁ਪ	-10.6963
him	-10.6964
UT	-10.6966
▁multi	-10.6967
ası	-10.6967
λα	-10.6969
ship	-10.6971
电	-10.6973
вен	-10.6973
ome	-10.6974
ಡಿ	-10.6974
▁Jag	-10.6974
▁Qa	-10.6976
城	-10.6978
AI	-10.6978
taa	-10.6979
skap	-10.698
▁saj	-10.6981
NE	-10.6982
▁Green	-10.6984
omi	-10.6984
▁qe	-10.6984
▁Yo	-10.6985
▁Hol	-10.6985
రా	-10.6985
kre	-10.6987
▁במ	-10.6992
▁επι	-10.6993
larını	-10.6994
ðu	-10.6994
Te	-10.6995
▁jy	-10.6995
▁q	-10.6997
▁І	-10.6998
dzie	-10.7001
оў	-10.7002
ovat	-10.7002
▁Bri	-10.7003
▁EN	-10.7006
vision	-10.7007
▁Cer	-10.7007
τη	-10.7007
ው	-10.7022
▁opera	-10.7023
▁mé	-10.7023
83	-10.7027
▁క	-10.7028
انی	-10.7029
EK	-10.7029
YA	-10.7032
保	-10.7032
cina	-10.7032
▁기	-10.7032
üü	-10.7033
▁main	-10.7036
▁жа	-10.7041
▁एक	-10.7043
▁جا	-10.7048
yk	-10.7049
ması	-10.7052
-7	-10.7053
点	-10.7054
▁Γ	-10.7056
▁kai	-10.7059
▁Gri	-10.7062
报	-10.7063
ios	-10.7063
bang	-10.7064
ME	-10.7064
tage	-10.7065
▁Yu	-10.7066
נות	-10.7067
路	-10.7068
当	-10.7068
ments	-10.7069
abil	-10.7071
tore	-10.7074
▁nes	-10.7074
▁Mur	-10.7075
▁comment	-10.7076
PR	-10.7076
▁99	-10.7076
прав	-10.7077
Di	-10.7077
▁Ра	-10.7078
▁element	-10.708
▁72	-10.7081
▁MI	-10.7083
▁See	-10.7086
kho	-10.7086
oval	-10.7088
▁original	-10.7089
▁myös	-10.7092
iert	-10.7094
▁Up	-10.7099
▁э	-10.71
այ	-10.7101
ு	-10.7101
▁വ	-10.7103
▁control	-10.7107
▁Τ	-10.7109
▁heeft	-10.7109
▁eftir	-10.7114
▁kanë	-10.7115
ư	-10.7115
▁some	-10.7116
oso	-10.7117
ktor	-10.7121
եց	-10.7123
▁wir	-10.7123
ク	-10.7125
زی	-10.7125
▁Cam	-10.7127
▁2004	-10.7127
។	-10.7128
ერ	-10.713
аг	-10.713
▁DO	-10.713
소	-10.7131
تي	-10.7131
σε	-10.7131
pus	-10.7132
▁روز	-10.7136
ını	-10.7141
▁andre	-10.7141
150	-10.7142
Э	-10.7142
ích	-10.7144
ске	-10.7147
rian	-10.7152
▁Comp	-10.7154
▁vs	-10.7154
▁ਮ	-10.7155
▁ont	-10.7156
ದಲ್ಲಿ	-10.7156
ize	-10.7157
▁ça	-10.7158
pha	-10.716
▁95	-10.7163
▁usa	-10.7166
maq	-10.7166
▁book	-10.7168
ї	-10.7168
ತಿ	-10.7169
င္	-10.7169
sze	-10.7171
יו	-10.7172
▁مح	-10.7173
diği	-10.7175
Ko	-10.7177
dores	-10.7178
▁tuo	-10.7178
ivi	-10.7179
ение	-10.7179
お	-10.718
nor	-10.7182
▁todo	-10.7182
▁ਸਿੰਘ	-10.7182
▁dụng	-10.7182
arri	-10.7187
লে	-10.719
▁peng	-10.719
▁συν	-10.7191
▁God	-10.7193
խ	-10.7194
rta	-10.7195
▁pang	-10.7196
ват	-10.7196
▁ම	-10.7198
HE	-10.7199
itz	-10.7201
▁Ми	-10.7202
Я	-10.7203
ungan	-10.7205
atie	-10.7205
▁کرنے	-10.7206
▁Ten	-10.7206
▁23.	-10.7207
ohet	-10.7208
rer	-10.7208
кон	-10.7208
▁fit	-10.721
lė	-10.7212
ATA	-10.7212
rish	-10.7213
ស្	-10.7216
טר	-10.7219
▁Power	-10.7219
▁hen	-10.7222
ያ	-10.7224
OM	-10.7227
medi	-10.7228
▁bul	-10.7232
▁bien	-10.7233
MO	-10.7234
fon	-10.7234
adas	-10.7235
▁fol	-10.7238
say	-10.7238
its	-10.724
ෙ	-10.7241
ಣ	-10.7243
▁ומ	-10.7245
վ	-10.7245
▁ಮ	-10.7246
▁Ա	-10.7247
▁mus	-10.7248
▁Sar	-10.725
▁BA	-10.7252
▁KU	-10.7255
▁prie	-10.7255
ď	-10.7255
დი	-10.7262
▁tip	-10.7263
nego	-10.7263
dek	-10.7264
▁siis	-10.7268
ään	-10.7269
ische	-10.7269
Ε	-10.7269
▁Pal	-10.727
同	-10.7272
back	-10.7272
▁так	-10.7275
డ	-10.7276
▁\	-10.7278
mə	-10.728
▁said	-10.7282
▁Kir	-10.7283
▁kh	-10.7284
▁Φ	-10.7286
gs	-10.7288
סט	-10.7289
гар	-10.7291
국	-10.7292
▁Paris	-10.7295
ense	-10.7295
▁(3	-10.73
्या	-10.7303
мон	-10.7303
ء	-10.7303
सी	-10.7307
リ	-10.7308
ზე	-10.731
▁Met	-10.7312
▁۱	-10.7313
دا	-10.7316
سي	-10.7318
tivo	-10.7319
iş	-10.7319
zés	-10.732
る	-10.7321
даги	-10.7324
gua	-10.7325
▁Radio	-10.7325
ಪ	-10.7325
pes	-10.7327
nl	-10.7329
WE	-10.733
▁biz	-10.7332
dt	-10.7332
IST	-10.7334
/4	-10.7335
ij	-10.7336
nji	-10.7336
үн	-10.7337
ோ	-10.7338
ավոր	-10.7339
Υ	-10.734
▁rok	-10.7341
▁స	-10.7341
ща	-10.7344
▁tid	-10.7345
થી	-10.7347
월	-10.7348
▁mad	-10.7348
▁tie	-10.7348
arra	-10.7349
▁Trump	-10.7349
▁نه	-10.7349
▁PS	-10.7352
▁និង	-10.7358
imu	-10.7361
.[1]	-10.7363
oti	-10.7363
และ	-10.7364
āt	-10.7365
ና	-10.7366
▁ngày	-10.7366
ெ	-10.7369
RA	-10.7373
नी	-10.7374
▁Apr	-10.7374
ая	-10.7374
▁denne	-10.7376
▁Multi	-10.7376
▁vya	-10.7377
inter	-10.7377
▁الا	-10.7378
unga	-10.7382
▁edo	-10.7382
En	-10.7382
had	-10.7383
owych	-10.7384
▁back	-10.7387
PO	-10.7389
ให้	-10.739
▁Data	-10.7395
function	-10.7396
체	-10.7399
El	-10.74
asan	-10.7401
▁ndi	-10.7402
▁Vor	-10.7403
0,00	-10.7404
auto	-10.7404
▁ito	-10.7406
正	-10.7408
▁Sub	-10.7409
▁sala	-10.7409
▁lá	-10.7412
▁година	-10.7414
▁아	-10.7414
▁Music	-10.7415
ლი	-10.7415
▁into	-10.7418
AF	-10.7418
enti	-10.7419
inda	-10.742
ıb	-10.7421
▁Л	-10.7422
▁બ	-10.7426
ský	-10.7427
色	-10.7431
Ə	-10.7434
ฟ	-10.7436
▁ಪ	-10.7437
▁vez	-10.7437
า	-10.7437
ND	-10.744
asyon	-10.7441
▁Kwa	-10.7442
▁Ə	-10.7442
▁unha	-10.7443
MS	-10.7444
نت	-10.7445
▁need	-10.7445
▁tā	-10.7447
▁Tel	-10.7451
▁leg	-10.7452
▁ST	-10.7455
▁یک	-10.7455
ള	-10.7455
▁Kul	-10.7455
non	-10.7456
ünk	-10.7458
▁Мар	-10.7458
દ	-10.7459
պ	-10.746
▁pala	-10.7461
ορ	-10.7461
▁час	-10.7463
ının	-10.7465
内	-10.7465
▁خود	-10.7466
▁popul	-10.7467
нь	-10.7468
▁nebo	-10.7469
hotel	-10.747
▁gang	-10.7473
▁محمد	-10.7473
yle	-10.7474
ად	-10.7477
Ne	-10.7477
▁ime	-10.7478
ారు	-10.7479
▁Կ	-10.7479
▁jaar	-10.748
▁kultur	-10.7481
ជ	-10.7487
وف	-10.7487
аны	-10.7491
CC	-10.7491
maa	-10.7492
kem	-10.7493
ૂ	-10.7493
wat	-10.7493
kam	-10.7495
UA	-10.7497
ения	-10.7498
ningar	-10.7499
AN	-10.7501
ques	-10.7503
×	-10.7504
ප	-10.7506
RT	-10.7507
▁Inc	-10.7507
kop	-10.7508
▁ஆ	-10.7509
▁Women	-10.7511
▁lí	-10.7513
▁эт	-10.7514
▁Cara	-10.7515
وي	-10.7515
ете	-10.7515
zet	-10.7516
て	-10.7518
jä	-10.7519
Lo	-10.7523
وب	-10.7524
န	-10.7525
▁vào	-10.7526
회	-10.7527
▁հետ	-10.7527
oba	-10.7529
▁fund	-10.7529
▁الإ	-10.7529
▁mà	-10.753
ката	-10.7531
▁cena	-10.7536
UP	-10.7538
▁ज	-10.7539
ifi	-10.7542
▁FC	-10.7543
▁Medi	-10.7543
Ho	-10.7547
রি	-10.7547
tsa	-10.7547
tea	-10.7547
tā	-10.7553
▁play	-10.7554
▁sản	-10.7555
▁Mart	-10.7555
fur	-10.7556
uzi	-10.7557
▁VI	-10.7558
▁pil	-10.7559
вед	-10.7562
▁ու	-10.7564
iran	-10.7565
Ч	-10.757
▁động	-10.757
ρε	-10.7575
web	-10.7576
mie	-10.7577
кан	-10.7577
ગ	-10.7583
dk	-10.7585
θε	-10.7586
tako	-10.7587
▁الن	-10.7588
▁baada	-10.7589
▁Ng	-10.7591
yə	-10.7592
ić	-10.7595
▁ditu	-10.7597
▁zum	-10.7598
▁London	-10.7598
2011	-10.76
δ	-10.7601
니	-10.7601
শ	-10.7602
Si	-10.7603
▁β	-10.7604
klad	-10.7605
店	-10.7607
ním	-10.761
ສ	-10.761
▁Motor	-10.7611
▁180	-10.7611
зо	-10.7612
px	-10.7613
▁kop	-10.7617
▁αν	-10.762
bok	-10.7623
ked	-10.7625
board	-10.7626
▁votre	-10.7628
פי	-10.7631
▁ку	-10.7632
kim	-10.7633
▁năm	-10.7633
ім	-10.7633
彩	-10.7635
istä	-10.7636
▁roman	-10.7636
ным	-10.7637
zak	-10.7639
▁helt	-10.7639
▁sko	-10.764
▁خان	-10.7641
ping	-10.7642
▁یا	-10.7643
Un	-10.7645
▁teh	-10.7646
▁sistema	-10.7648
pē	-10.7649
▁live	-10.765
▁مس	-10.7651
▁gali	-10.7653
span	-10.7654
reg	-10.7655
▁ਕਿ	-10.7656
▁chat	-10.7659
ote	-10.766
Ц	-10.7662
ξ	-10.7662
▁vet	-10.7663
250	-10.7664
▁ան	-10.7666
ستان	-10.7667
stav	-10.767
igen	-10.7671
SH	-10.7673
ivo	-10.7674
▁jako	-10.7674
git	-10.7674
▁mang	-10.7675
LT	-10.7675
erna	-10.7679
▁mak	-10.7682
▁suka	-10.7683
▁ven	-10.7685
ую	-10.7686
0.00	-10.7689
ії	-10.769
eke	-10.7691
BC	-10.7691
ரி	-10.7692
▁Kun	-10.7693
▁Saint	-10.7693
过	-10.7693
▁ک	-10.7694
ပါ	-10.7697
ահ	-10.7697
▁Mun	-10.7698
inga	-10.7698
VO	-10.77
▁વ	-10.77
▁If	-10.77
کر	-10.7701
ball	-10.7704
▁Afrika	-10.7705
zbekiston	-10.7709
itas	-10.7711
▁vara	-10.7713
igo	-10.7713
OT	-10.7713
bie	-10.7714
burg	-10.7716
나	-10.7717
шта	-10.7717
▁volt	-10.7724
ondo	-10.7724
EM	-10.7726
▁oraz	-10.7726
jā	-10.7726
ץ	-10.7727
▁Char	-10.7727
▁Ky	-10.7731
ില്‍	-10.7731
▁58	-10.7733
实	-10.7734
ciones	-10.7734
anka	-10.7736
ય	-10.7738
tuur	-10.7738
vre	-10.7742
чу	-10.7742
▁plat	-10.7744
շ	-10.7745
ဆ	-10.775
ikus	-10.7751
یک	-10.7755
heim	-10.7757
llen	-10.7757
երի	-10.7758
ric	-10.7758
/1	-10.7761
MI	-10.7761
▁bị	-10.7761
מת	-10.7763
ван	-10.7764
dele	-10.7771
▁gol	-10.7772
мат	-10.7773
iek	-10.7775
KI	-10.7776
▁tout	-10.7776
▁Net	-10.7776
бер	-10.7778
▁Group	-10.7778
▁Ant	-10.7781
▁Mei	-10.7784
slu	-10.7785
imiz	-10.7786
ото	-10.7788
ნი	-10.7788
▁Việt	-10.7789
你	-10.779
ვა	-10.779
▁nahi	-10.7791
▁gör	-10.7791
▁tij	-10.7793
iai	-10.7793
pai	-10.7793
ந்த	-10.7793
▁imp	-10.7793
▁12,	-10.7795
čka	-10.7798
▁ple	-10.7799
inės	-10.78
οι	-10.7801
roz	-10.7802
ця	-10.7802
жи	-10.7805
blog	-10.7805
әр	-10.7807
하는	-10.7808
yt	-10.781
▁Casa	-10.781
jum	-10.7813
سر	-10.7816
හ	-10.7817
kö	-10.7818
pek	-10.782
▁več	-10.7823
ಟ	-10.7823
▁når	-10.7826
▁dib	-10.7826
▁Madrid	-10.7828
▁nye	-10.7832
▁aquest	-10.7835
▁Kat	-10.7835
િ	-10.7835
лю	-10.7837
ქ	-10.7838
ھ	-10.7839
▁sér	-10.784
▁Wy	-10.7842
hé	-10.7842
보	-10.7844
▁Dec	-10.7845
▁hele	-10.7845
ено	-10.7846
▁אל	-10.7847
νο	-10.7847
borg	-10.7847
▁mir	-10.7848
▁وی	-10.7848
өр	-10.7848
▁Mad	-10.785
▁hur	-10.7853
inių	-10.7855
▁הש	-10.7856
ALI	-10.7857
▁Gre	-10.7861
版	-10.7861
ლ	-10.7862
4%	-10.7866
▁people	-10.7867
▁Islam	-10.7868
▁zaman	-10.7868
▁ක	-10.7868
▁yil	-10.7869
hun	-10.7869
ულ	-10.787
-09	-10.7873
▁eða	-10.7873
sik	-10.7875
BB	-10.7876
▁đầu	-10.7876
ទ	-10.7879
▁62	-10.788
row	-10.7881
يت	-10.7881
ým	-10.7884
▁sont	-10.7884
ffe	-10.7884
ග	-10.7884
05.	-10.7885
▁համար	-10.7886
kë	-10.7887
در	-10.7889
ης	-10.7889
▁BE	-10.7889
▁mari	-10.789
▁Cla	-10.7891
▁there	-10.7894
miş	-10.7895
EE	-10.7898
പ്പ	-10.7901
JA	-10.7902
lərin	-10.7904
建	-10.7904
ุ	-10.7904
型	-10.7905
▁Din	-10.7905
lijk	-10.7907
▁സ	-10.7909
amos	-10.7911
rna	-10.7914
▁instal	-10.7914
▁Long	-10.7914
tico	-10.7916
▁dur	-10.7919
▁were	-10.7919
بي	-10.7923
▁qual	-10.7925
명	-10.7925
UK	-10.7926
▁ਦਾ	-10.7926
▁team	-10.7928
ою	-10.7928
▁bonus	-10.7928
▁jî	-10.7929
号	-10.793
▁Bla	-10.793
치	-10.793
▁билан	-10.7932
ulo	-10.7935
▁oor	-10.7943
daj	-10.7943
업	-10.7944
ול	-10.7945
▁অ	-10.7949
《	-10.7949
ood	-10.7949
▁mula	-10.7951
▁week	-10.7952
دي	-10.7952
700	-10.7959
taja	-10.796
ència	-10.796
▁പ്ര	-10.7962
▁سي	-10.7963
▁ந	-10.7965
▁9,	-10.7966
▁black	-10.7966
▁ка	-10.7967
AR	-10.7969
▁Jak	-10.797
යි	-10.797
▁σ	-10.7971
▁extra	-10.7972
сен	-10.7972
iet	-10.7973
ember	-10.7974
tid	-10.7975
лай	-10.7976
▁pli	-10.7976
▁нас	-10.7977
州	-10.7979
cr	-10.7979
tzea	-10.7981
》	-10.7984
лог	-10.7985
▁Mc	-10.7987
▁13,	-10.799
▁urte	-10.7992
egi	-10.7992
ston	-10.7993
▁বা	-10.7993
▁sl	-10.7996
▁prima	-10.7996
kap	-10.8001
qe	-10.8004
▁them	-10.8005
श	-10.8006
▁secara	-10.8009
▁tú	-10.801
rig	-10.8013
зі	-10.8013
▁στη	-10.8019
▁vz	-10.8019
▁programa	-10.802
9%	-10.8021
নি	-10.8022
▁кор	-10.8025
kg	-10.8026
信	-10.8028
▁وا	-10.8029
ções	-10.8032
▁ότι	-10.8034
▁fara	-10.8034
▁hij	-10.8035
业	-10.8036
▁שה	-10.8038
ieren	-10.8038
▁poli	-10.8039
INA	-10.8041
ço	-10.8042
▁ví	-10.8043
ດ	-10.8045
өл	-10.8046
▁ве	-10.8048
▁chun	-10.8048
▁CD	-10.8049
ól	-10.805
▁rad	-10.8051
▁Camp	-10.8052
ಳ	-10.8052
mili	-10.8052
▁Mod	-10.8053
liv	-10.8055
ιο	-10.8055
▁rin	-10.806
-04	-10.806
டு	-10.806
▁SO	-10.8061
无	-10.8062
ника	-10.8062
▁ത	-10.8064
▁Gel	-10.8064
tong	-10.8066
▁tras	-10.8068
▁కా	-10.8071
jel	-10.8076
üm	-10.8077
ös	-10.8079
nova	-10.808
▁ata	-10.8081
▁līdz	-10.8086
dere	-10.8086
-17	-10.8087
▁DI	-10.8088
zna	-10.8088
એ	-10.8092
▁sum	-10.8097
▁Bad	-10.8097
▁Tam	-10.8102
ną	-10.8103
ټ	-10.8104
▁Mis	-10.8104
ვი	-10.8105
우	-10.8109
tch	-10.8109
ती	-10.811
content	-10.811
ടി	-10.8111
box	-10.8112
KO	-10.8113
▁czy	-10.8115
lini	-10.8119
▁pis	-10.812
uit	-10.8121
▁Jen	-10.8121
Com	-10.8122
öv	-10.8126
▁dalka	-10.813
-16	-10.813
▁110	-10.8132
▁זה	-10.8132
nio	-10.8132
▁wird	-10.8133
").	-10.8135
▁open	-10.8136
▁بل	-10.8137
▁Gr	-10.8137
▁شد	-10.8138
ି	-10.8139
fri	-10.814
žu	-10.8141
št	-10.8141
▁ম	-10.8142
ско	-10.8148
mé	-10.815
ਣ	-10.8154
▁kau	-10.8154
▁hiện	-10.8155
▁প্র	-10.8156
▁Island	-10.8157
šo	-10.8158
ník	-10.8163
wis	-10.8163
▁пос	-10.8165
نه	-10.8166
tse	-10.8168
면	-10.8168
abi	-10.8172
▁ministr	-10.8172
Per	-10.8173
gj	-10.8173
אי	-10.8175
▁Ye	-10.818
▁الح	-10.8183
▁natural	-10.8185
ไป	-10.8185
▁Untuk	-10.8185
NO	-10.8187
łu	-10.8187
TE	-10.8188
esc	-10.8189
ຕ	-10.8189
ġ	-10.819
レ	-10.8191
▁casino	-10.8191
▁tab	-10.8192
▁Ara	-10.8195
నే	-10.8198
kai	-10.8198
▁Hotels	-10.8199
bed	-10.8199
cl	-10.8201
▁Game	-10.8202
dė	-10.8203
▁vagy	-10.8203
tiv	-10.8204
lerin	-10.8205
▁кел	-10.8205
▁Res	-10.8207
ազ	-10.8209
▁Lake	-10.8209
ხ	-10.821
alis	-10.8211
rp	-10.8214
▁Archives	-10.8214
口	-10.8214
ச	-10.8215
▁joka	-10.8216
MM	-10.8221
ለ	-10.8222
שר	-10.8223
▁shu	-10.8224
▁Live	-10.8224
▁چ	-10.8225
Jo	-10.8226
miseks	-10.8228
▁çok	-10.8228
fla	-10.8231
jt	-10.8233
▁xu	-10.8234
▁Jul	-10.8236
▁التي	-10.8236
▁61	-10.8244
▁Parti	-10.8245
▁он	-10.8246
▁watu	-10.8247
şi	-10.825
▁$1	-10.8252
atori	-10.8252
▁dette	-10.8254
▁þar	-10.8255
ക്	-10.826
vali	-10.826
ความ	-10.8262
cara	-10.8263
αγ	-10.8263
shin	-10.8263
vice	-10.8264
ingar	-10.8265
▁waxa	-10.8265
etta	-10.8267
лин	-10.827
▁सं	-10.827
arı	-10.827
▁Ok	-10.8271
pdf	-10.8272
έ	-10.8274
▁Tanzania	-10.8274
▁Kit	-10.8275
▁الج	-10.8275
يم	-10.828
▁পা	-10.8281
▁στα	-10.8283
izi	-10.8284
▁här	-10.8284
iniai	-10.8285
▁Flor	-10.8286
▁2017,	-10.8286
▁park	-10.8287
▁svar	-10.8288
女	-10.8289
▁បាន	-10.8289
ൻ	-10.829
▁գ	-10.8291
anı	-10.8292
▁ന	-10.8293
ində	-10.8293
▁कर	-10.8293
▁đó	-10.8293
ره	-10.8296
stal	-10.8296
▁këtë	-10.8296
▁Ž	-10.8297
zat	-10.8297
▁nous	-10.8297
үл	-10.8299
▁tim	-10.83
계	-10.8301
▁sang	-10.8301
▁Naj	-10.8302
▁National	-10.8305
แ	-10.8306
ARA	-10.8306
idan	-10.8307
▁fast	-10.8307
▁Sab	-10.8308
çı	-10.8308
KS	-10.8311
▁Tha	-10.8316
দের	-10.8318
▁text	-10.8319
ப்ப	-10.8319
▁behar	-10.832
SO	-10.8321
▁Kim	-10.8325
zir	-10.8326
isme	-10.8328
ес	-10.8328
▁ara	-10.8329
view	-10.8329
▁все	-10.833
رم	-10.8331
▁membuat	-10.8332
▁gia	-10.8335
נת	-10.8336
tara	-10.8336
ข	-10.8337
▁كل	-10.8337
▁fal	-10.8338
▁gara	-10.8339
אר	-10.8339
န္	-10.834
▁Tour	-10.834
▁wake	-10.8341
▁merk	-10.8344
кер	-10.8344
rif	-10.8344
){	-10.8345
ზ	-10.8347
▁Ни	-10.8347
EB	-10.8349
פו	-10.8352
nel	-10.8353
ага	-10.8356
▁general	-10.8358
gus	-10.8358
▁Nord	-10.8359
SM	-10.8359
ி	-10.8359
▁gir	-10.8362
▁cur	-10.8363
ір	-10.8366
ļ	-10.8368
wr	-10.837
äng	-10.837
▁ένα	-10.837
ιν	-10.8371
kl	-10.8371
pä	-10.8372
▁dra	-10.8374
▁ਬ	-10.8376
ദ	-10.8376
ړ	-10.8376
▁ז	-10.8377
意	-10.8377
▁gera	-10.8378
▁Tal	-10.8381
▁second	-10.8381
▁бор	-10.8383
▁kaip	-10.8384
BO	-10.8387
יד	-10.8388
▁הוא	-10.839
іс	-10.8393
ош	-10.8395
▁ҳам	-10.8396
▁им	-10.8396
▁kara	-10.8397
өн	-10.8398
▁izango	-10.8399
-14	-10.8401
▁sel	-10.8402
gio	-10.8407
▁ра	-10.8407
ис	-10.8407
▁الب	-10.8408
HO	-10.841
ラ	-10.8414
▁66	-10.8415
▁toe	-10.8415
▁pelo	-10.8416
wp	-10.8417
台	-10.8418
Č	-10.8419
▁nr	-10.8421
▁Cy	-10.8424
▁histori	-10.8425
▁selle	-10.8427
▁2003	-10.8427
▁тур	-10.8429
alka	-10.8431
אָ	-10.8431
ஸ்	-10.8433
▁deg	-10.8433
מח	-10.8433
вод	-10.8434
cil	-10.8435
bag	-10.8437
ism	-10.8437
▁Ama	-10.8438
▁MO	-10.8439
▁bad	-10.8443
מן	-10.8443
rra	-10.8445
üs	-10.8448
lais	-10.8448
niz	-10.845
-13	-10.8451
▁це	-10.8451
ès	-10.8452
vn	-10.8456
лары	-10.8456
▁వ	-10.8456
ości	-10.8457
град	-10.8457
▁жана	-10.8459
ति	-10.8459
cos	-10.8468
▁الق	-10.847
mand	-10.847
nden	-10.8472
lement	-10.8472
ому	-10.8474
ਰੀ	-10.8474
去	-10.8475
▁(5)	-10.8476
▁مت	-10.8477
mara	-10.8479
▁obat	-10.8479
▁waa	-10.8482
ium	-10.8483
pir	-10.8483
pia	-10.8485
nap	-10.8486
St	-10.8486
▁ME	-10.8486
Ι	-10.8487
▁가	-10.8487
vs	-10.8488
ख	-10.8488
EST	-10.8488
js	-10.8491
행	-10.8491
]]	-10.8492
▁Gold	-10.8492
odi	-10.8494
שה	-10.8494
回	-10.8495
他	-10.8496
▁sempre	-10.8496
די	-10.8499
rata	-10.8499
-01	-10.85
▁59	-10.85
лат	-10.8502
▁merupakan	-10.8502
▁14,	-10.8503
▁tel	-10.8505
etako	-10.8505
▁Center	-10.8505
▁Gran	-10.8507
▁2-	-10.8507
▁store	-10.8508
sio	-10.8508
▁osa	-10.8509
▁Mes	-10.8509
▁69	-10.8511
▁klas	-10.8512
lly	-10.8515
ağı	-10.8515
▁보	-10.8516
пе	-10.8517
က်	-10.8517
יל	-10.8518
irt	-10.8518
rot	-10.8518
BL	-10.8521
دن	-10.8525
šu	-10.8525
bank	-10.8526
зе	-10.8529
massa	-10.853
div	-10.853
ખ	-10.8533
லை	-10.8533
▁Peter	-10.8533
ους	-10.8533
▁way	-10.8534
jų	-10.8534
▁എ	-10.8535
има	-10.8537
tza	-10.8542
▁etter	-10.8543
마	-10.8543
▁gebruik	-10.8544
unu	-10.8545
▁67	-10.8545
▁Ah	-10.8547
▁Но	-10.8548
ວ	-10.8548
Κ	-10.8551
▁esp	-10.8551
▁88	-10.8553
Car	-10.8554
▁wali	-10.8556
")	-10.8558
ення	-10.8558
▁Business	-10.8561
diri	-10.8566
lē	-10.8566
▁(5	-10.8567
▁band	-10.8568
ular	-10.8569
▁desde	-10.8571
▁rumah	-10.8573
ño	-10.8573
▁байна	-10.8577
ljen	-10.8578
ገ	-10.858
ড	-10.858
ových	-10.8581
తో	-10.8583
적	-10.8585
hle	-10.8586
ző	-10.8588
ας	-10.8589
isht	-10.8591
신	-10.8593
▁than	-10.8594
sper	-10.8594
▁★	-10.8596
۲	-10.8597
ជា	-10.8597
重	-10.8598
▁Big	-10.8599
nnen	-10.8601
▁event	-10.8601
할	-10.8601
JE	-10.8601
ating	-10.8603
비	-10.8604
▁even	-10.8604
▁seo	-10.8604
toj	-10.8606
ining	-10.861
்	-10.8613
▁Este	-10.8613
બ	-10.8613
eer	-10.8615
anto	-10.8617
▁kim	-10.8618
▁الله	-10.8619
▁werk	-10.8622
VI	-10.8624
▁nap	-10.8626
arka	-10.8626
▁Spe	-10.8628
ഷ	-10.8631
▁Street	-10.8631
ধ	-10.8631
iyor	-10.8633
▁integr	-10.8633
▁ಪ್ರ	-10.8634
▁પર	-10.8635
▁III	-10.8638
өө	-10.8642
âm	-10.8643
▁samt	-10.8644
checked	-10.8644
дор	-10.8646
ät	-10.8647
▁wi	-10.8648
▁proces	-10.8649
▁ç	-10.8649
нар	-10.8649
бі	-10.865
民	-10.865
▁View	-10.8652
-9	-10.8652
▁ਅ	-10.8652
▁Grand	-10.8652
▁Harga	-10.8653
▁cat	-10.8653
Ch	-10.8661
▁üle	-10.8662
vár	-10.8662
▁ανα	-10.8665
▁کرد	-10.8665
Ó	-10.8666
LU	-10.8668
▁two	-10.867
про	-10.8673
zd	-10.8675
AU	-10.8676
ници	-10.8676
מי	-10.8676
кен	-10.8677
▁lot	-10.8677
▁nova	-10.8678
ട്ട	-10.8678
▁pop	-10.868
▁mur	-10.868
сын	-10.8682
▁gj	-10.8682
sub	-10.8683
rê	-10.8684
▁spre	-10.8685
чет	-10.8686
ελ	-10.8686
▁wakati	-10.8687
fun	-10.8688
▁savo	-10.8689
టి	-10.8691
相	-10.8692
ებ	-10.8693
▁1.0	-10.8696
ეს	-10.8699
▁Cur	-10.87
▁гр	-10.87
ಗಳ	-10.8701
ngan	-10.8704
▁bai	-10.8705
ਲਾ	-10.8705
kaz	-10.8706
rol	-10.8707
ļu	-10.8707
lav	-10.8708
text	-10.8708
▁Over	-10.871
shme	-10.871
bek	-10.8711
▁very	-10.8712
tine	-10.8712
公司	-10.8712
эд	-10.8712
▁Off	-10.8713
่	-10.8713
ບ	-10.8718
nir	-10.8719
ног	-10.872
▁kro	-10.8721
eze	-10.8722
120	-10.8724
graf	-10.8724
▁GB	-10.8724
▁syn	-10.8725
▁salah	-10.8725
▁einen	-10.8725
pm	-10.8725
ونه	-10.8727
▁ISBN	-10.8728
▁मा	-10.8728
▁siya	-10.8729
▁Somaliland	-10.8729
جر	-10.8732
IG	-10.8732
werk	-10.8733
▁kra	-10.8733
ых	-10.8735
▁marca	-10.8735
gina	-10.8736
atzen	-10.8737
cé	-10.8738
▁cao	-10.8741
бек	-10.8741
кы	-10.8742
Su	-10.8743
▁Office	-10.8743
пре	-10.8744
▁nej	-10.8744
jd	-10.8745
uks	-10.8745
▁йил	-10.8745
▁করে	-10.8746
ប្រ	-10.8746
ләр	-10.8749
vos	-10.8751
дам	-10.8752
lán	-10.8755
▁σας	-10.8755
solu	-10.8756
ał	-10.8758
▁ele	-10.8758
东	-10.8759
NS	-10.876
▁27.	-10.8762
▁під	-10.8763
dala	-10.8765
Ո	-10.8766
lada	-10.8766
ција	-10.8766
lg	-10.8766
lgan	-10.8767
gé	-10.8767
▁tit	-10.8768
ட்	-10.8768
ശ	-10.877
▁તે	-10.8772
ddi	-10.8772
作	-10.8774
тэй	-10.8774
फ	-10.8776
vere	-10.8776
▁polo	-10.8777
אַ	-10.8778
ppe	-10.8779
而	-10.878
стра	-10.878
▁tom	-10.878
▁Га	-10.8784
тра	-10.8785
▁aba	-10.8786
ед	-10.8788
▁त	-10.8789
▁سا	-10.879
▁nasod	-10.879
კ	-10.8791
үр	-10.8792
verk	-10.8795
▁AK	-10.8798
及	-10.8804
식	-10.8809
▁Ši	-10.8812
ifica	-10.8813
eka	-10.8813
▁well	-10.8814
mber	-10.8816
KE	-10.8818
▁aga	-10.8821
asti	-10.8822
▁Som	-10.8824
▁kä	-10.8824
▁support	-10.8825
קי	-10.8826
rika	-10.8826
110	-10.8826
ونو	-10.8827
▁Fan	-10.8827
▁wordt	-10.8828
tada	-10.8829
▁beberapa	-10.883
▁جس	-10.8833
量	-10.8835
्	-10.8835
хан	-10.8836
Sh	-10.8837
▁only	-10.8838
▁både	-10.8841
inni	-10.8842
ър	-10.8845
۵	-10.8846
ທ	-10.8846
صر	-10.8847
llu	-10.8848
үү	-10.8848
▁hoe	-10.885
еш	-10.8851
now	-10.8855
▁68	-10.8855
bak	-10.8856
▁PDF	-10.8856
elli	-10.8857
▁Cas	-10.8857
▁зна	-10.8859
ਵ	-10.8861
ακ	-10.8861
BS	-10.8863
off	-10.8867
ో	-10.887
hid	-10.8871
▁ég	-10.8874
▁Kara	-10.8876
SK	-10.8876
иот	-10.8877
▁Aug	-10.8882
ldi	-10.8885
▁frem	-10.8886
TY	-10.8886
nna	-10.8887
▁მი	-10.8888
lima	-10.8889
▁mill	-10.889
қи	-10.8891
▁harus	-10.8891
【	-10.8892
▁Produkt	-10.8893
▁Kra	-10.8894
שו	-10.8894
chy	-10.8894
рес	-10.8895
уб	-10.8895
▁բ	-10.8896
وت	-10.8897
▁CA	-10.8897
▁sü	-10.8897
ศ	-10.89
slag	-10.89
اش	-10.8902
ਰਾ	-10.8903
▁Gor	-10.8905
viet	-10.8907
▁eks	-10.8908
▁ни	-10.8908
▁что	-10.8908
=1	-10.8909
▁zona	-10.8909
▁Las	-10.8909
চ	-10.891
▁Ltd	-10.8911
uto	-10.8912
▁py	-10.8914
ನ್ನ	-10.8918
bran	-10.8918
tish	-10.8919
▁kutoka	-10.892
▁57	-10.892
▁Kr	-10.892
▁لی	-10.892
ப்	-10.892
▁Ball	-10.8923
▁الس	-10.8924
ppen	-10.8925
▁வி	-10.8926
video	-10.8927
ška	-10.8927
ppa	-10.893
۹	-10.8933
ост	-10.8935
▁گیا	-10.8937
▁adres	-10.8937
iana	-10.8938
▁pří	-10.8938
数	-10.8939
ικά	-10.8939
▁dokument	-10.8939
▁Peng	-10.8942
iche	-10.8942
▁15,	-10.8944
oq	-10.8948
▁wada	-10.8948
iso	-10.8948
器	-10.8949
ders	-10.895
▁priv	-10.895
▁Bed	-10.8954
.....	-10.8955
▁tru	-10.8955
▁Ev	-10.8956
▁Vin	-10.8956
▁መ	-10.8957
cken	-10.8958
page	-10.896
▁naman	-10.896
length	-10.8964
ums	-10.8965
▁Amb	-10.8967
▁Rock	-10.8967
нг	-10.8968
▁Print	-10.8968
TB	-10.8968
ыг	-10.8969
оч	-10.897
▁Ini	-10.8971
▁ایران	-10.8974
ще	-10.8975
ors	-10.8976
/8	-10.8976
▁Sho	-10.8976
▁Kel	-10.898
▁TO	-10.8981
ე	-10.8982
II	-10.8982
ਜ਼	-10.8985
ony	-10.8987
▁sein	-10.8988
▁kok	-10.8989
gha	-10.8989
▁masih	-10.899
▁εν	-10.899
▁وہ	-10.8992
COM	-10.8993
▁thành	-10.8993
▁há	-10.8994
וח	-10.8994
ൽ	-10.8995
ਨਾ	-10.8997
EG	-10.9
kong	-10.9004
zó	-10.9006
ribu	-10.9007
انه	-10.9008
程	-10.9008
▁bare	-10.9009
ფ	-10.901
▁ef	-10.901
▁CON	-10.9016
гә	-10.9023
park	-10.9023
buk	-10.9025
▁year	-10.9028
่า	-10.9029
uste	-10.903
alta	-10.9031
وار	-10.9033
ហ	-10.9037
▁1-	-10.9041
imet	-10.9043
▁TL	-10.9044
▁Brasil	-10.9044
▁bay	-10.9044
▁pode	-10.9045
mě	-10.9046
▁period	-10.9047
tör	-10.9047
▁시	-10.9048
І	-10.9049
▁ન	-10.905
▁जा	-10.9051
▁apar	-10.9054
фа	-10.9055
ফ	-10.9059
▁نام	-10.906
erte	-10.906
эх	-10.906
PE	-10.9061
stig	-10.9061
gó	-10.9061
Ge	-10.9062
▁saja	-10.9063
guna	-10.9065
Wa	-10.9065
게	-10.9068
▁prej	-10.9069
▁Ва	-10.907
▁98	-10.9071
stä	-10.9071
▁Forum	-10.9071
ikka	-10.9074
cı	-10.9075
▁todos	-10.9076
RES	-10.9077
ור	-10.9077
▁2018.	-10.9078
▁మ	-10.9078
▁Price	-10.9078
▁BO	-10.9082
▁Če	-10.9083
dığı	-10.9084
ľ	-10.9088
▁ses	-10.9088
▁Microsoft	-10.909
▁moet	-10.909
단	-10.9092
▁մի	-10.9094
ender	-10.9094
ұ	-10.9095
qua	-10.9095
esto	-10.9098
▁cost	-10.9099
handel	-10.9099
▁april	-10.91
▁kort	-10.91
▁Բ	-10.9101
▁تم	-10.9102
▁North	-10.9103
▁nang	-10.9103
ება	-10.9104
10.	-10.9109
гийн	-10.9109
▁buvo	-10.9109
rid	-10.911
▁Reg	-10.9111
▁aber	-10.9113
él	-10.9114
GG	-10.9115
▁kontrol	-10.9116
ረ	-10.9119
bung	-10.9121
রে	-10.9122
▁ned	-10.9122
ई	-10.9122
ి	-10.9123
▁Europe	-10.9123
▁кар	-10.9124
push	-10.9124
Ú	-10.9125
pok	-10.9125
▁מת	-10.9126
Π	-10.9127
Î	-10.9128
ара	-10.913
kos	-10.913
▁IT	-10.9132
▁Mü	-10.9132
▁Main	-10.9133
▁kamu	-10.9133
rok	-10.9134
чен	-10.9134
생	-10.9135
▁Shop	-10.9136
рон	-10.914
▁politik	-10.9141
▁પ	-10.9142
NY	-10.9144
▁μια	-10.9144
▁În	-10.9144
GT	-10.9146
▁cũng	-10.9148
dé	-10.9154
▁big	-10.9154
▁Sil	-10.9154
omba	-10.9155
acha	-10.9156
3)	-10.9156
Ş	-10.9157
></	-10.9157
jk	-10.9157
▁Ft	-10.9158
▁aux	-10.9158
▁etc	-10.9158
TER	-10.9159
жен	-10.916
\/	-10.916
վում	-10.916
ัน	-10.916
▁Arm	-10.9162
mēr	-10.9162
▁serta	-10.9163
eira	-10.9164
▁یو	-10.9165
▁ಇ	-10.9166
ೈ	-10.9169
▁hot	-10.9169
์	-10.9169
ባ	-10.9169
ಗಳು	-10.9172
szer	-10.9174
ада	-10.9175
rou	-10.9177
ക്ക്	-10.9177
▁Dom	-10.918
▁Luc	-10.9181
نو	-10.9183
▁عمل	-10.9184
രി	-10.9187
▁Му	-10.919
بل	-10.9191
lıq	-10.9191
▁gri	-10.9191
▁Gro	-10.9192
iyay	-10.9193
GO	-10.9196
rī	-10.9197
▁noch	-10.9199
rica	-10.9199
fn	-10.9199
ғы	-10.92
▁business	-10.92
ист	-10.9202
bild	-10.9204
гы	-10.9207
εται	-10.9208
stup	-10.9209
сп	-10.921
▁Sant	-10.9211
ൂ	-10.9211
▁24.	-10.9213
Â	-10.9214
▁spot	-10.9214
mod	-10.9215
▁29.	-10.9215
工作	-10.9218
▁bed	-10.922
ades	-10.9221
▁nước	-10.9221
▁cá	-10.9222
uose	-10.9223
رس	-10.9224
чин	-10.9226
▁Об	-10.9228
šči	-10.9231
rob	-10.9231
▁না	-10.9231
▁pam	-10.9233
▁Bet	-10.9234
▁Malaysia	-10.9234
▁шу	-10.9234
rr	-10.9234
ښ	-10.9236
ĉ	-10.9236
▁finns	-10.9237
ంద	-10.9237
istan	-10.9237
▁goed	-10.9238
▁memiliki	-10.9238
lardan	-10.9238
product	-10.9239
光	-10.9241
▁barn	-10.9241
▁Pat	-10.9241
▁alebo	-10.9241
ന്ന	-10.9242
ರೆ	-10.9243
ald	-10.9243
డి	-10.9244
مو	-10.9245
▁rast	-10.9245
▁Lan	-10.9247
ራ	-10.9247
▁الف	-10.9248
ches	-10.925
▁دي	-10.925
mula	-10.9252
ან	-10.9252
着	-10.9253
ແ	-10.9253
▁pře	-10.9254
▁Mid	-10.9255
▁vie	-10.9257
нага	-10.9257
اح	-10.9257
▁sar	-10.9258
λι	-10.9259
▁வ	-10.926
not	-10.926
▁વિ	-10.926
▁hebben	-10.926
umba	-10.9261
です	-10.9263
IO	-10.9264
华	-10.9264
דר	-10.9264
jev	-10.9265
voj	-10.9266
elen	-10.9272
▁Public	-10.9276
▁digital	-10.9277
For	-10.9278
кор	-10.9278
siga	-10.9279
▁King	-10.9281
娱乐	-10.9281
阳	-10.9281
재	-10.9281
위	-10.9281
ασ	-10.9283
▁gas	-10.9283
▁kuni	-10.9284
▁সা	-10.9286
кр	-10.9286
dina	-10.9286
kot	-10.9286
▁przez	-10.9287
લા	-10.9289
રે	-10.9289
▁zuen	-10.9292
tze	-10.9293
yal	-10.9294
▁produktu	-10.9294
ግ	-10.9294
dhe	-10.9295
воз	-10.9297
▁지	-10.9297
▁Rp	-10.9297
▁над	-10.9301
▁rela	-10.9302
לו	-10.9302
يس	-10.9302
▁got	-10.9303
금	-10.9304
▁vill	-10.9309
▁hii	-10.9309
ռ	-10.9309
▁μας	-10.931
قا	-10.9313
▁ह	-10.9315
▁Kategori	-10.9315
▁turn	-10.9315
cn	-10.9319
▁verið	-10.9319
▁Krist	-10.9321
ování	-10.9323
لة	-10.9323
▁lub	-10.9327
▁perlu	-10.9328
▁же	-10.9329
▁gaan	-10.933
инг	-10.9333
▁77	-10.9335
να	-10.9335
ไ	-10.9336
▁Galaxy	-10.9338
▁Out	-10.9339
▁Not	-10.9339
ško	-10.934
▁må	-10.934
ttä	-10.934
GU	-10.9341
▁č	-10.9343
וק	-10.9343
▁milimetro	-10.9343
▁august	-10.9345
ิ	-10.9345
light	-10.9346
wing	-10.9346
या	-10.9347
▁KA	-10.9347
tern	-10.9348
▁ఇ	-10.9348
所	-10.9349
▁Mah	-10.9349
sama	-10.9349
ję	-10.9351
▁Nga	-10.9352
fall	-10.9352
larga	-10.9352
ён	-10.9354
შ	-10.9356
iba	-10.9356
}}	-10.9357
תו	-10.9359
եղ	-10.9362
▁кои	-10.9364
▁వి	-10.9365
▁ел	-10.9368
aad	-10.9368
▁haar	-10.937
▁դ	-10.9372
▁stil	-10.9375
PL	-10.9376
▁Ná	-10.9376
▁տ	-10.9376
tech	-10.9379
▁Digital	-10.9379
▁estis	-10.938
▁চ	-10.9382
kė	-10.9382
▁Que	-10.9385
ňa	-10.9387
stin	-10.9387
문	-10.9387
ੈ	-10.9388
ઓ	-10.9392
ngo	-10.9392
博	-10.9392
лік	-10.9393
▁25.	-10.9395
κα	-10.9396
fort	-10.94
▁solo	-10.94
ելու	-10.9401
▁teen	-10.9404
ਵਾ	-10.9407
isse	-10.9407
לה	-10.9409
▁jsou	-10.9412
ισ	-10.9413
eller	-10.9413
MC	-10.9414
ına	-10.9415
▁välja	-10.9415
这	-10.9417
σι	-10.9418
ingu	-10.9419
zal	-10.9419
kata	-10.942
▁milli	-10.942
uhan	-10.9421
sted	-10.9421
▁firma	-10.9422
▁ras	-10.9423
sir	-10.9424
▁só	-10.9425
വാ	-10.9426
tà	-10.9426
வி	-10.9428
კა	-10.9429
▁nom	-10.9429
▁ис	-10.9431
eria	-10.9432
▁ද	-10.9434
ONG	-10.9434
Pre	-10.9437
▁Road	-10.9438
▁23,	-10.9439
ผู้	-10.944
▁water	-10.9443
អ	-10.9444
里	-10.9444
īga	-10.9446
▁seda	-10.9449
пен	-10.9449
odo	-10.945
▁important	-10.9451
▁vse	-10.9451
▁List	-10.9452
ifa	-10.9452
▁port	-10.9454
ੁ	-10.9455
▁bola	-10.9455
▁Latvijas	-10.9455
2000	-10.9456
▁premi	-10.9456
ෝ	-10.9457
▁sinh	-10.9457
וי	-10.9458
▁För	-10.9458
▁tiek	-10.9458
AZ	-10.9459
▁Ut	-10.9461
ниот	-10.9463
اع	-10.9464
하고	-10.9471
▁experience	-10.9471
▁bé	-10.9472
ँ	-10.9473
יס	-10.9474
ার	-10.9474
չ	-10.9475
▁över	-10.9477
▁tsa	-10.9477
▁план	-10.9479
크	-10.9479
пан	-10.948
ihin	-10.948
‬	-10.948
▁hợp	-10.948
▁71	-10.9481
RC	-10.9483
▁יש	-10.9485
▁Ә	-10.9488
02.	-10.9488
▁Views	-10.9488
වා	-10.9491
ि	-10.9491
▁sasa	-10.9491
liği	-10.9493
▁ہیں۔	-10.9493
riz	-10.9496
ód	-10.9496
שת	-10.9497
hand	-10.9499
▁prí	-10.9501
άρ	-10.9502
花	-10.9503
▁France	-10.9503
menti	-10.9503
ಟ್	-10.9506
лас	-10.9507
room	-10.9507
ον	-10.9508
▁1.2	-10.9509
▁Program	-10.9509
▁mie	-10.9509
ecek	-10.9509
ું	-10.951
ыш	-10.951
▁kv	-10.951
mul	-10.9511
▁מי	-10.9513
ら	-10.9513
▁brand	-10.9514
ె	-10.9516
ење	-10.9517
ιά	-10.9518
ਬ	-10.952
▁най	-10.952
رب	-10.9521
▁dating	-10.9521
▁visa	-10.9522
▁grande	-10.9523
awan	-10.9525
ელ	-10.9526
▁στις	-10.9526
▁már	-10.9527
عة	-10.9528
▁går	-10.953
style	-10.953
itse	-10.9531
uð	-10.9531
lè	-10.9532
▁fr	-10.9532
▁Mir	-10.9535
▁Dé	-10.9536
ไม่	-10.9537
ский	-10.9539
тро	-10.9539
▁General	-10.954
yun	-10.954
/06/	-10.9543
ֆ	-10.9544
▁việc	-10.9544
пис	-10.9544
▁lại	-10.9544
▁مج	-10.9545
SU	-10.9546
rey	-10.9547
▁Sim	-10.9547
ู	-10.9548
fir	-10.9549
▁व	-10.9552
larini	-10.9552
yah	-10.9553
▁kus	-10.9553
▁جن	-10.9554
▁ط	-10.9558
▁Sand	-10.956
care	-10.956
роб	-10.9561
平台	-10.9561
จะ	-10.9561
▁16,	-10.9561
▁Ан	-10.9562
ће	-10.9562
bide	-10.9563
▁stran	-10.9564
▁case	-10.9566
דה	-10.9568
▁dá	-10.9572
יש	-10.9572
ուր	-10.9572
▁1.1	-10.9573
▁97	-10.9574
▁76	-10.9575
okat	-10.9576
▁mint	-10.9576
▁töö	-10.9576
нес	-10.9578
lock	-10.9578
eix	-10.9579
DU	-10.9579
гүй	-10.958
▁pay	-10.958
ání	-10.9581
原	-10.9581
▁Mont	-10.9585
شی	-10.9586
avo	-10.9586
▁tekst	-10.9586
▁իր	-10.9589
▁Ú	-10.9589
ך	-10.959
ial	-10.9592
▁Бо	-10.9592
▁function	-10.9594
▁pad	-10.9595
హ	-10.9598
ós	-10.96
▁Hay	-10.9601
▁take	-10.9602
▁University	-10.9602
িক	-10.9603
▁28.	-10.9604
프	-10.9606
▁sự	-10.9607
▁உ	-10.9607
مل	-10.9609
EP	-10.961
mission	-10.9611
mbe	-10.9612
▁Sko	-10.9612
▁63	-10.9612
想	-10.9613
AAA	-10.9613
בי	-10.9613
سی	-10.9615
ನೆ	-10.9615
با	-10.9617
▁ස	-10.9618
▁publik	-10.962
ल्	-10.9621
rə	-10.9622
▁baz	-10.9622
▁тр	-10.9622
▁leh	-10.9622
▁vä	-10.9622
ագ	-10.9623
▁jika	-10.9625
स्	-10.9627
رد	-10.9629
dil	-10.9631
endur	-10.9631
▁mult	-10.9633
▁주	-10.9634
▁менен	-10.9634
ига	-10.9634
पा	-10.9634
▁khách	-10.9635
thu	-10.9636
мент	-10.9636
റ്റ	-10.9638
itev	-10.9638
escu	-10.9638
▁svet	-10.9642
▁Ар	-10.9644
РА	-10.9644
▁Ken	-10.9647
रे	-10.9648
▁Open	-10.9649
աշ	-10.9651
ров	-10.9652
api	-10.9654
כן	-10.9655
▁anmeldelser	-10.9656
▁Soo	-10.9656
▁Cab	-10.9657
▁17,	-10.9657
оп	-10.9657
▁hver	-10.9659
selt	-10.966
▁cas	-10.9661
បាន	-10.9662
users	-10.9663
йн	-10.9663
운	-10.9665
kara	-10.9666
ຄ	-10.9666
ву	-10.9668
sek	-10.9669
indi	-10.9671
身	-10.9671
دو	-10.9671
зы	-10.9674
kuwa	-10.9675
▁પ્ર	-10.9677
ương	-10.9677
▁Wall	-10.9678
fanya	-10.9679
fre	-10.968
nah	-10.9682
more	-10.9683
▁ovat	-10.9685
PM	-10.9687
তা	-10.9687
▁Ul	-10.9689
▁нај	-10.9691
ี	-10.9693
ரு	-10.9693
▁cy	-10.9696
▁ಹ	-10.9696
▁Kre	-10.9697
▁στον	-10.9698
chod	-10.97
▁év	-10.9701
inis	-10.9701
-30	-10.9702
▁dugu	-10.9702
kak	-10.9704
wor	-10.9704
▁Published	-10.9705
يف	-10.9705
▁wil	-10.9706
nad	-10.9707
ላ	-10.9707
▁Anna	-10.9708
kami	-10.9709
▁komp	-10.9709
▁Neu	-10.9711
hala	-10.9714
้า	-10.9714
తి	-10.9714
kali	-10.9714
נט	-10.9714
ют	-10.9716
elor	-10.9717
bay	-10.9717
▁look	-10.9717
hai	-10.972
▁Bil	-10.9723
nyi	-10.9723
Con	-10.9724
▁Nahimutang	-10.9724
сло	-10.9725
▁process	-10.9725
ús	-10.9726
рак	-10.9727
▁popular	-10.9728
kri	-10.9728
gna	-10.973
ría	-10.973
▁name	-10.9732
▁pret	-10.9734
北	-10.9735
uja	-10.9737
۴	-10.974
ု	-10.9741
▁mg	-10.9743
▁System	-10.9745
tali	-10.9746
▁einem	-10.9746
▁kart	-10.9747
▁ε	-10.9747
nam	-10.9748
▁tap	-10.9748
dade	-10.9748
▁problema	-10.9749
▁fet	-10.9752
ADA	-10.9752
ojë	-10.9754
spekt	-10.9755
uur	-10.9755
uq	-10.9757
▁Band	-10.9758
▁xo	-10.9759
▁học	-10.9761
FE	-10.9763
larının	-10.977
▁tut	-10.977
CU	-10.977
▁нов	-10.9771
▁andere	-10.9771
GC	-10.9772
landi	-10.9772
---	-10.9772
▁sim	-10.9773
▁spel	-10.9774
▁ос	-10.9774
мас	-10.9775
amin	-10.9778
bio	-10.9778
▁ide	-10.9779
▁Kenya	-10.9781
▁seus	-10.9781
cə	-10.9782
gno	-10.9784
▁jobb	-10.9785
▁ਜ	-10.9785
ញ	-10.9786
▁26.	-10.9786
τά	-10.9789
šanas	-10.9789
▁Japan	-10.979
▁pole	-10.979
▁թ	-10.9792
▁yana	-10.9794
▁ফ	-10.9795
kı	-10.9796
RY	-10.9797
ři	-10.9798
ныя	-10.9798
न्	-10.9799
ează	-10.98
情	-10.9801
▁neu	-10.9801
▁page	-10.9801
శ	-10.9802
ança	-10.9803
anan	-10.9804
▁propos	-10.9804
rii	-10.9806
▁fond	-10.9807
ክ	-10.9807
mati	-10.9808
▁sme	-10.9808
▁sezon	-10.981
ీ	-10.981
mt	-10.9813
▁class	-10.9813
ئی	-10.9813
aldi	-10.9813
eerd	-10.9815
ຍ	-10.9815
ovať	-10.9818
▁وي	-10.9819
рин	-10.9825
MD	-10.9826
ト	-10.9829
▁IST	-10.983
νη	-10.983
کار	-10.9831
০	-10.9831
já	-10.9833
іп	-10.9834
▁ish	-10.9835
hoz	-10.9835
▁24,	-10.9836
tib	-10.9836
ovo	-10.9837
▁Jakarta	-10.9837
▁Ai	-10.9838
▁وت	-10.9841
meni	-10.9842
öö	-10.9842
▁zaidi	-10.9843
في	-10.9843
lka	-10.9845
▁Lin	-10.9845
inə	-10.9846
▁human	-10.9846
개	-10.9847
ush	-10.9847
▁как	-10.9849
یس	-10.9849
▁mutta	-10.9849
vita	-10.985
▁پیش	-10.985
Ver	-10.9851
বি	-10.9853
▁novo	-10.9856
▁Те	-10.9859
maz	-10.986
lika	-10.9861
▁menggunakan	-10.9861
▁price	-10.9864
ას	-10.9865
관	-10.9865
bare	-10.9866
▁Fre	-10.9866
▁fakt	-10.9866
▁Info	-10.9866
yti	-10.9867
اط	-10.9867
تے	-10.9868
</	-10.9869
▁disse	-10.9869
DP	-10.987
▁apie	-10.9874
▁samo	-10.9874
lma	-10.9874
▁Pic	-10.9875
▁které	-10.9875
▁ktoré	-10.9878
▁stat	-10.9879
φορ	-10.9879
▁disa	-10.988
OK	-10.988
DO	-10.9881
▁Una	-10.9883
▁flere	-10.9884
ACT	-10.9885
nummer	-10.9885
▁County	-10.9885
fect	-10.9886
lut	-10.9889
▁aktiv	-10.989
ajn	-10.9891
jf	-10.9891
▁porno	-10.9892
зар	-10.9892
▁Rais	-10.9893
▁Arab	-10.9894
område	-10.9895
▁NO	-10.9896
房	-10.9897
աղ	-10.9899
▁nok	-10.9901
▁obra	-10.9901
سم	-10.9908
aksi	-10.9911
HU	-10.9911
ril	-10.9911
fit	-10.9913
ტი	-10.9913
ља	-10.9915
ફ	-10.9916
yada	-10.9918
ಲಿ	-10.9919
二	-10.9919
▁AC	-10.992
Bi	-10.992
▁ар	-10.992
Ы	-10.992
▁Kin	-10.9921
▁sv	-10.9921
▁tako	-10.9922
▁hore	-10.9923
дә	-10.9923
▁PR	-10.9923
má	-10.9926
ว่า	-10.9926
lise	-10.9929
▁кол	-10.9929
եք	-10.9933
▁ప్ర	-10.9933
čia	-10.9934
lej	-10.9935
▁format	-10.9938
▁domin	-10.9938
体育	-10.9938
ово	-10.9939
▁Tin	-10.9941
itt	-10.9941
▁máy	-10.9943
▁ده	-10.9943
▁grad	-10.9943
▁사	-10.9945
▁mau	-10.9947
▁3-	-10.9948
▁ਅਤੇ	-10.9951
lerini	-10.9951
անց	-10.9951
tol	-10.9952
mah	-10.9953
god	-10.9954
▁jadi	-10.9954
▁Social	-10.9954
▁От	-10.9955
▁Roman	-10.9956
▁görə	-10.9956
▁Ха	-10.9956
στ	-10.9958
tuk	-10.9958
▁ша	-10.9959
马	-10.9962
զ	-10.9962
▁এক	-10.9963
lyn	-10.9964
▁Ale	-10.9964
Id	-10.9966
||	-10.9967
▁Watch	-10.9971
્યા	-10.9975
ими	-10.9975
▁Fin	-10.9977
LAN	-10.9978
▁partir	-10.9978
▁Esta	-10.9981
▁دا	-10.9982
▁Feb	-10.9983
ድ	-10.9983
▁মা	-10.9985
▁KO	-10.9985
rav	-10.9986
eau	-10.9986
ték	-10.9987
งาน	-10.9987
uji	-10.9987
▁valor	-10.9988
▁ideal	-10.9988
▁ду	-10.999
▁Má	-10.999
선	-10.9991
▁centro	-10.9992
▁Tai	-10.9992
წ	-10.9993
üh	-10.9993
5)	-10.9993
▁שי	-10.9994
▁Your	-10.9995
▁Robert	-10.9995
toa	-10.9995
▁På	-10.9996
radi	-10.9997
sit	-10.9999
itate	-11
tisk	-11.0002
enta	-11.0003
nym	-11.0007
▁εκ	-11.0009
▁svoj	-11.0009
▁Prof	-11.001
Sp	-11.001
▁gai	-11.0011
jad	-11.0011
▁кој	-11.0014
▁student	-11.0014
▁před	-11.0015
▁ತ	-11.0015
ετε	-11.0015
main	-11.0017
▁special	-11.0023
lid	-11.0023
ර්	-11.0024
▁پا	-11.0024
вет	-11.0024
▁fog	-11.0024
ენ	-11.0025
რო	-11.0025
Mu	-11.0026
▁град	-11.0026
▁Mé	-11.0028
ungs	-11.003
만	-11.003
cja	-11.0031
mic	-11.0034
НИ	-11.0034
bru	-11.0036
▁Bio	-11.0036
▁Mp	-11.0037
▁ہی	-11.0038
้	-11.0038
▁Uz	-11.0038
ӯ	-11.0039
▁dire	-11.004
old	-11.0041
▁rus	-11.0041
▁Ó	-11.0041
ੱ	-11.0042
▁өз	-11.0049
ಕ್ಕೆ	-11.0049
▁CH	-11.005
вы	-11.0051
AY	-11.0051
schen	-11.0051
alam	-11.0052
ēs	-11.0053
▁motiv	-11.0053
▁Ada	-11.0053
heit	-11.0053
网站	-11.0054
▁inay	-11.0059
ွ	-11.006
▁بار	-11.006
▁প	-11.0062
▁ön	-11.0063
元	-11.0064
▁Love	-11.0064
ሰ	-11.0066
dica	-11.0066
▁thông	-11.0066
эм	-11.007
说	-11.0071
▁life	-11.0071
▁email	-11.0071
Ο	-11.0072
ában	-11.0074
▁muda	-11.0074
▁tao	-11.0074
মা	-11.0076
▁lokal	-11.0077
ା	-11.0082
abo	-11.0082
▁Ўзбекистон	-11.0083
นี้	-11.0084
2-	-11.0088
kuu	-11.0089
vant	-11.0089
oč	-11.009
▁Italia	-11.0091
zeit	-11.0092
work	-11.0096
▁say	-11.0098
তি	-11.01
ība	-11.0101
▁dass	-11.0101
usu	-11.0102
물	-11.0102
table	-11.0102
▁mam	-11.0103
▁einer	-11.0103
meter	-11.0104
十	-11.0106
מו	-11.0107
학	-11.0108
▁हैं	-11.0108
իր	-11.0109
▁Resort	-11.011
▁jsem	-11.011
▁uy	-11.0111
öt	-11.0113
CAT	-11.0114
▁pur	-11.0114
edi	-11.0115
▁atas	-11.0116
ongo	-11.0118
cions	-11.0119
▁ekonomi	-11.0121
uke	-11.0123
ौ	-11.0124
▁šo	-11.0124
▁map	-11.0125
ppi	-11.0125
▁Dal	-11.0125
fas	-11.0126
▁chỉ	-11.0127
▁blev	-11.013
ең	-11.0132
▁92	-11.0134
:"	-11.0137
▁tõ	-11.0138
ታ	-11.0138
▁kraj	-11.0139
pata	-11.014
ider	-11.0143
▁Mobil	-11.0143
▁energi	-11.0144
ဝ	-11.0144
▁hình	-11.0146
▁qi	-11.0146
kie	-11.0146
ged	-11.0146
▁stop	-11.0147
▁ху	-11.0148
išk	-11.0151
yna	-11.0151
мар	-11.0152
ਿ	-11.0154
লি	-11.0154
▁81	-11.0154
▁AR	-11.0154
▁present	-11.0155
ල්	-11.0155
▁인	-11.0157
oga	-11.0157
PI	-11.0159
▁qal	-11.016
▁South	-11.0162
ând	-11.0162
▁project	-11.0165
▁Nem	-11.0167
szcz	-11.0169
▁after	-11.0173
ನಾ	-11.0173
▁nii	-11.0173
被	-11.0176
tuar	-11.0178
▁18,	-11.0178
▁number	-11.0178
▁Code	-11.0179
ژ	-11.0179
င်	-11.0181
▁RO	-11.0182
isch	-11.0182
રો	-11.0182
arekin	-11.0183
inio	-11.0183
sent	-11.0186
ison	-11.0186
▁ges	-11.0188
▁Key	-11.0188
▁vas	-11.0188
gc	-11.0189
rut	-11.019
▁ҳа	-11.0192
וס	-11.0193
liq	-11.0193
接	-11.0194
mik	-11.0196
▁maga	-11.0197
cra	-11.0197
▁oss	-11.0201
baar	-11.0203
▁۔	-11.0205
▁tax	-11.0206
▁22,	-11.0206
сэн	-11.0207
ată	-11.0207
laga	-11.0207
گر	-11.0211
ич	-11.0211
က္	-11.0215
UD	-11.0216
▁Bonus	-11.0218
NT	-11.0218
ဖ	-11.0219
▁#1	-11.0221
ठ	-11.0222
ydd	-11.0224
:0	-11.0225
uoti	-11.0226
▁plu	-11.0227
▁גם	-11.0229
tit	-11.0229
▁2002	-11.023
bd	-11.023
dov	-11.0232
Da	-11.0233
ိ	-11.0233
▁Chu	-11.0237
DC	-11.0237
kó	-11.0239
▁access	-11.024
Ke	-11.0244
▁থেকে	-11.025
▁chính	-11.025
▁fá	-11.0251
rî	-11.0251
国际	-11.0252
ithe	-11.0253
▁line	-11.0253
▁But	-11.0255
▁และ	-11.0255
mış	-11.0258
▁בר	-11.0259
вор	-11.026
▁gada	-11.026
▁lever	-11.0261
▁تک	-11.0262
mut	-11.0263
bili	-11.0264
eksi	-11.0264
יב	-11.0264
rul	-11.0265
த்து	-11.0266
▁mehr	-11.0267
▁Just	-11.0268
▁would	-11.0269
bg	-11.027
ejo	-11.0271
▁Link	-11.0271
уд	-11.0271
jur	-11.0272
▁кө	-11.0273
ēm	-11.0273
ಮಾ	-11.0276
TH	-11.0279
▁cin	-11.0279
感	-11.028
▁ری	-11.0281
▁yet	-11.0281
▁persona	-11.0281
▁Χ	-11.0282
/6	-11.0286
▁125	-11.0287
▁Michael	-11.0287
▁време	-11.0291
▁Վ	-11.0291
مي	-11.0293
▁mare	-11.0294
entes	-11.0294
ðar	-11.0295
▁juu	-11.0296
čen	-11.0296
fl	-11.0296
שי	-11.0297
▁Test	-11.0298
agi	-11.0298
ดี	-11.0299
▁(6)	-11.03
▁bla	-11.03
чка	-11.0301
erer	-11.0303
ന്	-11.0304
cky	-11.0304
idos	-11.0305
PT	-11.0306
▁seks	-11.0306
dung	-11.0308
िक	-11.0309
▁mwaka	-11.0309
간	-11.031
מר	-11.031
▁jan	-11.0311
我们	-11.0311
▁માટે	-11.0312
集	-11.0312
▁ES	-11.0313
хо	-11.0315
کس	-11.0316
▁sida	-11.0317
ම්	-11.0317
▁Ei	-11.0317
eurs	-11.0318
▁ہوئے	-11.0319
▁לי	-11.0319
▁ти	-11.032
ವಿ	-11.032
jut	-11.0321
เ	-11.0322
▁apo	-11.0323
áin	-11.0326
▁menga	-11.0332
סי	-11.0333
abad	-11.0334
▁Alt	-11.0335
▁Team	-11.0335
공	-11.0337
▁Festival	-11.0337
1000	-11.0339
gikan	-11.034
▁tir	-11.0341
▁anos	-11.0341
ITA	-11.0342
mək	-11.0342
CP	-11.0342
五	-11.0343
▁fur	-11.0343
▁부	-11.0344
ért	-11.0345
▁Hindi	-11.0346
▁godt	-11.0346
▁tren	-11.0348
hti	-11.0351
ница	-11.0351
kül	-11.0352
xt	-11.0354
▁seri	-11.0354
▁skr	-11.0355
▁bl	-11.0355
ије	-11.0356
эг	-11.0357
ач	-11.0358
▁vär	-11.0361
▁වි	-11.0361
oto	-11.0362
▁הא	-11.0363
▁Comment	-11.0366
▁29,	-11.0368
▁lý	-11.0368
Man	-11.0368
▁Date	-11.0369
▁Under	-11.0369
▁bud	-11.037
▁Bin	-11.0373
▁tun	-11.0377
管	-11.0379
дын	-11.038
下载	-11.0381
▁бул	-11.0381
▁sendiri	-11.0382
bou	-11.0383
▁Reply	-11.0384
ರಾ	-11.0385
▁standard	-11.0388
▁Pil	-11.0388
▁report	-11.0388
表	-11.0389
ıl	-11.0389
лиги	-11.039
▁20,	-11.0391
ਡ	-11.0392
▁november	-11.0394
tino	-11.0394
سا	-11.0395
stvo	-11.0395
▁much	-11.0396
▁sale	-11.0396
عد	-11.0397
กับ	-11.0397
()	-11.0397
اں	-11.0398
нат	-11.0398
דו	-11.0399
▁Start	-11.0399
េ	-11.04
last	-11.0401
зу	-11.0401
ایی	-11.0402
▁sử	-11.0402
amh	-11.0403
تل	-11.0404
లి	-11.0404
ние	-11.0405
호	-11.0406
▁bukan	-11.0406
들	-11.0408
tą	-11.0409
▁akt	-11.041
▁هو	-11.041
▁ફ	-11.0414
▁Oli	-11.0415
▁Pop	-11.0416
поч	-11.0416
▁murah	-11.0417
▁Գ	-11.0417
▁حکومت	-11.0419
urile	-11.0419
መ	-11.0419
IK	-11.0421
idades	-11.0422
Je	-11.0425
▁moja	-11.0427
▁Show	-11.0428
fil	-11.0428
▁Oct	-11.0429
فی	-11.043
ίες	-11.043
▁ഉ	-11.0431
۸	-11.0431
بار	-11.0431
ZE	-11.0432
cija	-11.0433
▁comun	-11.0433
▁Time	-11.0434
▁Biz	-11.0436
▁weer	-11.0436
▁nov	-11.0437
niki	-11.0438
▁74	-11.0439
^	-11.044
dai	-11.0441
▁ọ	-11.0441
各	-11.0444
اک	-11.0447
▁porn	-11.0447
▁inspir	-11.0448
ень	-11.0449
▁86	-11.0449
▁Berlin	-11.0451
▁న	-11.0456
件	-11.0456
た	-11.0456
▁você	-11.0457
▁لیے	-11.0458
미	-11.0462
sser	-11.0462
门	-11.0462
▁Sat	-11.0464
tov	-11.0471
stop	-11.0472
▁הה	-11.0475
ებს	-11.0475
ক্ষ	-11.0476
tig	-11.0478
inė	-11.0478
▁zur	-11.0479
세	-11.0481
오	-11.0482
انو	-11.0484
▁mundo	-11.0486
代	-11.0487
riya	-11.0488
▁ול	-11.049
lö	-11.0491
▁PO	-11.0491
▁buat	-11.0492
dda	-11.0493
▁մասին	-11.0495
▁yfir	-11.0495
kw	-11.0496
▁yap	-11.0496
▁gor	-11.0497
▁Mem	-11.0497
▁sammen	-11.0498
▁الك	-11.0499
house	-11.0499
AJ	-11.0502
▁tapi	-11.0502
▁cơ	-11.0503
▁vod	-11.0505
antes	-11.0505
cut	-11.0506
▁свет	-11.0506
比	-11.0508
ности	-11.0511
......	-11.0511
▁Win	-11.0512
skar	-11.0513
▁וב	-11.0515
▁מש	-11.0515
aman	-11.0515
888	-11.0516
يب	-11.0517
pag	-11.0518
然	-11.0518
reng	-11.0519
▁baba	-11.0519
图	-11.052
aith	-11.0521
itus	-11.0521
നി	-11.0523
▁Dha	-11.0523
▁iba	-11.0523
інің	-11.0524
ekin	-11.0526
▁nett	-11.0526
כו	-11.0528
▁bio	-11.0528
ация	-11.0528
▁Press	-11.053
式	-11.0532
cou	-11.0532
▁Ли	-11.0532
▁besar	-11.0533
▁sek	-11.0534
▁nivel	-11.0535
olog	-11.0537
▁album	-11.0538
▁등	-11.0539
▁Bat	-11.0542
мін	-11.0543
כל	-11.0544
▁Qo	-11.0545
ซ	-11.0545
GI	-11.0548
иши	-11.0548
ማ	-11.0548
▁Ис	-11.055
්	-11.0553
menn	-11.0553
▁Gratis	-11.0553
▁79	-11.0555
▁73	-11.0556
ထ	-11.0556
ēja	-11.0557
▁140	-11.056
кс	-11.056
ayaan	-11.0561
eja	-11.0561
zes	-11.0562
▁Пре	-11.0563
▁لم	-11.0563
▁edi	-11.0564
▁Ι	-11.0565
▁84	-11.0566
▁Wir	-11.0569
▁mynd	-11.0569
dak	-11.0571
وان	-11.0572
pati	-11.0573
مت	-11.0577
tsu	-11.0577
્	-11.0578
tatu	-11.0581
▁ਕ	-11.0581
ної	-11.0581
▁dollar	-11.0582
▁أو	-11.0584
dla	-11.0584
ndan	-11.0584
▁ਵ	-11.0588
stein	-11.0588
▁comments	-11.0588
тын	-11.0589
▁hulle	-11.059
员	-11.0591
▁Из	-11.0591
▁yg	-11.0593
mg	-11.0593
▁Så	-11.0595
▁bán	-11.0596
tso	-11.0597
GS	-11.0597
▁kurs	-11.0599
tè	-11.0599
▁کم	-11.0601
▁print	-11.0601
▁such	-11.0601
▁सा	-11.0602
plo	-11.0604
ούν	-11.0605
▁4-	-11.0606
ndu	-11.0606
KT	-11.0606
rdi	-11.0607
gb	-11.0607
کو	-11.0607
nung	-11.0608
▁Nas	-11.0609
▁pré	-11.061
وق	-11.0611
▁ગ	-11.0614
▁Auf	-11.0614
വി	-11.0616
ते	-11.0616
▁franc	-11.0616
ahaboga	-11.0616
Hotel	-11.062
ków	-11.0621
ונה	-11.0623
AGA	-11.0625
rre	-11.0627
afi	-11.0628
db	-11.0628
▁ام	-11.0629
ская	-11.0629
▁Shu	-11.0633
▁21,	-11.0633
▁Wat	-11.0634
spor	-11.0635
▁phẩm	-11.0636
▁väl	-11.0636
▁nchini	-11.0637
ես	-11.0639
▁30.	-11.0639
DER	-11.064
做	-11.0641
▁공	-11.0642
ының	-11.0643
▁суд	-11.0643
▁impr	-11.0644
ади	-11.0644
▁nú	-11.0644
▁eigen	-11.0644
ným	-11.0645
hab	-11.0646
ček	-11.0649
enge	-11.0651
حد	-11.0652
▁[[	-11.0652
▁liv	-11.0652
▁szer	-11.0653
▁þá	-11.0654
нең	-11.0654
▁które	-11.0655
▁deur	-11.0659
ூ	-11.0659
▁How	-11.0659
צר	-11.0661
可以	-11.0662
▁GA	-11.0662
lur	-11.0662
Η	-11.0663
טו	-11.0664
iau	-11.0664
').	-11.0664
lish	-11.0665
▁yr	-11.0666
▁made	-11.0666
tric	-11.0667
IZ	-11.0667
gui	-11.0667
출	-11.0667
流	-11.0668
၊	-11.0668
▁Ren	-11.0673
ստ	-11.0677
▁minden	-11.068
fol	-11.068
四	-11.068
BD	-11.0681
▁Berg	-11.0681
स्ट	-11.0683
▁file	-11.0683
gri	-11.0684
ET	-11.0685
快	-11.0686
0.1	-11.0686
zni	-11.0688
▁đồng	-11.0689
liz	-11.0689
江	-11.069
▁hayo	-11.069
▁ט	-11.0691
hom	-11.0691
tima	-11.0691
lb	-11.0692
取	-11.0692
кар	-11.0692
abb	-11.0693
ઇ	-11.0693
▁bokep	-11.0694
▁బ	-11.0694
▁Blo	-11.0694
▁Non	-11.0695
▁qar	-11.0697
ថា	-11.0697
ží	-11.0698
cks	-11.0699
▁уз	-11.0699
▁hul	-11.0699
стро	-11.07
وج	-11.07
▁term	-11.0702
PH	-11.0702
ści	-11.0704
▁γ	-11.0704
▁nama	-11.0705
▁mới	-11.0707
▁give	-11.0709
hay	-11.071
▁ref	-11.0711
pho	-11.0715
به	-11.0716
llä	-11.0717
2010	-11.0719
ổ	-11.072
רים	-11.072
▁porta	-11.0721
▁عام	-11.0721
tru	-11.0722
hil	-11.0723
▁28,	-11.0723
kita	-11.0724
ăm	-11.0725
▁mah	-11.0727
uvchi	-11.0728
▁jual	-11.073
101	-11.0731
向	-11.0731
ാണ്	-11.0733
▁ZA	-11.0734
▁ktorý	-11.0735
aste	-11.0736
▁الش	-11.0738
ARI	-11.0739
के	-11.0741
▁Service	-11.0741
▁شهر	-11.0742
▁tôi	-11.0743
省	-11.0745
rina	-11.0747
dě	-11.0747
amu	-11.0747
▁Daniel	-11.0748
ML	-11.0748
uza	-11.0749
▁ilk	-11.0753
kken	-11.0753
зна	-11.0754
udu	-11.0756
▁који	-11.0756
TR	-11.0756
▁26,	-11.0757
fund	-11.0758
▁Damen	-11.0759
▁خو	-11.0762
ап	-11.0762
▁Ин	-11.0762
▁smo	-11.0764
חת	-11.0765
▁až	-11.0766
ഗ	-11.0767
UE	-11.077
ální	-11.077
▁tres	-11.0771
▁Ran	-11.0771
vus	-11.0771
▁työ	-11.0771
▁melakukan	-11.0772
▁1,5	-11.0772
ilan	-11.0773
ით	-11.0774
▁82	-11.0776
ੰ	-11.0777
▁DVD	-11.0777
১	-11.0777
▁through	-11.0778
+1	-11.0778
дзе	-11.0781
rai	-11.0781
▁Blu	-11.0781
▁hil	-11.0781
яр	-11.0782
▁спорт	-11.0783
όν	-11.0783
▁Smart	-11.0783
▁új	-11.0784
yje	-11.0784
▁days	-11.0788
try	-11.0789
нан	-11.0791
ето	-11.0792
હ	-11.0792
ంది	-11.0792
▁Frank	-11.0796
▁marka	-11.0796
лам	-11.0796
▁19,	-11.0797
دان	-11.0797
poli	-11.0798
▁Rad	-11.0798
르	-11.0798
▁України	-11.0798
serv	-11.0798
lių	-11.0799
▁know	-11.08
▁bata	-11.0801
Ž	-11.0801
News	-11.0801
▁см	-11.0801
▁daga	-11.0804
▁Master	-11.0805
▁oku	-11.0806
▁especial	-11.0806
ról	-11.0807
مین	-11.0808
vic	-11.0811
ಿದ್ದಾರೆ	-11.0811
Ի	-11.0812
ղ	-11.0812
▁2001	-11.0815
▁HA	-11.0816
▁dahil	-11.0816
moni	-11.0821
▁september	-11.0824
ետ	-11.0824
▁lig	-11.0825
ρι	-11.0825
▁30,	-11.0825
phe	-11.0827
ווי	-11.0828
arte	-11.0829
▁maz	-11.0831
▁سن	-11.0834
że	-11.0836
▁នៅ	-11.0836
▁κατα	-11.0837
▁cab	-11.0837
อร์	-11.0837
▁region	-11.0837
LS	-11.0838
▁Roma	-11.0839
▁tym	-11.0841
SD	-11.0841
ип	-11.0842
форм	-11.0843
制	-11.0843
▁SU	-11.0843
▁hö	-11.0844
۶	-11.0844
kort	-11.0845
▁లో	-11.0846
▁пи	-11.0847
러	-11.085
ėjo	-11.0851
▁Kami	-11.0856
▁Mol	-11.0856
yev	-11.0856
ران	-11.0857
ვე	-11.0857
▁ц	-11.0858
▁nun	-11.0859
ժ	-11.0859
▁Қ	-11.0861
tır	-11.0863
▁many	-11.0864
itti	-11.0868
▁termin	-11.0871
ох	-11.0872
▁Thu	-11.0872
mang	-11.0875
्य	-11.0876
пу	-11.0877
▁sob	-11.0878
▁geen	-11.0878
ojo	-11.0878
ното	-11.0881
νε	-11.0881
ίου	-11.0883
▁Milli	-11.0885
llis	-11.0887
▁refer	-11.089
▁strategi	-11.0891
▁skulle	-11.0891
▁Nä	-11.0891
ệ	-11.0893
minen	-11.0893
ది	-11.0896
▁loc	-11.0897
▁whaka	-11.0898
בר	-11.0899
À	-11.0901
pass	-11.0901
fj	-11.0901
▁rem	-11.0908
放	-11.0909
▁kwamba	-11.0909
▁سره	-11.091
тив	-11.0911
▁ак	-11.0911
úc	-11.0912
▁LE	-11.0913
▁लिए	-11.0915
veg	-11.0915
នេះ	-11.0916
级	-11.0916
tec	-11.0918
▁updated	-11.0918
▁kuti	-11.092
ható	-11.0922
ologia	-11.0922
bt	-11.0923
▁ساتھ	-11.0923
гер	-11.0925
▁soci	-11.0927
ាយ	-11.0928
24.	-11.0928
▁Intel	-11.0929
棋牌	-11.093
front	-11.093
లా	-11.093
ီ	-11.0931
▁front	-11.0932
או	-11.0933
▁श	-11.0933
ρό	-11.0934
▁Ras	-11.0935
▁ವಿ	-11.0935
illo	-11.0935
▁aasta	-11.0935
ិ	-11.0937
lun	-11.0937
vej	-11.0938
PP	-11.0945
ძ	-11.0945
▁علی	-11.0946
▁Nag	-11.0947
老	-11.0949
▁Sau	-11.095
recht	-11.0953
▁(10	-11.0953
▁administra	-11.0954
txa	-11.0954
此	-11.0955
৫	-11.0956
▁મા	-11.0958
க்கு	-11.0959
▁Cra	-11.096
▁kwi	-11.0961
atura	-11.0961
DD	-11.0962
당	-11.0963
▁prezent	-11.0964
dad	-11.0966
ונ	-11.0967
▁91	-11.0968
▁Imp	-11.0969
▁Pak	-11.0969
ahi	-11.0969
▁tempat	-11.0969
SV	-11.097
lės	-11.0971
▁kunnen	-11.0973
فا	-11.0974
▁Dol	-11.0974
ное	-11.0976
lje	-11.0979
▁Bru	-11.0982
tho	-11.0982
▁Dy	-11.0983
▁белән	-11.0983
heng	-11.0983
anca	-11.0984
ика	-11.0984
う	-11.0985
▁mwa	-11.0986
▁Telefon	-11.0987
ahkan	-11.0987
▁taas	-11.0987
▁sot	-11.099
mot	-11.099
ີ	-11.099
▁anal	-11.0991
▁familie	-11.0994
其	-11.0994
riko	-11.0995
జ	-11.0997
mesi	-11.0999
ffer	-11.0999
▁fly	-11.0999
מל	-11.1001
▁bosh	-11.1002
OP	-11.1002
کن	-11.1003
gul	-11.1003
utan	-11.1006
▁oh	-11.1006
CG	-11.1006
▁Ly	-11.101
RP	-11.101
▁Total	-11.1011
core	-11.1011
▁78	-11.1011
თა	-11.1013
▁96	-11.1013
▁ख	-11.1015
▁mikro	-11.1016
shwa	-11.1016
▁jih	-11.1017
zil	-11.1017
mbang	-11.1018
▁több	-11.1018
נד	-11.1019
bara	-11.102
▁nå	-11.102
ۍ	-11.1021
▁grand	-11.1022
laki	-11.1024
メ	-11.1024
▁정	-11.1025
ાય	-11.1026
ள	-11.1027
يك	-11.1028
▁Instagram	-11.103
▁онлайн	-11.103
EF	-11.103
▁record	-11.1031
▁Mr	-11.1031
▁hơn	-11.1031
rka	-11.1032
▁след	-11.1032
▁fac	-11.1032
vær	-11.1033
ość	-11.1035
aigh	-11.1036
▁jedno	-11.1038
▁informa	-11.1038
▁ਇਸ	-11.1039
خت	-11.1039
ную	-11.1044
▁CE	-11.1046
TOR	-11.1048
сад	-11.1049
▁style	-11.1051
▁ಈ	-11.1052
▁firm	-11.1054
▁där	-11.1054
ээр	-11.1055
▁momento	-11.1055
стар	-11.1055
ajo	-11.1055
▁futbol	-11.1055
ინ	-11.1056
ઝ	-11.1057
зор	-11.1057
katu	-11.1057
▁polici	-11.1058
▁cấp	-11.1059
kulu	-11.106
999	-11.106
bnb	-11.106
નું	-11.1063
남	-11.1064
lec	-11.1064
▁trường	-11.1064
ਤੇ	-11.1065
▁PER	-11.1069
rz	-11.107
▁ή	-11.107
▁Product	-11.107
ਿਆ	-11.107
▁160	-11.1072
/08/	-11.1073
▁έχει	-11.1073
▁berri	-11.1076
ALA	-11.1076
▁ਕਰ	-11.1077
mada	-11.1077
ambi	-11.1079
əl	-11.108
▁mó	-11.108
ward	-11.1081
డ్	-11.1082
▁2016,	-11.1082
spect	-11.1083
۷	-11.1084
ots	-11.1085
▁Kab	-11.1085
gla	-11.1089
із	-11.1089
öm	-11.1089
zett	-11.1089
tip	-11.109
psi	-11.1093
▁בה	-11.1094
▁fy	-11.1094
▁мал	-11.1095
▁Restaurant	-11.1095
дон	-11.1098
▁Est	-11.1099
ött	-11.11
eux	-11.1103
▁Lang	-11.1104
دم	-11.1104
كر	-11.1105
usia	-11.1105
děl	-11.1106
Μ	-11.1107
▁klient	-11.1107
▁MAR	-11.1107
efni	-11.1108
▁pá	-11.1109
სა	-11.111
▁حال	-11.1113
▁dah	-11.1114
xx	-11.1115
▁ingin	-11.1115
3-	-11.1116
▁gaz	-11.1116
▁фа	-11.1117
▁available	-11.1117
kirin	-11.1118
omis	-11.1118
duk	-11.1118
זה	-11.1119
EI	-11.112
sə	-11.112
gram	-11.1121
alan	-11.1122
▁Pem	-11.1123
RK	-11.1125
▁arasında	-11.1126
ιστ	-11.1129
bos	-11.113
ま	-11.1131
▁Vas	-11.1132
▁sampai	-11.1133
▁која	-11.1135
ற	-11.1138
НА	-11.1138
еп	-11.1139
mh	-11.114
film	-11.1141
LY	-11.1142
▁wame	-11.1144
▁شود	-11.1145
▁jos	-11.1146
▁Cup	-11.1148
▁деп	-11.1149
▁industri	-11.1149
▁83	-11.1149
更	-11.115
ณ	-11.1151
▁lugar	-11.1154
▁durch	-11.1155
▁siku	-11.1156
ေန	-11.1156
මා	-11.1157
▁ស	-11.1157
字	-11.1158
▁وزیر	-11.1158
▁agen	-11.1158
angka	-11.116
τερ	-11.1161
▁(6	-11.1165
▁vos	-11.1165
ssä	-11.1166
▁vasta	-11.1166
▁بو	-11.1166
type	-11.1167
▁olla	-11.1168
sker	-11.1168
▁χ	-11.1169
BR	-11.117
▁93	-11.1171
▁EX	-11.1172
زم	-11.1173
cf	-11.1173
ച്ച	-11.1174
gara	-11.1175
2008	-11.1175
▁tentang	-11.1176
▁ari	-11.1176
ٹی	-11.1177
itatea	-11.118
▁koko	-11.1181
fb	-11.1182
တဲ့	-11.1185
▁tor	-11.1185
લી	-11.1186
▁nhân	-11.1186
Մ	-11.1187
ыс	-11.1187
▁ملک	-11.1188
▁Life	-11.1189
buru	-11.119
!”	-11.119
▁agar	-11.1192
image	-11.1192
▁bang	-11.1193
spir	-11.1193
LV	-11.1194
Δ	-11.1195
বা	-11.1195
рэ	-11.1197
ார்	-11.1197
مة	-11.1197
▁Fil	-11.1198
ој	-11.1199
▁Color	-11.12
▁world	-11.1202
נס	-11.1202
duc	-11.1203
internet	-11.1204
Ë	-11.1206
▁ಸಂ	-11.1207
▁які	-11.1207
▁вид	-11.1207
ții	-11.1207
cap	-11.1209
▁مل	-11.1209
dum	-11.121
/2018	-11.121
▁gw	-11.1211
rama	-11.1213
ities	-11.1214
uva	-11.1216
klar	-11.1216
▁자	-11.1216
▁2017.	-11.1217
cka	-11.1217
▁čo	-11.1219
פת	-11.1219
ларга	-11.122
ZA	-11.122
IX	-11.122
▁add	-11.122
▁hilo	-11.1221
▁đi	-11.1222
act	-11.1224
▁lite	-11.1225
▁mars	-11.1225
▁Ку	-11.1225
▁cop	-11.1225
yw	-11.1226
થ	-11.1226
▁muri	-11.1226
▁hori	-11.1229
▁LI	-11.1231
ografi	-11.1232
▁parë	-11.1233
phi	-11.1234
arak	-11.1234
່	-11.1235
jumu	-11.1236
▁lalu	-11.1241
▁begin	-11.1243
гор	-11.1244
▁сред	-11.1246
▁muito	-11.1247
മാ	-11.1248
1-	-11.1248
iyat	-11.1249
Ad	-11.1249
εύ	-11.1249
mez	-11.1252
jm	-11.1253
ຊ	-11.1253
υρ	-11.1254
grad	-11.1255
▁dol	-11.1256
jun	-11.1256
gger	-11.1257
▁Gan	-11.1259
▁dh	-11.1259
▁пад	-11.126
▁haben	-11.126
▁nella	-11.1262
dang	-11.1265
ilu	-11.1265
▁유	-11.1266
online	-11.1266
cji	-11.1267
▁Ø	-11.1267
▁kombin	-11.1267
▁Hari	-11.1268
zt	-11.1269
▁great	-11.127
▁vind	-11.1271
06.	-11.1272
▁dua	-11.1273
▁Dur	-11.1273
▁League	-11.1274
શે	-11.1275
▁Article	-11.1275
ване	-11.1275
дир	-11.1276
▁these	-11.1276
▁130	-11.1276
010	-11.1276
▁Ле	-11.1277
▁kommun	-11.1278
▁Sale	-11.1278
▁Back	-11.1279
▁руб	-11.1279
ális	-11.1282
▁past	-11.1283
▁mind	-11.1283
We	-11.1284
žo	-11.1284
▁rol	-11.1284
vē	-11.1285
ධ	-11.1288
▁Ν	-11.1289
▁daripada	-11.1289
▁maa	-11.1289
▁мар	-11.1291
وه	-11.1292
tyr	-11.1294
▁Log	-11.1298
▁قبل	-11.1298
▁mul	-11.13
▁لو	-11.13
▁नि	-11.1301
경	-11.1302
idu	-11.1302
nsa	-11.1303
线	-11.1304
נים	-11.1304
▁Gö	-11.1305
df	-11.1306
▁kép	-11.1307
从	-11.1308
▁però	-11.1309
▁çox	-11.131
▁seva	-11.131
rc	-11.1311
-10-	-11.1312
▁Nav	-11.1312
▁erre	-11.1313
▁thi	-11.1313
▁Dam	-11.1313
2007	-11.1314
▁שמ	-11.1314
▁इस	-11.1317
▁uga	-11.1317
logo	-11.1319
пла	-11.132
▁27,	-11.132
▁buy	-11.1321
рі	-11.1322
▁bru	-11.1322
արկ	-11.1323
▁Lä	-11.1324
יצ	-11.1324
ув	-11.1325
▁yol	-11.1326
▁tho	-11.1327
tý	-11.1328
▁101	-11.1328
ിയ	-11.1329
▁mumkin	-11.1329
తా	-11.133
ப்பு	-11.133
ANI	-11.133
IF	-11.1331
drag	-11.1331
baba	-11.1332
ONE	-11.1332
tää	-11.1336
토	-11.1336
RS	-11.1338
/2019	-11.1339
की	-11.134
rant	-11.134
▁Ska	-11.1343
টা	-11.1344
aşı	-11.1346
▁май	-11.1348
▁festival	-11.1349
▁Author	-11.1349
čių	-11.135
▁review	-11.1351
▁ә	-11.1352
lož	-11.1353
ент	-11.1353
▁25,	-11.1353
ై	-11.1354
mart	-11.1354
adii	-11.1355
-08-	-11.1356
ێ	-11.1357
rm	-11.1357
lī	-11.136
▁Eng	-11.1361
▁એક	-11.1361
gay	-11.1361
▁room	-11.1362
eyn	-11.1363
بی	-11.1364
차	-11.1364
▁Sel	-11.1365
త్	-11.1366
న్న	-11.1366
ukan	-11.1366
▁dunia	-11.1367
▁89	-11.1367
▁бір	-11.1367
VA	-11.1369
▁durante	-11.1369
дің	-11.1371
▁vēl	-11.1371
ål	-11.1372
▁cách	-11.1372
•	-11.1374
조	-11.1374
yong	-11.1374
bles	-11.1375
‍	-11.1376
യും	-11.1379
▁presenta	-11.138
▁лв	-11.1387
▁RA	-11.1389
ಕೆ	-11.1389
yên	-11.1389
▁restaurant	-11.139
vät	-11.139
▁రా	-11.139
▁csak	-11.139
àn	-11.139
▁limit	-11.1391
건	-11.1392
rac	-11.1392
▁Pir	-11.1393
EX	-11.1393
ions	-11.1395
▁Mobile	-11.1395
udo	-11.1398
='	-11.1398
空	-11.1398
رت	-11.1398
▁perfect	-11.14
▁cả	-11.1401
ია	-11.1401
char	-11.1401
▁تھا	-11.1402
prav	-11.1403
进	-11.1404
usan	-11.1405
▁NE	-11.1407
▁سكس	-11.1407
rb	-11.1408
λο	-11.1414
gum	-11.1414
ഭ	-11.1419
ງ	-11.1421
pod	-11.1425
▁qilish	-11.1425
မ်ား	-11.1427
jte	-11.1427
əm	-11.1427
ლო	-11.1428
تو	-11.1428
оо	-11.1428
▁ли	-11.1429
нова	-11.1429
▁SH	-11.143
дав	-11.1431
▁duten	-11.1433
▁rak	-11.1433
sies	-11.1434
▁niya	-11.1434
ίν	-11.1435
▁version	-11.1438
lau	-11.1439
▁import	-11.144
zam	-11.1441
▁saa	-11.1441
ነ	-11.1442
▁qil	-11.1442
prop	-11.1444
▁Kota	-11.1445
▁kini	-11.1445
▁Ré	-11.1445
▁pää	-11.1446
▁kry	-11.1446
nus	-11.1447
వా	-11.1447
역	-11.1448
▁Baby	-11.1448
LD	-11.1448
fal	-11.145
▁يوم	-11.145
ез	-11.1452
яз	-11.1453
▁jeho	-11.1455
ති	-11.1456
▁Gy	-11.1457
itos	-11.1458
▁kri	-11.1458
FT	-11.1458
Ј	-11.1458
mate	-11.146
收	-11.1461
▁objekt	-11.1462
וב	-11.1462
SL	-11.1462
resource	-11.1467
lm	-11.1467
▁phải	-11.1469
schaft	-11.147
cept	-11.147
▁Maj	-11.1471
▁aad	-11.1475
ари	-11.1476
дай	-11.1477
รา	-11.1478
tő	-11.1478
یو	-11.1479
tani	-11.148
,“	-11.1481
ಧ	-11.1483
▁kuu	-11.1484
punkt	-11.1484
tere	-11.1484
マ	-11.1485
wiki	-11.1486
куп	-11.1486
בן	-11.1486
чки	-11.1488
จาก	-11.149
тин	-11.1492
uten	-11.1493
▁iar	-11.1494
▁கா	-11.1495
▁hol	-11.1495
▁East	-11.1496
rita	-11.1497
");	-11.1499
▁Sem	-11.15
qq	-11.1501
▁sigur	-11.1502
áil	-11.1502
ρά	-11.1503
cke	-11.1504
▁Roz	-11.1505
field	-11.1506
ಲು	-11.1506
▁profil	-11.1507
▁hab	-11.1507
▁Els	-11.1508
▁agent	-11.1508
PU	-11.1509
160	-11.151
▁Vil	-11.151
bod	-11.1511
▁Brand	-11.1513
▁Form	-11.1516
▁metros	-11.1517
▁হ	-11.1517
思	-11.1517
▁Mga	-11.1518
▁Audi	-11.1518
▁pēc	-11.1519
▁Een	-11.152
▁duhet	-11.1522
color	-11.1522
haus	-11.1523
ứ	-11.1523
球	-11.1524
ế	-11.1524
OB	-11.1531
▁him	-11.1532
▁comunica	-11.1533
sdag	-11.1536
ées	-11.1536
起	-11.1537
ант	-11.1538
VE	-11.1539
лт	-11.1539
kaan	-11.1541
seks	-11.1542
eket	-11.1542
سو	-11.1542
▁Christ	-11.1544
lă	-11.1546
▁પણ	-11.1546
Gu	-11.1546
мов	-11.1547
ENT	-11.155
▁suur	-11.155
▁yaş	-11.1553
ibi	-11.1555
цца	-11.1555
biz	-11.1555
ទៅ	-11.1555
يق	-11.1556
ലി	-11.1556
▁ngo	-11.1556
ουμε	-11.1557
ການ	-11.1557
owej	-11.1558
selected	-11.1558
tav	-11.1558
▁87	-11.1559
07.	-11.1559
nig	-11.1559
▁Door	-11.156
▁dzi	-11.1562
АН	-11.1562
ILI	-11.1563
sang	-11.1563
▁platform	-11.1563
ոս	-11.1563
илган	-11.1564
▁fest	-11.1565
dî	-11.1566
▁Hill	-11.1568
▁wan	-11.1568
▁vụ	-11.1569
eder	-11.157
lder	-11.1571
场	-11.1571
▁State	-11.1571
fek	-11.1571
▁EL	-11.1572
▁Sul	-11.1572
ľa	-11.1573
дов	-11.1574
ពី	-11.1574
▁бр	-11.1579
▁Rec	-11.1579
▁acc	-11.1579
ລ	-11.158
▁sho	-11.1581
▁prezident	-11.1582
ggi	-11.1584
TU	-11.1586
eth	-11.1586
▁ڈ	-11.1586
▁jā	-11.1587
▁पा	-11.1587
်	-11.1587
ič	-11.1587
ינו	-11.1588
אות	-11.1589
зер	-11.159
қы	-11.159
ίσ	-11.1594
дж	-11.1594
क्	-11.1594
▁magaalada	-11.1595
▁gratuit	-11.1596
▁School	-11.1597
یز	-11.1598
کا	-11.1598
ැ	-11.16
ლა	-11.1601
▁cla	-11.1602
▁TR	-11.1606
мы	-11.1607
▁شو	-11.1608
ból	-11.1608
sinin	-11.1609
游戏	-11.1609
עות	-11.1611
▁دست	-11.1612
▁үз	-11.1613
▁ए	-11.1614
▁jir	-11.1616
▁poder	-11.1617
▁lok	-11.1618
стер	-11.1619
സി	-11.1619
ndar	-11.162
▁գործ	-11.1622
▁Xi	-11.1622
▁flu	-11.1623
λη	-11.1623
§	-11.1624
cro	-11.1624
झ	-11.1624
▁egun	-11.1624
ವಾ	-11.1626
招聘	-11.163
送	-11.1631
يه	-11.1632
אל	-11.1634
▁හ	-11.1638
الي	-11.164
ical	-11.164
ування	-11.1641
▁Tas	-11.1641
unun	-11.1643
▁movie	-11.1643
很	-11.1645
pf	-11.1645
▁kis	-11.1646
▁Vest	-11.1649
ible	-11.165
bc	-11.1651
▁ა	-11.1652
wak	-11.1652
から	-11.1652
▁arm	-11.1653
وش	-11.1654
▁kadar	-11.1654
რა	-11.1656
▁Bot	-11.1659
▁proti	-11.1659
үүл	-11.1659
າ	-11.166
▁Meng	-11.1661
рад	-11.1663
▁minn	-11.1663
▁flo	-11.1663
sf	-11.1664
▁kesk	-11.1665
ගේ	-11.1665
merk	-11.1665
ေတြ	-11.1666
רה	-11.1667
▁نظر	-11.1668
▁khu	-11.167
Is	-11.1671
ਖ	-11.1672
▁read	-11.1672
▁due	-11.1673
局	-11.1673
▁size	-11.1677
▁Water	-11.1677
aux	-11.1677
▁बा	-11.1678
ében	-11.1678
教	-11.168
▁Bill	-11.168
▁1.5	-11.1681
▁disk	-11.1681
DM	-11.1681
][	-11.1681
▁Ry	-11.1683
್	-11.1684
syn	-11.1684
▁Ty	-11.1685
azio	-11.1688
▁Mul	-11.1689
▁kazi	-11.1691
');	-11.1692
lect	-11.1693
▁rend	-11.1693
▁Би	-11.1693
▁waxay	-11.1693
ನಿ	-11.1693
▁thời	-11.1696
իս	-11.1696
kta	-11.1696
240	-11.1698
▁ча	-11.1698
кол	-11.1699
▁sina	-11.17
▁Original	-11.17
▁გ	-11.1701
▁pamoja	-11.1703
DR	-11.1708
▁Ef	-11.1708
ppel	-11.1709
roll	-11.171
іл	-11.1711
ciu	-11.1711
▁Tech	-11.1712
▁Tab	-11.1713
iset	-11.1713
▁pet	-11.1713
▁edib	-11.1715
▁produ	-11.1715
客	-11.1716
▁jul	-11.1718
ио	-11.1718
niu	-11.172
▁rest	-11.172
igt	-11.1724
imento	-11.1724
عرض	-11.1725
▁ՀՀ	-11.1726
▁jää	-11.1727
▁toimi	-11.1727
▁mene	-11.1728
▁제	-11.1728
▁Plat	-11.1729
mwe	-11.1731
▁duen	-11.1731
ደ	-11.1731
рын	-11.1733
etik	-11.1735
▁Angel	-11.1736
ු	-11.1737
▁hang	-11.174
tür	-11.1743
şə	-11.1743
ossa	-11.1743
ရာ	-11.1744
/04/	-11.1744
▁cele	-11.1746
▁ден	-11.1747
▁før	-11.1747
яв	-11.1749
▁qab	-11.1751
জি	-11.1752
ạn	-11.1753
லி	-11.1754
cont	-11.1755
▁sed	-11.1756
▁آر	-11.1757
04.	-11.1757
▁artikel	-11.1758
무	-11.1758
toria	-11.1761
▁Royal	-11.1764
▁wala	-11.1765
each	-11.1765
▁öz	-11.1765
жо	-11.1766
▁oso	-11.1767
▁Pada	-11.1767
▁kü	-11.1768
pena	-11.1772
▁power	-11.1772
[1]	-11.1773
打	-11.1774
ثر	-11.1776
▁הס	-11.1776
▁cette	-11.1776
▁folk	-11.1777
▁comme	-11.1777
▁및	-11.1779
tuko	-11.178
▁punt	-11.178
Ga	-11.178
▁ан	-11.1781
Ե	-11.1781
总	-11.1781
福	-11.1781
යේ	-11.1781
Pi	-11.1782
▁hivyo	-11.1782
hou	-11.1782
шу	-11.1783
yor	-11.1785
tsi	-11.1787
ذا	-11.1789
▁same	-11.1789
▁tant	-11.1792
▁гар	-11.1792
▁Lietuvos	-11.1793
quot	-11.1795
NET	-11.1797
▁Mkuu	-11.1798
▁menge	-11.1799
▁||	-11.1799
lığı	-11.1799
داری	-11.1801
rako	-11.1801
ues	-11.1802
▁رس	-11.1802
▁XL	-11.1803
ō	-11.1803
5.00	-11.1805
▁tsy	-11.1806
▁হয়েছে	-11.1806
▁Кар	-11.1807
yg	-11.1808
▁call	-11.1808
服务	-11.181
▁Dengan	-11.1811
▁جدید	-11.1811
▁simple	-11.1811
mena	-11.1811
isin	-11.1812
INI	-11.1814
▁Од	-11.1814
▁prote	-11.1815
▁fait	-11.1816
mien	-11.1817
čio	-11.1818
▁kontra	-11.1819
quer	-11.1819
▁Dun	-11.1819
ロ	-11.182
ؤ	-11.1821
▁Rose	-11.1821
љ	-11.1822
jóð	-11.1822
▁esi	-11.1822
▁Id	-11.1823
▁бас	-11.1824
▁હ	-11.1825
čni	-11.1826
play	-11.1827
бат	-11.1828
▁még	-11.1828
well	-11.1828
123	-11.183
▁paling	-11.183
ceb	-11.183
▁tipo	-11.1831
▁area	-11.1831
▁organ	-11.1833
▁오	-11.1833
ūr	-11.1834
▁mel	-11.1834
▁lát	-11.1834
дел	-11.1835
▁Fr	-11.1835
ец	-11.1836
лад	-11.1836
▁run	-11.1838
Й	-11.1838
▁questo	-11.1839
风	-11.1839
▁Manager	-11.1841
endi	-11.1841
qué	-11.1843
▁savu	-11.1843
▁עו	-11.1845
立	-11.1845
▁svoje	-11.1845
神	-11.1847
zwe	-11.1848
▁yu	-11.1848
wana	-11.1848
▁lượng	-11.1849
ется	-11.185
▁gibi	-11.1852
▁bot	-11.1854
▁FA	-11.1855
003	-11.1859
فت	-11.1859
や	-11.1861
▁company	-11.1862
▁ਚ	-11.1862
յանը	-11.1863
FI	-11.1864
ණ	-11.1865
jor	-11.1866
して	-11.1866
יך	-11.1868
رہ	-11.1869
Ω	-11.187
▁thì	-11.1871
সি	-11.1872
mbra	-11.1873
▁raha	-11.1875
指	-11.1875
ခ	-11.1876
▁hasta	-11.1876
olla	-11.1876
zza	-11.1877
▁Ди	-11.1877
kond	-11.1879
ashi	-11.1879
ડી	-11.188
受	-11.1882
нос	-11.1882
德	-11.1882
▁καλ	-11.1885
▁تع	-11.1886
ตัว	-11.1891
வு	-11.1891
▁''	-11.1893
ț	-11.1896
kę	-11.1896
kaj	-11.1896
2°	-11.1897
▁sehingga	-11.1898
rist	-11.1899
cell	-11.19
▁Good	-11.1904
터	-11.1904
▁года	-11.1904
▁exp	-11.1905
uoja	-11.1907
ارة	-11.1907
кой	-11.1908
વી	-11.1908
ENG	-11.1908
▁který	-11.1909
ister	-11.1911
DB	-11.1912
vest	-11.1912
segu	-11.1913
▁aug	-11.1917
▁mille	-11.1917
ং	-11.1918
▁***	-11.1918
▁bri	-11.1919
ngkap	-11.1919
halt	-11.192
lung	-11.1922
▁rece	-11.1923
ינ	-11.1923
rát	-11.1924
mø	-11.1925
XL	-11.1927
ադր	-11.1927
мин	-11.1927
Lu	-11.1928
ações	-11.193
▁blo	-11.1931
tais	-11.1932
lere	-11.1932
▁noi	-11.1932
ông	-11.1932
false	-11.1933
ța	-11.1933
ছে	-11.1934
▁darb	-11.1934
▁kila	-11.1934
ወ	-11.1935
/2017	-11.1935
▁must	-11.1935
ಯಲ್ಲಿ	-11.1935
мал	-11.1935
▁allt	-11.1935
▁গ	-11.1936
▁Ala	-11.1937
▁წ	-11.1937
▁Pot	-11.1937
▁CR	-11.1937
▁sekä	-11.1938
જી	-11.1939
▁verður	-11.1941
▁کن	-11.1941
▁professional	-11.1942
真	-11.1943
▁ත	-11.1943
ils	-11.1943
ცი	-11.1944
קו	-11.1946
▁divers	-11.1946
▁AP	-11.1946
실	-11.1948
オ	-11.1948
liche	-11.195
चा	-11.195
▁Jar	-11.1951
ță	-11.1954
▁Amerika	-11.1954
▁kimi	-11.1954
ๆ	-11.1957
gge	-11.1957
ლე	-11.1959
▁interna	-11.196
inho	-11.1961
▁bahwa	-11.1961
▁Classic	-11.1962
шир	-11.1962
ány	-11.1962
Go	-11.1964
▁Komp	-11.1966
တာ	-11.1966
▁major	-11.1966
bé	-11.1967
▁micro	-11.1969
ester	-11.1971
AV	-11.1971
▁Tim	-11.1972
▁kiel	-11.1973
کل	-11.1973
şe	-11.1975
時	-11.1978
▁spec	-11.1979
ény	-11.1981
nici	-11.1981
ណ	-11.1982
▁hotell	-11.1982
ジ	-11.1983
ям	-11.1984
▁էր	-11.1984
וש	-11.1986
配	-11.1986
常	-11.1986
▁Amazon	-11.1987
யா	-11.1989
▁Sara	-11.1989
સ્	-11.1991
▁ග	-11.1992
▁cs	-11.1993
▁köz	-11.1993
σης	-11.1995
രാ	-11.1995
▁adapt	-11.1995
▁دیا	-11.1996
szy	-11.1996
ektor	-11.1996
hia	-11.1997
王	-11.1999
并	-11.2
▁distribu	-11.2001
했다	-11.2001
rė	-11.2001
ovanie	-11.2001
け	-11.2002
▁jetë	-11.2002
стр	-11.2002
item	-11.2003
▁tyre	-11.2005
ราคา	-11.2008
▁Dalam	-11.2009
▁Jean	-11.2009
២	-11.2011
▁MS	-11.2012
▁stand	-11.2013
maha	-11.2013
mobil	-11.2013
৬	-11.2016
್ಯಾ	-11.202
shëm	-11.202
images	-11.2021
▁ін	-11.2022
▁định	-11.2023
130	-11.2024
▁regi	-11.2024
מים	-11.2025
PN	-11.2026
▁(7	-11.2027
▁Ла	-11.2027
ать	-11.2028
▁nchi	-11.2028
共	-11.2029
annya	-11.203
▁memang	-11.203
白	-11.203
جل	-11.203
▁suo	-11.2031
hora	-11.2031
▁massage	-11.2031
ಶ	-11.2032
▁Nur	-11.2032
γκ	-11.2033
▁وأ	-11.2033
zek	-11.2035
▁Hall	-11.2038
prov	-11.2038
▁Wie	-11.2038
▁сайт	-11.2041
cze	-11.2041
▁organis	-11.2043
hez	-11.2043
ιών	-11.2044
▁све	-11.2044
▁94	-11.2044
运	-11.2045
zki	-11.2045
▁software	-11.2045
nza	-11.2045
5°	-11.2046
৪	-11.2047
็	-11.2048
▁ඉ	-11.2048
zzo	-11.2049
ZI	-11.205
fy	-11.2051
▁check	-11.2052
▁mode	-11.2053
▁klik	-11.2053
▁Pes	-11.2053
▁pool	-11.2054
▁baina	-11.2054
▁caso	-11.2057
chten	-11.2057
ама	-11.2057
▁Դ	-11.2057
ларни	-11.2058
ident	-11.2058
至	-11.2059
пр	-11.2059
ujú	-11.2062
▁කර	-11.2064
kārt	-11.2065
▁Marc	-11.2066
තු	-11.2066
ൈ	-11.2067
▁Boy	-11.2068
▁狗万	-11.2068
iyê	-11.2068
▁Arti	-11.2068
▁Photo	-11.2069
ené	-11.207
▁despre	-11.207
дол	-11.2071
уш	-11.2072
展	-11.2073
▁osob	-11.2074
▁menu	-11.2076
He	-11.2077
コ	-11.2077
మి	-11.2081
头	-11.2082
って	-11.2082
▁should	-11.2083
▁кан	-11.2083
▁Kata	-11.2084
ดู	-11.2084
▁try	-11.2084
▁vide	-11.2084
▁Ind	-11.2085
aŭ	-11.2087
[/	-11.2088
ère	-11.2088
▁radio	-11.2089
▁às	-11.209
ók	-11.2091
ology	-11.2091
▁جي	-11.2091
rado	-11.2092
rung	-11.2093
▁Tagged	-11.2094
شت	-11.2094
owo	-11.2095
▁اخ	-11.2096
פס	-11.2097
িত	-11.2097
Ku	-11.2099
mmel	-11.21
▁မ	-11.21
۱	-11.2103
▁old	-11.2104
lage	-11.2105
▁pass	-11.2105
ales	-11.2105
▁SM	-11.2106
UB	-11.2106
▁mark	-11.2108
▁metro	-11.2111
▁సినిమా	-11.2112
▁Map	-11.2115
▁Cri	-11.2116
▁Sports	-11.2116
▁vita	-11.2116
եմ	-11.2117
▁logo	-11.2117
گی	-11.2118
▁offer	-11.2118
ाइ	-11.2118
esse	-11.2119
OD	-11.2119
▁ست	-11.212
フ	-11.212
ключ	-11.212
DV	-11.212
ель	-11.212
ッ	-11.212
dara	-11.2121
atti	-11.2122
jah	-11.2122
▁juni	-11.2123
volu	-11.2125
▁Franc	-11.2125
发展	-11.2128
▁Hai	-11.2128
lok	-11.2129
▁rob	-11.2131
一个	-11.2131
▁cos	-11.2131
կան	-11.2131
ճ	-11.2131
ļa	-11.2131
fant	-11.2132
▁кара	-11.2133
ਕਾ	-11.2135
isu	-11.2136
▁kwe	-11.2137
▁upang	-11.2137
ځ	-11.2137
dora	-11.2138
▁mens	-11.2138
▁kuna	-11.2139
▁gå	-11.2139
റി	-11.2139
כנ	-11.2139
рен	-11.214
ٹر	-11.2141
Қ	-11.2142
▁vad	-11.2143
▁recept	-11.2144
▁lähe	-11.2146
curi	-11.2147
▁Eu	-11.2148
▁банк	-11.2148
հ	-11.215
▁گو	-11.2151
jus	-11.2153
lands	-11.2154
▁mål	-11.2155
unto	-11.2157
140	-11.2157
sión	-11.2158
tasuna	-11.2159
/09/	-11.216
ළ	-11.2161
sht	-11.2161
gov	-11.2163
党	-11.2163
ተ	-11.2164
▁Pour	-11.2164
yla	-11.2165
▁Artikel	-11.2165
lær	-11.2166
007	-11.2166
كي	-11.2167
▁yıl	-11.2169
▁Dag	-11.2171
eret	-11.2171
▁led	-11.2171
▁vei	-11.2173
포	-11.2173
▁gest	-11.2173
لم	-11.2176
▁hjá	-11.2177
▁pon	-11.2177
▁suas	-11.2178
؛	-11.218
▁Voor	-11.2181
▁Pala	-11.2182
▁Լ	-11.2185
wala	-11.2185
考	-11.2186
▁leis	-11.2186
气	-11.2186
kord	-11.2186
رز	-11.2188
izza	-11.2188
▁Song	-11.2188
▁bersama	-11.2189
분	-11.2189
cun	-11.2189
▁Opera	-11.219
▁AT	-11.219
эт	-11.2191
יע	-11.2192
▁Ө	-11.2194
wl	-11.2194
380	-11.2194
▁ڈی	-11.2196
dun	-11.2197
▁Travel	-11.2197
▁setiap	-11.2198
▁Tie	-11.2201
▁কা	-11.2201
▁kost	-11.2202
▁ĝi	-11.2202
▁مطابق	-11.2202
bund	-11.2203
▁מא	-11.2203
મા	-11.2204
▁Mala	-11.2204
RAN	-11.2204
▁بين	-11.2209
Ex	-11.2209
▁като	-11.2211
նդ	-11.2214
▁жыл	-11.2215
master	-11.2215
站	-11.2216
▁آپ	-11.2216
مار	-11.2218
afa	-11.2218
▁Line	-11.2219
rag	-11.2221
কা	-11.2224
ont	-11.2226
▁дә	-11.2227
▁Seg	-11.2227
▁ই	-11.2227
▁три	-11.2227
ић	-11.2228
गा	-11.2231
▁MU	-11.2232
▁Λ	-11.2234
▁ని	-11.2235
▁club	-11.2236
tasun	-11.2237
▁cen	-11.2239
יט	-11.2239
▁ina	-11.224
OV	-11.2241
IAN	-11.2242
▁Ros	-11.2243
▁rek	-11.2243
▁ant	-11.2243
into	-11.2246
ド	-11.2246
bere	-11.2247
▁điều	-11.2248
▁баш	-11.225
▁white	-11.2252
ન્	-11.2252
pang	-11.2252
▁எ	-11.2253
▁tiu	-11.2255
▁hali	-11.2255
▁Það	-11.2256
cional	-11.2256
дық	-11.2256
کھ	-11.2257
▁kura	-11.2257
▁temp	-11.2258
▁יו	-11.2259
▁niin	-11.2259
head	-11.2259
เก	-11.2263
kład	-11.2263
▁учун	-11.2263
▁pasa	-11.2263
opp	-11.2263
רת	-11.2264
చ	-11.2266
ீ	-11.2267
▁тра	-11.2267
gerð	-11.2268
▁nên	-11.227
▁הנ	-11.227
周	-11.227
▁Nan	-11.227
HS	-11.2271
ısı	-11.2271
▁لئے	-11.2271
gawa	-11.2271
▁rất	-11.2272
▁edir	-11.2272
imba	-11.2272
▁năng	-11.2273
264	-11.2273
ண	-11.2274
cd	-11.2274
▁каб	-11.2275
如	-11.2276
σα	-11.2277
leh	-11.2277
格	-11.2278
Ê	-11.2278
▁ас	-11.2278
▁maha	-11.228
▁pow	-11.228
▁१	-11.228
▁hata	-11.2281
▁huu	-11.2282
ּ	-11.2282
▁проект	-11.2284
klu	-11.2284
▁light	-11.2285
یان	-11.2286
డు	-11.2286
tk	-11.2287
▁Card	-11.2288
▁empresa	-11.2289
On	-11.2289
got	-11.2289
ప్	-11.229
▁Leg	-11.2291
esha	-11.2291
lind	-11.2292
▁celebra	-11.2292
▁global	-11.2293
OC	-11.2294
wart	-11.2295
koop	-11.2296
ায়	-11.2298
ೊ	-11.2298
NC	-11.2299
▁forum	-11.2301
▁database	-11.2301
▁date	-11.2301
▁Tun	-11.2301
kter	-11.2306
▁valg	-11.2307
ួ	-11.2307
σαν	-11.2307
▁exist	-11.2307
▁શ	-11.2309
▁sila	-11.2311
▁fem	-11.2312
ewe	-11.2312
▁GR	-11.2314
/11/	-11.2315
מות	-11.2315
%)	-11.2316
شن	-11.2316
ēr	-11.2318
zh	-11.2318
▁hän	-11.2318
פר	-11.2318
ани	-11.2319
▁dago	-11.232
lou	-11.2321
צי	-11.2321
شر	-11.2321
manda	-11.2322
larning	-11.2323
▁Жа	-11.2323
issä	-11.2324
▁խ	-11.2325
સ્ટ	-11.2325
vara	-11.2325
gut	-11.2325
ív	-11.2325
bau	-11.2325
▁rent	-11.2327
જા	-11.2328
ċ	-11.2329
▁απ	-11.233
nz	-11.233
▁Was	-11.2332
▁Get	-11.2332
▁Store	-11.2332
aine	-11.2333
lop	-11.2333
▁comentari	-11.2338
▁ком	-11.234
ick	-11.2341
vio	-11.2341
▁fill	-11.2342
iški	-11.2342
▁Pred	-11.2343
▁cro	-11.2344
gång	-11.2346
▁waktu	-11.2347
න්න	-11.2348
▁uno	-11.2348
ajā	-11.2349
Or	-11.235
▁cru	-11.2351
▁zap	-11.2351
лив	-11.2351
фі	-11.2352
tól	-11.2354
▁rezerv	-11.2355
drž	-11.2355
кә	-11.2355
VR	-11.2355
1°	-11.2355
▁BMW	-11.2357
uze	-11.2357
амі	-11.236
adó	-11.236
▁mos	-11.236
Ā	-11.2362
tahan	-11.2362
RD	-11.2364
čne	-11.2365
YO	-11.2366
क्ष	-11.2366
▁photo	-11.2367
▁sent	-11.2368
▁xuất	-11.237
▁گفت	-11.237
yat	-11.237
▁اب	-11.237
▁Dra	-11.2372
mol	-11.2373
▁ajo	-11.2373
▁прав	-11.2373
hehe	-11.2374
ţii	-11.2374
ôn	-11.2374
▁сам	-11.2375
enne	-11.2377
精	-11.2377
▁Vir	-11.2377
avad	-11.2378
рет	-11.2378
안	-11.2379
glia	-11.2379
jek	-11.2379
▁ર	-11.2379
opa	-11.2379
▁bygg	-11.238
ախ	-11.2381
▁Sky	-11.2381
▁Kop	-11.2381
7°	-11.2381
▁ligger	-11.2383
▁Work	-11.2383
▁olma	-11.2384
装	-11.2384
rás	-11.2385
οί	-11.2385
RR	-11.2386
won	-11.2386
mk	-11.2386
▁prop	-11.2387
rug	-11.2389
▁Site	-11.2389
رج	-11.2391
max	-11.2392
▁చ	-11.2394
null	-11.2395
▁Mos	-11.2398
▁utiliza	-11.2398
law	-11.2399
tē	-11.2399
hanga	-11.24
sida	-11.24
كم	-11.24
▁Türkiye	-11.2401
▁Kita	-11.2401
dü	-11.2401
▁сп	-11.2403
▁siden	-11.2404
وع	-11.2404
bij	-11.2405
▁Movie	-11.2405
ière	-11.2406
lið	-11.2407
▁]	-11.2407
▁können	-11.2408
▁гу	-11.2408
▁2020,	-11.2412
▁arte	-11.2414
طب	-11.2414
▁kle	-11.2415
▁קו	-11.2415
▁mua	-11.2416
防	-11.2416
úr	-11.2416
▁kerja	-11.2417
laş	-11.2418
▁რომ	-11.2418
방	-11.2419
зв	-11.242
jör	-11.2421
AQ	-11.2422
シ	-11.2423
형	-11.2423
▁Eg	-11.2424
نج	-11.2425
▁judi	-11.2425
▁radi	-11.2425
reich	-11.2426
院	-11.2428
144	-11.2428
▁Pay	-11.2428
ηση	-11.2429
▁pap	-11.2429
▁ប	-11.243
בע	-11.2431
科	-11.2431
iamo	-11.2433
IV	-11.2433
kry	-11.2434
ări	-11.2434
וני	-11.2436
য়ে	-11.2437
▁bodo	-11.2437
કા	-11.2437
▁0.1	-11.2438
גו	-11.2438
▁هر	-11.2439
み	-11.244
▁Ро	-11.2441
αι	-11.2443
-21	-11.2445
▁cui	-11.2445
▁mama	-11.2448
รับ	-11.2448
▁Premium	-11.2449
▁(+	-11.2449
లే	-11.245
▁viol	-11.245
noma	-11.245
エ	-11.2451
isë	-11.2451
җ	-11.2454
整	-11.2454
▁anima	-11.2454
▁viet	-11.2454
سل	-11.2455
▁abi	-11.2456
lā	-11.2457
▁비	-11.2458
▁900	-11.2458
ភាព	-11.246
▁music	-11.2461
▁Muqdisho	-11.2462
FC	-11.2463
పై	-11.2464
IB	-11.2467
▁Ե	-11.2467
▁match	-11.2467
▁deve	-11.2468
新闻网	-11.2468
▁TripAdvisor	-11.247
šti	-11.2471
ურ	-11.2471
šanu	-11.2472
▁Stu	-11.2475
ڪ	-11.2475
▁tê	-11.2475
▁mba	-11.2476
▁قرار	-11.2476
Qu	-11.2477
σκ	-11.2478
ання	-11.2478
ும்	-11.2479
▁360	-11.2479
LAR	-11.248
▁hä	-11.2481
▁나	-11.2481
▁finde	-11.2482
▁Nach	-11.2483
▁צו	-11.2483
ões	-11.2485
▁орган	-11.2485
▁Pass	-11.2485
▁første	-11.2485
▁hus	-11.2487
ուս	-11.2488
тә	-11.2489
او	-11.2491
▁Box	-11.2491
rog	-11.2491
▁중	-11.2491
dw	-11.2491
ŝ	-11.2491
tana	-11.2493
indu	-11.2494
310	-11.2498
▁જે	-11.2498
cade	-11.2499
少	-11.2499
▁UN	-11.25
▁AND	-11.2503
▁Kosovës	-11.2508
læ	-11.251
▁Nik	-11.2511
▁institu	-11.2511
جه	-11.2512
rien	-11.2512
▁Pos	-11.2514
▁spi	-11.2515
вал	-11.2517
▁permet	-11.2518
loj	-11.2519
ết	-11.2519
გი	-11.252
▁mart	-11.252
▁иш	-11.2521
रि	-11.2521
▁FI	-11.2521
тары	-11.2522
▁život	-11.2523
iston	-11.2523
ονται	-11.2525
evi	-11.2526
▁services	-11.2527
▁Global	-11.2527
▁(7)	-11.2527
▁tuli	-11.2528
▁бай	-11.2531
타	-11.2531
▁menye	-11.2531
adores	-11.2532
δε	-11.2532
205	-11.2532
▁viên	-11.2532
tiga	-11.2533
▁são	-11.2533
▁minu	-11.2534
нын	-11.2534
LP	-11.2536
▁Ele	-11.2537
交	-11.2539
alia	-11.2539
▁Maar	-11.2539
▁hit	-11.2539
▁meget	-11.2539
որդ	-11.254
యా	-11.254
phone	-11.254
ʼ	-11.254
▁também	-11.2542
▁importante	-11.2542
▁чи	-11.2543
ilt	-11.2543
▁היא	-11.2544
▁kunne	-11.2544
shk	-11.2545
▁bija	-11.2545
ег	-11.2551
▁Су	-11.2551
▁Chat	-11.2551
лын	-11.2552
▁search	-11.2552
▁Kui	-11.2552
▁edil	-11.2553
▁central	-11.2553
星	-11.2555
▁بود	-11.2555
력	-11.2555
бод	-11.2555
▁tad	-11.2555
▁ಎಂದು	-11.2555
▁ಮಾಡ	-11.2556
▁thế	-11.2557
▁uso	-11.2558
▁2016.	-11.2558
ارت	-11.2558
▁Shar	-11.2558
არ	-11.2559
تب	-11.256
▁ishte	-11.2561
▁độ	-11.2562
של	-11.2563
ration	-11.2564
▁centre	-11.2564
mari	-11.2565
ణ	-11.2567
▁бел	-11.2568
▁liber	-11.2568
▁Juni	-11.2568
▁where	-11.2569
ATT	-11.257
▁kuji	-11.2571
weg	-11.2571
유	-11.2572
xan	-11.2573
▁onze	-11.2574
town	-11.2575
▁гэта	-11.2577
▁Kri	-11.2577
ಸಿ	-11.2578
larında	-11.2578
mn	-11.2578
▁ਤੋਂ	-11.2579
bona	-11.2579
кот	-11.2581
клад	-11.2582
▁nya	-11.2582
ψ	-11.2583
lú	-11.2584
خر	-11.2588
▁hard	-11.2588
ური	-11.2588
ALL	-11.2589
▁¿	-11.2589
mend	-11.259
▁olduğu	-11.2591
▁Golf	-11.2591
cak	-11.2592
kommen	-11.2592
9.00	-11.2595
rø	-11.2596
ॉ	-11.2596
▁chúng	-11.2596
інде	-11.26
hli	-11.2601
▁thực	-11.2602
buka	-11.2603
▁тан	-11.2604
▁reklam	-11.2606
code	-11.2606
▁fall	-11.2608
▁Mara	-11.2608
▁aplica	-11.261
▁ਲਈ	-11.261
NN	-11.2612
tien	-11.2612
elu	-11.2612
eign	-11.2612
▁KB	-11.2612
▁Mae	-11.2612
165	-11.2613
cus	-11.2613
▁tinggi	-11.2613
▁consum	-11.2613
ອ	-11.2613
▁Sti	-11.2615
idas	-11.2616
tant	-11.2617
▁Apa	-11.2618
▁proses	-11.2619
lý	-11.2619
рма	-11.262
▁prepara	-11.262
biy	-11.262
▁vra	-11.2621
इ	-11.2621
▁Search	-11.2622
ıyor	-11.2623
超	-11.2625
TTT	-11.2625
фе	-11.2626
cido	-11.2626
ДА	-11.2627
▁kuin	-11.2628
▁այն	-11.2629
▁tend	-11.2631
▁wata	-11.2632
FR	-11.2633
▁lé	-11.2635
▁Кон	-11.2637
raad	-11.2637
શ	-11.264
script	-11.2641
±	-11.2642
▁nám	-11.2642
▁seorang	-11.2643
elles	-11.2645
▁Mill	-11.2646
▁Fal	-11.2647
тов	-11.2648
род	-11.2648
și	-11.2648
目	-11.2649
ән	-11.2649
üt	-11.265
λά	-11.265
▁tablet	-11.2651
▁bağlı	-11.2652
ög	-11.2652
bai	-11.2653
▁mendapatkan	-11.2654
yak	-11.2655
▁Rak	-11.2655
dong	-11.2655
mag	-11.2656
▁typ	-11.2657
▁điện	-11.2658
▁జ	-11.266
гра	-11.2662
▁Job	-11.2663
under	-11.2665
▁Bah	-11.2667
lent	-11.2667
მი	-11.2669
▁kvalit	-11.2669
သူ	-11.2672
▁31.	-11.2672
▁vu	-11.2672
stor	-11.2673
▁700	-11.2676
ํา	-11.2676
▁AB	-11.2677
ddy	-11.2677
യുടെ	-11.2678
1.1	-11.2678
כה	-11.2678
алар	-11.2678
రీ	-11.268
िया	-11.268
▁হয়	-11.268
▁કરી	-11.2681
▁turi	-11.2681
천	-11.2681
▁trình	-11.2681
ulis	-11.2683
▁ĉi	-11.2684
mica	-11.2685
▁kunt	-11.2685
abu	-11.2686
hong	-11.2686
▁Roll	-11.2686
▁HO	-11.2688
▁Via	-11.2688
ቀ	-11.2689
▁hati	-11.2689
vern	-11.2691
▁ભ	-11.2692
▁dro	-11.2692
▁ਤੇ	-11.2692
▁২	-11.2693
▁TA	-11.2693
▁Str	-11.2694
乐	-11.2695
▁ži	-11.2695
ፍ	-11.2697
▁0.00	-11.2697
▁Micro	-11.27
يو	-11.27
▁memberikan	-11.27
▁לש	-11.27
దా	-11.2702
▁mudah	-11.2706
▁zuten	-11.2706
ಾಗ	-11.2707
▁tour	-11.2709
GP	-11.2709
▁(8	-11.271
mény	-11.271
svar	-11.2711
디	-11.2713
DL	-11.2715
▁Uhr	-11.2715
▁còn	-11.2715
bach	-11.2716
▁Rom	-11.2717
ních	-11.2719
▁Gun	-11.2719
өг	-11.272
ًا	-11.272
▁۲	-11.2721
▁هذا	-11.2721
▁Express	-11.2723
▁вер	-11.2724
čky	-11.2725
▁փ	-11.2727
▁iyi	-11.2728
▁الذي	-11.273
acak	-11.2731
▁hvis	-11.2731
த்	-11.2734
▁head	-11.2735
ева	-11.2735
サ	-11.2736
cik	-11.2736
연	-11.2737
key	-11.2737
▁tej	-11.2737
▁THE	-11.2739
▁familia	-11.274
▁kaya	-11.2742
ubi	-11.2743
▁tradi	-11.2744
▁128	-11.2744
양	-11.2744
▁اليوم	-11.2744
▁prefer	-11.2745
hrad	-11.2746
▁Garden	-11.2747
▁marketing	-11.2748
ံ	-11.2748
MG	-11.2749
dlo	-11.275
larına	-11.2753
清	-11.2753
hm	-11.2753
takse	-11.2753
EU	-11.2753
▁visit	-11.2754
▁הח	-11.2755
ines	-11.2756
▁guzti	-11.2756
▁منذ	-11.2758
Pri	-11.2759
▁mac	-11.276
ائل	-11.276
عا	-11.276
▁profesional	-11.276
▁chất	-11.2761
rige	-11.2762
тап	-11.2763
ઈ	-11.2763
jë	-11.2763
▁два	-11.2765
္	-11.2766
ছ	-11.2768
ニ	-11.2768
▁Fle	-11.2768
▁Let	-11.2769
▁пот	-11.2769
show	-11.2769
дзі	-11.2771
ুল	-11.2771
दी	-11.2771
▁metal	-11.2772
▁defini	-11.2773
▁did	-11.2773
LL	-11.2773
▁metod	-11.2774
екс	-11.2775
ిన	-11.2775
社	-11.2776
maya	-11.2777
pé	-11.2777
lín	-11.2778
▁بم	-11.2779
nj	-11.2783
▁Oktober	-11.2784
▁vairāk	-11.2784
▁prav	-11.2786
▁esa	-11.2786
▁pem	-11.2786
bei	-11.2787
▁kerana	-11.2787
isce	-11.2787
▁estat	-11.2787
OU	-11.2788
▁הי	-11.2789
តែ	-11.2789
▁არ	-11.2789
বে	-11.279
rgan	-11.279
action	-11.2791
强	-11.2792
ത്തി	-11.2792
▁bord	-11.2792
▁ఎ	-11.2792
420	-11.2792
ალ	-11.2792
AMA	-11.2793
ετ	-11.2793
zij	-11.2793
ագր	-11.2793
▁side	-11.2794
▁ingen	-11.2797
وط	-11.2797
KR	-11.2797
▁també	-11.2798
ګ	-11.2799
ект	-11.2799
选	-11.28
tegi	-11.28
▁있다	-11.2801
wali	-11.2801
▁2020.	-11.2801
ád	-11.2802
ყ	-11.2804
kro	-11.2805
sana	-11.2805
ģ	-11.2805
FS	-11.2806
iš	-11.2807
3⁄4	-11.2808
tique	-11.2809
уваат	-11.281
▁Merc	-11.281
øy	-11.2811
▁ret	-11.2812
xin	-11.2813
bord	-11.2813
wit	-11.2814
▁view	-11.2815
aggio	-11.2815
BU	-11.2815
▁Jawa	-11.2816
▁egiten	-11.2817
▁pom	-11.2817
▁^	-11.2817
sında	-11.2818
Pe	-11.2819
zul	-11.2819
▁máis	-11.2819
oir	-11.282
ināt	-11.2822
anno	-11.2826
Ru	-11.2826
▁dapit	-11.2826
airgeadra	-11.2829
וו	-11.2829
▁ring	-11.2829
▁sö	-11.283
chat	-11.283
öd	-11.2831
777	-11.2833
unni	-11.2833
ijn	-11.2834
▁Haus	-11.2834
▁cùng	-11.2834
mbro	-11.2834
▁pran	-11.2835
μά	-11.2835
产	-11.2835
атор	-11.2838
经	-11.2839
тон	-11.2839
▁pana	-11.284
▁350	-11.284
mista	-11.2841
ņu	-11.2841
رام	-11.2843
ధ	-11.2844
▁still	-11.2844
▁ਪ੍ਰ	-11.2845
chung	-11.2846
keskus	-11.2847
μο	-11.2847
▁নি	-11.2847
▁mesmo	-11.2848
▁include	-11.285
▁Вы	-11.2852
▁lakini	-11.2852
ствен	-11.2852
भ	-11.2854
▁SI	-11.2855
▁2.5	-11.2856
▁moto	-11.2856
▁virus	-11.2856
▁Pel	-11.2856
▁trang	-11.2857
▁এই	-11.2858
▁الد	-11.2858
աք	-11.2859
▁Ultra	-11.2859
▁Rama	-11.2859
▁AN	-11.2859
acji	-11.286
maks	-11.2861
▁FOR	-11.2862
rana	-11.2863
mali	-11.2863
▁rasa	-11.2863
▁será	-11.2864
北京	-11.2864
▁оп	-11.2865
▁alisema	-11.2865
▁Head	-11.2866
166	-11.2866
год	-11.2866
spel	-11.2867
6°	-11.2867
▁жол	-11.2867
ာ	-11.2868
▁Spi	-11.2869
lərinin	-11.2873
tė	-11.2873
цион	-11.2874
LC	-11.2874
ჩ	-11.2874
">	-11.2875
atta	-11.2876
cita	-11.2877
OF	-11.2878
ација	-11.2879
ະ	-11.288
▁heb	-11.288
گاه	-11.288
खा	-11.2881
-11-	-11.2882
▁Cena	-11.2882
▁sebuah	-11.2882
▁What	-11.2885
260	-11.2885
Hu	-11.2889
▁سب	-11.2889
më	-11.2889
▁ਆ	-11.2889
umo	-11.2891
▁उन	-11.2892
onta	-11.2892
KK	-11.2892
embre	-11.2892
uwa	-11.2893
▁ima	-11.2895
영	-11.2896
师	-11.2896
▁ул	-11.29
▁Rio	-11.29
për	-11.29
▁Petr	-11.2902
ového	-11.2902
όρ	-11.2903
▁school	-11.2903
▁소	-11.2904
▁Kad	-11.2905
▁Hann	-11.2906
rir	-11.2906
யில்	-11.291
002	-11.2911
▁Central	-11.2912
сә	-11.2912
131	-11.2912
▁hingga	-11.2914
▁भी	-11.2915
▁Hem	-11.2916
▁kilometro	-11.2916
၀	-11.2917
ಂದ	-11.2919
mmen	-11.2919
▁klima	-11.292
▁mali	-11.2921
untu	-11.2921
itä	-11.2923
וד	-11.2926
▁Poli	-11.2926
MAN	-11.2926
▁regul	-11.2927
▁apr	-11.2928
▁taip	-11.2928
foto	-11.2929
▁There	-11.293
த்தில்	-11.293
▁Thomas	-11.293
EV	-11.2932
hiri	-11.2932
▁BR	-11.2932
▁month	-11.2933
യാ	-11.2933
лим	-11.2934
▁Ent	-11.2936
ች	-11.2937
ाय	-11.2938
ents	-11.2939
ūs	-11.294
▁profes	-11.2941
▁جمع	-11.2941
▁Sala	-11.2942
▁ketika	-11.2942
▁Liga	-11.2942
▁hadi	-11.2942
கி	-11.2944
हि	-11.2946
cchi	-11.2946
▁metu	-11.2946
▁סי	-11.2947
▁dir	-11.2947
▁ਹ	-11.2947
▁vår	-11.2948
▁studi	-11.2951
▁Pad	-11.2951
scar	-11.2952
▁Fit	-11.2952
▁Wood	-11.2953
▁össze	-11.2954
由	-11.2954
mene	-11.2954
▁favor	-11.2954
▁bax	-11.2955
▁Kro	-11.2958
mog	-11.2959
wol	-11.2959
INE	-11.2959
По	-11.296
querySelectorAll	-11.296
220	-11.296
▁Fel	-11.2961
Ү	-11.2964
date	-11.2964
eaza	-11.2964
▁leo	-11.2964
▁مش	-11.2964
▁src	-11.2966
▁सु	-11.2967
▁Israel	-11.2969
weyn	-11.297
ို	-11.2971
رش	-11.2971
Հ	-11.2971
▁RM	-11.2973
▁unter	-11.2974
▁kole	-11.2975
▁nime	-11.2976
▁arti	-11.2976
▁fè	-11.2978
怎么	-11.2978
▁kamera	-11.2979
▁James	-11.2979
03.	-11.2979
▁dėl	-11.298
▁πα	-11.298
inë	-11.2981
сна	-11.2981
▁төр	-11.2982
स्त	-11.2982
▁работ	-11.2983
nı	-11.2984
unum	-11.2985
▁meu	-11.2985
уда	-11.2986
ót	-11.2986
κο	-11.2987
سک	-11.2987
▁kasarangan	-11.2988
اپ	-11.299
UC	-11.2992
▁mash	-11.2993
▁115	-11.2994
▁market	-11.2996
ഹ	-11.2997
lett	-11.2998
256	-11.2999
▁કર	-11.2999
жу	-11.3003
registr	-11.3003
▁hud	-11.3003
др	-11.3006
dot	-11.3006
9%8	-11.3006
ску	-11.3006
hof	-11.3006
▁jūs	-11.3007
leme	-11.3007
▁Book	-11.3007
▁Centre	-11.3008
▁mapa	-11.3008
▁Old	-11.301
▁Airport	-11.3013
ről	-11.3014
▁bahin	-11.3014
ិត	-11.3014
▁Studio	-11.3017
▁šal	-11.3017
бай	-11.3018
CN	-11.3018
rong	-11.3019
▁också	-11.3019
êm	-11.3019
▁privat	-11.302
roma	-11.302
▁බ	-11.302
▁FL	-11.3022
пар	-11.3022
رات	-11.3022
▁Bild	-11.3023
▁sier	-11.3023
essä	-11.3025
ంగా	-11.3026
▁Lee	-11.3026
▁الر	-11.3027
려	-11.3027
ונים	-11.3027
ics	-11.3028
യില്‍	-11.3028
▁komen	-11.303
inner	-11.303
▁då	-11.3032
▁TE	-11.3032
culo	-11.3033
▁sc	-11.3033
▁בת	-11.3034
调	-11.3035
▁taga	-11.3035
Ju	-11.3035
▁Washington	-11.3035
▁prac	-11.3036
▁hành	-11.3036
▁JA	-11.3037
ទី	-11.3039
တ္	-11.3039
nosť	-11.3039
ruh	-11.304
/7	-11.304
BT	-11.3041
▁today	-11.3041
בל	-11.3042
print	-11.3042
▁mee	-11.3042
래	-11.3043
lain	-11.3044
tér	-11.3044
▁تاریخ	-11.3045
▁used	-11.3047
istas	-11.3047
voca	-11.3047
▁2013,	-11.3047
ával	-11.3048
▁ўз	-11.3048
▁assist	-11.305
ဘ	-11.3051
委	-11.3051
мил	-11.3054
▁Gul	-11.3055
▁än	-11.3055
0.7	-11.3056
్	-11.3057
▁Now	-11.3057
әк	-11.3057
stone	-11.3057
▁р	-11.3058
sig	-11.3059
▁افغانستان	-11.306
ំ	-11.306
▁IS	-11.3061
otto	-11.3061
▁jej	-11.3062
မွာ	-11.3063
▁win	-11.3063
0.2	-11.3063
▁αυτό	-11.3063
αντ	-11.3064
кры	-11.3065
▁Për	-11.3066
सा	-11.3066
▁paket	-11.3068
规	-11.3068
▁utan	-11.3068
цу	-11.3068
▁δι	-11.3068
▁Aku	-11.3068
▁OP	-11.3069
▁ekip	-11.307
▁DKK	-11.3073
▁թե	-11.3074
ધ	-11.3074
ijas	-11.3075
koak	-11.3075
▁Hen	-11.3077
ţ	-11.3079
tiba	-11.308
alle	-11.3081
คน	-11.3084
克	-11.3084
מק	-11.3084
طر	-11.3084
hag	-11.3086
▁musi	-11.3088
देश	-11.3088
ayı	-11.3089
GGA	-11.3089
tás	-11.3089
yb	-11.309
୍	-11.3091
CR	-11.3091
▁Name	-11.3091
▁pati	-11.3091
ొ	-11.3091
ље	-11.3092
민	-11.3093
▁pik	-11.3093
-08	-11.3093
ıcı	-11.3097
inc	-11.3098
-25	-11.3099
▁пар	-11.3099
▁кам	-11.3099
▁والے	-11.31
▁qara	-11.31
جا	-11.3101
▁пера	-11.3103
▁Sandal	-11.3104
PG	-11.3105
סו	-11.3105
ować	-11.3106
ogo	-11.3107
ử	-11.3107
▁tart	-11.3107
▁corre	-11.3108
热	-11.3109
▁féidir	-11.3109
▁उ	-11.311
TAT	-11.3112
gari	-11.3113
129	-11.3114
tah	-11.3114
▁boy	-11.3116
মি	-11.3116
▁Canada	-11.3117
Χ	-11.3118
▁áll	-11.312
▁Esp	-11.312
▁Glo	-11.312
ữ	-11.3121
utus	-11.3121
▁poate	-11.3123
▁Lagu	-11.3123
ි	-11.3125
▁phòng	-11.3126
▁siz	-11.3126
▁zem	-11.3127
itor	-11.3127
wah	-11.3129
дагы	-11.3129
້	-11.3132
SB	-11.3132
cad	-11.3132
tors	-11.3132
▁эк	-11.3132
▁ava	-11.3132
▁sedang	-11.3133
ներին	-11.3134
▁international	-11.3134
owanie	-11.3135
Γ	-11.3136
uwe	-11.314
UZ	-11.314
HL	-11.3141
rati	-11.3141
kolo	-11.3142
▁natur	-11.3143
▁även	-11.3143
ghi	-11.3145
ਤਾ	-11.3145
നാ	-11.3146
ZO	-11.3146
rico	-11.3147
▁gerek	-11.3148
▁OF	-11.3148
▁enn	-11.3149
▁Project	-11.3149
▁elő	-11.315
▁send	-11.315
▁Temp	-11.315
▁þegar	-11.3151
▁Daily	-11.3151
alde	-11.3151
вој	-11.3152
▁Tek	-11.3154
JI	-11.3154
ull	-11.3157
▁dedi	-11.3158
▁Adam	-11.3159
▁живот	-11.316
ದು	-11.316
оти	-11.3161
BY	-11.3163
IND	-11.3164
▁ಜ	-11.3165
тур	-11.3167
צה	-11.3167
ــ	-11.3167
▁Norge	-11.3168
还	-11.3168
aidh	-11.3168
应	-11.3169
▁Bang	-11.3169
іль	-11.3169
ук	-11.3171
ndal	-11.3172
haya	-11.3172
ợ	-11.3172
▁zdrav	-11.3173
▁bộ	-11.3173
lala	-11.3174
شه	-11.3175
ህ	-11.3175
üz	-11.3176
▁leng	-11.3177
ški	-11.3177
▁code	-11.3178
சி	-11.3179
ësh	-11.318
▁dike	-11.318
▁پو	-11.3181
pare	-11.3181
する	-11.3182
qan	-11.3182
▁fla	-11.3183
▁sco	-11.3185
cció	-11.3186
業	-11.3186
յ	-11.3186
▁İş	-11.3186
▁every	-11.3187
solution	-11.3187
SHI	-11.3189
▁Projekt	-11.319
▁maal	-11.3192
lés	-11.3193
OO	-11.3193
نڈ	-11.3194
Video	-11.3194
stí	-11.3194
布	-11.3195
▁River	-11.3196
▁kasar	-11.3196
uter	-11.32
ület	-11.3201
▁aina	-11.3201
▁эр	-11.3202
▁Will	-11.3202
▁SKU	-11.3205
شار	-11.3205
iny	-11.3207
vaj	-11.3208
▁jun	-11.3208
▁mycket	-11.3209
▁Escort	-11.3209
▁Македонија	-11.3209
▁drejt	-11.3209
SAN	-11.3209
lys	-11.3209
▁cest	-11.321
лон	-11.321
ڑ	-11.3212
▁PE	-11.3213
▁vak	-11.3214
▁Kong	-11.3215
zka	-11.3216
ως	-11.3216
५	-11.3217
▁ಮತ್ತು	-11.3217
▁mirë	-11.3217
ූ	-11.3221
inne	-11.3222
බ	-11.3222
-24	-11.3223
čno	-11.3223
▁vera	-11.3223
ья	-11.3223
▁saka	-11.3223
▁sens	-11.3225
արտ	-11.3225
▁Euskal	-11.3225
▁thiết	-11.3226
▁طرح	-11.3226
▁Indi	-11.3227
cela	-11.3228
▁בש	-11.3228
ступ	-11.3229
▁Hà	-11.3229
út	-11.3229
åt	-11.3229
boy	-11.323
▁Fort	-11.3231
▁צ	-11.3231
08.	-11.3231
▁oyun	-11.3231
修	-11.3233
▁פר	-11.3233
اني	-11.3233
▁hely	-11.3233
▁diren	-11.3235
▁Machine	-11.3236
▁principal	-11.3236
▁VA	-11.3236
▁Spiel	-11.3236
▁eg	-11.3237
illä	-11.3237
ಯಾ	-11.3239
▁Ori	-11.324
oria	-11.3241
నా	-11.3241
صف	-11.3242
▁Ки	-11.3244
▁faire	-11.3245
දි	-11.3248
egu	-11.3249
▁aiz	-11.3249
▁Hin	-11.3251
ilen	-11.3251
▁করা	-11.3253
għa	-11.3253
ല്ല	-11.3253
▁juli	-11.3255
उ	-11.3256
itel	-11.3257
▁(0	-11.3257
▁sai	-11.3257
maður	-11.3258
▁1.3	-11.3258
つ	-11.3259
投	-11.3259
▁nær	-11.3259
▁SC	-11.326
▁masu	-11.3261
self	-11.3262
אה	-11.3263
тэ	-11.3263
▁Dette	-11.3264
???	-11.3264
▁kuch	-11.3264
在线	-11.3264
KAN	-11.3265
▁Share	-11.3265
▁Size	-11.3266
▁1.6	-11.3266
CM	-11.3267
лган	-11.3267
átor	-11.3267
pozi	-11.3267
პ	-11.3267
▁beg	-11.3268
öll	-11.3268
ối	-11.3268
▁Thi	-11.3268
▁kada	-11.327
plica	-11.327
▁hava	-11.327
rite	-11.327
2006	-11.3271
▁сум	-11.3272
ింది	-11.3273
lles	-11.3273
τος	-11.3274
znám	-11.3274
gie	-11.3275
اك	-11.3276
350	-11.3276
▁չ	-11.3277
▁bizi	-11.328
гч	-11.328
ERA	-11.328
lica	-11.3281
▁50%	-11.3282
河	-11.3284
▁press	-11.3284
lies	-11.3285
ischen	-11.3285
▁antara	-11.3286
ského	-11.3287
(1	-11.3291
▁lehet	-11.3291
late	-11.3291
▁Vý	-11.3292
반	-11.3292
企业	-11.3292
직	-11.3292
▁nev	-11.3293
quel	-11.3293
ikat	-11.3295
▁leik	-11.3295
praw	-11.3296
ಕ್ಷ	-11.3296
фер	-11.3296
ւ	-11.3299
టీ	-11.3299
ả	-11.3299
▁euros	-11.33
מד	-11.33
龙	-11.33
уу	-11.33
▁TH	-11.33
资	-11.3301
▁گا	-11.3301
▁قیمت	-11.3301
▁sä	-11.3301
▁ambayo	-11.3304
▁Dh	-11.3305
kok	-11.3305
قي	-11.3307
▁Final	-11.3307
жар	-11.3308
ंग	-11.3309
ková	-11.331
osť	-11.331
时间	-11.3311
▁izle	-11.3312
ool	-11.3313
туу	-11.3313
iyada	-11.3315
čas	-11.3316
rank	-11.3317
拉	-11.3317
▁Dor	-11.3317
/19	-11.3317
ғи	-11.3318
▁있습니다	-11.3318
גל	-11.3318
务	-11.3318
▁dela	-11.3319
BM	-11.332
best	-11.332
▁selama	-11.332
ест	-11.332
▁Nacional	-11.3321
▁Maka	-11.3321
сов	-11.3322
تم	-11.3322
YE	-11.3326
▁finans	-11.3326
غل	-11.3326
৩	-11.3327
сед	-11.3327
yicha	-11.3327
vier	-11.3328
tle	-11.3329
kte	-11.333
▁yan	-11.3331
spre	-11.3331
▁тоа	-11.3331
▁historia	-11.3332
രു	-11.3334
នៅ	-11.3335
▁خرید	-11.3335
óg	-11.3336
▁multe	-11.3337
גי	-11.3337
▁eile	-11.3339
कार	-11.334
-22	-11.3342
icos	-11.3342
▁Series	-11.3342
άλ	-11.3342
תה	-11.3343
139	-11.3343
-2018	-11.3344
/11	-11.3345
blo	-11.3347
рас	-11.3349
rū	-11.3349
▁Call	-11.3351
గు	-11.3351
▁SK	-11.3351
ዳ	-11.3351
isan	-11.3352
▁Administra	-11.3352
▁paš	-11.3353
کت	-11.3353
▁cikin	-11.3353
▁American	-11.3354
▁garanti	-11.3355
[2]	-11.3356
മി	-11.3357
laka	-11.3358
mpak	-11.3358
▁uch	-11.3358
▁එ	-11.3359
ካ	-11.336
▁karo	-11.3361
BER	-11.3362
▁activ	-11.3363
▁sebe	-11.3363
palvelu	-11.3364
فو	-11.3365
▁լ	-11.3366
▁Manchester	-11.3366
▁κατά	-11.3366
▁Fun	-11.3367
▁Femme	-11.3369
ály	-11.3369
υσ	-11.337
veni	-11.337
zbek	-11.337
ائر	-11.3372
▁Person	-11.3372
▁105	-11.3373
▁×	-11.3373
第	-11.3374
种	-11.3376
품	-11.3376
▁mengu	-11.3377
/9	-11.3378
colo	-11.3378
Ն	-11.3379
EZ	-11.3379
모	-11.3379
SER	-11.3381
רות	-11.3382
asto	-11.3383
sını	-11.3383
▁জ	-11.3383
ANT	-11.3384
▁Kultur	-11.3386
▁години	-11.3387
_1	-11.3388
ėja	-11.3389
valt	-11.3391
電	-11.3393
표	-11.3394
▁kết	-11.3394
▁compar	-11.3394
ҳи	-11.3394
ち	-11.3395
▁Masa	-11.3395
▁`	-11.3397
چه	-11.3397
▁Pres	-11.3402
255	-11.3402
zare	-11.3403
аж	-11.3404
เด	-11.3404
3.1	-11.3405
▁Å	-11.3405
kuru	-11.3406
watch	-11.3408
▁billig	-11.3409
CB	-11.3409
kura	-11.3409
▁топ	-11.341
šana	-11.341
石	-11.341
▁Agen	-11.3411
▁اپنے	-11.3411
порт	-11.3411
270	-11.3412
قة	-11.3413
▁ore	-11.3414
▁täi	-11.3414
vý	-11.3415
cli	-11.3415
อง	-11.3415
used	-11.3416
▁=>	-11.342
țe	-11.342
▁kuru	-11.342
▁دې	-11.3421
zí	-11.3424
▁CL	-11.3429
unan	-11.343
180	-11.3431
OG	-11.3431
▁mə	-11.3433
bbi	-11.3433
▁Bud	-11.3433
гр	-11.3434
ják	-11.3435
▁LG	-11.3435
斯	-11.3436
०	-11.3436
▁politi	-11.3438
anja	-11.3439
oci	-11.3439
ihii	-11.3441
bá	-11.3441
▁Modern	-11.3442
▁puede	-11.3443
▁gaar	-11.3443
让	-11.3444
▁sak	-11.3445
ጥ	-11.3445
เครื่อง	-11.3445
▁کشور	-11.3445
cem	-11.3447
▁sitt	-11.3449
▁1999	-11.3449
ITE	-11.345
▁الخ	-11.345
වේ	-11.3451
וג	-11.3453
证	-11.3453
íte	-11.3454
▁شر	-11.3455
ované	-11.3455
▁Stan	-11.3455
▁ће	-11.3457
▁च	-11.3458
jär	-11.3459
640	-11.3459
▁تمام	-11.346
На	-11.346
FL	-11.346
וט	-11.3461
▁والم	-11.3461
ডি	-11.3461
▁Led	-11.3462
ელი	-11.3462
▁مصر	-11.3462
▁muut	-11.3464
▁част	-11.3464
▁semana	-11.3467
لف	-11.3467
rab	-11.3469
▁anni	-11.3469
sema	-11.347
先	-11.3471
ned	-11.3471
kazi	-11.3472
▁ઉ	-11.3473
עת	-11.3473
hk	-11.3473
ഡ്	-11.3473
▁Бе	-11.3473
▁daudz	-11.3474
вр	-11.3475
▁found	-11.3477
▁مخ	-11.3477
林	-11.3478
▁kiu	-11.3478
▁Hard	-11.3479
▁pea	-11.3481
дат	-11.3482
▁فى	-11.3482
ācijas	-11.3483
▁muy	-11.3483
▁Ford	-11.3484
▁BBC	-11.3485
ahay	-11.3485
krat	-11.3485
▁5-	-11.3486
▁filtr	-11.3488
nə	-11.349
middel	-11.349
▁gun	-11.3492
▁memper	-11.3492
ımı	-11.3493
▁kena	-11.3493
▁būs	-11.3494
iques	-11.3494
▁doen	-11.3494
▁گی	-11.3495
▁220	-11.3497
9°	-11.3497
▁Տ	-11.3497
▁сме	-11.3498
קס	-11.3498
▁Ար	-11.3498
▁Juan	-11.3499
▁2014,	-11.35
▁Case	-11.35
mpe	-11.3501
▁신	-11.3501
iske	-11.3502
8°	-11.3502
शा	-11.3502
▁παρ	-11.3503
136	-11.3504
价	-11.3504
▁Ort	-11.3505
nico	-11.3505
▁trí	-11.3508
hot	-11.3508
▁בי	-11.3509
шка	-11.3511
rett	-11.3511
មាន	-11.3511
sione	-11.3511
shirt	-11.3512
uploads	-11.3513
▁heim	-11.3514
лд	-11.3514
▁tanpa	-11.3515
▁log	-11.3518
▁നി	-11.3519
aires	-11.3521
ería	-11.3522
▁Copyright	-11.3522
২	-11.3525
sah	-11.3525
?”	-11.3526
ләре	-11.3528
ția	-11.353
konna	-11.353
emos	-11.3532
▁From	-11.3533
èl	-11.3533
-2019	-11.3533
дэ	-11.3534
GN	-11.3534
ped	-11.3535
iler	-11.3535
MT	-11.3536
пол	-11.3538
voz	-11.3538
ться	-11.3538
▁quando	-11.3538
청	-11.3539
పు	-11.354
μη	-11.354
360	-11.3541
▁بین	-11.3541
▁zich	-11.3543
▁lista	-11.3543
ската	-11.3544
▁lisa	-11.3544
aciones	-11.3544
こ	-11.3545
ative	-11.3545
šie	-11.3547
宝	-11.3547
▁geç	-11.3548
tty	-11.355
బ	-11.3551
▁다	-11.3552
▁bayan	-11.3552
▁tikai	-11.3552
▁posted	-11.3552
▁tay	-11.3553
▁End	-11.3554
▁LCD	-11.3555
太	-11.3555
сил	-11.3555
axa	-11.3555
▁10:00	-11.3556
▁ол	-11.3556
점	-11.3557
▁PP	-11.3557
▁Οι	-11.3557
нен	-11.3558
▁PT	-11.356
▁Bai	-11.356
▁brez	-11.3561
▁kalau	-11.3561
chan	-11.3561
dida	-11.3563
▁Our	-11.3564
liku	-11.3565
ðum	-11.3567
▁Ich	-11.3567
ují	-11.3567
▁fue	-11.3567
▁card	-11.3571
▁Liber	-11.3572
rent	-11.3573
▁Control	-11.3574
▁down	-11.3575
▁إن	-11.3575
여	-11.3576
тка	-11.3576
ონ	-11.3576
inka	-11.3577
split	-11.3577
tool	-11.3578
128	-11.3578
CHE	-11.3579
при	-11.3579
ibu	-11.358
legt	-11.358
lite	-11.358
▁Gaz	-11.3581
▁tetapi	-11.3582
370	-11.3583
მო	-11.3583
▁Ihre	-11.3583
cord	-11.3584
λή	-11.3586
ELE	-11.3587
ιτ	-11.3588
uff	-11.3588
gene	-11.3589
▁quality	-11.359
▁different	-11.3591
▁Pr	-11.3591
▁Ví	-11.3592
ácia	-11.3595
▁nepa	-11.3596
▁Պ	-11.3596
ウ	-11.3599
tige	-11.3599
尔	-11.3599
言	-11.36
gada	-11.36
ခဲ့	-11.36
▁Quốc	-11.36
шт	-11.3602
▁тү	-11.3604
TAG	-11.3604
▁Хо	-11.3605
кова	-11.3605
երը	-11.3605
▁بازی	-11.3605
▁eins	-11.3606
ланган	-11.3607
TP	-11.3607
իչ	-11.3608
▁Sverige	-11.3609
▁יותר	-11.3609
uses	-11.3609
ພ	-11.3613
▁kõik	-11.3614
skej	-11.3614
aug	-11.3616
њи	-11.3617
كا	-11.3617
▁waki	-11.3619
▁font	-11.3619
րդ	-11.362
ಹಿ	-11.362
vend	-11.362
▁stol	-11.3621
▁vom	-11.3621
▁Stock	-11.3622
mą	-11.3623
øj	-11.3623
CAG	-11.3623
មួយ	-11.3624
▁súa	-11.3625
▁vald	-11.3625
▁podob	-11.3625
▁Sea	-11.3626
lp	-11.3626
исти	-11.3626
enzi	-11.3627
850	-11.3627
тик	-11.3628
▁hum	-11.3628
▁Chan	-11.3629
▁wê	-11.363
से	-11.3631
▁Like	-11.3631
сты	-11.3632
▁Mata	-11.3634
▁έ	-11.3634
lete	-11.3634
버	-11.3635
ん	-11.3635
τρ	-11.3636
gust	-11.3639
TL	-11.3639
▁komunik	-11.3639
▁Fashion	-11.364
1.0	-11.3641
▁Honda	-11.3642
影	-11.3642
3°	-11.3642
교	-11.3643
▁ап	-11.3643
宁	-11.3643
▁شرکت	-11.3643
label	-11.3644
кин	-11.3646
▁Vä	-11.3647
▁видео	-11.3649
▁சி	-11.365
elek	-11.365
илди	-11.3651
▁ibabaw	-11.3652
▁vot	-11.3653
ица	-11.3654
▁gain	-11.3654
ject	-11.3654
ellä	-11.3656
στε	-11.3658
SON	-11.3661
▁նաեւ	-11.3661
dav	-11.3661
▁Nova	-11.3662
ờ	-11.3662
0.6	-11.3663
▁Local	-11.3664
று	-11.3665
עי	-11.3665
▁দ	-11.3667
глас	-11.3668
▁mort	-11.3668
▁Jack	-11.3668
야	-11.3668
▁change	-11.3669
▁saman	-11.3671
tár	-11.3672
▁önce	-11.3672
hető	-11.3673
lta	-11.3674
▁Kamp	-11.3676
чан	-11.3676
inum	-11.3677
▁own	-11.3677
ությամբ	-11.3678
▁mano	-11.368
▁Event	-11.368
▁Sony	-11.368
hä	-11.3682
loc	-11.3682
కా	-11.3682
GAT	-11.3684
れ	-11.3685
那	-11.3686
сте	-11.3686
७	-11.3687
לות	-11.369
koll	-11.369
▁gjithë	-11.369
320	-11.369
▁says	-11.3691
RM	-11.3693
▁সে	-11.3693
▁pale	-11.3694
dzīv	-11.3698
δο	-11.3698
base	-11.3701
▁stan	-11.3702
▁(18	-11.3702
▁한	-11.3704
▁Point	-11.3705
▁perfekt	-11.3705
ही	-11.3706
▁oldu	-11.3706
▁mình	-11.3707
▁Class	-11.3709
现	-11.3709
لب	-11.3709
ęs	-11.3709
onto	-11.3711
▁Kos	-11.3714
▁Buy	-11.3714
saka	-11.3714
▁sector	-11.3716
cola	-11.3716
bell	-11.3716
บา	-11.3716
▁George	-11.3717
333	-11.3717
kod	-11.3717
itan	-11.3719
bun	-11.3719
▁Dat	-11.372
▁(12	-11.3722
sund	-11.3722
ლის	-11.3722
▁before	-11.3722
▁کرتے	-11.3723
▁الص	-11.3724
hair	-11.3724
▁nila	-11.3724
▁बि	-11.3724
ške	-11.3725
▁וא	-11.3726
nka	-11.3726
್ಯ	-11.3727
եկ	-11.3728
▁shop	-11.3728
òn	-11.3729
ิน	-11.373
▁þetta	-11.3731
તી	-11.3732
▁Friday	-11.3732
网址	-11.3732
cing	-11.3733
▁Vid	-11.3735
▁také	-11.3735
ੀਆਂ	-11.3735
NK	-11.3736
▁million	-11.3736
HAR	-11.3737
ghe	-11.3737
кла	-11.3738
す	-11.3739
▁terbaik	-11.3739
▁đây	-11.374
män	-11.374
جو	-11.3741
▁phát	-11.3743
skola	-11.3743
▁cit	-11.3744
▁گئی	-11.3747
▁order	-11.3747
Å	-11.3749
▁Bau	-11.3749
▁Lie	-11.3749
▁περι	-11.3749
▁הק	-11.3749
▁tanto	-11.375
▁haber	-11.375
▁right	-11.3751
ട്	-11.3751
шен	-11.3752
▁gh	-11.3752
▁Asia	-11.3752
▁nagu	-11.3753
▁кра	-11.3755
пор	-11.3755
ized	-11.3755
▁BU	-11.3756
▁eman	-11.3756
▁Update	-11.3757
▁mér	-11.3757
Am	-11.3757
ета	-11.3758
▁account	-11.3758
esh	-11.3759
▁אין	-11.3759
ีย	-11.376
▁mobile	-11.3761
▁ച	-11.3761
▁szerint	-11.3762
ары	-11.3763
▁Servi	-11.3764
சா	-11.3764
Bar	-11.3764
▁tiene	-11.3765
င်း	-11.3765
近	-11.3765
▁bảo	-11.3766
ove	-11.3766
▁būti	-11.3767
Ө	-11.3767
ก็	-11.3768
moqda	-11.377
▁bản	-11.377
▁Ру	-11.3771
▁모	-11.3772
▁gew	-11.3773
▁/>	-11.3773
▁treball	-11.3773
kira	-11.3774
▁giúp	-11.3775
▁lama	-11.3775
▁شي	-11.3777
دة	-11.3777
กัน	-11.3778
▁ఏ	-11.3779
อน	-11.378
▁గ	-11.378
▁(8)	-11.3781
lägg	-11.3781
ಜ	-11.3782
▁đẹp	-11.3783
▁കാ	-11.3784
102	-11.3785
▁Ass	-11.3786
raya	-11.3786
дары	-11.3787
▁act	-11.3787
性	-11.3787
▁mál	-11.3788
解	-11.3789
▁рэ	-11.379
▁rama	-11.3791
ധ	-11.3791
חו	-11.3792
吗	-11.3792
ใช้	-11.3792
XI	-11.3793
1.9	-11.3794
125	-11.3795
▁دور	-11.3796
▁khác	-11.3798
▁grupo	-11.3798
▁Room	-11.3801
达	-11.3801
▁Sou	-11.3802
▁hoteller	-11.3802
talo	-11.3805
▁хар	-11.3805
ЛА	-11.3807
ọn	-11.3809
▁ndër	-11.3809
百	-11.3809
▁melalui	-11.381
▁zeuden	-11.381
ಿದೆ	-11.381
▁spor	-11.3812
▁pir	-11.3812
210	-11.3813
ango	-11.3813
▁Km	-11.3813
▁Xo	-11.3814
UG	-11.3817
▁Sor	-11.3818
▁rod	-11.382
ரா	-11.3821
▁artist	-11.3822
(":	-11.3825
▁até	-11.3825
▁São	-11.3825
CHI	-11.3827
종	-11.3828
▁2015.	-11.3829
▁2015,	-11.3829
टी	-11.383
وال	-11.383
▁chce	-11.3831
▁sve	-11.3832
▁শ	-11.3832
uš	-11.3832
▁temps	-11.3833
▁DJ	-11.3835
▁koos	-11.3837
anje	-11.3839
nă	-11.384
▁AD	-11.384
ington	-11.3842
▁hela	-11.3843
tvor	-11.3844
system	-11.3845
▁déc	-11.3845
138	-11.3845
MU	-11.3846
మీ	-11.3846
▁fins	-11.3846
ombo	-11.3847
▁destina	-11.3848
ಬ	-11.385
▁1:	-11.3852
લે	-11.3853
▁Kai	-11.3854
▁Rosa	-11.3854
ρί	-11.3855
చి	-11.3855
▁priser	-11.3855
▁Stat	-11.3856
▁sup	-11.3856
▁ہم	-11.3856
▁Cali	-11.3856
▁worm	-11.3857
misel	-11.3858
▁actual	-11.3861
▁princip	-11.3863
▁Ann	-11.3865
oğlu	-11.3865
RG	-11.3866
teil	-11.3866
ады	-11.3866
TN	-11.387
ncer	-11.387
▁הפ	-11.3872
▁pé	-11.3872
▁Ն	-11.3872
رض	-11.3872
09.	-11.3874
▁respect	-11.3874
▁biri	-11.3875
ář	-11.3877
ಂತ	-11.3877
gata	-11.3878
▁uur	-11.388
▁kredit	-11.388
žia	-11.3881
hre	-11.3882
▁ការ	-11.3884
▁rayon	-11.3884
МА	-11.3885
izado	-11.3885
▁presta	-11.3886
ơ	-11.3887
sluit	-11.3888
теп	-11.3889
▁však	-11.389
бан	-11.389
STA	-11.3892
▁Updated	-11.3892
ATE	-11.3892
▁Rod	-11.3893
▁terus	-11.3893
▁taka	-11.3894
agne	-11.3894
▁theo	-11.3895
ție	-11.3896
Foto	-11.3896
ikuha	-11.3896
position	-11.3896
▁twee	-11.3897
▁pola	-11.3897
▁دیگر	-11.3898
▁constru	-11.3899
首	-11.3899
動	-11.3899
▁Material	-11.3899
▁Run	-11.39
▁stað	-11.39
dev	-11.3903
▁alın	-11.3904
▁pasti	-11.3905
mpli	-11.3905
diga	-11.3905
jski	-11.3905
▁día	-11.3907
mín	-11.3907
bú	-11.3907
包	-11.3908
=2	-11.3908
▁nhận	-11.3908
手机	-11.3908
▁მე	-11.3909
län	-11.3909
▁kế	-11.391
rry	-11.3913
նում	-11.3913
,000,000	-11.3913
aldia	-11.3914
▁walio	-11.3914
▁Ве	-11.3915
▁ಸಾ	-11.3915
▁presidente	-11.3916
機	-11.3916
bina	-11.3916
гән	-11.3916
τες	-11.3917
▁فیلم	-11.3917
▁wij	-11.3917
▁ਨਾਲ	-11.3918
פור	-11.3918
uge	-11.3919
aði	-11.3919
▁OS	-11.3919
▁kind	-11.3919
▁Pris	-11.392
▁organiza	-11.3921
лады	-11.3921
▁verdi	-11.3922
sex	-11.3924
片	-11.3925
пад	-11.3926
▁cần	-11.3926
wani	-11.3926
ores	-11.3927
ούς	-11.3928
▁مست	-11.3929
した	-11.3929
ถ	-11.393
▁puh	-11.3931
▁klar	-11.3932
▁1.4	-11.3933
▁бил	-11.3933
▁Parlament	-11.3935
▁hiệu	-11.3935
දී	-11.3936
æn	-11.3937
440	-11.3937
SN	-11.3937
▁Core	-11.3937
قی	-11.3939
▁turist	-11.3941
▁ise	-11.3941
LM	-11.3941
▁Ži	-11.3941
સી	-11.3943
▁юм	-11.3944
▁gehiago	-11.3944
▁masyarakat	-11.3944
ICA	-11.3945
▁Aj	-11.3945
ంలో	-11.3945
ARD	-11.3946
lux	-11.3946
▁self	-11.3947
▁Kali	-11.3948
dini	-11.3949
zzi	-11.3951
▁CI	-11.3952
源	-11.3952
▁موقع	-11.3953
খা	-11.3953
▁Ю	-11.3953
aron	-11.3954
▁نہ	-11.3954
Sch	-11.3955
лег	-11.3955
▁ව	-11.3956
GR	-11.3957
▁3.0	-11.3957
tress	-11.3957
▁fire	-11.3958
.[3]	-11.3959
__	-11.3959
▁susi	-11.396
PER	-11.3962
め	-11.3962
▁Pun	-11.3964
hall	-11.3965
▁jin	-11.3967
llinen	-11.3967
orang	-11.3967
さ	-11.3968
skie	-11.3969
임	-11.397
▁آئی	-11.3971
▁Report	-11.3972
▁competi	-11.3975
ivat	-11.3976
3/	-11.3976
168	-11.3976
▁զ	-11.3978
▁하	-11.3979
▁gud	-11.3979
バ	-11.398
lát	-11.3981
nju	-11.3982
वि	-11.3982
AE	-11.3984
cción	-11.3985
村	-11.3988
▁Jika	-11.3989
▁እ	-11.3991
(1)	-11.3994
uara	-11.3996
知	-11.3997
チ	-11.3997
ones	-11.3997
심	-11.3998
ország	-11.3998
引	-11.3998
▁Tip	-11.3999
hua	-11.4
atzeko	-11.4001
▁цел	-11.4001
іт	-11.4002
▁сер	-11.4002
lingen	-11.4003
ký	-11.4003
Θ	-11.4005
▁igen	-11.4005
ори	-11.4005
景	-11.4006
体育投注	-11.4007
▁protest	-11.4008
New	-11.4009
▁yara	-11.4009
▁رہے	-11.401
▁cewa	-11.4012
▁ahaa	-11.4013
дык	-11.4013
kuntza	-11.4014
▁skol	-11.4016
πε	-11.4017
ohen	-11.4018
タ	-11.4018
▁terra	-11.4019
▁veik	-11.4019
Az	-11.4019
▁gut	-11.402
imp	-11.402
▁Produ	-11.4021
▁αλλά	-11.4022
stellen	-11.4023
টে	-11.4023
▁trá	-11.4024
λέ	-11.4026
▁koncert	-11.4026
един	-11.4026
keun	-11.4028
ಡ್	-11.403
▁správ	-11.403
▁Тур	-11.403
▁Pul	-11.4033
HT	-11.4033
▁ከ	-11.4033
▁ബ	-11.4033
NH	-11.4035
њу	-11.4037
▁ដែល	-11.4038
ced	-11.4039
▁Add	-11.4039
हा	-11.404
▁ө	-11.4041
▁vores	-11.4041
带	-11.4042
ጠ	-11.4043
лес	-11.4043
ikas	-11.4045
▁tips	-11.4046
▁horas	-11.4046
▁teknik	-11.4047
▁update	-11.4047
▁transfer	-11.4047
▁Bos	-11.4048
▁then	-11.4048
שא	-11.4049
▁fine	-11.405
▁Promo	-11.405
छ	-11.405
▁Anne	-11.4051
imą	-11.4052
男	-11.4052
ලා	-11.4052
速	-11.4052
법	-11.4052
prim	-11.4052
abili	-11.4052
RIS	-11.4054
▁fir	-11.4054
tú	-11.4055
בו	-11.4056
йт	-11.4056
▁prakti	-11.4056
بو	-11.4058
5.0	-11.4058
matik	-11.4058
جم	-11.4058
MENT	-11.4059
уул	-11.406
қан	-11.4061
▁Catalunya	-11.4061
▁tü	-11.4063
▁result	-11.4063
▁monitor	-11.4065
мир	-11.4068
iser	-11.4071
gaan	-11.4071
▁chủ	-11.4071
නා	-11.4072
ించ	-11.4072
தா	-11.4073
tato	-11.4074
වි	-11.4074
ků	-11.4076
▁bú	-11.4076
▁story	-11.4077
768	-11.4077
прем	-11.4077
மை	-11.4078
ே	-11.4078
▁civil	-11.4078
▁beh	-11.4079
blogspot	-11.4079
▁고	-11.4079
гын	-11.4079
▁rau	-11.408
šanās	-11.408
öld	-11.408
izm	-11.408
nič	-11.4081
owego	-11.4082
▁mặt	-11.4083
tron	-11.4084
руч	-11.4084
▁bod	-11.4085
▁اسلام	-11.4085
Ni	-11.4085
כת	-11.4086
PK	-11.4086
▁kli	-11.4087
▁kişi	-11.4088
rne	-11.4088
pack	-11.4088
४	-11.4088
▁Bus	-11.4088
کان	-11.4089
fle	-11.4089
▁Ä	-11.409
ðir	-11.4091
▁рад	-11.4091
▁contribu	-11.4091
▁kullan	-11.4092
▁Hur	-11.4092
bola	-11.4092
ACA	-11.4092
pik	-11.4094
▁fot	-11.4097
џ	-11.4097
▁Management	-11.4097
ref	-11.4097
▁Miss	-11.4098
licht	-11.4099
ші	-11.4099
प्	-11.4099
ತ್	-11.41
/12	-11.4101
tî	-11.4101
სი	-11.4103
▁қо	-11.4104
▁punkt	-11.4104
zá	-11.4105
▁intens	-11.4106
មិន	-11.411
▁خلال	-11.411
▁väga	-11.4112
जी	-11.4113
HR	-11.4114
▁són	-11.4115
▁install	-11.4115
äst	-11.4115
ként	-11.4116
▁stre	-11.4116
говор	-11.4117
▁παρα	-11.4118
▁obchod	-11.4119
▁sok	-11.4122
▁закон	-11.4124
iyyət	-11.4124
▁FOTO	-11.4124
▁세	-11.4125
ಳಿ	-11.4126
wand	-11.4127
ansa	-11.4128
195	-11.4128
▁Australia	-11.4128
▁fung	-11.4129
strik	-11.413
acija	-11.413
ಷ	-11.4133
riye	-11.4133
κλ	-11.4134
eus	-11.4134
эй	-11.4136
▁Hil	-11.4137
▁kendi	-11.4138
▁aquesta	-11.4139
▁Audio	-11.4139
ბა	-11.414
boj	-11.4141
▁Espa	-11.4141
bier	-11.4141
▁serie	-11.4141
카	-11.4142
▁այս	-11.4143
▁hak	-11.4145
▁Под	-11.4146
curs	-11.4147
▁Carl	-11.4149
▁mask	-11.415
Star	-11.4151
tl	-11.4151
τή	-11.4152
▁против	-11.4152
▁استان	-11.4152
▁tốt	-11.4152
èn	-11.4152
tega	-11.4153
▁gaba	-11.4155
rja	-11.4156
▁газ	-11.4156
youtube	-11.416
▁ew	-11.416
▁Paulo	-11.416
opera	-11.4161
造	-11.4161
信息	-11.4161
▁grav	-11.4162
йд	-11.4163
RW	-11.4163
▁Christian	-11.4163
vl	-11.4164
▁dagat	-11.4164
▁nyt	-11.4164
वे	-11.4165
▁director	-11.4165
排	-11.417
1.5	-11.4171
dze	-11.4174
count	-11.4174
ера	-11.4175
▁Қазақстан	-11.4175
మా	-11.4175
вид	-11.4176
kunde	-11.4178
デ	-11.4179
▁ተ	-11.418
▁Kontakt	-11.418
load	-11.4182
▁content	-11.4183
▁عرب	-11.4183
ခ်	-11.4183
▁þú	-11.4186
间	-11.4186
▁yahay	-11.4188
된	-11.4188
tatud	-11.4189
▁vastu	-11.4189
unta	-11.419
▁bh	-11.4191
лды	-11.4191
108	-11.4192
كس	-11.4192
▁Standard	-11.4192
▁alta	-11.4193
▁Cast	-11.4195
ђе	-11.4196
λογ	-11.4197
हरु	-11.4197
rec	-11.4198
▁ಎ	-11.4198
▁нови	-11.4198
▁Fest	-11.4198
ில்	-11.4201
▁muzik	-11.4203
ETA	-11.4204
WI	-11.4205
lən	-11.4207
加盟	-11.4207
▁nghiệp	-11.4207
▁nahimutang	-11.4207
ива	-11.4208
▁trước	-11.4208
▁Lind	-11.4208
▁videos	-11.4209
ovej	-11.421
read	-11.421
tier	-11.4212
نده	-11.4213
laj	-11.4214
జా	-11.4215
▁porque	-11.4216
NR	-11.4216
ְ	-11.4217
əş	-11.4217
▁visu	-11.4222
вин	-11.4222
Image	-11.4223
340	-11.4223
οντας	-11.4224
▁것	-11.4224
tory	-11.4224
▁Công	-11.4224
室	-11.4225
wir	-11.4225
nni	-11.4225
នឹង	-11.4225
ြ	-11.4226
▁Pur	-11.4228
álne	-11.4228
itza	-11.423
uun	-11.423
▁દ	-11.4231
▁игра	-11.4232
bada	-11.4232
ipa	-11.4232
ТА	-11.4232
▁months	-11.4232
หา	-11.4234
持	-11.4235
▁Î	-11.4235
▁server	-11.4235
ီး	-11.4236
▁Say	-11.4236
wag	-11.4236
UI	-11.4238
RF	-11.4238
hľad	-11.424
sad	-11.424
seb	-11.424
erar	-11.4241
рос	-11.4241
▁rom	-11.4241
png	-11.4242
tical	-11.4242
owania	-11.4243
▁хабар	-11.4245
▁candidat	-11.4245
skóla	-11.4245
▁Schuhe	-11.4246
▁maji	-11.4247
▁сто	-11.4247
▁Dress	-11.4247
rios	-11.4248
▁Low	-11.4248
ικής	-11.4249
тың	-11.4249
▁сал	-11.425
ява	-11.4251
▁Με	-11.4251
дра	-11.4252
izar	-11.4252
▁Mercedes	-11.4252
▁כמו	-11.4253
▁uns	-11.4253
▁kufanya	-11.4254
▁Ад	-11.4255
▁112	-11.4256
▁др	-11.4256
170	-11.4257
▁ਭ	-11.4259
▁Porn	-11.426
هن	-11.426
▁کند	-11.4261
▁شا	-11.4262
或	-11.4262
ឡ	-11.4263
▁đường	-11.4263
ਹਿ	-11.4264
▁tiếp	-11.4264
▁حل	-11.4264
▁Stand	-11.4265
▁hafi	-11.4265
yî	-11.4266
ģi	-11.4266
ności	-11.4266
▁товар	-11.4268
ılı	-11.4268
▁0.2	-11.4269
▁mbi	-11.4269
kend	-11.4269
▁ذ	-11.4269
autre	-11.4269
050	-11.4271
置	-11.4272
▁iklan	-11.4272
ឺ	-11.4272
জে	-11.4274
īs	-11.4274
HAN	-11.4277
▁Produk	-11.428
κτ	-11.428
▁Wal	-11.428
टा	-11.4281
住	-11.4281
laan	-11.4281
▁sci	-11.4282
▁national	-11.4284
▁kde	-11.4284
پر	-11.4286
▁Dollar	-11.4286
▁DC	-11.4286
urinn	-11.4287
kkel	-11.4288
یی	-11.429
gni	-11.429
ật	-11.4291
ік	-11.4292
▁sektor	-11.4292
ျမ	-11.4293
▁xem	-11.4293
angkan	-11.4295
▁nás	-11.4295
▁rá	-11.4295
tex	-11.4297
▁$2	-11.4297
▁sett	-11.4297
итель	-11.4297
▁وب	-11.4298
טע	-11.4299
oji	-11.4301
▁авто	-11.4301
▁fran	-11.4302
▁meel	-11.4302
▁passa	-11.4303
twitter	-11.4303
nės	-11.4304
▁Nar	-11.4306
▁andra	-11.4306
dv	-11.4307
कर	-11.4307
▁dva	-11.4309
▁#:	-11.4309
▁fix	-11.431
mov	-11.4311
▁Egy	-11.4311
wazi	-11.4312
▁Zá	-11.4314
▁animal	-11.4314
▁dalla	-11.4314
▁đá	-11.4315
gama	-11.4315
ҙ	-11.4315
hf	-11.4316
▁систем	-11.4316
▁മാ	-11.4317
աթ	-11.4318
单	-11.4318
ត្រ	-11.4318
▁kos	-11.4319
ટી	-11.4321
atra	-11.4321
уз	-11.4323
▁Fur	-11.4325
ափ	-11.4325
point	-11.4326
開	-11.4327
legg	-11.4328
три	-11.433
▁Gab	-11.433
▁Bola	-11.433
μπ	-11.4331
amma	-11.4331
▁לח	-11.4331
ај	-11.4332
kill	-11.4332
ək	-11.4332
▁kör	-11.4332
▁keer	-11.4333
▁diese	-11.4334
▁Kinder	-11.4334
kiem	-11.4334
ñe	-11.4335
ům	-11.4336
▁uang	-11.4336
▁Prze	-11.4338
▁slik	-11.4338
ене	-11.4338
▁visi	-11.4339
▁nagy	-11.434
ikut	-11.434
ない	-11.434
▁demand	-11.4341
▁Kay	-11.4341
▁drog	-11.4342
▁발	-11.4343
ети	-11.4343
زو	-11.4344
ujo	-11.4346
ҡ	-11.4346
▁170	-11.4346
爱	-11.4346
ták	-11.4347
▁alles	-11.4347
مز	-11.4347
mens	-11.4347
▁país	-11.4347
157	-11.4347
▁sound	-11.4347
ทํา	-11.4348
▁eerste	-11.4348
.[4]	-11.4349
real	-11.4349
▁وقت	-11.4349
nál	-11.435
使	-11.435
▁MT	-11.4352
sız	-11.4352
▁jog	-11.4353
izo	-11.4354
▁Louis	-11.4354
▁Muhammad	-11.4355
작	-11.4356
집	-11.4356
iyey	-11.4356
sign	-11.4358
▁negara	-11.4359
▁À	-11.4359
erat	-11.436
▁Baş	-11.436
▁Bul	-11.4361
▁hea	-11.4362
食	-11.4365
NB	-11.4365
spiel	-11.4365
liya	-11.4365
▁̧	-11.4366
▁Vila	-11.4366
ոտ	-11.4368
▁sca	-11.437
▁KI	-11.437
гон	-11.437
All	-11.4371
thy	-11.4373
彩票	-11.4373
value	-11.4374
▁भएको	-11.4375
أس	-11.4375
lös	-11.4376
▁Item	-11.4378
ấn	-11.4378
dige	-11.4379
dic	-11.4379
▁prev	-11.438
▁ਵਿਚ	-11.438
работ	-11.4381
DN	-11.4381
2.4	-11.4382
▁CAR	-11.4382
зда	-11.4383
▁tế	-11.4383
士	-11.4384
료	-11.4384
▁Wil	-11.4385
һ	-11.4385
▁thị	-11.4386
cicl	-11.4387
▁pois	-11.4387
▁dagen	-11.4388
▁using	-11.4388
práv	-11.4389
▁Boot	-11.439
Hi	-11.439
гляд	-11.4391
-2020	-11.4394
увати	-11.4395
сыз	-11.4395
ಭ	-11.4396
skih	-11.4397
ക്ഷ	-11.4398
▁toàn	-11.4399
▁maken	-11.4399
▁süre	-11.44
▁գր	-11.4401
▁could	-11.4404
▁məlumat	-11.4404
जा	-11.4405
▁Sign	-11.4406
▁PL	-11.4406
čné	-11.4407
TTC	-11.4407
▁gla	-11.4409
likuwa	-11.441
ষ	-11.441
ַ	-11.441
▁Лу	-11.441
▁materi	-11.4411
ჭ	-11.4412
unar	-11.4412
▁Gud	-11.4413
යක්	-11.4413
price	-11.4414
▁saab	-11.4414
▁sud	-11.4414
▁ust	-11.4416
▁investi	-11.4417
▁body	-11.4418
аи	-11.4418
▁Ray	-11.4419
▁ប្រ	-11.4419
▁🙂	-11.4419
▁než	-11.4419
stva	-11.442
Ti	-11.4421
ਧ	-11.4421
Õ	-11.4422
▁melhor	-11.4423
▁quả	-11.4424
-2017	-11.4424
▁legal	-11.4425
xy	-11.4426
MAT	-11.4427
еді	-11.4429
Tu	-11.4429
pedi	-11.443
ሳ	-11.4431
acaq	-11.4431
mı	-11.4432
▁while	-11.4433
dde	-11.4433
rü	-11.4433
2.5	-11.4434
LK	-11.4434
▁chan	-11.4435
fest	-11.4436
ขาย	-11.4437
ατ	-11.4437
ОН	-11.4437
mid	-11.4437
voir	-11.4438
▁aukera	-11.4438
hov	-11.444
管理	-11.444
▁będzie	-11.444
▁Maxamed	-11.444
ilgan	-11.4441
▁Puntland	-11.4441
ાઇ	-11.4442
ില്ല	-11.4442
▁individual	-11.4442
iff	-11.4443
дук	-11.4443
rip	-11.4444
▁Transport	-11.4444
▁pagal	-11.4444
ਫ	-11.4444
▁Come	-11.4445
?!	-11.4445
gine	-11.4446
atge	-11.4448
cü	-11.4448
▁large	-11.4449
▁viz	-11.4449
dera	-11.445
▁może	-11.4452
▁Minister	-11.4453
▁sini	-11.4453
▁gure	-11.4454
staan	-11.4456
查	-11.4459
▁italian	-11.446
iak	-11.4461
▁Cro	-11.4462
வை	-11.4462
ery	-11.4463
west	-11.4464
▁НА	-11.4464
orna	-11.4464
▁tahay	-11.4465
198	-11.4467
012	-11.4467
یب	-11.4467
战	-11.4468
▁años	-11.4468
率	-11.4468
Th	-11.4469
ża	-11.4471
▁σκ	-11.4472
▁பா	-11.4472
▁εξ	-11.4472
TION	-11.4473
▁cerca	-11.4473
▁Und	-11.4473
▁close	-11.4474
▁vitamin	-11.4474
5.5	-11.4474
▁PU	-11.4476
▁hér	-11.4477
لح	-11.4478
159	-11.4479
▁hans	-11.448
▁cover	-11.4481
ಲ್ಲ	-11.4481
صل	-11.4482
τσ	-11.4482
глед	-11.4482
Tra	-11.4482
▁sav	-11.4482
tala	-11.4483
פּ	-11.4484
티	-11.4488
▁pernah	-11.4488
AGG	-11.4489
వి	-11.4489
ங்க	-11.4489
ட்டு	-11.449
КА	-11.4491
ત્ર	-11.4493
▁eh	-11.4494
DEN	-11.4496
音	-11.4496
助	-11.4497
stilling	-11.4498
ferð	-11.4498
▁გამო	-11.4498
▁markii	-11.4499
105	-11.4499
Du	-11.45
▁biết	-11.45
رح	-11.45
qay	-11.4501
▁viac	-11.4501
내	-11.4501
▁çek	-11.4503
grade	-11.4504
▁mh	-11.4506
▁baie	-11.4506
▁dilakukan	-11.4507
еле	-11.4507
ttle	-11.4508
▁point	-11.4508
▁jira	-11.4508
▁κα	-11.4509
▁invit	-11.4509
▁sklad	-11.4509
stof	-11.451
▁kapa	-11.4513
nyt	-11.4514
▁Fire	-11.4514
שים	-11.4515
▁។	-11.4515
дава	-11.4516
▁رقم	-11.4517
១	-11.4517
▁Hun	-11.4517
▁Natural	-11.4518
▁estado	-11.4518
▁efekt	-11.4518
▁Cum	-11.4519
פה	-11.452
תק	-11.4521
▁Health	-11.4521
્ય	-11.4522
▁kartu	-11.4522
▁fare	-11.4523
лаб	-11.4523
▁essere	-11.4523
skrift	-11.4524
ണ്ട	-11.4524
iad	-11.4525
▁Gj	-11.4525
onder	-11.4527
څ	-11.4527
කු	-11.4527
য়া	-11.4529
পি	-11.453
▁ក	-11.4531
prend	-11.4531
▁daw	-11.4531
руш	-11.4532
zani	-11.4533
▁lên	-11.4534
▁있는	-11.4535
▁between	-11.4535
mê	-11.4536
▁tuna	-11.4536
▁penge	-11.4537
Har	-11.4537
tap	-11.4538
right	-11.4538
ΤΑ	-11.4538
ηγ	-11.4539
ebb	-11.454
\"	-11.454
gate	-11.4541
ālā	-11.4541
ලි	-11.4543
jy	-11.4544
▁aange	-11.4544
酒店	-11.4545
kola	-11.4545
▁Wan	-11.4545
ড়া	-11.4546
ljiv	-11.4546
ভা	-11.4549
▁Simon	-11.4549
▁aŭ	-11.455
▁Monte	-11.455
▁automat	-11.455
▁bada	-11.4551
ORE	-11.4551
▁Го	-11.4551
▁bikin	-11.4551
iteit	-11.4552
▁السي	-11.4552
▁tego	-11.4553
tama	-11.4553
▁hệ	-11.4553
тыр	-11.4554
။	-11.4554
합니다	-11.4554
▁телефон	-11.4554
เม	-11.4555
ally	-11.4555
▁Entre	-11.4555
gü	-11.4555
suz	-11.4556
ាប់	-11.4556
▁스	-11.4557
bog	-11.4558
▁dam	-11.4558
▁olish	-11.4558
יון	-11.456
▁Story	-11.4561
fet	-11.4561
sett	-11.4564
▁اف	-11.4565
▁gian	-11.4565
lade	-11.4565
CL	-11.4566
LER	-11.4567
▁Jual	-11.4567
wara	-11.4568
eye	-11.4568
жээ	-11.457
▁bildir	-11.4571
Net	-11.4572
rys	-11.4572
håll	-11.4573
ление	-11.4574
▁arba	-11.4575
ష	-11.4575
▁enda	-11.4576
CS	-11.4578
▁weiter	-11.4578
▁monta	-11.4578
gaz	-11.4578
▁share	-11.4579
ghan	-11.4579
zone	-11.4581
تھ	-11.4582
▁sekali	-11.4583
▁ර	-11.4584
тери	-11.4585
▁Palm	-11.4586
▁single	-11.4586
pada	-11.4586
▁bide	-11.4587
();	-11.4587
▁કો	-11.4588
▁Xe	-11.459
ָ	-11.459
▁ਨ	-11.4591
idagi	-11.4592
▁前天	-11.4592
▁Abu	-11.4593
itta	-11.4593
▁Ud	-11.4595
order	-11.4595
rand	-11.4597
UND	-11.4598
▁Centro	-11.4598
jö	-11.4599
round	-11.4599
hind	-11.46
深	-11.4601
Æ	-11.4602
▁pihak	-11.4602
▁haqida	-11.4603
stell	-11.4604
▁адам	-11.4604
ਨੀ	-11.4604
.03.20	-11.4605
▁mahal	-11.4606
иг	-11.4606
▁muka	-11.4606
▁deb	-11.4607
ỏ	-11.4607
▁Brit	-11.4609
▁Leave	-11.461
料	-11.461
اص	-11.4614
ற்ற	-11.4615
▁tư	-11.4616
▁¤	-11.4616
▁toho	-11.4617
▁miss	-11.4617
▁mida	-11.4617
skri	-11.4617
рок	-11.4617
àng	-11.4618
otta	-11.4618
כים	-11.4618
gim	-11.4619
নের	-11.462
ობ	-11.462
▁وم	-11.4621
раб	-11.4621
ΙΑ	-11.4621
▁Fly	-11.4622
pita	-11.4623
▁sosial	-11.4623
▁bili	-11.4623
▁alan	-11.4624
ħa	-11.4624
iä	-11.4624
▁Polo	-11.4625
▁hr	-11.4625
레	-11.4625
▁tahu	-11.4625
niem	-11.4625
råd	-11.4626
▁pertama	-11.4628
▁gur	-11.4628
▁entry	-11.4628
GH	-11.4629
бр	-11.4629
但	-11.4629
▁ఉ	-11.4632
AAT	-11.4635
לק	-11.4638
īgi	-11.464
ット	-11.464
dela	-11.464
ビ	-11.4641
gala	-11.4641
FO	-11.4641
▁Brown	-11.4642
เช	-11.4642
▁bá	-11.4642
▁Somali	-11.4642
ilib	-11.4643
▁too	-11.4645
▁Sig	-11.4645
▁sebelum	-11.4648
▁Note	-11.4648
▁sna	-11.4648
arta	-11.4649
నీ	-11.4649
▁Saat	-11.4649
▁idea	-11.4649
▁Diesel	-11.4649
再	-11.4649
׳	-11.465
1⁄2	-11.465
န်	-11.465
ayay	-11.465
▁●	-11.465
ņem	-11.4651
▁Fat	-11.4651
LES	-11.4651
▁box	-11.4652
▁fat	-11.4652
lni	-11.4652
مال	-11.4653
عب	-11.4653
قل	-11.4653
▁centra	-11.4653
▁cili	-11.4655
▁өт	-11.4655
▁Ou	-11.4656
मी	-11.4656
agan	-11.4656
形	-11.4659
וע	-11.466
▁افراد	-11.466
▁grund	-11.466
ශ	-11.4661
ভ	-11.4662
▁sit	-11.4663
មក	-11.4665
uhu	-11.4665
▁Word	-11.4665
1.2	-11.4665
▁हा	-11.4666
kast	-11.4667
labor	-11.4667
▁кал	-11.4667
elser	-11.4668
▁amp	-11.4668
лення	-11.4669
▁utili	-11.467
dura	-11.4671
▁године	-11.4671
րա	-11.4672
IDE	-11.4675
▁FM	-11.4675
скі	-11.4675
▁മു	-11.4677
▁օր	-11.4677
bûn	-11.4678
편	-11.4679
▁այդ	-11.4679
olu	-11.468
ugh	-11.4681
یہ	-11.4682
▁Portal	-11.4683
▁вр	-11.4683
▁ਗ	-11.4684
ക്കാ	-11.4684
жы	-11.4685
eľ	-11.4686
ապ	-11.4686
ára	-11.4687
▁Bei	-11.4687
▁JO	-11.4687
▁ezin	-11.4688
▁PI	-11.4688
shing	-11.4689
▁kanssa	-11.4689
मान	-11.469
อย่าง	-11.469
▁DU	-11.4693
dist	-11.4693
onia	-11.4694
wij	-11.4694
▁கு	-11.4695
▁Edition	-11.4696
▁Terra	-11.4696
ipu	-11.4697
minister	-11.4698
ställ	-11.4698
ຂ	-11.4698
속	-11.4698
▁باز	-11.4699
▁سم	-11.4699
mål	-11.47
▁නි	-11.47
னி	-11.4701
▁Int	-11.4702
▁makan	-11.4702
נע	-11.4705
▁jät	-11.4708
▁آباد	-11.4708
ブ	-11.4708
▁escr	-11.4709
▁Jur	-11.471
dana	-11.4711
áci	-11.4712
Nr	-11.4712
ungu	-11.4712
▁düş	-11.4714
gabe	-11.4717
ജി	-11.4717
▁موضوع	-11.4718
▁loại	-11.4718
▁terbaru	-11.4718
stick	-11.4718
▁Ду	-11.4719
LED	-11.472
tër	-11.4721
134	-11.4721
▁két	-11.4721
áció	-11.4721
нэ	-11.4722
sikt	-11.4722
maal	-11.4723
кул	-11.4723
▁ე	-11.4725
เล	-11.4726
تها	-11.4726
лом	-11.4727
ែ	-11.4729
▁hyvä	-11.473
▁drama	-11.4731
校	-11.4731
jana	-11.4732
▁mira	-11.4732
▁xəbər	-11.4732
ТИ	-11.4733
▁CS	-11.4734
▁Mate	-11.4734
▁Шу	-11.4734
▁دار	-11.4735
ologie	-11.4735
▁teng	-11.4736
▁Oh	-11.4737
ици	-11.4738
اي	-11.4738
اخ	-11.4738
▁gru	-11.474
liza	-11.4741
ত্র	-11.4741
jual	-11.4741
▁Lip	-11.4741
ിൽ	-11.4742
തു	-11.4742
▁tah	-11.4743
▁dadka	-11.4744
▁bliver	-11.4745
375	-11.4746
▁Has	-11.4746
ۆ	-11.4747
▁Network	-11.4747
666	-11.4747
▁Cart	-11.4748
▁일	-11.4749
▁své	-11.475
011	-11.475
▁바	-11.4751
▁ਫ	-11.4752
тир	-11.4753
▁secret	-11.4754
▁сай	-11.4754
iera	-11.4755
7.5	-11.4755
0.5	-11.4755
sök	-11.4756
onda	-11.4756
현	-11.4756
עצ	-11.4757
лася	-11.4757
▁народ	-11.4758
▁Special	-11.4758
▁mencari	-11.4758
ają	-11.4758
▁oz	-11.4758
UNG	-11.4759
ارات	-11.4759
▁kod	-11.476
म्	-11.4762
▁Find	-11.4763
bha	-11.4765
▁gul	-11.4765
190	-11.4765
اری	-11.4766
▁байгаа	-11.4766
▁նոր	-11.4766
▁hawa	-11.4767
big	-11.4768
-%	-11.4768
დე	-11.4768
ēta	-11.4769
TAL	-11.4769
▁vê	-11.4769
▁Sev	-11.477
TEL	-11.477
बाट	-11.477
▁lehen	-11.4771
▁qə	-11.4772
▁2:	-11.4772
neet	-11.4772
tës	-11.4774
ങ്ങള	-11.4774
SG	-11.4777
աբ	-11.4777
jali	-11.4777
QA	-11.4778
ingiz	-11.4778
▁manu	-11.4779
▁nieuwe	-11.4782
▁Region	-11.4784
fc	-11.4785
▁amihanan	-11.4786
tini	-11.4786
daki	-11.4788
aquest	-11.4788
นา	-11.4789
inger	-11.4791
cov	-11.4791
sok	-11.4793
new	-11.4794
▁spar	-11.4795
游	-11.4795
视	-11.4795
ዝ	-11.4795
▁Vit	-11.4796
▁Great	-11.4797
hely	-11.4797
dest	-11.4798
▁azt	-11.48
▁premier	-11.4802
اعت	-11.4802
▁Kung	-11.4803
ligen	-11.4803
▁awọn	-11.4805
▁pertsona	-11.4805
▁drug	-11.4806
vra	-11.4808
▁سه	-11.4809
াই	-11.4809
peri	-11.4809
bing	-11.481
.08.20	-11.481
itud	-11.481
රි	-11.481
▁ulohan	-11.4811
ئے	-11.4811
ष	-11.4811
▁Oslo	-11.4812
nol	-11.4813
يز	-11.4813
flu	-11.4813
每	-11.4813
sdóttir	-11.4815
▁anterior	-11.4815
▁Bez	-11.4815
▁Ring	-11.4816
viz	-11.4816
▁Cultura	-11.4816
খ	-11.4817
dä	-11.4817
▁개	-11.4817
▁جانب	-11.4819
UU	-11.4819
richt	-11.482
ции	-11.4821
▁Ple	-11.4822
▁Bakı	-11.4824
▁aja	-11.4825
提供	-11.4825
항	-11.4825
▁kvalitet	-11.4825
▁Organ	-11.4825
▁tashkil	-11.4825
▁Hier	-11.4826
kant	-11.4826
▁haya	-11.4827
▁hub	-11.4828
wch	-11.4828
יא	-11.4828
Ri	-11.4829
▁cosa	-11.4829
น้ํา	-11.4829
1.7	-11.4829
▁көр	-11.483
▁Alex	-11.483
ней	-11.4832
CZ	-11.4833
чын	-11.4834
GGG	-11.4834
▁szám	-11.4834
古	-11.4834
анг	-11.4835
tering	-11.4835
▁Karl	-11.4837
▁litt	-11.4837
acions	-11.4839
▁isə	-11.484
%25	-11.4842
▁habe	-11.4842
青	-11.4843
▁bring	-11.4844
▁keli	-11.4844
박	-11.4844
лади	-11.4845
কি	-11.4845
istic	-11.4845
VM	-11.4846
▁Spo	-11.4846
▁tava	-11.4847
tava	-11.4848
amat	-11.4849
ារ	-11.4849
îr	-11.4853
rier	-11.4853
六	-11.4853
-23	-11.4854
▁lider	-11.4855
▁masuk	-11.4855
▁sans	-11.4857
ыт	-11.4857
▁minister	-11.4857
▁Sir	-11.4857
▁Publicado	-11.4857
ском	-11.4857
▁pár	-11.4858
▁Wer	-11.4858
使用	-11.4859
▁조	-11.4859
HER	-11.486
▁CC	-11.486
iger	-11.4861
liet	-11.4861
▁Hat	-11.4862
קט	-11.4864
หน้า	-11.4864
ţă	-11.4865
shu	-11.4868
مس	-11.4868
ırı	-11.4869
▁Ari	-11.487
imus	-11.487
kové	-11.487
▁Mam	-11.487
▁darba	-11.4871
▁Sto	-11.4871
▁Ð	-11.4871
ambul	-11.4872
DF	-11.4872
▁aika	-11.4873
▁punto	-11.4873
MX	-11.4875
▁States	-11.4876
▁صورت	-11.4876
車	-11.4877
▁Cover	-11.4877
▁First	-11.4877
▁nota	-11.4877
▁vám	-11.4878
▁rész	-11.4879
eco	-11.488
治	-11.4883
HK	-11.4883
";	-11.4884
합	-11.4884
Ý	-11.4884
▁permainan	-11.4884
gera	-11.4885
বার	-11.4886
▁больш	-11.4886
mele	-11.4886
toon	-11.4886
▁aussi	-11.4888
ház	-11.4888
=0	-11.489
xona	-11.489
▁tâm	-11.4892
▁Qui	-11.4892
传	-11.4893
šā	-11.4893
值	-11.4893
ູ	-11.4894
ឲ្យ	-11.4894
vig	-11.4894
læg	-11.4895
زا	-11.4897
டை	-11.4898
/10/	-11.4901
▁пу	-11.4901
пон	-11.4902
loh	-11.4902
แล้ว	-11.4904
▁bằng	-11.4904
istes	-11.4905
▁sky	-11.4905
£	-11.4905
▁key	-11.4906
دد	-11.4908
▁Nederland	-11.4908
▁trend	-11.4908
kula	-11.4908
▁חי	-11.4909
kko	-11.4909
ਰੇ	-11.491
750	-11.4911
▁skil	-11.4911
ဲ	-11.4913
▁Custom	-11.4914
▁elektro	-11.4914
▁ہونے	-11.4914
133	-11.4914
▁dekor	-11.4915
▁pilot	-11.4916
▁fh	-11.4918
āti	-11.4919
stil	-11.4919
▁dog	-11.492
▁Kle	-11.492
▁Trung	-11.4921
rop	-11.4921
▁mann	-11.4921
▁GO	-11.4921
holder	-11.4921
▁degli	-11.4922
ડા	-11.4922
▁dịch	-11.4922
▁нема	-11.4923
cular	-11.4923
▁osta	-11.4923
έσ	-11.4923
raš	-11.4923
▁مختلف	-11.4923
▁호텔	-11.4923
▁mungkin	-11.4924
ской	-11.4926
▁190	-11.4928
▁tự	-11.4928
əli	-11.4928
ALE	-11.4929
3.2	-11.4929
▁Ref	-11.4929
yum	-11.4931
পা	-11.4931
MIN	-11.4931
այի	-11.4933
juma	-11.4933
গা	-11.4933
чна	-11.4933
▁bhfuil	-11.4933
▁Mana	-11.4934
خا	-11.4935
▁przed	-11.4935
▁ball	-11.4935
▁Mix	-11.4935
▁bisnis	-11.4936
▁blue	-11.4936
▁Си	-11.4937
ілі	-11.4937
ắc	-11.4938
▁été	-11.4938
už	-11.4939
▁jen	-11.494
վի	-11.4942
▁(11	-11.4942
ssy	-11.4942
转	-11.4942
▁ubu	-11.4942
pool	-11.4943
▁Technology	-11.4943
game	-11.4943
ష్	-11.4944
zol	-11.4945
데	-11.4945
শা	-11.4947
фо	-11.4947
ធ	-11.4948
సు	-11.4949
▁clo	-11.4951
শি	-11.4952
ျဖစ္	-11.4953
▁possible	-11.4953
▁aos	-11.4954
▁tla	-11.4954
anse	-11.4956
▁genom	-11.4956
піс	-11.4956
▁շ	-11.4956
▁audio	-11.4956
Φ	-11.4957
ácie	-11.4958
ız	-11.4958
zaj	-11.4959
רכב	-11.496
4°	-11.4961
sive	-11.4961
chte	-11.4962
9,00	-11.4962
类	-11.4963
ದ್ದ	-11.4963
▁dhu	-11.4963
▁Kam	-11.4963
אור	-11.4964
▁Yeni	-11.4964
▁panel	-11.4964
▁Ton	-11.4965
▁υπο	-11.4965
ริ	-11.4966
▁});	-11.4966
164	-11.4967
క్ష	-11.4968
rich	-11.4969
▁group	-11.4969
▁uta	-11.497
óc	-11.497
ზი	-11.497
øv	-11.497
ráð	-11.4971
已	-11.4972
ฮ	-11.4973
▁level	-11.4973
▁треба	-11.4974
inci	-11.4974
ustu	-11.4975
Za	-11.4976
tent	-11.4977
▁around	-11.4977
▁Silver	-11.4979
ဆို	-11.4979
čin	-11.4979
AND	-11.4979
------	-11.498
eniu	-11.4982
006	-11.4982
▁banda	-11.4982
▁ი	-11.4982
▁પા	-11.4982
тэр	-11.4982
▁window	-11.4982
▁COVID	-11.4983
플	-11.4983
▁ք	-11.4983
▁cell	-11.4984
▁Premier	-11.4984
▁основ	-11.4986
▁Hei	-11.4987
song	-11.4987
øl	-11.4987
TK	-11.4987
erge	-11.4988
▁वा	-11.4989
oedd	-11.4991
▁Visit	-11.4992
▁sare	-11.4992
▁oktober	-11.4993
▁230	-11.4993
ေရး	-11.4993
▁oficial	-11.4994
است	-11.4995
edu	-11.4996
ėje	-11.4996
tamine	-11.4997
▁spr	-11.4998
▁miest	-11.4998
▁instrument	-11.5
▁poč	-11.5
▁Rot	-11.5002
▁facebook	-11.5002
别	-11.5002
137	-11.5002
ไทย	-11.5003
▁bardzo	-11.5003
▁Έ	-11.5003
▁garant	-11.5004
sinde	-11.5005
▁720	-11.5005
ยา	-11.5006
maat	-11.5007
▁tutti	-11.5007
ият	-11.5008
த்தி	-11.5009
▁הר	-11.5011
ាន	-11.5011
Auto	-11.5012
indo	-11.5012
▁마	-11.5012
ंड	-11.5012
红	-11.5012
isia	-11.5013
款	-11.5013
▁điểm	-11.5013
▁Website	-11.5014
ilir	-11.5016
▁hartu	-11.5016
▁106	-11.5017
▁Cabdi	-11.5017
169	-11.5018
ðið	-11.5018
maksu	-11.5019
▁бош	-11.502
fli	-11.5021
ché	-11.5022
▁상	-11.5023
¡	-11.5023
txo	-11.5024
▁jalan	-11.5025
▁Danmark	-11.5025
▁sir	-11.5025
kers	-11.5026
CF	-11.5026
eken	-11.5026
lief	-11.5027
לת	-11.5027
nang	-11.5029
fis	-11.5029
▁2014.	-11.5029
▁Style	-11.503
dou	-11.5034
icio	-11.5035
លើ	-11.5035
rni	-11.5036
▁TP	-11.5036
ನ್ನು	-11.5036
▁ditë	-11.5036
▁sano	-11.5037
▁सि	-11.5038
▁chama	-11.5038
ಖ	-11.5039
mok	-11.504
▁thai	-11.5041
vesti	-11.5042
▁дел	-11.5043
▁kasi	-11.5043
▁informacij	-11.5044
▁hög	-11.5045
▁[1]	-11.5045
BP	-11.5045
▁PRE	-11.5045
ంత	-11.5045
▁Ша	-11.5046
cum	-11.5048
іць	-11.5048
104	-11.5048
ACC	-11.5049
▁Ano	-11.5051
ುವ	-11.5051
▁gum	-11.5052
足球	-11.5052
▁pov	-11.5053
办	-11.5053
▁elev	-11.5054
зь	-11.5055
▁huis	-11.5056
My	-11.5056
hó	-11.506
156	-11.506
2.0	-11.506
සු	-11.5061
거	-11.5061
▁108	-11.5061
рай	-11.5062
▁jó	-11.5062
hard	-11.5062
▁Rob	-11.5063
▁también	-11.5063
▁qarşı	-11.5063
▁davlat	-11.5063
▁vam	-11.5064
ոլ	-11.5065
▁nord	-11.5065
jár	-11.5065
гд	-11.5066
ATI	-11.5067
▁skor	-11.5067
વે	-11.5069
▁gid	-11.5069
▁Zeit	-11.507
▁hom	-11.507
▁city	-11.5071
▁Hair	-11.5073
สําหรับ	-11.5073
ቅ	-11.5073
▁Amsterdam	-11.5073
▁ರ	-11.5075
▁Ρ	-11.5075
▁ڪ	-11.5076
UF	-11.5076
▁Beste	-11.5076
mest	-11.5076
▁Term	-11.5076
tín	-11.5077
▁prostor	-11.5077
owym	-11.5078
guard	-11.5078
▁Metro	-11.5078
▁olduğunu	-11.5078
▁rezultat	-11.5078
lice	-11.5079
151	-11.5079
సి	-11.5079
EY	-11.508
▁Jon	-11.5081
ිය	-11.5081
лей	-11.5081
▁deres	-11.5081
यो	-11.5083
▁zelf	-11.5085
▁primera	-11.5085
▁arra	-11.5085
▁Services	-11.5086
дет	-11.5087
▁volta	-11.5087
hör	-11.5088
feld	-11.5088
▁jis	-11.5088
▁સં	-11.5088
με	-11.5089
▁방	-11.5089
▁қара	-11.5089
ībā	-11.5089
hv	-11.509
αφ	-11.5092
香港	-11.5093
▁tarafından	-11.5093
Ё	-11.5093
meli	-11.5093
▁kitu	-11.5094
▁viktig	-11.5095
▁Lab	-11.5095
øk	-11.5096
sien	-11.5096
▁က	-11.5096
▁ölkə	-11.5097
wyd	-11.5097
▁tí	-11.5098
▁host	-11.5099
ņa	-11.5099
rate	-11.51
rede	-11.51
сла	-11.5101
скиот	-11.5102
▁near	-11.5102
▁sera	-11.5103
餐	-11.5103
▁través	-11.5103
▁december	-11.5103
▁ilma	-11.5103
лага	-11.5104
รี	-11.5105
▁enkelt	-11.5106
▁hadde	-11.5108
▁ચ	-11.5108
▁эш	-11.5109
१	-11.511
▁respons	-11.511
jón	-11.5111
ミ	-11.5113
ые	-11.5113
rö	-11.5113
size	-11.5114
▁shar	-11.5115
cinta	-11.5115
▁Dir	-11.5116
▁risk	-11.5116
▁й	-11.5117
▁это	-11.5117
ура	-11.5117
146	-11.5118
▁Jos	-11.5118
▁ekstra	-11.5119
▁Kh	-11.5119
▁ski	-11.512
▁Vend	-11.5121
▁אם	-11.5121
tott	-11.5121
lərdə	-11.5122
স্ট	-11.5122
▁voru	-11.5122
ğu	-11.5123
▁LO	-11.5124
klo	-11.5124
▁Africa	-11.5124
ከ	-11.5124
▁Donald	-11.5125
▁უ	-11.5125
▁daug	-11.5126
▁mí	-11.5126
▁intr	-11.5127
യാണ്	-11.5127
▁Ost	-11.5127
▁Edi	-11.5128
પી	-11.5128
EUR	-11.5129
ларда	-11.5129
▁hanno	-11.513
▁হা	-11.513
وك	-11.5131
▁talent	-11.5131
▁Монгол	-11.5132
кам	-11.5133
දා	-11.5135
tawa	-11.5136
▁bera	-11.5137
hui	-11.5137
pris	-11.5138
кат	-11.5138
ENA	-11.5138
&#	-11.5139
ėti	-11.5139
hvi	-11.514
قت	-11.5141
▁procent	-11.5141
▁Pet	-11.5142
▁slot	-11.5142
rè	-11.5142
赛	-11.5142
rena	-11.5143
АР	-11.5143
▁2,5	-11.5143
▁ਵਿੱਚ	-11.5143
▁next	-11.5145
owane	-11.5145
▁baby	-11.5146
▁អ	-11.5146
ряд	-11.5147
trans	-11.5147
▁עד	-11.5147
ћа	-11.5148
▁لي	-11.515
▁Հայաստանի	-11.515
520	-11.515
▁SMS	-11.515
cole	-11.515
ъл	-11.515
▁आप	-11.515
▁inclu	-11.5151
▁19:00	-11.5152
▁health	-11.5154
تاريخ	-11.5154
▁iPad	-11.5154
720	-11.5154
▁شما	-11.5155
çu	-11.5155
Book	-11.5156
ယ	-11.5156
▁Moto	-11.5156
▁Donna	-11.5156
▁huyo	-11.5157
ର	-11.5158
tulo	-11.5158
egy	-11.5158
▁food	-11.5158
скай	-11.5159
▁KE	-11.5159
fte	-11.5159
▁camera	-11.5159
▁102	-11.5159
▁wenn	-11.5161
▁জা	-11.5162
dott	-11.5162
▁Yan	-11.5163
목	-11.5164
▁הד	-11.5164
▁Saya	-11.5166
▁IV	-11.5166
▁12:00	-11.5167
▁104	-11.5167
▁wanita	-11.5169
▁GPS	-11.5169
▁timp	-11.5169
▁320	-11.517
سب	-11.517
/01/	-11.5171
kili	-11.5171
▁Town	-11.5171
əsi	-11.5172
kooli	-11.5173
▁AG	-11.5175
rade	-11.5176
fica	-11.5176
▁2012,	-11.5176
▁Fall	-11.5177
▁très	-11.5178
▁Ай	-11.5178
оқ	-11.5179
▁مد	-11.5179
▁tarif	-11.5181
한다	-11.5181
سٹ	-11.5182
logi	-11.5183
ére	-11.5184
OW	-11.5185
ooyinka	-11.5185
▁Ту	-11.5185
gp	-11.5186
▁segir	-11.5188
▁visita	-11.5188
әт	-11.5189
▁yaz	-11.5189
任	-11.5189
中心	-11.519
▁pomoc	-11.5191
▁Deze	-11.5191
panjang	-11.5192
▁ਸੀ	-11.5193
▁malam	-11.5193
СТ	-11.5194
ډ	-11.5194
▁Andre	-11.5195
▁Aquest	-11.5196
▁bana	-11.5197
▁غیر	-11.5197
ამ	-11.5197
meye	-11.5198
▁yako	-11.5198
tys	-11.5199
▁клуб	-11.5199
▁жас	-11.5199
▁dituzte	-11.52
innen	-11.5201
▁tác	-11.5203
▁հայ	-11.5204
▁üzrə	-11.5204
▁Galicia	-11.5205
▁immer	-11.5205
KP	-11.5205
▁مق	-11.5206
tiri	-11.5207
verse	-11.5209
▁нам	-11.5209
▁Sama	-11.5212
节	-11.5214
▁ಕಾ	-11.5214
▁باشد	-11.5215
ിച്ച	-11.5215
▁söz	-11.5215
▁kuva	-11.5215
▁škol	-11.5216
▁които	-11.5217
▁ihr	-11.5218
▁sug	-11.5218
▁Ак	-11.5219
▁оны	-11.5219
tuak	-11.5219
ິ	-11.522
cado	-11.5221
ures	-11.5223
田	-11.5224
▁Episode	-11.5225
▁گزارش	-11.5225
▁mtu	-11.5225
kati	-11.5225
/2015	-11.5226
▁libre	-11.5227
▁continu	-11.5227
ять	-11.5228
DK	-11.5228
έχ	-11.5228
▁해	-11.5229
אפשר	-11.523
▁Kids	-11.5231
▁Human	-11.5234
كو	-11.5236
▁Fond	-11.5238
▁mada	-11.5239
▁ក្នុង	-11.5239
▁bog	-11.524
ený	-11.524
سلام	-11.5242
landı	-11.5242
军	-11.5243
▁vier	-11.5243
▁Antonio	-11.5243
umbu	-11.5243
வே	-11.5244
305	-11.5244
ਮਾ	-11.5245
▁fotografi	-11.5245
亚	-11.5245
õr	-11.5245
2.3	-11.5246
υλ	-11.5246
ларини	-11.5246
กา	-11.5247
πι	-11.5247
广	-11.5247
vê	-11.5248
990	-11.5249
gado	-11.525
ræn	-11.5251
▁paper	-11.5253
ด้วย	-11.5255
▁cầu	-11.5255
▁naka	-11.5256
▁пол	-11.5256
▁جائے	-11.5256
▁року	-11.5256
डा	-11.5258
DY	-11.5259
▁president	-11.5259
ాడు	-11.5261
▁vari	-11.5261
¿	-11.5261
kide	-11.5261
Er	-11.5263
lana	-11.5266
215	-11.5268
▁свој	-11.5269
▁ส	-11.5269
ეთ	-11.527
ccia	-11.527
ombi	-11.527
door	-11.5271
צל	-11.5272
Կ	-11.5272
[...]
