{
  "version": "1.0",
  "truncation": null,
  "padding": null,
  "added_tokens": [
    {
      "id": 0,
      "content": "[UNK]",
      "single_word": false,
      "lstrip": false,
      "rstrip": false,
      "normalized": false,
      "special": true
    },
    {
      "id": 1,
      "content": "[CLS]",
      "single_word": false,
      "lstrip": false,
      "rstrip": false,
      "normalized": false,
      "special": true
    },
    {
      "id": 2,
      "content": "[SEP]",
      "single_word": false,
      "lstrip": false,
      "rstrip": false,
      "normalized": false,
      "special": true
    },
    {
      "id": 3,
      "content": "[PAD]",
      "single_word": false,
      "lstrip": false,
      "rstrip": false,
      "normalized": false,
      "special": true
    },
    {
      "id": 4,
      "content": "[MASK]",
      "single_word": false,
      "lstrip": false,
      "rstrip": false,
      "normalized": false,
      "special": true
    }
  ],
  "normalizer": {
    "type": "NFKC"
  },
  "pre_tokenizer": {
    "type": "ByteLevel",
    "add_prefix_space": false,
    "trim_offsets": true,
    "use_regex": true
  },
  "post_processor": {
    "type": "ByteLevel",
    "add_prefix_space": true,
    "trim_offsets": false,
    "use_regex": true
  },
  "decoder": {
    "type": "ByteLevel",
    "add_prefix_space": true,
    "trim_offsets": true,
    "use_regex": true
  },
  "model": {
    "type": "BPE",
    "dropout": null,
    "unk_token": null,
    "continuing_subword_prefix": null,
    "end_of_word_suffix": null,
    "fuse_unk": false,
    "byte_fallback": false,
    "ignore_merges": false,
    "vocab": {
      "[UNK]": 0,
      "[CLS]": 1,
      "[SEP]": 2,
      "[PAD]": 3,
      "[MASK]": 4,
      "!": 5,
      "\"": 6,
      "#": 7,
      "$": 8,
      "%": 9,
      "&": 10,
      "'": 11,
      "(": 12,
      ")": 13,
      "*": 14,
      "+": 15,
      ",": 16,
      "-": 17,
      ".": 18,
      "/": 19,
      "0": 20,
      "1": 21,
      "2": 22,
      "3": 23,
      "4": 24,
      "5": 25,
      "6": 26,
      "7": 27,
      "8": 28,
      "9": 29,
      ":": 30,
      ";": 31,
      "<": 32,
      "=": 33,
      ">": 34,
      "?": 35,
      "@": 36,
      "A": 37,
      "B": 38,
      "C": 39,
      "D": 40,
      "E": 41,
      "F": 42,
      "G": 43,
      "H": 44,
      "I": 45,
      "J": 46,
      "K": 47,
      "L": 48,
      "M": 49,
      "N": 50,
      "O": 51,
      "P": 52,
      "Q": 53,
      "R": 54,
      "S": 55,
      "T": 56,
      "U": 57,
      "V": 58,
      "W": 59,
      "X": 60,
      "Y": 61,
      "Z": 62,
      "[": 63,
      "\\": 64,
      "]": 65,
      "^": 66,
      "_": 67,
      "`": 68,
      "a": 69,
      "b": 70,
      "c": 71,
      "d": 72,
      "e": 73,
      "f": 74,
      "g": 75,
      "h": 76,
      "i": 77,
      "j": 78,
      "k": 79,
      "l": 80,
      "m": 81,
      "n": 82,
      "o": 83,
      "p": 84,
      "q": 85,
      "r": 86,
      "s": 87,
      "t": 88,
      "u": 89,
      "v": 90,
      "w": 91,
      "x": 92,
      "y": 93,
      "z": 94,
      "{": 95,
      "|": 96,
      "}": 97,
      "~": 98,
      "¡": 99,
      "¢": 100,
      "£": 101,
      "¤": 102,
      "¥": 103,
      "¦": 104,
      "§": 105,
      "¨": 106,
      "©": 107,
      "ª": 108,
      "«": 109,
      "¬": 110,
      "®": 111,
      "¯": 112,
      "°": 113,
      "±": 114,
      "²": 115,
      "³": 116,
      "´": 117,
      "µ": 118,
      "¶": 119,
      "·": 120,
      "¸": 121,
      "¹": 122,
      "º": 123,
      "»": 124,
      "¼": 125,
      "½": 126,
      "¾": 127,
      "¿": 128,
      "À": 129,
      "Á": 130,
      "Â": 131,
      "Ã": 132,
      "Ä": 133,
      "Å": 134,
      "Æ": 135,
      "Ç": 136,
      "È": 137,
      "É": 138,
      "Ê": 139,
      "Ë": 140,
      "Ì": 141,
      "Í": 142,
      "Î": 143,
      "Ï": 144,
      "Ð": 145,
      "Ñ": 146,
      "Ò": 147,
      "Ó": 148,
      "Ô": 149,
      "Õ": 150,
      "Ö": 151,
      "×": 152,
      "Ø": 153,
      "Ù": 154,
      "Ú": 155,
      "Û": 156,
      "Ü": 157,
      "Ý": 158,
      "Þ": 159,
      "ß": 160,
      "à": 161,
      "á": 162,
      "â": 163,
      "ã": 164,
      "ä": 165,
      "å": 166,
      "æ": 167,
      "ç": 168,
      "è": 169,
      "é": 170,
      "ê": 171,
      "ë": 172,
      "ì": 173,
      "í": 174,
      "î": 175,
      "ï": 176,
      "ð": 177,
      "ñ": 178,
      "ò": 179,
      "ó": 180,
      "ô": 181,
      "õ": 182,
      "ö": 183,
      "÷": 184,
      "ø": 185,
      "ù": 186,
      "ú": 187,
      "û": 188,
      "ü": 189,
      "ý": 190,
      "þ": 191,
      "ÿ": 192,
      "Ā": 193,
      "ā": 194,
      "Ă": 195,
      "ă": 196,
      "Ą": 197,
      "ą": 198,
      "Ć": 199,
      "ć": 200,
      "Ĉ": 201,
      "ĉ": 202,
      "Ċ": 203,
      "ċ": 204,
      "Č": 205,
      "č": 206,
      "Ď": 207,
      "ď": 208,
      "Đ": 209,
      "đ": 210,
      "Ē": 211,
      "ē": 212,
      "Ĕ": 213,
      "ĕ": 214,
      "Ė": 215,
      "ė": 216,
      "Ę": 217,
      "ę": 218,
      "Ě": 219,
      "ě": 220,
      "Ĝ": 221,
      "ĝ": 222,
      "Ğ": 223,
      "ğ": 224,
      "Ġ": 225,
      "ġ": 226,
      "Ģ": 227,
      "ģ": 228,
      "Ĥ": 229,
      "ĥ": 230,
      "Ħ": 231,
      "ħ": 232,
      "Ĩ": 233,
      "ĩ": 234,
      "Ī": 235,
      "ī": 236,
      "Ĭ": 237,
      "ĭ": 238,
      "Į": 239,
      "į": 240,
      "İ": 241,
      "ı": 242,
      "Ĳ": 243,
      "ĳ": 244,
      "Ĵ": 245,
      "ĵ": 246,
      "Ķ": 247,
      "ķ": 248,
      "ĸ": 249,
      "Ĺ": 250,
      "ĺ": 251,
      "Ļ": 252,
      "ļ": 253,
      "Ľ": 254,
      "ľ": 255,
      "Ŀ": 256,
      "ŀ": 257,
      "Ł": 258,
      "ł": 259,
      "Ń": 260,
      "Ð°": 261,
      "Ġà": 262,
      "ĠÐ": 263,
      "an": 264,
      "er": 265,
      "en": 266,
      "in": 267,
      "áĥ": 268,
      "Ġd": 269,
      "Ġs": 270,
      "ar": 271,
      "áĢ": 272,
      "à¤": 273,
      "à¸": 274,
      "Ð¾": 275,
      "Ð¸": 276,
      "Ðµ": 277,
      "Ġp": 278,
      "Ð½": 279,
      "Ġt": 280,
      "áŀ": 281,
      "ÑĤ": 282,
      "Ġa": 283,
      "ÑĢ": 284,
      "Ġm": 285,
      "es": 286,
      "on": 287,
      "Ø§": 288,
      "at": 289,
      "al": 290,
      "à¦": 291,
      "à´": 292,
      "or": 293,
      "à²": 294,
      "à°": 295,
      "Ġk": 296,
      "Ġn": 297,
      "is": 298,
      "à®": 299,
      "el": 300,
      "Ð»": 301,
      "Ñģ": 302,
      "as": 303,
      "et": 304,
      "âĢ": 305,
      "Ġb": 306,
      "it": 307,
      "Ġv": 308,
      "àª": 309,
      "ĠØ": 310,
      "Ġl": 311,
      "Ġ×": 312,
      "Ġc": 313,
      "il": 314,
      "Ð°Ð": 315,
      "om": 316,
      "à·": 317,
      "un": 318,
      "Ñĥ": 319,
      "Ġh": 320,
      "à¥": 321,
      "am": 322,
      "re": 323,
      "Ġo": 324,
      "à¶": 325,
      "ĠÙ": 326,
      "os": 327,
      "ad": 328,
      "Ð´": 329,
      "Ġf": 330,
      "¿½": 331,
      "Ġà¤": 332,
      "ï¿½": 333,
      "ãģ": 334,
      "ur": 335,
      "à¯": 336,
      "em": 337,
      "Ø§Ù": 338,
      "Ðº": 339,
      "àµ": 340,
      "Ø±": 341,
      "à¨": 342,
      "ak": 343,
      "Ġ1": 344,
      "ti": 345,
      "ÛĮ": 346,
      "Ñĭ": 347,
      "ĠS": 348,
      "ch": 349,
      "Ġ2": 350,
      "ed": 351,
      "us": 352,
      "Ġg": 353,
      "ol": 354,
      "ĠÎ": 355,
      "Ã¡": 356,
      "..": 357,
      "Õ¡": 358,
      "ir": 359,
      "Ġw": 360,
      "ik": 361,
      "Ġde": 362,
      "Ð¾Ð": 363,
      "id": 364,
      "à±": 365,
      "ĠA": 366,
      "à³": 367,
      "×Ļ": 368,
      "im": 369,
      "Ã©": 370,
      "ro": 371,
      "ÙĪ": 372,
      "ĠM": 373,
      "Ġe": 374,
      "ul": 375,
      "áŁ": 376,
      "Ñĸ": 377,
      "ag": 378,
      "te": 379,
      "ï¿½ï¿½": 380,
      "à¹": 381,
      "ie": 382,
      "ing": 383,
      "×ķ": 384,
      "ĠP": 385,
      "Ġ(": 386,
      "Õ¡Õ": 387,
      "Ġj": 388,
      "ta": 389,
      "à§": 390,
      "Î±": 391,
      "Ð¼": 392,
      "à«": 393,
      "ra": 394,
      "ĠÕ": 395,
      "ic": 396,
      "00": 397,
      "ĠÑ": 398,
      "ĠÃ": 399,
      "Ø§Ø": 400,
      "Ġin": 401,
      "ÏĦ": 402,
      "ent": 403,
      "ĠB": 404,
      "ĠC": 405,
      "um": 406,
      "ÙĨ": 407,
      "01": 408,
      "ia": 409,
      "ĠT": 410,
      "ut": 411,
      "le": 412,
      "ig": 413,
      "Î¿": 414,
      "Ã«": 415,
      "Ã¤": 416,
      "àº": 417,
      "Ġà¦": 418,
      "×ķ×": 419,
      "Ð²": 420,
      "ang": 421,
      "Ġàª": 422,
      "à¯į": 423,
      "ÃŃ": 424,
      "àµį": 425,
      "ĠD": 426,
      "Î¹": 427,
      "Ä±": 428,
      "Ð³": 429,
      "×Ļ×": 430,
      "and": 431,
      "ot": 432,
      "ĠÑģ": 433,
      "ÉĻ": 434,
      "à¤¾": 435,
      "ãĢ": 436,
      "Ð°Ð½": 437,
      "Ġi": 438,
      "ÙĬ": 439,
      "á»": 440,
      "ÙĦ": 441,
      "ek": 442,
      "Ð°ÑĢ": 443,
      "ĠÐ¿": 444,
      "Ġz": 445,
      "ãĤ": 446,
      "Ñı": 447,
      "Ġy": 448,
      "Ùħ": 449,
      "áĥĲ": 450,
      "Ġ-": 451,
      "Ú©": 452,
      "he": 453,
      "st": 454,
      "Øª": 455,
      "ãĥ": 456,
      "Ġr": 457,
      "ĠK": 458,
      "ay": 459,
      "od": 460,
      "ab": 461,
      "Ġà°": 462,
      "ĠÐ½": 463,
      "Îµ": 464,
      "Ð°Ñ": 465,
      "Ø¯": 466,
      "Ġà¶": 467,
      "Ø§ÙĦ": 468,
      "Ùĩ": 469,
      "Î½": 470,
      "Ã³": 471,
      "ÖĢ": 472,
      "Ġà²": 473,
      "ĠâĢ": 474,
      "ĠL": 475,
      "ap": 476,
      "ac": 477,
      "ĠE": 478,
      "Ġà¨": 479,
      "ov": 480,
      "ah": 481,
      "qu": 482,
      "âĢĭ": 483,
      "ĠN": 484,
      "Ġáĥ": 485,
      "Ġà®": 486,
      "eg": 487,
      "ĠÐ±": 488,
      "ĠÐº": 489,
      "à©": 490,
      "ĠH": 491,
      "ĠI": 492,
      "Ð·": 493,
      "áĥĲáĥ": 494,
      "Ġen": 495,
      "ÐµÐ½": 496,
      "ĠR": 497,
      "Õ¸": 498,
      "áĥĺ": 499,
      "ĠÐ´": 500,
      "ion": 501,
      "Ð°Ð»": 502,
      "ÑģÑĤ": 503,
      "ri": 504,
      "Ð°ÑĤ": 505,
      "ĠG": 506,
      "ud": 507,
      "uk": 508,
      "Ã¶": 509,
      "Ġà´": 510,
      "ĠF": 511,
      "ok": 512,
      "Ïģ": 513,
      "Ïĥ": 514,
      "com": 515,
      "Å¡": 516,
      "à¥į": 517,
      "ĠÑĤ": 518,
      "à¦¾": 519,
      "Ã¼": 520,
      "ĠÙħ": 521,
      "Ġna": 522,
      "Ð¿": 523,
      "Ġì": 524,
      "à¤°": 525,
      "Ð¸Ñ": 526,
      "est": 527,
      "Õ¥": 528,
      "ĠÐ²": 529,
      "à³į": 530,
      "ĠV": 531,
      "Ġun": 532,
      "ist": 533,
      "Õ¶": 534,
      "Ġ201": 535,
      "Ġla": 536,
      "iv": 537,
      "ÑĮ": 538,
      "ä¸": 539,
      "ec": 540,
      "à±į": 541,
      "ĠÚ©": 542,
      "Ð±": 543,
      "Ġ3": 544,
      "à¸²": 545,
      "iz": 546,
      "ĠÐ¼": 547,
      "og": 548,
      "ÏĢ": 549,
      "av": 550,
      "ĠÐ¸": 551,
      "ĠÐ¾": 552,
      "àª¾": 553,
      "Ġal": 554,
      "Äģ": 555,
      "ter": 556,
      "ww": 557,
      "ĠØ§ÙĦ": 558,
      "×¨": 559,
      "áŁĴ": 560,
      "áĥĶ": 561,
      "ĠW": 562,
      "Õ«": 563,
      "Ø³": 564,
      "áº": 565,
      "...": 566,
      "Ġse": 567,
      "op": 568,
      "à·Ĭ": 569,
      "Äį": 570,
      "end": 571,
      "ÐµÑĢ": 572,
      "Ð¹": 573,
      "ÖĤ": 574,
      "Ã°": 575,
      "ng": 576,
      "à¥ĩ": 577,
      "×Ķ": 578,
      "áŀ¶": 579,
      "ÏĤ": 580,
      "à§ĩ": 581,
      "Ñį": 582,
      "Î·": 583,
      "ers": 584,
      "ĠO": 585,
      "la": 586,
      ",\"": 587,
      "Ïħ": 588,
      "Ġre": 589,
      "áĢ¹": 590,
      "ĠØ¨": 591,
      "à²¿": 592,
      "à¦°": 593,
      "li": 594,
      "ai": 595,
      "aj": 596,
      "up": 597,
      "áĥĶáĥ": 598,
      "ĠJ": 599,
      "Ñĩ": 600,
      "à¸²à¸": 601,
      "×ľ": 602,
      "Ġqu": 603,
      "Ð¾Ð²": 604,
      "Ø¨": 605,
      "ci": 606,
      "Ã¥": 607,
      "à´¿": 608,
      "áĪ": 609,
      "ÑĪ": 610,
      "eb": 611,
      "Ø§ÙĨ": 612,
      "à°¿": 613,
      "Å¾": 614,
      "Ð¸Ð½": 615,
      "ĠÐ·": 616,
      "Ġpr": 617,
      "Ð¾ÑĢ": 618,
      "ub": 619,
      "à¯ģ": 620,
      "Ġsa": 621,
      "ow": 622,
      "ï¿½ï¿½ï¿½ï¿½": 623,
      "Ġan": 624,
      "Ġst": 625,
      "âĢĻ": 626,
      "à·Ĵ": 627,
      "Ġat": 628,
      "Ġto": 629,
      "à¤¿": 630,
      "Ġdi": 631,
      "de": 632,
      "à®¿": 633,
      "ĠÄ": 634,
      "áĥĺáĥ": 635,
      "ne": 636,
      "Ġpro": 637,
      "ka": 638,
      "à¤¨": 639,
      "Ûģ": 640,
      "ìĿ": 641,
      "Ð¾Ð»": 642,
      "ĠÙĪ": 643,
      "à¸Ļ": 644,
      "ÅŁ": 645,
      "\":": 646,
      "ob": 647,
      "à°¾": 648,
      "ÛĴ": 649,
      "ĠáĢ": 650,
      "Ġ×Ķ": 651,
      "Õ¸ÖĤ": 652,
      "ara": 653,
      "Ġon": 654,
      "ug": 655,
      "×Ĳ": 656,
      "Ġ4": 657,
      "ht": 658,
      "se": 659,
      "à®ķ": 660,
      "Î¼": 661,
      "Ġ0": 662,
      "Ð°Ð¼": 663,
      "à±ģ": 664,
      "à§į": 665,
      "ÒĽ": 666,
      "áĢ¸": 667,
      "Î»": 668,
      "ant": 669,
      "Ò¯": 670,
      "Ġwww": 671,
      "áŀĵ": 672,
      "ij": 673,
      "Ġar": 674,
      "à¶±": 675,
      "ĠÏĦ": 676,
      "Ð¾Ð½": 677,
      "Ð°Ð²": 678,
      "az": 679,
      "à®¤": 680,
      "ev": 681,
      "Ġel": 682,
      "ÐµÑĤ": 683,
      "Îº": 684,
      "à¤ķ": 685,
      "äº": 686,
      "Ġth": 687,
      "Ð°Ð´": 688,
      "Õ¡Õ¶": 689,
      "áĢ¬": 690,
      "Ġthe": 691,
      "sk": 692,
      "ĠÐ¿ÑĢ": 693,
      "×ª": 694,
      "Ġë": 695,
      "Ø¹": 696,
      "Ġ|": 697,
      "à«ĩ": 698,
      "à´¨": 699,
      "\",\"": 700,
      "à²°": 701,
      "ou": 702,
      "Ð¸ÑĤ": 703,
      "Ġ5": 704,
      "ĠØ¯": 705,
      "ÑĨ": 706,
      "ib": 707,
      "ĠU": 708,
      "Î¯": 709,
      "Ġu": 710,
      "io": 711,
      "à¦¿": 712,
      "ine": 713,
      "Ñħ": 714,
      "áŀļ": 715,
      "×ŀ": 716,
      "Ġcon": 717,
      "Ġis": 718,
      "na": 719,
      "ga": 720,
      "Ġfor": 721,
      "ost": 722,
      "201": 723,
      "Ġ\"": 724,
      "Ġet": 725,
      "Ð°Ñģ": 726,
      "art": 727,
      "oj": 728,
      "Ġer": 729,
      "Ó©": 730,
      "ip": 731,
      "oc": 732,
      "à¸Ń": 733,
      "âĢĿ": 734,
      "ez": 735,
      "Ø©": 736,
      "ep": 737,
      "à¹Ī": 738,
      "ya": 739,
      "da": 740,
      "ess": 741,
      "Ð°Ð¹": 742,
      "Ð°Ðº": 743,
      "à³ģ": 744,
      "àµģ": 745,
      "Ãł": 746,
      "à²¾": 747,
      "ÓĻ": 748,
      "Ø§Ø±": 749,
      "Ġá": 750,
      "Ġch": 751,
      "à´ķ": 752,
      "Ġof": 753,
      "à¥Ģ": 754,
      "ÐµÐ»": 755,
      "20": 756,
      "à°°": 757,
      "à¸£": 758,
      "ĠØª": 759,
      "Ð¾Ð´": 760,
      "ĠÑĥ": 761,
      "à°¨": 762,
      "ni": 763,
      "tr": 764,
      "Ã§": 765,
      "×¢": 766,
      "ÏĮ": 767,
      "lar": 768,
      "Ãº": 769,
      "ĠÑĢ": 770,
      "eng": 771,
      "àª°": 772,
      "Ġtr": 773,
      "ort": 774,
      "áĢº": 775,
      "Ġda": 776,
      "Ġand": 777,
      "ung": 778,
      "ind": 779,
      "à¥ĭ": 780,
      "Ð¾Ð¼": 781,
      "áŀĢ": 782,
      "ĠÐ½Ð°": 783,
      "×ĳ": 784,
      "áĥĿ": 785,
      "Î¬": 786,
      "à¨¾": 787,
      "à²¦": 788,
      "ĠÂ": 789,
      "×©": 790,
      "ĠÐ³": 791,
      "à¤¤": 792,
      "Ġ×Ĳ": 793,
      "ÙĤ": 794,
      "Ġog": 795,
      "10": 796,
      "Ð¶": 797,
      "Ð¸Ð»": 798,
      "Ġper": 799,
      "ĠâĢĵ": 800,
      "Ġque": 801,
      "à°Ĥ": 802,
      "Ġà¸": 803,
      "Ã½": 804,
      "ell": 805,
      "à·ı": 806,
      "Ġes": 807,
      "Ð¾ÑĤ": 808,
      "Äĥ": 809,
      "ill": 810,
      "Ä«": 811,
      "à´¤": 812,
      "Ø´": 813,
      "ari": 814,
      "à¦¨": 815,
      "áĢ¯": 816,
      "Õ¥Õ": 817,
      "à´¾": 818,
      "Ġte": 819,
      "ÑĭÐ½": 820,
      "ada": 821,
      "Ģà¸": 822,
      "Î¿Ïħ": 823,
      "ce": 824,
      "åı": 825,
      "Ġdo": 826,
      "ha": 827,
      "ĠØ³": 828,
      "Ùģ": 829,
      "Ġcom": 830,
      "pr": 831,
      "ÖĢÕ": 832,
      "×ł": 833,
      "áĢĢ": 834,
      "are": 835,
      "Ãª": 836,
      "Ã¦": 837,
      "ma": 838,
      "AA": 839,
      "ana": 840,
      "à¶º": 841,
      "à¤²": 842,
      "Õ¸ÖĤÕ": 843,
      "Ġ×ŀ": 844,
      "áĢ±": 845,
      "si": 846,
      "áĢŃ": 847,
      "à°²": 848,
      "à¹ī": 849,
      "à«į": 850,
      "ast": 851,
      "ja": 852,
      "Ġà¤ķ": 853,
      "nd": 854,
      "Ġ×ľ": 855,
      "pl": 856,
      "wa": 857,
      "àª¨": 858,
      "Ð¾Ð³": 859,
      "à«Ģ": 860,
      "ere": 861,
      "Ġ×ĳ": 862,
      "Ġ6": 863,
      "à³Ĩ": 864,
      "à®°": 865,
      "à®¾": 866,
      "å¤": 867,
      "Ġsi": 868,
      "ĠØ§Ø": 869,
      "Ġng": 870,
      "all": 871,
      "ÐµÐ´": 872,
      "áŀĶ": 873,
      "æľ": 874,
      "und": 875,
      "11": 876,
      "à®Ł": 877,
      "Ġà·": 878,
      "Ð°Ð·": 879,
      "áĥĿáĥ": 880,
      "ÐµÐº": 881,
      "å®": 882,
      "Ġle": 883,
      "à¸±": 884,
      "áĢĲ": 885,
      "Äĵ": 886,
      "ate": 887,
      "ĠĠ": 888,
      "ĠÐ¶": 889,
      "Ð¸Ðº": 890,
      "Ġsp": 891,
      "ĠÙĨ": 892,
      "ans": 893,
      "to": 894,
      "ru": 895,
      "à¤¯": 896,
      "à¶»": 897,
      "Ġma": 898,
      "ation": 899,
      "à´°": 900,
      "ens": 901,
      "ãĢĲ": 902,
      "ãĢĳ": 903,
      "ina": 904,
      "Ú¯": 905,
      "th": 906,
      "ÑģÐº": 907,
      "Ġ.": 908,
      "à¤®": 909,
      "ke": 910,
      "Ã¸": 911,
      "Ġq": 912,
      "áī": 913,
      "×ķ×ª": 914,
      "ver": 915,
      "à¸µ": 916,
      "à²¨": 917,
      "je": 918,
      "Ð½Ð¾": 919,
      "à¸ĩ": 920,
      "à»": 921,
      "áĢĦ": 922,
      "Ø§ÛĮ": 923,
      "ord": 924,
      "áŀĺ": 925,
      "\":\"": 926,
      "×Ļ×Ŀ": 927,
      "à²²": 928,
      "ãĢģ": 929,
      "à¶Ń": 930,
      "à·Ģ": 931,
      "ko": 932,
      "Ø¬": 933,
      "áŀŁ": 934,
      "ho": 935,
      "22": 936,
      "ĠÄĳ": 937,
      "ĠÏĢ": 938,
      "à¸ģ": 939,
      "à´¯": 940,
      "ØŃ": 941,
      "×ĵ": 942,
      "Ġ19": 943,
      "à¹Ģà¸": 944,
      "Äħ": 945,
      "Ġ7": 946,
      "ÐµÐ¼": 947,
      "Ġme": 948,
      "no": 949,
      "iy": 950,
      "ata": 951,
      "ien": 952,
      "íķ": 953,
      "à·Ķ": 954,
      "Ġas": 955,
      "Ġ×©": 956,
      "Ð¸ÑĢ": 957,
      "//": 958,
      "ÄĹ": 959,
      "à¤Ĥ": 960,
      "ong": 961,
      "ĠÎº": 962,
      "Ġam": 963,
      "Ġne": 964,
      "Ġdie": 965,
      "tu": 966,
      "à²¤": 967,
      "if": 968,
      "Ä±n": 969,
      "åĪ": 970,
      "åħ": 971,
      "Ġpar": 972,
      "à®©": 973,
      "ÎŃ": 974,
      "Ġ:": 975,
      "Ø²": 976,
      "Ïī": 977,
      "Ð¸Ð¼": 978,
      "ide": 979,
      "×Ĺ": 980,
      "à®®": 981,
      "me": 982,
      "à¦¯": 983,
      "ãĢĤ": 984,
      "ĠÏĥ": 985,
      "Ġje": 986,
      "Ġ8": 987,
      "Ð°Ð³": 988,
      "Ġja": 989,
      "Ã©s": 990,
      "ãĢĳãĢĲ": 991,
      "Ð¸Ð¹": 992,
      "à¤¸": 993,
      "áĭ": 994,
      "Ġop": 995,
      "tion": 996,
      "à¶¸": 997,
      "ĠÙ¾": 998,
      "hi": 999,
      "ĠÑħ": 1000,
      "12": 1001,
      "ĠÙĦ": 1002,
      ").": 1003,
      "ve": 1004,
      "Ġno": 1005,
      "Ð¾Ñ": 1006,
      "áŀĦ": 1007,
      "à¸¡": 1008,
      "áĬ": 1009,
      "Ġpo": 1010,
      "ala": 1011,
      "ĠâĢľ": 1012,
      "sa": 1013,
      "emb": 1014,
      "âĢį": 1015,
      "Ġver": 1016,
      "ĠÎ±": 1017,
      "Ġka": 1018,
      "áŀı": 1019,
      "Ð¸Ñı": 1020,
      "Ø§Ùħ": 1021,
      "à¶ļ": 1022,
      "ite": 1023,
      "áĢĻ": 1024,
      "à®²": 1025,
      "Ġx": 1026,
      "ont": 1027,
      "ard": 1028,
      "19": 1029,
      "Ġ10": 1030,
      "Ġ9": 1031,
      "çļ": 1032,
      "Úº": 1033,
      "....": 1034,
      "áĢķ": 1035,
      "tt": 1036,
      "Ġdel": 1037,
      "ini": 1038,
      "ÅĤ": 1039,
      "à°ķ": 1040,
      "Ġku": 1041,
      "for": 1042,
      "Ġê": 1043,
      "ale": 1044,
      "à´Ł": 1045,
      "à²Ĺ": 1046,
      "à«ĭ": 1047,
      "ny": 1048,
      "Ġ/": 1049,
      "áģ": 1050,
      "lo": 1051,
      "ali": 1052,
      "Ùĥ": 1053,
      "Î®": 1054,
      "Ø§Øª": 1055,
      "Î±Î¹": 1056,
      "Ġà¤¸": 1057,
      "Î³": 1058,
      "Â»": 1059,
      "çļĦ": 1060,
      "ÄŁ": 1061,
      "uc": 1062,
      "Ã³n": 1063,
      "à¨°": 1064,
      "Ġor": 1065,
      "×§": 1066,
      "ĠZ": 1067,
      "ff": 1068,
      "ØĮ": 1069,
      "ki": 1070,
      "ÄĽ": 1071,
      "à¸¥": 1072,
      "à®ª": 1073,
      "Ãµ": 1074,
      "ãģ®": 1075,
      "à¥ģ": 1076,
      "Ġbe": 1077,
      "Ġsk": 1078,
      "à¦¤": 1079,
      "ier": 1080,
      "ĠÙģ": 1081,
      "ust": 1082,
      "30": 1083,
      "Ġpre": 1084,
      "Öģ": 1085,
      "à¦ķ": 1086,
      "Ð´Ð°": 1087,
      "Ġdu": 1088,
      "Ġil": 1089,
      "×¤": 1090,
      "áŀĽ": 1091,
      "15": 1092,
      "àªĤ": 1093,
      "Ġvan": 1094,
      "ĠØ¹": 1095,
      "ks": 1096,
      "ÑĥÑĢ": 1097,
      "ĠÑĩ": 1098,
      "Ïĩ": 1099,
      "à©Ģ": 1100,
      "ih": 1101,
      "ele": 1102,
      "ĠØ±": 1103,
      "ll": 1104,
      "Ò£": 1105,
      "ba": 1106,
      "ass": 1107,
      "kan": 1108,
      "×ĺ": 1109,
      "ä»": 1110,
      "Ġso": 1111,
      "à¸´": 1112,
      "ëĭ": 1113,
      "eri": 1114,
      "Ã¶r": 1115,
      "à¸Ķ": 1116,
      "://": 1117,
      "Å³": 1118,
      "ĠtÃ«": 1119,
      "ama": 1120,
      "Õ¸Õ": 1121,
      "ĠÎµ": 1122,
      "Ġï¿½ï¿½ï¿½ï¿½": 1123,
      "ĠIn": 1124,
      "à´²": 1125,
      "Ġav": 1126,
      "à¦²": 1127,
      "Ġdes": 1128,
      "ĠÐµ": 1129,
      "Ġmed": 1130,
      "à²µ": 1131,
      "88": 1132,
      "Ġ20": 1133,
      "Ð°Ð±": 1134,
      "à°¤": 1135,
      "âĢĮ": 1136,
      "Ġol": 1137,
      "ÑĥÐ»": 1138,
      "ĠØ¬": 1139,
      "ÑĬ": 1140,
      "ku": 1141,
      "OM": 1142,
      "50": 1143,
      "ÂŃ": 1144,
      "tor": 1145,
      "ÄĻ": 1146,
      "ĠY": 1147,
      "),": 1148,
      "Ñİ": 1149,
      "âĢľ": 1150,
      "æĸ": 1151,
      "ts": 1152,
      "ÉĻr": 1153,
      "áĢĶ": 1154,
      "ĠÎ¼": 1155,
      "à¸§": 1156,
      "Ġmen": 1157,
      "000": 1158,
      "Ġvi": 1159,
      "Ġni": 1160,
      "Ġ×ķ": 1161,
      "Ġ#": 1162,
      "à¯Ī": 1163,
      "£áĥ": 1164,
      "à²ķ": 1165,
      "Ġap": 1166,
      "ran": 1167,
      "ond": 1168,
      "ita": 1169,
      "à²Ĥ": 1170,
      "ÐĲ": 1171,
      "za": 1172,
      "Ðł": 1173,
      "ys": 1174,
      "ĠÐ¡": 1175,
      "Ġpl": 1176,
      "Ð½Ñĭ": 1177,
      "àµĨ": 1178,
      "ika": 1179,
      "Î¹Îº": 1180,
      "à©ĩ": 1181,
      "Ã£": 1182,
      "à¤¹": 1183,
      "×Ľ": 1184,
      "áĥĺáĥ¡": 1185,
      "Ġim": 1186,
      "áĥĶáĥĳ": 1187,
      "Ġsu": 1188,
      "Ø®": 1189,
      "×¡": 1190,
      "Ġad": 1191,
      "va": 1192,
      "Ġ,": 1193,
      "ìŀ": 1194,
      "à¨¿": 1195,
      "à¦¼": 1196,
      "Ġtil": 1197,
      "Æ°": 1198,
      "áĢŃáĢ¯": 1199,
      "Ĥ¬": 1200,
      "Ġom": 1201,
      "æĹ": 1202,
      "Ġve": 1203,
      "Ð½Ð°": 1204,
      "tic": 1205,
      "rat": 1206,
      "ĠÑĪ": 1207,
      "amp": 1208,
      "ĠØ§Ù": 1209,
      "Ġir": 1210,
      "Ð°ÑĪ": 1211,
      "16": 1212,
      "Ġya": 1213,
      "à®¯": 1214,
      "à¸¢": 1215,
      "ç½": 1216,
      "14": 1217,
      "bl": 1218,
      "ze": 1219,
      "per": 1220,
      "àª®": 1221,
      "Ġdan": 1222,
      "Ġter": 1223,
      "Òĵ": 1224,
      "di": 1225,
      "à²¯": 1226,
      "ÖĦ": 1227,
      "33": 1228,
      "ÐµÑģ": 1229,
      "Ð¾Ð±": 1230,
      "ÑĸÐ½": 1231,
      "ĠÃ¡": 1232,
      "Ġra": 1233,
      "age": 1234,
      "ning": 1235,
      "Øµ": 1236,
      "Ã¢": 1237,
      "Ð¾Ñģ": 1238,
      "Ïį": 1239,
      "à¸ļ": 1240,
      "Ġà¤ª": 1241,
      "Ð¡": 1242,
      "à¥¤": 1243,
      "ish": 1244,
      "Ò³": 1245,
      "åĽ": 1246,
      "Ġag": 1247,
      "ĠÛģ": 1248,
      "ĠØ´": 1249,
      "Ã«r": 1250,
      "à´Ĥ": 1251,
      "Õ¥ÖĢ": 1252,
      "à·Ļ": 1253,
      "Õ¡Õ¯": 1254,
      "ÙĪØ±": 1255,
      "Ġ...": 1256,
      "à¦¬": 1257,
      "à®³": 1258,
      "ile": 1259,
      "Ġsh": 1260,
      "çĶ": 1261,
      "Ð¸Ð²": 1262,
      "ãģĦ": 1263,
      "ult": 1264,
      "ĠÐ½Ðµ": 1265,
      "àª¤": 1266,
      "Ġby": 1267,
      "Î¹Î±": 1268,
      "à®±": 1269,
      "Ã¨": 1270,
      "int": 1271,
      "13": 1272,
      "áĢĽ": 1273,
      "WW": 1274,
      "Ġ12": 1275,
      "Î´": 1276,
      "res": 1277,
      "ä¹": 1278,
      "àªµ": 1279,
      "Ġ200": 1280,
      "Ġro": 1281,
      "18": 1282,
      "ler": 1283,
      "ÅĻ": 1284,
      "inn": 1285,
      "ies": 1286,
      "Ð°ÑĨ": 1287,
      "ĠÐ´Ð°": 1288,
      "99": 1289,
      "--": 1290,
      "ĠÒĽ": 1291,
      "ann": 1292,
      "Ġdet": 1293,
      "Ġber": 1294,
      "åľ": 1295,
      "ìĹ": 1296,
      "AT": 1297,
      "Õµ": 1298,
      "à¤µ": 1299,
      "Ġpor": 1300,
      "à±ĩ": 1301,
      "à·ļ": 1302,
      "AN": 1303,
      "oh": 1304,
      "Ġpara": 1305,
      "sp": 1306,
      "ĠÚ": 1307,
      "à®µ": 1308,
      "our": 1309,
      "Ġac": 1310,
      "å½": 1311,
      "ge": 1312,
      "uh": 1313,
      "ly": 1314,
      "ĠÙĩ": 1315,
      "Ġyang": 1316,
      "ìĿ´": 1317,
      "Ġang": 1318,
      "17": 1319,
      "ç½ĳ": 1320,
      "be": 1321,
      "à°¦": 1322,
      "der": 1323,
      "Ø·": 1324,
      "Ġit": 1325,
      "áĢ¼": 1326,
      "åĲ": 1327,
      "áŀ·": 1328,
      "Ġwa": 1329,
      "à¸Ĺ": 1330,
      "Ġsom": 1331,
      "Ġkom": 1332,
      "å¿": 1333,
      "ĠÂ«": 1334,
      "×Ĵ": 1335,
      "à¶½": 1336,
      "ram": 1337,
      "ex": 1338,
      "Å«": 1339,
      "æĪ": 1340,
      "ĠÐľ": 1341,
      "mi": 1342,
      "Ġta": 1343,
      "áŁĭ": 1344,
      "tp": 1345,
      "ĠÃ©": 1346,
      "łáĥ": 1347,
      "era": 1348,
      "sh": 1349,
      "Ã¡n": 1350,
      "àµįâĢį": 1351,
      "ä½": 1352,
      "ĠÐĲ": 1353,
      "à±ĭ": 1354,
      "ĠÐ·Ð°": 1355,
      "ua": 1356,
      "Ġza": 1357,
      "å¹": 1358,
      "à¦®": 1359,
      "COM": 1360,
      "Õ¡Õµ": 1361,
      "25": 1362,
      "ft": 1363,
      "à¤ª": 1364,
      "Ġà¹": 1365,
      "à°Ł": 1366,
      "we": 1367,
      "Ġex": 1368,
      "Ã´": 1369,
      "ÎµÎ¹": 1370,
      "Ð°Ð¿": 1371,
      "Ð¾Ðº": 1372,
      "áĢ·": 1373,
      "ice": 1374,
      "bo": 1375,
      "uj": 1376,
      "ĠWWW": 1377,
      "à¶§": 1378,
      "ore": 1379,
      "ĠCh": 1380,
      "áŀĻ": 1381,
      "ente": 1382,
      "ani": 1383,
      "Ġha": 1384,
      "ĠÐ»": 1385,
      "Ġiz": 1386,
      "uz": 1387,
      "ÛĮÚº": 1388,
      "oz": 1389,
      "ĠpÃ¥": 1390,
      "ati": 1391,
      "Ð½Ð¸": 1392,
      "Õ¿": 1393,
      "×Ŀ": 1394,
      ");": 1395,
      "ĠÐļ": 1396,
      "à°¯": 1397,
      "Ġà¤¹": 1398,
      "ĠØ®": 1399,
      "Ġ'": 1400,
      "66": 1401,
      "Ú¾": 1402,
      "Ð¸Ñĺ": 1403,
      "ry": 1404,
      "ĠÐĳ": 1405,
      "ue": 1406,
      "Ġum": 1407,
      "à¸ķ": 1408,
      "ado": 1409,
      "ĠÑį": 1410,
      "Ġest": 1411,
      "ãĥ¼": 1412,
      "ÙĪÙĨ": 1413,
      "ÏĨ": 1414,
      "Ġem": 1415,
      "ich": 1416,
      "Åĳ": 1417,
      "ade": 1418,
      "Ġvar": 1419,
      "ĠSt": 1420,
      "http": 1421,
      "one": 1422,
      "Ġaf": 1423,
      "Ã¡s": 1424,
      "Ġà¤®": 1425,
      "Ġob": 1426,
      "Å¼": 1427,
      "à¤¦": 1428,
      "áŀĳ": 1429,
      "Ð¸Ð·": 1430,
      "Ġba": 1431,
      "ĠÕ°": 1432,
      "Ġ×¢": 1433,
      "Ġ[": 1434,
      "áĢŀ": 1435,
      "24": 1436,
      "ER": 1437,
      "áŀ»": 1438,
      "Ġser": 1439,
      "àª¯": 1440,
      "àªķ": 1441,
      "ĠÐŁ": 1442,
      "Ġkan": 1443,
      "Ġ15": 1444,
      "áĢľ": 1445,
      "åį": 1446,
      "nt": 1447,
      "pe": 1448,
      "ack": 1449,
      "Ø§Ø¯": 1450,
      "co": 1451,
      "Ġden": 1452,
      "Ġder": 1453,
      "ĠÃ¾": 1454,
      "Ġva": 1455,
      "Õ¡ÖĢ": 1456,
      "ink": 1457,
      "ÑĭÐ»": 1458,
      "Ġkon": 1459,
      "lik": 1460,
      "à§ģ": 1461,
      "à¸ª": 1462,
      "ica": 1463,
      "ith": 1464,
      "à´±": 1465,
      "àº²": 1466,
      "Ð¸Ñĩ": 1467,
      "ber": 1468,
      "Ġki": 1469,
      "àª¿": 1470,
      "asi": 1471,
      "Ġed": 1472,
      "ÃĲ": 1473,
      "ĠÑģÐµ": 1474,
      "Ġpa": 1475,
      "áŀĸ": 1476,
      "à¸°": 1477,
      "à´ª": 1478,
      "Ġ18": 1479,
      "Î¸": 1480,
      "ÑĥÐ´": 1481,
      "Ã¤r": 1482,
      "55": 1483,
      "Ð¸Ñģ": 1484,
      "ãģ§": 1485,
      "Ġí": 1486,
      "mer": 1487,
      "ena": 1488,
      "Ġman": 1489,
      "ark": 1490,
      "ÏĦÎ±": 1491,
      "Ã£o": 1492,
      "ui": 1493,
      "40": 1494,
      "ĠÑı": 1495,
      "Ġvo": 1496,
      "ten": 1497,
      "Ð¾Ð¹": 1498,
      "à°¸": 1499,
      "áĢħ": 1500,
      "Ġmet": 1501,
      "Õ«Õ¶": 1502,
      "ment": 1503,
      "fa": 1504,
      "à²¸": 1505,
      "Ġak": 1506,
      "à¶¯": 1507,
      "ili": 1508,
      "yn": 1509,
      "Õ¸ÖĤÕ´": 1510,
      "à·ĥ": 1511,
      "Ð°ÑĤÐ°": 1512,
      "ĠÑģÑĤ": 1513,
      "Ġà¶ļ": 1514,
      "AR": 1515,
      "lu": 1516,
      "Ġhar": 1517,
      "Ġâ": 1518,
      "áĤ": 1519,
      "form": 1520,
      "ĠØ¢": 1521,
      "ene": 1522,
      "áĥķ": 1523,
      "ash": 1524,
      "à°¡": 1525,
      "Ð¸ÑĤÐµ": 1526,
      "77": 1527,
      "Ġko": 1528,
      "__": 1529,
      "aci": 1530,
      "æĺ": 1531,
      "Ġke": 1532,
      "à«ģ": 1533,
      "ĠÅ¡": 1534,
      "àºĻ": 1535,
      "Ïİ": 1536,
      "ca": 1537,
      "à¥Ī": 1538,
      "ãģĹ": 1539,
      "×Ł": 1540,
      "nÃŃ": 1541,
      "×¦": 1542,
      "ins": 1543,
      "à´®": 1544,
      "Ã¡l": 1545,
      "23": 1546,
      "Ġhet": 1547,
      "ĠÏĦÎ·": 1548,
      "ĠAl": 1549,
      "??": 1550,
      "IN": 1551,
      "Ð³Ð°": 1552,
      "Ġà·Ģ": 1553,
      "ãģ«": 1554,
      "à¸Ħ": 1555,
      "adi": 1556,
      "áŁĨ": 1557,
      "eta": 1558,
      "áŀĬ": 1559,
      "yr": 1560,
      "Ġfr": 1561,
      "Ġhe": 1562,
      "åĬ": 1563,
      "è¿": 1564,
      "ĠØŃ": 1565,
      "Ùī": 1566,
      "asa": 1567,
      "Ġmo": 1568,
      "Ð°Ñħ": 1569,
      "áŀħ": 1570,
      "Ġod": 1571,
      "×ķ×¨": 1572,
      "atu": 1573,
      "à·Ĳ": 1574,
      "å°": 1575,
      "ĠÔ": 1576,
      "Õ«Õ": 1577,
      "ity": 1578,
      "à°ª": 1579,
      "ÑĢÑĥ": 1580,
      "net": 1581,
      "ĠáĥĽ": 1582,
      "ty": 1583,
      "Ð¸ÑĪ": 1584,
      "els": 1585,
      "Ð»Ð°ÑĢ": 1586,
      "ew": 1587,
      "ĠÕ¥": 1588,
      "å¤§": 1589,
      "áĢ½": 1590,
      "à°µ": 1591,
      "Ð¸Ð´": 1592,
      "nh": 1593,
      "Ġ16": 1594,
      "ê³": 1595,
      "à¤Ĺ": 1596,
      "ida": 1597,
      "ĀĀ": 1598,
      "ako": 1599,
      "ree": 1600,
      "zy": 1601,
      "ement": 1602,
      "Ġ14": 1603,
      "Ġmin": 1604,
      "áŁģ": 1605,
      "ach": 1606,
      "ull": 1607,
      "ss": 1608,
      "ame": 1609,
      "ino": 1610,
      "à´µ": 1611,
      "Ð¸Ñħ": 1612,
      "ĠX": 1613,
      "ëĭ¤": 1614,
      "à²³": 1615,
      "ì§": 1616,
      "Ġ13": 1617,
      "ĠAn": 1618,
      "ej": 1619,
      "Ð²Ð°": 1620,
      "æī": 1621,
      "amb": 1622,
      "gan": 1623,
      "Ġ×Ľ": 1624,
      "Ġà¦ķ": 1625,
      "Ñŀ": 1626,
      "mo": 1627,
      "ight": 1628,
      "ÏģÎ¿": 1629,
      "áŀ¸": 1630,
      "à´³": 1631,
      "Ø±ÛĮ": 1632,
      "Ġ11": 1633,
      "Õ¡ÖĢÕ": 1634,
      "Õ¥Õ¬": 1635,
      "tiv": 1636,
      "ÐĿ": 1637,
      "Ġsem": 1638,
      "zi": 1639,
      "Ðŀ": 1640,
      "ela": 1641,
      "à¨Ĥ": 1642,
      "ÐµÐ·": 1643,
      "Ð¾Ð·": 1644,
      "Ġpol": 1645,
      "Ð°Ñĩ": 1646,
      "ert": 1647,
      "à°®": 1648,
      "ura": 1649,
      "áĥ£áĥ": 1650,
      "ÙĨØ¯": 1651,
      "ÏĦÎ¿": 1652,
      "ĠÑĦ": 1653,
      "Ġgr": 1654,
      "ÐºÐ°": 1655,
      "Æ°á»": 1656,
      "ons": 1657,
      "ĠØ§Ø³": 1658,
      "rav": 1659,
      "ĠAr": 1660,
      "ãģ¦": 1661,
      "à¦¸": 1662,
      "ëĬ": 1663,
      "áŀĩ": 1664,
      "ĠÐ¢": 1665,
      "ret": 1666,
      "36": 1667,
      "Ã®": 1668,
      "Ġik": 1669,
      "ĠQ": 1670,
      "Ùİ": 1671,
      "oll": 1672,
      "ÛĲ": 1673,
      "ian": 1674,
      "Ð½Ðµ": 1675,
      "EN": 1676,
      "Ð¾Ð¶": 1677,
      "ÏĦÎµ": 1678,
      "Ġles": 1679,
      "Ġres": 1680,
      "port": 1681,
      "Ø§Ø¨": 1682,
      "ĠáĬ": 1683,
      "ìĦ": 1684,
      "ãģ¨": 1685,
      "Ġbo": 1686,
      "Ġàªķ": 1687,
      "200": 1688,
      "ĠØ£": 1689,
      "iss": 1690,
      "ĠaÃ°": 1691,
      "Ġ17": 1692,
      "yo": 1693,
      "ĠÎ´": 1694,
      "ona": 1695,
      "44": 1696,
      "26": 1697,
      "à²¡": 1698,
      "à¸«": 1699,
      "Ġà®ª": 1700,
      "Ġus": 1701,
      "à´£": 1702,
      "ĠÚ©ÛĮ": 1703,
      "28": 1704,
      "min": 1705,
      "ĠĠĠĠ": 1706,
      "ãģª": 1707,
      "kl": 1708,
      "Ø³Øª": 1709,
      "ĠÑĸ": 1710,
      "Ġeg": 1711,
      "men": 1712,
      "ÑĥÐ½": 1713,
      "Ġos": 1714,
      "ila": 1715,
      "áĢ²": 1716,
      "ĠÃŃ": 1717,
      "27": 1718,
      "ĠÎºÎ±Î¹": 1719,
      "çī": 1720,
      "red": 1721,
      "ìł": 1722,
      "ĠÐĴ": 1723,
      "ami": 1724,
      "Ġà¦¸": 1725,
      "Ġinter": 1726,
      "Õ¨": 1727,
      "line": 1728,
      "eh": 1729,
      "ê°": 1730,
      "à¤Ł": 1731,
      "rit": 1732,
      "äºº": 1733,
      "man": 1734,
      "pa": 1735,
      "áĢ¬áĢ¸": 1736,
      "àª²": 1737,
      "ÑĦ": 1738,
      "Ġà¦¬": 1739,
      "áĮ": 1740,
      "ĠÕ´": 1741,
      "ÙĪÙĦ": 1742,
      "ĠÅ¾": 1743,
      "æĿ": 1744,
      "Ġbl": 1745,
      "Ġli": 1746,
      "à±Ģ": 1747,
      "à¹Ħ": 1748,
      "Õ¸ÖĤÕ©": 1749,
      "Ġpag": 1750,
      "ÑĤÐ¾": 1751,
      "AG": 1752,
      "ìŀ¥": 1753,
      "05": 1754,
      "bu": 1755,
      "ky": 1756,
      "Ðļ": 1757,
      "aya": 1758,
      "å¿«": 1759,
      "Ġnie": 1760,
      "Ð´Ñĭ": 1761,
      "Ġà¶´": 1762,
      "Ġpod": 1763,
      "Ãªn": 1764,
      "Ã¤n": 1765,
      "ÅĽ": 1766,
      "07": 1767,
      "ven": 1768,
      "áĢģ": 1769,
      "Ð¸ÑģÑĤ": 1770,
      "Ġtak": 1771,
      "à°Ĺ": 1772,
      "ĠnÃ«": 1773,
      "!!": 1774,
      "ĠÃ¼": 1775,
      "ï¿½ï¿½ï¿½": 1776,
      "áº¡": 1777,
      "ëĬĶ": 1778,
      "áĢ¹áĢ¸": 1779,
      "ive": 1780,
      "zen": 1781,
      "ÑĤÐ°": 1782,
      "ise": 1783,
      "ici": 1784,
      "09": 1785,
      "ĠØ§ÙĪ": 1786,
      "Ġbu": 1787,
      "ĠÐł": 1788,
      "ĠÕ§": 1789,
      "Ð½Ñı": 1790,
      "ĠÐĿ": 1791,
      "ÏĦÎ·": 1792,
      "Ð¸ÑĨ": 1793,
      "unt": 1794,
      "ìķ": 1795,
      "AC": 1796,
      "Ġ×Ļ": 1797,
      "ey": 1798,
      "eld": 1799,
      "TT": 1800,
      "Ð³Ð°Ð½": 1801,
      "che": 1802,
      "áº¿": 1803,
      "Ð¾ÑģÑĤ": 1804,
      "ĠDe": 1805,
      "Ġbir": 1806,
      "08": 1807,
      "Ð°Ð¶": 1808,
      "itu": 1809,
      "29": 1810,
      "ÐµÐ¹": 1811,
      "Ġmu": 1812,
      "ĠÐ¾ÑĤ": 1813,
      "ãģĻ": 1814,
      "ĠØ§ÙĦÙħ": 1815,
      "06": 1816,
      "ãĤĭ": 1817,
      "Ã¼n": 1818,
      "ãģŁ": 1819,
      "ĠÄį": 1820,
      "ĠÙĤ": 1821,
      "ãģĮ": 1822,
      "ÏģÎ±": 1823,
      "Ø§Ø³": 1824,
      "à·Ħ": 1825,
      "isk": 1826,
      "Ġ=": 1827,
      "Ø£": 1828,
      "áĢ»": 1829,
      "ĠÃ®": 1830,
      "ĠÚ©ÛĴ": 1831,
      "Ð¾Ð¿": 1832,
      "áĥ¡": 1833,
      "ä¸Ģ": 1834,
      "ãĥ³": 1835,
      "Ġà·ĥ": 1836,
      "Ġà¤¬": 1837,
      "Ã¼r": 1838,
      "Ġpos": 1839,
      "gi": 1840,
      "Ġàªª": 1841,
      "ä¼": 1842,
      "03": 1843,
      "au": 1844,
      "Ġaz": 1845,
      "fer": 1846,
      "ett": 1847,
      "ĠÚ¯": 1848,
      "ano": 1849,
      "uri": 1850,
      "ema": 1851,
      "Ġsz": 1852,
      "ÐµÐ³": 1853,
      "ÉĻn": 1854,
      "áĥĲáĥľ": 1855,
      "Ġpas": 1856,
      "04": 1857,
      "ÙĬØ©": 1858,
      "Ġpri": 1859,
      "Ġà¤¨": 1860,
      "Ġup": 1861,
      "ete": 1862,
      "à¨¸": 1863,
      "å¼": 1864,
      "ct": 1865,
      "Ġ2019": 1866,
      "à¦¦": 1867,
      "Ã©r": 1868,
      "ĠÙħÙĨ": 1869,
      "Ø¶": 1870,
      "Ø§Ø¦": 1871,
      "sl": 1872,
      "Ġ&": 1873,
      "ori": 1874,
      "ON": 1875,
      "isi": 1876,
      "jo": 1877,
      "Ã¡r": 1878,
      "Ġáĭ": 1879,
      "éĢ": 1880,
      "Ġph": 1881,
      "Å¥": 1882,
      "ì¶": 1883,
      "Ġà®ķ": 1884,
      "Ð¢": 1885,
      "à¨¤": 1886,
      "çİ": 1887,
      "à§ĭ": 1888,
      "ern": 1889,
      "à¨²": 1890,
      "45": 1891,
      "ende": 1892,
      "à´ļ": 1893,
      "Ġà°ª": 1894,
      "Ġmar": 1895,
      "Ä±r": 1896,
      "ĠÃ¶": 1897,
      "Ġeta": 1898,
      "áĥł": 1899,
      "à¨¨": 1900,
      "à¸²à¸£": 1901,
      "ĠáĪ": 1902,
      "ĠØ¯Ø±": 1903,
      "emp": 1904,
      "Ġut": 1905,
      "Ġab": 1906,
      "vo": 1907,
      "áĢ¡": 1908,
      "Ġà¦ª": 1909,
      "à¹ģ": 1910,
      "Õ¸ÖĤÕ©Õµ": 1911,
      "á»ĩ": 1912,
      "ÏĢÎ¿": 1913,
      "any": 1914,
      "ÐŁ": 1915,
      "Ð½Ñĸ": 1916,
      "ato": 1917,
      "Ðĺ": 1918,
      "ÙĪØ¯": 1919,
      "ãģ¯": 1920,
      "ira": 1921,
      "à¦Ł": 1922,
      "Ġ2017": 1923,
      "Ġ2018": 1924,
      "Ã±": 1925,
      "à²®": 1926,
      "ÐµÐ²": 1927,
      "áŀ¾": 1928,
      "ĠMar": 1929,
      "ĠÏĦÎ¿": 1930,
      "aga": 1931,
      "è®": 1932,
      "Ġoch": 1933,
      "Ġmas": 1934,
      "Ð¾Ñĺ": 1935,
      "val": 1936,
      "Õ¡Õ´": 1937,
      "ĠPro": 1938,
      "ick": 1939,
      "ĠâĢŀ": 1940,
      "ĠÒ": 1941,
      "ĠÃ§": 1942,
      "ph": 1943,
      "Ġpe": 1944,
      "ĠÐĶ": 1945,
      "âĢĺ": 1946,
      "aka": 1947,
      "à³ĩ": 1948,
      "ista": 1949,
      "ĠÐ¾Ð´": 1950,
      "ĠÑĺ": 1951,
      "var": 1952,
      "ck": 1953,
      "ju": 1954,
      "ento": 1955,
      "ĠÕ¯": 1956,
      "àµĭ": 1957,
      "ÑĥÑĤ": 1958,
      "Ġmga": 1959,
      "ĠÕ¸": 1960,
      "{\"": 1961,
      "áŀľ": 1962,
      "ÏĥÎ·": 1963,
      "å¸": 1964,
      "Ġsam": 1965,
      "æ¸": 1966,
      "Ġnh": 1967,
      "Ġek": 1968,
      "vi": 1969,
      "à¤ľ": 1970,
      "ats": 1971,
      "Ġau": 1972,
      "Ġà²®": 1973,
      "Ġho": 1974,
      "Ð¾Ð³Ð¾": 1975,
      "×ĸ": 1976,
      "Ġáĥĵ": 1977,
      "les": 1978,
      "à¸¸": 1979,
      "àª¸": 1980,
      "Ġà¨¸": 1981,
      "áĢĬ": 1982,
      "ÐµÑ": 1983,
      "à°ļ": 1984,
      "Ð»Ð¸": 1985,
      "cia": 1986,
      "Ġà¶¸": 1987,
      "ĠÂ»": 1988,
      "Ġáĥ¡": 1989,
      "21": 1990,
      "Â°": 1991,
      "à·ĵ": 1992,
      "åĪĨ": 1993,
      "ÑĥÐ²": 1994,
      "ES": 1995,
      "å½©": 1996,
      "ë§": 1997,
      "Ð°ÑģÑĤ": 1998,
      "×Ļ×ª": 1999,
      "Î¼Î±": 2000,
      "ÑĤÑĭ": 2001,
      "use": 2002,
      "eni": 2003,
      "ÑĸÐ»": 2004,
      "Ġche": 2005,
      "Ġund": 2006,
      "Ġà¨¦": 2007,
      "alam": 2008,
      "áĢļ": 2009,
      "Ø¦": 2010,
      "å·": 2011,
      "ime": 2012,
      "à©°": 2013,
      "lan": 2014,
      "ç»": 2015,
      "AL": 2016,
      "ĠØ§ÛĮ": 2017,
      "yt": 2018,
      "à¸·": 2019,
      "à±Ĩ": 2020,
      "Ġco": 2021,
      "áĢ®": 2022,
      "ase": 2023,
      "ye": 2024,
      "ìĹĲ": 2025,
      "lig": 2026,
      "ÑĥÐ¼": 2027,
      "Õ¾": 2028,
      "ĠÎ½": 2029,
      "Ðľ": 2030,
      "Ġmat": 2031,
      "Ġdis": 2032,
      "olog": 2033,
      "áĬķ": 2034,
      "à²Ł": 2035,
      "Ġnu": 2036,
      "åŃ": 2037,
      "35": 2038,
      "Ġ>": 2039,
      "ild": 2040,
      "Ġà²¸": 2041,
      "Ġmi": 2042,
      "Ġwe": 2043,
      "px": 2044,
      "ĠÙĬ": 2045,
      "áº£": 2046,
      "ãģ¾": 2047,
      "à®ļ": 2048,
      "yd": 2049,
      "ÛĮÙĨ": 2050,
      "ega": 2051,
      "02": 2052,
      "áŀ¢": 2053,
      "ĠÃł": 2054,
      "áŁĦ": 2055,
      "pro": 2056,
      "×ķ×ľ": 2057,
      "à¸Ī": 2058,
      "www": 2059,
      "gr": 2060,
      "ĠâĢĺ": 2061,
      "Ù¾": 2062,
      "ĠÅ": 2063,
      "éĩ": 2064,
      "Ġà´ª": 2065,
      "Ã²": 2066,
      "ald": 2067,
      "ĠpÃ«r": 2068,
      "Ġàª¸": 2069,
      "tik": 2070,
      "ì§Ģ": 2071,
      "mas": 2072,
      "âĢĭâĢĭ": 2073,
      "ĠáĥĲáĥ": 2074,
      "una": 2075,
      "ane": 2076,
      "åĩ": 2077,
      "ÐºÐ¸": 2078,
      "å¥": 2079,
      "ãĤĴ": 2080,
      "áŁĤ": 2081,
      "è½": 2082,
      "Ġpers": 2083,
      "ĠÏĦÎ¿Ïħ": 2084,
      "Ġdat": 2085,
      "ire": 2086,
      "ĠÑĨ": 2087,
      "Ġay": 2088,
      "NN": 2089,
      "Ø°": 2090,
      "ike": 2091,
      "Ġeen": 2092,
      "Ġà¤ħ": 2093,
      "ÐµÑģÑĤ": 2094,
      "Ġà®µ": 2095,
      "åĮ": 2096,
      "aa": 2097,
      "èµ": 2098,
      "à¹Į": 2099,
      "Ġà¤°": 2100,
      "Î½Î±": 2101,
      "Î¯Î±": 2102,
      "Ð»Ñı": 2103,
      "à¸Ńà¸ĩ": 2104,
      "Õ¸ÖĤÕ¶": 2105,
      "ĠÐ¾Ð±": 2106,
      "ction": 2107,
      "AS": 2108,
      "Ġà°ķ": 2109,
      "áŀĤ": 2110,
      "ÙĬÙĨ": 2111,
      "à´¸": 2112,
      "à¸µà¹Ī": 2113,
      "Ġà¨ķ": 2114,
      "oma": 2115,
      "uar": 2116,
      "åľ¨": 2117,
      "Ġ}": 2118,
      "Ġti": 2119,
      "kt": 2120,
      "ÏģÎ¹": 2121,
      "app": 2122,
      "38": 2123,
      "Ġlo": 2124,
      "ĠÐŀ": 2125,
      "Õ¡Õ¿": 2126,
      "Ġ$": 2127,
      "ix": 2128,
      "ito": 2129,
      "itt": 2130,
      "Ġ×ł": 2131,
      "×ķ×Ł": 2132,
      "åĨ": 2133,
      "ure": 2134,
      "Ġmod": 2135,
      "à¹ĥ": 2136,
      "cht": 2137,
      "ĠÑŀ": 2138,
      "so": 2139,
      "Ġà¤µ": 2140,
      "à¸Ľ": 2141,
      "br": 2142,
      "à¶ľ": 2143,
      "ĠÎ³": 2144,
      "àª¾àªĤ": 2145,
      "Ġmer": 2146,
      "ĠÐ±Ð¾Ð»": 2147,
      "à¦ª": 2148,
      "ank": 2149,
      "Ð¸Ðµ": 2150,
      "Ġind": 2151,
      "è¯": 2152,
      "à¯ĩ": 2153,
      "Ġbr": 2154,
      "íķĺ": 2155,
      "ora": 2156,
      "ľìŀ¥": 2157,
      "ÛĶ": 2158,
      "nÃ©": 2159,
      "ÐµÐ½ÑĤ": 2160,
      "Ġmak": 2161,
      "è§": 2162,
      "ĠTh": 2163,
      "ĠØ§ÙĨ": 2164,
      "cl": 2165,
      "ÏīÎ½": 2166,
      "Ġ×©×ľ": 2167,
      "à´Ļ": 2168,
      "àªŁ": 2169,
      "áŀ¼": 2170,
      "ji": 2171,
      "ĠEn": 2172,
      "Ġtu": 2173,
      "ĠÐ¸Ð·": 2174,
      "à¨ķ": 2175,
      "ave": 2176,
      "Ġbi": 2177,
      "Ġ×¤": 2178,
      "par": 2179,
      "ĠSh": 2180,
      "Ġà²ķ": 2181,
      "à©ĭ": 2182,
      "Øº": 2183,
      "ld": 2184,
      "à®ķà®³": 2185,
      "äºļ": 2186,
      "ÐĶ": 2187,
      "ìĭ": 2188,
      "iri": 2189,
      "Ġà´ķ": 2190,
      "ç«": 2191,
      "ÈĽ": 2192,
      "ä¸Ń": 2193,
      "ren": 2194,
      "ë¡": 2195,
      "37": 2196,
      "á»Ļ": 2197,
      "pos": 2198,
      "à¹ĩ": 2199,
      "old": 2200,
      "åĽ½": 2201,
      "Ġ25": 2202,
      "ome": 2203,
      "eli": 2204,
      "Ġà¤Ĺ": 2205,
      "×Ļ×¨": 2206,
      "lÄ±": 2207,
      "OR": 2208,
      "ÑģÑı": 2209,
      "Ã«s": 2210,
      "åº": 2211,
      "Ġà°µ": 2212,
      "iti": 2213,
      "à¨¹": 2214,
      "af": 2215,
      "=\"": 2216,
      "ÑįÑį": 2217,
      "ìĿĺ": 2218,
      "que": 2219,
      "Ġà¥": 2220,
      "enti": 2221,
      "con": 2222,
      "ĠÓ©": 2223,
      "\",": 2224,
      "Ġval": 2225,
      "Ġà¶ħ": 2226,
      "org": 2227,
      "Ġatt": 2228,
      "48": 2229,
      "Ġuna": 2230,
      "esti": 2231,
      "Ġà®®": 2232,
      "Ġàª®": 2233,
      "Ġprod": 2234,
      "att": 2235,
      "ĠØ¨Ùĩ": 2236,
      "ĠÎ¿": 2237,
      "Ã¡t": 2238,
      "à¤¬": 2239,
      "orm": 2240,
      "à¤ļ": 2241,
      "Ã¸r": 2242,
      "ĠÚĨ": 2243,
      "ĠPr": 2244,
      "Ð¿ÑĢ": 2245,
      "let": 2246,
      "elt": 2247,
      "åıĳ": 2248,
      "ĠÚ©Ø±": 2249,
      "het": 2250,
      "Ġdhe": 2251,
      "áĥļ": 2252,
      "Ġà¤ľ": 2253,
      "ym": 2254,
      "ÑĥÑģ": 2255,
      "à®¨": 2256,
      "Ġcu": 2257,
      "xt": 2258,
      "Ġ30": 2259,
      "ìĿĦ": 2260,
      "ê¸": 2261,
      "ĠÃ¥": 2262,
      "Õ¶Õ¥ÖĢ": 2263,
      "39": 2264,
      "ì¶ľìŀ¥": 2265,
      "Õ½": 2266,
      "Ġaut": 2267,
      "Ġkl": 2268,
      "àµĩ": 2269,
      "ĠÃº": 2270,
      "Ġkat": 2271,
      "ĠÐ°Ð»": 2272,
      "Õ¡Õ½": 2273,
      "Ġ{": 2274,
      "Ġwith": 2275,
      "àº²àº": 2276,
      "áº¥": 2277,
      "å¾": 2278,
      "ĠThe": 2279,
      "Ġà®ħ": 2280,
      "46": 2281,
      "æĬ": 2282,
      "Å¯": 2283,
      "Õ´": 2284,
      "å®ĺ": 2285,
      "aw": 2286,
      "ĠUn": 2287,
      "à©±": 2288,
      "á»į": 2289,
      "Ġkh": 2290,
      "à®£": 2291,
      "à¸¹": 2292,
      "à¤ı": 2293,
      "Ġ2016": 2294,
      "fr": 2295,
      "éĻ": 2296,
      "nie": 2297,
      "ÐºÑĸ": 2298,
      "à¶´": 2299,
      "çľ": 2300,
      "×Ļ×ł": 2301,
      "ìĬ": 2302,
      "ola": 2303,
      "arg": 2304,
      "ĠÙģÙĬ": 2305,
      "CC": 2306,
      "Ã¬": 2307,
      "ÑĭÐ¼": 2308,
      "ĠÃ©s": 2309,
      "Ġbes": 2310,
      "ģĦ": 2311,
      "çĽ": 2312,
      "à»Ī": 2313,
      "ect": 2314,
      "bi": 2315,
      "ÐĴ": 2316,
      "Äĩ": 2317,
      "Ġreg": 2318,
      "ace": 2319,
      "ĠÐ°": 2320,
      "áĢ«": 2321,
      "fi": 2322,
      "ĠÃ¤": 2323,
      "Ġæ": 2324,
      "2019": 2325,
      "49": 2326,
      "tir": 2327,
      "Ø±ÙĪ": 2328,
      "iga": 2329,
      "ige": 2330,
      "Ð°Ñĺ": 2331,
      "Ġ21": 2332,
      "Ġà¤¦": 2333,
      "ede": 2334,
      "ula": 2335,
      "ĠÙħÛĮÚº": 2336,
      "è¡": 2337,
      "Ðĳ": 2338,
      "ĠìĿ": 2339,
      "ilm": 2340,
      "Ġsel": 2341,
      "imi": 2342,
      "ÐµÑĪ": 2343,
      "oni": 2344,
      "Îĳ": 2345,
      "áį": 2346,
      "ĠÛĮ": 2347,
      "Ġáī": 2348,
      "aren": 2349,
      "ĠÐ¿Ð¾": 2350,
      "çº": 2351,
      "ÐµÐ¿": 2352,
      "Î²": 2353,
      "ÑĭÑĢ": 2354,
      "ros": 2355,
      "ä¸ĭ": 2356,
      "âģĦ": 2357,
      "enn": 2358,
      "Ð°Ð½Ð´": 2359,
      "ĠCom": 2360,
      "IS": 2361,
      "ee": 2362,
      "Ġà®¤": 2363,
      "56": 2364,
      "ember": 2365,
      "ors": 2366,
      "iko": 2367,
      "ĠÑģÐ²": 2368,
      "Ġent": 2369,
      "Ø§Ø²": 2370,
      "ima": 2371,
      "oto": 2372,
      "Ġ×ĵ": 2373,
      "ĠáĥĴ": 2374,
      "Ġìŀ": 2375,
      "jst": 2376,
      "78": 2377,
      "Ã¥r": 2378,
      "ĠÎ¼Îµ": 2379,
      "à§Ģ": 2380,
      "isa": 2381,
      "OS": 2382,
      "urs": 2383,
      "ĠLa": 2384,
      "Ġà°®": 2385,
      "Ġkar": 2386,
      "Ġà¤Ĩ": 2387,
      "Ġ+": 2388,
      "ĠáĢ¡": 2389,
      "Ġà¨¹": 2390,
      "ç¥": 2391,
      "alt": 2392,
      "uv": 2393,
      "Ð°Ñŀ": 2394,
      "Ġsv": 2395,
      "Ġbar": 2396,
      "´ë": 2397,
      "á»ĳ": 2398,
      "Ġà°ħ": 2399,
      "In": 2400,
      "ker": 2401,
      "ãģĭ": 2402,
      "Ġ24": 2403,
      "ings": 2404,
      "ras": 2405,
      "........": 2406,
      "Ġà°¸": 2407,
      "AAAA": 2408,
      "Ġkas": 2409,
      "ĠÅŁ": 2410,
      "Ġ23": 2411,
      "Ġyou": 2412,
      "ÛĮØ¯": 2413,
      "iew": 2414,
      "ÈĻ": 2415,
      "Ġall": 2416,
      "à¥Ĥ": 2417,
      "Ġà¦Ĩ": 2418,
      "Ø«": 2419,
      "Ġbet": 2420,
      "Ġgo": 2421,
      "ando": 2422,
      "erv": 2423,
      "ubl": 2424,
      "à¤¶": 2425,
      "æ³": 2426,
      "ä¸ī": 2427,
      "Ġà®ļ": 2428,
      "Ã¦r": 2429,
      "ars": 2430,
      "Ðķ": 2431,
      "ĠÌ": 2432,
      "Ġ×Ĺ": 2433,
      "áŁĩ": 2434,
      "https": 2435,
      "Ġbil": 2436,
      "aha": 2437,
      "Ġ22": 2438,
      "Ġà¶¯": 2439,
      "ps": 2440,
      "olo": 2441,
      "aliz": 2442,
      "âĢĵ": 2443,
      "ign": 2444,
      "Ð°Ð»ÑĮ": 2445,
      "ÏĦÎ¹Îº": 2446,
      "cz": 2447,
      "ken": 2448,
      "à·ľ": 2449,
      "Õ¡Õ¾": 2450,
      "sc": 2451,
      "Ø§Ùĩ": 2452,
      "ĠÐ£": 2453,
      "ìļ": 2454,
      "àµģà´Ĥ": 2455,
      "Ġny": 2456,
      "ione": 2457,
      "58": 2458,
      "ĠÙĥ": 2459,
      "otel": 2460,
      "ãĤ¹": 2461,
      "ĠÎ½Î±": 2462,
      "Ã¤Ã¤": 2463,
      "æĺ¯": 2464,
      "Ġkr": 2465,
      "áĥĽ": 2466,
      "EL": 2467,
      "Ð°ÒĽ": 2468,
      "áĥĶáĥļ": 2469,
      "Ð¸Ð¸": 2470,
      "UR": 2471,
      "ese": 2472,
      "of": 2473,
      "ĠÐĵ": 2474,
      "du": 2475,
      "×ķ×ł": 2476,
      "ÑĸÐ´": 2477,
      "yl": 2478,
      "×ķ×ĵ": 2479,
      "áĥĲáĥĽ": 2480,
      "à¤¡": 2481,
      "Ġà²¨": 2482,
      "go": 2483,
      "aciÃ³n": 2484,
      "Õ¥ÖĢÕ": 2485,
      "ger": 2486,
      "ener": 2487,
      "ante": 2488,
      "ÃŃt": 2489,
      "its": 2490,
      "ĠØ¹ÙĦ": 2491,
      "jstree": 2492,
      "áĥĵ": 2493,
      "Ð¸Ð¹Ð½": 2494,
      "Î½Î¿": 2495,
      "iek": 2496,
      "Ġà¤Ń": 2497,
      "als": 2498,
      "á»ĭ": 2499,
      "Ġnj": 2500,
      "ii": 2501,
      "×ķ×ĳ": 2502,
      "Ġtra": 2503,
      "Ġà¶±": 2504,
      "akan": 2505,
      "Ġà¤²": 2506,
      "å±": 2507,
      "po": 2508,
      "áĢ¶": 2509,
      "Ġein": 2510,
      "Ġà¦®": 2511,
      "ben": 2512,
      "Ġdin": 2513,
      "Õ¡Õ¯Õ¡Õ¶": 2514,
      "à¨¦": 2515,
      "ÙĪÙħ": 2516,
      "Ġmag": 2517,
      "Ġmil": 2518,
      "ê³ł": 2519,
      "esta": 2520,
      "Ġàªľ": 2521,
      "eks": 2522,
      "àªª": 2523,
      "ake": 2524,
      "Ù¹": 2525,
      "Ġur": 2526,
      "**": 2527,
      "ĠÕ¶": 2528,
      "ÅĨ": 2529,
      "ero": 2530,
      "Ã§Ã£o": 2531,
      "ĠMa": 2532,
      "à¸ŀ": 2533,
      "ott": 2534,
      "ãģ£": 2535,
      "Ġnga": 2536,
      "æĹ¥": 2537,
      "47": 2538,
      "Ġkun": 2539,
      "ëı": 2540,
      "Ġthat": 2541,
      "Ġmeng": 2542,
      "anda": 2543,
      "ico": 2544,
      "ets": 2545,
      "ĠTr": 2546,
      "íķľ": 2547,
      "×Ļ×Ļ×": 2548,
      "ĠfÃ¶r": 2549,
      "ath": 2550,
      "Ġàª¤": 2551,
      "Ġà¤¤": 2552,
      "Õ¯": 2553,
      "æĢ": 2554,
      "Ġgi": 2555,
      "Ò±": 2556,
      "à¯Ĩ": 2557,
      "Ġdar": 2558,
      "ë¡ľ": 2559,
      "ÉĻt": 2560,
      "ĠÒ¯": 2561,
      "Ġà´µ": 2562,
      "den": 2563,
      "à¦ľ": 2564,
      "ãĥ¼ãĥ": 2565,
      "Ġwas": 2566,
      "Ġmy": 2567,
      "à·ĬâĢį": 2568,
      "à¸Ĥ": 2569,
      "èĢ": 2570,
      "à¹į": 2571,
      "åİ": 2572,
      "ĠâĢĶ": 2573,
      "æ¸¸": 2574,
      "GG": 2575,
      "Ġà¦ı": 2576,
      "Ġvis": 2577,
      "Ġdit": 2578,
      "à¦ĩ": 2579,
      "ãĤĬ": 2580,
      "éĹ": 2581,
      "Ð°Ñļ": 2582,
      "AM": 2583,
      "imo": 2584,
      "own": 2585,
      "ĠÐĺ": 2586,
      "Ġà²ħ": 2587,
      "anc": 2588,
      "yk": 2589,
      "à¦¶": 2590,
      "Ġsl": 2591,
      "vis": 2592,
      "ĠÃ®n": 2593,
      "ition": 2594,
      "ock": 2595,
      "ÑĥÐ±": 2596,
      "Ã¡c": 2597,
      "à©ģ": 2598,
      "à¤§": 2599,
      "engan": 2600,
      "Ġà¹Ģà¸": 2601,
      "ml": 2602,
      "ê²": 2603,
      "eko": 2604,
      "ìĿ¼": 2605,
      "Ġà¨¨": 2606,
      "áīµ": 2607,
      "æ°": 2608,
      "iki": 2609,
      "ija": 2610,
      "à¤·": 2611,
      "ĠØ¨Ø±": 2612,
      "elle": 2613,
      "Ġ×Ķ×ŀ": 2614,
      "ÐºÑĥ": 2615,
      "65": 2616,
      "uma": 2617,
      "met": 2618,
      "Ðĵ": 2619,
      "áĢ°": 2620,
      "Ġare": 2621,
      "Ġsal": 2622,
      "ĠSp": 2623,
      "Ø¸": 2624,
      "ÉĻl": 2625,
      "àº±": 2626,
      "Ñī": 2627,
      "è´": 2628,
      "Ġvir": 2629,
      "ãĤĤ": 2630,
      "àºģ": 2631,
      "98": 2632,
      "àª£": 2633,
      "ĠNo": 2634,
      "Ã½ch": 2635,
      "Ġseg": 2636,
      "ste": 2637,
      "ÎµÎ¯": 2638,
      "Ġ2015": 2639,
      "Î¾": 2640,
      "Ġwat": 2641,
      "æľī": 2642,
      "ÐµÐ±": 2643,
      "uy": 2644,
      "ë¦": 2645,
      "34": 2646,
      "ìĺ": 2647,
      "pp": 2648,
      "Ã©g": 2649,
      "Ġher": 2650,
      "à»ī": 2651,
      "à²ª": 2652,
      "ÏĢÏĮ": 2653,
      "à¸Ĭ": 2654,
      "Ġà¨µ": 2655,
      "Ð£": 2656,
      "las": 2657,
      "ams": 2658,
      "Ġga": 2659,
      "ÑĢÐ°Ð½": 2660,
      "áŀģ": 2661,
      "ÑĭÐ·": 2662,
      "Ġà®ĩ": 2663,
      "agi": 2664,
      "fo": 2665,
      "Ġ×§": 2666,
      "Ġson": 2667,
      "Ġsy": 2668,
      "Ã³w": 2669,
      "æĸ¹": 2670,
      "ê°Ģ": 2671,
      "ĠØ²": 2672,
      "Ġfin": 2673,
      "Ñĳ": 2674,
      "Ð¸Ð½Ð³": 2675,
      "Ã¡m": 2676,
      "áŀİ": 2677,
      "ÓĻÑĢ": 2678,
      "ĠØµ": 2679,
      "ĠÎŃ": 2680,
      "ode": 2681,
      "ĠRe": 2682,
      "Ġ100": 2683,
      "32": 2684,
      "ÄĹs": 2685,
      "áŀ½": 2686,
      "tuk": 2687,
      "Â«": 2688,
      "do": 2689,
      "Ġ×Ĵ": 2690,
      "ÑįÐ½": 2691,
      "ego": 2692,
      "akt": 2693,
      "ÑĥÑĩ": 2694,
      "à¤£": 2695,
      "sta": 2696,
      "Õ¥Õ¶": 2697,
      "Ġ×¨": 2698,
      "Ġà¦¨": 2699,
      "ET": 2700,
      "Ã¼l": 2701,
      "kin": 2702,
      "Ð¸Ð³": 2703,
      "rt": 2704,
      "ose": 2705,
      "çĻ": 2706,
      "ole": 2707,
      "Ġkur": 2708,
      "Ø§Ø¹": 2709,
      "Ġjo": 2710,
      "ĀĀĀĀ": 2711,
      "á»ģ": 2712,
      "ĠàªĨ": 2713,
      "Ġmal": 2714,
      "áĥľ": 2715,
      "tim": 2716,
      "cc": 2717,
      "ĠAd": 2718,
      "ĠEl": 2719,
      "tig": 2720,
      "ÛĮØ±": 2721,
      "å¯": 2722,
      "Ò¯Ò¯": 2723,
      "Ġhtt": 2724,
      "ÐµÐºÑĤ": 2725,
      "Ġsin": 2726,
      "Ó©ÑĢ": 2727,
      "96": 2728,
      "àª¹": 2729,
      "Ġdem": 2730,
      "ÐµÑĩ": 2731,
      "Ġà²¹": 2732,
      "Ġca": 2733,
      "usi": 2734,
      "ĠàªĽ": 2735,
      "ĠÛģÛĴ": 2736,
      "('": 2737,
      "Ã¤l": 2738,
      "ban": 2739,
      "pt": 2740,
      "ideo": 2741,
      "Ġàªħ": 2742,
      "ÏĦÎ¹": 2743,
      "ë¥": 2744,
      "land": 2745,
      "zt": 2746,
      "Ġdr": 2747,
      "ĠÒ³": 2748,
      "ual": 2749,
      "ä¸į": 2750,
      "ĠÐ²Ð¾": 2751,
      "erg": 2752,
      "31": 2753,
      "esi": 2754,
      "ĠÐ¸Ð½": 2755,
      "US": 2756,
      "iet": 2757,
      "IC": 2758,
      "ÑģÑĤÐ²": 2759,
      "Īëĭ¤": 2760,
      "Ġge": 2761,
      "Ġid": 2762,
      "str": 2763,
      "orn": 2764,
      "ĠLe": 2765,
      "Ġà¦¹": 2766,
      "IT": 2767,
      "Ġnov": 2768,
      "ÃŃa": 2769,
      "ÑĸÐº": 2770,
      "eme": 2771,
      "uf": 2772,
      "Ð½Ð¾ÑģÑĤ": 2773,
      "Ø±ÙĬ": 2774,
      "Ð¾ÑĪ": 2775,
      "æµ": 2776,
      "\"}": 2777,
      "ä¸Ĭ": 2778,
      "áĥ¢": 2779,
      "Ã´ng": 2780,
      "Ġà´¸": 2781,
      "Ã©n": 2782,
      "æīĭ": 2783,
      "ekt": 2784,
      "Ñĺ": 2785,
      "ille": 2786,
      "Ġcont": 2787,
      "ĠÎºÎ±": 2788,
      "ÙĦÛĮ": 2789,
      "hr": 2790,
      "gg": 2791,
      "une": 2792,
      "à¨¼": 2793,
      "à¦Ĺ": 2794,
      "ÙĩØ§": 2795,
      "æĹ¶": 2796,
      "à³Ĥ": 2797,
      "å¹´": 2798,
      "ĠâĤ¬": 2799,
      "Ġàªµ": 2800,
      "Ġgj": 2801,
      "ÙĪÚº": 2802,
      "aks": 2803,
      "\".": 2804,
      "Ġvol": 2805,
      "Ð¸Ð±": 2806,
      "áĢĸ": 2807,
      "Ãĳ": 2808,
      "Î¼Îµ": 2809,
      "àº°": 2810,
      "Ã«n": 2811,
      "×Ļ×ľ": 2812,
      "à¥ĩà¤Ĥ": 2813,
      "Ġ×ª": 2814,
      "Ġ2014": 2815,
      "Ġà°ļ": 2816,
      "rem": 2817,
      "ÚĨ": 2818,
      "by": 2819,
      "ĠÚ©ÙĪ": 2820,
      "áĥĲáĥĵ": 2821,
      "Ġmeg": 2822,
      "ivers": 2823,
      "erk": 2824,
      "áģĭ": 2825,
      "à°¿à°Ĥ": 2826,
      "æķ": 2827,
      "col": 2828,
      "Ġfa": 2829,
      "2017": 2830,
      "Ġuz": 2831,
      "à¦Ľ": 2832,
      "Õ¡Öģ": 2833,
      "Ġpres": 2834,
      "Ġpot": 2835,
      "CT": 2836,
      "Ġìł": 2837,
      "å¤©": 2838,
      "ÑĸÑĢ": 2839,
      "Ġtur": 2840,
      "Ø§Ùģ": 2841,
      "Ġà²ª": 2842,
      "Ġà®¨": 2843,
      "ns": 2844,
      "àºĩ": 2845,
      "ÎŁ": 2846,
      "Äģs": 2847,
      "à¬": 2848,
      "wo": 2849,
      "à¨®": 2850,
      "Ġà´®": 2851,
      "áĢ¹áĢ±": 2852,
      "alar": 2853,
      "ìľ": 2854,
      "à¸²à¸Ļ": 2855,
      "ìĸ": 2856,
      "Î»Î¿": 2857,
      "ãĥĥ": 2858,
      "Ġ×Ĳ×ª": 2859,
      "á»¥": 2860,
      "unction": 2861,
      "jen": 2862,
      "ãģĨ": 2863,
      "ID": 2864,
      "57": 2865,
      "á»ĥ": 2866,
      "Ġdengan": 2867,
      "ĠØ§ÙĪØ±": 2868,
      "eder": 2869,
      "àªĹ": 2870,
      "áŀī": 2871,
      "Ð´Ðµ": 2872,
      "Ġà´ħ": 2873,
      "àªľ": 2874,
      "Ġsup": 2875,
      "2018": 2876,
      "á»§": 2877,
      "ãĤ¤": 2878,
      "ÑĭÐ¿": 2879,
      "atur": 2880,
      "udi": 2881,
      "ĠÑĤÑĢ": 2882,
      "Ġbel": 2883,
      "à¯ĭ": 2884,
      "Ġinform": 2885,
      "áĥĲáĥłáĥ": 2886,
      "Ġsur": 2887,
      "ÐĽ": 2888,
      "à³Ĭ": 2889,
      "áĢĨ": 2890,
      "×Ļ×Ķ": 2891,
      "ÑĸÐ²": 2892,
      "Ä¾": 2893,
      "Ġty": 2894,
      "àª¦": 2895,
      "àºĶ": 2896,
      "pre": 2897,
      "ìĦľ": 2898,
      "ĠØ§Ø³Øª": 2899,
      "ÙĲ": 2900,
      "áŀĲ": 2901,
      "Ġuntuk": 2902,
      "ux": 2903,
      "ëĤ": 2904,
      "ÎµÏĤ": 2905,
      "ÃŃn": 2906,
      "Ġist": 2907,
      "nya": 2908,
      "Ð¸ÑĺÐ°": 2909,
      "Ġmit": 2910,
      "à¨Ĩ": 2911,
      "ìĥ": 2912,
      "Ġbat": 2913,
      "ê¸°": 2914,
      "aki": 2915,
      "Ġ28": 2916,
      "Ġ2013": 2917,
      "alis": 2918,
      "ĠÑĺÐµ": 2919,
      "ÑĥÐº": 2920,
      "ÑĤÐµÑĢ": 2921,
      "ìĽ": 2922,
      "Ġà´¨": 2923,
      "Ġamb": 2924,
      "ç§": 2925,
      "Ġà²¬": 2926,
      "Ġef": 2927,
      "ĠØ§Ø²": 2928,
      "gram": 2929,
      "Ġnd": 2930,
      "angan": 2931,
      "áºŃ": 2932,
      "Ġsta": 2933,
      "à±Ĥ": 2934,
      "ÑĥÑĪ": 2935,
      "Ġ2012": 2936,
      "Ġtal": 2937,
      "ary": 2938,
      "ĠpÅĻ": 2939,
      "éģ": 2940,
      "êµ": 2941,
      "à¦¼à§ĩ": 2942,
      "nos": 2943,
      "Ġ26": 2944,
      "Ġvoor": 2945,
      "vel": 2946,
      "Ġpi": 2947,
      "Æ¡": 2948,
      "ĠÙĪØ§ÙĦ": 2949,
      "Ġwh": 2950,
      "æľº": 2951,
      "ĠAm": 2952,
      "Ġini": 2953,
      "Ġ×ĸ": 2954,
      "æĸ°": 2955,
      "Ġ27": 2956,
      "ush": 2957,
      "è¦": 2958,
      "ãĤĮ": 2959,
      "Ġul": 2960,
      "asta": 2961,
      "ance": 2962,
      "ÑįÑĢ": 2963,
      "ĠCon": 2964,
      "Â¬": 2965,
      "Ä°": 2966,
      "Ġà°¨": 2967,
      "ĠÑģÐ¾": 2968,
      "Ġàº": 2969,
      "Ġpat": 2970,
      "97": 2971,
      "æŃ": 2972,
      "ĠSo": 2973,
      "Ġrec": 2974,
      "95": 2975,
      "ĠÐĹ": 2976,
      "éĽ": 2977,
      "Õ¸ÖĤÕ©ÕµÕ¸ÖĤÕ¶": 2978,
      "Ä¼": 2979,
      "ĠÙħÛĮ": 2980,
      "à³Ģ": 2981,
      "ova": 2982,
      "ÙĬØ±": 2983,
      "ãĥĪ": 2984,
      "AD": 2985,
      "dz": 2986,
      "ĠÑĢÐ°Ð·": 2987,
      "90": 2988,
      "Ġstr": 2989,
      "Ġlos": 2990,
      "Ġà·Ħ": 2991,
      "Ð°Ñı": 2992,
      "ãĤī": 2993,
      "à¹Ĥ": 2994,
      "Ä±m": 2995,
      "áŀĴ": 2996,
      "Ä±ÅŁ": 2997,
      "à©Ī": 2998,
      "íĬ": 2999,
      "áŀł": 3000,
      "cha": 3001,
      "100": 3002,
      "ĠvÃł": 3003,
      "à«ģàªĤ": 3004,
      "×ļ": 3005,
      "Ġaan": 3006,
      "ces": 3007,
      "ores": 3008,
      "inen": 3009,
      "Ã¶n": 3010,
      "Õ¸Õ¾": 3011,
      "Ð¸Ð½Ð¸": 3012,
      "nik": 3013,
      "Ð°ÑĢÑĤ": 3014,
      "aran": 3015,
      "ĠÏĦÎ·ÏĤ": 3016,
      "Ġtre": 3017,
      "ĠÏĦÎ·Î½": 3018,
      "æŀ": 3019,
      "×ķ×Ĳ": 3020,
      "Ġà¦¦": 3021,
      "à©Ĥ": 3022,
      "ÃŃm": 3023,
      "Ð°ÑĤÐ¸": 3024,
      "à¨¾à¨Ĥ": 3025,
      "Î±Î½": 3026,
      "Ġtid": 3027,
      "Ġez": 3028,
      "ä¿": 3029,
      "Ġpal": 3030,
      "'s": 3031,
      "áŁĭâĢĭ": 3032,
      "----": 3033,
      "Ġcons": 3034,
      "Ġsc": 3035,
      "aba": 3036,
      "68": 3037,
      "Ġ2020": 3038,
      "oy": 3039,
      "ĠvÉĻ": 3040,
      "áĥĶáĥľ": 3041,
      "çĲ": 3042,
      "led": 3043,
      "ents": 3044,
      "àª¡": 3045,
      "ook": 3046,
      "arr": 3047,
      "){": 3048,
      "Õ¤": 3049,
      "unk": 3050,
      "pi": 3051,
      "åĵ": 3052,
      "Ġà®İ": 3053,
      "uss": 3054,
      "Î¯Î½": 3055,
      "à³ĭ": 3056,
      "ìĤ¬": 3057,
      "Îķ": 3058,
      "igh": 3059,
      "Ġà¶Ń": 3060,
      "ìĬ¤": 3061,
      "ĠØ³ÛĴ": 3062,
      "uan": 3063,
      "rac": 3064,
      "60": 3065,
      "Õ¸ÖĢ": 3066,
      "this": 3067,
      "áĥĲáĥķ": 3068,
      "å¹³": 3069,
      "Ð¾Ñĩ": 3070,
      "áĢºáĢ¸": 3071,
      "ĠÐ±Ð°Ð¹": 3072,
      "ciÃ³n": 3073,
      "à²¬": 3074,
      "Ġaj": 3075,
      "ĠÐ¾ÑĢ": 3076,
      "Ð°Ð½Ð°": 3077,
      "Ø¨Ø±": 3078,
      "àºŃ": 3079,
      "×ĳ×¨": 3080,
      "áĥĲáĥ¡": 3081,
      "bet": 3082,
      "por": 3083,
      "ativ": 3084,
      "Î£": 3085,
      "sz": 3086,
      "Î¶": 3087,
      "Ġà¨ª": 3088,
      "à¤¥": 3089,
      "à¸ģà¸²à¸£": 3090,
      "à¸²à¸ģ": 3091,
      "Ġlas": 3092,
      "ĠÕ¿": 3093,
      "mu": 3094,
      "ĮĢ": 3095,
      "ator": 3096,
      "å½©ç¥": 3097,
      "ĠÕ«": 3098,
      "Õ¡Õ¼": 3099,
      "à¶«": 3100,
      "uks": 3101,
      "æĿ¥": 3102,
      "IL": 3103,
      "Ġê°": 3104,
      "Ġnem": 3105,
      "alo": 3106,
      "enta": 3107,
      "Ġker": 3108,
      "æł": 3109,
      "ED": 3110,
      "Ġtot": 3111,
      "Ġàª¹": 3112,
      "ÐµÑĨ": 3113,
      "aja": 3114,
      "ados": 3115,
      "Ø§Ú©": 3116,
      "ĠÄ¯": 3117,
      "iÃ°": 3118,
      "Ġvy": 3119,
      "este": 3120,
      "Õ¡Õ®": 3121,
      "é¢": 3122,
      "Ġover": 3123,
      "ner": 3124,
      "Ø§ÙĪ": 3125,
      "ĠÙ¾Ø±": 3126,
      "ØªØ±": 3127,
      "à¦·": 3128,
      "ĠÕº": 3129,
      "à¸²à¸¢": 3130,
      "Ġmai": 3131,
      "Ġdos": 3132,
      "»¿": 3133,
      "äºĨ": 3134,
      "entru": 3135,
      "Ġju": 3136,
      "Õ¥Õ¿": 3137,
      "àª¥": 3138,
      "Õ¸Õ²": 3139,
      "har": 3140,
      "ĠÎĳ": 3141,
      "Ġpu": 3142,
      "ìĿĢ": 3143,
      "ÏİÎ½": 3144,
      "Â·": 3145,
      "ania": 3146,
      "à²Ĺà²³": 3147,
      "×¢×¨": 3148,
      "ì¹": 3149,
      "chen": 3150,
      "able": 3151,
      "Ö·": 3152,
      "yon": 3153,
      "Ġ50": 3154,
      "ĠÎ³Î¹Î±": 3155,
      "80": 3156,
      "éĿ": 3157,
      "ava": 3158,
      "Ġperson": 3159,
      "Ð¸Ð½Ð°": 3160,
      "Î¿Ïį": 3161,
      "ï»¿": 3162,
      "gro": 3163,
      "ĠSe": 3164,
      "ĠØ·": 3165,
      "Ġcl": 3166,
      "íĻ": 3167,
      "ĠÑģÐ»": 3168,
      "ĠBl": 3169,
      "Ð½Ð¸Ðº": 3170,
      "å¿«ä¸ī": 3171,
      "Ã³l": 3172,
      "Ð°Ð³Ð°": 3173,
      "ize": 3174,
      "ļáĥĺ": 3175,
      "elo": 3176,
      "Ġà¶ľ": 3177,
      "Ġáĥł": 3178,
      "ef": 3179,
      "Ġcan": 3180,
      "ÑĭÒĽ": 3181,
      "_.": 3182,
      "ì²": 3183,
      "mm": 3184,
      "æĶ": 3185,
      "Ġfl": 3186,
      "Ġkw": 3187,
      "ĠPar": 3188,
      "ë°": 3189,
      "åı°": 3190,
      "ĠØ¥": 3191,
      "pg": 3192,
      "ional": 3193,
      "Ġsex": 3194,
      "ëĵ": 3195,
      "éĥ": 3196,
      "Ã¡v": 3197,
      "Ġ×ľ×Ķ": 3198,
      "ĠÄ°": 3199,
      "Ġud": 3200,
      "ĠáĢ±": 3201,
      "Ġsch": 3202,
      "ament": 3203,
      "oi": 3204,
      "ely": 3205,
      "áĢ²áĢ·": 3206,
      "Ġ×¡": 3207,
      "ÐµÐ¶": 3208,
      "Ġmem": 3209,
      "ÎĻ": 3210,
      "Ð´Ð¸": 3211,
      "Ġei": 3212,
      "Äįi": 3213,
      "aman": 3214,
      "atan": 3215,
      "à¦¹": 3216,
      "kk": 3217,
      "íĬ¸": 3218,
      "Ã¹": 3219,
      "dan": 3220,
      ".,": 3221,
      "Ġlang": 3222,
      "ãģĵ": 3223,
      "ĠÏĮ": 3224,
      "áŁħ": 3225,
      "Ġsek": 3226,
      "Ġtem": 3227,
      "Ġà¥¤": 3228,
      "à¦¡": 3229,
      "ĠÎ±ÏĢÏĮ": 3230,
      "à¸²à¸ĩ": 3231,
      "Ġtrans": 3232,
      "Ġnot": 3233,
      "ris": 3234,
      "gu": 3235,
      "ÑĥÐ¿": 3236,
      "Ã¤t": 3237,
      "áĢ®áĢ¸": 3238,
      "jon": 3239,
      "lad": 3240,
      "edia": 3241,
      "áĢ¾": 3242,
      "ĠÑģÐ¿": 3243,
      "Ġìķ": 3244,
      "Ġcomp": 3245,
      "áº§": 3246,
      "ÑıÑĤ": 3247,
      "____": 3248,
      "ĠÐ°Ð´": 3249,
      "ork": 3250,
      "à®Ļ": 3251,
      "oli": 3252,
      "Ġà¦ķà¦°": 3253,
      "Ġonline": 3254,
      "ĠOn": 3255,
      "ays": 3256,
      "cat": 3257,
      "Ġprof": 3258,
      "áĪŃ": 3259,
      "43": 3260,
      "Ġtel": 3261,
      "Ġthis": 3262,
      "han": 3263,
      "Ġàª¨": 3264,
      "raf": 3265,
      "Õ¸ÖĢÕ": 3266,
      "àµĢ": 3267,
      "alit": 3268,
      "zo": 3269,
      "Ã©t": 3270,
      "ery": 3271,
      "ĠSch": 3272,
      "ove": 3273,
      "á»Ľ": 3274,
      "iden": 3275,
      "åĿ": 3276,
      "ĠÐ¥": 3277,
      "42": 3278,
      "Ġï¿½ï¿½ï¿½ï¿½ï¿½ï¿½ï¿½ï¿½": 3279,
      "inde": 3280,
      "Ġ?": 3281,
      "eci": 3282,
      "à²£": 3283,
      "ĠÕ£": 3284,
      "ĠlÃł": 3285,
      "ÑĸÐ·": 3286,
      "ÑĭÐº": 3287,
      "ĠSex": 3288,
      "à¯Ĭ": 3289,
      "âĢĿ,": 3290,
      "ĠÕ¤": 3291,
      "ande": 3292,
      "ë§Ī": 3293,
      "gen": 3294,
      "Ġpost": 3295,
      "Ġë°": 3296,
      "æİ": 3297,
      "oa": 3298,
      "erd": 3299,
      "ĠÐ²Ð°": 3300,
      "Ġnag": 3301,
      "ĠÐºÑĢ": 3302,
      "Ġ)": 3303,
      "Ġce": 3304,
      "áĢ±áĢ¬": 3305,
      "Ġà¤ī": 3306,
      "èĤ": 3307,
      "Ġcol": 3308,
      "Ø§Ø¡": 3309,
      "ĠÃ¤r": 3310,
      "ÑĸÐ¼": 3311,
      "Ð´Ð°Ð½": 3312,
      "ÑĭÑģ": 3313,
      "×Ļ×ķ×ª": 3314,
      "ĠÑĤÐ°Ðº": 3315,
      "ìĿ¸": 3316,
      "Ġdag": 3317,
      "ĠqÃ«": 3318,
      "anta": 3319,
      "Ġing": 3320,
      "Ø§Ø´": 3321,
      "Ø§ÙĤ": 3322,
      "áĤĶ": 3323,
      "hu": 3324,
      "uga": 3325,
      "Ġale": 3326,
      "inin": 3327,
      "Ùı": 3328,
      "áĥĲáĥł": 3329,
      "àª¶": 3330,
      "åĳ": 3331,
      "ido": 3332,
      "js": 3333,
      "å®¶": 3334,
      "Ġà°¤": 3335,
      "Å¡an": 3336,
      "Ã¢n": 3337,
      "×Ļ×©": 3338,
      "ÉĻs": 3339,
      "Ġ2011": 3340,
      "à¸²à¸¡": 3341,
      "ratis": 3342,
      "Ġform": 3343,
      "ÑĨÑĮ": 3344,
      "ute": 3345,
      "ä¼ļ": 3346,
      "ÏĦÎ¬": 3347,
      "fl": 3348,
      "pres": 3349,
      "è½½": 3350,
      "ÑģÐºÐ¸": 3351,
      "jet": 3352,
      "duc": 3353,
      "Ġdas": 3354,
      "Ð¾Ð²Ð°": 3355,
      "ĠÐ¿ÐµÑĢ": 3356,
      "ĠsÃ¥": 3357,
      "ÑĹ": 3358,
      "Ġsol": 3359,
      "ĠÏĩ": 3360,
      "Ġàª¬": 3361,
      "£¼": 3362,
      "ãĤĵ": 3363,
      "à»Ģ": 3364,
      "ÙĦÙĬ": 3365,
      "ÑįÐ»": 3366,
      "II": 3367,
      "bas": 3368,
      "å¼Ģ": 3369,
      "à¤Ī": 3370,
      "eda": 3371,
      "ĠÛ": 3372,
      "uta": 3373,
      "Ġtek": 3374,
      "Ġà¦¤": 3375,
      "Ġkm": 3376,
      "èĩ": 3377,
      "alan": 3378,
      "ä¹Ĳ": 3379,
      "Ð¸Ð¿": 3380,
      "amil": 3381,
      "67": 3382,
      "ĠTe": 3383,
      "æ´": 3384,
      "ĠÐ¸Ð¼": 3385,
      "ĠPl": 3386,
      "Ġkad": 3387,
      "ÙĢ": 3388,
      "ÑįÐ³": 3389,
      "à¶¶": 3390,
      "ë¦¬": 3391,
      "ÑĤÐ°ÑĢ": 3392,
      "áĥĿáĥĽ": 3393,
      "ðŁ": 3394,
      "áĥ®": 3395,
      "her": 3396,
      "Ġger": 3397,
      "get": 3398,
      "ĠÐ¿Ð¾Ð´": 3399,
      "å®ĺç½ĳ": 3400,
      "Ġàª°": 3401,
      "ĠÕ¢": 3402,
      "ÐµÐ»ÑĮ": 3403,
      "Ø§ÙĬ": 3404,
      "×Ļ×§": 3405,
      "Ġkor": 3406,
      "ĠEr": 3407,
      "ades": 3408,
      "Ġfrom": 3409,
      "larÄ±": 3410,
      "ular": 3411,
      "à´¦": 3412,
      "bar": 3413,
      "59": 3414,
      "apa": 3415,
      "à¨µ": 3416,
      "Ò¯Ð½": 3417,
      "urn": 3418,
      "sm": 3419,
      "Ġah": 3420,
      "ĠÕ¥ÖĤ": 3421,
      "âĢĶ": 3422,
      "à¨ľ": 3423,
      "Ġkwa": 3424,
      "Ġsm": 3425,
      "ude": 3426,
      "Ġ×ľ×Ĳ": 3427,
      "Īĺ": 3428,
      "ella": 3429,
      "ĠØ§ÙĦØª": 3430,
      "ĠÎķ": 3431,
      "ĠSa": 3432,
      "chi": 3433,
      "ages": 3434,
      "ĠÚ©Ø§": 3435,
      "anya": 3436,
      "eti": 3437,
      "à®´": 3438,
      "ote": 3439,
      "ĠÐĽ": 3440,
      "ated": 3441,
      "ater": 3442,
      "à¤ĸ": 3443,
      "ä¸ĭè½½": 3444,
      "ikan": 3445,
      "Ġorgan": 3446,
      "OL": 3447,
      "Ŀ¼": 3448,
      "edi": 3449,
      "ĠBar": 3450,
      "çĶ¨": 3451,
      "Ġï¿½ï¿½ï¿½ï¿½ï¿½": 3452,
      "ĠÎ¸": 3453,
      "apat": 3454,
      "Ġï¿½": 3455,
      "×Ļ×Ł": 3456,
      "uka": 3457,
      "St": 3458,
      "uje": 3459,
      "Ġnon": 3460,
      "Ò¯ÑĢ": 3461,
      "ĠInd": 3462,
      "àºĻàº": 3463,
      "ãģı": 3464,
      "Ġáĥĺ": 3465,
      "Ð¾Ð¸": 3466,
      "41": 3467,
      "ĠGr": 3468,
      "eden": 3469,
      "cial": 3470,
      "ÎŃÏĤ": 3471,
      "ĠÎł": 3472,
      "ĠNew": 3473,
      "Ġtill": 3474,
      "ils": 3475,
      "ĠÚ©Ûģ": 3476,
      "á»±": 3477,
      "ÐµÐ½Ð¸": 3478,
      "ĠvÃµ": 3479,
      "Ġsig": 3480,
      "Î»Î»": 3481,
      "Ġ×¢×ľ": 3482,
      "iro": 3483,
      "Ã³r": 3484,
      "ĠâĢ¢": 3485,
      "áŀĹ": 3486,
      "Ð»Ð°Ð´": 3487,
      "Å£": 3488,
      "Ð°Ð½Ñĭ": 3489,
      "áĢĳ": 3490,
      "Ġev": 3491,
      "à²·": 3492,
      "oo": 3493,
      "Ġzu": 3494,
      "Ġvers": 3495,
      "Al": 3496,
      "Ġà¤¯": 3497,
      "ÏģÎ¬": 3498,
      "áĭį": 3499,
      "Ġmes": 3500,
      "×ķ×ŀ": 3501,
      "Ã¶z": 3502,
      "Ġpen": 3503,
      "ĠÂ·": 3504,
      "nes": 3505,
      "à¯į.": 3506,
      "æ²": 3507,
      "Ð»Ð¸Ðº": 3508,
      "uti": 3509,
      "åī": 3510,
      "nen": 3511,
      "ĠáĥĵáĥĲ": 3512,
      "ãĤ¯": 3513,
      "×ķ×Ŀ": 3514,
      "Ä±nÄ±": 3515,
      "ëıĦ": 3516,
      "Ġáĭ¨": 3517,
      "ĠOr": 3518,
      "del": 3519,
      "wi": 3520,
      "æĭ": 3521,
      "Ġà²µ": 3522,
      "kom": 3523,
      "Î¹Ïĥ": 3524,
      "Ġword": 3525,
      "Ġáĥ¨": 3526,
      "Ġhu": 3527,
      "Ġmay": 3528,
      "à¨£": 3529,
      "Ġà¶¶": 3530,
      "Ġcar": 3531,
      "Ġ29": 3532,
      "iai": 3533,
      "ĠÐ°ÑĢ": 3534,
      "ĠFor": 3535,
      "à¹Ģ": 3536,
      "Ġà¨ľ": 3537,
      "ĠAnd": 3538,
      "Ġsen": 3539,
      "0000": 3540,
      "alah": 3541,
      "ĠĠĠĠĠĠĠĠ": 3542,
      "iem": 3543,
      "Ð°Ñİ": 3544,
      "ÉĻk": 3545,
      "ÙĦÙħ": 3546,
      "load": 3547,
      "ĠmÃ¼": 3548,
      "âĤ¬": 3549,
      "over": 3550,
      "ĠÏĢÎ¿Ïħ": 3551,
      "ÐµÑĤÐ¾": 3552,
      "ĠÐ±Ð°ÑĢ": 3553,
      "oja": 3554,
      "Ġkaj": 3555,
      "ĠmÃ¡": 3556,
      "ĠÎļ": 3557,
      "Ð¾ÑĤÐ¾": 3558,
      "ĠÐºÐ¾Ð¼": 3559,
      "fs": 3560,
      "Ä±nda": 3561,
      "ĠÐ´Ð¾": 3562,
      "Ġê²": 3563,
      "Ġhttp": 3564,
      "len": 3565,
      "Ġou": 3566,
      "åĩº": 3567,
      "fe": 3568,
      "à¦¼à¦¾": 3569,
      "èĥ": 3570,
      "Ġà¶ĳ": 3571,
      "uni": 3572,
      "à¸£à¸°": 3573,
      "(\"": 3574,
      "wan": 3575,
      "eren": 3576,
      "ĠcÃ³": 3577,
      "áĪĿ": 3578,
      "Äģr": 3579,
      "Ŀi": 3580,
      "Ġrel": 3581,
      "ony": 3582,
      "Ã·": 3583,
      "Ã©m": 3584,
      "áĪį": 3585,
      "lÉĻr": 3586,
      "CH": 3587,
      "ĠÐ¼Ð¾Ð¶": 3588,
      "ĠBe": 3589,
      "Ġà¦ħ": 3590,
      "à´·": 3591,
      "ÓĻÐ½": 3592,
      "Ġdur": 3593,
      "ette": 3594,
      "Ar": 3595,
      "çº¿": 3596,
      "rip": 3597,
      "ÐºÑĢ": 3598,
      "',": 3599,
      "à¤Ń": 3600,
      "áŀ¶áŁĨ": 3601,
      "ĠPer": 3602,
      "ĠÎ·": 3603,
      "Ð°Ð»Ð°": 3604,
      "ĠBr": 3605,
      "ÃŃs": 3606,
      "ÑĤÐ¸": 3607,
      "ÙĦÙĩ": 3608,
      "AB": 3609,
      "Ġif": 3610,
      "abil": 3611,
      "ĠÖ": 3612,
      "arm": 3613,
      "Ġà¨®": 3614,
      "ë¥¼": 3615,
      "ĠMan": 3616,
      "ØªÛĮ": 3617,
      "åĴ": 3618,
      "çĶŁ": 3619,
      "Ġleg": 3620,
      "ĠÐŁÑĢ": 3621,
      "ãĥ©": 3622,
      "áº¥t": 3623,
      "Ġsec": 3624,
      "Ġ×Ķ×Ĳ": 3625,
      "uto": 3626,
      "ÐºÐ¾": 3627,
      "ÐĹ": 3628,
      "Ġnas": 3629,
      "Ð»ÐµÐ½": 3630,
      "kov": 3631,
      "çİ¯": 3632,
      "Pro": 3633,
      "RE": 3634,
      "ĠnjÃ«": 3635,
      "dy": 3636,
      "iste": 3637,
      "Ð°Ð»Ð°ÑĢ": 3638,
      "2016": 3639,
      "ãĥ«": 3640,
      "Ġfra": 3641,
      "ìĭľ": 3642,
      "Æ°á»£": 3643,
      "75": 3644,
      "Ġhal": 3645,
      "El": 3646,
      "àºµ": 3647,
      "Ġdec": 3648,
      "Ġmon": 3649,
      "Ġikke": 3650,
      "amo": 3651,
      "à¦§": 3652,
      "ory": 3653,
      "ĠÙħØ¹": 3654,
      "ç«Ļ": 3655,
      "Ġout": 3656,
      "Ġtod": 3657,
      "×ķ×¢": 3658,
      "Ġyour": 3659,
      "Ġà¦ľ": 3660,
      "irm": 3661,
      "aro": 3662,
      "Ã«t": 3663,
      "ument": 3664,
      "An": 3665,
      "ëħ": 3666,
      "à¨Ĺ": 3667,
      "tern": 3668,
      "}.": 3669,
      "Ġweb": 3670,
      "Ð°ÑĦ": 3671,
      "uro": 3672,
      "Ġ!": 3673,
      "esk": 3674,
      "imin": 3675,
      "ĠØ§ÙĦØ£": 3676,
      "Ġ<": 3677,
      "ĠÔ±": 3678,
      "è¡Į": 3679,
      "Ġpop": 3680,
      "function": 3681,
      "à±Ī": 3682,
      "ĠÐ³ÑĢ": 3683,
      "ange": 3684,
      "Ġkap": 3685,
      "Ġmul": 3686,
      "Ð°ÑĤÑĮ": 3687,
      "æ±": 3688,
      "Ġkol": 3689,
      "ĠÏĥÏħ": 3690,
      "Ġbol": 3691,
      "ST": 3692,
      "ox": 3693,
      "Ġtar": 3694,
      "Ġdal": 3695,
      "Ġok": 3696,
      "à²¹": 3697,
      "eka": 3698,
      "Î¤": 3699,
      "uld": 3700,
      "IA": 3701,
      "Ø§ØŃ": 3702,
      "ÉĻd": 3703,
      "ÛĮÙħ": 3704,
      "Ó©Ð½": 3705,
      "pd": 3706,
      "Ä±l": 3707,
      "Ð¥": 3708,
      "áĥĹ": 3709,
      "Ġole": 3710,
      "ÏĦÎ±Î¹": 3711,
      "ç¾": 3712,
      "NNNN": 3713,
      "à¸Ńà¸Ļ": 3714,
      "Ġ2010": 3715,
      "×¨×Ĳ": 3716,
      "ãģį": 3717,
      ",{\"": 3718,
      "else": 3719,
      "×Ļ×ĳ": 3720,
      "ÑģÐ¿": 3721,
      "hl": 3722,
      "fic": 3723,
      "×ł×Ļ": 3724,
      "Ġcomo": 3725,
      "irt": 3726,
      "cont": 3727,
      "Ġmus": 3728,
      "itz": 3729,
      "à°ľ": 3730,
      "à¶©": 3731,
      "Ã©l": 3732,
      "à¸Ł": 3733,
      "AP": 3734,
      "×Ļ×ĵ": 3735,
      "nÄĽ": 3736,
      "Ġ09": 3737,
      "Ġkal": 3738,
      "Ġkam": 3739,
      "ovan": 3740,
      "gy": 3741,
      "áĥĺáĥĹ": 3742,
      "åħ¬": 3743,
      "ĠØªÙĪ": 3744,
      "Ġnos": 3745,
      "ìķĪ": 3746,
      "Ġmis": 3747,
      "ider": 3748,
      "Ġmemb": 3749,
      "ingen": 3750,
      "ĠØĮ": 3751,
      "Ð½Ð¾Ð³Ð¾": 3752,
      "Ġ01": 3753,
      "Õ¡Õ£": 3754,
      "Ãķ": 3755,
      "áº¡i": 3756,
      "vat": 3757,
      "omb": 3758,
      "\":{\"": 3759,
      "ĠCo": 3760,
      "Ġpour": 3761,
      "uli": 3762,
      "Ð´Ñĸ": 3763,
      "ÏģÎ¯": 3764,
      "Õ¬": 3765,
      "Ġpart": 3766,
      "La": 3767,
      "ë³": 3768,
      "áĥĿáĥĳ": 3769,
      "à°·": 3770,
      "Õ¡Õ°": 3771,
      "à¨ļ": 3772,
      "ground": 3773,
      "raz": 3774,
      "kon": 3775,
      "illa": 3776,
      "ĠØ§ÙĦØ¹": 3777,
      "âĢĿ.": 3778,
      "Õ¡Õ¬": 3779,
      "ÛĮØ§": 3780,
      "esc": 3781,
      "Ð¾Ð»ÑĮ": 3782,
      "ule": 3783,
      "ÑĥÑİ": 3784,
      "àº§": 3785,
      "ĠØ±ÙĪ": 3786,
      "uko": 3787,
      "tur": 3788,
      "ĠìĹ": 3789,
      "Ġset": 3790,
      "ums": 3791,
      "åĪ©": 3792,
      "Ùĳ": 3793,
      "Ã»": 3794,
      "wid": 3795,
      "à·ħ": 3796,
      "ĠÐ¿ÑĢÐµÐ´": 3797,
      "Ġsob": 3798,
      "Õ¸ÖĤÕ©ÕµÕ¡Õ¶": 3799,
      "à¦ļ": 3800,
      "reg": 3801,
      "àª§": 3802,
      "Ġhas": 3803,
      "Ġinst": 3804,
      "ĠPh": 3805,
      "ĠÐ¼ÐµÐ½": 3806,
      "ĠÎµÏĢ": 3807,
      "Ġvon": 3808,
      "Úĵ": 3809,
      "Ġcor": 3810,
      "Ġhi": 3811,
      "ãĥ»": 3812,
      "Ġprobl": 3813,
      "ë¶": 3814,
      "ĠÕ½": 3815,
      "UN": 3816,
      "à±ģ.": 3817,
      "ket": 3818,
      "kat": 3819,
      "áĥĲáĥļ": 3820,
      "ÎµÎ½": 3821,
      "89": 3822,
      "Ð¾ÑĢÐ¼": 3823,
      "Ġcas": 3824,
      "umb": 3825,
      "Ð»Ð°Ð½": 3826,
      "á»Ľi": 3827,
      "ĠÙħÙĪ": 3828,
      "cy": 3829,
      "AK": 3830,
      "53": 3831,
      "ws": 3832,
      "54": 3833,
      "70": 3834,
      "ackground": 3835,
      "Ġàªı": 3836,
      "ĠUS": 3837,
      "æĻ": 3838,
      "ea": 3839,
      "Ġ40": 3840,
      "Ġhave": 3841,
      "ĠÅ¾e": 3842,
      "ĠiÅ¡": 3843,
      "52": 3844,
      "Ġà¨ħ": 3845,
      "Ġeste": 3846,
      "ê±": 3847,
      "åľ°": 3848,
      "Ġà§": 3849,
      "leg": 3850,
      "å¸Ĥ": 3851,
      "ĠsiÄĻ": 3852,
      "Ġ%": 3853,
      "Ġï¿½ï¿½ï¿½ï¿½ï¿½ï¿½": 3854,
      "rev": 3855,
      "æľ¬": 3856,
      "Ġhel": 3857,
      "ÙĬØ¯": 3858,
      "86": 3859,
      "Ã¶l": 3860,
      "ÑĤÐµ": 3861,
      "Ä¯": 3862,
      "erm": 3863,
      "Ġà¨¤": 3864,
      "Ġmel": 3865,
      "ĠVi": 3866,
      "cess": 3867,
      "æĥ": 3868,
      "bb": 3869,
      "ĠÏĢÏģÎ¿": 3870,
      "Ġdom": 3871,
      "ilo": 3872,
      "ãĥª": 3873,
      "pen": 3874,
      "ÑĭÐ¹": 3875,
      "àµĤ": 3876,
      "áĪµ": 3877,
      "ĠPol": 3878,
      "íĶ": 3879,
      "hat": 3880,
      "Ġdari": 3881,
      "ÑĭÐ½Ð´Ð°": 3882,
      "Ð»Ðµ": 3883,
      "Ġà´¤": 3884,
      "ĠÏĥÏĦÎ¿": 3885,
      "jpg": 3886,
      "Ġáĥ¡áĥĲáĥ": 3887,
      "kar": 3888,
      "ions": 3889,
      "à¦Ĥ": 3890,
      "lov": 3891,
      "å°ı": 3892,
      "áŀ¹": 3893,
      "ãģĤ": 3894,
      "2020": 3895,
      "àº»": 3896,
      "Ġdalam": 3897,
      "ĠÐ¿ÑĢÐ¾": 3898,
      "elen": 3899,
      "lin": 3900,
      "ä½ĵ": 3901,
      "á»§a": 3902,
      "Î¹Î¿": 3903,
      "Äģm": 3904,
      "íķ´": 3905,
      "åŁ": 3906,
      "oje": 3907,
      "Ð´Ð°ÑĢ": 3908,
      "æ¬": 3909,
      "IM": 3910,
      "Ġtan": 3911,
      "itar": 3912,
      "Ġà¤Ĺà¤°": 3913,
      "Ø±Ø¯": 3914,
      "vers": 3915,
      "alm": 3916,
      "Ġsim": 3917,
      "ÑĨÑĸ": 3918,
      "Ġàªķàª°": 3919,
      "ske": 3920,
      "Ġë§": 3921,
      "aca": 3922,
      "Ġten": 3923,
      "Õ£": 3924,
      "ØªÙĩ": 3925,
      "ĠÕ¾": 3926,
      "áŀ¶âĢĭ": 3927,
      "Ġìĭ": 3928,
      "51": 3929,
      "pon": 3930,
      "Ġpun": 3931,
      "Ġhab": 3932,
      "åĴĮ": 3933,
      "Î¿ÏħÎ½": 3934,
      "\":[": 3935,
      "æľĪ": 3936,
      "á»©": 3937,
      "Ġlab": 3938,
      "Ġdire": 3939,
      "èī": 3940,
      "ublic": 3941,
      "Ġcá»§a": 3942,
      "uu": 3943,
      "Ġtro": 3944,
      "urop": 3945,
      "Pr": 3946,
      "Ġfe": 3947,
      "jas": 3948,
      "ãĤ¢": 3949,
      "ail": 3950,
      "Ġata": 3951,
      "ëł": 3952,
      "oti": 3953,
      "ĠÏĦÎ±": 3954,
      "áĥĶáĥ¡": 3955,
      "Õ¶Õ¥ÖĢÕ«": 3956,
      "å¹³åı°": 3957,
      "ĠÐ°Ðº": 3958,
      "Ġprogram": 3959,
      "à»Ģàº": 3960,
      "nu": 3961,
      "inu": 3962,
      "ãģķ": 3963,
      "ogy": 3964,
      "ĠÎĶ": 3965,
      "ĠÎ£": 3966,
      "yle": 3967,
      "ĠÕ¸ÖĤ": 3968,
      "tab": 3969,
      "à¨ª": 3970,
      "Ġgro": 3971,
      "Ġà°°": 3972,
      "esh": 3973,
      "ĠÑĤÐ°": 3974,
      "Ġbez": 3975,
      "GT": 3976,
      "ÏģÏĮ": 3977,
      "ÏĦÎ®": 3978,
      "ukan": 3979,
      "Äģk": 3980,
      "ĠÐ¿Ð¾Ð»": 3981,
      "Ġbal": 3982,
      "Ġsub": 3983,
      "ĠÛģÙĪ": 3984,
      "Ð°ÑļÐµ": 3985,
      "æīĭæľº": 3986,
      "ĠTo": 3987,
      "ĠÐ¾Ñģ": 3988,
      "ÏĥÎµÎ¹": 3989,
      "ÑĶ": 3990,
      "âĢļ": 3991,
      "ĠDet": 3992,
      "à²ļ": 3993,
      "ĠÕ¸ÖĢ": 3994,
      "Ġcent": 3995,
      "à¸·à¹Ī": 3996,
      "ĠÐķ": 3997,
      "Ġuk": 3998,
      "Ġint": 3999,
      "Ġ08": 4000,
      "Ġ×¦": 4001,
      "htÃ«": 4002,
      "à°¬": 4003,
      "Ġhand": 4004,
      "ÙĴ": 4005,
      "Ð»Ð°": 4006,
      "Õ¥Õ½": 4007,
      "ags": 4008,
      "ĠØ§Ùħ": 4009,
      "76": 4010,
      "ĠØ§ÛĮÙĨ": 4011,
      "âĨ": 4012,
      "é¡": 4013,
      "Ġmaj": 4014,
      "¨áĥĺ": 4015,
      "ago": 4016,
      "Ø§Ø±ÛĮ": 4017,
      "ĠPM": 4018,
      "Ġvil": 4019,
      "Ġpred": 4020,
      "ijn": 4021,
      "kr": 4022,
      "à²ľ": 4023,
      "ple": 4024,
      "Ġnet": 4025,
      "ĠÐºÐ¾Ð½": 4026,
      "ĠÎľ": 4027,
      "Õ¡Õº": 4028,
      "ei": 4029,
      "éĺ": 4030,
      "Ø¥": 4031,
      "Î¼Î¿": 4032,
      "RO": 4033,
      "å¨": 4034,
      "alog": 4035,
      "The": 4036,
      "Ø±Ø¨": 4037,
      "Ð°Ð»Ð¸": 4038,
      "Ġ00": 4039,
      "ĠÐ³Ð¾Ð´": 4040,
      "ĠQu": 4041,
      "çİ¯äºļ": 4042,
      "api": 4043,
      "Ġdir": 4044,
      "yb": 4045,
      "itle": 4046,
      "ÑĥÐ·": 4047,
      "nÃ½": 4048,
      "×ķ×¤": 4049,
      "Ġeller": 4050,
      "lat": 4051,
      "idade": 4052,
      "áŁĶ": 4053,
      "ĠÕĢ": 4054,
      "ÑĢÐ°": 4055,
      "Ġseb": 4056,
      "æĮ": 4057,
      "ĠÑģÐ°Ð¼": 4058,
      "tal": 4059,
      "Ġgal": 4060,
      "iku": 4061,
      "ĠáĢĢ": 4062,
      "Ġdh": 4063,
      "ĠÚ©Ùĩ": 4064,
      "è¾": 4065,
      "×Ļ×Ĳ": 4066,
      "ãģ¾ãģĻ": 4067,
      "Ã¼k": 4068,
      "ĠNa": 4069,
      "EM": 4070,
      "Ã¤h": 4071,
      "áĥĺáĥľ": 4072,
      "iten": 4073,
      "ĠÐ¤": 4074,
      "Ġcare": 4075,
      "Ġdig": 4076,
      "Ð¸Ð¾Ð½": 4077,
      "uts": 4078,
      "ÉĻy": 4079,
      "ĠÙĨÛĴ": 4080,
      "imit": 4081,
      "é«": 4082,
      "ations": 4083,
      "umu": 4084,
      "ital": 4085,
      "Ġà²¤": 4086,
      "áŀķ": 4087,
      "íĻĶ": 4088,
      "ĠCar": 4089,
      "âĸ": 4090,
      "Ġáŀĵ": 4091,
      "ering": 4092,
      "ĠáĢĻ": 4093,
      "oka": 4094,
      "Ó©Ð»": 4095,
      "ĠÐ±ÐµÑĢ": 4096,
      "âĢ¢": 4097,
      "ĠÎ¤": 4098,
      "ĠáĥĻ": 4099,
      "ä½ľ": 4100,
      "Ã¤m": 4101,
      "ĠEx": 4102,
      "Ġinv": 4103,
      "Ġett": 4104,
      "uch": 4105,
      "ots": 4106,
      "áĥłáĥ": 4107,
      ".)": 4108,
      "á»¯": 4109,
      "Ġà¹ģ": 4110,
      "ton": 4111,
      "xx": 4112,
      "ÑĢÐ¾": 4113,
      "ĠÐ°Ð²": 4114,
      "æĪĲ": 4115,
      "à·Ŀ": 4116,
      "à¤ģ": 4117,
      "oko": 4118,
      "unn": 4119,
      "åĲĪ": 4120,
      "Ø³ÛĮ": 4121,
      "Ø§Ø¬": 4122,
      "jer": 4123,
      "ÑĭÒ£": 4124,
      "Ġnam": 4125,
      "ĠAz": 4126,
      "ĠviÃ°": 4127,
      "à±įâĢĮ": 4128,
      "Ġlet": 4129,
      "ebru": 4130,
      "ĠÑģÑĥ": 4131,
      "àº¡": 4132,
      "Ġnak": 4133,
      "Ġpak": 4134,
      "amente": 4135,
      "ĠÐ¹": 4136,
      "IB": 4137,
      "itet": 4138,
      "html": 4139,
      "Ġoo": 4140,
      "ĠÑĪÑĤÐ¾": 4141,
      "Ġà¶½": 4142,
      "jek": 4143,
      "Ô±": 4144,
      "×ķ×§": 4145,
      "à¨Ł": 4146,
      "ĠÏĨ": 4147,
      "ĠÎ²": 4148,
      "esp": 4149,
      "ÎĹ": 4150,
      "Ġze": 4151,
      "kur": 4152,
      "Ġà²Ĩ": 4153,
      "Î¼ÎŃ": 4154,
      "åħ¨": 4155,
      "ĠÙ¾Ùĩ": 4156,
      "Ġfil": 4157,
      "ç½ĳç«Ļ": 4158,
      "ëĭĪëĭ¤": 4159,
      "Ġdia": 4160,
      "Ġà¤Ľ": 4161,
      "Ġdon": 4162,
      "Ġels": 4163,
      "ÃŁ": 4164,
      "ahan": 4165,
      "ayo": 4166,
      "å¤§åıĳ": 4167,
      "omo": 4168,
      "Ä§": 4169,
      "ical": 4170,
      "vÃŃ": 4171,
      "dr": 4172,
      "Ġnaj": 4173,
      "Õ¢": 4174,
      "Õº": 4175,
      "Ġprz": 4176,
      "ĠHe": 4177,
      "×ķ×©": 4178,
      "fin": 4179,
      "à«ĩ.": 4180,
      "Ú¾ÛĮ": 4181,
      "ĠAM": 4182,
      "ence": 4183,
      "Ã¡g": 4184,
      "Ò¯Ð¹": 4185,
      "çľŁ": 4186,
      "Ġins": 4187,
      "à¥ĭà¤Ĥ": 4188,
      "Ø¯Ùĩ": 4189,
      "ĠvÃ½": 4190,
      "yst": 4191,
      "Ġcre": 4192,
      "arch": 4193,
      "ãģĹãģ¦": 4194,
      "ÄŁÄ±": 4195,
      "ept": 4196,
      "Ġcho": 4197,
      "ants": 4198,
      "çĲĨ": 4199,
      "Ġãĥ": 4200,
      "adh": 4201,
      "tid": 4202,
      "ì£¼": 4203,
      "kel": 4204,
      "ÙĨØ§": 4205,
      "Ġfac": 4206,
      "ĠìĦ": 4207,
      "Ø±Ùħ": 4208,
      "ĠÃ¨": 4209,
      "ÑĨÐ°": 4210,
      "Ġà´İ": 4211,
      "Ġhan": 4212,
      "à³Ĩ.": 4213,
      "ĠØ¨Ø§": 4214,
      "áĥĶáĥł": 4215,
      "Ġot": 4216,
      "OT": 4217,
      "ĠØ¹ÙĦÙī": 4218,
      "ÑĸÑĤ": 4219,
      "Ġroz": 4220,
      "è¨": 4221,
      "ÐµÐ½Ð°": 4222,
      "Post": 4223,
      "ĠáĢŀ": 4224,
      "Ö¸": 4225,
      "à±Ĭ": 4226,
      "inta": 4227,
      "Ġpan": 4228,
      "ëĿ¼": 4229,
      "ÑĭÑĪ": 4230,
      "ÑģÑĮ": 4231,
      "En": 4232,
      "ĠÙħØŃ": 4233,
      "ĠÑī": 4234,
      "osa": 4235,
      "==": 4236,
      "ĠFran": 4237,
      "Ġsus": 4238,
      "à«Ĥ": 4239,
      "âķ": 4240,
      "ãģĬ": 4241,
      "ä¾": 4242,
      "æĦ": 4243,
      "Ġtik": 4244,
      "à²¦à²°": 4245,
      "Ġig": 4246,
      "Ã°i": 4247,
      "Ġ31": 4248,
      "Ġpel": 4249,
      "Ġà¤ķà¤°": 4250,
      "istr": 4251,
      "Ġcel": 4252,
      "69": 4253,
      "ulle": 4254,
      "indi": 4255,
      "ais": 4256,
      "áĢ·áĢ¹": 4257,
      "ĠÑģÐ°": 4258,
      "ciÃ³": 4259,
      "à°¿.": 4260,
      "bat": 4261,
      "Ã¡z": 4262,
      "àª¬": 4263,
      "Ġï¿½ï¿½ï¿½": 4264,
      "ĠÐ´Ð»Ñı": 4265,
      "æĪı": 4266,
      "ĠAng": 4267,
      "Ġvel": 4268,
      "cel": 4269,
      "ĠdÃ©": 4270,
      "van": 4271,
      "Ġgl": 4272,
      "ĠAll": 4273,
      "ä¸º": 4274,
      "Ġalle": 4275,
      "sel": 4276,
      "×ķ×¡": 4277,
      "ics": 4278,
      "Ġuit": 4279,
      "ĠÐºÐ¾Ñĺ": 4280,
      "Å¾i": 4281,
      "uda": 4282,
      "à¸¥à¸°": 4283,
      "ä»¥": 4284,
      "à¦¥": 4285,
      "ĠáĥĹ": 4286,
      "osi": 4287,
      "Ġsav": 4288,
      "mat": 4289,
      "Ð°Ð´Ð¸": 4290,
      "åĢ": 4291,
      "Ø§ÙĨÛĮ": 4292,
      "ugu": 4293,
      "oks": 4294,
      "fault": 4295,
      "anto": 4296,
      "ÏĦÏĮ": 4297,
      "æ¯": 4298,
      "ĠØº": 4299,
      "ĠÐ¨": 4300,
      "ono": 4301,
      "abi": 4302,
      "à¸ĸ": 4303,
      "Ġhor": 4304,
      "Ø±Ùģ": 4305,
      "ÑģÑĤÐ°Ð½": 4306,
      "2015": 4307,
      "ÑĬÑĢ": 4308,
      "jem": 4309,
      "uth": 4310,
      "ĠÐ±Ð¸Ð»": 4311,
      "Ġbest": 4312,
      "Ġà¤ļ": 4313,
      "name": 4314,
      "Ð½ÑĭÑħ": 4315,
      "ÑĥÐ¶": 4316,
      "Id": 4317,
      "Ġsist": 4318,
      "àºļ": 4319,
      "Ġlu": 4320,
      "mun": 4321,
      "inter": 4322,
      "ãģ£ãģ¦": 4323,
      "Ch": 4324,
      "Ġwill": 4325,
      "Ð³Ð¾": 4326,
      "Î¿Î»": 4327,
      "Ġesp": 4328,
      "ĠÏĥÏĦÎ·": 4329,
      "usk": 4330,
      "éĩĳ": 4331,
      "enda": 4332,
      "Ġmot": 4333,
      "ÑĭÑĤ": 4334,
      "à¯Ģ": 4335,
      "æ¸¸æĪı": 4336,
      "ĠÏĥÎµ": 4337,
      "ĠÑĥÑĩ": 4338,
      "ĠÕ¥Õ¶": 4339,
      "à¦ĸ": 4340,
      "à¨¬": 4341,
      "oda": 4342,
      "64": 4343,
      "oro": 4344,
      "ĠÐºÐ°Ðº": 4345,
      "ÏģÎ³": 4346,
      "Ġci": 4347,
      "Ġegy": 4348,
      "eve": 4349,
      "ĠÑĤÐ¾": 4350,
      "Î¬Î½": 4351,
      "ĠÐ´Ð°ÑĢ": 4352,
      "alse": 4353,
      "aciÃ³": 4354,
      "IR": 4355,
      "zer": 4356,
      "áŀ¸âĢĭ": 4357,
      "dis": 4358,
      "Ãī": 4359,
      "ĠÕ¡Õµ": 4360,
      "à¶Ĥ": 4361,
      "à²¶": 4362,
      "><": 4363,
      "å®ī": 4364,
      "Ġserv": 4365,
      "ä¸ĩ": 4366,
      "ÉĻm": 4367,
      "Ġtim": 4368,
      "áŁī": 4369,
      "Ä±z": 4370,
      "Ġass": 4371,
      "é«ĺ": 4372,
      "à¤Ľ": 4373,
      "Ġide": 4374,
      "æľĢ": 4375,
      "áĥĶáĥĳáĥĺáĥ¡": 4376,
      "åŃĲ": 4377,
      "idi": 4378,
      "Ġ2009": 4379,
      "ĠCl": 4380,
      "ÐµÑħ": 4381,
      "ÅĦ": 4382,
      "Ġtidak": 4383,
      "iau": 4384,
      "Ð°Ð²Ð°": 4385,
      "Ġnap": 4386,
      "Ġ03": 4387,
      "Ġhv": 4388,
      "Ã¶v": 4389,
      "izi": 4390,
      "ÙħÙĦ": 4391,
      "ĠAb": 4392,
      "omen": 4393,
      "×Ļ×ĺ": 4394,
      "Ġneg": 4395,
      "à´ŀ": 4396,
      "Ġved": 4397,
      "ÅĪ": 4398,
      "Ã°ur": 4399,
      "åĮĹ": 4400,
      "ÛĮÚ©": 4401,
      "Ġtop": 4402,
      "iter": 4403,
      "Ġìĺ": 4404,
      "rib": 4405,
      "à¸¶": 4406,
      "à©į": 4407,
      "Ġà¤¶": 4408,
      "Î±ÏĤ": 4409,
      "ump": 4410,
      "ĠAs": 4411,
      "cs": 4412,
      "Ġinte": 4413,
      "Ġà²ĩ": 4414,
      "&#": 4415,
      "2014": 4416,
      "????": 4417,
      "isti": 4418,
      "Ġà¸ª": 4419,
      "Ġtul": 4420,
      "Ġhy": 4421,
      "Ġals": 4422,
      "âĢ²": 4423,
      "à°¶": 4424,
      "ski": 4425,
      "\"]": 4426,
      "Õ¥ÖĢÕ¨": 4427,
      "Ġgen": 4428,
      "è¦ģ": 4429,
      "ĠØ±Ø§": 4430,
      "à±ģà°Ĥ": 4431,
      "text": 4432,
      "jes": 4433,
      "ĠDi": 4434,
      "ÙĨÛĴ": 4435,
      "Ġcap": 4436,
      "Å¡ÃŃ": 4437,
      "Ġáīł": 4438,
      "Ã¬nh": 4439,
      "ales": 4440,
      "vol": 4441,
      "Õ¹": 4442,
      "alu": 4443,
      "ĠVer": 4444,
      "ului": 4445,
      "Ġret": 4446,
      "can": 4447,
      "Ġnum": 4448,
      "ĠuÅ¾": 4449,
      "ìŀĲ": 4450,
      "ÑĭÑı": 4451,
      "ÑĭÐ³": 4452,
      "Ġjed": 4453,
      "ych": 4454,
      "Ad": 4455,
      "ĠMas": 4456,
      "ÏģÎµ": 4457,
      "tar": 4458,
      "ĠÏĢÎ±": 4459,
      "94": 4460,
      "ÙĬÙĦ": 4461,
      "ìĨ": 4462,
      "ÙħÙĨ": 4463,
      "×©×¨": 4464,
      "Ġtemp": 4465,
      "Ġtai": 4466,
      "ador": 4467,
      "áĪĪ": 4468,
      "osh": 4469,
      "ĠPa": 4470,
      "ÈĻi": 4471,
      "umi": 4472,
      "Ġà²İ": 4473,
      "Ġlah": 4474,
      "ìľ¼": 4475,
      "áĥĲáĥª": 4476,
      "Ġà°Ĩ": 4477,
      "ĠÐ°Ð¹": 4478,
      "áĥĴ": 4479,
      "Ġpentru": 4480,
      "Ġ*": 4481,
      "ãģ§ãģĻ": 4482,
      "ë¬": 4483,
      "Ġï¿½ï¿½ï¿½ï¿½ï¿½ï¿½ï¿½": 4484,
      "zn": 4485,
      "Ġloc": 4486,
      "ÙĪØ¨": 4487,
      "Ġà¨¬": 4488,
      "ÎĿ": 4489,
      "nej": 4490,
      "cu": 4491,
      "Ã°a": 4492,
      "ĠÐ²ÑĢ": 4493,
      "áº¯": 4494,
      "æ³¨": 4495,
      "urg": 4496,
      "Å¡t": 4497,
      "ç´": 4498,
      "Ġnav": 4499,
      "á»ĵ": 4500,
      "ally": 4501,
      "ÒĵÐ°Ð½": 4502,
      "çĶµ": 4503,
      "ĠÐ±Ð°": 4504,
      "Ġyo": 4505,
      "iner": 4506,
      "Ġà¤ı": 4507,
      "Öī": 4508,
      "ãģł": 4509,
      "Õ¥ÖĤ": 4510,
      "Å±": 4511,
      "Ġfo": 4512,
      "çł": 4513,
      "Î¯Î½Î±Î¹": 4514,
      "Ġkont": 4515,
      "oss": 4516,
      "ìĺ¤": 4517,
      "Ġ×ĺ": 4518,
      "åĵģ": 4519,
      "Ġkes": 4520,
      "ĠDie": 4521,
      "ÙĪÛĮ": 4522,
      "Ġcer": 4523,
      "ĠPor": 4524,
      "·¸": 4525,
      "85": 4526,
      "×ķ×Ĺ": 4527,
      "ĠDr": 4528,
      "ÙħØ§": 4529,
      "ĠmÃ«": 4530,
      "à¦Ń": 4531,
      "ĠØ§": 4532,
      "rij": 4533,
      "yg": 4534,
      "à¸ľ": 4535,
      "ÑĥÑĥ": 4536,
      "á»ĩn": 4537,
      "lam": 4538,
      "à²§": 4539,
      "Ġfi": 4540,
      "ë©": 4541,
      "87": 4542,
      "Ġfyr": 4543,
      "ÙĨÚ¯": 4544,
      "à¦£": 4545,
      "Ġkel": 4546,
      "Ãĥ": 4547,
      "ĀĀĀĀĀĀĀĀ": 4548,
      "ĠGo": 4549,
      "asti": 4550,
      "Ġhat": 4551,
      "top": 4552,
      "Ġhad": 4553,
      "Õ©": 4554,
      "çŃ": 4555,
      "ÏīÏĤ": 4556,
      "rez": 4557,
      "àª³": 4558,
      "Õ¡Õ¦": 4559,
      "Ø¹Ø¯": 4560,
      "Ġà¤ªà¤°": 4561,
      "Ġmah": 4562,
      "inÄģ": 4563,
      "ĠBu": 4564,
      "Ġben": 4565,
      "Ġproduk": 4566,
      "ĠÅł": 4567,
      "ron": 4568,
      "emi": 4569,
      "×Ļ×ŀ": 4570,
      "cn": 4571,
      "ĠÎ»": 4572,
      "áº¿t": 4573,
      "Ãģ": 4574,
      "ĠÏħ": 4575,
      "ogo": 4576,
      "adan": 4577,
      "Ó£": 4578,
      "ĠÐ°Ð½": 4579,
      "èĩª": 4580,
      "Ġtam": 4581,
      "order": 4582,
      "):": 4583,
      "ms": 4584,
      "vin": 4585,
      "ìĽĲ": 4586,
      "Ġàª¦": 4587,
      "ĠáĥĶ": 4588,
      "×Ļ×¢": 4589,
      "æĪĳ": 4590,
      "æĽ": 4591,
      "å®ĺæĸ¹": 4592,
      "Ġ07": 4593,
      "Ġste": 4594,
      "ĠÕ¡Õ¶": 4595,
      "tif": 4596,
      "à¹Ģà¸Ľ": 4597,
      "ãģĹãģŁ": 4598,
      "Î»Îµ": 4599,
      "bil": 4600,
      "default": 4601,
      "Ġà¦°": 4602,
      "Ġ×ĳ×ŀ": 4603,
      "Î»Î·": 4604,
      "ioni": 4605,
      "Ġì§": 4606,
      "èģ": 4607,
      "Ġresp": 4608,
      "Ð¸ÑĤÑĮ": 4609,
      "Ġitu": 4610,
      "ĠÙĩÙħ": 4611,
      "ownload": 4612,
      "gt": 4613,
      "áĢŀáĢĬ": 4614,
      "add": 4615,
      "èĪ": 4616,
      "ĠáĬ¥": 4617,
      "Ġà¦¶": 4618,
      "Ð¾Ñŀ": 4619,
      "ĠÎ±Î½": 4620,
      "ever": 4621,
      "Ġàªħàª¨": 4622,
      "Õ¥Õ²": 4623,
      "ĠKom": 4624,
      "àªļ": 4625,
      "eza": 4626,
      "Ġà®İà®©": 4627,
      "cent": 4628,
      "à°§": 4629,
      "ĠÑıÐº": 4630,
      "obil": 4631,
      "itas": 4632,
      "ĠHotel": 4633,
      "åľ¨çº¿": 4634,
      "ulo": 4635,
      "ĠBer": 4636,
      "eck": 4637,
      "ÅĽci": 4638,
      "èĥ½": 4639,
      "Ð²Ð°Ð½": 4640,
      "à¯Ĥ": 4641,
      "Ġkir": 4642,
      "mes": 4643,
      "IK": 4644,
      "Ð°Ð´Ð°": 4645,
      "×¤×¨": 4646,
      "sub": 4647,
      "Ġtut": 4648,
      "Ð¸ÑĦ": 4649,
      "Ġgre": 4650,
      "Ġraz": 4651,
      "Ġant": 4652,
      "url": 4653,
      "ÑĭÐ½Ð°": 4654,
      "à¶°": 4655,
      "ĠáĬł": 4656,
      "Ġgel": 4657,
      "à¶ºà¶ļ": 4658,
      "çĤ": 4659,
      "ĠØ§ÙĦØ³": 4660,
      "Ġpolit": 4661,
      "å·¥": 4662,
      "àº¥": 4663,
      "Õ¡Õ¶Õ«": 4664,
      "agen": 4665,
      "Ġà¨ĩ": 4666,
      "ĠÐ¿Ð¾Ð²": 4667,
      "endo": 4668,
      "ÎºÎµ": 4669,
      "ones": 4670,
      "ĠSu": 4671,
      "Å¡i": 4672,
      "Ã©ho": 4673,
      "ĠÄĲ": 4674,
      "å¤ļ": 4675,
      "TC": 4676,
      "Õ¸Õ¶": 4677,
      "Ġmais": 4678,
      "Ġà¶º": 4679,
      "ĠiÃ§": 4680,
      "ÏĥÎµ": 4681,
      "Ùĭ": 4682,
      "link": 4683,
      "\\/": 4684,
      "mb": 4685,
      "Sh": 4686,
      "áŀļáŀĶ": 4687,
      "Ġàª²": 4688,
      "ulu": 4689,
      "Å«s": 4690,
      "ÅŃ": 4691,
      "ç¤": 4692,
      "ìĤ": 4693,
      "ĠmÃ¥": 4694,
      "çīĪ": 4695,
      "ÙĨÛĮ": 4696,
      "ume": 4697,
      "itat": 4698,
      "No": 4699,
      "Ã¡ch": 4700,
      "adas": 4701,
      "Ġgu": 4702,
      "Ã¤Ã¤n": 4703,
      "xa": 4704,
      "Ġinn": 4705,
      "Ġï¿½ï¿½": 4706,
      "Ġdob": 4707,
      "cer": 4708,
      "play": 4709,
      "pan": 4710,
      "nak": 4711,
      "ëŀ": 4712,
      "Ġnep": 4713,
      "Ð»ÐµÐ´": 4714,
      "åĿĢ": 4715,
      "ÐµÑĤÐµ": 4716,
      "ĠMe": 4717,
      "Ġáĥŀ": 4718,
      "Ġà¨²": 4719,
      "Î½Î·": 4720,
      "áĢĲáĢļ": 4721,
      "ÑĥÑħ": 4722,
      ".âĢĿ": 4723,
      "ojn": 4724,
      "Ġparti": 4725,
      "Ð¼Ð°": 4726,
      "ĠNov": 4727,
      "Ġalt": 4728,
      "eto": 4729,
      "ĠÃ«": 4730,
      "aut": 4731,
      "ling": 4732,
      "eter": 4733,
      "Ð¾ÑĦ": 4734,
      "trol": 4735,
      "à®ªà®Ł": 4736,
      "ĠÐºÐ°ÑĢ": 4737,
      "Ġ60": 4738,
      "à¨Ī": 4739,
      "ØªÙħ": 4740,
      "Ġhogy": 4741,
      "éķ": 4742,
      "hod": 4743,
      "car": 4744,
      "ìĸ´": 4745,
      "ster": 4746,
      "Æ°á»£c": 4747,
      "Äģd": 4748,
      "Õ¡ÕŃ": 4749,
      "ĠáĢľ": 4750,
      "indow": 4751,
      "enÃŃ": 4752,
      "Ġart": 4753,
      "Ġáģ": 4754,
      "').": 4755,
      "tions": 4756,
      "Ġbeg": 4757,
      "Ãį": 4758,
      "bol": 4759,
      "ä¸ª": 4760,
      "color": 4761,
      "ĠMin": 4762,
      "Ã¡k": 4763,
      "áĢ¯áĢŃ": 4764,
      "åģ": 4765,
      "ĠBa": 4766,
      "Ġê³": 4767,
      "Î¿Î½": 4768,
      "ĠáĢĲ": 4769,
      "amos": 4770,
      "à¸ĵ": 4771,
      "lich": 4772,
      "Îļ": 4773,
      "Ġakan": 4774,
      "De": 4775,
      "áĥĶáĥĳáĥĲ": 4776,
      "91": 4777,
      "éĹ¨": 4778,
      "chn": 4779,
      "ĠsÃº": 4780,
      "à´§": 4781,
      "Im": 4782,
      "Õ¡Õ·": 4783,
      "ç¨": 4784,
      "essa": 4785,
      "¾áĢĢ": 4786,
      "Î®ÏĤ": 4787,
      "ĠDE": 4788,
      "ĠÎµÎ¯Î½Î±Î¹": 4789,
      "amento": 4790,
      "ä¸ļ": 4791,
      "Ġsit": 4792,
      "UL": 4793,
      "usta": 4794,
      "plic": 4795,
      "osta": 4796,
      "row": 4797,
      "tek": 4798,
      "ãģĳ": 4799,
      "×Ļ×Ļ×Ŀ": 4800,
      "cie": 4801,
      "ube": 4802,
      "åł": 4803,
      "ational": 4804,
      "áĥĺáĥļ": 4805,
      "åŃ¦": 4806,
      "AV": 4807,
      "esto": 4808,
      "ĠfÃ¼r": 4809,
      "asÄ±": 4810,
      "Õ¡Õ²": 4811,
      "ĠÐ¾Ð½": 4812,
      "ĠÐ¿Ð¾Ñģ": 4813,
      "Ã¶g": 4814,
      "ral": 4815,
      "Ġbut": 4816,
      "jan": 4817,
      "rist": 4818,
      "à¤¾à¤Ĥ": 4819,
      "Ä±nÄ±n": 4820,
      "Î»Î±": 4821,
      "bal": 4822,
      "çĦ": 4823,
      "yan": 4824,
      "åı¯": 4825,
      "jt": 4826,
      "ĠTer": 4827,
      "Ġlag": 4828,
      "Îł": 4829,
      "è®¡": 4830,
      "Ö¼": 4831,
      "Ð¸ÑĤÐ¸": 4832,
      "áº¿n": 4833,
      "ĠâĢĻ": 4834,
      "ĠHer": 4835,
      "Ġà¦¯": 4836,
      "Ø±Ø§ÙĨ": 4837,
      "ĠÐĸ": 4838,
      "ĠkÃ¤": 4839,
      "áĭŃ": 4840,
      "hen": 4841,
      "entes": 4842,
      "à¹ĥà¸Ļ": 4843,
      "×Ļ×¡": 4844,
      "Ġëĭ": 4845,
      "ĠMat": 4846,
      "à´¶": 4847,
      "ĠÕ©": 4848,
      "ÑĤÑĮ": 4849,
      "à´Ĺ": 4850,
      "Ãĸ": 4851,
      "Ġdok": 4852,
      "ems": 4853,
      "nÃ¡": 4854,
      "ĠAir": 4855,
      "press": 4856,
      "Ã¼m": 4857,
      "Ġà®ī": 4858,
      "ÑģÑĤÑĢ": 4859,
      "ç¾İ": 4860,
      "Ġmm": 4861,
      "ser": 4862,
      "Ġkung": 4863,
      "aku": 4864,
      "ÙħÛĮ": 4865,
      "post": 4866,
      "................": 4867,
      "ĠSan": 4868,
      "ãĥ¬": 4869,
      "null": 4870,
      "idad": 4871,
      "à¦ĵ": 4872,
      "ques": 4873,
      "è§Ĩ": 4874,
      "à¹Ħà¸Ķ": 4875,
      "ogle": 4876,
      "mar": 4877,
      "ĠÐ³Ñį": 4878,
      "Ġchi": 4879,
      "Õ¥Öģ": 4880,
      "ĠCol": 4881,
      "imas": 4882,
      "Ġà´ļ": 4883,
      "ober": 4884,
      "ÑģÐºÐ°": 4885,
      "ining": 4886,
      "Ð°ÑĢÐ¸": 4887,
      "ody": 4888,
      "à¤ıà¤ķ": 4889,
      "ìĿ´íĬ¸": 4890,
      "aÃ°": 4891,
      "Ä«bas": 4892,
      "ĠÏĦÏīÎ½": 4893,
      "Ġesc": 4894,
      "ĠPo": 4895,
      "ĠØ¨Ø§ÙĦ": 4896,
      "Ġzd": 4897,
      "Ġpra": 4898,
      "Ġ×ĳ×Ĳ": 4899,
      "eva": 4900,
      "ĠJan": 4901,
      "Ġako": 4902,
      "Ġunder": 4903,
      "Å¾e": 4904,
      "ÑĥÑĥÐ»": 4905,
      "ĠÓĻ": 4906,
      "×ľ×Ĳ": 4907,
      "ÑĭÑħ": 4908,
      "àµ¼": 4909,
      "áŁĦáŁĩ": 4910,
      "Ġye": 4911,
      "Ġgratis": 4912,
      "áĬĵ": 4913,
      "shtÃ«": 4914,
      "ãĤĪ": 4915,
      "ĠëĤ": 4916,
      "Ð¸ÑĺÐµ": 4917,
      "Ø¢": 4918,
      "tive": 4919,
      "Ġvid": 4920,
      "Ð¨": 4921,
      "uru": 4922,
      "andi": 4923,
      "Ġäºļ": 4924,
      "ĠÈĻi": 4925,
      "ÑĻ": 4926,
      "ÃĦ": 4927,
      "à¸±à¹ī": 4928,
      "ateg": 4929,
      "ĠNe": 4930,
      "ĠmeÃ°": 4931,
      "à¹ĥà¸«": 4932,
      "2013": 4933,
      "ãĤ·": 4934,
      "ader": 4935,
      "Ġcm": 4936,
      "Ð°Ð½Ð¸": 4937,
      "tica": 4938,
      "92": 4939,
      "Ð½Ð¸Ð¹": 4940,
      "ĠÑĤÑĥÑĢ": 4941,
      "ĠÛģÛĮÚº": 4942,
      "part": 4943,
      "hol": 4944,
      "Ê»": 4945,
      "Ġà¶ĩ": 4946,
      "Ġpap": 4947,
      "ĠÑİ": 4948,
      "pet": 4949,
      "à²¿à²Ĥ": 4950,
      "à®µà®°": 4951,
      "à²µà²°": 4952,
      "Ġbas": 4953,
      "ments": 4954,
      "×ķ×¦": 4955,
      "put": 4956,
      "Ð²ÑĢ": 4957,
      "rop": 4958,
      "Ð°Ð¼Ð°": 4959,
      "Ġaus": 4960,
      "Th": 4961,
      "war": 4962,
      "åķ": 4963,
      "Ġinf": 4964,
      "àµ½": 4965,
      "ĠWe": 4966,
      "ĠáŀĶ": 4967,
      "áŁĥ": 4968,
      "×ł×Ķ": 4969,
      "åīį": 4970,
      "iny": 4971,
      "ÐµÐ½Ð¸Ðµ": 4972,
      "ÑĥÐ³": 4973,
      "×ł×ķ": 4974,
      "è¶": 4975,
      "Äĵt": 4976,
      "ĠFr": 4977,
      "ÙĪÙĬ": 4978,
      "nosti": 4979,
      "eny": 4980,
      "åĪ°": 4981,
      "oth": 4982,
      "ajo": 4983,
      "Ġstud": 4984,
      "ĠvÃ¦": 4985,
      "à¤ĩ": 4986,
      "é£": 4987,
      "ĠOnline": 4988,
      "ĠÐºÐ¾ÑĢ": 4989,
      "Ġend": 4990,
      "Ġhist": 4991,
      "Ã¡d": 4992,
      "Ġjan": 4993,
      "åħ¥": 4994,
      "TA": 4995,
      "iks": 4996,
      "ĠFl": 4997,
      "ĠÃ³": 4998,
      "à·ģ": 4999,
      "Ð¾Ð¼Ñĥ": 5000,
      "lex": 5001,
      "æı": 5002,
      "ëª": 5003,
      "Ġao": 5004,
      "abr": 5005,
      "Ãĩ": 5006,
      "íĸ": 5007,
      "ideos": 5008,
      "oria": 5009,
      "ird": 5010,
      "Ð°Ð»Ñĸ": 5011,
      "ikk": 5012,
      "ĠÐ±ÐµÐ»": 5013,
      "Ġjak": 5014,
      "fon": 5015,
      "LE": 5016,
      "93": 5017,
      "Ġlib": 5018,
      "omat": 5019,
      "éĸ": 5020,
      "Ġà¶ļà¶»": 5021,
      "Ã©k": 5022,
      "2012": 5023,
      "áĥĶáĥĳáĥĺ": 5024,
      "Ġune": 5025,
      "Ġpada": 5026,
      "anie": 5027,
      "Å¼e": 5028,
      "Ð¾ÑĢÑĤ": 5029,
      "Ð»Ð°Ñģ": 5030,
      "å¥½": 5031,
      "ìķĦ": 5032,
      "lÉĻ": 5033,
      "ĠInter": 5034,
      "ĠÌ§": 5035,
      "áĥĶáĥĽ": 5036,
      "Ġges": 5037,
      "Ġtah": 5038,
      "Ġ2008": 5039,
      "nost": 5040,
      "å½©ç¥¨": 5041,
      "iones": 5042,
      "ĠIs": 5043,
      "Ġàª¶": 5044,
      "Å¡k": 5045,
      "ĠÐ§": 5046,
      "ĠKar": 5047,
      "ĠìĿ´": 5048,
      "Ġinc": 5049,
      "idh": 5050,
      "äºĭ": 5051,
      "áº¹": 5052,
      "iver": 5053,
      "cip": 5054,
      "rek": 5055,
      "Ġà¦Ĺ": 5056,
      "ĠHa": 5057,
      "àµĬ": 5058,
      "ÑĢÐµÐ´": 5059,
      "ayan": 5060,
      "Ġpeng": 5061,
      "Ġprim": 5062,
      "Õ´Õ¡Õ¶": 5063,
      "Ġbak": 5064,
      "Ã©ny": 5065,
      "ĠMal": 5066,
      "¹Ħ": 5067,
      "àº´": 5068,
      "Ġ//": 5069,
      "Ġplan": 5070,
      "urt": 5071,
      "Ġ::": 5072,
      "Ġai": 5073,
      "Ġprin": 5074,
      "ëĮĢ": 5075,
      "Ġgy": 5076,
      "áĤı": 5077,
      "anga": 5078,
      "Ð°Ð¼Ð¸": 5079,
      "ÐµÐ½Ð¸Ñı": 5080,
      "×Ĺ×¨": 5081,
      "ĠDo": 5082,
      "Ġà´ĩ": 5083,
      "Ð°Ð½Ð½Ñı": 5084,
      "íĺ": 5085,
      "ÙĦØ§Ùħ": 5086,
      "×ķ×Ĵ": 5087,
      "ĠnÃ¤": 5088,
      "ref": 5089,
      "Cl": 5090,
      "ĠDes": 5091,
      "Õ«Öģ": 5092,
      "Ġfel": 5093,
      "Ġpass": 5094,
      "âĢĭâĢĭâĢĭâĢĭ": 5095,
      "ties": 5096,
      "Ð°Ð´Ñĭ": 5097,
      "84": 5098,
      "Ġà¦ļ": 5099,
      "Ø¦ÛĴ": 5100,
      "Ġ06": 5101,
      "à¤«": 5102,
      "ĠAt": 5103,
      "ĠÎ±Ïħ": 5104,
      "ãĥ³ãĥ": 5105,
      "Ġà¤¸à¤®": 5106,
      "Ø³ØªØ§ÙĨ": 5107,
      "hand": 5108,
      "ĠsÄĥ": 5109,
      "ç®": 5110,
      "ister": 5111,
      "à¤ī": 5112,
      "Ġeng": 5113,
      "ÑĸÑģ": 5114,
      "Ġdans": 5115,
      "âĢŀ": 5116,
      "Ä«t": 5117,
      "arb": 5118,
      "Ġjeg": 5119,
      "áģ¾áĢĢ": 5120,
      "wer": 5121,
      "mis": 5122,
      "ĠGu": 5123,
      "ĠHo": 5124,
      "Ġà¸ģ": 5125,
      "ĠÐ²Ñģ": 5126,
      "Re": 5127,
      "has": 5128,
      "ĠÃ«shtÃ«": 5129,
      "ĠÖĦ": 5130,
      "ebook": 5131,
      "osti": 5132,
      "ĠÕ¹": 5133,
      "box": 5134,
      "Ġbul": 5135,
      "Ġlig": 5136,
      "vÃ¤": 5137,
      "alla": 5138,
      "Ð»Ñĸ": 5139,
      "ĠÏĢÎµ": 5140,
      "åĬł": 5141,
      "Ð¾ÑĢÐ¸": 5142,
      "ĠìŀĪ": 5143,
      "ĠÕ°Õ¡Õ´": 5144,
      "img": 5145,
      "à¤¼": 5146,
      "Ġkul": 5147,
      "ĠbaÅŁ": 5148,
      "Ġà¤ĩ": 5149,
      "éľ": 5150,
      "mail": 5151,
      "å¨±": 5152,
      "Ð»ÐµÐº": 5153,
      "áĥĿáĥľ": 5154,
      "àºª": 5155,
      "ĠSk": 5156,
      "á»Ļt": 5157,
      "ĠÌģ": 5158,
      "Ġsab": 5159,
      "ĠReg": 5160,
      "à»į": 5161,
      "500": 5162,
      "×Ļ×¤": 5163,
      "Ð¾Ñħ": 5164,
      "Ġfilm": 5165,
      "amin": 5166,
      "Ġà²°": 5167,
      "Ð½Ð¸Ñħ": 5168,
      "ĠgÃ¶r": 5169,
      "Ġpom": 5170,
      "Ġ@": 5171,
      "Ã§a": 5172,
      "Ãµes": 5173,
      "Æ°á»Ľ": 5174,
      "à°£": 5175,
      "Å¡e": 5176,
      "Î¡": 5177,
      "ÒĵÐ°": 5178,
      "æĸĩ": 5179,
      "ific": 5180,
      "ĠìĤ¬": 5181,
      "Ġê¸": 5182,
      "etan": 5183,
      "åĭ": 5184,
      "ĠÃ®nt": 5185,
      "Ġtip": 5186,
      "è¿Ļ": 5187,
      "onom": 5188,
      "ĠSer": 5189,
      "áī°": 5190,
      "à´ķà´³": 5191,
      "áĥĿáĥ¡": 5192,
      "Ġagus": 5193,
      "ĠÙĦÙĦ": 5194,
      "ĠcÃ¡c": 5195,
      "Ġaqu": 5196,
      ",.": 5197,
      "áĢ³": 5198,
      "Ġnad": 5199,
      "ĠÑģÐ¼": 5200,
      "å»": 5201,
      "ÑĤÑĢ": 5202,
      "Ġvideo": 5203,
      "74": 5204,
      "mon": 5205,
      "Ġ×Ķ×©": 5206,
      "irk": 5207,
      "Ġauf": 5208,
      "Ġ×ľ×ŀ": 5209,
      "][": 5210,
      "cm": 5211,
      "nih": 5212,
      "àªĪ": 5213,
      "Ġtas": 5214,
      "Ġdata": 5215,
      "ĠìĪĺ": 5216,
      "ÑĥÐ²Ð°": 5217,
      "è²": 5218,
      "Úĳ": 5219,
      "Ġpou": 5220,
      "IP": 5221,
      "Ø¯Ùħ": 5222,
      "ower": 5223,
      "ë²": 5224,
      "Ġneb": 5225,
      "ĠØ§ÙĦØŃ": 5226,
      "à¸Ńà¸¢": 5227,
      "aria": 5228,
      "ĠØ£ÙĨ": 5229,
      "Ġook": 5230,
      "ates": 5231,
      "opp": 5232,
      "ìłķ": 5233,
      "çķ": 5234,
      "iva": 5235,
      "ìĤ°": 5236,
      "æĪ·": 5237,
      "á»Ł": 5238,
      "Ġmore": 5239,
      "Ã©p": 5240,
      "Ġtá»": 5241,
      "rs": 5242,
      "Ġvai": 5243,
      "ĠgÃ¶": 5244,
      "éĴ": 5245,
      "Ø¯Ø±": 5246,
      "Ð°Ð±Ð¾ÑĤ": 5247,
      "83": 5248,
      "Ġdz": 5249,
      "Ġpm": 5250,
      "ÕŃ": 5251,
      "ÕĿ": 5252,
      "ĠÐ²ÑĸÐ´": 5253,
      "áĪĺ": 5254,
      "ublik": 5255,
      "ĠáĮ": 5256,
      "ĠDa": 5257,
      "\"},{\"": 5258,
      "áģĬ": 5259,
      "content": 5260,
      "imul": 5261,
      "ext": 5262,
      "rad": 5263,
      "Ãĵ": 5264,
      "ĠØ§Ùģ": 5265,
      "ë§Į": 5266,
      "Æı": 5267,
      "ĠÐ±Ð¸ÑĢ": 5268,
      "Ġnuk": 5269,
      "à¸²à¸Ħ": 5270,
      "å¦": 5271,
      "view": 5272,
      "Ġich": 5273,
      "cio": 5274,
      "isen": 5275,
      "ÏĪ": 5276,
      "my": 5277,
      "TE": 5278,
      "à³ģ.": 5279,
      "ÐµÑļ": 5280,
      "Ġà¶»": 5281,
      "Ġoli": 5282,
      "à¯į,": 5283,
      "âĻ": 5284,
      "ĠÄĳÆ°á»£c": 5285,
      "ìĹĲìĦľ": 5286,
      "Ġ02": 5287,
      "ĠCas": 5288,
      "Ġà°Ĺ": 5289,
      "Ġë³": 5290,
      "ãģĿ": 5291,
      "ĠAk": 5292,
      "Ġann": 5293,
      "rÃ¡": 5294,
      "ĠRo": 5295,
      "áĢĺ": 5296,
      "å¨±ä¹Ĳ": 5297,
      "Ð¸Ð´Ð°": 5298,
      "ands": 5299,
      "Ġà´Ĩ": 5300,
      "lj": 5301,
      "ãĤ¿": 5302,
      "62": 5303,
      "ì²ľ": 5304,
      "æ£": 5305,
      "ÐºÑĤ": 5306,
      "Ġkut": 5307,
      "Ġà¨°": 5308,
      "etta": 5309,
      "Ġbed": 5310,
      "ÈĽi": 5311,
      "anz": 5312,
      "Ġëª": 5313,
      "Ġkep": 5314,
      "aten": 5315,
      "Ġáĥ¬": 5316,
      "Ġmund": 5317,
      "Ġfer": 5318,
      "Î¿ÏħÏĤ": 5319,
      "ĠJe": 5320,
      "Ġà°¦": 5321,
      "data": 5322,
      "ĠàªĹ": 5323,
      "Ġvien": 5324,
      "éĥ¨": 5325,
      "Õ¡Õ½Õ¿": 5326,
      "ĠMon": 5327,
      "63": 5328,
      "Ġáĥ£áĥ": 5329,
      "yar": 5330,
      "ìłĦ": 5331,
      "ÚĪ": 5332,
      "Ø±Ùĩ": 5333,
      "Ġpov": 5334,
      "OP": 5335,
      "ìĦ±": 5336,
      "çľĭ": 5337,
      "ĠÑģÐº": 5338,
      "esa": 5339,
      "ĠÐ¾Ð¿": 5340,
      "Ġfot": 5341,
      "à¤°à¤ķ": 5342,
      "é¦": 5343,
      "DA": 5344,
      "Ġget": 5345,
      "Ġhot": 5346,
      "olu": 5347,
      "å§": 5348,
      "owa": 5349,
      "Ġfir": 5350,
      "ĠEd": 5351,
      "àº«": 5352,
      "))": 5353,
      "Äĵj": 5354,
      "è·": 5355,
      "æ³ķ": 5356,
      "gj": 5357,
      "áĢ¹áģĭ": 5358,
      "ÃŃc": 5359,
      "Ġbiz": 5360,
      "ĠlÃ¤": 5361,
      "ê²Į": 5362,
      "Ġuma": 5363,
      "ĠÒļ": 5364,
      "ĠKa": 5365,
      "IG": 5366,
      "Ġentre": 5367,
      "ender": 5368,
      "ĠÐŃ": 5369,
      "Com": 5370,
      "Ãły": 5371,
      "Ġbij": 5372,
      "inal": 5373,
      "×Ľ×ľ": 5374,
      "ticle": 5375,
      "ĠkhÃ´ng": 5376,
      "riv": 5377,
      "Ġgener": 5378,
      "äº¬": 5379,
      "ĠMo": 5380,
      "×ĵ×¨": 5381,
      "Ġtag": 5382,
      "ied": 5383,
      "uw": 5384,
      "Ã©sz": 5385,
      "ustr": 5386,
      "Ð½Ð°Ñı": 5387,
      "mal": 5388,
      "å½©ç¥ŀ": 5389,
      "Ø¦ÛĮ": 5390,
      "ating": 5391,
      "ĠÐ¸Ð»Ð¸": 5392,
      "èĭ": 5393,
      "áī½": 5394,
      "font": 5395,
      "ible": 5396,
      "Ġnor": 5397,
      "ĠvÃ¤": 5398,
      "ê³¼": 5399,
      "ÙĪØ²": 5400,
      "Ġà¨Ĺ": 5401,
      "áĭ«": 5402,
      "ĠÃĲ": 5403,
      "ĠÙħØ³": 5404,
      "79": 5405,
      "rov": 5406,
      "Ġà¤ĸ": 5407,
      "iza": 5408,
      "ading": 5409,
      "Ð¾Ð²Ð°Ð½": 5410,
      "ĠBo": 5411,
      "à¹Ģà¸¥": 5412,
      "ĠVal": 5413,
      "Ġmark": 5414,
      "lt": 5415,
      "íĨ": 5416,
      "Ġzijn": 5417,
      "area": 5418,
      "GC": 5419,
      "iel": 5420,
      "Ġà°¬": 5421,
      "ĠIm": 5422,
      ".\"": 5423,
      "ĠÕŃ": 5424,
      "Ð¾Ñİ": 5425,
      "dag": 5426,
      "iler": 5427,
      "ivo": 5428,
      "pu": 5429,
      "adr": 5430,
      "igt": 5431,
      "ÐµÐºÐ°": 5432,
      "çŁ": 5433,
      "etr": 5434,
      "urr": 5435,
      "Ġji": 5436,
      "Ð¾Ñı": 5437,
      "elij": 5438,
      "à©Ĥà©°": 5439,
      "IV": 5440,
      "ÏĥÎ·ÏĤ": 5441,
      "Ġà°ī": 5442,
      "AH": 5443,
      "ç¬": 5444,
      "Ġtom": 5445,
      "Ġdiv": 5446,
      "ÉĻh": 5447,
      "Ġbah": 5448,
      "ĠIt": 5449,
      "å£": 5450,
      "usa": 5451,
      "ĠÄĮ": 5452,
      "ÙħØ¯": 5453,
      "Ġgar": 5454,
      "×Ļ×Ľ": 5455,
      "Ġ×Ķ×ª": 5456,
      "Ġcs": 5457,
      "Ġug": 5458,
      "ines": 5459,
      "ÃŃv": 5460,
      "Ġqui": 5461,
      "áĥ§": 5462,
      "jar": 5463,
      "éĽĨ": 5464,
      "Ġdella": 5465,
      "ÅŁÄ±": 5466,
      "vent": 5467,
      "ugh": 5468,
      "Ã¶k": 5469,
      "áº·": 5470,
      "itor": 5471,
      "igi": 5472,
      "72": 5473,
      "ì½": 5474,
      "ario": 5475,
      "ÙĦØ§": 5476,
      "Ġmom": 5477,
      "ÐµÐ½Ð½Ñı": 5478,
      "ìľ¼ë¡ľ": 5479,
      "ÑĢÑĥÐ³": 5480,
      "Ġpoz": 5481,
      "azi": 5482,
      "image": 5483,
      "ÏģÎ·": 5484,
      "ãĤ³": 5485,
      "eller": 5486,
      "ÏģÏī": 5487,
      "82": 5488,
      "ĠÙĨÛģ": 5489,
      "nis": 5490,
      "ÅĤa": 5491,
      "Ð¸ÑĤÐµÐ»": 5492,
      "áĥ£áĥł": 5493,
      "Ġtab": 5494,
      "Ð¸Ð¼Ð°": 5495,
      "Ġpam": 5496,
      "ident": 5497,
      "vet": 5498,
      "Ð³ÑĢ": 5499,
      "Ġ..": 5500,
      "ĠáĢķ": 5501,
      "Le": 5502,
      "×Ļ×ķ": 5503,
      "tel": 5504,
      "ĠÐ¿ÑĢÐ°Ð²": 5505,
      "ÑĸÒ£": 5506,
      "Ġons": 5507,
      "Ġbuh": 5508,
      "ĠMag": 5509,
      "×¢×ľ": 5510,
      "ÑįÐ´": 5511,
      "Ġsed": 5512,
      "iye": 5513,
      "Â»,": 5514,
      "ĠÙħØ´": 5515,
      "Ġham": 5516,
      "TM": 5517,
      "ÐĨ": 5518,
      "ĠÏĦÎ¹": 5519,
      "Ġyap": 5520,
      "Ð½Ð¾Ð¹": 5521,
      "dÉĻ": 5522,
      "íĶĦ": 5523,
      "ĠRep": 5524,
      "Ġproduc": 5525,
      "Ġsobre": 5526,
      "ĠCent": 5527,
      "ĠÎ¬": 5528,
      "ism": 5529,
      "ä»£": 5530,
      "ĠÐ°Ñģ": 5531,
      "ĠÙħØ±": 5532,
      "Ġà¤¥": 5533,
      "ced": 5534,
      "Ãłn": 5535,
      "NE": 5536,
      "Ð»Ð°ÑĤ": 5537,
      "ĠnÃ¡": 5538,
      "èĤ²": 5539,
      "Ġoff": 5540,
      "Ð¼Ð¸": 5541,
      "Ð¸ÐºÐ°": 5542,
      "81": 5543,
      "×Ļ×ļ": 5544,
      "Ġà°ĩ": 5545,
      "Ġà»": 5546,
      "ĠMay": 5547,
      "Ġvor": 5548,
      "ĠÐ±ÑĥÐ´": 5549,
      "Õ¡ÕµÕ«Õ¶": 5550,
      "Ġ×ŀ×Ķ": 5551,
      "XX": 5552,
      "çĻ»": 5553,
      "ÙĦÙī": 5554,
      "sing": 5555,
      "ĠÎ¸Î±": 5556,
      "Ġnev": 5557,
      "anti": 5558,
      "Ġbus": 5559,
      "ĠÑģÑĬ": 5560,
      "Ġnek": 5561,
      "å®ļ": 5562,
      "eno": 5563,
      "Ġcal": 5564,
      "ÅĻÃŃ": 5565,
      "çīĮ": 5566,
      "ester": 5567,
      "ING": 5568,
      "ëĤĺ": 5569,
      "ĠJa": 5570,
      "hal": 5571,
      "à¨ĸ": 5572,
      "med": 5573,
      "áĥĺáĥĵ": 5574,
      "ieg": 5575,
      "à¹Ģà¸£": 5576,
      "¯¸": 5577,
      "ì¹´": 5578,
      "\\\"": 5579,
      "ãĢĮ": 5580,
      "ÛĮØª": 5581,
      "ĠEst": 5582,
      "à¥Į": 5583,
      "Ġ×ķ×Ķ": 5584,
      "ÐºÐµ": 5585,
      "],": 5586,
      "à°¹": 5587,
      "ÑģÐ°": 5588,
      "èĢħ": 5589,
      "ìłľ": 5590,
      "orld": 5591,
      "Ø§Ø®": 5592,
      "Ġris": 5593,
      "Ġ05": 5594,
      "ĠÄĳi": 5595,
      "ÒĵÑĭ": 5596,
      "lem": 5597,
      "heid": 5598,
      "ĠzÃ¡": 5599,
      "ĠEurop": 5600,
      "lim": 5601,
      "ãĢį": 5602,
      "ÑĢÐ°Ð²": 5603,
      "å¿ĥ": 5604,
      "è£": 5605,
      "Ġbek": 5606,
      "ĠAS": 5607,
      "Ġà°²": 5608,
      "Ø§Ûģ": 5609,
      "Ã¢l": 5610,
      "ÙĪØ³": 5611,
      "ĠIN": 5612,
      "Ġmill": 5613,
      "ÑĸÑĩ": 5614,
      "á»ģu": 5615,
      "Ġpla": 5616,
      "ĠÐ¯": 5617,
      "Ġpok": 5618,
      "ĠEs": 5619,
      "Ġri": 5620,
      "Ġktor": 5621,
      "ìĻ": 5622,
      "Ø§Øµ": 5623,
      "bin": 5624,
      "Ġ×ŀ×Ĳ": 5625,
      "Îľ": 5626,
      "rd": 5627,
      "ìķĪë§Ī": 5628,
      "Ġ;": 5629,
      "æ¶": 5630,
      "Î¸Îµ": 5631,
      "ece": 5632,
      "Ġ×ŀ×©": 5633,
      "UM": 5634,
      "Un": 5635,
      "ĠKo": 5636,
      "ÄĿ": 5637,
      "Ã³d": 5638,
      "Ġ×Ķ×Ĺ": 5639,
      "Ġgrup": 5640,
      "Ġaw": 5641,
      "aji": 5642,
      "ĠÐ±ÐµÐ·": 5643,
      "ĠAc": 5644,
      "Ph": 5645,
      "gar": 5646,
      "uba": 5647,
      "ĠGe": 5648,
      "asan": 5649,
      "áŁĲ": 5650,
      "ĠiÅŁ": 5651,
      "Ġmol": 5652,
      "à§ĩà¥¤": 5653,
      "idas": 5654,
      "Â±": 5655,
      "Ġapr": 5656,
      "Ġuch": 5657,
      "ĠIl": 5658,
      "àªĸ": 5659,
      "isten": 5660,
      "Ġjest": 5661,
      "Â£": 5662,
      "æĬķ": 5663,
      "Ġmor": 5664,
      "ë¶Ģ": 5665,
      "åĬĽ": 5666,
      "Ã©e": 5667,
      "Ġinternet": 5668,
      "Ġå¤§åıĳ": 5669,
      "Ġred": 5670,
      "tre": 5671,
      "ëį": 5672,
      "ëĵ¤": 5673,
      "Ġcheck": 5674,
      "uten": 5675,
      "ãģ©": 5676,
      "OD": 5677,
      "UT": 5678,
      "ĠMen": 5679,
      "Ġfram": 5680,
      "íĥ": 5681,
      "áī¥": 5682,
      "è¥": 5683,
      "inden": 5684,
      "Ð´ÐµÑĢ": 5685,
      "Ġtv": 5686,
      "Ġlev": 5687,
      "Ġskal": 5688,
      "à´´": 5689,
      "bay": 5690,
      "Äĵr": 5691,
      "áĥĶáĥķ": 5692,
      "ÙĪØ§ÙĨ": 5693,
      "Ġsor": 5694,
      "ÙĩØ§ÛĮ": 5695,
      "ady": 5696,
      "Ġvend": 5697,
      "Ġprop": 5698,
      "áº§n": 5699,
      "ĠÃ»": 5700,
      "ĠÏĦÎ¿Î½": 5701,
      "kol": 5702,
      "Ð°ÑĢÐ°": 5703,
      "Ġmun": 5704,
      "ĠÐ°Ð±": 5705,
      "ĠÃĸ": 5706,
      "ĠáŀĢ": 5707,
      "Ð¤": 5708,
      "Ð°ÑĢÑĭ": 5709,
      "Ãľ": 5710,
      "Ġjs": 5711,
      "Ġjag": 5712,
      "Ġwo": 5713,
      "Ã«m": 5714,
      "log": 5715,
      "à¤¹à¤°": 5716,
      "ĠEm": 5717,
      "ÙĢÙĢ": 5718,
      "ĠÕ·": 5719,
      "ÑįÑħ": 5720,
      "ovÃ¡": 5721,
      "73": 5722,
      "width": 5723,
      "Ð½ÑĭÐµ": 5724,
      "nia": 5725,
      "àºĹ": 5726,
      "Ġbur": 5727,
      "Ð½Ð¸Ð½Ð³": 5728,
      "Ġhier": 5729,
      "ÙĩÙħ": 5730,
      "ç½ĳåĿĢ": 5731,
      "ĠRes": 5732,
      "ãĥķ": 5733,
      "Ð²Ð¾ÑĢ": 5734,
      "Ġtrong": 5735,
      "uit": 5736,
      "ãģªãģĦ": 5737,
      "ĠÏĥÏĦÎ·Î½": 5738,
      "à°³": 5739,
      "rod": 5740,
      "rio": 5741,
      "EC": 5742,
      "íı": 5743,
      "Ð¾Ð³ÑĢ": 5744,
      "ther": 5745,
      "Ð¾ÑĤÑĢ": 5746,
      "Ġíķ": 5747,
      "cher": 5748,
      "102": 5749,
      "ĠÐ½Ð°Ð¿": 5750,
      "title": 5751,
      "reen": 5752,
      "ĠTa": 5753,
      "gun": 5754,
      "Ġ04": 5755,
      "ello": 5756,
      "Ġsil": 5757,
      "Â¡": 5758,
      "Ð½Ð¸ÑĨ": 5759,
      "Ġbud": 5760,
      "Ð°ÐºÑĤ": 5761,
      "ĠØªØ±": 5762,
      "Ð¾Ð»Ð¾Ð³": 5763,
      "ÑĸÑı": 5764,
      "Ġsan": 5765,
      "Tr": 5766,
      "AAAAAAAA": 5767,
      "Ġisang": 5768,
      "utta": 5769,
      "Ġà¶ī": 5770,
      "lag": 5771,
      "sen": 5772,
      "Õ«Õ½": 5773,
      "Î¯Î±ÏĤ": 5774,
      "ä¸»": 5775,
      "Ġair": 5776,
      "Ã½m": 5777,
      "atie": 5778,
      "ĠÐ±ÑĥÐ»": 5779,
      "ÑĸÐ»ÑĮ": 5780,
      "Ð½ÑĭÐ¹": 5781,
      "Ġblog": 5782,
      "Ġmb": 5783,
      "ÙĪØ¹": 5784,
      "Ġà²¦": 5785,
      "indÉĻ": 5786,
      "ÐµÐ½Ð¾": 5787,
      "àµį.": 5788,
      ",,": 5789,
      "æ¥": 5790,
      "ä¹Ī": 5791,
      "à²¦à²²": 5792,
      "tem": 5793,
      "à¨¡": 5794,
      "ĠÐ¾Ð»": 5795,
      "Ġà¤Ķ": 5796,
      "Ä±k": 5797,
      "ĠSup": 5798,
      "Ġsj": 5799,
      "Ġkn": 5800,
      "Ġvia": 5801,
      "Ġkup": 5802,
      "Ġà¨ī": 5803,
      "Ġà²Ĺ": 5804,
      "ĠbÅ«": 5805,
      "Ð¸ÑıÑĤ": 5806,
      "Ġdol": 5807,
      "Ġdib": 5808,
      "àª·": 5809,
      "unda": 5810,
      "ãĤĦ": 5811,
      "éĻħ": 5812,
      "ĠÐ°Ð·": 5813,
      ";&#": 5814,
      "Ġplus": 5815,
      "tie": 5816,
      "Ð½Ð´": 5817,
      "Ã³s": 5818,
      "áĥĲáĥ®": 5819,
      "uer": 5820,
      "èª": 5821,
      "×ķ×Ľ": 5822,
      "Ġfyrir": 5823,
      "Ġih": 5824,
      "Ġgam": 5825,
      "Ð¡Ð": 5826,
      "×ĳ×ľ": 5827,
      "Ġada": 5828,
      "à¸Łà¸£": 5829,
      "Ġbackground": 5830,
      "Ú¯Ø±": 5831,
      "áĥĺáĥĲ": 5832,
      "RA": 5833,
      "Õ¾Õ¡Õ®": 5834,
      "rq": 5835,
      "Î¹Î¬": 5836,
      "åĽ¾": 5837,
      "è¥¿": 5838,
      "à¸Ĥà¸Ńà¸ĩ": 5839,
      "Ð³ÐµÐ½": 5840,
      "Ġà²ľ": 5841,
      "igen": 5842,
      "Î¥": 5843,
      "ION": 5844,
      "ĠÐ¦": 5845,
      "Ġgod": 5846,
      "çİ°": 5847,
      "ĠáĥĲáĥł": 5848,
      "Ã¨s": 5849,
      "ĠHar": 5850,
      "ĠSal": 5851,
      "Ġadalah": 5852,
      "ÑĸÐ¹": 5853,
      "ĠDec": 5854,
      "nych": 5855,
      "à¨¿à©±": 5856,
      "oki": 5857,
      "Ġnog": 5858,
      "abe": 5859,
      "Ø´ÙĨ": 5860,
      "amen": 5861,
      "ĠáĢĽ": 5862,
      "71": 5863,
      "&&": 5864,
      "Ġà®Ĩ": 5865,
      "Ġjuga": 5866,
      "lari": 5867,
      "ĠáŀŁ": 5868,
      "Ð°Ò³": 5869,
      "Ġatau": 5870,
      "à·ĸ": 5871,
      "Ġconc": 5872,
      "ÎºÎ±": 5873,
      "ÑģÐ»": 5874,
      "éĢļ": 5875,
      "ieÅ¡": 5876,
      "ĠÃĩ": 5877,
      "áĥĳ": 5878,
      "bout": 5879,
      "ĠÐ±Ñŀ": 5880,
      "osp": 5881,
      "áĥĶáĥĹ": 5882,
      "Ma": 5883,
      "ĠÑįÑĤ": 5884,
      "leri": 5885,
      "ãĤ«": 5886,
      "lay": 5887,
      "ÑĢÐ°ÑĤ": 5888,
      "ä¹ĭ": 5889,
      "!!!": 5890,
      "ãģ£ãģŁ": 5891,
      "ĠâĢĭ": 5892,
      "ool": 5893,
      "à´¹": 5894,
      "ious": 5895,
      "ĠSte": 5896,
      "sch": 5897,
      "Æ°Æ¡": 5898,
      "Ġorganiz": 5899,
      "à¥Īà¤Ĥ": 5900,
      "ĠrÃ©": 5901,
      "dir": 5902,
      "ìĥģ": 5903,
      "2011": 5904,
      "stru": 5905,
      "Â».": 5906,
      "Ġmá»Ļt": 5907,
      "áĢĴ": 5908,
      "ites": 5909,
      "ä¿¡": 5910,
      "Ġkab": 5911,
      "ibil": 5912,
      "ĠÑĸÐ½": 5913,
      "ograf": 5914,
      "à¸Ńà¸¥": 5915,
      "áĥĲáĥ¢": 5916,
      "PS": 5917,
      "Ġmir": 5918,
      "ÙĬÙħ": 5919,
      "Õ¡Õ¤": 5920,
      "Ġtele": 5921,
      "aire": 5922,
      "61": 5923,
      "áŁģáŁĩ": 5924,
      "uman": 5925,
      "ĠÑĳ": 5926,
      "ĠPre": 5927,
      "atz": 5928,
      "Õ«ÖĢ": 5929,
      "Ġban": 5930,
      "Ð¾Ð²Ð¸": 5931,
      "aste": 5932,
      "Ġmad": 5933,
      "All": 5934,
      "yi": 5935,
      "Ġà¸Ĺ": 5936,
      "ëŁ": 5937,
      "Ġsak": 5938,
      "BA": 5939,
      "Ð³Ðµ": 5940,
      "Ġfun": 5941,
      "ype": 5942,
      "ĠUnivers": 5943,
      "tra": 5944,
      "ĠFac": 5945,
      "åĪĴ": 5946,
      "à·Ĥ": 5947,
      "Ġà¤«": 5948,
      "Õ¶Õ¥ÖĢÕ¨": 5949,
      "Ġê·¸": 5950,
      "Ġìĥ": 5951,
      "Ð½Ð°Ñĩ": 5952,
      "hte": 5953,
      "Ġ×©×Ķ": 5954,
      "éĤ": 5955,
      "apan": 5956,
      "ĠkÄģ": 5957,
      "ĠÕ¬": 5958,
      "ĠMed": 5959,
      "ĠAug": 5960,
      "áĢ½áĢ¬": 5961,
      "Ð¸Ð»Ð¸": 5962,
      "Or": 5963,
      "hd": 5964,
      "atal": 5965,
      "Ġprov": 5966,
      "ĠÐ°ÑĤ": 5967,
      "ĠÎ´Î¹Î±": 5968,
      "Õ«Õ¯": 5969,
      "Ġsang": 5970,
      "Ġporno": 5971,
      "Äĥr": 5972,
      "Æ°á»Ŀi": 5973,
      "ĠÐºÐµÐ»": 5974,
      "Ú©ÛĮ": 5975,
      "å®¢": 5976,
      "Î´Î¿": 5977,
      "Ġsitu": 5978,
      "ÐŃ": 5979,
      "èī²": 5980,
      "nem": 5981,
      "Ġcha": 5982,
      "inas": 5983,
      "ĠCor": 5984,
      "Î¹ÎºÏĮ": 5985,
      "Ð»Ñİ": 5986,
      ".[": 5987,
      "ĠÐ½Ð°ÑĢ": 5988,
      "vu": 5989,
      "Home": 5990,
      "Ġesta": 5991,
      "áĬĲ": 5992,
      "ÐµÑģÐ¿": 5993,
      "Ġiyo": 5994,
      "Ãºn": 5995,
      "Ġêµ": 5996,
      "ĠÙ¾ÛĮ": 5997,
      "uke": 5998,
      "Ġhav": 5999,
      "Ð»Ð¾": 6000,
      "Ġfar": 6001,
      "kor": 6002,
      "Ġà¸Ħ": 6003,
      "áŁĢ": 6004,
      "Ġkita": 6005,
      "¾³": 6006,
      "ĠmÃ¡s": 6007,
      "ĠÕ«ÖĢ": 6008,
      "Ã¡nÃŃ": 6009,
      "oms": 6010,
      "OV": 6011,
      "å¤ĸ": 6012,
      "ĠÐºÓ©": 6013,
      "ĠAg": 6014,
      "dd": 6015,
      "Ġvá»Ľi": 6016,
      "ãĤ°": 6017,
      "Ġ35": 6018,
      "elser": 6019,
      "365": 6020,
      "omain": 6021,
      "ĠJul": 6022,
      "--------": 6023,
      "ĠsÃ©": 6024,
      "ĠØ¯ÛĮ": 6025,
      "Ġoc": 6026,
      "Ġìľ": 6027,
      "Ġ2007": 6028,
      "áĥĻ": 6029,
      "à¨¿à©°": 6030,
      "Ġcr": 6031,
      "à³įâĢĮ": 6032,
      "inst": 6033,
      "ĠÅŁi": 6034,
      "Ã¼ÅŁ": 6035,
      "Ġà¦ĵ": 6036,
      "è½¦": 6037,
      "Ġbon": 6038,
      "ëĲ": 6039,
      "ï¿½ï¿½ï¿½ï¿½ï¿½ï¿½ï¿½ï¿½": 6040,
      "pat": 6041,
      "oga": 6042,
      "set": 6043,
      "Ð°ÑĬ": 6044,
      "Õ¥Õ¯": 6045,
      "à¸Ńà¸ģ": 6046,
      "enz": 6047,
      "ÙĪÙĤ": 6048,
      "Õ²": 6049,
      "Ġbin": 6050,
      "Ġhis": 6051,
      "ĠðŁ": 6052,
      "Ġ500": 6053,
      "Ø¬Ùħ": 6054,
      "size": 6055,
      "áŀĨ": 6056,
      "Ġà¦ī": 6057,
      "ĠÙĩØ§ÛĮ": 6058,
      "×£": 6059,
      "ikt": 6060,
      "Ġ80": 6061,
      "Ġleb": 6062,
      "ÅĤo": 6063,
      "à¶¢": 6064,
      "ĠÎŁ": 6065,
      "Ġwan": 6066,
      "áĢ·áĢº": 6067,
      "ÓĻÐ½Ðµ": 6068,
      "ĠëĮĢ": 6069,
      "Ġê°Ģ": 6070,
      "Ø§Ø³Øª": 6071,
      "Ġvit": 6072,
      "yor": 6073,
      "Ġlin": 6074,
      "ultur": 6075,
      "Ġmaar": 6076,
      "ĠØ¬ÙĪ": 6077,
      "rab": 6078,
      "ijo": 6079,
      "masÄ±": 6080,
      "ĠÏĦÎ¿ÏħÏĤ": 6081,
      "Ġkoh": 6082,
      "áĥ£áĥļ": 6083,
      "ĠEng": 6084,
      "ÑıÑĢ": 6085,
      "ĠÃ®ntÃ¢l": 6086,
      "Ġà¤Ķà¤°": 6087,
      "Ġalla": 6088,
      "Ġáĥķ": 6089,
      "mit": 6090,
      "agai": 6091,
      "ÕĢ": 6092,
      "Ġkatika": 6093,
      "ĠØªØ¹": 6094,
      "áŀĵáŀĢ": 6095,
      "onn": 6096,
      "lav": 6097,
      "Ð½Ð¸Ð¼": 6098,
      "Ð±Ð°": 6099,
      "Ġanda": 6100,
      "mod": 6101,
      "Å¡Äį": 6102,
      "Ð½Ð¾Ð²": 6103,
      "Æ°á»Ŀ": 6104,
      "Ġany": 6105,
      "Ġee": 6106,
      "idan": 6107,
      "ĠØªØŃ": 6108,
      "rar": 6109,
      "åĲį": 6110,
      "Ò±ÑĢ": 6111,
      "ative": 6112,
      "Ð¸Ð¹Ð³": 6113,
      "OK": 6114,
      "Ġqil": 6115,
      "Ġvu": 6116,
      "Ġnan": 6117,
      "ĠApr": 6118,
      "Õ·": 6119,
      "×ķ×ĺ": 6120,
      "Ġà°İ": 6121,
      "ÑĸÑģÑĤ": 6122,
      "éĶ": 6123,
      "ÉĻb": 6124,
      "âĺ": 6125,
      "lek": 6126,
      "ĠÎ±ÏĢÎ¿": 6127,
      "out": 6128,
      "ĠØ¹ÙĨ": 6129,
      "áĪ¨": 6130,
      "ilor": 6131,
      "áĥĶáĥłáĥ": 6132,
      "Ã¾": 6133,
      "Ġyra": 6134,
      "ÑĩÐ°": 6135,
      "Ġeff": 6136,
      "Ø¨ÙĬ": 6137,
      "Mar": 6138,
      "ãģĪ": 6139,
      "à´¨à´¤": 6140,
      "åĲĮ": 6141,
      "ãģĻãĤĭ": 6142,
      "ĠáĪĺ": 6143,
      "ĠÐºÐ¾Ð»": 6144,
      "uku": 6145,
      "ÑģÑĤÐ°Ð²": 6146,
      "ÐµÐ½ÑĮ": 6147,
      "áĥ¥": 6148,
      "ĠÐºÐ°ÑĤ": 6149,
      "ĠÕ¡Õ¼": 6150,
      "åĽ½éĻħ": 6151,
      "Ġkil": 6152,
      "Ġà°ľ": 6153,
      "Ðĸ": 6154,
      "Ġë¶": 6155,
      "Ð°ÑĨÑĮ": 6156,
      "Ġkt": 6157,
      "jd": 6158,
      "Ġteg": 6159,
      "ture": 6160,
      "áº¡n": 6161,
      "wit": 6162,
      "éĢŁ": 6163,
      "ĠáĥłáĥĿáĥĽ": 6164,
      "ê±¸": 6165,
      "ÑĭÐ½ÑĭÒ£": 6166,
      "Ġstar": 6167,
      "Ġ×Ĳ×ķ": 6168,
      "ĠÐ½ÑĮ": 6169,
      "Ãłnh": 6170,
      "Ã¶s": 6171,
      "ĠTur": 6172,
      "ÑĢÐ°Ð·": 6173,
      "ager": 6174,
      "ĠKon": 6175,
      "amis": 6176,
      "owe": 6177,
      "rap": 6178,
      "Ð¸ÑĩÐµ": 6179,
      "ĠNews": 6180,
      "ĠÃŀ": 6181,
      "ĠStr": 6182,
      "lab": 6183,
      "num": 6184,
      "ĠÐ¼Ð¸Ð½": 6185,
      "ĠØ§Ø±": 6186,
      "Î¸Î·": 6187,
      "éĿ¢": 6188,
      "ãĤģ": 6189,
      "amas": 6190,
      "à¸§à¸²à¸¡": 6191,
      "Ġlok": 6192,
      "å¯¹": 6193,
      "imulyo": 6194,
      "çĪ": 6195,
      "iran": 6196,
      "ls": 6197,
      "àµįâĢĮ": 6198,
      "ÏģÎ¹Ïĥ": 6199,
      "Ġsar": 6200,
      "Ex": 6201,
      "è°": 6202,
      "ves": 6203,
      "Ġsay": 6204,
      "ĠØ§ÙĦÙĤ": 6205,
      "åı¸": 6206,
      "ÏĢÎ±": 6207,
      "Ġà¦Ń": 6208,
      "ĠáŀĬ": 6209,
      "á»ķ": 6210,
      "stat": 6211,
      "à¸µà¹ī": 6212,
      "ÑįÐ¼": 6213,
      "ĠØ¨ÙĨ": 6214,
      "key": 6215,
      "ÏĥÎµÎ¹ÏĤ": 6216,
      "ngud": 6217,
      "Ġekki": 6218,
      "Ġfol": 6219,
      "æŀľ": 6220,
      "Ġbuhok": 6221,
      "EK": 6222,
      "ecial": 6223,
      "à¸Ħà¸£": 6224,
      "à¸Ļà¸Ĺ": 6225,
      "Ð¾ÑĢÐ°": 6226,
      "ĠÐ¼Ñĥ": 6227,
      "Ã±a": 6228,
      "áĭ°": 6229,
      "×Ļ×ĸ": 6230,
      "ì¶ľìŀ¥ìķĪë§Ī": 6231,
      "×ŀ×Ķ": 6232,
      "ÐµÒ£": 6233,
      "ä»ĸ": 6234,
      "áº£i": 6235,
      "ved": 6236,
      "áĥ£áĥļáĥĺ": 6237,
      "×Ĳ×¨": 6238,
      "æĸĻ": 6239,
      "Ġspr": 6240,
      "êµ¬": 6241,
      "Ġmeny": 6242,
      "Ġhotel": 6243,
      "ìĨĮ": 6244,
      "ley": 6245,
      "Ġestas": 6246,
      "rin": 6247,
      "Æ°á»Ŀng": 6248,
      "azione": 6249,
      "sku": 6250,
      "ĠÎ®": 6251,
      "Ġmenj": 6252,
      "illi": 6253,
      "à¶ºà¶±": 6254,
      "position": 6255,
      "Ð½Ñĥ": 6256,
      "ç¦": 6257,
      "à³Ī": 6258,
      "àªı": 6259,
      "Ð»ÓĻÑĢ": 6260,
      "à»ģ": 6261,
      "AY": 6262,
      "àŃ": 6263,
      "Ġned": 6264,
      "Ġgan": 6265,
      "áĥĲáĥĹ": 6266,
      "Ġket": 6267,
      "itan": 6268,
      "ĠDen": 6269,
      "à´Ļà´³": 6270,
      "Ġkot": 6271,
      "Ġproj": 6272,
      "ÕµÕ¡Õ¶": 6273,
      "Ġsee": 6274,
      "Ġsn": 6275,
      "ëħ¸": 6276,
      "åĮĸ": 6277,
      "Ġeks": 6278,
      "à¹Ģà¸ģ": 6279,
      "Ø§Ø·": 6280,
      "±Û": 6281,
      "¡°": 6282,
      "ĠPe": 6283,
      "ĠÚ©Ø§Ø±": 6284,
      "inger": 6285,
      "áīł": 6286,
      "áĤķ": 6287,
      "NNNNNNNN": 6288,
      "Ġdoc": 6289,
      "ues": 6290,
      "×ª×Ļ": 6291,
      "Ġhj": 6292,
      "áĥĲáĥłáĥĹ": 6293,
      "ria": 6294,
      "iej": 6295,
      "ĠÐ½Ð°Ñģ": 6296,
      "Ġmik": 6297,
      "raj": 6298,
      "å°±": 6299,
      "Ġpie": 6300,
      "ishi": 6301,
      "Ġtrad": 6302,
      "Æ°Æ¡ng": 6303,
      "________": 6304,
      "iyy": 6305,
      "çµ": 6306,
      "omi": 6307,
      "gal": 6308,
      "à¸²à¸«": 6309,
      "ges": 6310,
      "ENT": 6311,
      "Ġ×Ĳ×ľ": 6312,
      "áĮĪ": 6313,
      "Ġ×Ľ×ľ": 6314,
      "éļ": 6315,
      "à´ľ": 6316,
      "íħ": 6317,
      "Ġproblem": 6318,
      "ĠØ¨ÛĮ": 6319,
      "Ð§": 6320,
      "ĠÙħÙĦ": 6321,
      "Ġaku": 6322,
      "height": 6323,
      "ĠÐ¿Ð¾ÑģÑĤ": 6324,
      "ÑĥÐ»ÑĮ": 6325,
      "ÎĽ": 6326,
      "sko": 6327,
      "æĥħ": 6328,
      "ÑĬÐ»": 6329,
      "Ġbor": 6330,
      "ãģĭãĤī": 6331,
      "àº²àºĻ": 6332,
      "||": 6333,
      "ëıĻ": 6334,
      "Ġkv": 6335,
      "ĠÙħØª": 6336,
      "ĠBel": 6337,
      "åĬ¨": 6338,
      "ĠtÃ¤": 6339,
      "Õ¡ÖĦ": 6340,
      "Ġone": 6341,
      "Ġnorm": 6342,
      "Ġtime": 6343,
      "ÑħÐ¾Ð´": 6344,
      "à¤°à¤¤": 6345,
      "ĠØ¨Ú¾ÛĮ": 6346,
      "ĠMod": 6347,
      "àº·": 6348,
      "Ġport": 6349,
      "Ä«g": 6350,
      "Ã¼z": 6351,
      "Ġkai": 6352,
      "ĠÑĥÐ»": 6353,
      "ĠÐ³Ð¾": 6354,
      "ĠÐ°Ð¼": 6355,
      "Ġ90": 6356,
      "åįķ": 6357,
      "à¤ł": 6358,
      "Ð°ÑĨÐ¸Ñı": 6359,
      "ĠÕ¨": 6360,
      "áĢ±áĢ¸": 6361,
      "Ð½Ð¸ÑĤÐµ": 6362,
      "à§¦": 6363,
      "çĤ¹": 6364,
      "Ġhay": 6365,
      "Ġnew": 6366,
      "à¶³": 6367,
      "Ġbag": 6368,
      "Se": 6369,
      "ÑĥÐ±Ð»Ð¸Ðº": 6370,
      "Ġhem": 6371,
      "Ġwar": 6372,
      "å»º": 6373,
      "êµŃ": 6374,
      "bel": 6375,
      "isha": 6376,
      "àºŃàºĩ": 6377,
      "áĢĿ": 6378,
      "ngudimulyo": 6379,
      "ape": 6380,
      "Ã¡ny": 6381,
      "Ġniet": 6382,
      "ÙħØ§ÙĨ": 6383,
      "Ð»Ð°ÑĢÐ¸": 6384,
      "Ã¯": 6385,
      "Ġaug": 6386,
      "è®¡åĪĴ": 6387,
      "Ò·": 6388,
      "Ġpris": 6389,
      "day": 6390,
      "ĠSi": 6391,
      "ijas": 6392,
      "Ġparte": 6393,
      "Ġpad": 6394,
      "uden": 6395,
      "ĠØªÙĩ": 6396,
      "gl": 6397,
      "Ġble": 6398,
      "ÙĨÙĬ": 6399,
      "ĠâĢĿ": 6400,
      "Ð°ÑĢÐ´": 6401,
      "ĠÐ²Ñĭ": 6402,
      "Ġáĥĳ": 6403,
      "à¹Ħà¸¡": 6404,
      "Ġlat": 6405,
      "ìĥµ": 6406,
      "site": 6407,
      "ezi": 6408,
      "ÐŁÑĢ": 6409,
      "Con": 6410,
      "é¢ĳ": 6411,
      "ìļ©": 6412,
      "rim": 6413,
      "antes": 6414,
      "mak": 6415,
      "Ġ32": 6416,
      "eria": 6417,
      "Ġnar": 6418,
      "ç©": 6419,
      "à¯ģ.": 6420,
      "ilt": 6421,
      "Ã©d": 6422,
      "kn": 6423,
      "Ãłng": 6424,
      "ham": 6425,
      "ãģĵãģ¨": 6426,
      "Ġwak": 6427,
      "Ġmw": 6428,
      "Ġkop": 6429,
      "sÃ¥": 6430,
      "ijos": 6431,
      "ĠOp": 6432,
      "éģĵ": 6433,
      "hy": 6434,
      "ango": 6435,
      "áł": 6436,
      "Ġile": 6437,
      "ĠÐ½Ð°Ð¼": 6438,
      "itÃł": 6439,
      "âĶ": 6440,
      "ball": 6441,
      "Ġseu": 6442,
      "Ġour": 6443,
      "Ġ×Ķ×¨": 6444,
      "max": 6445,
      "MA": 6446,
      "Ġrez": 6447,
      "Ġzo": 6448,
      "ÑģÐ°Ð½": 6449,
      "ç²": 6450,
      "Äģt": 6451,
      "Ġà¸£": 6452,
      "Ã¥n": 6453,
      "áº£n": 6454,
      "ìļĶ": 6455,
      "Ð¼ÐµÐ½": 6456,
      "ìłģ": 6457,
      "ĠDan": 6458,
      "issa": 6459,
      "Ġsum": 6460,
      "Ġord": 6461,
      "igo": 6462,
      "Ġzn": 6463,
      "ĠÐ·Ð°Ð¿": 6464,
      "Ġdist": 6465,
      "Ġlan": 6466,
      "Ġçİ¯äºļ": 6467,
      "ĠiÃ§in": 6468,
      "Ġnec": 6469,
      "é»": 6470,
      "ĠØ¢ÙĨ": 6471,
      "àµģ.": 6472,
      "à¸ł": 6473,
      "Ġkit": 6474,
      "php": 6475,
      "Ġoper": 6476,
      "utt": 6477,
      "enie": 6478,
      "ĠcÄĥ": 6479,
      "Ãºs": 6480,
      "¾³éĹ¨": 6481,
      "Ã¼t": 6482,
      "æµ·": 6483,
      "ĠØ°": 6484,
      "Ð²Ð¾": 6485,
      "ÙĦÙĪ": 6486,
      "Ġ70": 6487,
      "eth": 6488,
      "ìĪĺ": 6489,
      "ĠEsp": 6490,
      "Ġtri": 6491,
      "à·Ĵ.": 6492,
      "aza": 6493,
      "fir": 6494,
      "Ġru": 6495,
      "ĠMer": 6496,
      "á»¯ng": 6497,
      "Åł": 6498,
      "áĥª": 6499,
      "ĠáĢħ": 6500,
      "Ġwy": 6501,
      "Ġbei": 6502,
      "qa": 6503,
      "áĥĶáĥĵ": 6504,
      "unu": 6505,
      "unta": 6506,
      "ĠDis": 6507,
      "ãĤµ": 6508,
      "Ð½ÑĭÒ£": 6509,
      "Ġses": 6510,
      "åįĹ": 6511,
      "Ð°Ñī": 6512,
      "Ġmend": 6513,
      "inh": 6514,
      "Ġali": 6515,
      "ĠtÃ¶": 6516,
      "à¤°à¤®": 6517,
      "Ã§Ãµes": 6518,
      "Ġdapat": 6519,
      "Î¹Î½": 6520,
      "ĠÕĦ": 6521,
      "Ð¸Ð½Ðµ": 6522,
      "enc": 6523,
      "Ġàª¹àª¤": 6524,
      "Õ¡ÖĢÕ¤": 6525,
      "Ð¾ÑĹ": 6526,
      "Ã¨n": 6527,
      "Ð¼Ð°ÑĤ": 6528,
      "ĠfÃ¥": 6529,
      "Ġvs": 6530,
      "Õ¸ÖĤÕµ": 6531,
      "ä»¶": 6532,
      "ength": 6533,
      "Ġimport": 6534,
      "Ġ×Ļ×©": 6535,
      "iment": 6536,
      "Ġ000": 6537,
      "odi": 6538,
      "èĬ": 6539,
      "ĠÐ¸ÑĪ": 6540,
      "Ġhom": 6541,
      "áį¡": 6542,
      "RS": 6543,
      "itel": 6544,
      "éĩį": 6545,
      "Ġsud": 6546,
      "æ°´": 6547,
      "áĪ«": 6548,
      "Ġnhi": 6549,
      "æŁ": 6550,
      "wat": 6551,
      "Ġvet": 6552,
      "akat": 6553,
      "Ġsoci": 6554,
      "áŀĢáŀĺ": 6555,
      "Ġsat": 6556,
      "Ð¾Ð½Ð¸": 6557,
      "Ġdev": 6558,
      "Ġnat": 6559,
      "ë³´": 6560,
      "Ġê¸°": 6561,
      "ÏĩÎµ": 6562,
      "ÓĻÐ¼": 6563,
      "ÑģÑĤÐ²Ð¾": 6564,
      "Ġont": 6565,
      "Sp": 6566,
      "ãģ¡": 6567,
      "web": 6568,
      "ĠnÃ£o": 6569,
      "2010": 6570,
      "åĮº": 6571,
      "Ġsyst": 6572,
      "ÐµÑĢÐ¸": 6573,
      "ĠAv": 6574,
      "ĨĴ": 6575,
      "ĠÐºÐ¾Ð¼Ð¿": 6576,
      "ĠNor": 6577,
      "Ġwer": 6578,
      "888": 6579,
      "ĠÐ±ÑĢ": 6580,
      "ĠÖĥ": 6581,
      "àªŃ": 6582,
      "DE": 6583,
      "Ġliv": 6584,
      "ature": 6585,
      "ĠÅŀ": 6586,
      "ľÐµ": 6587,
      "ãĥĹ": 6588,
      "Ġdik": 6589,
      "uran": 6590,
      ")}": 6591,
      "ĠÃī": 6592,
      "ilip": 6593,
      "Õ¡Õ¢": 6594,
      "Ġkok": 6595,
      "Ġkos": 6596,
      "åĽ¢": 6597,
      "jal": 6598,
      "Î¹ÎºÎ®": 6599,
      "Ø³Ùħ": 6600,
      "ĠEUR": 6601,
      "ask": 6602,
      "åº¦": 6603,
      "Ð»Ð°Ð²": 6604,
      "item": 6605,
      "ĠÓ": 6606,
      "minist": 6607,
      "ÄŁi": 6608,
      "Ġà¨ķà¨°": 6609,
      "Ġ×¢×Ŀ": 6610,
      "ĠÃģ": 6611,
      "Ġnou": 6612,
      "teri": 6613,
      "Ġprost": 6614,
      "Ġsau": 6615,
      "taa": 6616,
      "Ø´Ø±": 6617,
      "ĠKr": 6618,
      "ĠÚ©ÛĲ": 6619,
      "ĠÐ½Ð°Ð²": 6620,
      "eres": 6621,
      "Ä·": 6622,
      "itÃ©": 6623,
      "ector": 6624,
      "ikip": 6625,
      "ĠÐ¶ÓĻÐ½Ðµ": 6626,
      "isu": 6627,
      "ĠvÃ¤l": 6628,
      "Ġ×Ķ×¢": 6629,
      "Ġnicht": 6630,
      "Ð¸ÒĽ": 6631,
      "à°Ń": 6632,
      "ovÃ©": 6633,
      "ters": 6634,
      "ĠTV": 6635,
      "Ġà¤ıà¤ķ": 6636,
      "tav": 6637,
      "Ã¤tt": 6638,
      "áĥĿáĥķ": 6639,
      "adu": 6640,
      "ĠÚ©ÙĨ": 6641,
      "Ġabout": 6642,
      "Ð½ÑĭÐ¼": 6643,
      "Ġbre": 6644,
      "Ġvz": 6645,
      "ije": 6646,
      "ÄĹl": 6647,
      "Ð´Ð°Ð³": 6648,
      "Ã³t": 6649,
      "Ġacc": 6650,
      "Ġhon": 6651,
      "Ġ45": 6652,
      "Ġdid": 6653,
      "irs": 6654,
      "ãĥŃ": 6655,
      "eke": 6656,
      "å±±": 6657,
      "Ġà¶Ĩ": 6658,
      "Ð²ÐµÑĤ": 6659,
      "Ġà¦¹à¦¯": 6660,
      "ÑģÑĮÐº": 6661,
      "ĠAB": 6662,
      "Ġhttps": 6663,
      "Ġpon": 6664,
      "à¸²à¸§": 6665,
      "Ä£": 6666,
      "xe": 6667,
      "ĠØ®ÙĪ": 6668,
      "Ø¨ÙĦ": 6669,
      "Ġland": 6670,
      "ytt": 6671,
      ".-": 6672,
      "Ġjou": 6673,
      "TG": 6674,
      "áĢºáĢ¬áĢ¸": 6675,
      "à¸§à¸¢": 6676,
      "çĭ": 6677,
      "Ġpin": 6678,
      "ures": 6679,
      "isto": 6680,
      "ĸáĥĶ": 6681,
      "ĠÙħÙĤ": 6682,
      "é¾": 6683,
      "áģĢ": 6684,
      "Ò¯Ð»": 6685,
      "à²Ń": 6686,
      "();": 6687,
      "äº§": 6688,
      "ĠdÉĻ": 6689,
      "åľº": 6690,
      "Ġnah": 6691,
      "ĠSam": 6692,
      "å¥³": 6693,
      "uste": 6694,
      "à¸²à¸Ĺ": 6695,
      "Ġàª¥": 6696,
      "ĠAp": 6697,
      "Â¿": 6698,
      "ØªÙĬ": 6699,
      "ãĤ¸": 6700,
      "taj": 6701,
      "Ġska": 6702,
      "ohn": 6703,
      "Ġcz": 6704,
      "ĠPers": 6705,
      "Ġmid": 6706,
      "ĠLat": 6707,
      "Ãłi": 6708,
      "IE": 6709,
      "ĠngÆ°á»Ŀi": 6710,
      "à¸Ľà¸£à¸°": 6711,
      "ĠÑĢÐ°Ñģ": 6712,
      "Qu": 6713,
      "ndan": 6714,
      "sto": 6715,
      "Ãĭ": 6716,
      "ĠØªÙħ": 6717,
      "ĠØªÚ¾": 6718,
      "ektr": 6719,
      "Ġmateri": 6720,
      "raw": 6721,
      "lip": 6722,
      "áĪĭ": 6723,
      "Ġmig": 6724,
      "Öĥ": 6725,
      "ÑĤÐ°Ð½": 6726,
      "Ð½Ð°ÑĤÐ°": 6727,
      "Ġrom": 6728,
      "ÏĢÎµ": 6729,
      "à¸¹à¹ī": 6730,
      "Ð½Ð¾Ð³": 6731,
      "áĭµ": 6732,
      "kil": 6733,
      "ĠSel": 6734,
      "à¸ĭ": 6735,
      "Ġdah": 6736,
      "ĠØ§ÙĦÙģ": 6737,
      "Ġupp": 6738,
      "ĠÐ±Ñĥ": 6739,
      "\").": 6740,
      "los": 6741,
      "Ġwi": 6742,
      "×ķ×Ļ": 6743,
      "ĠÃ¥r": 6744,
      "Ð´Ð¸Ð½": 6745,
      "Ġstart": 6746,
      "ĠNg": 6747,
      "sb": 6748,
      "far": 6749,
      "ÑĤÐ¾ÑĢ": 6750,
      "Î±Ïĥ": 6751,
      "Ã¶t": 6752,
      "300": 6753,
      "Ø¨Ø§Ø±": 6754,
      "ÑįÐ¹": 6755,
      "ĠAmer": 6756,
      "ĠAnt": 6757,
      "à¸©": 6758,
      "áĥĺáĥł": 6759,
      "×ĵ×Ļ": 6760,
      "sol": 6761,
      "ĠGal": 6762,
      "ÐºÐ°Ð½": 6763,
      "fu": 6764,
      "Å¼y": 6765,
      "onder": 6766,
      "×Ļ×¦": 6767,
      "false": 6768,
      "ĠÐ½Ð¾Ð²": 6769,
      "Ã±o": 6770,
      "àºķ": 6771,
      "odo": 6772,
      "áŁ¡": 6773,
      "ungen": 6774,
      "åĲİ": 6775,
      "dÄ±r": 6776,
      "Ġnes": 6777,
      "otos": 6778,
      "ĠÐ»Ñİ": 6779,
      "ĠII": 6780,
      "iu": 6781,
      "lah": 6782,
      "Ġsaya": 6783,
      "Ġprzy": 6784,
      "ĠàªŃ": 6785,
      "akk": 6786,
      "ĠÃ¸": 6787,
      "Ġtamb": 6788,
      "Ã¢y": 6789,
      "åĪ©æĿ¥": 6790,
      "Ġ$('": 6791,
      "imb": 6792,
      "Ø§Ø¶": 6793,
      "äºİ": 6794,
      "à²¥": 6795,
      "äºĮ": 6796,
      "Ġà´İà´¨": 6797,
      "áŁħâĢĭ": 6798,
      "Posted": 6799,
      "lec": 6800,
      "ĠÙĦÙĩ": 6801,
      "Ġzap": 6802,
      "à©ĭà¨Ĥ": 6803,
      "ĠÐ¸ÑģÑĤ": 6804,
      "ÏģÏİ": 6805,
      "áĮį": 6806,
      "');": 6807,
      "á»£": 6808,
      "ĠÐ·Ð°Ðº": 6809,
      "Ġà¶¢": 6810,
      "Ġsah": 6811,
      "ä¹Ł": 6812,
      "nas": 6813,
      "isÃ«": 6814,
      "ĠÐĲÐ»": 6815,
      "ÑĸÑĹ": 6816,
      "Ð¸ÑĢÐ°": 6817,
      "nin": 6818,
      "stra": 6819,
      "Ð¿ÑĢÐ°Ð²": 6820,
      "á»©c": 6821,
      "ĠSie": 6822,
      "Ġëı": 6823,
      "ë¹Ħ": 6824,
      "inc": 6825,
      "ĠkÃµ": 6826,
      "pdf": 6827,
      "Ð³Ð¸": 6828,
      "Ġkter": 6829,
      "miÅŁ": 6830,
      "áĥĿáĥĵ": 6831,
      "ĠØ§ÙĦÙĨ": 6832,
      "iyo": 6833,
      "áĥ¨áĥĺ": 6834,
      "\":[\"": 6835,
      "ĠmÃ©s": 6836,
      "ĠÎ´ÎµÎ½": 6837,
      "Ġíķĺ": 6838,
      "Ġkui": 6839,
      "vir": 6840,
      "Ð¦": 6841,
      "ĠOb": 6842,
      "Ġsing": 6843,
      "×§×¨": 6844,
      "Ġposs": 6845,
      "Ġwal": 6846,
      "Ġtest": 6847,
      "èµ°": 6848,
      "×ĺ×¨": 6849,
      "íĦ": 6850,
      "inder": 6851,
      "qip": 6852,
      "fil": 6853,
      "3033": 6854,
      "ĠCons": 6855,
      "larÄ±n": 6856,
      "æº": 6857,
      "ĠÐºÐ¾": 6858,
      "arget": 6859,
      "´Ģ": 6860,
      "Õ§": 6861,
      "Ġà¨Ĩ": 6862,
      "avo": 6863,
      "ife": 6864,
      "Ġà¦ªà¦°": 6865,
      "ĠØ§ÛĮÚ©": 6866,
      "ekin": 6867,
      "ĠJo": 6868,
      "Ġwaar": 6869,
      "Æ°á»Ľc": 6870,
      "agy": 6871,
      "jum": 6872,
      "Ð¸ÑĽ": 6873,
      "ĠÐ¿Ð¾Ðº": 6874,
      "ë©´": 6875,
      "ãģ¤": 6876,
      "Ø°Ø§": 6877,
      "true": 6878,
      "Ġfut": 6879,
      "Ġ×ķ×ŀ": 6880,
      "ìĬµ": 6881,
      "atik": 6882,
      "mp": 6883,
      "ĠÎµÎ½": 6884,
      "à¸«à¸Ļ": 6885,
      "anh": 6886,
      "Ġfamil": 6887,
      "Ġia": 6888,
      "Õ¸ÖĢÕ®": 6889,
      "ÑįÑįÑĢ": 6890,
      "nder": 6891,
      "åĨħ": 6892,
      "Ġ×ŀ×ª": 6893,
      "IF": 6894,
      "ÐµÐ¼Ð°": 6895,
      "ì°": 6896,
      "ĠìķĦ": 6897,
      "ĠÐ¾ÑĢÐ³Ð°Ð½": 6898,
      "sv": 6899,
      "orr": 6900,
      "Ð»Ð°Ð³": 6901,
      "ÏģÎŃ": 6902,
      "Ó©Ó©": 6903,
      "çĻ¾": 6904,
      "och": 6905,
      "ware": 6906,
      "ÑĢÐ¸": 6907,
      "àµ»": 6908,
      "è§Ĩé¢ĳ": 6909,
      "ĠogsÃ¥": 6910,
      "zu": 6911,
      "ebut": 6912,
      "ÏĨÎ¿": 6913,
      "Ġonder": 6914,
      "Õ¥ÖĢÕ«": 6915,
      "¤ĳ": 6916,
      "Ġà®ĩà®°": 6917,
      "æĬĢ": 6918,
      "ÑıÐ½": 6919,
      "ĠÏĦÎ¹ÏĤ": 6920,
      "cias": 6921,
      "ÃŃch": 6922,
      "Ġ36": 6923,
      "æľŁ": 6924,
      "Ú¯ÛĮ": 6925,
      "çī¹": 6926,
      "åı£": 6927,
      "à´¬": 6928,
      "Ð¸Ð»Ð°": 6929,
      "hn": 6930,
      "áī³": 6931,
      "****": 6932,
      "Ġpros": 6933,
      "yen": 6934,
      "éķ¿": 6935,
      "ØŁ": 6936,
      "inan": 6937,
      "áŁĬ": 6938,
      "Ġcompl": 6939,
      "hich": 6940,
      "kit": 6941,
      "ids": 6942,
      "ĠÎĵ": 6943,
      "ĠÐ½Ð¾": 6944,
      "Ġdeg": 6945,
      "ĠAN": 6946,
      "ÑģÑĤÐ²Ð°": 6947,
      "Ġpil": 6948,
      "ÐºÐ¾Ð²": 6949,
      "è¿Ĳ": 6950,
      "rea": 6951,
      "à¤¯à¤ķ": 6952,
      "ĠÃ¾aÃ°": 6953,
      "Î¼ÏĮ": 6954,
      "index": 6955,
      "ĠÃľ": 6956,
      "áģ¿": 6957,
      "Ð¯": 6958,
      "ÏĥÎ±": 6959,
      "×ľ×Ķ": 6960,
      "Ġere": 6961,
      "ÙħØ±": 6962,
      "Ġsul": 6963,
      "Ñļ": 6964,
      "ĠÐ½Ð°ÑĪ": 6965,
      "Ð¾Ð´Ð°": 6966,
      "Ġfund": 6967,
      "ĠÄĳá»Ļ": 6968,
      "eds": 6969,
      "ìĹħ": 6970,
      "Äģci": 6971,
      "Î¼Î¬": 6972,
      "akar": 6973,
      "ogra": 6974,
      "Ġrad": 6975,
      "Äĥm": 6976,
      "ĠÛĮÛģ": 6977,
      "éĥ½": 6978,
      "ØªÛĴ": 6979,
      "Ð°ÑģÑĭ": 6980,
      "ĠPort": 6981,
      "Ã§Ä±": 6982,
      "à¸²à¸ª": 6983,
      "ĠÑĤÐ°ÑĢ": 6984,
      "Ġgra": 6985,
      "çī©": 6986,
      "ĠMart": 6987,
      "ĠLes": 6988,
      "Ð´Ð·": 6989,
      "Ġning": 6990,
      "amer": 6991,
      "ĠÙħØ¯": 6992,
      "áĢŁ": 6993,
      "æīĢ": 6994,
      "ÕĨ": 6995,
      "yy": 6996,
      "è´¹": 6997,
      "áŁł": 6998,
      "ÑĽ": 6999,
      "ĠÐ¿Ð¾Ð¼": 7000,
      "Ġdre": 7001,
      "Ġstat": 7002,
      "æ°ĳ": 7003,
      "Na": 7004,
      "Ġ×ĸ×Ķ": 7005,
      "Ġts": 7006,
      "Ġsistem": 7007,
      "ÏĩÎµÎ¹": 7008,
      "amm": 7009,
      "ismo": 7010,
      "ĠnhÆ°": 7011,
      "à¸Ħà¸§à¸²à¸¡": 7012,
      "ĠSc": 7013,
      "ĠÕ¨Õ¶": 7014,
      "à¸ĺ": 7015,
      "ĠRom": 7016,
      "ffer": 7017,
      "à¸į": 7018,
      "áº§u": 7019,
      "berg": 7020,
      "å½ķ": 7021,
      "ĠWeb": 7022,
      "tis": 7023,
      "áŀ¡": 7024,
      "ÐµÐ½Ð´": 7025,
      "pis": 7026,
      "rec": 7027,
      "MS": 7028,
      "nek": 7029,
      "Ġsich": 7030,
      "å¾Ĺ": 7031,
      "ĠÐ¿Ð»": 7032,
      "Ġdav": 7033,
      "ļĮ": 7034,
      "Ð¾Ð³Ð°": 7035,
      "indows": 7036,
      "å½±": 7037,
      "Ð½Ð¾Ð¼": 7038,
      "'t": 7039,
      "Ġà¹Ĥ": 7040,
      "pad": 7041,
      "å½ĵ": 7042,
      "ĠlÃŃ": 7043,
      "embre": 7044,
      "Â®": 7045,
      "imal": 7046,
      "ĠÖħ": 7047,
      "meld": 7048,
      "Ġmereka": 7049,
      "Ð½Ð¾ÑģÑĤÐ¸": 7050,
      "Ġmost": 7051,
      "ĠØ¨Ø±Ø§ÛĮ": 7052,
      "uns": 7053,
      "ices": 7054,
      "sten": 7055,
      "ĠÎ¼ÎŃ": 7056,
      "ĠÕ°Õ¥Õ¿": 7057,
      "ĠPost": 7058,
      "ÑĸÐ¿": 7059,
      "ÑĨÐ¸Ñı": 7060,
      ".:": 7061,
      "amat": 7062,
      "æıĲ": 7063,
      "upa": 7064,
      "cho": 7065,
      "ì§Ģëħ¸": 7066,
      "duk": 7067,
      "Ġens": 7068,
      "lij": 7069,
      "ift": 7070,
      "rum": 7071,
      "iso": 7072,
      "enye": 7073,
      "áŀŁáŀĺ": 7074,
      "air": 7075,
      "è¿Ľ": 7076,
      "LO": 7077,
      "inte": 7078,
      "EB": 7079,
      "ç»ı": 7080,
      "áĪĽ": 7081,
      "Ġkuwa": 7082,
      "ãģĽ": 7083,
      "fore": 7084,
      "Ġà¸Ń": 7085,
      "Ð¼ÐµÑĤ": 7086,
      "To": 7087,
      "ĠÐ¾Ð²": 7088,
      "Ð¾Ð½Ð°": 7089,
      "ÃĬ": 7090,
      "éħ": 7091,
      "íĻĶìĿ´íĬ¸": 7092,
      "Ġoh": 7093,
      "trans": 7094,
      "vÄĵ": 7095,
      "riz": 7096,
      "ĠÎµÎº": 7097,
      "Ġ×ĳ×¢": 7098,
      "Ã¤ll": 7099,
      "ĠÐ½Ð°Ð´": 7100,
      "Ġub": 7101,
      "Ã¸l": 7102,
      "ĠMil": 7103,
      "ĠÐ¿Ð°ÑĢ": 7104,
      "ĠÑĩÑĤÐ¾": 7105,
      "ĠCan": 7106,
      ":#": 7107,
      "àªĵ": 7108,
      "ĠØ§ÙĦØ¥": 7109,
      "áĥĿáĥļ": 7110,
      "åŁİ": 7111,
      "Ġtheir": 7112,
      "type": 7113,
      "lang": 7114,
      "Ã´i": 7115,
      "eten": 7116,
      "ĠsÃŃ": 7117,
      "áĥ¬": 7118,
      "Ġkay": 7119,
      "Ġera": 7120,
      "ä¸ŃåĽ½": 7121,
      "ĠMet": 7122,
      "Ð°ÑĶ": 7123,
      "Ġë¬": 7124,
      "ãĤŃ": 7125,
      "á»±c": 7126,
      "ÙĦÙĥ": 7127,
      "áĥĺáĥª": 7128,
      "idu": 7129,
      "íĶĦíĻĶìĿ´íĬ¸": 7130,
      "ÏĦÎ¯": 7131,
      "3033102": 7132,
      "à¸¨": 7133,
      "à»ĥ": 7134,
      "bor": 7135,
      "icas": 7136,
      "Ġà¦ıà¦ķ": 7137,
      "ĠÐ´Ð¾Ð±": 7138,
      "áºŃn": 7139,
      "iec": 7140,
      "ĠÐ¿ÑĢÐ¸": 7141,
      "á»ĩt": 7142,
      "æģ": 7143,
      "inti": 7144,
      "ĠáĢ»": 7145,
      "ĠAut": 7146,
      "ĠØ§Ù¾": 7147,
      "Ø§Ùĥ": 7148,
      "Ñķ": 7149,
      "ÑıÐ²": 7150,
      "ĠÕį": 7151,
      "fur": 7152,
      "Ã¤ng": 7153,
      "hg": 7154,
      "mark": 7155,
      "Ġsie": 7156,
      "Ġà´Ĵ": 7157,
      "à´¡": 7158,
      "Sel": 7159,
      "åħ¬åı¸": 7160,
      "ads": 7161,
      "æŃ£": 7162,
      "Ä«dz": 7163,
      "ÏĦÎ±Î½": 7164,
      "wn": 7165,
      "Õ«Õ¿": 7166,
      "Ġpublic": 7167,
      "Ġì§Ģ": 7168,
      "Ġtudi": 7169,
      "äºī": 7170,
      "æĢ§": 7171,
      "Ġyer": 7172,
      "á»ģn": 7173,
      "ĠÐ°Ð¿": 7174,
      "GA": 7175,
      "ĠìłĦ": 7176,
      "etu": 7177,
      "Ġolan": 7178,
      "ÎĶ": 7179,
      "Ġbeste": 7180,
      "ilar": 7181,
      "Ð²ÐµÑĢ": 7182,
      "çŃī": 7183,
      "ÏĥÏĦÎµ": 7184,
      "Ġkem": 7185,
      "ief": 7186,
      "Ġincl": 7187,
      "Å©": 7188,
      "ĠKur": 7189,
      "tac": 7190,
      "Ð¼Ð°Ð½": 7191,
      "Ġà¦¥": 7192,
      "return": 7193,
      "ÅĽÄĩ": 7194,
      "Ġbis": 7195,
      "Ġà¶Ķ": 7196,
      "çľŁäºº": 7197,
      "ÅĤy": 7198,
      "Ġbisa": 7199,
      "áĥķáĥĶáĥļ": 7200,
      "ĠBal": 7201,
      "ĠDu": 7202,
      "Ġoleh": 7203,
      "ä½ĵèĤ²": 7204,
      "pli": 7205,
      "Õ¸ÖĤÕ½": 7206,
      "ray": 7207,
      "ãģ¿": 7208,
      "×Ļ×Ĺ": 7209,
      "\"},\"": 7210,
      "Ġvl": 7211,
      "left": 7212,
      "áĢ¯áĢ¶": 7213,
      "Ġdaar": 7214,
      "aje": 7215,
      "ours": 7216,
      "Ġqual": 7217,
      "uq": 7218,
      "Ġshe": 7219,
      "ÛĮØ²": 7220,
      "ĠÑĢÐ°Ð±Ð¾ÑĤ": 7221,
      "Ġáĥ®": 7222,
      "Ġnatur": 7223,
      "à°¾à°Ĥ": 7224,
      "ĠÚĨÛĲ": 7225,
      "Te": 7226,
      "ĠVol": 7227,
      "à¸Īà¸°": 7228,
      "Ð±ÐµÐº": 7229,
      "à¨§": 7230,
      "ãĤı": 7231,
      "ç¬¬": 7232,
      "Ġà¸ļ": 7233,
      "ìĽĶ": 7234,
      "ÙĨØ¯Ùĩ": 7235,
      "Û°": 7236,
      "à©ľ": 7237,
      "ĠÎ¿Î¹": 7238,
      "way": 7239,
      "æĴ": 7240,
      "Ġlap": 7241,
      "ĠÑĢÐ¾Ð·": 7242,
      "Ġrend": 7243,
      "Ð½Ð°Ð¹": 7244,
      "PR": 7245,
      "SS": 7246,
      "ĠOs": 7247,
      "ĠÐ´ÑĢÑĥÐ³": 7248,
      "ĆĈ": 7249,
      "áĢ¬áĢ¹": 7250,
      "Ð°ÑģÐ¸": 7251,
      "ä¿Ŀ": 7252,
      "HA": 7253,
      "Ø§Ø¦ÛĮ": 7254,
      "Ġcil": 7255,
      "Å¡anas": 7256,
      "\">": 7257,
      "çĽ®": 7258,
      "ÄĽt": 7259,
      "bang": 7260,
      "à¹ģà¸¥à¸°": 7261,
      "Ð¾Ð½Ð´": 7262,
      "à·Ģà¶±": 7263,
      "áºŃt": 7264,
      "ĠPal": 7265,
      "ÙģØª": 7266,
      "Ġveg": 7267,
      "Ġ:)": 7268,
      "Ġsite": 7269,
      "Ġnel": 7270,
      "èĲ": 7271,
      "Ġrak": 7272,
      "Ġenerg": 7273,
      "áŀĭ": 7274,
      "ì½ľ": 7275,
      "ëĭĪ": 7276,
      "ĠRa": 7277,
      "çĿ": 7278,
      "ames": 7279,
      "],\"": 7280,
      "ãĥĨ": 7281,
      "anan": 7282,
      "Ġëĵ": 7283,
      "Ð²Ð°ÑĢ": 7284,
      "On": 7285,
      "ovi": 7286,
      "ÐµÑĤÐ°": 7287,
      "gel": 7288,
      "ëĵľ": 7289,
      "ëĤ¨": 7290,
      "obile": 7291,
      "ĠMus": 7292,
      "Ġdoor": 7293,
      "inÉĻ": 7294,
      "oon": 7295,
      "ØªØ§": 7296,
      "arte": 7297,
      "ç³": 7298,
      "wp": 7299,
      "Ġäºļæ¸¸": 7300,
      "ĠÄĳÃ£": 7301,
      "Ġorang": 7302,
      "Ø²Ø§Ø±": 7303,
      "Äı": 7304,
      "ĠsÃ«": 7305,
      "Ġdil": 7306,
      "Ġnhá»¯ng": 7307,
      "åįļ": 7308,
      "images": 7309,
      "ÖĢÕ¡Õ¶": 7310,
      "æ¼": 7311,
      "ĠÙĨÛģÛĮÚº": 7312,
      "ÉĻsi": 7313,
      "Ġà¶ĳà¶ļ": 7314,
      "Ñĵ": 7315,
      "àªĩ": 7316,
      "ĠØ±Ûģ": 7317,
      "ä»¬": 7318,
      "Ġ2006": 7319,
      "Ġê²ĥ": 7320,
      "æ£ĭ": 7321,
      "ĠàªĨàªµ": 7322,
      "é¾Ļ": 7323,
      "æĺİ": 7324,
      "ska": 7325,
      "iliz": 7326,
      "×ł×Ļ×Ŀ": 7327,
      "Ġfree": 7328,
      "ÄĹj": 7329,
      "ÙĩØ±": 7330,
      "íĮ": 7331,
      "Ġìĭľ": 7332,
      "ÙĦØ³": 7333,
      "dal": 7334,
      "imu": 7335,
      "Ġæ¾³éĹ¨": 7336,
      "å®ŀ": 7337,
      "Ú«": 7338,
      "nav": 7339,
      "ÏĥÎ¹": 7340,
      "esso": 7341,
      "Ġdei": 7342,
      "Ġelektr": 7343,
      "Ġkus": 7344,
      "Ġthey": 7345,
      "Ġven": 7346,
      "á»Ń": 7347,
      "roup": 7348,
      "ribu": 7349,
      "TR": 7350,
      "å¢": 7351,
      "Ġsuper": 7352,
      "Ó©Ð³": 7353,
      "ÉĻrbay": 7354,
      "jak": 7355,
      "ÑĩÐ¸": 7356,
      "åĨĮ": 7357,
      "Ġnach": 7358,
      "ĠpÄģr": 7359,
      "ÃŃnh": 7360,
      "ä»Ĭ": 7361,
      "Ġeine": 7362,
      "ĠÐ±ÑĭÐ»": 7363,
      "quip": 7364,
      "Õ¥Õ¬Õ¸ÖĤ": 7365,
      "pap": 7366,
      "amu": 7367,
      "ÑĨÐ¸": 7368,
      "icha": 7369,
      "Ã¼rk": 7370,
      "à¹Ģà¸Ķ": 7371,
      "áŁ¢": 7372,
      "price": 7373,
      "áĥĿáĥł": 7374,
      "Ġbro": 7375,
      "Ġà°ħà°¨": 7376,
      "åĮĹäº¬": 7377,
      "Ġrealiz": 7378,
      "ÑģÐµ": 7379,
      "ĠÏĥÏħÎ½": 7380,
      "idir": 7381,
      "Ġà®Ĵ": 7382,
      "</": 7383,
      "GB": 7384,
      "ĠkÃ¶": 7385,
      "Ġjy": 7386,
      "LA": 7387,
      "íĦ°": 7388,
      "Ġcome": 7389,
      "Ð³Ð¾Ð²": 7390,
      "mel": 7391,
      "ÑĦÐ¾ÑĢÐ¼": 7392,
      "atud": 7393,
      "ÙĨØª": 7394,
      "Ġsind": 7395,
      "Ġìĸ": 7396,
      "erne": 7397,
      "Åŀ": 7398,
      "ards": 7399,
      "×ŀ×©": 7400,
      "Ġà¤°à¤¹": 7401,
      "ÙĪØ§ÙĦ": 7402,
      "Ġaya": 7403,
      "Ġimp": 7404,
      "ĠÕ¦": 7405,
      "Ġthu": 7406,
      "ĠMi": 7407,
      "Ġ33": 7408,
      "Õ¸Õ½": 7409,
      "qi": 7410,
      "ä¹ħ": 7411,
      "Ġlebih": 7412,
      "è¡¨": 7413,
      "à·Ģà¶Ń": 7414,
      "Ġalso": 7415,
      "Ð½Ð°Ð»": 7416,
      "áĢŃáĢ¯áĢ¸": 7417,
      "å·ŀ": 7418,
      "hor": 7419,
      "ĠÎĿ": 7420,
      "catalog": 7421,
      "âĹ": 7422,
      "Ġdun": 7423,
      "ĠnÃ³": 7424,
      "Ġáĥľ": 7425,
      "Òļ": 7426,
      "roid": 7427,
      "Ġheb": 7428,
      "ĠÎ¹": 7429,
      "ãĤ£": 7430,
      "×Ļ×Ļ×Ł": 7431,
      "Die": 7432,
      "tact": 7433,
      "ĠÐ²Ð¸Ð´": 7434,
      "ĠÙĪØ±": 7435,
      "iness": 7436,
      "ble": 7437,
      "Ġì¶": 7438,
      "Ġedhe": 7439,
      "åķĨ": 7440,
      "inis": 7441,
      "xy": 7442,
      "ĠÒ³Ð°Ð¼": 7443,
      "div": 7444,
      "Ġavec": 7445,
      "pend": 7446,
      "alia": 7447,
      "ĠÓ©Ð·": 7448,
      "Ð°Ð½ÑĤ": 7449,
      "Ġdest": 7450,
      "Ġters": 7451,
      "à¦«": 7452,
      "ÃĢ": 7453,
      "æķ°": 7454,
      "Ġà²¶": 7455,
      "áĢĸáĢħ": 7456,
      "2009": 7457,
      "Ġauch": 7458,
      "ĠØ¶": 7459,
      "ê¹": 7460,
      "ĠÐ¼Ð°ÑĤ": 7461,
      "ç¤¾": 7462,
      "åĩ¯": 7463,
      "ì½ľê±¸": 7464,
      "xi": 7465,
      "Ã¼s": 7466,
      "Ġ×ĳ×©": 7467,
      "à¤ªà¤¨": 7468,
      "à³Ĭà²Ĥ": 7469,
      "Ġà¦²": 7470,
      "Ġ300": 7471,
      "ĠkÃ¶z": 7472,
      "çīĩ": 7473,
      "ĠÃ¾ess": 7474,
      "Ġexper": 7475,
      "cion": 7476,
      "à¶±à¶º": 7477,
      "àµ¾": 7478,
      "ãģĦãĤĭ": 7479,
      "ÓĻÑĤ": 7480,
      "not": 7481,
      "ĠÐ¿Ð¾ÑĢ": 7482,
      "dom": 7483,
      "ĠÙħØ§": 7484,
      "gang": 7485,
      "ÉĻlÉĻr": 7486,
      "ĠÐ±Ð¸": 7487,
      "éĴ±": 7488,
      "Ð¸ÑĨÐ°": 7489,
      "ÐµÑĽ": 7490,
      "err": 7491,
      "ĠÒĽÐ¸Ð»": 7492,
      "ĠÎ±Î½Î±": 7493,
      "Ġkart": 7494,
      "uen": 7495,
      "onte": 7496,
      "åĬ¿": 7497,
      "ĠØ§ÙĦØ¬": 7498,
      "Ġdels": 7499,
      "Ø¯ÙĬ": 7500,
      "Ġ×ŀ×Ĺ": 7501,
      "áĥĵáĥĲ": 7502,
      "idades": 7503,
      "Ġíĺ": 7504,
      "wy": 7505,
      "ited": 7506,
      "reb": 7507,
      "æį": 7508,
      "çłģ": 7509,
      "iniz": 7510,
      "§à§": 7511,
      "Ġaga": 7512,
      "Ġald": 7513,
      "Ä«bu": 7514,
      "Ġwhich": 7515,
      "à®¸": 7516,
      "ĠíĻ": 7517,
      "çĽ¸": 7518,
      "skap": 7519,
      "Ġà¶ĩà¶Ń": 7520,
      "ĠÐµÐ»": 7521,
      "Ġlist": 7522,
      "ĠÕ«Õ¶": 7523,
      "Ġnom": 7524,
      "åħĥ": 7525,
      "ĠIr": 7526,
      "Ð¹Ð»": 7527,
      "Ãİ": 7528,
      "Ġbit": 7529,
      "ĠÑģÐ°Ð¹": 7530,
      "ĠâĨĴ": 7531,
      "ÑĭÐ²": 7532,
      "room": 7533,
      "SA": 7534,
      "Ġsag": 7535,
      "ÑĪÐµ": 7536,
      "Ð°Ð»ÑĭÒĽ": 7537,
      "Ġà¶Ĵ": 7538,
      "Ġìļ": 7539,
      "à¥ĥ": 7540,
      "ĠØ³ÛĮ": 7541,
      "Ġans": 7542,
      "ĠØ§Ø¨": 7543,
      "Úĺ": 7544,
      "background": 7545,
      "Ġmaks": 7546,
      "çĲĥ": 7547,
      "},\"": 7548,
      "Ġàªªàª°": 7549,
      "ovo": 7550,
      "Ġ37": 7551,
      "ĠettÃ¤": 7552,
      "Ġunha": 7553,
      "ä¸İ": 7554,
      "idos": 7555,
      "ellen": 7556,
      "à¸±à¹Ī": 7557,
      "hh": 7558,
      "As": 7559,
      "Ø®Øª": 7560,
      "Ġuu": 7561,
      "åħ³": 7562,
      "ÃĹ": 7563,
      "Ġgeb": 7564,
      "Ø¤": 7565,
      "à¹Ģà¸Ĺ": 7566,
      "Ð°Ñĳ": 7567,
      "Ġml": 7568,
      "isch": 7569,
      "æ£ĭçīĮ": 7570,
      "ĠÐºÐ¸": 7571,
      "ĠØ¯ÙĪ": 7572,
      "Ġ×ķ×Ĳ": 7573,
      "æ³¨åĨĮ": 7574,
      "Ġà´¬": 7575,
      "Ġ×Ķ×ķ×Ĳ": 7576,
      "Ġmam": 7577,
      "ÎºÎ¿": 7578,
      "Ġvari": 7579,
      "Ġpes": 7580,
      "Î»Î¿Î³": 7581,
      "ĠSz": 7582,
      "ĠIsl": 7583,
      "è§£": 7584,
      "ĠHD": 7585,
      "×ĳ×¢": 7586,
      "tat": 7587,
      "ĠÎµÏĢÎ¹": 7588,
      "ĠPentru": 7589,
      "àºį": 7590,
      "ìĹ¬": 7591,
      "à¹Ģà¸ŀ": 7592,
      "ÃĤ": 7593,
      "Ġren": 7594,
      "Ġhindi": 7595,
      "Ġpul": 7596,
      "ĠAL": 7597,
      "Ġzen": 7598,
      "ĠÄī": 7599,
      "æĻĤ": 7600,
      "Ġpriv": 7601,
      "NA": 7602,
      "à¤¨à¤ķ": 7603,
      "ĠilÉĻ": 7604,
      "ĠktÃ³": 7605,
      "check": 7606,
      "ĠYou": 7607,
      "ikat": 7608,
      "Ġprac": 7609,
      "istan": 7610,
      "Ø¨Ùĩ": 7611,
      "ugar": 7612,
      "ANG": 7613,
      "atr": 7614,
      "cis": 7615,
      "Ġwel": 7616,
      "imet": 7617,
      "imiz": 7618,
      "cas": 7619,
      "emos": 7620,
      "ĠGl": 7621,
      "ĠtÉĻ": 7622,
      "ĠDel": 7623,
      "âĨĳ": 7624,
      "ÑĪÐ°": 7625,
      "He": 7626,
      "ÙĬØ§": 7627,
      ":\"": 7628,
      "æ´²": 7629,
      "Ġbilan": 7630,
      "Ġvous": 7631,
      "×¢×ł": 7632,
      "Ġà¬": 7633,
      "Ġjust": 7634,
      "å¼ı": 7635,
      "ĠÉĻ": 7636,
      "unan": 7637,
      "âĢľ,": 7638,
      "ĀĀĀĀĀĀĀĀĀĀĀĀĀĀĀĀ": 7639,
      "àºĽ": 7640,
      "nar": 7641,
      "Ġcamp": 7642,
      "Ø¯Ø§Ø±": 7643,
      "anyak": 7644,
      "à°²à°¨": 7645,
      "Õ¥Õ´": 7646,
      "domain": 7647,
      "èį": 7648,
      "áĥĶáĥĳáĥ¡": 7649,
      "usti": 7650,
      "inda": 7651,
      "Ö°": 7652,
      "ÐµÑĢÑĤ": 7653,
      "Õ¡Õ¾Õ¸ÖĢ": 7654,
      "ÙģØ±": 7655,
      "Ð¸ÑģÑĤÐ¾Ð½": 7656,
      "Ġàª«": 7657,
      "éĽĨåĽ¢": 7658,
      "Ä±lÄ±": 7659,
      "roj": 7660,
      "å¥ĸ": 7661,
      "Ġting": 7662,
      "ĠØ³Ø±": 7663,
      "Ġ×ĳ×¨": 7664,
      "icht": 7665,
      "ĠCal": 7666,
      "ÐµÑĤÑĤ": 7667,
      "åıĮ": 7668,
      "Ó¯": 7669,
      "Ø§ÙĨÙĩ": 7670,
      "ãĥŀ": 7671,
      "OB": 7672,
      "ĠarÄ«": 7673,
      "ĠÃ¼Ã§": 7674,
      "ĠØ¥ÙĦÙī": 7675,
      "ĠÃµ": 7676,
      "Ġpet": 7677,
      "ĠØ´Ø±": 7678,
      "enter": 7679,
      "Ð°Ð»Ñĭ": 7680,
      "ĠvÃ¦re": 7681,
      "èµĦ": 7682,
      "Ġkah": 7683,
      "Ġbh": 7684,
      "Ġoldu": 7685,
      "003": 7686,
      "Ð»Ð°ÑĪ": 7687,
      "ĠÑĤÐµÐ»": 7688,
      "Ġà´°": 7689,
      "ĠÐ¿ÑĢÐ¾Ð´": 7690,
      "Ġdop": 7691,
      "king": 7692,
      "Ø¨Ø¯": 7693,
      "Ġàªļ": 7694,
      "act": 7695,
      "rom": 7696,
      "hk": 7697,
      "Ġmeer": 7698,
      "ĠĠĠĠĠĠĠĠĠĠĠĠĠĠĠĠ": 7699,
      "nic": 7700,
      "Ġkons": 7701,
      "UP": 7702,
      "ĠOd": 7703,
      "ĠÑĥÑĢ": 7704,
      "ĠÅ¼e": 7705,
      "Ò³Ð¾Ð¸": 7706,
      "ilik": 7707,
      "HE": 7708,
      "Î¹ÎºÎ¬": 7709,
      "assa": 7710,
      "éĵ": 7711,
      "Ġizan": 7712,
      "Az": 7713,
      "Ġtet": 7714,
      "...]": 7715,
      "Ð´ÑĭÒ£": 7716,
      "Sa": 7717,
      "ÄĮ": 7718,
      "bra": 7719,
      "Ġzv": 7720,
      "usu": 7721,
      "bt": 7722,
      "Ġstor": 7723,
      "For": 7724,
      "nam": 7725,
      "elm": 7726,
      "à¸Ńà¸£": 7727,
      "ÐµÐ»Ð¸": 7728,
      "è¿ĩ": 7729,
      "inner": 7730,
      "Ġ×Ķ×¡": 7731,
      "Ġ×ŀ×¡": 7732,
      "Ð´Ñĥ": 7733,
      "ota": 7734,
      "à´Ń": 7735,
      "Ġ365": 7736,
      "ÐºÐ¾Ð»": 7737,
      "agg": 7738,
      "ĠØ§ÙĦØ¯": 7739,
      "à°¥": 7740,
      "Ġ38": 7741,
      "ĠUr": 7742,
      "áŀļáŀĶáŀŁ": 7743,
      "Ġbeh": 7744,
      "Ġà·ĥà¶¸": 7745,
      "ection": 7746,
      "ĠÑĤÒ¯": 7747,
      "ãĢĬ": 7748,
      "ĠGi": 7749,
      "loc": 7750,
      "ãĢĭ": 7751,
      "Par": 7752,
      "Ġprez": 7753,
      "ĠÎŃÎ½Î±": 7754,
      "Ð±ÑĢ": 7755,
      "ÐºÐ°Ð·": 7756,
      "duct": 7757,
      "à¶±à·Ģ": 7758,
      "Äĥng": 7759,
      "×ķ×Ķ": 7760,
      "ĠBen": 7761,
      "ĠEk": 7762,
      "DI": 7763,
      "çģ": 7764,
      "Ġmass": 7765,
      "ĠMark": 7766,
      "ĠÙħØ¬": 7767,
      "Ġà¶ĭ": 7768,
      "áĥĿáĥĴ": 7769,
      "rob": 7770,
      "Ġess": 7771,
      "Ġgir": 7772,
      "á»Ŀi": 7773,
      "jÃ³": 7774,
      "Î¬Ïģ": 7775,
      "Ġáĥ¤": 7776,
      "ĠÙĨØ¸": 7777,
      "Ġstand": 7778,
      "Ġëª¨": 7779,
      "Ġmask": 7780,
      "ĠDon": 7781,
      "Ð¼Ð¾": 7782,
      "Äĵm": 7783,
      "kez": 7784,
      "stand": 7785,
      "display": 7786,
      "ilis": 7787,
      "\");": 7788,
      "åĽŀ": 7789,
      "ÙĪØ¬": 7790,
      "Ġà´ī": 7791,
      "Ò¯Ò¯Ð»": 7792,
      "Ð¸ÑĩÐµÑģÐº": 7793,
      "ĠÄĳá»ĥ": 7794,
      "anje": 7795,
      "ĠÑīÐ¾": 7796,
      "Ġà¹Ħ": 7797,
      "''": 7798,
      "SP": 7799,
      "ë¯¸": 7800,
      "Å¡a": 7801,
      "Ġ×ĳ×ª": 7802,
      "àª«": 7803,
      "akin": 7804,
      "ĠØ§Ø¹": 7805,
      "ivi": 7806,
      "Key": 7807,
      "zb": 7808,
      "zel": 7809,
      "Ġyar": 7810,
      "ë°Ķ": 7811,
      "ìĬµëĭĪëĭ¤": 7812,
      "é©": 7813,
      "Ġaur": 7814,
      "Ġsho": 7815,
      "udio": 7816,
      "600": 7817,
      "ĠØ¯Ø§Ø±": 7818,
      "ÏĦÎŃ": 7819,
      "ãĥĥãĤ¯": 7820,
      "Ġprav": 7821,
      "ãĤ»": 7822,
      "ãĥ¡": 7823,
      "brand": 7824,
      "UK": 7825,
      "ĠÐ·Ð°Ð²": 7826,
      "ÑĥÑĢÑģ": 7827,
      "Ġanal": 7828,
      "iba": 7829,
      "Ġdira": 7830,
      "çĥ": 7831,
      "áĢ¶áĢ¯": 7832,
      "Ø³Ø¨": 7833,
      "Ġà¦¸à¦®": 7834,
      "itÃ¤": 7835,
      "ĠÐ¼Ð¾Ð¶Ðµ": 7836,
      "kal": 7837,
      "ÙĦÙĤ": 7838,
      "à¹Ħà¸Ľ": 7839,
      "Õ°": 7840,
      "Ãļ": 7841,
      "Ġlike": 7842,
      "oba": 7843,
      "åįģ": 7844,
      "ĠInst": 7845,
      "Ġbere": 7846,
      "abar": 7847,
      "ĠÑĤÐµÑĢ": 7848,
      "].": 7849,
      "áŁį": 7850,
      "ÑĪÑĤ": 7851,
      "áĥ¨": 7852,
      "å±ķ": 7853,
      "ÙĪØ§": 7854,
      "ĠSm": 7855,
      "Ð±Ð¾ÑĢ": 7856,
      "oft": 7857,
      "edz": 7858,
      "Ã¨re": 7859,
      "Ġfunction": 7860,
      "owy": 7861,
      "áĥĿáĥłáĥ": 7862,
      "},{\"": 7863,
      "uter": 7864,
      "ĠÐ°Ð¶": 7865,
      "Ġorig": 7866,
      "igu": 7867,
      "Ġexp": 7868,
      "áĢ°áĢ¸": 7869,
      "Ø¯Ø©": 7870,
      "Î¼Î±ÏĦÎ±": 7871,
      "Ġie": 7872,
      "ides": 7873,
      "Ġ×Ķ×ł": 7874,
      "ĠÃ¾vÃŃ": 7875,
      "ÙĦØ¨": 7876,
      "block": 7877,
      "Ġ×Ķ×ĳ": 7878,
      "FF": 7879,
      "Ġprom": 7880,
      "à´µà´°": 7881,
      "à¸ģà¸£": 7882,
      "Ġáĥ©": 7883,
      "åħį": 7884,
      "ìĸĳ": 7885,
      "Ġpang": 7886,
      "ĠÑģÐ¸": 7887,
      "Ġwork": 7888,
      "ĠÐ¿Ð°Ð´": 7889,
      "ĠÚª": 7890,
      "zat": 7891,
      "ĠVideo": 7892,
      "ĠFacebook": 7893,
      "ople": 7894,
      "Ġzak": 7895,
      "EA": 7896,
      "Ħà¸£": 7897,
      "CA": 7898,
      "è³": 7899,
      "Ġobl": 7900,
      "ĠÎĻ": 7901,
      "Ġkepada": 7902,
      "ikipedia": 7903,
      "Er": 7904,
      "ĠÕºÕ¡Õ¿": 7905,
      "áĥŀ": 7906,
      "Ġdv": 7907,
      "àº²àºĻàº": 7908,
      "Ð»Ñĭ": 7909,
      "Ġtin": 7910,
      "Part": 7911,
      "ÃŃr": 7912,
      "áŀļáŀŁ": 7913,
      "itate": 7914,
      "Ø§Ø¯Ùĩ": 7915,
      "Ġ×ĵ×Ļ": 7916,
      "Ð¸Ð¶": 7917,
      "Ä±s": 7918,
      "ĠGoogle": 7919,
      "oor": 7920,
      "tain": 7921,
      "ÑĨÑĭ": 7922,
      "ĠHot": 7923,
      "Ġkhi": 7924,
      "áī£": 7925,
      "Del": 7926,
      "Ġprot": 7927,
      "Ġtap": 7928,
      "ĠLi": 7929,
      "ĠMy": 7930,
      "adem": 7931,
      "Ġkry": 7932,
      "ips": 7933,
      "subdomain": 7934,
      "ĠÐ´ÑĢ": 7935,
      "ãĤ¦": 7936,
      "Ġà¦«": 7937,
      "ìĭł": 7938,
      "ÑĤÐ¸ÑĢ": 7939,
      "Ġactiv": 7940,
      "ÏĦÎ¹ÎºÏĮ": 7941,
      "áŀļáŀĬ": 7942,
      "Ġthá»ĥ": 7943,
      "æĢĿ": 7944,
      "Ġ~": 7945,
      "itos": 7946,
      "avi": 7947,
      "Ġasi": 7948,
      "asjon": 7949,
      "ãĥĥãĥĪ": 7950,
      "Ġ34": 7951,
      "Ġoor": 7952,
      "Ġjar": 7953,
      "cul": 7954,
      "ische": 7955,
      "sti": 7956,
      "á»ĳi": 7957,
      "azio": 7958,
      "Ġprote": 7959,
      "inga": 7960,
      "kas": 7961,
      "Ġtij": 7962,
      "ĠÐ´Ð°Ð²": 7963,
      "Ġple": 7964,
      "ĠÐ²ÑĢÐµÐ¼": 7965,
      "Î¼Î·": 7966,
      "Ø®Øµ": 7967,
      "ÙĨÙĩ": 7968,
      "Ġsaj": 7969,
      "áº©": 7970,
      "ÙĬØ³": 7971,
      "inar": 7972,
      "Ġáĥ¥": 7973,
      "dar": 7974,
      "áĥĺáĥ¢": 7975,
      "Ġà¤ħà¤¨": 7976,
      "EG": 7977,
      "áĥĲáĥĺ": 7978,
      "des": 7979,
      "åİħ": 7980,
      "àºĤ": 7981,
      "Ð½Ð°ÑĤ": 7982,
      "Br": 7983,
      "Ġbad": 7984,
      "Ġszer": 7985,
      "Ġeur": 7986,
      "Ġåĩ¯": 7987,
      "æĦı": 7988,
      "àµĪ": 7989,
      "æĲ": 7990,
      "åĪ¶": 7991,
      "ibi": 7992,
      "Ð³Ò¯Ð¹": 7993,
      "Ġàªĸ": 7994,
      "ĠÐ´Ð·": 7995,
      "è¢": 7996,
      "pol": 7997,
      "Ã¡b": 7998,
      "()": 7999,
      "Ġeru": 8000,
      "ÃŃl": 8001,
      "àºĦ": 8002,
      "riend": 8003,
      "á»įn": 8004,
      "×¥": 8005,
      "ì§Ħ": 8006,
      "á»ĳng": 8007,
      "isc": 8008,
      "(){": 8009,
      "ĠÙģØ±": 8010,
      "tico": 8011,
      "egi": 8012,
      "ÑģÑįÐ½": 8013,
      "acional": 8014,
      "Ġ×ľ×¢": 8015,
      "Õ¸ÖĤÕ©ÕµÕ¸ÖĤÕ¶Õ¨": 8016,
      "Ġito": 8017,
      "Ġprofes": 8018,
      "Î»Î»Î¬": 8019,
      "ĠÐºÐ°Ð»": 8020,
      "Ġsw": 8021,
      "ÒĽÐ°": 8022,
      "æ·": 8023,
      "Ġsocial": 8024,
      "ĠØ¨Ø§Ø²": 8025,
      "Ð°ÑĤÐ°ÑĢ": 8026,
      "Ġara": 8027,
      "åĪĨå¿«": 8028,
      "ÃĶ": 8029,
      "eber": 8030,
      "Ġà¸ŀ": 8031,
      "ety": 8032,
      "Ġiy": 8033,
      "may": 8034,
      "ĠIS": 8035,
      "vik": 8036,
      "Ġsou": 8037,
      "à¸Ńà¸ļ": 8038,
      "Ġbra": 8039,
      "ĠÑıÐºÑĸ": 8040,
      "ĠÐĨ": 8041,
      "Ġmell": 8042,
      "íķĺëĬĶ": 8043,
      "Ð°ÑĹ": 8044,
      "ĠÐ´ÐµÐ¿": 8045,
      "ness": 8046,
      "die": 8047,
      "Ġì¹": 8048,
      "Ġlahko": 8049,
      "Ġalg": 8050,
      "Î´Î±": 8051,
      "Õ¡ÖĢÕ¯": 8052,
      "ĠAnda": 8053,
      "ĠgÃ¼n": 8054,
      "Ġanti": 8055,
      "ĠWh": 8056,
      "áĢ¬áĢ·": 8057,
      "Ġput": 8058,
      "qq": 8059,
      "çĻ»å½ķ": 8060,
      "Ġlik": 8061,
      "ÃŃk": 8062,
      "ĠTrans": 8063,
      "à²µà²¨": 8064,
      "zÄħ": 8065,
      "kaz": 8066,
      "Ġwax": 8067,
      "Ġmur": 8068,
      "åºĹ": 8069,
      "imm": 8070,
      "ä½¿": 8071,
      "ç«¯": 8072,
      "ÑĤÑĥ": 8073,
      "Åĳl": 8074,
      "Ġterm": 8075,
      "anna": 8076,
      "ä½į": 8077,
      "à¸Ńà¸¡": 8078,
      "éľ¸": 8079,
      "ãĤ·ãĥ": 8080,
      "ĠÒĽÐ°ÑĢ": 8081,
      "ë¬¸": 8082,
      "oren": 8083,
      "Ġ150": 8084,
      "ĠØ¯Ø§ÙĨ": 8085,
      "æľį": 8086,
      "pj": 8087,
      "ĠSol": 8088,
      "Õ»": 8089,
      "ĠÃį": 8090,
      "ful": 8091,
      "Ġmind": 8092,
      "try": 8093,
      "ĠÐ³Ð°ÑĢ": 8094,
      "annya": 8095,
      "Ġ×ľ×©": 8096,
      "Ġuchun": 8097,
      "Ġkann": 8098,
      "tev": 8099,
      "à¤¸à¤ķ": 8100,
      "á»ħ": 8101,
      "ĠÚ©ÛĮØ§": 8102,
      "Ġ48": 8103,
      "Ð³Ð°ÑĢ": 8104,
      "à¤°à¤£": 8105,
      "ÐłÎ¼": 8106,
      "ĠØ®ÙĪØ¯": 8107,
      "Ä«v": 8108,
      "Ġíķľ": 8109,
      "Ġáŀĺ": 8110,
      "elijk": 8111,
      "ĠÐ±Ð°ÑĪ": 8112,
      "Ġvideos": 8113,
      "siz": 8114,
      "ĠÚ©Ø±Ø¯": 8115,
      "aty": 8116,
      "Hot": 8117,
      "ĠØ§ÙĦØ´": 8118,
      "á»ı": 8119,
      "à§ĥ": 8120,
      "ĠÐ´Ðµ": 8121,
      "Ġconf": 8122,
      "Ġmula": 8123,
      "ÛĮØ³": 8124,
      "áĥĺáĥĻ": 8125,
      "éŁ": 8126,
      "ĠDom": 8127,
      "ĠÐ´Ð¾Ð»": 8128,
      "Õ¡ÖĢÕ¿": 8129,
      "Ġbers": 8130,
      "CI": 8131,
      "ĠTop": 8132,
      "zia": 8133,
      "è§Ħ": 8134,
      "å¦Ĥ": 8135,
      "iews": 8136,
      "ĠÐ¼Ð°Ð»": 8137,
      "ÏĦÎ¹ÎºÎ®": 8138,
      "Ġprofess": 8139,
      "ï¿½ï¿½ï¿½ï¿½ï¿½": 8140,
      "×Ļ×Ĵ": 8141,
      "rel": 8142,
      "×ŀ×¨": 8143,
      "Õ¡Õ»": 8144,
      "ĠØ¨Ø¹Ø¯": 8145,
      "æ¡": 8146,
      "argin": 8147,
      "Ä±na": 8148,
      "áĢŃáĢ¯áĢ·": 8149,
      "imp": 8150,
      "ĠØ§ÙĦØ®": 8151,
      "ungan": 8152,
      "dh": 8153,
      "ligt": 8154,
      "Ġà¸¡": 8155,
      "å°Ĩ": 8156,
      "ovat": 8157,
      "Ä«b": 8158,
      "Ã³k": 8159,
      "Ø±ÛĮÙĨ": 8160,
      "iska": 8161,
      "Ġà¸«": 8162,
      "Ġà¸Ī": 8163,
      "ĠÑįÐº": 8164,
      "tes": 8165,
      "enci": 8166,
      "ÎºÏĮ": 8167,
      "Ø§ÙĦÙħ": 8168,
      "encia": 8169,
      "ĠÎºÎ¬": 8170,
      "æĹ¶æĹ¶": 8171,
      "Ġlog": 8172,
      "ĠAss": 8173,
      "Ġmens": 8174,
      "ÙĦÙģ": 8175,
      "son": 8176,
      "ĠServ": 8177,
      "vr": 8178,
      "Ð°Ð½Ðµ": 8179,
      "ĠTel": 8180,
      "Â¶": 8181,
      "zione": 8182,
      "Ġdies": 8183,
      "Ġfam": 8184,
      "ĠIng": 8185,
      "ax": 8186,
      "ÑıÐ·": 8187,
      "ĠáĥĲáĥĽ": 8188,
      "imento": 8189,
      "ê°Ħ": 8190,
      "egu": 8191,
      "Ġbay": 8192,
      "ÐµÑĢÐ³": 8193,
      "Ġëĭ¤": 8194,
      "entar": 8195,
      "lk": 8196,
      "bre": 8197,
      "ĠÕ¥ÖĢÕ": 8198,
      "ĠÙĨÙħ": 8199,
      "tan": 8200,
      "Ð¸Ð¼Ð¸": 8201,
      "cep": 8202,
      "ĠáĢĨ": 8203,
      "elik": 8204,
      "ÑĬÑĤ": 8205,
      "áĪļ": 8206,
      "Äģj": 8207,
      "äº¤": 8208,
      "Ġ×ĳ×Ķ": 8209,
      "ĠØ¨ÙĦ": 8210,
      "ĠmÃµ": 8211,
      "à´¥": 8212,
      "Ġlak": 8213,
      "fÃ¶r": 8214,
      "dek": 8215,
      "Ø§ÙħÙĦ": 8216,
      "Ġà¸Ļ": 8217,
      "Ġà²ļ": 8218,
      "asy": 8219,
      "Ġreal": 8220,
      "Ð»Ð¸Ð²": 8221,
      "ĠDer": 8222,
      "oper": 8223,
      "Õ«Õ´": 8224,
      "ÃĪ": 8225,
      "length": 8226,
      "Ġdating": 8227,
      "UB": 8228,
      "ÈĻte": 8229,
      "ĠÑģÐ°Ð»": 8230,
      "ĠÐ±Ð°Ð»": 8231,
      "Ġped": 8232,
      "ĠØ¬Ùħ": 8233,
      "Ã¥g": 8234,
      "à¹Ģà¸Ĥ": 8235,
      "ĠìĨ": 8236,
      "IZ": 8237,
      "ìĤ¬ì§Ģ": 8238,
      "Ð°Ð¾": 8239,
      "ç³»": 8240,
      "!!!!": 8241,
      "like": 8242,
      "edd": 8243,
      "Ġìłľ": 8244,
      "Ã¦t": 8245,
      "ĠØ§Ø®": 8246,
      "á¬": 8247,
      "iske": 8248,
      "æĬ¥": 8249,
      "ĠÚĪ": 8250,
      "×¢×Ł": 8251,
      "stan": 8252,
      "è©": 8253,
      "abo": 8254,
      "ĠPart": 8255,
      "éĩĮ": 8256,
      "Ġkuri": 8257,
      "ĠØ§ÙĦÙĥ": 8258,
      "ĠÙ¹": 8259,
      "Ġspec": 8260,
      "ĠÅĽ": 8261,
      "á»Ļi": 8262,
      "ãĤª": 8263,
      "umo": 8264,
      "ÃĲÎ¼": 8265,
      "eptember": 8266,
      "ĠGer": 8267,
      ",âĢĿ": 8268,
      "ÄįnÃŃ": 8269,
      "Ð»Ð¾Ð²": 8270,
      "Ġ×©×Ĳ": 8271,
      "yal": 8272,
      "ĠÒ»": 8273,
      "ĠDep": 8274,
      "Ġàªªàª£": 8275,
      "Ã³g": 8276,
      "ĠÐºÐ°Ð¼": 8277,
      "à¸ķà¸£": 8278,
      "Ġhalam": 8279,
      "ĠØ§ÙĦÙĦÙĩ": 8280,
      "SK": 8281,
      "ĠÐ´Ð²": 8282,
      "ĠÏĮÏĦÎ¹": 8283,
      "oji": 8284,
      "ĠÕ´Õ¡Õ½": 8285,
      "Ġkami": 8286,
      "ĠfÃ¸r": 8287,
      "Ġcam": 8288,
      "Úª": 8289,
      "Ã¦k": 8290,
      "ê²½": 8291,
      "tual": 8292,
      "ĠÅ¡e": 8293,
      "nÃ½ch": 8294,
      "Ġgew": 8295,
      "ÏĥÎ¿": 8296,
      "ĠTra": 8297,
      "Ã¹ng": 8298,
      "iyat": 8299,
      "à¸¢à¸Ļ": 8300,
      "àº¹": 8301,
      "Bl": 8302,
      "æĹł": 8303,
      "Ġpero": 8304,
      "Ġsaat": 8305,
      ".....": 8306,
      "Î»Î¬": 8307,
      "ÐµÑĺ": 8308,
      "àºŀ": 8309,
      "km": 8310,
      "esz": 8311,
      "éª": 8312,
      "nb": 8313,
      "ipp": 8314,
      "ĠÑľÐµ": 8315,
      "Ġsama": 8316,
      "ãĥĲ": 8317,
      "Ġsend": 8318,
      "ĠSP": 8319,
      "Ġfre": 8320,
      "à¥Īà¥¤": 8321,
      "ilan": 8322,
      "ÑĥÑģÑĤ": 8323,
      "ander": 8324,
      "æĹ¶æĹ¶å½©": 8325,
      "×ł×ķ×ª": 8326,
      "ĠPorno": 8327,
      "Ġreview": 8328,
      "ìĻĢ": 8329,
      "ĠÐ¶ÑĭÐ»": 8330,
      "ĠÐ±Ð°Ñģ": 8331,
      "ajÄħ": 8332,
      "Ð°ÑĨÐ¸Ð¸": 8333,
      "ĠcÃ´ng": 8334,
      "Ð¾ÑĤÐ¾ÑĢ": 8335,
      "GAA": 8336,
      "xo": 8337,
      "Ġgev": 8338,
      "Ġ×Ķ×Ĵ": 8339,
      "Ġ2000": 8340,
      "atas": 8341,
      "×ŀ×ª": 8342,
      "pak": 8343,
      "Ġà¨ļ": 8344,
      "ÏĢÎ¿Ïħ": 8345,
      "áĢ¹áĢ¸áĢ±": 8346,
      "Ġsuc": 8347,
      "Ã¦Ã°": 8348,
      "ÖĦÕ«": 8349,
      "èĢģ": 8350,
      "ÐµÑļÐµ": 8351,
      "rik": 8352,
      "ĠestÃ¡": 8353,
      "ĠØ§ÙĦØµ": 8354,
      "ĠNet": 8355,
      "tak": 8356,
      "itus": 8357,
      "Ġoma": 8358,
      "lega": 8359,
      "Ġà²®à²¤": 8360,
      "Ġà´ľ": 8361,
      "ĠpÅĻÃŃ": 8362,
      "ĠGar": 8363,
      "Ġperf": 8364,
      "igan": 8365,
      "ĽĦ": 8366,
      "áº½": 8367,
      "ĠKu": 8368,
      "Ġish": 8369,
      "ç±": 8370,
      "ÙĪÙĩ": 8371,
      "äºīéľ¸": 8372,
      "ĠÐ¼Ð°Ñģ": 8373,
      "éĢģ": 8374,
      "éĹ´": 8375,
      "count": 8376,
      "ĠSom": 8377,
      "íħĶ": 8378,
      "Ġkre": 8379,
      "ÐµÑģÑĤÐ²": 8380,
      "Ġintern": 8381,
      "Ġà®ħà®¤": 8382,
      "ctor": 8383,
      "ĠOct": 8384,
      "Î»ÎŃ": 8385,
      "ĠST": 8386,
      "Ġdesc": 8387,
      "right": 8388,
      "ĠÐºÑŀ": 8389,
      "elig": 8390,
      "áĤĪ": 8391,
      "ÙİÙĳ": 8392,
      "margin": 8393,
      "eler": 8394,
      "à¤¾à¤ģ": 8395,
      "ÑįÑĤ": 8396,
      "éĻĲ": 8397,
      "nams": 8398,
      "unci": 8399,
      "ãĥģ": 8400,
      "çĽ´": 8401,
      "ires": 8402,
      "Ġdesign": 8403,
      "Ð²Ð°Ð»": 8404,
      "ĠÒ±": 8405,
      "Ġminut": 8406,
      "ĠOff": 8407,
      "åıĸ": 8408,
      "Ð¸Ð»ÑĮ": 8409,
      "Ġtit": 8410,
      "Ġlis": 8411,
      "101": 8412,
      "inya": 8413,
      "Ġhod": 8414,
      "ç¨ĭ": 8415,
      "Ġhulle": 8416,
      "ĠÕ´Õ«": 8417,
      "Ġvez": 8418,
      "Õ¸ÖĤÖĢ": 8419,
      "ĠÐ·Ð°Ð¼": 8420,
      "à§Ĥ": 8421,
      "ĠÐµÐº": 8422,
      "Ġwie": 8423,
      "ĠApp": 8424,
      "Ġà¨ħà¨¤": 8425,
      "ĠAfr": 8426,
      "Ġano": 8427,
      "ÃĨ": 8428,
      "Ã¡ll": 8429,
      "OW": 8430,
      "liy": 8431,
      "ĠSlov": 8432,
      "Ġ--": 8433,
      "DF": 8434,
      "Ġras": 8435,
      "ĠÐ½ÐµÐº": 8436,
      "df": 8437,
      "ĠÃ¼Ã§Ã¼n": 8438,
      "ĠåĪ©æĿ¥": 8439,
      "Ġani": 8440,
      "Ġdien": 8441,
      "atzen": 8442,
      "uge": 8443,
      "éĻ¢": 8444,
      "Ġìłķ": 8445,
      "Æ¡n": 8446,
      "ĠIntern": 8447,
      "Ġ×¤×¨": 8448,
      "table": 8449,
      "ĠØ¬ÙĬ": 8450,
      "eting": 8451,
      "Class": 8452,
      "íļĮ": 8453,
      "Õ¡Õ´Õ¢": 8454,
      "Ġlong": 8455,
      "Ġenc": 8456,
      "à¶ºà¶§": 8457,
      "ĠìĿ´ë": 8458,
      "jat": 8459,
      "Å¡ana": 8460,
      "TV": 8461,
      "ë£": 8462,
      "ĠÐ¿Ð¾Ñĩ": 8463,
      "à²¯à²²": 8464,
      "ollow": 8465,
      "lus": 8466,
      "Ġbab": 8467,
      "ĠáĬ¨": 8468,
      "CE": 8469,
      "ÙĥØ©": 8470,
      "Ġyan": 8471,
      "estiv": 8472,
      "íı¬": 8473,
      "åĸ": 8474,
      "dat": 8475,
      "ç®¡": 8476,
      "ĠmÉĻ": 8477,
      "list": 8478,
      "ĠÐ·Ð°Ð±": 8479,
      "ĠÑĩÐ°Ñģ": 8480,
      "oso": 8481,
      "AF": 8482,
      "ĠÐ¿Ð¾ÑĤ": 8483,
      "ì¶ľìŀ¥ìĥµ": 8484,
      "Ġåĩ¯åıĳ": 8485,
      "omas": 8486,
      "namshi": 8487,
      "ĠBlack": 8488,
      "aye": 8489,
      "Ġ×Ķ×¤": 8490,
      "á»ī": 8491,
      "DR": 8492,
      "ĠÑĤÓ©": 8493,
      "ĠSport": 8494,
      "ustri": 8495,
      "::": 8496,
      "wal": 8497,
      "vert": 8498,
      "ĠÙĪÛģ": 8499,
      "ÙĪØ´": 8500,
      "ĠvÃµi": 8501,
      "ahr": 8502,
      "Ġàªī": 8503,
      "Po": 8504,
      "ÑĥÑģÐº": 8505,
      "Ġ39": 8506,
      "×©×Ķ": 8507,
      "ÑĩÑĭ": 8508,
      "ities": 8509,
      "Ġqo": 8510,
      "èµĽ": 8511,
      "ĠRec": 8512,
      "Ġits": 8513,
      "Ã°ar": 8514,
      "Õ¡ÖĢÕ£": 8515,
      "Ġà¤Ńà¤¨": 8516,
      "rc": 8517,
      "By": 8518,
      "à¦ł": 8519,
      "É¨": 8520,
      "iren": 8521,
      "pas": 8522,
      "Ø§Ø±ÙĬ": 8523,
      "ĠÐ¼ÐµÑĤ": 8524,
      "Ġà¤Ł": 8525,
      "ÙĪÙģ": 8526,
      "Ġref": 8527,
      "ĠRed": 8528,
      "ÃĴ": 8529,
      "âĢ¬": 8530,
      "aden": 8531,
      "ÉĻrbaycan": 8532,
      "isin": 8533,
      "áĢ¬áĢ±": 8534,
      "Ġtelah": 8535,
      "ĠBi": 8536,
      "ÏĦÎ¿ÏĤ": 8537,
      "isht": 8538,
      "Ġà¦ĩ": 8539,
      "Co": 8540,
      "ĠVe": 8541,
      "CM": 8542,
      "Ġdim": 8543,
      "ĠKos": 8544,
      "è¯´": 8545,
      "iller": 8546,
      "ê³µ": 8547,
      "Ġtun": 8548,
      "Col": 8549,
      "ungs": 8550,
      "lish": 8551,
      "Ġefter": 8552,
      "400": 8553,
      "Ð°ÑĺÑĥ": 8554,
      "ĠLu": 8555,
      "ĠSil": 8556,
      "akse": 8557,
      "Ġvot": 8558,
      "ĠtÃ©": 8559,
      "ÑĥÐ²Ð°ÑļÐµ": 8560,
      "Ġps": 8561,
      "ĠØ¨Ø¯": 8562,
      "áĢľáĢĬ": 8563,
      "ĠáĥĴáĥĲáĥĽ": 8564,
      "rot": 8565,
      "uhan": 8566,
      "áĥĲáĥĴ": 8567,
      "bir": 8568,
      "Ang": 8569,
      "ĠÐ½Ð°Ð·": 8570,
      "ĠAllah": 8571,
      "acion": 8572,
      "Ġyn": 8573,
      "almente": 8574,
      "Ġvas": 8575,
      "ÐĲÐĿ": 8576,
      "ĠAf": 8577,
      "eca": 8578,
      "ÐµÑģÐ¿ÑĥÐ±Ð»Ð¸Ðº": 8579,
      "áŀļáŀĢ": 8580,
      "Ġhol": 8581,
      "Ġsport": 8582,
      "åı·": 8583,
      "Ġsis": 8584,
      "Ġapl": 8585,
      "Ġà¸ķ": 8586,
      "Ġach": 8587,
      "Ġpret": 8588,
      "Ġfinan": 8589,
      "ĠCity": 8590,
      "ÆĴ": 8591,
      "vad": 8592,
      "Ġforma": 8593,
      "ÎµÏĦÎ±Î¹": 8594,
      "áĥĺáĥķ": 8595,
      "Ġclass": 8596,
      "fn": 8597,
      "Ġbaz": 8598,
      "arn": 8599,
      "ÏĦÎµÏĤ": 8600,
      "ĠáĢĶ": 8601,
      "Ġmodel": 8602,
      "resp": 8603,
      "æĶ¿": 8604,
      "Ġ$(": 8605,
      "ÙĦÛģ": 8606,
      "ãģ¾ãģĹãģŁ": 8607,
      "ream": 8608,
      "ĠVis": 8609,
      "à¹Ģà¸«": 8610,
      "endi": 8611,
      "abor": 8612,
      "ĠvÄĵ": 8613,
      "></": 8614,
      "æ¯Ķ": 8615,
      "Ġà¤ĺ": 8616,
      "åĬ¡": 8617,
      "Per": 8618,
      "ĠÐºÐ°ÐºÐ¾": 8619,
      "icon": 8620,
      "ĠÐ½Ð°Ñĺ": 8621,
      "pk": 8622,
      "ÑĤÑĮÑģÑı": 8623,
      "Äįe": 8624,
      "ĠÐ¿Ð¾Ð·": 8625,
      "Ġadd": 8626,
      "fel": 8627,
      "×ķ×ĸ": 8628,
      "iÅŁ": 8629,
      "×ķ×ł×Ķ": 8630,
      "éĩı": 8631,
      "à¶ł": 8632,
      "ĠLo": 8633,
      "vid": 8634,
      "Ġdru": 8635,
      "Ġupang": 8636,
      "Ġ[...]": 8637,
      "ÏĦÎ±ÏĤ": 8638,
      "rok": 8639,
      "ĠvÅ¡": 8640,
      "Ġaktiv": 8641,
      "istÃ¤": 8642,
      "oven": 8643,
      "à¸Ńà¸Ķ": 8644,
      "äºĶ": 8645,
      "Ġrem": 8646,
      "ĠÑĢÐµ": 8647,
      "Ġdost": 8648,
      "jav": 8649,
      "à¹ĥà¸Ĭ": 8650,
      "Am": 8651,
      "ĠØ«": 8652,
      "Ġcond": 8653,
      "witter": 8654,
      "ottom": 8655,
      "à¦°à¦¤": 8656,
      "Ġmp": 8657,
      "ĠÙĨÙĩ": 8658,
      "à¹Ģà¸ĩ": 8659,
      "Ġartik": 8660,
      "Ġcum": 8661,
      "Ġcomun": 8662,
      "Ð¶Ðµ": 8663,
      "AZ": 8664,
      "Ð«": 8665,
      "æķĻ": 8666,
      "2008": 8667,
      "à´¯à´¤": 8668,
      "nÄ«": 8669,
      "rag": 8670,
      "à¶Ńà¶»": 8671,
      "ean": 8672,
      "à¦ı": 8673,
      "Ġà¦ĸ": 8674,
      "ĠØ§ÙĦØ¨": 8675,
      "ĠGod": 8676,
      "ÏĥÏĦ": 8677,
      "ÐłÑķ": 8678,
      "ĠØ§Ø¯": 8679,
      "Ġolar": 8680,
      "Ġthem": 8681,
      "Ġindiv": 8682,
      "ÑĢÑĤ": 8683,
      "Ġfig": 8684,
      "blog": 8685,
      "etti": 8686,
      "Ø§Ø±Ùĩ": 8687,
      "ÕĦ": 8688,
      "ningen": 8689,
      "icz": 8690,
      "Ġ42": 8691,
      "ĠGa": 8692,
      "à¸ļà¸Ńà¸¥": 8693,
      "Î»Î®": 8694,
      "à¹Ģà¸ª": 8695,
      "ĠPas": 8696,
      "gin": 8697,
      "Îĵ": 8698,
      "å²": 8699,
      "Ġplat": 8700,
      "Ġà²Ĵ": 8701,
      "BN": 8702,
      "SH": 8703,
      "Ġmax": 8704,
      "ÙĬÙĩ": 8705,
      "Ġfran": 8706,
      "Ok": 8707,
      "ĠprÃŃ": 8708,
      "Ġ75": 8709,
      "áĢ½áĢŃ": 8710,
      "Ġtechn": 8711,
      "ãģ®ãģ§": 8712,
      "è·¯": 8713,
      "âĢİ": 8714,
      "ìĺ¤íĶĦíĻĶìĿ´íĬ¸": 8715,
      "Ġfj": 8716,
      "IO": 8717,
      "MT": 8718,
      "ĠOf": 8719,
      "ÏĦÎ¹ÎºÎ¬": 8720,
      "æ±Ł": 8721,
      "111": 8722,
      "lum": 8723,
      "Ġrest": 8724,
      "istas": 8725,
      "ĠtÄģ": 8726,
      "ÑıÐ¼": 8727,
      "àºµà»Ī": 8728,
      "Ġib": 8729,
      "Ag": 8730,
      "Ð³Ð¸Ð¹Ð½": 8731,
      "à¸«à¸¥": 8732,
      "ĠáĢģ": 8733,
      "Ġother": 8734,
      "ĠÐ´ÐµÐºÐ°": 8735,
      "sal": 8736,
      "ĠÐ¿Ð°": 8737,
      "Ġà¦Ľ": 8738,
      "singaw": 8739,
      "Ġsiis": 8740,
      "Ġzar": 8741,
      "ĠÃ¶n": 8742,
      "Õ¸Öģ": 8743,
      "åĻ": 8744,
      "Õ¡Õ¶Õ¡Õ¯": 8745,
      "ĠÔµ": 8746,
      "ìļ°": 8747,
      "arbe": 8748,
      "iais": 8749,
      "åŀ": 8750,
      "Ġsatu": 8751,
      "ĠÐ¶Ð°": 8752,
      "à¤¢": 8753,
      "ĠÐµÐ´": 8754,
      "Ġmov": 8755,
      "Ġtari": 8756,
      "ĠÙħØ·": 8757,
      "Ġtelefon": 8758,
      "uat": 8759,
      "ĠMor": 8760,
      "Ð»ÐµÐ¼": 8761,
      "Ġlagi": 8762,
      "Ġfal": 8763,
      "á»įc": 8764,
      "à¸´à¹Ī": 8765,
      "Ð°Ð¹Ð½": 8766,
      "Sk": 8767,
      "ĠmÃł": 8768,
      "æĤ": 8769,
      "?ï¿½": 8770,
      "Ġvad": 8771,
      "Ġ×Ķ×§": 8772,
      "ĠÏĢÎ¿": 8773,
      "à»Ħ": 8774,
      "ĠsÃ¼": 8775,
      "ĠOl": 8776,
      "eze": 8777,
      "ĠÙĦÛĮ": 8778,
      "inÄĹ": 8779,
      "ç¦ı": 8780,
      "à·ı.": 8781,
      "çĦ¡": 8782,
      "Ġtá»«": 8783,
      "áĥĲáĥĻ": 8784,
      "ĠÙĪÙĤ": 8785,
      "date": 8786,
      "à¦Ļ": 8787,
      "ĠPres": 8788,
      "ÏįÎ½": 8789,
      "Ġà¦¬à¦²": 8790,
      "EST": 8791,
      "ÙĪØª": 8792,
      "emo": 8793,
      "áĪħ": 8794,
      "ãĤ¨": 8795,
      "ĠÏĢÎ¿Î»": 8796,
      "æ¬¡": 8797,
      "ç²¾": 8798,
      "ÓĻÐº": 8799,
      "ĠNu": 8800,
      "áĪ°": 8801,
      "ĠìŀĲ": 8802,
      "Ġwho": 8803,
      "áĢŃáĢ³": 8804,
      "page": 8805,
      "Ġìĺ¤": 8806,
      "Ġbáº¡n": 8807,
      "Ġshum": 8808,
      "ÑĤÐ¾Ð¼": 8809,
      "Ġiki": 8810,
      "Ġbank": 8811,
      "ĠMac": 8812,
      "ĠÛ±Û": 8813,
      "ĠØ§ÙĨØª": 8814,
      ",ãĢĳãĢĲ": 8815,
      "à¥¦": 8816,
      "ustom": 8817,
      "Äįen": 8818,
      "ÙĪØ±ÛĮ": 8819,
      "à±Ĩà°Ĥ": 8820,
      "ĠÐ±ÑŀÐ»": 8821,
      "fat": 8822,
      "ĠÐ¾Ñĩ": 8823,
      "Ġdra": 8824,
      "ĠÕ°Õ¡Õµ": 8825,
      "Ġoder": 8826,
      "à®ªà®¤": 8827,
      "ĠÐºÓ©ÑĢ": 8828,
      "ÖĢÕ¤": 8829,
      "ëħĦ": 8830,
      "ĠSl": 8831,
      "ĠÐ¶Ð¸Ð²": 8832,
      "Ġteen": 8833,
      "zd": 8834,
      "Ġlast": 8835,
      "ĠÐ´ÐµÐ»": 8836,
      "was": 8837,
      "ĠBy": 8838,
      "Ġfunk": 8839,
      "Ġthi": 8840,
      "Ġkost": 8841,
      "Ġfoto": 8842,
      "ĠÐ±ÑĸÑĢ": 8843,
      "Ġ×ľ×¤": 8844,
      "Ġsik": 8845,
      "zk": 8846,
      "Ãħ": 8847,
      "unde": 8848,
      "ĠvÃŃ": 8849,
      "ãĥĸ": 8850,
      "iaj": 8851,
      "ĠÆı": 8852,
      "Ð°ÑļÐ°": 8853,
      "amba": 8854,
      "ÐµÑĤÑģÑı": 8855,
      "icos": 8856,
      "ĠÎ¾": 8857,
      "Ġhelp": 8858,
      "border": 8859,
      "ope": 8860,
      "lis": 8861,
      "nega": 8862,
      "uki": 8863,
      "Ġmoet": 8864,
      "Ġkind": 8865,
      "ĠÑĤÐµÑħ": 8866,
      "Ġdro": 8867,
      "ĠÐ·Ð°ÑĢ": 8868,
      "æ´»": 8869,
      "Ġkak": 8870,
      "At": 8871,
      "Ġnur": 8872,
      "Ġdaha": 8873,
      "ìķ¼": 8874,
      "ÙĤÛĮ": 8875,
      "alth": 8876,
      "Ġsvoj": 8877,
      "Ġnaar": 8878,
      "Me": 8879,
      "á»ĳc": 8880,
      "ĠÃ¾e": 8881,
      "Õ¾Õ¥Õ¬": 8882,
      "666": 8883,
      "Ã¥d": 8884,
      "á»ĵng": 8885,
      "Ġnab": 8886,
      "Ġ×ľ×ĳ": 8887,
      "bur": 8888,
      "Ġà¦Ĩà¦®": 8889,
      "olg": 8890,
      "ĠEt": 8891,
      "anj": 8892,
      "áŀ»áŁĨ": 8893,
      "ĠØ§ØŃ": 8894,
      "Ur": 8895,
      "Ġama": 8896,
      "ãĢĳãĢĲ,ãĢĳãĢĲ": 8897,
      "cur": 8898,
      "din": 8899,
      "Ġbehar": 8900,
      "miss": 8901,
      "ĠPR": 8902,
      "à¸§à¸Ļ": 8903,
      "Ã«ve": 8904,
      "áĥĺáĥĽ": 8905,
      "ĠÎµÎ¾": 8906,
      "áĥĺáĥĿ": 8907,
      "800": 8908,
      "à²¾à²Ĥ": 8909,
      "à¸Ĺà¸¢": 8910,
      "Ã¡p": 8911,
      "ĠEv": 8912,
      "Ġhalamang": 8913,
      "eken": 8914,
      "Ġmap": 8915,
      "å®¢æĪ·": 8916,
      "obal": 8917,
      "Î¼Î²": 8918,
      "Õ½Õ¿": 8919,
      "Ã¡ng": 8920,
      "skÃ©": 8921,
      "ĠNam": 8922,
      "×ĸ×Ķ": 8923,
      "rif": 8924,
      "Ð²Ð°ÑĤ": 8925,
      "ĠCH": 8926,
      "Ġarg": 8927,
      "Ġdeb": 8928,
      "SE": 8929,
      "Ġbun": 8930,
      "hid": 8931,
      "ì¹ĺ": 8932,
      "ondo": 8933,
      "Tag": 8934,
      "Ġtrav": 8935,
      "ĠÐºÒ¯": 8936,
      "Ġsono": 8937,
      "Ġvr": 8938,
      "Ġfull": 8939,
      "png": 8940,
      "ring": 8941,
      "ĠnÃły": 8942,
      "iber": 8943,
      "oval": 8944,
      "ä¸ľ": 8945,
      "Ġ2005": 8946,
      "ÏģÎ®": 8947,
      "Ġjob": 8948,
      "avor": 8949,
      "ĠØ¬Ø¯": 8950,
      "Ð³Ð¾Ð»": 8951,
      "×¨×Ļ×Ŀ": 8952,
      "atÄĥ": 8953,
      "ject": 8954,
      "Õ¸Õ¬": 8955,
      "àª®àª¨": 8956,
      "Ð°Ð½Ð¸Ñı": 8957,
      "ĠRev": 8958,
      "Å«t": 8959,
      "Ġbeen": 8960,
      "Ġneed": 8961,
      "emm": 8962,
      "ÐĻ": 8963,
      "Äĵc": 8964,
      "ĠØ§ÙĦØ±": 8965,
      "ĠfrÃ¥n": 8966,
      "Rep": 8967,
      "ĠBas": 8968,
      "Ã¡i": 8969,
      "redit": 8970,
      "JA": 8971,
      "used": 8972,
      "ology": 8973,
      "Ġdod": 8974,
      "à·Ģà¶»": 8975,
      "ÐµÐ½Ðµ": 8976,
      "ÑģÐ¾Ð½": 8977,
      "avad": 8978,
      "Ú¯Ø§Ùĩ": 8979,
      "Ġ×©×ŀ": 8980,
      "ĠsÃ©r": 8981,
      "áŀº": 8982,
      "æ¨": 8983,
      "bs": 8984,
      "kap": 8985,
      "off": 8986,
      "ç»ĵ": 8987,
      "ood": 8988,
      "ÑģÐ¸": 8989,
      "Ã¸d": 8990,
      "ĠÐ³Ð¾Ð»": 8991,
      "Ġep": 8992,
      "rak": 8993,
      "ativa": 8994,
      "ÐµÐ³ÐµÐ½": 8995,
      "vy": 8996,
      "elf": 8997,
      "ĠMax": 8998,
      "ĠÎĹ": 8999,
      "perti": 9000,
      "deta": 9001,
      "Ġpens": 9002,
      "ê³Ħ": 9003,
      "ĠAP": 9004,
      "egen": 9005,
      "ĠmÄĽ": 9006,
      "wala": 9007,
      "tÃ©": 9008,
      "Ġresult": 9009,
      "AND": 9010,
      "ĠìĬ": 9011,
      "×©×ª": 9012,
      "ĠFre": 9013,
      "æīĭæľºçīĪ": 9014,
      "Ġà¦Ł": 9015,
      "Ġproces": 9016,
      "à¸Ľà¸£": 9017,
      "Ġnok": 9018,
      "Ġnow": 9019,
      "iyor": 9020,
      "áĥĶáĥĴ": 9021,
      "áºŃp": 9022,
      "æĦŁ": 9023,
      "èµ°åĬ¿": 9024,
      "áĥĺáĥĲáĥľ": 9025,
      "à¹Ĩ": 9026,
      "ements": 9027,
      "Ð¸Ñĳ": 9028,
      "dÄ±": 9029,
      "Ġstrat": 9030,
      "iji": 9031,
      "phone": 9032,
      "æĹĹ": 9033,
      "èĦ": 9034,
      "çĿĢ": 9035,
      "ĠTor": 9036,
      "Ġzam": 9037,
      "áĥĶáĥ¢": 9038,
      "ĠÐ¸Ð¼Ð°": 9039,
      "Ġ55": 9040,
      "ĠÕ®": 9041,
      "ĠØ³Ø§ÙĦ": 9042,
      "ĠÐ¾Ð±Ð»": 9043,
      "fac": 9044,
      "Ġkval": 9045,
      "à·ĳ": 9046,
      "ØªØŃ": 9047,
      "osto": 9048,
      "ÑĥÑĺ": 9049,
      "ä¼ł": 9050,
      "ĠJos": 9051,
      "Î¿ÏĤ": 9052,
      "etas": 9053,
      "iente": 9054,
      "rup": 9055,
      "vit": 9056,
      "Ġcli": 9057,
      "Ġwere": 9058,
      "ĠÐ³Ð¸": 9059,
      "Ôµ": 9060,
      "uses": 9061,
      "abu": 9062,
      "Ø¨ÛĮ": 9063,
      "ĠáĬĲ": 9064,
      "ihan": 9065,
      "àº¸": 9066,
      "ĠpÃ¤": 9067,
      "ĠGre": 9068,
      "Ð½Ð³": 9069,
      "ÎµÏħ": 9070,
      "Ġcir": 9071,
      "àºĬ": 9072,
      "ĠApril": 9073,
      "rz": 9074,
      "ror": 9075,
      "Ġdell": 9076,
      "Ġdownload": 9077,
      "ĠÐ¿ÑĸÐ´": 9078,
      "abb": 9079,
      "ingu": 9080,
      "à¥Ģà¤Ĥ": 9081,
      "ÙĪÙĨÙĩ": 9082,
      "mÄ±ÅŁ": 9083,
      "ÑĸÐ³": 9084,
      "Ġbid": 9085,
      "à¦ī": 9086,
      "had": 9087,
      "Ð¶Ð°Ð²": 9088,
      "Ġfem": 9089,
      "Ġ400": 9090,
      "áŀĶáŀĵ": 9091,
      "åĳĺ": 9092,
      "yang": 9093,
      "ÙĨØ¬": 9094,
      "Ġkamp": 9095,
      "zeko": 9096,
      "Ġtor": 9097,
      "ĠMu": 9098,
      "Ġmang": 9099,
      "Ð¸Ð½Ð¸Ð½Ð³": 9100,
      "Ġcat": 9101,
      "nolog": 9102,
      "Õ¥Õ¼": 9103,
      "âĢĭâĢĭâĢĭâĢĭâĢĭâĢĭâĢĭâĢĭ": 9104,
      "cij": 9105,
      "åħįè´¹": 9106,
      "alÄ±": 9107,
      "mad": 9108,
      "Ġà²Ń": 9109,
      "å½©ç¥ŀäºīéľ¸": 9110,
      "ĠÑĩÐµ": 9111,
      "Ġauto": 9112,
      "ãģ¨ãģĦ": 9113,
      "inÃ«": 9114,
      "ĠsÄħ": 9115,
      "udz": 9116,
      "ĠÐ±Ð¾": 9117,
      "ÅŁa": 9118,
      "Ġgran": 9119,
      "ĠÃºt": 9120,
      "Ġkj": 9121,
      "Î©": 9122,
      "Ð»ÑĮ": 9123,
      "Ġë³´": 9124,
      "999": 9125,
      "å¹¿": 9126,
      "ĠÎµÎ¯": 9127,
      "Ġautor": 9128,
      "BC": 9129,
      "ĠÐ´Ð¾Ðº": 9130,
      "Ãºbl": 9131,
      "Ġ×ľ×Ĺ": 9132,
      "ä½ł": 9133,
      "Ġnost": 9134,
      "Phone": 9135,
      "Ø¡": 9136,
      "Il": 9137,
      "Ġlaik": 9138,
      "Ġuse": 9139,
      "jÃ«": 9140,
      "áį¢": 9141,
      "ÙĬÙģ": 9142,
      "ÑĸÐ½ÑĸÒ£": 9143,
      "Î±Ïģ": 9144,
      "ĠÄĳáº¿n": 9145,
      "So": 9146,
      "ĠWindows": 9147,
      "esch": 9148,
      "uck": 9149,
      "usia": 9150,
      "Ġpow": 9151,
      "ĠHol": 9152,
      "áĬŃ": 9153,
      "ican": 9154,
      "nit": 9155,
      "Ø¹Ø©": 9156,
      "Ġkle": 9157,
      "à¤īà¤¨": 9158,
      "ĠMad": 9159,
      "ĠKe": 9160,
      "à²ķà²°": 9161,
      "Ġ44": 9162,
      "Ð´Ð°Ð»": 9163,
      "à¹Ħà¸¥": 9164,
      "µľ": 9165,
      "ĠBir": 9166,
      "èĢĮ": 9167,
      "ĠEN": 9168,
      "Ġà²ī": 9169,
      "à¦ģ": 9170,
      "Ġcompr": 9171,
      "ĠfÃ¥r": 9172,
      "åł´": 9173,
      "Ġà¤¡": 9174,
      "oku": 9175,
      "Ġqar": 9176,
      "ĠUm": 9177,
      "ĠArt": 9178,
      "ãģĤãĤĭ": 9179,
      "à¨ĩ": 9180,
      "ĠPark": 9181,
      "forma": 9182,
      "aar": 9183,
      "ĠKal": 9184,
      "Ġà´¶": 9185,
      "orth": 9186,
      "æł¼": 9187,
      "ĠÎĴ": 9188,
      "ĠÕ¶Õ¡ÕŃ": 9189,
      "Ġmobil": 9190,
      "Ġgaz": 9191,
      "elles": 9192,
      "wah": 9193,
      "ĠÐºÐµÑĢ": 9194,
      "dn": 9195,
      "ĠØ¬ÙĨ": 9196,
      "åİŁ": 9197,
      "×ł×ĺ": 9198,
      "ĠÅ½": 9199,
      "odu": 9200,
      "áģ¿áĢķ": 9201,
      "Ð¾Ðµ": 9202,
      "åħ¶": 9203,
      "ĠInn": 9204,
      "Ġanmeld": 9205,
      "iger": 9206,
      "ÙħØ§ÙĦ": 9207,
      "rie": 9208,
      "çı": 9209,
      "ĠÐ±Ð¾ÑĢ": 9210,
      "ÎŃÏģ": 9211,
      "çĦ¶": 9212,
      "Ú©ÙĨ": 9213,
      "ĠCap": 9214,
      "ÉĻz": 9215,
      "Î¿ÏħÎ¼Îµ": 9216,
      "Õ¡ÕµÕ¶": 9217,
      "apos": 9218,
      "ÉĻri": 9219,
      "åİ¿": 9220,
      "èº": 9221,
      "Ġ120": 9222,
      "×ĳ×Ķ": 9223,
      "áĥķáĥĺáĥ¡": 9224,
      "ĠfrÃ¡": 9225,
      "Ġ\\": 9226,
      "Ġsebagai": 9227,
      "Ð»Ð°Ð¼": 9228,
      "Ġpay": 9229,
      "su": 9230,
      "ĠPet": 9231,
      "erb": 9232,
      "Ã§o": 9233,
      "CD": 9234,
      "Ġà°Ń": 9235,
      "ĠMic": 9236,
      "áĥĶáĥļáĥĺ": 9237,
      "ÑĭÐµ": 9238,
      "ĠpÃ¤Ã¤": 9239,
      "Ġsome": 9240,
      "ĠÙĦØ§": 9241,
      "ĠSur": 9242,
      "ily": 9243,
      "edy": 9244,
      "Ġmuk": 9245,
      "};": 9246,
      "tai": 9247,
      "àº¥àº°": 9248,
      "Ø³ÙĬ": 9249,
      "ĠÕ°Õ¡Õ´Õ¡ÖĢ": 9250,
      "Ġrum": 9251,
      "Ġvá»ģ": 9252,
      "fen": 9253,
      "Ġdla": 9254,
      "QU": 9255,
      "Ġ×Ķ×Ķ": 9256,
      "ĠpiÃ¹": 9257,
      "Öħ": 9258,
      "ĠThis": 9259,
      "ãģĦãģ¾ãģĻ": 9260,
      "tia": 9261,
      "Ġì°": 9262,
      "td": 9263,
      "Ð¸ÑĨÐ¸": 9264,
      "ĠÙĨÛĮ": 9265,
      "ĠkÃ«": 9266,
      "Ġhai": 9267,
      "Ġpast": 9268,
      "ĠÏĢÏģÎ¿Ïĥ": 9269,
      "Ġayaa": 9270,
      "Ġever": 9271,
      "ÉĻc": 9272,
      "Ġà¹ģà¸¥à¸°": 9273,
      "ĠáĢĴ": 9274,
      "àºĪ": 9275,
      "ÑģÑĭ": 9276,
      "æĮģ": 9277,
      "bul": 9278,
      "Ã¥l": 9279,
      "ÙĦØ©": 9280,
      "Ġkum": 9281,
      "ingi": 9282,
      "kÃ¶": 9283,
      "vas": 9284,
      "ç¼": 9285,
      "ĠmoÅ¾": 9286,
      "onesia": 9287,
      "Ġdivers": 9288,
      "Ġlai": 9289,
      "quest": 9290,
      "Î·Î½": 9291,
      "nal": 9292,
      "ÑĨÐµ": 9293,
      "Ġhun": 9294,
      "Ġcop": 9295,
      "Â¤": 9296,
      "èµ·": 9297,
      "Ġwhat": 9298,
      "NEW": 9299,
      "mek": 9300,
      "123": 9301,
      "ĠØ´Ø¯": 9302,
      "áĢºáģĭ": 9303,
      "emu": 9304,
      "à¸²à¸ŀ": 9305,
      "ĠÑįÑĢ": 9306,
      "è±": 9307,
      "atori": 9308,
      "çŁ¥": 9309,
      "EP": 9310,
      "atta": 9311,
      "ĠStor": 9312,
      "Ġà²Ī": 9313,
      "rg": 9314,
      "Ġmoment": 9315,
      "ÓĻÑģ": 9316,
      "udo": 9317,
      "lash": 9318,
      "Ġhvor": 9319,
      "ĠÐ¼Ð°ÑĢ": 9320,
      "Ġjen": 9321,
      "×Ľ×ª": 9322,
      "buy": 9323,
      "ÑĩÐ¸Ð»": 9324,
      "ply": 9325,
      "imes": 9326,
      "Ġwhen": 9327,
      "Ġthere": 9328,
      "hir": 9329,
      "Ġopp": 9330,
      "Ð½Ð¾ÑĹ": 9331,
      "ÐµÑī": 9332,
      "ason": 9333,
      "ĠÙ¾Ø§Ú©": 9334,
      "eft": 9335,
      "ĠnÃº": 9336,
      "conom": 9337,
      "asyon": 9338,
      "à¶¸à¶§": 9339,
      "olf": 9340,
      "à®µà®¤": 9341,
      "Ġamin": 9342,
      "Ġà¶ħà¶´": 9343,
      "ĠHy": 9344,
      "Ġunivers": 9345,
      "Ð°Ð·Ð°ÒĽ": 9346,
      "icial": 9347,
      "è¦ĭ": 9348,
      "vor": 9349,
      "Ġgrat": 9350,
      "áĥłáĥĹ": 9351,
      "Ġhari": 9352,
      "Ð¸Ð´Ð°Ð½": 9353,
      "Õ¡Õ¶Õ¤": 9354,
      "ÙĬÙĪ": 9355,
      "ãĥī": 9356,
      "Ġcur": 9357,
      "Ġsuk": 9358,
      "ĠFe": 9359,
      "kv": 9360,
      "Ġsua": 9361,
      "Ø§ÙĨØ¯": 9362,
      "Ġfoi": 9363,
      "æ°Ĺ": 9364,
      "Ġpob": 9365,
      "Ġvast": 9366,
      "Ġhart": 9367,
      "Ġhref": 9368,
      "ĠÑģÐ°Ð½": 9369,
      "ĠInternet": 9370,
      "Ġà¤®à¤¹": 9371,
      "áĢĤ": 9372,
      "Ġdisc": 9373,
      "ription": 9374,
      "utan": 9375,
      "à©Į": 9376,
      "Ġkell": 9377,
      "elu": 9378,
      "å®ĺæĸ¹ç½ĳç«Ļ": 9379,
      "Ã³m": 9380,
      "ÑıÐ´": 9381,
      "Ġzdrav": 9382,
      "style": 9383,
      "ithe": 9384,
      "Ð¸Ñİ": 9385,
      "Ġekonom": 9386,
      "ĠáĥĿ": 9387,
      "Ø§ÛĮÛĮ": 9388,
      "à¦°à¦ķ": 9389,
      "ĠveÄį": 9390,
      "Ćć": 9391,
      "ĠFree": 9392,
      "Ġmake": 9393,
      "uno": 9394,
      "áĢ¸áĢ±": 9395,
      "ĠPara": 9396,
      "Ġ});": 9397,
      "ansa": 9398,
      "nings": 9399,
      "ĠÃ¼z": 9400,
      "ĠÃ©g": 9401,
      "Å©ng": 9402,
      "Ġáŀ¢": 9403,
      "Ð¸ÑĪÐ¸": 9404,
      "czy": 9405,
      "Ãªm": 9406,
      "orang": 9407,
      "ĠÎ¼Î¹Î±": 9408,
      "ublish": 9409,
      "Ġpem": 9410,
      "å°ĳ": 9411,
      "oter": 9412,
      "win": 9413,
      "Ġfak": 9414,
      "iniÅ³": 9415,
      "agan": 9416,
      "777": 9417,
      "Ġà°¶": 9418,
      "icia": 9419,
      "ì¹´ì§Ģëħ¸": 9420,
      "Î·ÏĤ": 9421,
      "EO": 9422,
      "Ġlek": 9423,
      "Ġcos": 9424,
      "oca": 9425,
      "Ġjako": 9426,
      "SC": 9427,
      "Ġeh": 9428,
      "ĠÐ£ÐºÑĢ": 9429,
      "Ö´": 9430,
      "Ġhak": 9431,
      "Ġill": 9432,
      "ĠÃ¦": 9433,
      "jud": 9434,
      "×©×Ļ×Ŀ": 9435,
      "æ¹": 9436,
      "Ð´Ð°Ð¹": 9437,
      "ript": 9438,
      "ĠÑĤÑĥ": 9439,
      "Ġuw": 9440,
      "astr": 9441,
      "åıĬ": 9442,
      "isme": 9443,
      "tige": 9444,
      "èŃ": 9445,
      "Ġkommer": 9446,
      "Ġpaano": 9447,
      "ĠÑĤÐµ": 9448,
      "ĠÐ¼ÐµÐ´": 9449,
      "zea": 9450,
      "å¼Ģå¥ĸ": 9451,
      "Ġday": 9452,
      "roll": 9453,
      "Ġlain": 9454,
      "æĢİ": 9455,
      "ï¿½ï¿½ï¿½ï¿½ï¿½ï¿½": 9456,
      "eksi": 9457,
      "ĠÐ²ÑĬ": 9458,
      "Ġnod": 9459,
      "ĠnÄĽ": 9460,
      "Ġgay": 9461,
      "ĠChe": 9462,
      "agra": 9463,
      "ĠìĿ¸": 9464,
      "ĠÐ½Ð°Ð¹": 9465,
      "ĠAugust": 9466,
      "ĠlÃłm": 9467,
      "enza": 9468,
      "à¸ģà¸¥": 9469,
      "ĠÃ¶z": 9470,
      "ikin": 9471,
      "Ã°u": 9472,
      "ĠÑĤÐ°Ð»": 9473,
      "àº²àº¡": 9474,
      "ĠÑħÐ°ÑĢ": 9475,
      "Ø±Ø§Ø±": 9476,
      "ĠBon": 9477,
      "Ġsoo": 9478,
      "à¤ľà¤¨": 9479,
      "Ġlit": 9480,
      "æĽ´": 9481,
      "Ġì£¼": 9482,
      "Ã¼h": 9483,
      "Ð´ÐµÐ»": 9484,
      "2007": 9485,
      "ÑģÑĭÐ½": 9486,
      "ĠÑĥÐ·": 9487,
      "à³Ĩà²Ĥ": 9488,
      "Ò»": 9489,
      "à°µà°°": 9490,
      "ÑĢÐ¾Ð½": 9491,
      "à¸·à¹ī": 9492,
      "celona": 9493,
      "Ġdifer": 9494,
      "ĠBur": 9495,
      "ĠÑģÐ°Ð¼Ð¾": 9496,
      "Ä¡": 9497,
      "TER": 9498,
      "Ø§ÛĮØª": 9499,
      "XL": 9500,
      "ĠÒĹ": 9501,
      "Ġrap": 9502,
      "Ġcontr": 9503,
      "Ġthan": 9504,
      "Ġselv": 9505,
      "ĠBus": 9506,
      "utas": 9507,
      "hold": 9508,
      "atar": 9509,
      "span": 9510,
      "ìŀĦ": 9511,
      "ĠÐ¿ÑĢÐ¾ÑĤ": 9512,
      "ì¡°": 9513,
      "bud": 9514,
      "gam": 9515,
      "edir": 9516,
      "Ġjam": 9517,
      "ç«ĭ": 9518,
      "Ġlen": 9519,
      "lep": 9520,
      "è¿ĳ": 9521,
      "Ġhow": 9522,
      "Ø±Ø©": 9523,
      "ä½ķ": 9524,
      "Ġuns": 9525,
      "áŀ¾âĢĭ": 9526,
      "nat": 9527,
      "Ġmata": 9528,
      "Ġresta": 9529,
      "à´¿.": 9530,
      "Ã¼nd": 9531,
      "alen": 9532,
      "elas": 9533,
      "Ð¸Ð·Ð²": 9534,
      "Ġlep": 9535,
      "Ġë²": 9536,
      "ä¸ĸ": 9537,
      "Ġapp": 9538,
      "Ġmenjadi": 9539,
      "ÑĤÐ°Ð¹": 9540,
      "Ð°ÑĤÑĭ": 9541,
      "ìĦ¸": 9542,
      "Ġà²¯": 9543,
      "æİ¥": 9544,
      "è»": 9545,
      "ĠRob": 9546,
      "nym": 9547,
      "Ø¬Ùĩ": 9548,
      "ategor": 9549,
      "ĠØªÙĨ": 9550,
      "ĠØªÙĤ": 9551,
      "Î¼ÏĢ": 9552,
      "×ĵ×Ļ×Ŀ": 9553,
      "SD": 9554,
      "à¸²à¸Ī": 9555,
      "×ķ×ļ": 9556,
      "Ð½ÑĭÑı": 9557,
      "Ġkim": 9558,
      "Ġhen": 9559,
      "ĠáĥĴáĥĲáĥľ": 9560,
      "stÃ¤": 9561,
      "ĠÑŀÐ·": 9562,
      "ĠÅ¾iv": 9563,
      "Ġkama": 9564,
      "ozi": 9565,
      "à¸¹à¹Ī": 9566,
      "onda": 9567,
      "Ġback": 9568,
      "ĠÑģÑĤÑĢÐ°Ð½": 9569,
      "áĥ¦": 9570,
      ":-": 9571,
      "Ġjul": 9572,
      "Ġà°Ī": 9573,
      "âĢľ.": 9574,
      "Ġov": 9575,
      "ulan": 9576,
      "à¸Īà¸²à¸ģ": 9577,
      "ĠDav": 9578,
      "Ġtersebut": 9579,
      "Ġá»Ł": 9580,
      "Ġ>>": 9581,
      "Ġ×Ĵ×Ŀ": 9582,
      "ĠUN": 9583,
      "Ġ43": 9584,
      "Ð¾Ð²Ðµ": 9585,
      "Ø§Ø¯ÛĮ": 9586,
      "uren": 9587,
      "ĠProf": 9588,
      "Ġàªıàªķ": 9589,
      "bund": 9590,
      "Ġfirst": 9591,
      "åĻ¨": 9592,
      "ĠáĢĳ": 9593,
      "Ã´n": 9594,
      "ç§ĳ": 9595,
      "eu": 9596,
      "Ġ]": 9597,
      "Ã¢m": 9598,
      "time": 9599,
      "áĥ£": 9600,
      "Ġinteres": 9601,
      "ÐµÐ´Ñĸ": 9602,
      "isan": 9603,
      "Ġperi": 9604,
      "Ð½Ð¾Ðµ": 9605,
      "Ð°ÑĤÐµÐ»": 9606,
      "Ð¿ÐµÑĢ": 9607,
      "ÐµÑĤÐ¸": 9608,
      "å®¢æĪ·ç«¯": 9609,
      "Ġsunt": 9610,
      "900": 9611,
      "ĠVa": 9612,
      "èµĮ": 9613,
      "ĠÙĦÙĪ": 9614,
      "Ġtent": 9615,
      "×ŀ×ķ": 9616,
      "è®¾": 9617,
      "ĠsÃ¶": 9618,
      "ë§ĪìĤ¬ì§Ģ": 9619,
      "Ġà§¨": 9620,
      "á»ĩu": 9621,
      "adores": 9622,
      "Ġagçİ¯äºļ": 9623,
      "Ò±Ð»": 9624,
      "ĠÑģÑĢ": 9625,
      "ãĥĭ": 9626,
      "áĢĽáĢĦ": 9627,
      "çİ©": 9628,
      "Ġzm": 9629,
      "áĥĺáĥļáĥĺ": 9630,
      "ìĺģ": 9631,
      "éĿĴ": 9632,
      "obi": 9633,
      "Ġsens": 9634,
      "ĠáĬ¥áĬķ": 9635,
      "áĢ¹áĢ»": 9636,
      "ĠÑĥÐ½": 9637,
      "ê¸Ī": 9638,
      "Ġnaz": 9639,
      "Ġ×ŀ×¢": 9640,
      "ĠÕ£Õ¸ÖĢÕ®": 9641,
      "Ak": 9642,
      "æ»": 9643,
      "CAG": 9644,
      "à´°à´¤": 9645,
      "Ġanak": 9646,
      "ĠHal": 9647,
      "Ã²n": 9648,
      "ĠOm": 9649,
      "ĠLeg": 9650,
      "à¸ļà¸£": 9651,
      "ĠÐ²ÐµÑĢ": 9652,
      "ĠØ§Øª": 9653,
      "Ø§ÙħÙĩ": 9654,
      "ĠSec": 9655,
      "Ġvery": 9656,
      "æ¢": 9657,
      "Ãªncia": 9658,
      "ãĤº": 9659,
      "ĠØ§Ø¬": 9660,
      "ĠÐļÑĢ": 9661,
      "Ġokt": 9662,
      "à¨¥": 9663,
      "oke": 9664,
      "Î»Î¯": 9665,
      "Ġà¦ħà¦¨": 9666,
      "ÄįiÅ³": 9667,
      "æºĲ": 9668,
      "Ġ×Ĳ×ķ×ª": 9669,
      "ç¶": 9670,
      "Ã¡ra": 9671,
      "ojen": 9672,
      "adding": 9673,
      "Ġnr": 9674,
      "ÑĩÐµ": 9675,
      "oru": 9676,
      "ĠKan": 9677,
      "Ġzab": 9678,
      "Ø§Ø¦ÛĴ": 9679,
      "cle": 9680,
      "æĹ¥æľ¬": 9681,
      "×ł×¡": 9682,
      "ÙĥÙĨ": 9683,
      "èĢĥ": 9684,
      "new": 9685,
      "éĸĵ": 9686,
      "æ¥Ń": 9687,
      "://:": 9688,
      "video": 9689,
      "áº¥y": 9690,
      "Ð°ÑĤÑĥÑĢ": 9691,
      "åİ»": 9692,
      "ches": 9693,
      "Si": 9694,
      "Vi": 9695,
      "asc": 9696,
      "Ġarticle": 9697,
      "ĠëĤĺ": 9698,
      "dor": 9699,
      "yti": 9700,
      "ossa": 9701,
      "CAA": 9702,
      "è£ħ": 9703,
      "Es": 9704,
      "áĥĲáĥ¨áĥĺ": 9705,
      "Ġmest": 9706,
      "Ġprev": 9707,
      "Ġtáº¡i": 9708,
      "Ġfaz": 9709,
      "Ġvin": 9710,
      "ĠÛĮÚ©": 9711,
      "ĠìľĦ": 9712,
      "etik": 9713,
      "åĲĹ": 9714,
      "Â©": 9715,
      "íģ": 9716,
      "Ġegin": 9717,
      "è§Ĥ": 9718,
      "Ġrek": 9719,
      "ãĥ¥": 9720,
      "acy": 9721,
      "itud": 9722,
      "ĠÏĥÏĦÎ±": 9723,
      "Ġsáº½": 9724,
      "ÑĤÐ°Ð»": 9725,
      "Ð±Ð¸": 9726,
      "áĢ¼áĢ¬áĢ¸": 9727,
      "ç¥ŀ": 9728,
      "Ð´ÑĭÐ½": 9729,
      "angg": 9730,
      "ĠPan": 9731,
      "parent": 9732,
      "Ã³p": 9733,
      "Ġjet": 9734,
      "Ø´Øª": 9735,
      "Î¬Î»": 9736,
      "ĠÛĮØ§": 9737,
      "elsen": 9738,
      "Ġverd": 9739,
      "Ġï¿½ï¿½ï¿½ï¿½ï¿½ï¿½ï¿½ï¿½ï¿½": 9740,
      "iciÃ³n": 9741,
      "ÐĲÐł": 9742,
      "ultura": 9743,
      "áŀļáŀĳ": 9744,
      "Ġdeur": 9745,
      "ĠØ®ÙĦ": 9746,
      "íĸī": 9747,
      "Ġcáº£": 9748,
      "ikal": 9749,
      "UD": 9750,
      "Ġwerden": 9751,
      "Ġæĺ": 9752,
      "Ġapar": 9753,
      "áĮ¥": 9754,
      "ãĥŁ": 9755,
      "ebruik": 9756,
      "Ġì¤ĳ": 9757,
      "Ġà¤¸à¤ķ": 9758,
      "rej": 9759,
      "æ®": 9760,
      "ĠÙħØµ": 9761,
      "opa": 9762,
      "èĻ": 9763,
      "ĠNovember": 9764,
      "ĠÐ¼Ð°": 9765,
      "ĠÐ±Ò¯": 9766,
      "Å£i": 9767,
      "çº§": 9768,
      "otor": 9769,
      "laÅŁ": 9770,
      "Ġner": 9771,
      "ĠÒ¯Ð·": 9772,
      "Be": 9773,
      "à¥ī": 9774,
      "áŁīáŀ¶": 9775,
      "none": 9776,
      "Ja": 9777,
      "ĠFebru": 9778,
      "ney": 9779,
      "ĠÑĤÐ°Ð¼": 9780,
      "tima": 9781,
      "ĠSen": 9782,
      "iset": 9783,
      "WA": 9784,
      "×ķ×ł×ķ×ª": 9785,
      "ĠÐ¸Ð½ÑĤÐµÑĢ": 9786,
      "yh": 9787,
      "Ġzi": 9788,
      "deal": 9789,
      "Ġina": 9790,
      "OC": 9791,
      "Ob": 9792,
      "à¸ĩà¸Ĺ": 9793,
      "risti": 9794,
      "arak": 9795,
      "KA": 9796,
      "TS": 9797,
      "Ġparas": 9798,
      "íķĺê³ł": 9799,
      "ovÃ½": 9800,
      "ĠÕª": 9801,
      "×Ļ×¨×ķ×ª": 9802,
      "Ġkomun": 9803,
      "ibli": 9804,
      "Ġ×ŀ×§": 9805,
      "ĠMah": 9806,
      "ĠSim": 9807,
      "áĢ¡áĢĲ": 9808,
      "ĠBil": 9809,
      "ĠÐ½Ð°Ñĩ": 9810,
      "umat": 9811,
      "ĠÐĳÐµÐ»": 9812,
      "Ã¦l": 9813,
      "Ġ65": 9814,
      "Ġpus": 9815,
      "ĠKas": 9816,
      "ĠÐ´Ð¾ÑģÑĤ": 9817,
      "à°²à°ķ": 9818,
      "nÃ©ho": 9819,
      "main": 9820,
      "ĠTak": 9821,
      "ÙĪØ±Øª": 9822,
      "×Ĺ×ĵ": 9823,
      "ĠÑīÐµ": 9824,
      "Ã±os": 9825,
      "çĸ": 9826,
      "Ġago": 9827,
      "dÉĻn": 9828,
      "Úļ": 9829,
      "ãĥĩ": 9830,
      "ĠNi": 9831,
      "back": 9832,
      "×ł×ª": 9833,
      "juk": 9834,
      "ĠÐ¿ÑĢÐ¾ÑĨ": 9835,
      "ĠmÃ©": 9836,
      "tas": 9837,
      "ÕĪ": 9838,
      "áŀĺáŀĢ": 9839,
      "Ô»": 9840,
      "erson": 9841,
      "ÑĸÐ½Ð´Ðµ": 9842,
      "Ġdenne": 9843,
      "ÛĮÙĦ": 9844,
      "nn": 9845,
      "ĠÐ¼Ð¸Ð»": 9846,
      "ĠCamp": 9847,
      "Ð¾Ð½Ð¾Ð¼": 9848,
      "Ġsent": 9849,
      "×Ĺ×ª": 9850,
      "à¤¿à¤Ĥ": 9851,
      "Ġhid": 9852,
      "ĠÐ·Ð½": 9853,
      "PA": 9854,
      "ujÄħ": 9855,
      "×ķ×ķ": 9856,
      "ĠJes": 9857,
      "Ġrefer": 9858,
      "èµ°åĬ¿åĽ¾": 9859,
      "Ġmg": 9860,
      "ĠÐ½Ñı": 9861,
      "Ġ×Ľ×Ļ": 9862,
      "ĠpÅĻed": 9863,
      "Õ¡ÖĢÕ±": 9864,
      "It": 9865,
      "×ľ×§": 9866,
      "ØªØ¨": 9867,
      "Ġkra": 9868,
      "Ġà¨Ń": 9869,
      "IX": 9870,
      "×Ĳ×ª": 9871,
      "Ġbig": 9872,
      "Ãªu": 9873,
      "ÑĥÐ»ÑĮÑĤ": 9874,
      "Ð°ÑĤÑĭÐ½": 9875,
      "ĈĈ": 9876,
      "ict": 9877,
      "Ã¡ri": 9878,
      "stu": 9879,
      "klad": 9880,
      "Ġdeze": 9881,
      "ĠPod": 9882,
      "Ġcost": 9883,
      "niri": 9884,
      "ìŀħ": 9885,
      "eba": 9886,
      "Ð¸ÑĤÐµÐ»ÑĮ": 9887,
      "700": 9888,
      "anza": 9889,
      "......": 9890,
      "ĠRad": 9891,
      "ÑĭÐ»Ð°ÑĢ": 9892,
      "Ġáī°": 9893,
      "vest": 9894,
      "Ġprocess": 9895,
      "ĠnhÃł": 9896,
      "dib": 9897,
      "Â§": 9898,
      "ĠCasino": 9899,
      "ĠSing": 9900,
      "à²¤à²°": 9901,
      "Ġ46": 9902,
      "iap": 9903,
      "open": 9904,
      "Ġ49": 9905,
      "Ġdy": 9906,
      "è¿ĺ": 9907,
      "zenia": 9908,
      "Õ¡Õ¶Õ¸ÖĤÕ´": 9909,
      "Ġdef": 9910,
      "ãģ°": 9911,
      "eles": 9912,
      "Sc": 9913,
      "We": 9914,
      "utu": 9915,
      "Ġestis": 9916,
      "eki": 9917,
      "Ġbanyak": 9918,
      "Ġged": 9919,
      "ÏĢÎ¿Î¹": 9920,
      "ĠáĭŃ": 9921,
      "ĠÑģÐ°ÑĢ": 9922,
      "Top": 9923,
      "Ã¦g": 9924,
      "oney": 9925,
      "Ġà¦ľà¦¨": 9926,
      "Ġcontra": 9927,
      "Ġaby": 9928,
      "aly": 9929,
      "ĠÑģÐµÑĢ": 9930,
      "Ġhann": 9931,
      "Ġì²": 9932,
      "108": 9933,
      "ystem": 9934,
      "ojnÃ«": 9935,
      "\")": 9936,
      "KK": 9937,
      "egar": 9938,
      "Ġolarak": 9939,
      "ĠKl": 9940,
      "alau": 9941,
      "Ġgood": 9942,
      "Ġdrug": 9943,
      "ĠÔ¿": 9944,
      "Ġhigh": 9945,
      "Ø®Ø±": 9946,
      "Ġarbe": 9947,
      "Ġprojek": 9948,
      "ĠÕĢÕ¡Õµ": 9949,
      "aber": 9950,
      "ĠIz": 9951,
      "Ġprincip": 9952,
      "Det": 9953,
      "Ġà°¹": 9954,
      "æµģ": 9955,
      "ãģĤãĤĬ": 9956,
      "Ġdefin": 9957,
      "hur": 9958,
      "Ġquan": 9959,
      "ĠolduÄŁ": 9960,
      "Ð¸Ñī": 9961,
      "aler": 9962,
      "Ġê±": 9963,
      "iser": 9964,
      "Ð°Ð¼Ñĸ": 9965,
      "amsung": 9966,
      "Ġwant": 9967,
      "Ġsti": 9968,
      "Ġviz": 9969,
      "Î´Î¹Î±": 9970,
      "ÏĥÏĦÎ·": 9971,
      "ampai": 9972,
      "ĠGratis": 9973,
      "ĠÎ¼Î±ÏĤ": 9974,
      "ÑĸÐ½Ðµ": 9975,
      "Ġà¨ĸ": 9976,
      "Ġfan": 9977,
      "áĥĺáĥ£áĥ": 9978,
      "Ġlid": 9979,
      "åįķåıĮ": 9980,
      "èº«": 9981,
      "æĹ©": 9982,
      "IST": 9983,
      "ĠÑĤÐ°Ð±": 9984,
      "Ġíı": 9985,
      "ìľĦ": 9986,
      "ÙĦÙĪØ¯": 9987,
      "ãģ«ãģª": 9988,
      "inio": 9989,
      "ëŁ¬": 9990,
      "ĠMel": 9991,
      "Ġà¸§": 9992,
      "UA": 9993,
      "Ġstran": 9994,
      "Ã¢nd": 9995,
      "áĥļáĥĺáĥ¡": 9996,
      "Ġsht": 9997,
      "Ġband": 9998,
      "Ġsept": 9999,
      "áŀĺáŀĵ": 10000,
      "à¹Ģà¸¡": 10001,
      "ĠÕĨ": 10002,
      "Ð±Ðµ": 10003,
      "Ġàª°àª¹": 10004,
      "ÑĢÐ´": 10005,
      "Ġà¤¬à¤¨": 10006,
      "Ġauk": 10007,
      "ĠÑģÑĤÑĢ": 10008,
      "inÄĹs": 10009,
      "Ä«ba": 10010,
      "usan": 10011,
      "ĠÐ¼Ð¾Ð³": 10012,
      "áŀĻáŀĢ": 10013,
      "Ãı": 10014,
      "Ġeven": 10015,
      "Ġmac": 10016,
      "ries": 10017,
      "ÙĤÙĦ": 10018,
      "×Ĳ×ľ": 10019,
      "Ġdelle": 10020,
      "vn": 10021,
      "lÉĻri": 10022,
      "ĠSeptember": 10023,
      "ĠìĿ¼": 10024,
      "ATT": 10025,
      "å¸ĥ": 10026,
      "adda": 10027,
      "ĠÐ·Ð°Ð´": 10028,
      "Ġedo": 10029,
      "das": 10030,
      "àª°àª¨": 10031,
      "à¸²à¸Ķ": 10032,
      "à¸²à¸ķ": 10033,
      "Ġvagy": 10034,
      "à±ģ,": 10035,
      "à¤ķà¤°": 10036,
      "ilen": 10037,
      "áĥĲáĥ¥": 10038,
      "plo": 10039,
      "Ġbild": 10040,
      "ÑĤÑįÐ¹": 10041,
      "âĢ²âĢ²": 10042,
      "Ġwerk": 10043,
      "Ġà¹ĥ": 10044,
      "Ġ×ĳ×Ĺ": 10045,
      "ĠMur": 10046,
      "ĠDit": 10047,
      "áº±": 10048,
      "ĠÐĿÐ°": 10049,
      "olt": 10050,
      "Type": 10051,
      "ĠLond": 10052,
      "à¸£à¸¡": 10053,
      "à¤µà¤°": 10054,
      "à¨ħ": 10055,
      "Ġ250": 10056,
      "ajn": 10057,
      "Ġ1000": 10058,
      "Õ¡ÕµÕ«": 10059,
      "uzi": 10060,
      "vien": 10061,
      "ãĤĪãģĨ": 10062,
      "Is": 10063,
      "Ġà¤ĩà¤¸": 10064,
      "angi": 10065,
      "Op": 10066,
      "ÑģÐºÐµ": 10067,
      "Ø§Ù¾": 10068,
      "ĠÃ¾ar": 10069,
      "mos": 10070,
      "Ġinto": 10071,
      "Ġhver": 10072,
      "Ġcin": 10073,
      "Ġcada": 10074,
      "Ġáĥ¢": 10075,
      "Ãŀ": 10076,
      "ĠÕ´Õ¥Õ": 10077,
      "áĢ½áĢ±": 10078,
      "overn": 10079,
      "FA": 10080,
      "ĠØ´Ø¯Ùĩ": 10081,
      "Ġtodo": 10082,
      "ĠSem": 10083,
      "Ð»Ð¸Ñĩ": 10084,
      "tivo": 10085,
      "ÑĸÑĨ": 10086,
      "ÐµÑĢÐ°": 10087,
      "å¸¸": 10088,
      "revious": 10089,
      "ìķ½": 10090,
      "bon": 10091,
      "bd": 10092,
[...]
