<unk>	0
<s>	0
</s>	0
<pad>	0
▁	-3.08098
,	-3.83107
.	-3.92629
s	-4.27895
a	-4.76655
e	-4.96548
i	-4.99264
t	-5.22692
-	-5.23041
▁de	-5.33317
o	-5.37038
:	-5.42012
▁a	-5.5218
u	-5.54892
n	-5.6037
y	-5.80584
en	-5.81881
d	-5.90142
▁-	-5.92017
)	-5.97918
▁(	-6.02207
m	-6.04541
r	-6.10447
er	-6.11698
k	-6.15549
▁in	-6.21709
an	-6.22208
/	-6.23964
▁e	-6.29946
▁i	-6.3088
▁na	-6.31309
▁la	-6.31777
in	-6.32031
te	-6.37104
▁en	-6.37659
g	-6.41036
h	-6.41799
z	-6.46439
▁A	-6.46467
na	-6.48935
ta	-6.49035
es	-6.49574
'	-6.52421
da	-6.52807
▁S	-6.53234
l	-6.54488
c	-6.54874
▁sa	-6.56798
ar	-6.57482
de	-6.58018
le	-6.64102
b	-6.64174
ne	-6.64358
▁di	-6.64544
p	-6.67184
▁|	-6.68346
’	-6.69639
to	-6.72438
▁o	-6.72544
▁se	-6.72986
ka	-6.74656
▁to	-6.74671
la	-6.74832
j	-6.82016
▁do	-6.83463
al	-6.85004
ni	-6.85736
re	-6.85762
li	-6.8827
v	-6.88479
is	-6.90841
ing	-6.91197
▁da	-6.91806
f	-6.91943
ti	-6.92256
▁the	-6.95289
ed	-6.9543
...	-6.95957
et	-6.95965
▁v	-6.96552
as	-6.96979
x	-6.9769
ja	-6.97893
?	-7.00371
ko	-7.00494
si	-7.00765
it	-7.01121
▁s	-7.02405
▁que	-7.02945
ma	-7.03459
▁d	-7.05158
at	-7.06422
▁–	-7.06984
!	-7.08238
se	-7.08635
w	-7.08843
S	-7.0907
▁un	-7.10724
▁1	-7.11444
▁M	-7.12646
os	-7.13341
ra	-7.14896
ga	-7.15435
▁I	-7.15897
▁of	-7.17113
▁l	-7.17251
no	-7.17495
"	-7.17582
A	-7.17685
▁B	-7.17806
▁"	-7.19005
ak	-7.19619
▁m	-7.20735
▁ka	-7.21235
▁and	-7.21896
ch	-7.22954
▁for	-7.23492
st	-7.23901
us	-7.24
▁at	-7.24071
▁K	-7.24292
di	-7.25308
▁og	-7.25872
▁C	-7.27109
▁2	-7.27284
▁T	-7.28944
▁on	-7.29357
▁si	-7.29409
▁z	-7.30194
▁is	-7.3023
me	-7.3052
;	-7.30542
on	-7.30578
ce	-7.30648
▁te	-7.30839
ur	-7.3131
▁E	-7.31427
▁le	-7.3213
▁be	-7.32417
▁3	-7.33147
▁me	-7.34261
ve	-7.346
ki	-7.34787
▁po	-7.34846
ir	-7.35583
sa	-7.35733
ri	-7.36038
▁“	-7.37575
▁per	-7.37584
ke	-7.3764
lo	-7.39136
ge	-7.39613
mi	-7.39704
▁O	-7.40646
▁ja	-7.40888
B	-7.40996
do	-7.41274
▁на	-7.41494
▁za	-7.41812
▁je	-7.41996
D	-7.42146
▁no	-7.42468
C	-7.42971
id	-7.43735
2	-7.44194
il	-7.45055
_	-7.45338
▁D	-7.46058
▁al	-7.46628
▁el	-7.47024
▁P	-7.47171
▁/	-7.47323
ba	-7.47436
ha	-7.47795
▁re	-7.48208
tu	-7.48223
3	-7.48378
va	-7.48495
▁ku	-7.48557
▁er	-7.49091
▁V	-7.49197
▁4	-7.50588
el	-7.506
”	-7.51326
а	-7.51453
▁L	-7.52534
▁du	-7.52543
ci	-7.52624
▁ne	-7.52787
ku	-7.52911
je	-7.53006
▁die	-7.53257
ro	-7.53458
wa	-7.53463
▁H	-7.53618
▁të	-7.54295
q	-7.55201
ca	-7.55255
1	-7.57816
ul	-7.5799
и	-7.58857
F	-7.58868
▁van	-7.589
▁G	-7.59143
com	-7.59688
▁La	-7.59871
un	-7.60523
K	-7.607
kan	-7.61516
▁pa	-7.61584
▁ya	-7.61992
▁con	-7.62385
í	-7.62652
▁k	-7.62732
▁10	-7.63523
um	-7.63636
E	-7.63881
▁N	-7.64062
▁F	-7.64682
am	-7.65306
▁De	-7.65637
T	-7.66071
ek	-7.66812
▁5	-7.66886
be	-7.66961
ten	-7.67789
em	-7.67987
▁ki	-7.68796
▁19	-7.69503
▁ve	-7.69737
▁u	-7.70098
ter	-7.70157
▁su	-7.71043
mo	-7.71133
ya	-7.71592
G	-7.72005
(	-7.72218
N	-7.72551
P	-7.7307
lar	-7.73642
é	-7.73734
▁R	-7.73968
or	-7.74155
ia	-7.74317
W	-7.7496
zi	-7.7537
za	-7.75711
ng	-7.75743
V	-7.75771
M	-7.75811
4	-7.75966
ad	-7.75999
▁para	-7.76859
▁wa	-7.77299
co	-7.77408
▁an	-7.77416
▁ma	-7.7753
▁ha	-7.78445
▁dan	-7.78929
H	-7.79217
▁ke	-7.79913
▁ko	-7.80523
▁et	-7.80851
ی	-7.81269
▁U	-7.81335
▁ge	-7.82047
ho	-7.82449
vi	-7.82542
go	-7.82885
▁so	-7.82987
pa	-7.83149
▁yang	-7.83243
ly	-7.83255
的	-7.83404
▁del	-7.83823
gi	-7.84444
|	-7.8475
▁за	-7.85561
▁w	-7.85912
е	-7.86908
im	-7.8719
ie	-7.87736
▁y	-7.87799
O	-7.87897
▁b	-7.88516
du	-7.89244
der	-7.89272
▁ver	-7.89314
man	-7.89388
▁и	-7.89839
▁med	-7.89975
5	-7.9027
▁ng	-7.90748
▁ta	-7.90786
▁til	-7.91439
▁pe	-7.91591
т	-7.91809
://	-7.92102
м	-7.92181
▁op	-7.93346
▁på	-7.93605
bo	-7.94387
▁by	-7.94394
den	-7.94648
▁Re	-7.94851
ver	-7.95714
с	-7.95994
▁In	-7.96394
ut	-7.97022
lu	-7.97332
▁6	-7.97383
we	-7.97679
▁bo	-7.98264
po	-7.98274
▁t	-7.98462
ny	-7.98869
▁va	-7.99483
▁vi	-7.99977
▁Na	-8.0039
▁0	-8.00948
▁av	-8.01312
š	-8.01315
л	-8.01507
▁g	-8.01965
▁Le	-8.02192
у	-8.02538
]	-8.02699
на	-8.02768
6	-8.03198
▁as	-8.03589
▁#	-8.03823
▁ar	-8.03862
▁12	-8.03908
▁W	-8.04241
▁و	-8.04343
om	-8.04374
ā	-8.04498
8	-8.04635
nya	-8.04978
mu	-8.05085
▁pre	-8.0524
ju	-8.05424
▁20	-8.05725
ه	-8.05872
ina	-8.0593
jo	-8.06055
ä	-8.06232
0	-8.06537
▁Al	-8.06868
▁«	-8.0697
▁»	-8.07147
▁Se	-8.07613
7	-8.07618
th	-8.07699
▁8	-8.07807
▁het	-8.08095
▁në	-8.08182
▁в	-8.08587
ik	-8.08724
I	-8.08788
▁ir	-8.09366
ze	-8.09541
ка	-8.0955
he	-8.09872
▁om	-8.10014
▁ni	-8.10218
L	-8.10253
▁7	-8.10434
▁pro	-8.11315
▁som	-8.11558
н	-8.11816
á	-8.11992
ang	-8.11995
▁kan	-8.1221
▁h	-8.12279
▁15	-8.1235
ji	-8.12471
R	-8.12473
р	-8.12528
pe	-8.12636
gen	-8.12668
،	-8.12869
▁11	-8.13065
ler	-8.13195
lik	-8.13986
ни	-8.14058
▁The	-8.14139
д	-8.14141
ru	-8.14563
ty	-8.15698
9	-8.15775
▁eta	-8.15816
ck	-8.15891
=	-8.16523
▁der	-8.167
▁es	-8.16838
▁ang	-8.16867
▁har	-8.17095
bi	-8.17137
。	-8.17646
▁bi	-8.18048
▁18	-8.18518
▁2019	-8.18654
▁li	-8.18731
hi	-8.1875
▁por	-8.19115
▁c	-8.19347
▁var	-8.19375
▁Sa	-8.20021
iz	-8.20487
▁Z	-8.20525
▁ber	-8.20723
ó	-8.21027
▁ba	-8.21422
я	-8.21654
vo	-8.21806
▁les	-8.21812
й	-8.2192
▁Ma	-8.22295
▁af	-8.22494
▁J	-8.22832
▁&	-8.22886
),	-8.22972
▁по	-8.23122
men	-8.23389
J	-8.23394
▁par	-8.23504
▁2018	-8.23891
▁il	-8.23968
▁bu	-8.24423
ž	-8.24943
та	-8.25278
ment	-8.25678
­	-8.25776
▁p	-8.25841
х	-8.26045
▁Vi	-8.2613
ot	-8.26431
▁och	-8.26611
▁2017	-8.26681
▁x	-8.26712
▁Be	-8.27193
▁á	-8.27198
ning	-8.27223
▁„	-8.27253
▁den	-8.27312
▁tu	-8.27369
к	-8.27446
▁:	-8.27634
ig	-8.27767
ud	-8.27826
▁9	-8.27986
▁mu	-8.28036
▁у	-8.28471
▁ra	-8.28508
ok	-8.2886
▁16	-8.29104
X	-8.29131
ol	-8.29267
ą	-8.29392
▁een	-8.29443
ste	-8.298
»	-8.29958
so	-8.301
bu	-8.30263
sta	-8.30709
▁od	-8.30868
ry	-8.31095
▁с	-8.31141
▁f	-8.31235
▁com	-8.31815
▁det	-8.32075
ven	-8.32177
ê	-8.32262
ov	-8.32263
▁Di	-8.326
lan	-8.32942
Z	-8.33189
з	-8.33634
var	-8.33666
▁No	-8.34082
).	-8.34345
ky	-8.34463
Y	-8.34521
gu	-8.34852
▁14	-8.3501
▁cu	-8.35092
▁um	-8.35101
да	-8.35259
▁mo	-8.35632
fa	-8.35671
#	-8.36004
▁Po	-8.36032
▁men	-8.36058
▁co	-8.36103
▁13	-8.36525
▁për	-8.36582
zo	-8.36705
▁€	-8.36823
▁des	-8.36892
ai	-8.37239
、	-8.37353
▁17	-8.37494
▁[	-8.3762
ada	-8.37712
“	-8.37863
▁Ka	-8.379
hu	-8.38122
tra	-8.38196
ш	-8.38337
▁To	-8.38358
pi	-8.38522
▁fa	-8.38653
tor	-8.38826
ber	-8.39227
▁>	-8.39516
▁ה	-8.39888
▁X	-8.40002
▁En	-8.40256
ú	-8.40624
dan	-8.41316
fi	-8.4164
▁að	-8.41688
ine	-8.41784
ę	-8.41924
▁met	-8.41976
▁ca	-8.41983
ita	-8.42028
▁ال	-8.4251
но	-8.42643
га	-8.42697
tur	-8.4279
+	-8.42906
ren	-8.43105
ă	-8.43297
ll	-8.43332
▁mi	-8.43861
ي	-8.43897
г	-8.43947
ի	-8.44051
ة	-8.44068
ers	-8.44134
▁2016	-8.44154
▁El	-8.44461
▁pri	-8.44605
▁ho	-8.4461
▁م	-8.44833
▁und	-8.45042
ken	-8.45116
▁...	-8.45463
▁à	-8.45594
né	-8.46018
▁bir	-8.46083
nu	-8.46129
▁n	-8.46321
ker	-8.46391
▁да	-8.46541
▁ob	-8.46957
▁man	-8.47155
ts	-8.47347
tar	-8.47406
▁í	-8.47671
▁Ta	-8.48002
▁Li	-8.48242
▁with	-8.48292
per	-8.48313
ní	-8.48427
▁nga	-8.48553
ç	-8.48622
о	-8.48653
ų	-8.48751
ч	-8.49277
ger	-8.49282
est	-8.49619
▁30	-8.49692
▁una	-8.49953
ana	-8.50168
sh	-8.50892
▁kon	-8.5118
io	-8.51395
10	-8.51618
ли	-8.52041
ла	-8.52305
ach	-8.52319
▁fi	-8.52518
wi	-8.52711
▁Ha	-8.52819
ung	-8.52901
ë	-8.52984
ation	-8.53056
U	-8.53459
▁dhe	-8.53474
▁Ko	-8.53481
▁An	-8.53646
ş	-8.53845
▁att	-8.54117
▁em	-8.54311
nie	-8.54733
▁'	-8.54831
в	-8.55033
▁Pa	-8.55064
▁ter	-8.55082
han	-8.55307
ə	-8.55408
ks	-8.55551
ari	-8.55699
▁you	-8.5581
▁21	-8.55958
ini	-8.56571
▁د	-8.56868
▁Ar	-8.57016
▁or	-8.57064
are	-8.57211
م	-8.57244
val	-8.57392
tion	-8.57625
▁é	-8.58197
ī	-8.58538
sk	-8.5854
uk	-8.58691
▁Co	-8.58804
▁ay	-8.58986
ran	-8.59151
ou	-8.59205
que	-8.59351
ات	-8.59505
19	-8.60299
min	-8.60336
ej	-8.60507
ж	-8.60508
nt	-8.60604
▁Mo	-8.60946
▁nu	-8.61536
▁Per	-8.61553
▁iz	-8.61614
ah	-8.61629
▁jo	-8.61664
▁22	-8.61822
ن	-8.61946
ہ	-8.62073
▁Ro	-8.62454
ton	-8.62589
▁Ne	-8.62767
ant	-8.62874
ا	-8.62951
▁Bo	-8.63074
▁24	-8.63211
ти	-8.63306
▁he	-8.63429
kin	-8.63637
б	-8.63837
▁din	-8.64307
не	-8.64415
▁nie	-8.6472
▁Y	-8.64769
▁sem	-8.64851
ben	-8.6486
sti	-8.64972
&	-8.65025
▁Mar	-8.65118
yo	-8.65195
ye	-8.65347
ska	-8.6536
su	-8.65369
▁Da	-8.6575
>	-8.65804
п	-8.65813
î	-8.65997
▁Ge	-8.66146
▁Ba	-8.66563
▁25	-8.66756
dy	-8.66807
▁се	-8.66843
▁ב	-8.66902
ð	-8.6705
ն	-8.6718
ت	-8.67253
15	-8.67259
ele	-8.67331
▁can	-8.67471
▁Do	-8.67581
www	-8.67602
▁az	-8.67605
à	-8.67947
▁С	-8.67948
sen	-8.67976
Q	-8.6811
ent	-8.68232
▁Si	-8.6881
au	-8.69014
let	-8.69046
▁2015	-8.69226
gar	-8.69671
res	-8.70043
‘	-8.70043
▁+	-8.70066
che	-8.70329
ite	-8.70701
▁lu	-8.7078
▁che	-8.7098
ва	-8.71179
cu	-8.71267
mas	-8.71319
ы	-8.71501
18	-8.7182
17	-8.71959
è	-8.7206
▁för	-8.72071
▁2020	-8.72138
▁pi	-8.72287
gan	-8.72416
fe	-8.72624
tel	-8.72711
▁voor	-8.72737
cha	-8.7279
by	-8.7292
tt	-8.72994
▁מ	-8.73136
ist	-8.73153
▁ri	-8.73179
▁és	-8.7318
▁‘	-8.73443
ab	-8.73653
▁Me	-8.73765
▁am	-8.73816
ez	-8.7391
▁ga	-8.73913
č	-8.741
ili	-8.74255
▁lo	-8.74345
tal	-8.74381
land	-8.74462
ado	-8.74466
▁Ja	-8.74488
asi	-8.74498
tan	-8.74569
▁km	-8.74593
▁Bu	-8.74676
tas	-8.74682
ban	-8.74822
tre	-8.74894
tes	-8.75122
ма	-8.75203
▁کے	-8.75694
▁tak	-8.75763
▁•	-8.75976
د	-8.75988
▁tra	-8.76158
án	-8.76268
▁Te	-8.76357
chi	-8.76376
▁we	-8.7645
30	-8.77225
।	-8.77291
▁mga	-8.77479
mer	-8.77724
▁vy	-8.77953
12	-8.7808
isi	-8.78146
lle	-8.78283
20	-8.78293
ic	-8.78569
nd	-8.78623
era	-8.78857
▁не	-8.78991
▁Ver	-8.79009
ди	-8.79206
å	-8.79207
ali	-8.7939
16	-8.79565
▁з	-8.79681
▁os	-8.79688
len	-8.79826
ser	-8.79868
▁that	-8.80299
▁Su	-8.80606
mar	-8.80659
і	-8.80875
od	-8.80893
▁untuk	-8.80901
bar	-8.81042
▁ب	-8.81192
▁was	-8.81195
و	-8.81401
▁ce	-8.81646
net	-8.81667
▁Je	-8.81767
▁ini	-8.82001
ting	-8.82106
▁2014	-8.82183
▁dengan	-8.82287
▁Con	-8.82328
▁Pro	-8.82332
up	-8.824
tik	-8.82404
kar	-8.8243
▁23	-8.82553
ere	-8.82856
▁în	-8.83038
les	-8.83126
aj	-8.83173
▁ro	-8.83304
▁Ke	-8.83317
ю	-8.83401
▁Pe	-8.83471
zu	-8.83672
ami	-8.83689
rá	-8.83898
ر	-8.84159
ika	-8.84171
▁So	-8.84245
des	-8.84331
ile	-8.84865
kon	-8.85017
ner	-8.85119
μ	-8.85173
tro	-8.85228
ción	-8.85864
ل	-8.86035
ron	-8.86042
▁are	-8.86048
ida	-8.86082
▁ser	-8.86164
son	-8.8627
ý	-8.86517
▁pas	-8.86669
▁hi	-8.86693
ap	-8.8711
▁r	-8.87166
dir	-8.8719
те	-8.8719
α	-8.87227
▁در	-8.87305
%	-8.87415
ster	-8.8743
ال	-8.87488
mp	-8.87547
ft	-8.87597
ко	-8.87703
14	-8.87916
▁min	-8.87998
س	-8.88435
न	-8.8844
▁ap	-8.88448
▁im	-8.88459
▁ju	-8.8848
ria	-8.88634
▁2013	-8.88868
▁her	-8.88871
▁کی	-8.88895
▁Ku	-8.88898
op	-8.88936
▁mai	-8.88975
eg	-8.8907
ista	-8.89327
ки	-8.89378
ál	-8.89379
las	-8.89412
lla	-8.89515
▁Ho	-8.89553
mm	-8.89705
ло	-8.89705
▁kwa	-8.89774
▁Ra	-8.8991
ра	-8.90042
ع	-8.90414
del	-8.90642
ը	-8.90668
▁Man	-8.90823
то	-8.90844
vu	-8.9087
11	-8.91112
uar	-8.91234
▁mit	-8.91261
▁pu	-8.91532
25	-8.91549
▁και	-8.91955
▁է	-8.92144
▁http	-8.92182
ion	-8.92377
▁är	-8.92505
ğ	-8.92552
▁ti	-8.92693
ara	-8.9282
▁ch	-8.92935
▁о	-8.92999
ag	-8.93049
▁со	-8.93079
13	-8.93079
▁Mi	-8.93083
С	-8.93212
lin	-8.93221
▁Bar	-8.93259
sz	-8.93277
▁2012	-8.93604
▁Home	-8.93653
aren	-8.93667
ні	-8.93811
ale	-8.93835
van	-8.94086
▁go	-8.94278
▁Du	-8.94356
ala	-8.94373
õ	-8.94675
▁pod	-8.94704
ية	-8.94955
▁الم	-8.95246
▁Mu	-8.95315
▁Wa	-8.95462
sel	-8.95475
от	-8.95537
ле	-8.95602
▁Er	-8.9566
▁Jo	-8.95687
ate	-8.95864
▁Za	-8.95888
ı	-8.96114
▁ל	-8.96321
ling	-8.96821
一	-8.96965
cz	-8.97074
org	-8.97081
▁во	-8.97123
▁до	-8.97126
ب	-8.97177
▁—	-8.97263
ib	-8.97531
▁over	-8.97675
▁Lo	-8.98028
az	-8.98239
lt	-8.98343
ર	-8.98382
▁aan	-8.98431
50	-8.98484
nes	-8.98504
▁А	-8.98524
sch	-8.9856
▁au	-8.98616
▁та	-8.98657
▁all	-8.98701
▁və	-8.98909
ske	-8.98997
▁من	-8.99017
র	-8.99075
af	-8.9916
▁amb	-8.9946
ում	-8.99548
▁Ni	-8.99763
ন	-8.99879
ná	-8.99981
ż	-9.00119
ları	-9.00368
ih	-9.00454
con	-9.00502
san	-9.00909
▁100	-9.00993
tin	-9.01117
ndo	-9.01325
▁Ri	-9.01458
▁sur	-9.01477
jen	-9.01613
▁fra	-9.01973
】【	-9.01993
ski	-9.02229
ку	-9.02376
ata	-9.02493
lig	-9.02635
Р	-9.02647
kt	-9.02809
uri	-9.02844
09	-9.02858
vis	-9.02905
cia	-9.03024
00	-9.03025
▁од	-9.03034
ong	-9.03043
ь	-9.03131
▁50	-9.03154
▁dat	-9.03277
▁mar	-9.03284
ici	-9.03358
▁oo	-9.03402
▁ت	-9.0353
ē	-9.03569
▁Car	-9.03587
dar	-9.03684
vin	-9.03705
ò	-9.03809
lı	-9.03814
▁online	-9.04032
▁Hotel	-9.04177
▁ze	-9.04262
ή	-9.04646
▁ci	-9.04772
nda	-9.04842
wo	-9.0485
▁ru	-9.05059
ри	-9.05237
ac	-9.0529
24	-9.05316
ה	-9.05547
▁your	-9.05589
ů	-9.05602
▁ny	-9.05688
ın	-9.05821
gy	-9.05824
ér	-9.05896
pen	-9.06212
ire	-9.06298
▁Bi	-9.06436
ان	-9.06481
▁from	-9.06545
ira	-9.06646
nar	-9.06686
▁به	-9.06833
▁са	-9.0689
end	-9.06976
fo	-9.07127
▁28	-9.07136
27	-9.07158
人	-9.07164
▁Tu	-9.07319
▁For	-9.0762
ο	-9.07675
大	-9.0768
nia	-9.07786
lat	-9.07821
able	-9.07842
ش	-9.08058
▁26	-9.08063
mos	-9.08095
ff	-9.08155
▁å	-9.08162
pan	-9.08312
이	-9.08335
▁gi	-9.08398
21	-9.08828
bra	-9.0889
▁Ki	-9.08924
▁mas	-9.09076
▁في	-9.09117
▁27	-9.09132
▁që	-9.09144
▁1.	-9.09183
ے	-9.09344
leri	-9.09389
▁ا	-9.09513
ار	-9.09535
▁میں	-9.09553
ल	-9.09694
▁it	-9.10024
ς	-9.10111
▁Fa	-9.10151
▁zu	-9.10174
ль	-9.10177
лі	-9.10383
ais	-9.10394
nde	-9.10502
▁ل	-9.10511
▁los	-9.10549
▁ji	-9.10644
▁pag	-9.10718
lah	-9.10948
ati	-9.10955
▁$	-9.11005
xi	-9.11019
▁ut	-9.11052
ep	-9.11144
▁Ti	-9.11305
ende	-9.11345
fer	-9.11681
▁tr	-9.11775
▁от	-9.11806
ure	-9.1199
▁ein	-9.11996
ü	-9.12136
ila	-9.12141
pu	-9.12194
ec	-9.12336
▁а	-9.12368
vel	-9.12403
▁He	-9.12636
uje	-9.12718
の	-9.12809
met	-9.12969
лар	-9.13312
gel	-9.13369
▁një	-9.1337
rik	-9.13558
ро	-9.13978
æ	-9.13991
nik	-9.14087
ά	-9.14133
ura	-9.1415
▁Men	-9.14152
▁We	-9.14168
mes	-9.14202
23	-9.14203
una	-9.14214
▁dos	-9.14238
29	-9.14381
▁uz	-9.14412
kom	-9.14417
▁2011	-9.14532
▁så	-9.14543
▁Un	-9.14738
iti	-9.14873
07	-9.14915
ј	-9.14931
▁е	-9.14986
чи	-9.15174
र	-9.15247
tä	-9.15323
for	-9.15413
▁fe	-9.15462
ob	-9.15469
26	-9.15518
22	-9.15824
br	-9.15844
ў	-9.15879
▁vo	-9.15927
ona	-9.15973
▁09	-9.15977
▁Die	-9.16056
▁von	-9.16086
ið	-9.1617
ino	-9.16271
▁pra	-9.16483
ón	-9.16522
ви	-9.16574
▁till	-9.16716
▁pie	-9.1676
▁ad	-9.16949
▁Go	-9.17156
▁О	-9.17212
lang	-9.17366
▁29	-9.17408
▁ei	-9.17469
ق	-9.17491
▁ن	-9.17535
fu	-9.17608
ν	-9.17731
▁post	-9.17849
par	-9.18129
ně	-9.18162
▁este	-9.18261
▁08	-9.18395
28	-9.18516
iga	-9.18528
▁sp	-9.18546
น	-9.18577
har	-9.18649
ô	-9.1895
▁my	-9.18954
ný	-9.19022
imi	-9.19237
▁das	-9.195
▁Pre	-9.19501
▁У	-9.19559
bre	-9.19631
ру	-9.19657
ő	-9.19743
bor	-9.19757
▁kar	-9.19761
ст	-9.19765
▁Ca	-9.19795
qui	-9.1983
rat	-9.199
▁ou	-9.19978
nin	-9.20013
де	-9.20061
▁Ber	-9.20142
▁St	-9.20153
ão	-9.2016
▁this	-9.20176
▁pen	-9.20228
▁Ve	-9.2024
ay	-9.20362
▁že	-9.20375
yan	-9.2039
ен	-9.20661
05	-9.2078
▁про	-9.2081
ise	-9.20869
ին	-9.20909
ex	-9.20965
cy	-9.21103
:00	-9.21107
ast	-9.21107
ი	-9.21152
ub	-9.21159
▁Lu	-9.21233
在	-9.21238
▁<	-9.21249
不	-9.21288
▁%	-9.2143
pro	-9.21454
Ma	-9.21552
iya	-9.21733
ian	-9.21798
▁th	-9.21802
my	-9.21969
▁dari	-9.22171
त	-9.22324
hr	-9.22342
▁mat	-9.22473
shi	-9.22534
sko	-9.22589
▁Ga	-9.2262
të	-9.22796
”,	-9.22959
▁non	-9.23035
dor	-9.23085
▁As	-9.23094
▁cho	-9.23158
ras	-9.23249
ama	-9.23393
▁tre	-9.23395
▁have	-9.23605
08	-9.23607
ity	-9.23635
▁como	-9.23673
ela	-9.23746
jar	-9.2386
",	-9.23885
uta	-9.23917
▁gu	-9.24043
ł	-9.2405
▁bat	-9.24116
▁pour	-9.2413
°	-9.24165
01	-9.24289
▁Q	-9.24302
▁bil	-9.24304
ول	-9.24316
ção	-9.24431
ns	-9.24753
▁not	-9.24858
ən	-9.24984
tos	-9.25096
ды	-9.25241
mon	-9.25266
▁Es	-9.25313
rin	-9.255
="	-9.25568
за	-9.25591
ს	-9.25615
是	-9.25632
ši	-9.25789
ys	-9.25834
ė	-9.25906
▁sta	-9.25949
η	-9.26122
din	-9.26144
bet	-9.2616
▁το	-9.26164
▁kr	-9.26166
ны	-9.26255
át	-9.26404
mit	-9.26475
ι	-9.26552
ми	-9.26555
age	-9.26581
iko	-9.26743
он	-9.26766
ف	-9.26803
▁Det	-9.26816
elle	-9.26826
ون	-9.26831
▁car	-9.26879
▁San	-9.2693
ero	-9.26979
▁han	-9.26987
ego	-9.27129
ար	-9.27229
zen	-9.27351
▁đ	-9.27394
ard	-9.27457
▁при	-9.27524
▁sy	-9.27636
ów	-9.27636
mat	-9.27656
▁·	-9.27726
*	-9.27764
ör	-9.27848
ide	-9.27991
dag	-9.28097
▁alle	-9.28289
ور	-9.28463
▁31	-9.28509
red	-9.28545
ک	-9.28625
dd	-9.28651
▁К	-9.28719
90	-9.28813
tek	-9.2883
rt	-9.28934
ите	-9.29019
ito	-9.29142
oj	-9.29202
▁40	-9.29282
45	-9.29354
▁meg	-9.29375
ರ	-9.29418
mal	-9.29465
sion	-9.29483
and	-9.29513
use	-9.29638
ु	-9.29661
ën	-9.29806
cie	-9.29815
▁(1)	-9.29859
▁Ang	-9.29896
kel	-9.29974
ps	-9.30157
▁hu	-9.30417
het	-9.30418
▁wy	-9.3043
wer	-9.30485
ό	-9.30508
nis	-9.30524
▁video	-9.30657
port	-9.30888
ов	-9.31009
də	-9.31075
if	-9.31104
ა	-9.31224
▁wat	-9.31304
40	-9.31358
ат	-9.31372
imo	-9.31523
نا	-9.31534
ene	-9.31545
▁کا	-9.31583
das	-9.31693
és	-9.31695
▁bet	-9.31792
ц	-9.31796
▁plan	-9.31819
▁sal	-9.31849
asa	-9.31974
ส	-9.31984
31	-9.32058
dal	-9.3206
ció	-9.32156
ան	-9.32247
ים	-9.32275
▁film	-9.32323
▁Gu	-9.32516
▁dalam	-9.32559
lé	-9.32755
one	-9.328
ori	-9.32836
▁из	-9.32861
tter	-9.32948
▁Hu	-9.33128
有	-9.33191
中	-9.33201
ם	-9.33211
ros	-9.33241
▁sam	-9.33335
▁will	-9.33492
ola	-9.33655
ces	-9.33706
06	-9.33804
▁Т	-9.33822
▁Ch	-9.33864
tie	-9.33887
car	-9.33951
ef	-9.34129
▁vir	-9.34147
▁του	-9.34155
ند	-9.34212
▁أ	-9.34325
▁cm	-9.34414
▁On	-9.34484
@	-9.34518
ਰ	-9.34559
dos	-9.34579
年	-9.34736
03	-9.34742
▁qui	-9.34748
▁và	-9.34757
▁2010	-9.34764
bel	-9.34793
60	-9.34829
ên	-9.34881
▁07	-9.35306
ದ	-9.35333
▁się	-9.35422
ega	-9.35457
▁Il	-9.35505
ante	-9.35572
ld	-9.35634
nak	-9.35652
sin	-9.35679
▁Pi	-9.35795
ين	-9.35801
kor	-9.35847
▁ist	-9.35854
▁https	-9.35969
▁mag	-9.36043
pl	-9.3605
了	-9.3616
ça	-9.36188
▁DE	-9.36199
зи	-9.36401
ár	-9.36422
▁і	-9.36491
ima	-9.36524
lay	-9.3653
04	-9.36556
ар	-9.36731
▁bar	-9.36795
mb	-9.36873
[	-9.36901
▁sin	-9.36961
ix	-9.37018
96	-9.3715
eri	-9.37158
▁Gi	-9.37201
ket	-9.3724
▁کو	-9.37277
či	-9.3733
क	-9.37381
▁bal	-9.37476
ել	-9.37484
ø	-9.37497
▁к	-9.37515
$	-9.37659
ring	-9.37738
▁st	-9.37759
▁ez	-9.37766
kat	-9.37842
▁mal	-9.3788
rang	-9.37958
vol	-9.37976
än	-9.38046
▁dit	-9.38086
isa	-9.38092
▁של	-9.38113
▁Dr	-9.38337
▁els	-9.38399
yn	-9.38531
▁tur	-9.3858
▁ש	-9.38616
▁=	-9.38639
▁cha	-9.38643
tzen	-9.38646
▁Ci	-9.38646
ö	-9.38673
▁PM	-9.38675
tat	-9.38755
cer	-9.38766
ip	-9.38804
қ	-9.38816
ille	-9.38838
си	-9.38895
35	-9.39042
ves	-9.39106
▁*	-9.39107
▁kur	-9.39109
ты	-9.39152
ore	-9.39177
▁kom	-9.39202
▁më	-9.39325
▁į	-9.39569
▁nem	-9.39578
ба	-9.39618
의	-9.39631
▁پر	-9.39702
99	-9.39729
lari	-9.39773
▁care	-9.39816
İ	-9.39817
http	-9.39823
▁01	-9.39889
▁Par	-9.39954
са	-9.39994
▁Her	-9.4003
▁па	-9.40179
vy	-9.40245
sia	-9.403
cho	-9.40332
wy	-9.40349
▁für	-9.40414
▁tal	-9.40475
▁pada	-9.40479
mba	-9.40573
▁est	-9.40763
bil	-9.40855
▁Š	-9.40944
lim	-9.41004
▁Is	-9.41063
ens	-9.41161
▁mer	-9.41379
48	-9.41522
ం	-9.41693
▁Ju	-9.41776
▁ten	-9.41869
000	-9.41963
▁Tra	-9.41971
ě	-9.41975
▁Б	-9.42036
ua	-9.42095
▁Va	-9.42113
inn	-9.42154
स	-9.42191
ת	-9.4226
ز	-9.42265
og	-9.42272
▁Or	-9.42347
bl	-9.42355
κ	-9.42369
”.	-9.42409
ប	-9.42506
ell	-9.42517
ې	-9.42596
▁kun	-9.42695
log	-9.42731
kas	-9.42764
32	-9.42788
▁Nu	-9.42842
ación	-9.42842
jem	-9.42862
ram	-9.42893
▁Ru	-9.42955
ъ	-9.43013
▁Th	-9.43052
iem	-9.43076
cc	-9.43119
▁ab	-9.43142
▁uit	-9.4321
▁è	-9.43224
ня	-9.43246
ei	-9.4325
hat	-9.43269
sto	-9.43276
36	-9.43342
▁up	-9.43389
า	-9.43546
mente	-9.43598
US	-9.43636
89	-9.43794
vat	-9.43849
ча	-9.43956
én	-9.44143
ør	-9.4415
▁2.	-9.44273
▁has	-9.4436
ano	-9.44434
▁auto	-9.4445
gt	-9.44465
ата	-9.44514
93	-9.44516
lor	-9.4452
▁با	-9.44617
▁از	-9.44668
39	-9.44687
95	-9.44715
ר	-9.44805
line	-9.44854
49	-9.44934
▁son	-9.44965
rit	-9.45003
म	-9.45042
▁ikke	-9.45076
ң	-9.45132
bal	-9.45206
ව	-9.45207
tte	-9.45208
bb	-9.45275
▁Kon	-9.45289
sha	-9.45383
pat	-9.45406
ás	-9.45483
ül	-9.45512
bat	-9.45548
kur	-9.45553
че	-9.45564
ön	-9.45584
▁có	-9.45596
0%	-9.45649
▁kor	-9.45654
▁zo	-9.45663
illa	-9.45672
zer	-9.45722
خ	-9.45984
▁dia	-9.46037
▁pentru	-9.46045
го	-9.46117
▁val	-9.46117
gin	-9.46165
gg	-9.46183
дан	-9.46219
wan	-9.46249
եր	-9.46308
▁На	-9.46375
lä	-9.46379
ก	-9.46383
iki	-9.46437
▁qu	-9.4658
▁ў	-9.46607
▁06	-9.46659
ente	-9.46732
vad	-9.46978
ул	-9.47043
▁Fi	-9.47093
ну	-9.47108
ม	-9.47163
मा	-9.47392
ish	-9.47602
gra	-9.47602
rea	-9.48015
מ	-9.48016
▁Online	-9.48055
ato	-9.48063
ani	-9.48138
led	-9.48153
lie	-9.48347
ര	-9.48554
ties	-9.48586
ës	-9.48604
ret	-9.48622
▁να	-9.48726
91	-9.48737
tura	-9.48747
▁iš	-9.48806
ল	-9.48812
을	-9.48867
во	-9.48923
▁als	-9.4893
▁ah	-9.48942
té	-9.49016
▁News	-9.49044
uma	-9.49247
02	-9.49393
100	-9.49398
aya	-9.49486
▁Com	-9.49497
ło	-9.49505
ert	-9.4953
ice	-9.49656
uz	-9.49767
▁Д	-9.4989
ble	-9.499
lər	-9.49909
ля	-9.50002
▁В	-9.50092
art	-9.50105
▁ма	-9.5015
χ	-9.50159
▁tro	-9.50218
▁vol	-9.50236
▁آ	-9.50259
38	-9.50344
nos	-9.50446
▁hal	-9.50466
▁Hi	-9.50467
tet	-9.50553
▁itu	-9.50656
oni	-9.50668
▁sz	-9.50673
ย	-9.50705
get	-9.5072
nek	-9.50815
ər	-9.50974
ica	-9.5103
▁ex	-9.51085
sten	-9.5109
vor	-9.51099
мо	-9.51107
اب	-9.51116
jan	-9.5113
▁ع	-9.51182
92	-9.51184
ست	-9.51246
rà	-9.51355
▁mis	-9.51364
▁við	-9.51367
vas	-9.51524
▁pat	-9.51626
ime	-9.51654
und	-9.51664
万	-9.51745
▁eller	-9.51765
tri	-9.51875
ś	-9.5191
▁ف	-9.51987
atu	-9.52038
94	-9.52046
ү	-9.52047
stra	-9.52051
zione	-9.52076
ži	-9.52202
网	-9.52214
ض	-9.52236
ล	-9.52283
▁kas	-9.52308
▁tot	-9.52424
▁akan	-9.5244
▁program	-9.52518
nen	-9.52547
34	-9.52551
:30	-9.5269
Re	-9.52718
ր	-9.52743
▁mais	-9.52825
uh	-9.52895
▁At	-9.52912
▁tan	-9.52976
▁AM	-9.52989
dra	-9.53074
▁Pu	-9.53088
▁pla	-9.5315
ct	-9.53273
\	-9.53281
ich	-9.53299
อ	-9.53323
لی	-9.53343
ф	-9.53352
ului	-9.53357
▁tidak	-9.53457
83	-9.53488
tr	-9.53498
▁sk	-9.5358
γ	-9.53587
▁fel	-9.5362
۔	-9.5369
▁New	-9.53735
▁las	-9.53884
ει	-9.54031
▁{	-9.54038
▁chi	-9.54043
42	-9.54059
▁May	-9.54069
set	-9.54128
kal	-9.54147
ها	-9.5415
ք	-9.54169
▁60	-9.54192
por	-9.54199
▁Den	-9.54203
▁για	-9.54207
▁yo	-9.54235
ил	-9.54246
98	-9.54249
ava	-9.54331
▁Dan	-9.54421
ier	-9.54452
▁2009	-9.54483
tis	-9.54593
▁është	-9.54598
ме	-9.5476
▁می	-9.54859
新	-9.54861
`	-9.54867
▁lang	-9.54884
".	-9.54912
▁?	-9.54952
dre	-9.5497
▁zijn	-9.55003
47	-9.55039
ակ	-9.55042
▁με	-9.55062
ค	-9.55108
кі	-9.55123
lə	-9.55164
ു	-9.55209
▁kl	-9.55248
65	-9.55303
▁ба	-9.55319
▁М	-9.55374
▁Am	-9.55381
▁της	-9.55406
ის	-9.55445
บ	-9.55452
ом	-9.55471
▁02	-9.55516
är	-9.55523
▁dar	-9.55568
33	-9.55616
ក	-9.55667
▁Ab	-9.55713
▁juga	-9.55826
▁tar	-9.55871
ן	-9.5594
int	-9.55949
▁ker	-9.55995
▁comp	-9.56054
θ	-9.56084
ական	-9.56134
kk	-9.56153
▁inter	-9.56177
her	-9.56202
hl	-9.56215
ře	-9.56268
97	-9.56274
▁اور	-9.56388
י	-9.56454
ে	-9.56483
ре	-9.56503
pre	-9.56504
hen	-9.56537
는	-9.56582
А	-9.56603
▁И	-9.56628
▁05	-9.56632
gal	-9.5664
▁1,	-9.56846
ω	-9.57032
cht	-9.57086
▁nos	-9.5725
▁την	-9.57287
ту	-9.57308
ć	-9.5731
OS	-9.57353
▁Ter	-9.57368
In	-9.57407
▁sex	-9.57475
▁سے	-9.57626
▁ح	-9.57685
ג	-9.57921
▁س	-9.57941
▁uma	-9.57984
У	-9.58011
▁mm	-9.58066
lum	-9.58078
▁sen	-9.58128
vá	-9.58134
73	-9.58151
▁sobre	-9.58173
▁out	-9.58187
▁από	-9.58294
▁Az	-9.58454
ër	-9.58488
ры	-9.58557
ия	-9.58628
М	-9.58642
▁Fe	-9.58647
▁Post	-9.58666
cal	-9.58733
ци	-9.58769
ам	-9.58838
▁Val	-9.58937
日	-9.58982
tta	-9.59071
lis	-9.59107
▁Sch	-9.59242
https	-9.59279
ân	-9.59319
ando	-9.59326
▁ste	-9.59464
75	-9.59543
▁Đ	-9.59599
▁Ya	-9.59666
mis	-9.59683
▁By	-9.59698
上	-9.59808
ies	-9.59831
▁Har	-9.59881
aga	-9.59963
▁Pra	-9.59987
▁của	-9.59994
▁dé	-9.60049
К	-9.60049
ర్	-9.60087
€	-9.601
▁roz	-9.60193
fin	-9.60217
64	-9.60226
kov	-9.603
gun	-9.6033
qu	-9.60337
vid	-9.60446
OR	-9.605
46	-9.60528
80	-9.60542
ше	-9.60559
82	-9.60613
ord	-9.60641
ं	-9.60812
ว	-9.60919
ем	-9.61028
▁egy	-9.61057
▁ee	-9.61063
▁ak	-9.61074
和	-9.61083
▁entre	-9.61112
los	-9.61129
को	-9.61146
81	-9.61298
▁fu	-9.61317
lon	-9.6135
▁Cu	-9.61393
▁ben	-9.61554
▁auf	-9.61554
ё	-9.61568
▁vil	-9.61569
ות	-9.61683
▁hor	-9.61709
zy	-9.61729
ür	-9.61774
70	-9.61947
▁už	-9.62021
ام	-9.62029
тар	-9.62088
▁π	-9.6212
pt	-9.62139
र्	-9.62166
▁tri	-9.62168
▁א	-9.62175
ris	-9.62189
ح	-9.62199
tir	-9.62272
dig	-9.62282
AN	-9.62311
▁www	-9.62371
▁03	-9.62378
59	-9.62392
▁ва	-9.626
ham	-9.62694
nder	-9.62753
vé	-9.62756
ס	-9.62791
▁Kar	-9.62828
ance	-9.62849
ρ	-9.62853
all	-9.62867
rd	-9.62939
88	-9.62956
ى	-9.62992
dro	-9.63032
ator	-9.63038
▁sol	-9.63127
▁Ce	-9.63133
pp	-9.63235
▁Pen	-9.63252
▁esta	-9.63304
▁qa	-9.63317
ین	-9.63363
би	-9.63373
▁kal	-9.63411
െ	-9.63477
وں	-9.63519
eb	-9.63535
▁об	-9.63591
ө	-9.6366
ła	-9.63759
uf	-9.63767
▁ol	-9.63813
via	-9.63932
ement	-9.63983
angan	-9.64011
φ	-9.64152
ය	-9.64171
უ	-9.64171
zar	-9.64251
ර	-9.64252
ವ	-9.64281
ал	-9.64365
rum	-9.64417
▁Can	-9.64494
▁ná	-9.64517
сти	-9.64564
pis	-9.64622
hy	-9.64624
▁della	-9.64674
ť	-9.64708
▁iyo	-9.64718
▁more	-9.64724
ке	-9.64735
cio	-9.64755
iste	-9.64812
ley	-9.64865
dia	-9.64874
leg	-9.64964
▁hotel	-9.65007
▁Chi	-9.65054
inen	-9.65063
▁All	-9.65074
stu	-9.65146
the	-9.65156
▁pres	-9.65195
41	-9.6528
▁ale	-9.65333
▁may	-9.65393
Б	-9.6545
ction	-9.65494
▁má	-9.65551
▁Gra	-9.65558
ط	-9.65605
▁uu	-9.65613
រ	-9.65632
▁upp	-9.6568
ա	-9.65732
ding	-9.65753
▁اس	-9.65772
▁Sie	-9.65854
▁vis	-9.65872
▁une	-9.65882
▁@	-9.65944
of	-9.66015
▁kad	-9.66023
rí	-9.6614
že	-9.66167
▁3.	-9.66199
rah	-9.66229
▁П	-9.66229
τ	-9.66264
ган	-9.66308
ora	-9.66394
EL	-9.66444
mak	-9.6649
▁ook	-9.66761
▁پ	-9.66765
ве	-9.66787
▁under	-9.66805
▁Ac	-9.66847
▁Ak	-9.66859
ví	-9.66871
bri	-9.66946
58	-9.66959
54	-9.67022
can	-9.67032
ige	-9.67035
pon	-9.6715
иш	-9.67186
ev	-9.67195
ssa	-9.67298
گ	-9.67382
▁fin	-9.67384
usi	-9.67586
ร	-9.67591
43	-9.67616
ج	-9.67631
ذ	-9.67636
ਲ	-9.6764
▁dans	-9.67693
▁mes	-9.67746
▁İ	-9.67915
▁Sta	-9.6813
에	-9.68144
AL	-9.68158
sse	-9.6818
▁bij	-9.68213
▁را	-9.68311
▁vai	-9.68385
▁Cor	-9.68393
cher	-9.68616
ત	-9.68653
Д	-9.68738
ms	-9.68783
اد	-9.68825
nas	-9.68906
37	-9.68983
▁fo	-9.68984
اء	-9.68992
qa	-9.69055
ե	-9.69061
57	-9.69084
num	-9.69158
▁și	-9.69226
ո	-9.69328
yr	-9.69331
▁pos	-9.69336
lama	-9.69378
▁pot	-9.6939
ો	-9.6939
▁mil	-9.69426
gang	-9.69456
cs	-9.69633
86	-9.69652
▁cre	-9.69691
ਨ	-9.69719
ther	-9.69732
▁oli	-9.69785
av	-9.69815
▁По	-9.69843
ले	-9.69847
ύ	-9.69896
տ	-9.69974
▁Air	-9.70273
υ	-9.7031
▁ו	-9.70322
▁→	-9.70335
mbo	-9.70357
▁Sam	-9.70385
▁04	-9.70407
uni	-9.70417
ర	-9.70436
tud	-9.70485
ോ	-9.70537
▁time	-9.70553
ted	-9.70587
nom	-9.70635
▁naj	-9.70663
če	-9.70679
▁foto	-9.70694
ಯ	-9.7078
▁کر	-9.70829
war	-9.70844
▁internet	-9.70926
ב	-9.71191
55	-9.71219
▁то	-9.71229
iv	-9.71271
adi	-9.71314
eta	-9.71345
ico	-9.71404
▁dag	-9.71468
â	-9.71537
မ	-9.71591
▁ش	-9.71643
ug	-9.71654
им	-9.71654
Т	-9.71717
63	-9.71729
市	-9.71785
▁је	-9.71909
vil	-9.71909
β	-9.71996
në	-9.72043
ง	-9.72096
nh	-9.72167
ാ	-9.72171
ー	-9.72174
ró	-9.72212
lak	-9.72286
ের	-9.7231
44	-9.72325
ги	-9.72367
▁için	-9.72381
53	-9.72477
▁là	-9.72566
itu	-9.7264
▁dem	-9.72664
▁pr	-9.72666
сто	-9.72685
ด	-9.72707
▁Ben	-9.72721
▁Para	-9.72768
nih	-9.72827
69	-9.72883
La	-9.72923
85	-9.72929
dik	-9.7294
ин	-9.7295
▁су	-9.73009
▁Posted	-9.73025
▁š	-9.73031
lit	-9.73064
ија	-9.73169
mə	-9.73175
79	-9.73292
ని	-9.73333
iri	-9.73367
pas	-9.73377
મ	-9.73383
▁Cha	-9.73398
тер	-9.73418
ски	-9.73465
▁seg	-9.73608
▁inte	-9.73619
gon	-9.73636
ий	-9.73643
61	-9.73666
title	-9.73747
stro	-9.73758
ো	-9.73777
ер	-9.7378
nov	-9.73904
ust	-9.73905
gre	-9.74032
stan	-9.74036
gas	-9.74078
lov	-9.74163
▁kita	-9.74206
▁dis	-9.74238
▁seu	-9.74251
ન	-9.74272
ত	-9.74348
▁Video	-9.74364
dur	-9.74368
68	-9.7443
▁far	-9.74436
യ	-9.74467
ings	-9.74472
ге	-9.7454
2019	-9.7462
▁ج	-9.7464
87	-9.7467
ε	-9.74671
ના	-9.74715
▁Fo	-9.74727
ksi	-9.7481
mine	-9.74882
▁את	-9.74895
ల	-9.74896
","	-9.75039
51	-9.75041
ক	-9.75071
nej	-9.75073
▁bei	-9.75088
74	-9.75109
nte	-9.75117
ados	-9.7512
xa	-9.75125
lá	-9.75144
И	-9.75197
▁hy	-9.75229
▁með	-9.75289
iden	-9.75296
ет	-9.75306
▁Pri	-9.75335
▁نے	-9.75364
▁tai	-9.75379
ша	-9.75407
א	-9.75443
ով	-9.75484
į	-9.75489
고	-9.75545
ort	-9.75592
zin	-9.75618
IN	-9.75666
े	-9.75684
ssen	-9.75733
▁Pas	-9.75743
kun	-9.75752
cm	-9.75788
ល	-9.75833
72	-9.75877
О	-9.75885
▁Os	-9.75886
kla	-9.75899
▁web	-9.75905
tus	-9.75909
▁ме	-9.75949
–	-9.75985
▁Av	-9.76081
ym	-9.76226
غ	-9.7623
dır	-9.7624
oli	-9.76245
▁ved	-9.76259
พ	-9.76268
berg	-9.76282
▁Kan	-9.76301
出	-9.76302
▁vý	-9.76318
ك	-9.76355
▁kat	-9.76393
▁Mon	-9.76395
▁Por	-9.76404
ans	-9.76484
84	-9.76562
ම	-9.76599
כ	-9.76601
ute	-9.76615
56	-9.76634
vet	-9.76717
▁parte	-9.76721
sam	-9.76726
▁200	-9.76808
▁Vo	-9.76819
king	-9.76901
usta	-9.76916
ан	-9.76922
се	-9.77018
ká	-9.77022
ів	-9.77134
▁forma	-9.77198
iza	-9.77229
-2	-9.7725
ação	-9.7727
hin	-9.7727
▁де	-9.77324
来	-9.77386
encia	-9.77417
▁ph	-9.7742
jet	-9.7742
до	-9.77478
ín	-9.77497
▁80	-9.77541
lag	-9.77545
▁Der	-9.77564
ית	-9.77565
TA	-9.77583
▁Sal	-9.77613
2,	-9.77615
▁ac	-9.77638
ọ	-9.77671
ць	-9.77762
▁nuk	-9.77779
zio	-9.77795
ា	-9.77844
λ	-9.77855
chen	-9.7788
ට	-9.77905
ур	-9.77937
▁Ad	-9.77979
ella	-9.78002
ette	-9.78019
Г	-9.78046
▁Ex	-9.78085
▁mem	-9.78108
▁şi	-9.7815
لا	-9.78168
ید	-9.78177
ста	-9.78208
แ	-9.78263
sp	-9.7829
66	-9.78319
▁Wi	-9.78337
▁hogy	-9.78352
ટ	-9.78404
·	-9.78409
gur	-9.7846
lam	-9.78483
व	-9.78551
▁War	-9.78558
une	-9.7858
ല	-9.78615
▁وال	-9.78619
rar	-9.78625
62	-9.78637
▁}	-9.78643
sar	-9.78665
▁TV	-9.78703
▁Bal	-9.78711
php	-9.78755
ike	-9.78757
▁sub	-9.78772
▁aj	-9.78792
ade	-9.78858
raz	-9.78877
hod	-9.78926
xe	-9.78975
rak	-9.78994
द	-9.7904
ence	-9.79059
szt	-9.79074
2018	-9.79075
ор	-9.79082
▁Jan	-9.79094
َ	-9.7913
▁best	-9.79184
bit	-9.79277
mor	-9.79282
lí	-9.79294
ət	-9.7935
▁pred	-9.79365
tori	-9.79396
IS	-9.7943
▁katika	-9.79439
▁կ	-9.79477
▁بر	-9.79537
▁м	-9.79595
ple	-9.796
▁but	-9.79605
П	-9.79672
▁It	-9.79681
▁అ	-9.797
▁baş	-9.7971
다	-9.79748
lega	-9.79767
ट	-9.7981
▁است	-9.79842
thi	-9.79895
way	-9.79939
lia	-9.80025
ٹ	-9.80042
▁او	-9.80128
▁2008	-9.80138
μα	-9.80227
▁Ob	-9.8023
ी	-9.80238
rov	-9.80262
▁ada	-9.80286
▁Г	-9.8032
til	-9.8037
cí	-9.80483
▁j	-9.80509
ស	-9.80513
▁եւ	-9.80588
▁alla	-9.80608
ló	-9.80634
ел	-9.80669
▁Ка	-9.80694
ص	-9.80697
ә	-9.80703
pel	-9.80749
▁х	-9.80767
▁ska	-9.80804
▁soo	-9.80807
Pa	-9.80809
▁jeg	-9.80921
ט	-9.80959
会	-9.81011
dien	-9.81068
▁д	-9.81197
▁Gar	-9.81208
▁come	-9.8122
ম	-9.81225
▁don	-9.81295
mail	-9.81449
ा	-9.81462
▁pan	-9.81476
▁zi	-9.81497
ño	-9.815
iva	-9.81509
스	-9.81515
dom	-9.81542
്	-9.81558
fr	-9.8156
▁agus	-9.81589
پ	-9.81598
idade	-9.81619
▁jag	-9.81665
▁Qu	-9.81679
▁500	-9.8168
▁ré	-9.81781
tak	-9.81838
GA	-9.81908
▁Α	-9.81908
▁Van	-9.81932
▁reg	-9.81944
▁My	-9.81997
▁să	-9.82008
ht	-9.82079
▁our	-9.82239
▁bra	-9.82241
anda	-9.82268
▁sig	-9.82268
tum	-9.82443
ҳ	-9.82449
ien	-9.82459
vent	-9.82506
ija	-9.82527
▁ان	-9.82541
▁му	-9.82579
ਤ	-9.82582
awa	-9.82587
▁Ма	-9.82589
▁air	-9.82599
▁col	-9.826
tag	-9.82614
▁sau	-9.82626
▁Ser	-9.82639
ო	-9.8264
ו	-9.82715
76	-9.82718
sie	-9.82733
ей	-9.82768
ré	-9.82875
▁жа	-9.82881
yon	-9.82941
ete	-9.8298
ска	-9.82994
cul	-9.83028
▁blog	-9.83031
far	-9.83032
lic	-9.83103
▁war	-9.83107
▁ao	-9.83144
cat	-9.83225
71	-9.8326
▁cor	-9.83289
lek	-9.83291
का	-9.83309
に	-9.8331
apa	-9.83323
mel	-9.83332
ու	-9.83451
მ	-9.83474
▁anda	-9.83505
жа	-9.83544
put	-9.83566
eli	-9.83567
▁Tur	-9.836
▁э	-9.83638
ક	-9.83677
inta	-9.83679
▁Tr	-9.83733
ын	-9.83751
▁gra	-9.83762
▁За	-9.83772
▁meng	-9.83804
tele	-9.83838
▁Des	-9.8385
্	-9.83922
ই	-9.84
▁अ	-9.84009
tul	-9.84032
nan	-9.84125
û	-9.8415
▁пре	-9.84159
اس	-9.84364
▁Π	-9.84379
ór	-9.84394
form	-9.84428
sal	-9.84442
가	-9.84527
);	-9.84533
ové	-9.84555
▁ہے	-9.84701
▁gel	-9.84726
▁Ş	-9.84784
enda	-9.84821
ува	-9.84869
▁tem	-9.84879
▁Е	-9.84901
ctor	-9.84933
bol	-9.84977
ering	-9.84982
ев	-9.84984
este	-9.85001
500	-9.85057
tó	-9.85076
ins	-9.85082
77	-9.85085
jas	-9.85097
tí	-9.85174
▁په	-9.85175
ido	-9.85198
▁kap	-9.85209
▁door	-9.85278
ח	-9.85282
ా	-9.85307
▁Pol	-9.85313
▁This	-9.85333
▁раз	-9.85334
ša	-9.85352
到	-9.85386
lip	-9.85398
▁br	-9.85399
ador	-9.85429
▁আ	-9.85438
▁top	-9.85477
家	-9.85481
▁raz	-9.85516
▁zá	-9.85541
▁Les	-9.85616
ges	-9.85625
▁You	-9.8563
yd	-9.85665
ου	-9.85714
nal	-9.8576
▁ud	-9.8583
lap	-9.85875
tti	-9.85884
html	-9.85906
ที่	-9.85948
ម	-9.85967
▁90	-9.85983
лу	-9.86016
▁خ	-9.8605
න	-9.86053
data	-9.86086
▁Op	-9.86115
aan	-9.86135
લ	-9.86147
高	-9.86208
jpg	-9.8624
▁cap	-9.86259
tic	-9.86273
52	-9.86279
rod	-9.86316
ต	-9.86336
pla	-9.86439
ās	-9.86461
▁Mal	-9.86495
月	-9.86524
▁Auto	-9.86562
uka	-9.86607
jer	-9.86617
tá	-9.86708
etan	-9.86711
գ	-9.86735
▁Sp	-9.86769
ний	-9.8677
▁bez	-9.86773
pun	-9.86792
▁ali	-9.86795
ți	-9.8695
67	-9.8698
mme	-9.86981
▁Um	-9.87011
dz	-9.87023
▁jak	-9.87034
olo	-9.87064
ಾ	-9.87066
▁beste	-9.8708
▁این	-9.87087
жи	-9.87147
▁го	-9.8715
▁Ε	-9.87162
▁jest	-9.87181
ía	-9.87224
▁các	-9.87225
▁ви	-9.87235
rë	-9.87298
Se	-9.87315
▁atau	-9.87318
▁kaj	-9.87331
▁के	-9.87339
ır	-9.87343
ရ	-9.87389
issa	-9.87437
ம்	-9.8745
▁kuwa	-9.87454
▁pun	-9.87494
▁gan	-9.87509
▁û	-9.87576
78	-9.87629
ight	-9.87639
nic	-9.87651
▁Ç	-9.87669
це	-9.87694
▁wo	-9.87762
ು	-9.87763
ೇ	-9.87792
ların	-9.87938
ls	-9.87957
mento	-9.87988
ét	-9.87999
app	-9.88003
ES	-9.88083
▁70	-9.88095
bas	-9.88146
LO	-9.88167
ری	-9.88169
თ	-9.88174
▁parti	-9.88195
▁Ph	-9.88207
hor	-9.88228
pos	-9.88234
▁ayaa	-9.88256
▁qo	-9.88317
tions	-9.88372
▁Σ	-9.88515
dri	-9.88543
▁gre	-9.88614
小	-9.88655
স	-9.88678
ца	-9.8878
wal	-9.88789
ға	-9.88876
asta	-9.88909
ụ	-9.88912
aha	-9.88923
▁bisa	-9.88923
öl	-9.88943
▁Top	-9.88945
ON	-9.88948
▁35	-9.89004
yi	-9.89029
వ	-9.89062
לי	-9.89074
որ	-9.89184
ün	-9.89208
▁niet	-9.89312
▁და	-9.89317
▁model	-9.89327
▁ett	-9.89362
ೆ	-9.8937
zon	-9.89377
▁(1	-9.89403
▁ako	-9.89418
imin	-9.89426
▁Em	-9.89444
▁tek	-9.89473
ahan	-9.89497
▁gy	-9.89512
vers	-9.89575
▁המ	-9.89583
▁gen	-9.89619
isti	-9.89646
기	-9.89677
Н	-9.89739
▁més	-9.89841
ја	-9.89843
▁365	-9.89882
ων	-9.89921
вер	-9.89957
hal	-9.89985
kle	-9.90036
▁г	-9.90039
▁sha	-9.90071
▁sh	-9.90222
▁pm	-9.90246
TI	-9.90258
વા	-9.90309
ová	-9.90334
▁32	-9.90351
리	-9.90456
պ	-9.90473
▁skal	-9.90529
чы	-9.90555
ū	-9.90563
▁Anda	-9.90568
-19	-9.9058
ব	-9.9059
▁vor	-9.90594
bli	-9.90615
▁على	-9.90637
ատ	-9.90734
Le	-9.90867
▁plus	-9.90876
nud	-9.90953
▁gar	-9.90962
index	-9.91018
īt	-9.91029
ने	-9.91039
ді	-9.91135
ί	-9.91137
uan	-9.91182
▁lan	-9.91197
자	-9.91202
▁های	-9.91216
ל	-9.91302
نی	-9.91349
ე	-9.91362
dat	-9.91373
用	-9.91421
▁fyrir	-9.91427
▁που	-9.91535
tzeko	-9.91542
▁4.	-9.91559
-1	-9.91629
മ	-9.91643
స్	-9.9171
▁tam	-9.91737
ių	-9.91749
ী	-9.91816
мен	-9.91819
▁us	-9.91836
дар	-9.91893
▁maar	-9.91953
EN	-9.91969
▁super	-9.91972
ության	-9.92008
pri	-9.92015
▁Black	-9.92074
В	-9.92109
▁adalah	-9.9214
ING	-9.92158
prav	-9.92163
še	-9.92172
є	-9.92188
ે	-9.92204
rom	-9.92238
ري	-9.92271
▁së	-9.92304
은	-9.92305
pin	-9.92307
▁fer	-9.92321
ийн	-9.92374
lus	-9.925
▁pin	-9.92516
det	-9.92563
بر	-9.92563
▁бу	-9.92586
▁(2)	-9.92622
tz	-9.92635
▁And	-9.92673
վ	-9.92678
ши	-9.92679
dzi	-9.92712
▁fil	-9.92728
De	-9.92738
▁Foto	-9.9274
▁hat	-9.92787
сы	-9.92794
LE	-9.92807
▁bor	-9.92835
лан	-9.92881
▁бол	-9.92885
llo	-9.92901
▁dal	-9.92909
են	-9.9291
bie	-9.92914
bin	-9.92931
া	-9.92982
为	-9.92994
гу	-9.93018
ू	-9.93065
ু	-9.93104
▁pak	-9.93121
lli	-9.93156
eng	-9.93173
idad	-9.93238
2016	-9.93249
му	-9.93276
amento	-9.93395
ture	-9.93409
▁Á	-9.93443
qi	-9.93471
▁Art	-9.93473
ří	-9.93497
ду	-9.935
ці	-9.93513
pie	-9.93561
▁مع	-9.9364
inin	-9.93664
▁final	-9.93698
թ	-9.93742
don	-9.9375
pur	-9.93768
▁ag	-9.93826
地	-9.93867
eve	-9.93925
▁45	-9.9396
gr	-9.93981
▁Sha	-9.93987
ος	-9.94001
ες	-9.94004
ral	-9.94056
yl	-9.94062
ो	-9.94063
प	-9.94066
נו	-9.9407
mek	-9.94105
эн	-9.94132
gor	-9.94144
ena	-9.94196
dem	-9.94234
ս	-9.9424
rie	-9.94276
IL	-9.94324
▁real	-9.94333
day	-9.9434
ін	-9.94377
ල	-9.94417
▁бо	-9.94427
tom	-9.94488
IT	-9.9449
▁más	-9.94499
uti	-9.94536
из	-9.94555
stav	-9.94558
▁Free	-9.94652
生	-9.94669
▁mod	-9.94703
Ð	-9.94722
ಲ	-9.94738
▁Bra	-9.94772
▁ق	-9.94786
▁Zi	-9.94795
mbi	-9.94818
ış	-9.94835
ន	-9.94919
ary	-9.94963
aba	-9.94971
oi	-9.95003
ım	-9.95011
enie	-9.95014
లు	-9.95018
▁sou	-9.95069
post	-9.951
▁được	-9.95165
▁ब	-9.95173
માં	-9.95191
▁Č	-9.95194
lich	-9.95209
▁nag	-9.95212
eiro	-9.95226
umi	-9.95275
pil	-9.95298
UN	-9.95324
ikan	-9.95332
도	-9.95339
▁Sh	-9.95438
tay	-9.95441
anta	-9.95515
▁não	-9.95515
umu	-9.95539
▁мо	-9.9555
▁år	-9.95592
צ	-9.95605
pad	-9.95669
ande	-9.95689
▁ре	-9.95727
έ	-9.95747
ova	-9.9584
한	-9.95844
zor	-9.95863
▁EUR	-9.95892
ត	-9.95903
tem	-9.95906
တ	-9.95984
▁Sen	-9.96004
ን	-9.96095
▁על	-9.96107
ư	-9.9618
по	-9.96234
▁spo	-9.96235
TO	-9.96236
-4	-9.96258
ých	-9.96288
nica	-9.96317
▁free	-9.96326
rk	-9.96401
▁about	-9.96446
▁euro	-9.9651
ث	-9.96519
▁just	-9.96541
▁kol	-9.96553
ੀ	-9.96556
нд	-9.96583
Е	-9.96615
▁mü	-9.96672
▁ú	-9.96737
ច	-9.9675
▁waar	-9.96767
ок	-9.96767
▁ai	-9.96804
اف	-9.96911
mus	-9.96956
▁Ny	-9.96956
▁کہ	-9.97018
ની	-9.97044
ေ	-9.97087
bah	-9.97118
▁Ur	-9.9714
ləri	-9.97222
pr	-9.97265
지	-9.97283
行	-9.97305
య	-9.97351
▁fram	-9.97375
ario	-9.97382
sson	-9.97384
ã	-9.97429
gli	-9.97438
▁для	-9.97443
па	-9.97457
▁via	-9.97479
وم	-9.97557
▁wie	-9.97581
hol	-9.97583
▁Х	-9.97584
ία	-9.97634
nut	-9.97707
ಂ	-9.97712
ði	-9.97727
τα	-9.97745
çi	-9.97753
▁dapat	-9.97779
eren	-9.9781
▁trans	-9.97818
ද	-9.97981
▁Au	-9.98
ह	-9.98023
ர	-9.98042
Al	-9.98061
ੇ	-9.98084
vit	-9.98155
udi	-9.98177
!!	-9.98186
ова	-9.98199
▁new	-9.98223
ET	-9.98248
BA	-9.983
ạ	-9.98302
▁public	-9.98327
ना	-9.98333
āk	-9.98335
▁vel	-9.98381
▁res	-9.98448
ד	-9.98472
iku	-9.98481
ň	-9.98502
▁või	-9.98524
5%	-9.98535
▁aus	-9.98539
lem	-9.98612
న	-9.98623
ació	-9.98623
nych	-9.98642
▁ग	-9.98642
mir	-9.98703
▁Ein	-9.98769
ean	-9.98783
nosti	-9.98911
▁ama	-9.98923
▁cel	-9.98958
▁alt	-9.98987
ons	-9.99044
stri	-9.99051
▁Mas	-9.99067
▁Next	-9.99089
esti	-9.9912
nta	-9.99128
▁2007	-9.99225
ID	-9.99331
▁հ	-9.99367
mmer	-9.99369
dı	-9.99436
▁let	-9.99486
DA	-9.99519
sim	-9.99535
▁Nor	-9.99562
▁ת	-9.99578
▁telefon	-9.99658
stru	-9.99732
365	-9.99752
▁Ф	-9.99767
200	-9.99856
Л	-9.99868
▁би	-9.99901
▁आ	-9.9997
▁Ze	-10
▁data	-10.0001
▁ye	-10.0001
▁ich	-10.0002
ār	-10.0002
ţi	-10.0004
же	-10.0006
աց	-10.0007
ats	-10.0016
로	-10.0019
▁projekt	-10.0019
′	-10.0019
itat	-10.002
ζ	-10.0031
ved	-10.0033
amp	-10.0034
vě	-10.0037
tive	-10.0039
▁gr	-10.0041
下	-10.0043
我	-10.0043
▁ug	-10.0047
yen	-10.0051
▁gal	-10.0053
▁app	-10.0055
בי	-10.0056
天	-10.0058
dzie	-10.0061
αν	-10.0062
aja	-10.0063
יה	-10.0065
▁dr	-10.0068
ах	-10.0069
Ba	-10.007
یا	-10.0075
cion	-10.008
mise	-10.0082
▁design	-10.0085
▁ann	-10.0086
-3	-10.0094
▁his	-10.0105
bla	-10.0107
▁Et	-10.0117
▁tə	-10.0117
ท	-10.0121
ux	-10.0123
dio	-10.0123
э	-10.0124
ਿ	-10.0126
бе	-10.0128
ey	-10.013
ิ	-10.0131
▁Zu	-10.0138
π	-10.0141
ਸ	-10.0141
▁נ	-10.0143
▁Ö	-10.0146
ז	-10.0151
iye	-10.0153
pot	-10.0156
で	-10.0157
▁vin	-10.016
ол	-10.0164
nost	-10.0174
RA	-10.0174
▁که	-10.0176
mann	-10.0176
ಗ	-10.0179
bur	-10.0182
▁Facebook	-10.0187
oz	-10.0189
eti	-10.019
EM	-10.0192
бо	-10.0193
ಕ	-10.0194
OL	-10.0197
sty	-10.0198
క	-10.0218
rij	-10.022
ש	-10.0225
elt	-10.0229
▁test	-10.0232
▁под	-10.0236
ി	-10.0237
▁вы	-10.0242
▁σε	-10.0251
lige	-10.0253
MA	-10.0254
tua	-10.0254
▁б	-10.0259
를	-10.0259
ช	-10.0263
kke	-10.0264
vir	-10.0266
▁ö	-10.0267
▁tik	-10.0267
▁xa	-10.0275
▁Tar	-10.0278
ما	-10.028
′′	-10.0283
ង	-10.0289
эр	-10.0294
▁foi	-10.0296
▁bes	-10.0298
▁ile	-10.0298
▁izan	-10.03
ป	-10.0301
▁00	-10.0305
ʻ	-10.0305
▁000	-10.0312
▁era	-10.0314
vr	-10.0314
rio	-10.0316
لي	-10.0317
を	-10.0318
рт	-10.0324
▁η	-10.0329
▁she	-10.0331
分	-10.0341
cur	-10.0343
رو	-10.0343
RO	-10.0343
▁form	-10.0344
առ	-10.0344
andi	-10.0348
▁help	-10.035
▁aku	-10.0351
▁star	-10.0353
ulu	-10.0354
yar	-10.0362
Á	-10.0365
▁Mat	-10.0368
tten	-10.0372
일	-10.0373
ം	-10.0374
▁kui	-10.0377
eur	-10.0379
teri	-10.0388
▁στο	-10.0391
ous	-10.0393
ēt	-10.0396
▁blo	-10.04
tivo	-10.0402
▁sú	-10.0403
▁Col	-10.0405
چ	-10.0405
ხ	-10.0405
out	-10.0407
▁Poli	-10.0408
▁ban	-10.0409
▁cal	-10.041
▁nog	-10.0411
cre	-10.0419
ndi	-10.0419
nem	-10.0422
▁Red	-10.0426
▁Hor	-10.0432
8%	-10.0434
ula	-10.0435
ит	-10.044
AP	-10.0443
ost	-10.0448
▁bak	-10.0448
▁որ	-10.0454
ರ್	-10.0455
ര്‍	-10.0455
ુ	-10.0457
стан	-10.0464
▁olan	-10.0467
သ	-10.0469
jó	-10.0469
nger	-10.0471
▁Sport	-10.0473
▁imp	-10.0485
य	-10.0491
AM	-10.0497
▁trong	-10.0499
ää	-10.0505
ual	-10.0507
▁τα	-10.0508
▁الت	-10.0511
pet	-10.0513
ší	-10.0514
ھ	-10.052
ਕ	-10.0522
▁saat	-10.0523
essa	-10.0527
▁ي	-10.0527
▁poz	-10.0538
▁sich	-10.0541
гі	-10.0542
med	-10.0542
▁dira	-10.0544
▁că	-10.0544
▁pul	-10.0549
▁san	-10.055
hir	-10.0551
anti	-10.0554
сь	-10.0557
rem	-10.056
gle	-10.0564
ù	-10.0564
ظ	-10.057
კ	-10.0577
ui	-10.0581
gue	-10.0583
▁sch	-10.0586
ís	-10.0588
▁City	-10.0591
ού	-10.0594
▁với	-10.0594
aka	-10.0596
تی	-10.0597
uda	-10.06
が	-10.0603
ול	-10.0604
gat	-10.0606
▁hem	-10.0606
公	-10.0615
▁ham	-10.062
ון	-10.0622
▁nas	-10.0622
▁Mag	-10.0626
ray	-10.0627
▁Het	-10.0629
ए	-10.0633
▁kes	-10.0634
sky	-10.0636
▁eine	-10.0639
ných	-10.0639
金	-10.0646
bul	-10.0647
▁Download	-10.0651
য়	-10.0652
က	-10.0652
▁unha	-10.0654
tö	-10.0656
្	-10.0659
▁அ	-10.0661
▁स	-10.0666
▁ole	-10.0671
dí	-10.0671
▁כ	-10.0673
σ	-10.0678
ં	-10.0679
ման	-10.0681
▁Af	-10.0681
iş	-10.0682
▁ilə	-10.0684
ता	-10.0686
▁لل	-10.0691
▁Р	-10.0692
gia	-10.0694
kum	-10.0695
▁kami	-10.0696
▁(19	-10.0698
0.00	-10.07
dis	-10.0701
uga	-10.0702
▁Zo	-10.0704
ज	-10.0706
ame	-10.0707
▁Wo	-10.0711
2017	-10.0712
▁local	-10.0712
▁Bre	-10.0718
િ	-10.0721
ക	-10.0723
न्	-10.0725
ml	-10.0727
成	-10.0729
▁str	-10.0736
▁Fu	-10.0736
së	-10.0737
▁છે	-10.0737
▁ik	-10.0741
▁Super	-10.0745
ì	-10.0747
мер	-10.0752
hur	-10.0757
▁:)	-10.0761
ful	-10.0762
▁අ	-10.0762
▁sport	-10.0765
▁Min	-10.0766
AG	-10.0766
ët	-10.0771
การ	-10.0774
kus	-10.0778
ją	-10.078
,"	-10.0781
шы	-10.0783
kul	-10.0785
ների	-10.0795
tina	-10.0798
▁З	-10.0801
▁social	-10.0802
ман	-10.0804
▁see	-10.0805
ха	-10.0806
Po	-10.0807
ving	-10.081
▁part	-10.0811
▁mor	-10.0811
cial	-10.082
ン	-10.0821
2)	-10.0824
▁loo	-10.0827
▁grup	-10.0827
aria	-10.0829
▁ما	-10.083
kr	-10.0831
好	-10.0832
amente	-10.0832
▁had	-10.0833
ник	-10.0833
ран	-10.0834
▁Park	-10.0838
lab	-10.0846
ть	-10.0846
▁hand	-10.0848
år	-10.0851
▁Ban	-10.0854
oko	-10.0858
േ	-10.0858
▁36	-10.0868
▁É	-10.0869
ball	-10.087
▁spe	-10.0872
▁net	-10.0874
أ	-10.0874
▁yn	-10.0877
▁også	-10.0877
وا	-10.088
റ	-10.0884
fic	-10.0885
▁ж	-10.089
ак	-10.0891
2014	-10.0892
lad	-10.0897
zna	-10.0898
tă	-10.0901
▁մ	-10.0903
▁სა	-10.0908
heid	-10.0908
hay	-10.0909
SE	-10.0911
nika	-10.0911
▁oleh	-10.0914
ży	-10.0916
uj	-10.0917
esta	-10.0918
▁Kor	-10.0918
▁Ш	-10.0922
Co	-10.0924
hon	-10.0929
UM	-10.093
لو	-10.0931
că	-10.0935
bir	-10.0938
isha	-10.094
else	-10.0943
AR	-10.0945
▁mon	-10.0946
run	-10.0949
▁word	-10.0949
▁wi	-10.095
ια	-10.0953
су	-10.0953
▁yer	-10.0953
▁like	-10.0953
лик	-10.0954
▁get	-10.0955
тор	-10.0957
oc	-10.0965
▁their	-10.0966
zel	-10.0966
▁Previous	-10.0971
inter	-10.0971
ær	-10.0972
.”	-10.0972
pak	-10.0975
▁[...]	-10.0975
▁Bur	-10.0976
▁sil	-10.0978
ese	-10.0979
▁hel	-10.0982
দ	-10.0984
eva	-10.0988
SA	-10.0989
▁China	-10.0991
ű	-10.0993
zz	-10.0997
unda	-10.1
Li	-10.1
ல்	-10.1006
સ	-10.1007
rez	-10.1008
ule	-10.1012
gua	-10.1017
ít	-10.1017
მა	-10.102
▁Bir	-10.1027
nk	-10.1027
bro	-10.1028
▁Od	-10.1029
▁gratis	-10.1031
▁kā	-10.1033
tā	-10.1036
sä	-10.1036
▁prze	-10.1037
▁MA	-10.1037
▁site	-10.1038
▁jou	-10.1041
▁nav	-10.1048
zan	-10.1051
):	-10.1053
▁Sk	-10.1057
▁also	-10.1058
igi	-10.1059
რ	-10.1067
▁Tre	-10.1073
▁fan	-10.1074
▁Var	-10.1077
}	-10.1081
▁opp	-10.1083
0.000	-10.1087
fen	-10.1089
어	-10.1096
ill	-10.1099
▁NA	-10.1103
kup	-10.1107
▁Sol	-10.1109
▁nel	-10.111
ında	-10.1112
sis	-10.1113
él	-10.1116
rim	-10.1119
бы	-10.1122
дер	-10.1127
▁5.	-10.1128
llen	-10.1136
ქ	-10.1137
مان	-10.1138
kä	-10.1142
▁avec	-10.1151
▁Pan	-10.1154
stre	-10.1155
lash	-10.1159
ako	-10.1163
AS	-10.1167
star	-10.1168
tail	-10.1168
▁mot	-10.1172
för	-10.1173
จ	-10.1175
nje	-10.1179
▁if	-10.118
IA	-10.1183
SI	-10.1186
low	-10.1188
çe	-10.1189
▁HD	-10.1194
▁one	-10.1194
▁അ	-10.1195
▁article	-10.1196
▁Kom	-10.1203
▁Google	-10.1204
▁ر	-10.1206
ನ	-10.1211
ments	-10.1212
ને	-10.1215
▁(2	-10.1219
их	-10.1219
ນ	-10.122
hel	-10.1223
▁Sin	-10.1226
▁10.	-10.1226
▁ಮ	-10.1227
nega	-10.1236
rad	-10.1239
▁nä	-10.1245
ಸ್	-10.1245
פ	-10.1253
▁any	-10.1257
ய	-10.1261
▁Son	-10.1263
▁April	-10.1264
ئ	-10.1268
ede	-10.1278
-5	-10.128
tı	-10.1287
stand	-10.1289
stad	-10.1289
త	-10.1289
km	-10.1292
tif	-10.1294
ग	-10.1298
▁produkt	-10.1299
ive	-10.1301
ām	-10.1306
ξ	-10.1308
tung	-10.1311
▁dig	-10.1314
▁vous	-10.1322
ого	-10.1322
lv	-10.1327
SS	-10.1328
ume	-10.1329
tica	-10.133
▁home	-10.133
▁Ol	-10.1332
း	-10.1333
ர்	-10.1334
ota	-10.1335
▁onder	-10.1335
▁nicht	-10.134
LI	-10.1341
▁dy	-10.1349
▁kul	-10.1349
▁nuo	-10.135
▁stor	-10.135
ún	-10.1351
▁saya	-10.1356
න්	-10.1357
hn	-10.1359
ase	-10.136
▁cri	-10.1363
ุ	-10.1364
RI	-10.1369
Ro	-10.1372
▁dha	-10.1372
▁Κ	-10.1372
ас	-10.1374
lü	-10.1377
▁minut	-10.1377
ден	-10.1378
ità	-10.138
▁bin	-10.1383
лари	-10.1386
வ	-10.1387
▁anti	-10.1389
▁Ji	-10.1393
ген	-10.1393
лы	-10.1393
tiva	-10.1397
ligt	-10.1405
eza	-10.1407
▁bol	-10.1409
ት	-10.1409
▁ο	-10.1409
ée	-10.1411
▁IN	-10.1418
▁Cre	-10.1421
دی	-10.1422
ന	-10.1427
ավ	-10.1427
bon	-10.1429
▁Hal	-10.1432
▁zen	-10.1435
は	-10.1438
Í	-10.1438
wen	-10.1439
▁II	-10.1441
DE	-10.1446
▁!	-10.1452
azione	-10.1453
ั	-10.1453
▁الأ	-10.146
heim	-10.1462
sku	-10.1462
ير	-10.1464
ട	-10.1465
გ	-10.147
▁Sz	-10.1471
slu	-10.1473
iť	-10.1473
ace	-10.1475
▁download	-10.1479
stal	-10.1479
TG	-10.1481
Ka	-10.1483
ST	-10.1483
▁kot	-10.1484
jes	-10.1486
▁昨天	-10.1487
pol	-10.1487
idi	-10.1488
▁lebih	-10.149
▁bro	-10.1491
tari	-10.1492
▁không	-10.1499
ém	-10.1501
يا	-10.1503
uli	-10.1506
PS	-10.1511
ത	-10.1512
tok	-10.1513
É	-10.1523
dam	-10.1524
cin	-10.1524
link	-10.1528
ń	-10.1531
ਾਂ	-10.1532
▁Cal	-10.1532
մ	-10.1534
δ	-10.1535
▁red	-10.1536
kil	-10.1536
ologi	-10.1539
tika	-10.1541
ș	-10.1545
▁person	-10.1546
را	-10.1549
ڈ	-10.1557
enia	-10.1557
Me	-10.1559
▁ад	-10.157
▁են	-10.1576
▁ok	-10.1583
▁പ	-10.1584
发	-10.1587
ės	-10.1591
kka	-10.1595
dr	-10.1597
ries	-10.1599
sche	-10.16
!!!	-10.1602
▁sto	-10.1602
str	-10.1603
nä	-10.1604
▁Ag	-10.1604
āt	-10.1604
▁work	-10.1606
Pro	-10.1608
ود	-10.1609
ose	-10.1612
یل	-10.1614
tha	-10.162
tě	-10.1624
CA	-10.1627
ismo	-10.1628
ības	-10.163
▁dels	-10.1635
win	-10.1635
▁Tags	-10.1641
▁meer	-10.1644
eko	-10.1652
▁Hel	-10.1652
adh	-10.166
▁Tri	-10.1663
یت	-10.1663
ị	-10.1664
dá	-10.1669
ක	-10.1671
▁przy	-10.1671
kol	-10.1677
czy	-10.1681
kl	-10.1683
▁Bel	-10.1691
లో	-10.1691
plo	-10.1691
▁LED	-10.1692
ся	-10.1695
gos	-10.1697
ña	-10.1699
▁nan	-10.1699
IC	-10.1701
▁sé	-10.1703
▁આ	-10.1706
▁interes	-10.1707
子	-10.1708
ող	-10.1711
lık	-10.1712
":"	-10.1713
▁تر	-10.1713
▁qua	-10.1715
רו	-10.1719
cas	-10.1722
och	-10.1723
ներ	-10.1725
sil	-10.1728
eu	-10.1728
▁33	-10.1734
amo	-10.1742
rg	-10.1743
ası	-10.1746
but	-10.1754
▁camp	-10.1755
ир	-10.1755
▁está	-10.1757
▁inform	-10.1758
adda	-10.1761
nim	-10.1762
یم	-10.1768
ી	-10.1769
▁þ	-10.1771
ដ	-10.1772
▁Web	-10.1773
тан	-10.1773
রা	-10.1777
ður	-10.178
▁Tan	-10.1784
aq	-10.1787
ун	-10.1788
ला	-10.1793
ன்	-10.1793
▁ty	-10.1795
ой	-10.1795
ago	-10.1797
▁pol	-10.1797
▁iş	-10.1798
▁بال	-10.1798
▁प	-10.1798
dus	-10.1801
▁Ste	-10.1802
▁ਸ	-10.1802
▁make	-10.1803
安	-10.1806
alis	-10.1816
▁land	-10.182
stat	-10.1824
։	-10.1825
山	-10.1825
UR	-10.1826
▁RE	-10.1828
cel	-10.1833
ِ	-10.1833
▁ק	-10.1834
AC	-10.1834
▁Sur	-10.1835
▁Ten	-10.1836
い	-10.1839
AD	-10.1843
Be	-10.1844
ె	-10.1851
▁ප	-10.1852
ï	-10.1853
▁She	-10.1854
bung	-10.1856
▁ко	-10.1861
liga	-10.1863
ಂದ	-10.1868
lás	-10.1868
▁maj	-10.187
ania	-10.1873
rus	-10.1878
wn	-10.1878
本	-10.1887
ната	-10.1887
▁orang	-10.1892
ព	-10.1901
zie	-10.1904
som	-10.1908
▁problem	-10.1909
▁Mer	-10.191
▁تو	-10.1911
ै	-10.1913
▁bur	-10.1916
▁ك	-10.1923
ség	-10.1932
▁إ	-10.1933
ум	-10.1935
ές	-10.1939
oje	-10.1941
pal	-10.1943
▁пра	-10.1946
בר	-10.1947
kut	-10.1947
erne	-10.1951
Ε	-10.1952
▁α	-10.1952
▁bli	-10.1952
▁Ed	-10.1953
eira	-10.1955
igen	-10.1957
▁Sun	-10.196
▁Plan	-10.196
▁300	-10.1961
وب	-10.1966
▁ಅ	-10.1967
▁Of	-10.1968
ann	-10.1973
ब	-10.1973
ły	-10.1974
2012	-10.1974
ல	-10.1975
▁ал	-10.1976
лен	-10.1976
▁fre	-10.1978
NI	-10.1978
▁stra	-10.1979
time	-10.1979
stä	-10.1979
мі	-10.198
▁Mac	-10.198
ਮ	-10.1988
గ	-10.1989
rek	-10.199
▁edhe	-10.1993
ਚ	-10.1993
▁Dar	-10.1995
හ	-10.1998
gj	-10.2001
▁>>	-10.2002
▁vien	-10.2007
▁maka	-10.2008
ամ	-10.2009
nice	-10.2009
▁LA	-10.2009
▁ח	-10.2012
▁kali	-10.2014
वा	-10.2016
ingen	-10.2016
▁cer	-10.2021
▁Ger	-10.2029
ller	-10.203
εί	-10.2031
EC	-10.2031
▁Sy	-10.2032
▁ہو	-10.2034
ave	-10.2035
▁п	-10.204
row	-10.2041
ļ	-10.2042
โ	-10.2043
▁Im	-10.2048
▁tudi	-10.2055
ే	-10.2056
lei	-10.2058
ков	-10.2063
▁Cam	-10.2065
రి	-10.2067
ible	-10.2069
ай	-10.2069
▁›	-10.2071
zia	-10.2071
iu	-10.2072
▁list	-10.2072
▁bere	-10.2075
nce	-10.2076
▁informa	-10.2077
ony	-10.2083
▁total	-10.2083
▁Tak	-10.2084
న్	-10.2084
▁sistem	-10.2084
▁Kur	-10.2085
zza	-10.2089
ট	-10.2095
alla	-10.2096
şa	-10.2101
▁rec	-10.2104
▁pel	-10.2108
时	-10.2109
Ö	-10.2109
▁Vol	-10.2109
سم	-10.2109
ets	-10.2109
▁gam	-10.211
多	-10.2111
ուն	-10.2111
▁nh	-10.2111
în	-10.2112
кан	-10.2116
▁contra	-10.212
လ	-10.2125
KO	-10.2126
机	-10.2126
▁Ж	-10.2127
▁Star	-10.2132
▁nor	-10.2135
▁ger	-10.2135
Mo	-10.2138
ament	-10.2146
lom	-10.2148
▁што	-10.215
▁म	-10.2155
▁Om	-10.2157
ový	-10.2158
جم	-10.2159
▁pl	-10.2161
sı	-10.2161
nın	-10.2161
▁ši	-10.2161
▁Gal	-10.217
tam	-10.2171
▁bis	-10.2173
사	-10.2173
▁autor	-10.2177
ните	-10.2178
ril	-10.2179
aran	-10.218
ડ	-10.218
fik	-10.2182
▁।	-10.2184
▁bank	-10.2188
စ	-10.2193
▁bel	-10.2196
▁være	-10.2202
jal	-10.2202
▁48	-10.2203
▁ind	-10.2204
ಸ	-10.2205
县	-10.2205
▁או	-10.2207
hd	-10.221
CT	-10.2211
uv	-10.2215
ני	-10.2218
para	-10.2218
cen	-10.2218
cri	-10.2221
▁mun	-10.2224
▁sor	-10.2225
ვ	-10.2227
Sa	-10.2228
ында	-10.223
ské	-10.2231
▁kuri	-10.2237
▁other	-10.2237
ville	-10.2237
▁hen	-10.2239
】	-10.2239
نگ	-10.224
sor	-10.2241
南	-10.2242
三	-10.2242
ED	-10.2243
▁kepada	-10.2246
τε	-10.2249
ço	-10.2252
▁gün	-10.2253
▁organiz	-10.2254
▁Blog	-10.2255
▁38	-10.2256
▁이	-10.2257
aire	-10.226
▁SA	-10.2262
TV	-10.2262
col	-10.2262
▁start	-10.2262
ANG	-10.2264
300	-10.2265
▁Cat	-10.2266
imit	-10.2266
abil	-10.2268
ER	-10.2268
rán	-10.2272
▁Inter	-10.2274
gri	-10.2275
antes	-10.2275
PE	-10.2277
▁भ	-10.2281
▁Azərbaycan	-10.2285
▁från	-10.2287
能	-10.2288
side	-10.2288
▁Ali	-10.2289
하	-10.229
▁pil	-10.229
장	-10.229
▁kop	-10.2291
bang	-10.2291
라	-10.2292
ρα	-10.2296
jų	-10.2296
▁satu	-10.2296
દ	-10.2298
▁چ	-10.2302
AT	-10.2302
ák	-10.2305
▁mereka	-10.2305
▁Μ	-10.2307
▁Film	-10.2308
uko	-10.231
ای	-10.2312
сан	-10.2312
▁Ба	-10.2314
bia	-10.2315
▁cara	-10.2316
▁personal	-10.2317
ké	-10.2318
ök	-10.2319
▁få	-10.232
▁sind	-10.2323
▁Dis	-10.2328
▁media	-10.2328
▁who	-10.2332
werk	-10.2336
IE	-10.2339
▁مو	-10.2341
之	-10.2341
വ	-10.2342
▁motor	-10.2344
▁při	-10.235
üm	-10.2351
▁Bor	-10.2356
▁לה	-10.236
yang	-10.2364
▁auch	-10.2364
▁75	-10.2364
inde	-10.2366
▁naar	-10.2366
▁lei	-10.2366
▁uw	-10.237
▁،	-10.2373
▁pou	-10.2376
▁need	-10.2378
▁CO	-10.238
2.	-10.2386
lja	-10.2388
oldid	-10.239
שי	-10.2392
:15	-10.2395
dere	-10.2395
▁sus	-10.2396
▁স	-10.2398
ா	-10.2398
▁Mor	-10.2405
kre	-10.2406
wikipedia	-10.2408
▁dra	-10.241
өн	-10.2411
siya	-10.2418
▁Sex	-10.2418
DI	-10.242
க	-10.2421
ட	-10.2421
▁Euro	-10.2422
▁Mari	-10.2423
▁ч	-10.243
▁hier	-10.2432
对	-10.2433
CI	-10.2435
TE	-10.2435
kaz	-10.2436
kö	-10.2436
400	-10.2436
ση	-10.2436
▁də	-10.2437
aw	-10.2439
mä	-10.244
री	-10.2443
PA	-10.2443
jí	-10.2445
ុ	-10.2445
国	-10.2446
IM	-10.2454
bide	-10.246
▁še	-10.246
▁пред	-10.2461
him	-10.2464
▁ক	-10.2465
list	-10.2467
פי	-10.2467
unk	-10.247
な	-10.2471
定	-10.2471
▁Kas	-10.2476
skap	-10.2477
2013	-10.2481
ห	-10.2483
ræ	-10.2484
utu	-10.2484
ят	-10.2484
▁бер	-10.2485
aal	-10.2487
▁ಕ	-10.2487
anya	-10.249
▁pal	-10.2492
▁6.	-10.2493
kker	-10.2495
از	-10.2509
रा	-10.2509
нов	-10.2511
▁34	-10.2514
press	-10.2516
՝	-10.2516
▁oma	-10.2522
▁ekki	-10.2524
ных	-10.2527
▁Far	-10.2528
区	-10.253
▁which	-10.2545
시	-10.2546
ទ	-10.2546
бу	-10.2555
▁ó	-10.2558
▁kay	-10.256
ტ	-10.2562
ված	-10.2562
ូ	-10.2565
▁Pod	-10.2568
IP	-10.2572
▁čas	-10.2573
voj	-10.2576
ius	-10.2576
CH	-10.2577
miz	-10.2581
▁yra	-10.2581
▁kre	-10.2581
원	-10.2581
▁Hy	-10.2585
▁mobil	-10.2585
力	-10.2587
ੱ	-10.2587
wie	-10.2591
је	-10.2591
না	-10.2592
ិ	-10.2595
▁pasi	-10.2596
maan	-10.2596
mbe	-10.2596
há	-10.2601
rada	-10.2603
ett	-10.2603
▁bara	-10.2603
ations	-10.2607
CO	-10.2612
▁ere	-10.2612
全	-10.2614
аў	-10.2616
▁inn	-10.2618
ី	-10.2618
تا	-10.2621
વ	-10.2623
▁Han	-10.2624
인	-10.2625
▁że	-10.2629
alt	-10.2632
kou	-10.2634
tia	-10.2635
▁gran	-10.2636
IR	-10.2636
ood	-10.2637
shop	-10.2638
▁//	-10.2639
من	-10.2642
دي	-10.2642
▁teh	-10.2646
kir	-10.2647
▁ont	-10.2647
plat	-10.265
xo	-10.2653
▁Ա	-10.2659
kim	-10.2661
ೋ	-10.2663
tim	-10.2669
ੋ	-10.2673
ään	-10.2674
▁voi	-10.2674
▁sie	-10.2676
dé	-10.2679
▁masa	-10.2679
ών	-10.2683
▁ص	-10.2686
▁kama	-10.2687
dən	-10.2687
TT	-10.2688
TM	-10.2689
sol	-10.2692
kra	-10.2692
ming	-10.2692
pit	-10.2695
سل	-10.2697
bus	-10.2697
over	-10.2699
အ	-10.2701
水	-10.2702
▁nach	-10.2706
ness	-10.2711
▁Iz	-10.2713
ર્	-10.2714
▁bas	-10.2718
cra	-10.2719
▁ക	-10.272
ာ	-10.2721
isk	-10.2724
▁modern	-10.2727
ి	-10.273
合	-10.273
▁Max	-10.2733
media	-10.2733
կ	-10.2733
と	-10.2735
το	-10.2737
fan	-10.2737
πο	-10.2738
mbu	-10.2745
isten	-10.2745
▁US	-10.2745
▁Che	-10.2747
mun	-10.2748
jon	-10.2751
rri	-10.2751
▁Τ	-10.2753
▁off	-10.2753
rzy	-10.2754
▁mund	-10.2756
IST	-10.276
inte	-10.2761
ité	-10.2765
Ha	-10.2766
▁tas	-10.2769
rī	-10.277
يل	-10.2771
:10	-10.2773
sul	-10.2779
ał	-10.278
kli	-10.2783
າ	-10.2787
▁Í	-10.2792
pper	-10.2792
recht	-10.2794
ფ	-10.2795
mark	-10.2797
▁150	-10.2797
dh	-10.2801
▁sono	-10.2803
GT	-10.2805
▁те	-10.2806
пу	-10.2807
▁sama	-10.2809
▁efter	-10.2813
ల్	-10.2816
alo	-10.2816
▁ml	-10.2821
▁NY	-10.283
事	-10.2831
vod	-10.2833
ಿ	-10.2834
taan	-10.2838
ਦ	-10.2838
▁pār	-10.2844
প	-10.285
CE	-10.2851
▁دی	-10.2858
▁frá	-10.2861
To	-10.2869
▁Indonesia	-10.2872
▁ப	-10.2875
یر	-10.2882
▁Ek	-10.2882
▁AS	-10.2883
oma	-10.2883
%2	-10.2883
▁fun	-10.2884
lut	-10.2884
dob	-10.2885
ả	-10.2887
Te	-10.2888
▁daar	-10.2889
▁một	-10.2889
Bo	-10.289
▁Med	-10.2892
要	-10.2894
The	-10.2896
▁wel	-10.2898
ság	-10.2899
nun	-10.2903
પ	-10.2906
kti	-10.2907
ors	-10.2908
▁set	-10.2911
జ	-10.2913
ük	-10.2918
rra	-10.292
ві	-10.2926
No	-10.293
部	-10.2932
wel	-10.2935
τι	-10.2941
▁Tag	-10.2942
»,	-10.2943
▁ev	-10.2944
LA	-10.2944
cent	-10.2945
բ	-10.2946
ím	-10.2947
▁में	-10.2948
mia	-10.2952
▁mak	-10.2953
avi	-10.2953
koa	-10.2954
sat	-10.2955
▁than	-10.2955
ated	-10.2959
▁Ker	-10.2959
дзе	-10.2961
▁Qa	-10.2962
▁സ	-10.2963
RE	-10.2965
▁þess	-10.2967
mé	-10.2969
nja	-10.2973
ု	-10.2977
ča	-10.2981
▁Mai	-10.2981
spe	-10.2986
最	-10.2989
rap	-10.2992
ກ	-10.2993
▁dute	-10.2996
jā	-10.2998
▁nad	-10.3001
ow	-10.3003
ның	-10.3004
▁material	-10.3008
nou	-10.301
ట	-10.301
із	-10.3011
▁må	-10.3013
Х	-10.3014
jä	-10.3014
▁kung	-10.3016
ного	-10.3017
మ	-10.3019
▁pela	-10.302
Na	-10.3032
vien	-10.3035
GO	-10.3036
▁Mit	-10.3036
▁Met	-10.3037
▁των	-10.3038
bert	-10.3039
ovi	-10.304
ная	-10.3041
gir	-10.3042
▁they	-10.3042
assa	-10.3047
▁hau	-10.3048
▁Pla	-10.3052
დ	-10.3053
▁Kal	-10.3053
ده	-10.3058
נ	-10.3064
ever	-10.3064
▁37	-10.3067
▁ки	-10.3069
став	-10.307
▁leg	-10.307
news	-10.3071
nji	-10.3071
▁ಬ	-10.3072
▁menjadi	-10.3073
fel	-10.3075
▁فر	-10.3078
ина	-10.3078
anna	-10.3087
FA	-10.3087
aus	-10.3088
eh	-10.3091
AK	-10.3093
ะ	-10.3093
▁vid	-10.3096
▁ID	-10.3096
▁Us	-10.3097
▁tersebut	-10.3098
ც	-10.31
▁bl	-10.3101
inti	-10.3102
nor	-10.3102
raf	-10.3103
ый	-10.3106
nú	-10.3107
ža	-10.3107
▁mus	-10.3111
:45	-10.3112
11.	-10.3113
ind	-10.3117
▁گ	-10.3119
HA	-10.3119
دا	-10.3121
▁link	-10.3126
动	-10.3129
▁Fra	-10.3131
▁werk	-10.3132
ստ	-10.3135
enti	-10.3137
ց	-10.3138
eks	-10.314
Ι	-10.3142
enza	-10.3143
ೂ	-10.3146
కు	-10.3147
▁há	-10.3148
▁tempo	-10.3149
өр	-10.3149
▁प्र	-10.315
কে	-10.3152
作	-10.3153
▁nam	-10.3154
inu	-10.3156
▁як	-10.3158
▁sul	-10.3164
άν	-10.3165
anza	-10.3166
zem	-10.3175
▁42	-10.3177
▁pass	-10.3177
▁Bro	-10.3179
нинг	-10.318
לו	-10.318
air	-10.3182
▁vers	-10.3183
▁arī	-10.3185
cker	-10.3188
▁hari	-10.3192
çı	-10.3192
KA	-10.3193
美	-10.3197
ną	-10.3198
▁ту	-10.3201
jos	-10.3203
▁dla	-10.3203
gad	-10.3204
ు	-10.3204
Lo	-10.3205
▁Nam	-10.3206
sjon	-10.3207
mil	-10.3209
ُ	-10.321
▁Ir	-10.3211
lev	-10.3212
▁ek	-10.3212
vä	-10.3214
ध	-10.3218
▁moment	-10.3219
cle	-10.3223
▁plat	-10.3235
정	-10.3235
Ü	-10.3236
area	-10.3237
GB	-10.3239
AA	-10.3239
▁üçün	-10.324
▁στην	-10.324
જ	-10.3241
্যা	-10.3241
▁ಸ	-10.3241
▁Ap	-10.3242
ход	-10.3245
bes	-10.3246
▁44	-10.3249
▁Internet	-10.3249
▁bun	-10.325
long	-10.3252
▁ons	-10.3254
mul	-10.3256
▁tá	-10.3257
NE	-10.3258
ത്ത	-10.3258
▁hon	-10.326
gro	-10.326
▁hun	-10.326
vie	-10.326
▁Са	-10.3263
自	-10.3263
род	-10.3263
▁nak	-10.3263
▁Del	-10.3264
اک	-10.3267
入	-10.3269
▁November	-10.3269
band	-10.3269
NA	-10.3271
čí	-10.3273
▁12.	-10.3273
əm	-10.3274
▁Comp	-10.3275
▁bon	-10.3277
rze	-10.3278
ách	-10.3281
▁Э	-10.3282
nc	-10.3282
rish	-10.3282
ство	-10.3284
த	-10.3287
owe	-10.3292
▁pří	-10.3293
官网	-10.3299
▁dom	-10.3304
理	-10.3312
ပ	-10.3317
®	-10.3318
▁Н	-10.3324
zko	-10.3334
nden	-10.3348
WA	-10.3352
▁dell	-10.3353
ote	-10.3353
▁vend	-10.3364
Ar	-10.3368
▁Camp	-10.3368
西	-10.3369
mana	-10.3373
▁~	-10.3375
يد	-10.3378
die	-10.3381
JA	-10.3381
ూ	-10.3383
эл	-10.3388
▁più	-10.3389
▁مر	-10.3389
▁art	-10.3391
▁Cap	-10.3391
ข	-10.3393
үү	-10.3396
-6	-10.3398
▁Land	-10.3399
יי	-10.3399
וב	-10.34
▁Design	-10.3401
uku	-10.3404
TER	-10.3407
▁ç	-10.341
ney	-10.3417
like	-10.3417
եւ	-10.3421
▁sua	-10.3421
法	-10.3422
۱	-10.3428
ચ	-10.3429
▁bre	-10.3432
Mar	-10.3436
yk	-10.3437
itt	-10.3443
▁си	-10.3444
2015	-10.3445
BI	-10.3451
・	-10.3458
ða	-10.3465
lib	-10.3466
▁ple	-10.3467
ӣ	-10.3472
▁11.	-10.3474
州	-10.3474
աս	-10.3474
▁Mil	-10.3479
▁deze	-10.3481
▁Real	-10.3484
ole	-10.3485
▁2006	-10.3487
ೀ	-10.3488
ത്	-10.3488
TS	-10.349
AZ	-10.3492
git	-10.3497
sini	-10.3498
ಮ	-10.3502
έρ	-10.3502
后	-10.3503
top	-10.3504
osa	-10.3505
rú	-10.3507
▁mata	-10.351
▁39	-10.3511
▁kh	-10.3512
▁Fri	-10.3516
▁tin	-10.3517
▁פ	-10.3519
▁iki	-10.352
▁qual	-10.3524
▁olma	-10.3527
них	-10.3527
▁سر	-10.3528
▁Má	-10.3543
▁55	-10.3543
▁nou	-10.3545
test	-10.3546
tare	-10.3546
▁hay	-10.3548
мы	-10.3551
Ch	-10.3552
rica	-10.3557
▁κ	-10.3557
ట్	-10.356
▁Spa	-10.3561
kit	-10.3562
hus	-10.3563
▁Tor	-10.3564
بي	-10.3567
▁conta	-10.3568
▁Port	-10.3573
▁người	-10.3574
,”	-10.3575
▁bag	-10.3575
anga	-10.358
▁ک	-10.3583
▁sm	-10.3584
▁Հ	-10.3586
kë	-10.3591
fon	-10.3593
spec	-10.3594
Do	-10.3597
пер	-10.3602
ium	-10.3607
▁ها	-10.3609
র্	-10.361
ging	-10.3611
ಟ	-10.3611
àn	-10.3612
工	-10.3613
vik	-10.3616
fat	-10.3617
nat	-10.3617
ті	-10.3618
▁WA	-10.3619
▁Bat	-10.3625
ция	-10.3625
وي	-10.3625
▁0.0	-10.3626
hit	-10.3626
:20	-10.3626
1)	-10.3627
alam	-10.3629
dha	-10.3631
▁क	-10.3635
UL	-10.3636
τη	-10.3638
▁ago	-10.3638
وی	-10.3638
ি	-10.3639
ware	-10.3642
||	-10.3644
רי	-10.3645
▁út	-10.3646
▁©	-10.3651
▁sebagai	-10.3651
▁kro	-10.3652
▁ప	-10.3654
▁peng	-10.3654
▁Pr	-10.3655
▁Aus	-10.3657
▁Bil	-10.3657
ැ	-10.3658
体	-10.3659
ා	-10.3662
اع	-10.3662
▁August	-10.3663
cara	-10.3666
ル	-10.3673
▁kont	-10.3674
▁show	-10.3676
anka	-10.3677
vre	-10.3678
или	-10.3678
isto	-10.3681
▁product	-10.3685
▁ин	-10.3688
اج	-10.3692
▁هم	-10.3693
ск	-10.3695
特	-10.3698
▁mest	-10.3699
Ա	-10.3704
itet	-10.3706
ñ	-10.3706
▁kau	-10.3706
-10	-10.3711
ड	-10.3714
▁fri	-10.3715
вр	-10.3716
▁бар	-10.3717
idh	-10.372
し	-10.3722
▁ע	-10.3723
ರಿ	-10.3724
LU	-10.3725
ך	-10.3726
▁verk	-10.373
സ്	-10.3732
▁kir	-10.3739
AI	-10.375
▁Þ	-10.375
▁casa	-10.3751
бор	-10.3751
▁અ	-10.3752
lijk	-10.3754
▁zna	-10.3754
ира	-10.3755
GG	-10.3757
▁telah	-10.376
▁pon	-10.3765
imu	-10.3766
MO	-10.3773
ि	-10.3777
▁September	-10.3778
ivo	-10.3779
▁മ	-10.3781
▁ای	-10.3784
ants	-10.3784
▁::	-10.3786
▁long	-10.3786
名	-10.3796
▁það	-10.3799
gil	-10.3801
վել	-10.3803
▁Nov	-10.3806
cor	-10.3807
tara	-10.3815
аль	-10.3819
ју	-10.382
▁Bank	-10.3821
▁kommer	-10.3821
车	-10.3821
osti	-10.3821
者	-10.3822
▁sun	-10.3826
part	-10.3827
ав	-10.3832
ώ	-10.3833
▁(3)	-10.3833
▁Gro	-10.3834
文	-10.3834
со	-10.3839
daj	-10.3842
off	-10.3843
2011	-10.3843
前	-10.3847
nti	-10.3849
ный	-10.385
ät	-10.3851
▁ס	-10.3853
▁Nike	-10.3853
ад	-10.3854
stel	-10.3855
dė	-10.3859
ства	-10.386
lec	-10.386
dim	-10.3862
▁အ	-10.3865
▁Dia	-10.3868
ques	-10.3872
▁cost	-10.3873
▁last	-10.3873
ահ	-10.3875
▁ele	-10.3876
ojnë	-10.3877
lö	-10.3878
лю	-10.3879
ային	-10.3885
▁65	-10.3886
▁mid	-10.3889
度	-10.3889
zet	-10.3891
ыр	-10.3892
ග	-10.3892
als	-10.3893
ifica	-10.3893
主	-10.3901
▁opera	-10.3902
▁أن	-10.3903
▁7.	-10.3904
zioni	-10.3906
▁لا	-10.3907
▁ass	-10.3908
해	-10.3908
▁ш	-10.391
▁Mont	-10.3912
TC	-10.3913
▁fac	-10.3913
вар	-10.3918
ការ	-10.3919
ություն	-10.3933
ара	-10.3933
期	-10.3935
ford	-10.3936
ში	-10.3937
▁Bay	-10.3938
less	-10.3945
ன	-10.3946
nym	-10.3951
▁most	-10.3953
▁Mini	-10.3956
мат	-10.3957
mist	-10.3961
ern	-10.3962
ude	-10.3963
គ	-10.3966
act	-10.3966
▁ব	-10.3967
▁Ü	-10.3968
تر	-10.3972
anie	-10.3975
sport	-10.3976
«	-10.3976
▁gro	-10.3977
▁2000	-10.3978
▁some	-10.398
加	-10.3981
ult	-10.3981
▁eks	-10.3982
nga	-10.3985
▁←	-10.3987
▁ning	-10.3987
▁Mes	-10.3988
▁Ц	-10.3988
ský	-10.3988
ungen	-10.399
box	-10.3991
sze	-10.3992
ு	-10.3992
uro	-10.3992
▁egin	-10.3992
▁Sub	-10.3995
等	-10.3996
ishi	-10.3996
juk	-10.3996
PI	-10.3997
NO	-10.3999
▁những	-10.4
面	-10.4002
ус	-10.4002
▁অ	-10.4002
×	-10.4006
▁tele	-10.4007
asan	-10.401
tab	-10.4012
▁stat	-10.4017
دار	-10.4017
tai	-10.4018
▁ಆ	-10.4018
▁game	-10.4019
py	-10.402
":	-10.4021
▁5,	-10.4025
▁(3	-10.4026
ੰ	-10.4029
ු	-10.4031
kah	-10.4031
▁what	-10.4033
▁full	-10.4035
▁δ	-10.404
ේ	-10.4043
tun	-10.4045
ög	-10.4049
▁ur	-10.4049
▁sv	-10.405
GC	-10.4052
nit	-10.4052
▁daha	-10.406
אַ	-10.4064
gum	-10.4067
▁الع	-10.4067
{	-10.4067
اق	-10.4068
Ko	-10.4069
ғы	-10.4072
▁sudah	-10.4073
ња	-10.4073
lio	-10.4074
osi	-10.4079
▁č	-10.408
igh	-10.408
个	-10.4082
tain	-10.4084
فت	-10.4084
▁eru	-10.4085
க்க	-10.4086
RS	-10.4088
▁klo	-10.4091
▁Gre	-10.4094
▁Tele	-10.4095
▁Inn	-10.4095
看	-10.4095
tig	-10.4099
7%	-10.4099
▁Windows	-10.4101
קו	-10.4105
▁kä	-10.4107
રી	-10.4109
vē	-10.4111
క్	-10.4112
arri	-10.4112
má	-10.4113
ред	-10.4113
ique	-10.4114
ян	-10.4115
siz	-10.4115
ningen	-10.4115
ics	-10.4116
▁aki	-10.4121
cı	-10.4124
▁Eesti	-10.4125
ès	-10.4128
Fi	-10.4133
ии	-10.4134
▁Medi	-10.4136
vice	-10.4136
EX	-10.4137
▁đã	-10.4139
▁että	-10.4139
▁Mark	-10.414
sem	-10.4141
gh	-10.4142
RT	-10.4142
iska	-10.4143
▁spa	-10.4146
து	-10.4146
▁servi	-10.4153
▁ziren	-10.4155
ር	-10.4157
syon	-10.4158
auto	-10.4159
mai	-10.4162
▁PRO	-10.4163
ME	-10.4164
1%	-10.4165
▁system	-10.4168
dul	-10.4168
fra	-10.4173
ιο	-10.4176
▁use	-10.4176
▁Best	-10.4177
content	-10.4178
▁جو	-10.418
pres	-10.4183
▁પ	-10.4188
▁دو	-10.419
▁Sil	-10.4193
▁का	-10.4194
olu	-10.4194
nna	-10.4196
ائ	-10.4197
▁cas	-10.4197
▁είναι	-10.4198
teen	-10.4198
raj	-10.42
▁Ко	-10.42
▁Gen	-10.42
oč	-10.4201
chu	-10.4202
ջ	-10.4202
▁bagi	-10.4203
main	-10.4203
ғ	-10.4209
या	-10.4211
Vi	-10.4211
AB	-10.4214
əl	-10.4214
▁how	-10.4215
以	-10.4215
ams	-10.4216
于	-10.4219
▁té	-10.4219
▁nó	-10.4223
เ	-10.4223
▁ris	-10.4225
ರು	-10.4228
info	-10.4229
mand	-10.4229
▁120	-10.423
uba	-10.4232
any	-10.4234
▁ana	-10.4234
்	-10.4235
ľ	-10.4235
▁سی	-10.4236
UT	-10.4237
▁Rus	-10.4238
保	-10.4239
▁Res	-10.4242
தி	-10.4243
ph	-10.425
сі	-10.4251
▁hvor	-10.4257
▁θα	-10.4258
▁Ev	-10.4259
ос	-10.4259
dores	-10.426
▁produk	-10.4263
ifi	-10.4264
DR	-10.4264
یں	-10.4265
-7	-10.4267
St	-10.4267
Š	-10.4269
OP	-10.4271
ono	-10.428
0.0	-10.4283
kia	-10.4288
च	-10.4288
рі	-10.4289
gl	-10.429
ych	-10.4296
▁դ	-10.4297
ീ	-10.4298
▁service	-10.4299
ush	-10.4302
▁jau	-10.4303
stup	-10.4303
Ja	-10.4303
nner	-10.4304
aji	-10.4307
pus	-10.4307
щи	-10.4307
:40	-10.4307
▁yeni	-10.4309
రా	-10.431
ß	-10.431
▁я	-10.4315
ոն	-10.4318
sur	-10.4318
ping	-10.432
NG	-10.4324
▁Tal	-10.4326
alka	-10.4327
יל	-10.4327
์	-10.4328
▁સ	-10.4329
ember	-10.4332
هم	-10.4333
λα	-10.4334
▁43	-10.4335
ալ	-10.4335
▁cada	-10.4336
5)	-10.4337
amat	-10.4338
bh	-10.4338
▁xe	-10.4338
▁Mad	-10.4339
ំ	-10.4343
að	-10.4343
MS	-10.4345
arra	-10.4347
լ	-10.4347
mie	-10.4348
ilo	-10.4349
▁Ay	-10.4349
লে	-10.4349
▁की	-10.435
cam	-10.4353
larda	-10.4356
nike	-10.4361
গ	-10.4367
од	-10.4369
дә	-10.4371
▁behar	-10.4375
▁మ	-10.4375
ră	-10.4378
mina	-10.4379
yin	-10.4379
▁Ng	-10.4383
ência	-10.4386
ẹ	-10.439
▁eng	-10.4391
န	-10.4391
Ra	-10.4392
开	-10.4396
က္	-10.4397
ත්	-10.4398
ios	-10.4399
gus	-10.4399
▁46	-10.44
öv	-10.44
miş	-10.4401
心	-10.4403
KI	-10.4403
back	-10.4407
▁Play	-10.4409
▁Tro	-10.4411
ného	-10.4414
▁komp	-10.4414
▁ਦੇ	-10.4415
ash	-10.4416
▁ве	-10.4416
▁ز	-10.4418
海	-10.4419
长	-10.4419
elo	-10.442
▁Про	-10.442
▁بن	-10.4421
▁Mel	-10.4429
turi	-10.4429
plan	-10.4431
▁quan	-10.4436
▁popul	-10.4436
ще	-10.4437
▁får	-10.444
sins	-10.4441
ema	-10.4443
▁bude	-10.4443
▁website	-10.4444
view	-10.4445
都	-10.4446
nings	-10.4447
▁thu	-10.4448
Ο	-10.4449
▁tie	-10.445
င္	-10.4452
acht	-10.4455
▁lagu	-10.4456
gio	-10.4458
തി	-10.4458
▁Yo	-10.4458
▁neu	-10.446
▁mé	-10.446
▁8.	-10.446
."	-10.4463
dah	-10.4464
▁tahun	-10.4465
DU	-10.4466
డ	-10.4467
MB	-10.4468
▁Kol	-10.4468
lara	-10.4473
RU	-10.4473
ον	-10.4474
fri	-10.4475
▁exp	-10.4476
url	-10.4484
▁sent	-10.4484
jär	-10.4484
isen	-10.4485
나	-10.4487
▁len	-10.4488
▁Pie	-10.4488
fs	-10.4489
ເ	-10.4489
▁ven	-10.449
ක්	-10.449
ধ	-10.4492
▁Та	-10.4492
jat	-10.4493
化	-10.4494
▁τον	-10.4495
gram	-10.4496
▁Pat	-10.4498
▁để	-10.4498
rei	-10.45
▁lin	-10.4505
igu	-10.4506
▁کې	-10.4507
els	-10.4508
▁Ant	-10.4508
ско	-10.4508
PU	-10.4509
tern	-10.4514
vez	-10.4514
▁tv	-10.4518
iq	-10.4519
▁Martin	-10.4521
▁oor	-10.4522
▁ditu	-10.4524
atan	-10.4527
▁tid	-10.4529
▁obra	-10.4531
ප	-10.4532
ني	-10.4532
▁Don	-10.4533
▁apa	-10.4534
vert	-10.4534
cina	-10.4535
ור	-10.4536
ער	-10.4543
keta	-10.4545
EK	-10.4547
bild	-10.4551
ções	-10.4557
▁Tom	-10.4558
▁janë	-10.456
ορ	-10.456
▁banyak	-10.4563
nye	-10.4566
may	-10.4567
wang	-10.4567
reg	-10.4573
می	-10.4573
▁но	-10.4574
IG	-10.4574
▁kamp	-10.4579
atie	-10.4579
中国	-10.458
▁því	-10.4581
rê	-10.4582
▁John	-10.4583
nova	-10.4585
▁fost	-10.4586
чу	-10.4587
▁book	-10.4587
হ	-10.4587
ိ	-10.4587
oon	-10.4588
lk	-10.4588
bud	-10.4593
▁tip	-10.4594
table	-10.4598
▁Dur	-10.4598
东	-10.46
▁Mus	-10.46
luk	-10.4607
ין	-10.4608
:50	-10.4613
kai	-10.4614
ван	-10.4615
제	-10.462
▁jy	-10.462
▁Մ	-10.4622
्य	-10.4624
ını	-10.4626
▁info	-10.4627
▁לא	-10.4628
ыл	-10.4629
▁Yu	-10.4629
др	-10.463
▁Shi	-10.463
▁say	-10.4632
Ç	-10.4634
▁xu	-10.4641
▁prí	-10.4647
وق	-10.4648
nad	-10.4648
eel	-10.4649
▁ano	-10.4649
-8	-10.465
▁Hand	-10.4653
ർ	-10.4654
Ã	-10.4655
ప	-10.4655
▁இ	-10.4657
ਗ	-10.4657
אר	-10.4658
▁lagi	-10.4659
ír	-10.466
ciones	-10.4661
hem	-10.4661
SK	-10.4662
:25	-10.4664
ská	-10.4668
博	-10.4669
▁lahko	-10.4677
ení	-10.4677
品	-10.4677
AH	-10.4678
serv	-10.4681
▁қа	-10.4682
lav	-10.4684
▁Android	-10.4686
▁polo	-10.4688
:05	-10.4691
ວ	-10.4694
▁text	-10.4696
ech	-10.4698
-01-	-10.4698
ljen	-10.4698
cord	-10.4698
▁ಹ	-10.4703
▁Cer	-10.4703
▁end	-10.4707
▁baz	-10.4711
▁Kat	-10.4712
▁ž	-10.4713
▁poli	-10.4714
▁Ə	-10.4715
▁oder	-10.4717
itza	-10.4718
▁now	-10.4719
IO	-10.4719
has	-10.472
лек	-10.4721
▁find	-10.4723
ına	-10.4724
▁god	-10.4725
▁mig	-10.4725
▁الح	-10.4725
cou	-10.4726
ス	-10.4728
▁bru	-10.4729
ční	-10.473
▁stre	-10.4731
▁sonra	-10.4732
▁jaar	-10.4732
外	-10.4737
tza	-10.4739
▁tại	-10.4742
resource	-10.4743
οι	-10.4743
ਟ	-10.4745
과	-10.4749
জ	-10.475
▁dire	-10.4751
▁promo	-10.4753
בו	-10.4754
ից	-10.4759
ισ	-10.4759
▁స	-10.476
▁kart	-10.4761
vali	-10.4768
old	-10.477
ald	-10.477
▁vz	-10.4773
▁isang	-10.4775
▁moet	-10.4778
endo	-10.4778
tse	-10.4779
▁250	-10.4783
akan	-10.4785
bí	-10.4786
SD	-10.4787
лық	-10.4787
tico	-10.4788
-02	-10.4792
▁công	-10.4794
▁prie	-10.4794
▁Ми	-10.4795
同	-10.4796
ribu	-10.4798
点	-10.4798
2020	-10.4798
부	-10.4801
%3	-10.4802
ward	-10.4802
电	-10.4803
owy	-10.4803
GE	-10.4804
ongo	-10.4809
▁Ο	-10.481
נה	-10.4811
ใน	-10.4812
jum	-10.4814
▁Dit	-10.4819
▁direct	-10.482
kem	-10.4821
дел	-10.4823
itse	-10.4824
itus	-10.4825
Da	-10.4825
ови	-10.4827
▁integr	-10.4827
ут	-10.4828
ezi	-10.4829
▁worden	-10.483
osta	-10.4831
тай	-10.4833
বে	-10.4835
▁molt	-10.4835
▁place	-10.4836
▁rep	-10.4836
▁ха	-10.484
▁кон	-10.484
ತ	-10.4842
aca	-10.4844
یک	-10.4845
▁رو	-10.4845
▁від	-10.4846
eau	-10.4848
方	-10.4853
iel	-10.4853
ره	-10.4855
тал	-10.4855
▁tut	-10.4857
ması	-10.4857
▁До	-10.4858
▁shumë	-10.486
pes	-10.4862
оч	-10.4862
له	-10.4865
▁werden	-10.4867
</	-10.4869
▁iPhone	-10.487
tų	-10.4874
ương	-10.4875
rre	-10.488
kes	-10.4881
imas	-10.4881
guru	-10.4883
“,	-10.4885
ձ	-10.4885
상	-10.4885
▁ε	-10.4887
igt	-10.4891
BO	-10.4895
▁want	-10.4896
ګ	-10.4898
book	-10.49
▁Ik	-10.4901
▁र	-10.4907
ગ	-10.4908
▁bad	-10.4909
tera	-10.4913
নি	-10.4913
ア	-10.4915
▁64	-10.4916
▁Barcelona	-10.4916
کی	-10.4916
ości	-10.492
▁1000	-10.4923
▁τη	-10.4925
▁goed	-10.4927
▁shi	-10.4927
vos	-10.4929
نے	-10.493
checked	-10.4931
An	-10.4931
600	-10.4932
:12	-10.4934
▁Δ	-10.4935
学	-10.4938
▁More	-10.4938
▁Cho	-10.4939
lf	-10.4947
▁pää	-10.4947
▁its	-10.4949
▁wana	-10.4949
▁Bla	-10.4955
▁Ս	-10.4958
▁400	-10.4958
пи	-10.4961
这	-10.4961
▁SE	-10.4962
хи	-10.4964
рэ	-10.4964
-05	-10.4965
ním	-10.4966
▁ста	-10.4969
mani	-10.4972
زی	-10.4974
:35	-10.4975
▁über	-10.4978
yle	-10.498
▁ор	-10.4981
▁acest	-10.4984
ಪ	-10.4984
hou	-10.4986
▁hver	-10.4987
▁Sep	-10.4987
2010	-10.4989
եց	-10.4989
▁mana	-10.4994
κο	-10.4995
▁مس	-10.5001
cze	-10.5002
سی	-10.5007
EA	-10.5007
▁hin	-10.5011
▁been	-10.5014
▁100%	-10.5014
ҳо	-10.5015
▁gol	-10.5015
yên	-10.5017
jel	-10.5018
利	-10.5019
teko	-10.5022
▁Juli	-10.5022
light	-10.5023
phone	-10.5024
▁سو	-10.5024
▁when	-10.5025
▁Ye	-10.5029
▁Pal	-10.503
:11	-10.5032
али	-10.5038
aci	-10.5042
▁estas	-10.5044
শ	-10.5048
mě	-10.5048
អ	-10.505
സ	-10.5051
ék	-10.5051
OT	-10.5052
SO	-10.5053
ovat	-10.5053
▁če	-10.5055
▁olarak	-10.5055
ến	-10.5056
jam	-10.5056
ף	-10.5056
▁Η	-10.5057
▁Photo	-10.5061
▁дар	-10.5068
▁kö	-10.5072
▁tout	-10.5073
▁One	-10.5075
▁ble	-10.5077
uks	-10.5084
▁Gr	-10.5085
cil	-10.5087
▁bilan	-10.5088
ağı	-10.5088
也	-10.5089
▁kell	-10.509
Ə	-10.5091
شن	-10.5092
េ	-10.5096
▁kann	-10.5097
уд	-10.5097
ี	-10.5098
得	-10.5099
▁Tam	-10.5101
▁giá	-10.5101
イ	-10.5102
业	-10.5102
ať	-10.5103
ස	-10.5104
ប្រ	-10.5104
צי	-10.5105
▁indi	-10.511
lož	-10.5111
▁Мо	-10.5114
span	-10.5114
tää	-10.5115
យ	-10.5115
▁(4	-10.5116
:55	-10.5119
hed	-10.512
ала	-10.512
▁Bri	-10.5121
ευ	-10.5124
明	-10.5132
▁base	-10.5134
▁Bas	-10.5135
מה	-10.5138
▁maa	-10.5138
▁rin	-10.5138
▁pris	-10.5141
hari	-10.5142
ण	-10.5142
:1	-10.5151
▁heeft	-10.5156
▁diri	-10.5158
▁high	-10.5163
▁EU	-10.5163
mini	-10.5163
:14	-10.5164
▁գ	-10.5165
▁cin	-10.5171
իր	-10.5172
yor	-10.5179
taj	-10.518
:21	-10.518
pend	-10.5183
embre	-10.5184
▁Ing	-10.5185
▁14.	-10.5186
▁bạn	-10.5189
jak	-10.5189
oja	-10.5194
ம	-10.5195
▁first	-10.5196
▁Plus	-10.52
ਪ	-10.5201
amos	-10.5201
ൂ	-10.5203
ມ	-10.5205
▁fol	-10.5205
VE	-10.5207
▁color	-10.5208
რა	-10.5209
ëve	-10.5211
rel	-10.5212
cija	-10.5212
ize	-10.5214
▁°	-10.5214
▁gali	-10.5215
SC	-10.5219
ď	-10.522
▁Alle	-10.5223
▁μ	-10.5224
▁الا	-10.5224
▁ನ	-10.5226
▁है	-10.5227
jö	-10.5227
ijos	-10.5227
▁से	-10.5228
▁CH	-10.5228
▁offer	-10.5231
zés	-10.5232
ři	-10.5235
Mi	-10.5236
▁information	-10.5237
▁primer	-10.5237
cos	-10.5237
ім	-10.5238
En	-10.524
wat	-10.5241
dol	-10.5246
▁pře	-10.5246
▁ќе	-10.5249
ហ	-10.5253
▁sangat	-10.5253
tang	-10.5257
▁document	-10.5258
▁Model	-10.5258
YA	-10.526
▁toe	-10.526
▁2019,	-10.526
▁عن	-10.5261
ħ	-10.5261
▁без	-10.5261
▁ani	-10.5262
mín	-10.5262
ijn	-10.5264
radi	-10.5267
reng	-10.5267
MP	-10.5269
bay	-10.5269
与	-10.5272
say	-10.5273
್	-10.5274
ppe	-10.5274
▁41	-10.5275
name	-10.5277
dek	-10.5281
▁thể	-10.5284
▁مح	-10.5285
nego	-10.5287
대	-10.529
itar	-10.5292
դ	-10.5296
taka	-10.5297
ണ	-10.5302
فر	-10.5303
▁Samsung	-10.5303
ində	-10.5303
就	-10.5304
่	-10.5305
:18	-10.5307
▁qe	-10.5308
्	-10.5308
λε	-10.5309
▁sko	-10.5309
▁esp	-10.531
nel	-10.531
מי	-10.5311
ته	-10.5314
үн	-10.5316
zik	-10.5317
yti	-10.5318
▁Sel	-10.5318
об	-10.5319
▁له	-10.5326
▁PC	-10.5326
▁gli	-10.5327
('	-10.5329
weg	-10.533
З	-10.533
서	-10.5331
прав	-10.5331
itas	-10.5332
مي	-10.5332
▁Mak	-10.5333
▁Set	-10.5336
/10	-10.5339
▁contact	-10.5339
eme	-10.534
veik	-10.534
▁kup	-10.5341
▁svoj	-10.5341
▁ד	-10.5343
ladi	-10.5344
nap	-10.5347
יק	-10.5348
▁کار	-10.5348
▁viet	-10.535
▁PS	-10.535
:13	-10.535
১	-10.5351
ես	-10.5353
▁پی	-10.5353
nl	-10.5354
▁vår	-10.5356
ř	-10.5359
实	-10.536
lē	-10.536
duk	-10.5366
▁13.	-10.5368
תי	-10.5369
тра	-10.5371
dica	-10.5374
יר	-10.5375
04.	-10.5376
▁prin	-10.5379
▁bay	-10.5379
800	-10.538
ifa	-10.5383
▁Stra	-10.5385
tés	-10.5388
›	-10.539
OK	-10.539
▁transport	-10.5392
▁cam	-10.5394
▁ví	-10.5394
ουν	-10.5395
ნა	-10.5396
▁gener	-10.5397
iện	-10.5397
▁Бо	-10.5398
▁köz	-10.5399
HE	-10.5399
▁wil	-10.5402
성	-10.5402
».	-10.5402
ـ	-10.5403
▁live	-10.5403
ړ	-10.5407
▁anche	-10.5407
lou	-10.5408
ott	-10.5409
▁delle	-10.541
手	-10.5411
▁DI	-10.5412
arna	-10.5415
:01	-10.5419
pozi	-10.5419
▁προ	-10.542
▁Kra	-10.5422
▁́	-10.5424
物	-10.5426
▁vida	-10.543
▁mula	-10.543
▁chu	-10.5434
انی	-10.5435
ệ	-10.5437
gina	-10.5437
ας	-10.5441
ым	-10.5445
ған	-10.5448
zim	-10.545
ggi	-10.5451
正	-10.5452
▁ша	-10.5458
pra	-10.5458
mada	-10.5458
▁USA	-10.5463
ību	-10.5464
道	-10.5464
▁49	-10.5467
3%	-10.5468
/4	-10.547
▁DO	-10.5471
tzea	-10.5472
uit	-10.5478
kuu	-10.5481
oso	-10.5481
ayo	-10.5486
ائی	-10.5488
maa	-10.5488
maak	-10.5489
ligi	-10.5493
ρο	-10.5496
uru	-10.5497
ા	-10.5499
ње	-10.5499
І	-10.5504
-12	-10.5505
▁9.	-10.5505
hé	-10.551
▁amin	-10.551
şi	-10.5511
▁hindi	-10.5511
ttu	-10.5512
uff	-10.5514
yer	-10.5515
▁zł	-10.5516
site	-10.5517
ик	-10.5519
iro	-10.5522
etti	-10.5522
ont	-10.5522
:17	-10.5523
▁bila	-10.5526
▁бе	-10.5528
▁Europa	-10.553
▁16.	-10.5532
uc	-10.5533
ủ	-10.5535
dit	-10.5535
kong	-10.5537
▁persona	-10.554
Ш	-10.5541
şı	-10.5541
▁High	-10.5541
▁ಪ	-10.5543
So	-10.5543
:02	-10.5547
▁sho	-10.5547
wis	-10.5549
▁seperti	-10.555
ೊ	-10.5554
push	-10.5556
에서	-10.5556
▁apo	-10.5556
ència	-10.5561
▁harga	-10.5561
ные	-10.5565
iek	-10.5569
▁good	-10.557
gem	-10.5571
mata	-10.5572
▁Vel	-10.5573
▁pode	-10.5574
▁duke	-10.5574
▁tha	-10.5575
▁day	-10.5575
▁Gri	-10.5576
▁SP	-10.5577
▁pare	-10.5579
▁Ren	-10.5579
Image	-10.558
ivi	-10.558
ative	-10.5581
▁Ty	-10.5584
ї	-10.5588
tuur	-10.5589
kie	-10.5589
GI	-10.559
▁47	-10.559
▁gara	-10.559
:19	-10.559
vista	-10.559
ም	-10.5592
▁Vy	-10.5592
ische	-10.5594
▁todo	-10.5595
շ	-10.5599
구	-10.5599
▁yaş	-10.5606
▁March	-10.5606
tiv	-10.5608
城	-10.5608
mbang	-10.561
بو	-10.561
usa	-10.561
▁ли	-10.5613
kku	-10.5614
▁ר	-10.5615
▁especial	-10.5617
▁بی	-10.5618
▁sel	-10.5619
▁klub	-10.5621
вы	-10.5627
▁ક	-10.5628
▁shu	-10.5633
ης	-10.5636
▁mini	-10.5638
core	-10.5639
ense	-10.5642
ّ	-10.5643
ഹ	-10.5649
▁хо	-10.565
▁tā	-10.565
punkt	-10.5654
guna	-10.5655
jin	-10.5655
▁DA	-10.5661
iyor	-10.5662
Ф	-10.5662
ив	-10.5663
uja	-10.5665
ND	-10.5665
ektor	-10.5666
ները	-10.5666
ис	-10.5667
yê	-10.5668
▁West	-10.5668
▁py	-10.5669
ίν	-10.567
īga	-10.5671
larını	-10.5671
▁grande	-10.5673
▁pus	-10.5674
ív	-10.5674
▁pirm	-10.5675
''	-10.5675
▁nhà	-10.5675
isme	-10.5676
fun	-10.5678
ಜ	-10.5679
▁ár	-10.568
▁Bru	-10.568
아	-10.568
▁Uni	-10.5682
("	-10.5683
▁Club	-10.5683
adas	-10.5685
szer	-10.5685
-03	-10.5687
itä	-10.5688
▁pang	-10.5688
▁Në	-10.5688
қа	-10.5691
▁15.	-10.5692
:23	-10.5695
▁Vis	-10.5696
ਵ	-10.5697
ient	-10.5697
iert	-10.5698
ния	-10.5699
▁khi	-10.57
▁VI	-10.5701
AY	-10.5703
rü	-10.5707
MI	-10.571
▁Blue	-10.571
▁ط	-10.5712
▁Ken	-10.5713
▁acc	-10.5714
:03	-10.5714
▁Trans	-10.5715
ճ	-10.5716
try	-10.5716
▁gör	-10.5718
rot	-10.5721
DO	-10.5721
טי	-10.5726
Di	-10.5729
▁klas	-10.5729
Ta	-10.573
OM	-10.5733
▁მ	-10.5734
gine	-10.5739
▁Sant	-10.5741
▁Pin	-10.5741
ám	-10.5741
ખ	-10.5742
рат	-10.5746
▁face	-10.5748
owa	-10.575
▁cy	-10.5751
▁pero	-10.5752
▁student	-10.5753
amba	-10.5754
ffe	-10.5754
▁Media	-10.5754
લા	-10.5755
▁mara	-10.5764
:22	-10.5765
vision	-10.5767
드	-10.5769
sid	-10.5771
slag	-10.5772
▁ry	-10.5772
▁sar	-10.5775
▁dá	-10.5777
ል	-10.5779
▁svar	-10.5779
lė	-10.5779
ై	-10.5781
▁φ	-10.5781
▁veel	-10.5782
▁när	-10.5782
ስ	-10.5784
imiz	-10.5785
▁mad	-10.5786
▁nova	-10.5789
ҷ	-10.5789
:42	-10.579
ਸ਼	-10.5793
▁ку	-10.5795
▁ம	-10.5796
bnb	-10.5796
▁க	-10.5797
▁urte	-10.5797
▁Krist	-10.5798
▁či	-10.58
mic	-10.58
报	-10.5801
Pre	-10.5802
kop	-10.5803
▁수	-10.5803
▁Autor	-10.5806
▁Nie	-10.5806
:16	-10.5806
▁từ	-10.5806
▁fund	-10.5807
rav	-10.5807
AAAAAAAAAAAAAAAA	-10.5811
3)	-10.5813
ತಿ	-10.5813
ో	-10.5814
ٹی	-10.5815
▁18.	-10.5819
▁World	-10.5822
ppen	-10.5823
tje	-10.5823
▁को	-10.5823
TU	-10.5825
burg	-10.5825
▁bit	-10.5828
inda	-10.583
▁Па	-10.583
▁sort	-10.583
tà	-10.5831
▁छ	-10.5832
-07-	-10.5833
PO	-10.5835
▁registr	-10.5835
▁Kč	-10.5836
ANA	-10.5837
Bu	-10.584
cə	-10.5844
וח	-10.5846
02.	-10.5849
▁edo	-10.5852
▁anak	-10.5852
▁Franc	-10.5853
▁fal	-10.5853
kala	-10.5853
ches	-10.5857
▁Cel	-10.5858
inės	-10.5861
άρ	-10.5861
pul	-10.5869
mula	-10.5869
▁Nr	-10.5872
Su	-10.5874
ının	-10.5877
▁Paul	-10.5886
▁Jun	-10.5887
GU	-10.5889
idades	-10.5891
可	-10.5892
通	-10.5892
▁love	-10.5894
▁Hol	-10.5895
▁الس	-10.5895
▁Kre	-10.5899
平	-10.59
▁ça	-10.5901
▁kü	-10.5902
તા	-10.5903
▁જ	-10.5905
erte	-10.5906
ிய	-10.5907
▁sə	-10.5907
▁17.	-10.5908
zat	-10.5908
ધ	-10.5909
პ	-10.5912
oro	-10.5915
▁bus	-10.5917
ී	-10.5919
:24	-10.592
ông	-10.5924
medi	-10.5928
SP	-10.5931
mont	-10.5932
ộ	-10.5934
്യ	-10.5934
ಚ	-10.5935
??	-10.5935
트	-10.5938
▁Bag	-10.594
:43	-10.5944
~	-10.5945
ką	-10.5946
abi	-10.5951
▁ara	-10.5951
:06	-10.5952
dığı	-10.5953
彩	-10.5953
▁تا	-10.5954
:59	-10.5955
סי	-10.5955
তা	-10.5958
▁prima	-10.5958
▁edil	-10.5959
Hotel	-10.596
ZA	-10.5963
dade	-10.5963
▁lai	-10.5964
▁جا	-10.5964
ðar	-10.5967
▁sana	-10.5967
:26	-10.5968
rank	-10.5968
:58	-10.5972
▁Bol	-10.5972
Ν	-10.5975
▁kontakt	-10.5976
ук	-10.5976
ző	-10.5978
元	-10.5979
▁Santa	-10.5979
▁tru	-10.5979
▁well	-10.598
▁hak	-10.598
നി	-10.5981
gui	-10.5982
:51	-10.5982
▁ह	-10.5983
▁normal	-10.5983
:28	-10.5984
shme	-10.5986
:57	-10.5986
յ	-10.5986
▁views	-10.5987
lərin	-10.5987
▁tun	-10.5988
▁Ме	-10.599
יו	-10.599
▁ф	-10.5991
mond	-10.5992
:29	-10.5994
▁več	-10.5994
江	-10.5994
▁syn	-10.5997
▁Ram	-10.6003
▁edi	-10.6004
▁Og	-10.6004
riz	-10.6005
char	-10.6007
▁ام	-10.6007
▁مت	-10.601
▁hai	-10.6013
ени	-10.6013
кт	-10.6014
▁ਅ	-10.6016
ıl	-10.6016
ק	-10.6018
وز	-10.6019
▁Das	-10.6019
▁sunt	-10.602
:31	-10.6023
▁Я	-10.6023
PL	-10.6024
▁AL	-10.6024
mā	-10.6031
Č	-10.6032
iyo	-10.6034
Ի	-10.6036
লা	-10.6036
▁kri	-10.6037
нда	-10.6037
ഗ	-10.6038
kė	-10.6038
ום	-10.6038
scar	-10.6042
rö	-10.6042
kwa	-10.6043
tch	-10.6044
▁tema	-10.6045
0,00	-10.6046
▁uchun	-10.6046
non	-10.6048
lung	-10.6049
:39	-10.6051
ұ	-10.6053
:04	-10.6053
ژ	-10.6054
<	-10.6054
وس	-10.6055
sus	-10.6056
થ	-10.6056
▁barn	-10.6056
Com	-10.6056
cción	-10.6057
:27	-10.6057
గా	-10.6058
▁aquest	-10.6059
▁roku	-10.6059
▁selv	-10.606
ič	-10.6062
Con	-10.6063
▁NO	-10.6063
cé	-10.6065
ngu	-10.6065
▁aug	-10.6065
▁osa	-10.6066
اح	-10.6068
▁premi	-10.607
▁वि	-10.6071
▁extra	-10.6071
▁Γ	-10.6072
:33	-10.6072
▁máis	-10.6073
▁برای	-10.6077
:32	-10.6078
entes	-10.608
bak	-10.6081
ლი	-10.6084
▁Est	-10.6084
зо	-10.6085
▁bul	-10.6085
▁mel	-10.6089
Ho	-10.6089
she	-10.6092
hang	-10.6093
▁ఆ	-10.6094
▁gebruik	-10.6095
る	-10.6096
▁Los	-10.6097
▁main	-10.6101
taa	-10.6102
▁ও	-10.6104
▁Tour	-10.6109
▁મ	-10.6111
-9	-10.6113
▁pay	-10.6114
▁súa	-10.6114
ική	-10.6116
нь	-10.6117
ಹ	-10.6117
▁special	-10.6119
zul	-10.612
▁With	-10.6121
▁control	-10.6121
▁programa	-10.6126
▁saj	-10.6128
▁mala	-10.6128
ڑ	-10.6131
り	-10.6131
▁Xa	-10.6132
:08	-10.6133
lığı	-10.6134
tid	-10.6135
▁partner	-10.6137
▁2005	-10.614
house	-10.6142
جه	-10.6144
:38	-10.6144
▁bh	-10.6146
▁Vin	-10.6147
hla	-10.6149
ól	-10.6151
▁(0)	-10.6153
▁vez	-10.6153
DS	-10.6153
▁kg	-10.6155
:52	-10.6159
将	-10.6162
▁క	-10.6163
rup	-10.6165
nnen	-10.6167
rta	-10.6171
▁Apple	-10.6176
▁σ	-10.6176
فا	-10.6177
ého	-10.6179
▁kai	-10.618
esse	-10.6183
borg	-10.6183
▁eu	-10.6185
▁wir	-10.6186
hand	-10.6187
ría	-10.6194
001	-10.6197
sión	-10.6199
建	-10.62
:37	-10.6201
inių	-10.6202
Ñ	-10.6204
այ	-10.6207
αρ	-10.6208
/2	-10.6208
も	-10.6209
رب	-10.6209
და	-10.621
▁York	-10.6211
ਾ	-10.6211
ιστ	-10.6211
ться	-10.6212
tze	-10.6217
ద	-10.6218
▁even	-10.622
▁here	-10.6221
▁ਮ	-10.6223
▁class	-10.6223
tím	-10.6224
rac	-10.6224
ਣ	-10.6225
kata	-10.6225
:36	-10.6226
ို	-10.6226
▁Casino	-10.6227
ып	-10.6231
▁biz	-10.6232
chod	-10.6233
商	-10.6239
ích	-10.6242
ös	-10.6243
▁sum	-10.6245
öö	-10.6246
:09	-10.6247
langan	-10.6248
▁Casa	-10.6248
ρι	-10.6251
▁Read	-10.6253
▁skr	-10.6255
zd	-10.6255
length	-10.6257
mad	-10.6258
:44	-10.6259
次	-10.6259
▁kam	-10.626
▁Full	-10.6264
▁ef	-10.6271
зе	-10.6272
ohet	-10.6273
ും	-10.6274
▁into	-10.6274
▁Product	-10.6277
lg	-10.6278
▁nov	-10.6278
fla	-10.6279
里	-10.628
آ	-10.6282
▁الب	-10.6282
არ	-10.6284
▁kanë	-10.6285
ningar	-10.6285
NC	-10.6286
▁Fin	-10.6292
▁Со	-10.6294
:46	-10.6295
ไ	-10.6296
EP	-10.6296
kri	-10.6298
fek	-10.6301
▁aby	-10.6303
chten	-10.6308
▁Pag	-10.6308
▁comment	-10.631
▁kata	-10.6313
ను	-10.6315
▁July	-10.6317
▁multi	-10.6319
ټ	-10.6322
▁visit	-10.6323
:53	-10.6326
toria	-10.6327
▁them	-10.6328
tage	-10.633
▁App	-10.6331
వా	-10.6332
▁mà	-10.6332
bili	-10.6337
তে	-10.6343
ಡ	-10.6343
уч	-10.6343
vic	-10.6344
ագ	-10.6348
▁Бу	-10.6353
▁ST	-10.6354
ασ	-10.6354
UP	-10.6355
رم	-10.6357
▁White	-10.6357
اص	-10.6359
IK	-10.636
টি	-10.636
ject	-10.636
▁mere	-10.6361
eria	-10.6362
вод	-10.6365
αγ	-10.6366
▁there	-10.6367
sub	-10.6371
publik	-10.6371
▁exist	-10.6374
▁cum	-10.6374
jë	-10.6374
BU	-10.6377
gno	-10.6378
rp	-10.6379
ικό	-10.6383
:47	-10.6383
ู	-10.6384
▁Villa	-10.6385
ίας	-10.6387
ship	-10.6387
▁ми	-10.6388
:48	-10.6388
▁տ	-10.6389
্য	-10.6391
hti	-10.6392
▁Fran	-10.6393
▁Ut	-10.6397
▁hàng	-10.64
វ	-10.64
pic	-10.6402
▁kategori	-10.6403
▁י	-10.6404
▁7,	-10.6405
arı	-10.6409
▁Allah	-10.6409
cks	-10.6412
▁nur	-10.6415
ស្	-10.6416
▁Mü	-10.6418
▁histori	-10.6422
▁85	-10.6422
▁sistema	-10.6423
▁የ	-10.6424
board	-10.6424
▁Kul	-10.6424
ение	-10.6426
elen	-10.6427
ਜ	-10.6428
▁Net	-10.6429
ế	-10.643
در	-10.6431
▁τους	-10.6431
ած	-10.6432
ನಿ	-10.6432
▁52	-10.6435
:41	-10.6437
cak	-10.6437
ати	-10.6441
▁semua	-10.6441
▁gir	-10.6442
uhan	-10.6443
AU	-10.6445
חי	-10.6447
να	-10.6447
ог	-10.645
нг	-10.6451
ੁ	-10.6454
▁PA	-10.6454
▁twee	-10.6455
ister	-10.6455
CC	-10.6456
:34	-10.6457
.03.20	-10.6459
▁qil	-10.6461
klad	-10.6462
▁hanya	-10.6463
▁digital	-10.6463
għ	-10.6467
และ	-10.6467
گر	-10.6468
▁TO	-10.6468
▁kale	-10.6471
VO	-10.6473
bot	-10.6473
إ	-10.6474
ATA	-10.6474
tou	-10.6476
фи	-10.6476
উ	-10.6477
bis	-10.6477
hair	-10.6478
▁June	-10.6479
ppi	-10.6479
▁YA	-10.6479
ojë	-10.6479
cca	-10.6479
▁Ú	-10.648
▁Не	-10.648
rian	-10.6484
▁Hen	-10.6485
:07	-10.6486
▁są	-10.6488
▁ја	-10.649
isse	-10.649
▁prop	-10.649
pdf	-10.649
ffer	-10.6493
▁Ре	-10.6494
▁Vor	-10.6494
口	-10.6497
-20	-10.6497
့	-10.6499
▁ned	-10.65
ildi	-10.6503
ecek	-10.6505
HU	-10.6511
von	-10.6512
AF	-10.6512
ақ	-10.6513
▁rok	-10.6514
▁pré	-10.6514
▁Fer	-10.6515
II	-10.6516
ieren	-10.6519
▁January	-10.6519
▁If	-10.652
θε	-10.6526
▁tren	-10.6528
Τ	-10.6528
ders	-10.6529
▁fond	-10.6529
Κ	-10.6532
klu	-10.6533
ава	-10.6534
▁port	-10.6535
▁weer	-10.6536
동	-10.6538
itz	-10.6539
:54	-10.654
▁event	-10.6542
ής	-10.6542
▁presenta	-10.6542
function	-10.6543
щ	-10.6543
aman	-10.6545
ност	-10.6545
▁Jeg	-10.6547
▁ак	-10.6549
dhi	-10.655
ත	-10.6552
pä	-10.6554
▁week	-10.6555
stic	-10.6559
▁siya	-10.6561
▁Cla	-10.6561
ining	-10.6561
▁Gel	-10.6563
:56	-10.6564
▁rela	-10.6566
▁empresa	-10.6566
katu	-10.6566
Id	-10.6568
fil	-10.6569
▁Maria	-10.657
PR	-10.657
oš	-10.6571
▁mp	-10.6571
ijo	-10.6572
台	-10.6573
▁cat	-10.6574
וק	-10.6575
▁selle	-10.6575
▁wordt	-10.6575
▁Mun	-10.6577
წ	-10.6578
▁کم	-10.6578
▁Dal	-10.6579
▁וה	-10.6579
▁بھی	-10.6581
▁ս	-10.6583
色	-10.6584
▁20.	-10.6586
פר	-10.6589
▁Twitter	-10.6593
▁56	-10.6594
▁desde	-10.6597
:49	-10.6599
你	-10.6603
▁ant	-10.6607
ric	-10.6609
▁6,	-10.6609
фе	-10.6609
год	-10.6611
meni	-10.6612
▁refer	-10.6614
▁επι	-10.6615
▁só	-10.6618
快	-10.6619
▁த	-10.6625
lish	-10.6626
▁House	-10.6626
žia	-10.6626
стра	-10.6628
▁vill	-10.6628
▁zum	-10.6629
tech	-10.6629
▁Char	-10.663
lerin	-10.6631
소	-10.6633
-04-	-10.6633
▁hur	-10.6634
▁Universit	-10.6634
BE	-10.6635
▁Program	-10.6637
anja	-10.6639
Σ	-10.6639
kken	-10.6642
elli	-10.6644
cut	-10.6645
▁sempre	-10.6646
rer	-10.665
bú	-10.6653
▁gia	-10.6657
HI	-10.6658
▁BE	-10.6661
▁nei	-10.6663
▁тур	-10.6664
با	-10.6665
oval	-10.6667
▁politik	-10.6668
ном	-10.667
▁cl	-10.6672
בע	-10.6672
▁Fre	-10.6674
ො	-10.6677
rig	-10.6677
▁çok	-10.6678
▁lokal	-10.6679
으로	-10.668
▁International	-10.6684
ек	-10.6685
▁کرد	-10.6685
ayı	-10.6686
atori	-10.6688
▁hele	-10.6689
▁zaman	-10.6689
enzi	-10.6691
üü	-10.6691
▁max	-10.6692
mbro	-10.6694
2009	-10.6694
indi	-10.6694
ազ	-10.6694
يت	-10.6695
had	-10.6698
▁ima	-10.6698
▁Ana	-10.6707
ερ	-10.6707
▁ди	-10.6712
лер	-10.6716
ink	-10.6719
▁vara	-10.6719
▁people	-10.6721
یس	-10.6722
요	-10.6724
▁Just	-10.6724
شی	-10.6725
uoja	-10.6725
ან	-10.6725
주	-10.6726
tv	-10.6726
▁said	-10.6726
▁এ	-10.6727
▁mah	-10.6727
进	-10.6728
▁dhi	-10.6728
▁State	-10.6728
mış	-10.6728
▁mie	-10.6729
kül	-10.6729
▁open	-10.6729
▁invest	-10.673
▁news	-10.673
ổ	-10.6734
▁Ara	-10.6735
dov	-10.6737
uste	-10.6738
رد	-10.6738
قا	-10.6739
▁Jak	-10.6745
Jo	-10.6746
신	-10.6748
ús	-10.6749
BR	-10.6749
ünk	-10.6749
নে	-10.6751
sema	-10.6751
ança	-10.6751
kii	-10.6753
יט	-10.6753
last	-10.6754
▁sim	-10.6754
fund	-10.6754
хо	-10.6756
اش	-10.6757
娱乐	-10.6757
▁Day	-10.6757
▁че	-10.6762
ello	-10.6762
▁todos	-10.6762
еш	-10.6763
င္း	-10.6765
位	-10.6765
istä	-10.6767
▁team	-10.6767
▁ora	-10.677
kh	-10.6772
ulan	-10.6775
▁seus	-10.6775
κα	-10.6777
ву	-10.678
പ	-10.6783
čių	-10.6783
▁USB	-10.6784
▁δια	-10.6784
ļu	-10.6784
▁Som	-10.6785
yə	-10.6787
ós	-10.6787
sun	-10.6787
kite	-10.6788
ние	-10.6788
בת	-10.6789
▁element	-10.6796
ukan	-10.6798
▁USD	-10.6799
▁ম	-10.68
UB	-10.68
στ	-10.68
▁boleh	-10.6802
цы	-10.6805
qua	-10.6805
थ	-10.681
▁Flor	-10.681
▁բ	-10.6812
produ	-10.6815
▁(5	-10.6816
lot	-10.6819
▁Ν	-10.6819
qe	-10.6819
ؤ	-10.6821
niz	-10.6822
ľa	-10.6824
▁back	-10.6827
ating	-10.6831
ீ	-10.6832
кри	-10.6832
cji	-10.6835
ēr	-10.6835
▁↑	-10.6836
iran	-10.6836
▁Mir	-10.6836
vest	-10.6837
гол	-10.6837
ە	-10.684
face	-10.6841
eksi	-10.6841
▁54	-10.6842
stig	-10.6844
▁غ	-10.6845
ull	-10.6845
▁ന	-10.6847
tere	-10.6851
▁berri	-10.6853
fir	-10.6854
信	-10.6854
▁tau	-10.6855
▁ప్ర	-10.6858
▁Maj	-10.6859
▁tom	-10.6861
▁spre	-10.6863
sio	-10.6864
▁Kap	-10.6865
▁David	-10.6866
▁ఇ	-10.6866
▁tab	-10.6867
wing	-10.6867
▁ай	-10.6868
erna	-10.6869
▁кө	-10.687
ана	-10.6872
മാ	-10.6872
▁arti	-10.6872
▁Light	-10.6873
▁Plat	-10.6876
mək	-10.6876
ப்ப	-10.6877
▁October	-10.6877
ੂ	-10.6879
▁palibot	-10.6879
意	-10.688
COM	-10.688
▁bla	-10.688
ked	-10.6883
டி	-10.6884
▁Last	-10.6886
sent	-10.6886
centr	-10.6887
يو	-10.6889
рам	-10.689
phi	-10.689
jd	-10.6891
æn	-10.6892
ļa	-10.6894
▁Mod	-10.6899
kara	-10.6899
▁eh	-10.69
ே	-10.69
ministr	-10.6905
▁ज	-10.6906
▁Motor	-10.6906
▁кар	-10.6908
ód	-10.6911
▁kwenye	-10.6911
נת	-10.6915
▁има	-10.6915
▁years	-10.6916
ನ್	-10.6917
▁Ч	-10.6918
ature	-10.6927
版	-10.693
▁lain	-10.6933
wart	-10.6933
ีย	-10.6934
oti	-10.6937
llis	-10.6941
▁jam	-10.6942
▁Comments	-10.6942
▁myös	-10.6942
ида	-10.6943
qo	-10.6944
iche	-10.6945
ane	-10.6948
ස්	-10.6948
maq	-10.695
ಕ್	-10.695
blog	-10.6952
▁CA	-10.6953
icht	-10.6953
čka	-10.6954
▁Esta	-10.6955
liv	-10.6956
마	-10.6958
▁give	-10.6959
wood	-10.6959
ય	-10.6959
්	-10.6961
ზ	-10.6962
Ne	-10.6963
aŭ	-10.6964
گی	-10.6965
▁were	-10.6967
sik	-10.6969
▁MI	-10.6975
čia	-10.6976
▁natural	-10.698
not	-10.6981
пла	-10.6981
dang	-10.6982
ख	-10.6984
ோ	-10.6984
▁hä	-10.6986
▁рас	-10.6988
▁EN	-10.6991
аж	-10.6998
rou	-10.6999
tima	-10.7
Ó	-10.7002
▁vas	-10.7002
лов	-10.7004
ddi	-10.7004
tör	-10.7004
مر	-10.7009
roll	-10.701
ender	-10.701
stin	-10.7013
制	-10.7014
fü	-10.7014
▁sü	-10.7016
▁ایک	-10.7016
▁anos	-10.7016
क्	-10.7017
gó	-10.7018
uran	-10.702
aux	-10.7021
—	-10.7022
ნი	-10.7022
▁instal	-10.7022
){	-10.7023
cell	-10.7024
ứ	-10.703
god	-10.7031
▁svet	-10.7032
▁απο	-10.7032
ιά	-10.7033
פו	-10.7034
▁Wal	-10.7035
رف	-10.7035
▁Fil	-10.7038
▁sẽ	-10.704
ជ	-10.704
▁prote	-10.7041
pia	-10.7042
دو	-10.7042
öt	-10.7044
▁ہے۔	-10.7045
▁الإ	-10.7045
verk	-10.7046
▁کیا	-10.7046
ures	-10.7049
▁sä	-10.7049
tır	-10.7049
><	-10.7049
drag	-10.7051
▁(4)	-10.7052
▁”	-10.7052
화	-10.7052
kam	-10.7053
ilor	-10.7054
ahkan	-10.7055
rib	-10.7056
▁Ez	-10.7056
▁600	-10.7057
ૂ	-10.7064
路	-10.7066
▁pasa	-10.7066
▁Gir	-10.7067
ular	-10.7068
Η	-10.7069
די	-10.7069
್ಯ	-10.707
نس	-10.707
▁То	-10.7071
kki	-10.7071
мет	-10.7071
форм	-10.7073
hana	-10.7073
tą	-10.7074
▁tuo	-10.7077
وه	-10.7077
pag	-10.7077
יים	-10.7079
ி	-10.7079
יות	-10.7082
▁Out	-10.7082
რე	-10.7084
uki	-10.7084
▁الق	-10.7085
▁Lin	-10.7085
《	-10.7087
▁provide	-10.7087
▁escort	-10.7087
▁MP	-10.709
wij	-10.709
ungs	-10.7092
cola	-10.7094
▁Cab	-10.7096
మా	-10.71
PT	-10.71
ງ	-10.7109
øk	-10.711
ები	-10.7113
bile	-10.7113
vier	-10.7114
ψ	-10.7115
UK	-10.7115
240	-10.7118
▁19.	-10.7118
дин	-10.7119
▁ہیں	-10.712
MAN	-10.7125
۲	-10.7126
▁zona	-10.7128
შ	-10.7129
▁hefur	-10.7129
KE	-10.713
▁về	-10.7131
etako	-10.7132
אל	-10.7135
▁Wy	-10.7135
》	-10.7135
▁വ	-10.7138
ugu	-10.7139
▁bien	-10.714
kı	-10.7142
bad	-10.7144
▁ම	-10.7146
يم	-10.7149
▁بعد	-10.7149
રા	-10.7154
NY	-10.7154
ots	-10.7155
lais	-10.7155
▁uku	-10.7155
▁marca	-10.7157
▁Reg	-10.716
▁cur	-10.716
mag	-10.716
իկ	-10.7161
▁2018,	-10.7163
▁Cur	-10.7163
ной	-10.7164
ыш	-10.7164
▁Kr	-10.7164
VA	-10.7166
img	-10.7166
רים	-10.7167
▁آن	-10.7172
▁Kir	-10.7173
▁Ši	-10.7174
▁baru	-10.7175
▁Jag	-10.7177
fur	-10.7178
▁vit	-10.7184
уз	-10.7186
dina	-10.7187
cept	-10.7189
ēs	-10.7189
hotel	-10.7189
▁συν	-10.7191
λι	-10.7191
inė	-10.7192
mesi	-10.7193
dl	-10.7193
▁play	-10.7196
ome	-10.7198
ník	-10.7199
▁oraz	-10.72
▁caso	-10.7201
цен	-10.7201
αλ	-10.7202
स्	-10.7202
owych	-10.7202
▁stran	-10.7203
кон	-10.7205
ър	-10.7207
่า	-10.721
▁Ass	-10.7211
▁چې	-10.7211
▁Nord	-10.7212
bek	-10.7214
ෙ	-10.7214
بت	-10.7216
ión	-10.7222
ός	-10.7224
北	-10.7224
ಣ	-10.7224
Ä	-10.7225
gne	-10.7226
▁що	-10.723
ây	-10.7231
ბ	-10.7232
▁Multi	-10.7232
vita	-10.7233
▁Data	-10.7233
▁tras	-10.7234
▁Agen	-10.7234
▁nahi	-10.7234
▁spi	-10.7236
tual	-10.7237
חו	-10.7238
shin	-10.7239
▁dokument	-10.7239
▁hebben	-10.7244
重	-10.7244
▁Power	-10.7244
bab	-10.7244
unta	-10.7246
▁tradi	-10.7249
stå	-10.7249
/5	-10.7251
kamer	-10.7252
கு	-10.7253
▁këtë	-10.7254
▁only	-10.7254
▁ги	-10.7255
анд	-10.7256
ism	-10.7256
ıb	-10.7256
INA	-10.7257
▁put	-10.7257
्या	-10.7259
JE	-10.726
ions	-10.7264
ини	-10.7265
uten	-10.7266
jú	-10.7268
दा	-10.7268
▁jul	-10.727
blo	-10.727
▁tag	-10.727
▁này	-10.7271
кен	-10.7273
▁spr	-10.7274
▁usa	-10.7274
اً	-10.7275
зы	-10.7276
▁nje	-10.7282
eerd	-10.7283
భ	-10.7283
็	-10.7285
而	-10.7286
▁sér	-10.7291
hra	-10.7291
tuar	-10.7292
▁type	-10.7292
▁pelo	-10.7292
▁tij	-10.7294
ռ	-10.7295
Sh	-10.7296
иб	-10.7297
▁vä	-10.7298
▁Cy	-10.7298
▁fla	-10.73
ләр	-10.73
ების	-10.7301
mod	-10.7302
▁Spe	-10.7303
مه	-10.7303
▁jako	-10.7303
▁ide	-10.7304
anı	-10.7305
▁Til	-10.7305
imento	-10.7306
▁21.	-10.7307
▁MB	-10.7308
plica	-10.7309
isht	-10.7309
TH	-10.731
0000	-10.731
▁loc	-10.7311
▁spot	-10.7313
value	-10.7314
▁Да	-10.7314
ੈ	-10.7315
▁cena	-10.7317
▁Ал	-10.7317
▁haar	-10.7318
bij	-10.7318
cken	-10.7319
cla	-10.7322
gul	-10.7323
El	-10.7324
த்த	-10.7324
laş	-10.7325
нар	-10.7326
ades	-10.7327
▁karena	-10.7327
CD	-10.733
ać	-10.7331
/3	-10.7332
itate	-10.7332
UA	-10.7332
ဆ	-10.7333
gol	-10.7333
▁water	-10.7334
veg	-10.7335
▁nebo	-10.7337
‚	-10.7338
út	-10.734
▁motiv	-10.7342
usu	-10.7343
▁úr	-10.7345
ðu	-10.7346
lī	-10.7347
▁gaan	-10.735
ለ	-10.7353
ستان	-10.7353
▁hos	-10.7355
▁tap	-10.7356
▁Ball	-10.7356
яр	-10.7359
unci	-10.736
HD	-10.7361
лат	-10.7363
łu	-10.7364
ვა	-10.7364
אי	-10.7364
▁olun	-10.7365
mara	-10.7366
лет	-10.7367
field	-10.7372
▁խ	-10.7373
ес	-10.7374
më	-10.7376
lán	-10.7377
▁andere	-10.7377
▁gri	-10.7378
▁Beach	-10.7379
тен	-10.7379
회	-10.738
▁India	-10.738
AV	-10.7382
▁sing	-10.7382
件	-10.7383
▁бай	-10.7383
▁Tel	-10.7384
真	-10.7385
▁nev	-10.7385
▁Luc	-10.7389
▁through	-10.7389
2%	-10.7394
nir	-10.7395
▁sein	-10.7396
▁href	-10.7397
BC	-10.7398
bles	-10.74
▁þar	-10.7402
сын	-10.7404
lj	-10.7405
▁tim	-10.7406
orna	-10.7407
150	-10.7408
avo	-10.741
▁הש	-10.741
▁lui	-10.7411
ým	-10.7411
▁τις	-10.7412
▁mir	-10.7412
iyyət	-10.7413
NS	-10.7414
▁admin	-10.7415
▁novo	-10.7415
▁page	-10.7415
uden	-10.7416
пе	-10.7417
čne	-10.7419
▁Saint	-10.7419
/1	-10.742
ич	-10.742
ók	-10.742
vær	-10.7424
vou	-10.7426
oba	-10.7427
რი	-10.7427
ተ	-10.743
▁إلى	-10.743
EE	-10.7433
szy	-10.7434
▁Jul	-10.7434
haus	-10.7435
sted	-10.7438
▁BO	-10.7438
ất	-10.7438
▁czy	-10.744
▁SO	-10.744
gian	-10.7441
ových	-10.7442
फ	-10.7443
EST	-10.7445
▁Non	-10.7446
▁გა	-10.7446
ជា	-10.7448
lid	-10.7449
aro	-10.7452
▁ந	-10.7453
▁Β	-10.7455
▁sav	-10.7457
ई	-10.7458
当	-10.7459
خت	-10.7463
▁Madrid	-10.7466
ché	-10.7472
mobil	-10.7474
▁blir	-10.7474
▁প	-10.7476
live	-10.7479
▁bulan	-10.7479
ઈ	-10.7481
▁đến	-10.7481
▁votre	-10.7482
▁review	-10.7483
▁pret	-10.7483
“.	-10.7484
ват	-10.7485
มี	-10.7485
▁siis	-10.7485
▁ön	-10.7487
▁fy	-10.7488
▁£	-10.7488
DC	-10.7489
▁ਬ	-10.7492
؟	-10.7492
[1]	-10.7498
ന്‍	-10.7501
പ്പ	-10.7501
女	-10.7501
▁час	-10.7502
ους	-10.7502
ным	-10.7504
tár	-10.7505
▁ਦੀ	-10.7506
fal	-10.7511
arka	-10.7512
▁very	-10.7513
աղ	-10.7515
reich	-10.7518
bru	-10.7519
תו	-10.7522
▁CON	-10.7522
ெ	-10.7524
лык	-10.7524
▁Sab	-10.7527
▁kultur	-10.753
▁Kam	-10.753
ക്	-10.753
kiwa	-10.7531
స	-10.7531
shëm	-10.7531
リ	-10.7533
ได้	-10.7534
▁BA	-10.7535
եմ	-10.7536
▁53	-10.7536
ສ	-10.754
لة	-10.7541
ért	-10.7541
Ρ	-10.7543
ιν	-10.7543
రు	-10.7544
▁Din	-10.7544
ακ	-10.7545
▁기	-10.7546
▁ස	-10.7546
Υ	-10.7546
源	-10.7552
Α	-10.7553
हा	-10.7554
▁administra	-10.7557
比	-10.7558
▁ndi	-10.756
▁خبر	-10.7563
cep	-10.7563
zó	-10.7563
▁vse	-10.7564
buk	-10.7566
▁second	-10.7568
fall	-10.7569
▁ES	-10.7569
111	-10.7571
▁Dom	-10.7571
4%	-10.7571
900	-10.7571
ид	-10.7572
▁izango	-10.7572
▁band	-10.7572
hara	-10.7573
▁sek	-10.7575
▁muut	-10.7577
HO	-10.7577
тел	-10.7578
eix	-10.7578
▁līdz	-10.7579
▁hiyo	-10.7579
▁merk	-10.7582
llä	-10.7583
دن	-10.7586
▁Part	-10.7586
▁Fr	-10.7587
lıq	-10.759
▁huo	-10.759
▁làm	-10.7592
▁Yang	-10.7593
▁artist	-10.7593
▁બ	-10.7595
▁God	-10.7597
Î	-10.7597
eller	-10.7599
说	-10.7599
▁pia	-10.76
▁2019.	-10.76
schaft	-10.7602
тә	-10.7602
бра	-10.7603
кс	-10.7603
For	-10.7604
larının	-10.7604
▁так	-10.7605
Э	-10.7606
-06	-10.7607
▁United	-10.7611
tii	-10.7614
▁hul	-10.7615
ρά	-10.7615
най	-10.7615
tő	-10.7615
▁Vir	-10.7616
ận	-10.7618
ախ	-10.7619
▁mang	-10.7619
работ	-10.7621
ним	-10.7622
staan	-10.7622
aste	-10.7622
▁compar	-10.7623
BL	-10.7623
비	-10.7624
curi	-10.7626
▁aasta	-10.7627
ซ	-10.763
▁עם	-10.7632
mur	-10.7632
▁Ham	-10.7633
מו	-10.7636
▁Robert	-10.7636
▁vod	-10.7639
▁ME	-10.7641
公司	-10.7643
ժ	-10.7643
▁Over	-10.7644
ラ	-10.7644
▁pis	-10.7645
σε	-10.7647
iyat	-10.7647
▁Во	-10.765
▁Wall	-10.7652
-15	-10.7652
μπ	-10.7653
رس	-10.7653
▁fly	-10.7654
isin	-10.7658
zá	-10.7659
▁съ	-10.7659
čky	-10.766
▁sont	-10.766
▁erre	-10.7661
pati	-10.7663
צו	-10.7665
три	-10.7668
▁2004	-10.767
вет	-10.767
σι	-10.7671
εται	-10.7671
Ş	-10.7673
▁Este	-10.7673
ति	-10.7677
ALL	-10.7677
---	-10.7677
▁original	-10.7677
ும்	-10.7679
اه	-10.7679
ėjo	-10.768
Ex	-10.7681
។	-10.7682
▁hö	-10.7682
وج	-10.7682
▁Lä	-10.7684
▁22.	-10.7684
ന്	-10.7685
نه	-10.7686
uto	-10.7688
▁Parti	-10.7688
▁വി	-10.7691
öd	-10.7693
קר	-10.7694
ojn	-10.7695
▁Green	-10.7698
ката	-10.7698
rut	-10.77
meter	-10.7702
▁51	-10.7703
ител	-10.7705
式	-10.7709
▁বি	-10.7712
▁Bad	-10.7712
▁Damen	-10.7714
▁ഇ	-10.7714
▁дека	-10.7716
▁nes	-10.7716
áci	-10.7716
▁svo	-10.7717
ání	-10.772
ণ	-10.7721
лә	-10.7726
કા	-10.7726
现	-10.7727
▁fl	-10.7727
▁ref	-10.7729
ற	-10.773
▁seri	-10.773
▁Ama	-10.773
bok	-10.7731
ison	-10.7731
šu	-10.7731
lina	-10.7732
▁cit	-10.7734
▁kos	-10.7736
▁vagy	-10.7741
ந்த	-10.7742
▁apar	-10.7742
handel	-10.7743
vý	-10.7743
نت	-10.7744
άλ	-10.7744
▁oh	-10.7746
▁zuen	-10.7748
▁bai	-10.7749
hil	-10.775
▁Off	-10.775
房	-10.7758
▁hulle	-10.776
▁Italia	-10.7761
▁Temp	-10.7763
ndar	-10.7765
▁ở	-10.7767
").	-10.7767
▁شو	-10.7768
ტი	-10.7769
▁Те	-10.7769
asyon	-10.777
▁Women	-10.777
▁menu	-10.777
ও	-10.7772
baar	-10.7772
:0	-10.7773
loc	-10.7774
▁mark	-10.7775
ይ	-10.7776
세	-10.7776
▁ச	-10.7777
▁prv	-10.7778
▁rol	-10.7778
kari	-10.7778
tov	-10.7779
maal	-10.778
「	-10.778
пол	-10.7782
▁2.0	-10.7782
miseks	-10.7783
esc	-10.7786
▁sí	-10.7788
▁But	-10.7788
रे	-10.7788
号	-10.7788
▁Cara	-10.7789
гийн	-10.7789
stí	-10.779
▁present	-10.779
ALI	-10.7793
▁Mei	-10.7796
▁two	-10.7796
▁add	-10.7797
niki	-10.7799
▁سال	-10.7801
▁Tai	-10.7802
▁Paris	-10.7802
-08	-10.7804
öm	-10.7805
▁ז	-10.7807
šanas	-10.7807
וס	-10.7809
▁Ž	-10.781
egi	-10.7812
کر	-10.7812
gabe	-10.7814
▁December	-10.7817
šo	-10.7817
▁95	-10.7817
▁would	-10.7819
мар	-10.782
ком	-10.7821
FE	-10.7821
мон	-10.7822
▁support	-10.7824
rab	-10.7824
ibi	-10.7825
ambi	-10.7827
▁Bon	-10.7827
▁mange	-10.7828
ځ	-10.7829
ของ	-10.7829
▁ਕ	-10.7831
woord	-10.7834
▁Peng	-10.7835
כל	-10.7836
-18	-10.7836
▁23.	-10.7837
խ	-10.7837
▁מה	-10.7838
jums	-10.7838
▁april	-10.7838
▁γ	-10.7838
▁CD	-10.7839
રે	-10.7839
▁trên	-10.7843
▁الف	-10.7844
▁baik	-10.7846
ץ	-10.7846
WE	-10.7847
KU	-10.7849
øj	-10.7849
ordin	-10.7849
оз	-10.785
▁hit	-10.785
▁já	-10.785
▁KU	-10.7851
▁же	-10.7852
שר	-10.7855
起	-10.7856
▁ISBN	-10.7856
ْ	-10.7856
▁Kel	-10.786
▁Kö	-10.786
dum	-10.7861
▁ಪ್ರ	-10.7861
ઓ	-10.7863
▁pala	-10.7865
KS	-10.7866
▁dur	-10.7867
ща	-10.7867
қи	-10.7868
ged	-10.787
▁ਪ	-10.7872
ட்ட	-10.7872
▁58	-10.7872
šč	-10.7873
民	-10.7874
liz	-10.7875
odi	-10.7877
չ	-10.7878
cke	-10.7879
jor	-10.788
liği	-10.7881
یه	-10.7881
нес	-10.7882
▁Anti	-10.7882
ент	-10.7883
▁disp	-10.7883
ശ	-10.7884
vl	-10.7884
▁pad	-10.7885
▁wird	-10.7886
▁Rad	-10.7888
uş	-10.7889
נות	-10.789
iniai	-10.7892
BB	-10.7892
ណ	-10.7895
ვი	-10.7895
▁aka	-10.7895
▁här	-10.7897
▁бир	-10.7897
tzaile	-10.7901
▁İn	-10.7901
▁Mur	-10.7902
▁Que	-10.7903
▁Bak	-10.7906
MD	-10.7906
rå	-10.7907
▁Long	-10.7907
ക്ക	-10.7908
▁See	-10.791
ന്ന	-10.7911
rand	-10.7913
ោ	-10.7913
aksi	-10.7917
nig	-10.7918
」	-10.7919
bě	-10.7919
atzen	-10.7928
/10/	-10.793
▁Hot	-10.7931
▁800	-10.7936
过	-10.7937
้า	-10.7938
▁Neu	-10.794
▁പ്ര	-10.794
▁HP	-10.7941
isë	-10.7941
mény	-10.7941
sho	-10.7943
▁IP	-10.7943
▁Dé	-10.7945
▁Apr	-10.7947
jev	-10.7948
오	-10.795
▁yet	-10.7954
▁ти	-10.7955
eke	-10.7956
مت	-10.7958
▁liv	-10.7958
-10-	-10.796
viet	-10.7961
▁или	-10.7963
▁Gor	-10.7963
બ	-10.7965
لت	-10.7968
etta	-10.7969
▁nous	-10.797
▁הא	-10.7971
▁Peter	-10.7971
▁kra	-10.7973
▁MO	-10.7974
selected	-10.7975
▁black	-10.7975
ദ	-10.7976
рын	-10.7979
buru	-10.798
320	-10.798
▁Produkt	-10.7981
зу	-10.7989
bran	-10.7989
ע	-10.7989
ետ	-10.7991
▁eg	-10.7994
fum	-10.7998
čen	-10.7998
փ	-10.8001
នៅ	-10.8003
▁Music	-10.8003
▁menga	-10.8005
ări	-10.8005
шт	-10.8012
fol	-10.8014
nici	-10.8014
ად	-10.8015
▁result	-10.8015
фа	-10.8015
▁hoe	-10.8017
lise	-10.8018
▁Spo	-10.8019
zek	-10.8019
vere	-10.802
123	-10.802
▁نو	-10.8021
6%	-10.8023
تل	-10.8024
▁TL	-10.8024
▁Inc	-10.8025
▁akt	-10.8025
수	-10.8026
▁ду	-10.8027
όν	-10.803
▁հետ	-10.803
▁situa	-10.8032
▁przez	-10.8034
レ	-10.8034
▁ਵ	-10.8035
rob	-10.8036
hind	-10.8037
▁kraj	-10.8039
▁What	-10.804
cció	-10.8041
rol	-10.8041
▁maga	-10.8043
że	-10.8044
▁jaun	-10.8045
დი	-10.8047
ລ	-10.8047
imet	-10.8048
▁client	-10.805
▁helt	-10.8051
▁2-	-10.8051
નો	-10.8052
chy	-10.8052
▁न	-10.8053
▁Jam	-10.8054
▁Up	-10.8055
ೈ	-10.8056
ents	-10.8057
▁hori	-10.8058
fit	-10.806
lma	-10.8062
▁yap	-10.8062
ndra	-10.8064
▁Ky	-10.8066
ි	-10.8067
ણ	-10.8067
▁cá	-10.8069
asti	-10.807
cip	-10.807
հ	-10.8071
▁juni	-10.8074
оў	-10.8075
images	-10.8076
▁xwe	-10.8078
ić	-10.808
▁aber	-10.808
PC	-10.8081
▁hann	-10.8081
▁câ	-10.8081
olog	-10.8082
▁mill	-10.8082
▁name	-10.8083
/12/	-10.8083
无	-10.8085
рад	-10.8087
lly	-10.8088
▁Nav	-10.8089
▁הת	-10.809
▁eftir	-10.8091
nummer	-10.8092
ување	-10.8092
▁year	-10.8093
lick	-10.8093
▁andre	-10.8094
sinin	-10.8095
▁aux	-10.8097
▁propos	-10.8097
▁nye	-10.8098
▁nap	-10.8099
annya	-10.81
华	-10.81
حد	-10.81
hold	-10.8102
▁প্র	-10.8102
аш	-10.8104
▁way	-10.8106
iger	-10.8108
▁business	-10.811
ийг	-10.8112
pē	-10.8112
нал	-10.8112
bank	-10.8114
▁Mik	-10.8116
оп	-10.8119
▁suur	-10.8119
▁gor	-10.8119
ая	-10.812
җ	-10.812
▁centro	-10.8121
þ	-10.8121
▁bud	-10.8123
لم	-10.8125
rə	-10.8127
রে	-10.8128
ವಾ	-10.8128
jad	-10.813
EG	-10.8132
▁nhất	-10.8133
▁Ul	-10.8133
▁ആ	-10.8135
န္	-10.8135
park	-10.8136
▁Կ	-10.8136
他	-10.8145
▁denne	-10.8146
▁жи	-10.8149
graf	-10.8152
▁Brasil	-10.8153
hun	-10.8154
ppa	-10.8155
▁دانلود	-10.8156
ikka	-10.8156
▁milli	-10.8157
개	-10.8158
ość	-10.8158
каз	-10.8158
ário	-10.816
rát	-10.816
ūr	-10.816
بل	-10.8161
டு	-10.8162
体育	-10.8164
source	-10.8164
ĝ	-10.8164
cions	-10.8165
▁dago	-10.8166
ớ	-10.8167
్	-10.8171
ovan	-10.8174
▁restaurant	-10.8176
门	-10.8177
店	-10.8178
mez	-10.8179
ئی	-10.8179
λο	-10.818
▁Wikipedia	-10.818
سا	-10.818
.12.20	-10.818
/11/	-10.8181
▁ა	-10.8185
lur	-10.8186
ٹر	-10.819
tisk	-10.819
750	-10.8191
▁savo	-10.8193
jm	-10.8193
▁Rec	-10.8193
мал	-10.8194
бар	-10.8195
▁hə	-10.8195
ical	-10.8196
इ	-10.8197
ARA	-10.8198
דו	-10.8199
duc	-10.82
lege	-10.82
legg	-10.8201
▁valor	-10.8205
amma	-10.8205
дын	-10.8205
▁Bet	-10.8206
▁sala	-10.8206
▁hij	-10.8206
▁mó	-10.8207
جر	-10.8211
▁72	-10.8213
ие	-10.8213
ດ	-10.8213
▁joka	-10.8213
tama	-10.8214
श	-10.8214
ıyor	-10.8214
шта	-10.8215
还	-10.8215
lerini	-10.822
▁automat	-10.822
bio	-10.8222
mission	-10.8222
аны	-10.8224
wu	-10.8224
práv	-10.8226
ਹ	-10.8228
div	-10.8228
▁Pul	-10.8228
lima	-10.8229
▁Br	-10.8229
ിയ	-10.8229
inni	-10.8232
చ	-10.8232
heit	-10.8235
wana	-10.8235
▁Қа	-10.8237
jte	-10.8238
lement	-10.8239
schen	-10.8241
dung	-10.8243
▁termin	-10.8244
▁proje	-10.8246
▁term	-10.8247
cn	-10.8249
▁einen	-10.8249
▁8,	-10.825
▁pic	-10.8252
here	-10.8252
νο	-10.8252
▁minu	-10.8254
اي	-10.8255
▁chat	-10.8255
▁پاکستان	-10.8257
cións	-10.826
fl	-10.8261
mpi	-10.8261
vio	-10.8262
nah	-10.8263
bed	-10.8266
▁ky	-10.8266
ூ	-10.8267
▁кел	-10.8268
▁pem	-10.827
voir	-10.827
inio	-10.8272
ovať	-10.8272
արկ	-10.8272
नी	-10.8274
tique	-10.8274
▁số	-10.8275
bun	-10.8276
전	-10.8276
uji	-10.8278
员	-10.8278
▁CE	-10.8279
inis	-10.828
▁samt	-10.8282
▁dib	-10.8282
tävä	-10.8284
ір	-10.8286
▁AR	-10.8287
MM	-10.8288
bara	-10.8289
massa	-10.8289
▁nhiều	-10.8289
▁Lei	-10.8292
tada	-10.8295
▁før	-10.8296
▁અને	-10.8296
▁180	-10.8297
tali	-10.8298
tate	-10.83
▁jun	-10.83
▁geç	-10.8302
▁بل	-10.8302
▁juli	-10.8302
▁volt	-10.8304
өл	-10.8305
idos	-10.8306
▁pop	-10.8307
▁Lan	-10.8307
__	-10.8309
LC	-10.831
▁mul	-10.8311
▁idea	-10.8312
▁general	-10.8313
▁Ale	-10.8313
内	-10.8314
вен	-10.8314
IB	-10.8315
ця	-10.8318
ед	-10.8318
Տ	-10.8322
յան	-10.8328
lles	-10.8329
▁Band	-10.833
▁hafa	-10.8331
web	-10.8331
▁gang	-10.8332
RES	-10.8333
שה	-10.8334
▁når	-10.8336
stvo	-10.8337
CS	-10.834
▁mari	-10.8344
▁qar	-10.8344
ċ	-10.8344
style	-10.835
ulo	-10.8351
经	-10.8351
gge	-10.8351
про	-10.8352
activ	-10.8357
өт	-10.8359
▁kort	-10.8359
▁Mart	-10.836
hai	-10.8361
zni	-10.8362
▁aga	-10.8363
ली	-10.8364
▁І	-10.8364
ම්	-10.8364
▁poder	-10.8365
▁Kha	-10.8372
▁kurs	-10.8372
▁situ	-10.8373
▁11,	-10.8375
wr	-10.8375
▁Radio	-10.8376
unun	-10.8377
2008	-10.8377
▁【	-10.8377
ப	-10.838
lun	-10.8381
tūr	-10.8382
▁UK	-10.8383
oka	-10.8387
▁шу	-10.8389
▁nej	-10.839
้	-10.8392
▁vär	-10.8393
ZI	-10.8394
মি	-10.8394
cus	-10.8395
▁proces	-10.8397
\/	-10.8397
▁թ	-10.8398
øy	-10.8398
ಲ್	-10.8399
▁fem	-10.8399
эх	-10.8401
▁look	-10.8401
▁kah	-10.8403
יד	-10.8404
▁пар	-10.8405
ურ	-10.8409
anto	-10.841
utta	-10.8411
工作	-10.8411
éc	-10.8412
rb	-10.8413
▁bizi	-10.8414
Ц	-10.8415
ಮಾ	-10.8416
▁London	-10.8416
داد	-10.8418
она	-10.842
ží	-10.8422
ικ	-10.8422
uð	-10.8423
يف	-10.8423
cing	-10.8424
bou	-10.8424
vec	-10.8426
▁Center	-10.8427
oor	-10.8428
spekt	-10.8433
ერ	-10.8433
script	-10.8434
▁kum	-10.8436
▁English	-10.8437
▁samo	-10.8439
去	-10.8442
кер	-10.8442
▁South	-10.8445
labora	-10.8447
ဲ	-10.8448
▁Fel	-10.8449
▁Energ	-10.8449
ัน	-10.8453
▁after	-10.8454
▁Mc	-10.8454
▁prej	-10.8455
αι	-10.8456
VER	-10.846
250	-10.8461
iai	-10.8465
▁February	-10.8466
▁lí	-10.8466
text	-10.8467
zki	-10.8467
か	-10.847
-12-	-10.8473
▁spel	-10.8474
용	-10.8475
미	-10.8475
▁pap	-10.8475
nus	-10.8478
▁hotell	-10.8478
tiga	-10.8479
πα	-10.8479
▁οι	-10.848
ــ	-10.8482
ekin	-10.8483
раз	-10.8485
ολ	-10.8487
ūt	-10.8488
২	-10.8488
문	-10.8488
▁eigen	-10.8489
zás	-10.8491
cr	-10.8491
abili	-10.8492
grad	-10.8492
ρε	-10.8492
aggio	-10.8492
ција	-10.8494
阳	-10.8495
ուր	-10.8498
يك	-10.8499
▁الج	-10.8499
▁роз	-10.8502
ondo	-10.8502
▁šo	-10.8502
hä	-10.8503
ias	-10.8503
nyt	-10.8505
klar	-10.8505
▁grad	-10.8506
ಧ	-10.8508
▁خو	-10.8509
▁Pil	-10.8509
▁Ва	-10.851
sdag	-10.851
jung	-10.8512
ена	-10.8513
sies	-10.8514
▁Europe	-10.8515
平台	-10.8515
maz	-10.8515
▁blev	-10.8516
▁მო	-10.8516
ję	-10.8516
▁Dam	-10.8518
▁fit	-10.852
ળ	-10.852
▁év	-10.8521
ето	-10.8521
▁politi	-10.8522
пис	-10.8523
▁gera	-10.8526
▁тө	-10.8527
▁secara	-10.8529
▁Tru	-10.853
taja	-10.853
网站	-10.8532
عد	-10.8534
356	-10.8534
lka	-10.8535
▁Hotels	-10.8537
гы	-10.8538
hoz	-10.854
υτ	-10.854
ENT	-10.8544
▁tú	-10.8548
-09-	-10.855
▁یک	-10.855
alta	-10.8551
ức	-10.8552
▁như	-10.8554
▁North	-10.8554
▁57	-10.8555
ուս	-10.8555
▁kwe	-10.8559
ცი	-10.856
హ	-10.856
های	-10.856
сон	-10.856
idas	-10.8561
代	-10.8563
რო	-10.8564
▁Afrika	-10.8564
lini	-10.8565
▁Mem	-10.8568
▁Де	-10.857
cchi	-10.857
▁univers	-10.8571
Λ	-10.8572
/06/	-10.8572
▁kaip	-10.8573
lje	-10.8573
▁độ	-10.8574
isch	-10.8576
ія	-10.858
uza	-10.8582
onomi	-10.8583
уу	-10.8591
▁الك	-10.8592
rent	-10.8592
mbar	-10.8592
▁seks	-10.8592
EB	-10.8593
nyi	-10.8595
▁وی	-10.8596
sida	-10.8596
eze	-10.8597
ძ	-10.8597
եղ	-10.8599
▁Islam	-10.8599
kuwa	-10.86
ally	-10.8601
žu	-10.8602
אָ	-10.8603
▁Ei	-10.8606
product	-10.8606
▁osob	-10.8607
гор	-10.8608
700	-10.8609
્યા	-10.861
▁TR	-10.861
진	-10.8611
原	-10.8614
IX	-10.8615
/01/	-10.8618
-11-	-10.8618
dele	-10.8618
Car	-10.8618
▁fru	-10.8619
▁Tá	-10.862
tant	-10.8622
▁lot	-10.8622
มา	-10.8626
▁inspir	-10.8626
ій	-10.8628
▁apr	-10.8628
▁got	-10.8633
▁lá	-10.8634
▁PO	-10.8638
hid	-10.8641
self	-10.8641
йн	-10.8644
量	-10.8644
FR	-10.8644
roz	-10.8645
úč	-10.8646
tani	-10.8646
关	-10.8647
áil	-10.8648
ellen	-10.865
▁Group	-10.865
NU	-10.8651
tako	-10.8653
▁Sar	-10.8653
MT	-10.8654
kirja	-10.8656
▁ол	-10.8657
бек	-10.8658
▁För	-10.8659
▁વ	-10.866
unu	-10.8662
üs	-10.8663
▁Cas	-10.8665
▁Mis	-10.8666
glio	-10.8666
cap	-10.8666
ự	-10.867
кр	-10.8671
מע	-10.8672
▁mur	-10.8673
kama	-10.8674
они	-10.8674
arekin	-10.8675
үр	-10.8678
▁park	-10.8679
ész	-10.8679
pass	-10.868
▁você	-10.8684
들	-10.8685
žo	-10.8686
szcz	-10.8686
▁59	-10.8686
pha	-10.8688
▁Exp	-10.8688
ování	-10.869
uose	-10.8694
tional	-10.8694
LT	-10.8694
vus	-10.8695
Sp	-10.8697
▁comun	-10.8697
▁partir	-10.87
דר	-10.87
ật	-10.8702
стр	-10.8702
▁take	-10.8703
లి	-10.8703
гә	-10.8704
anje	-10.8705
ība	-10.8705
في	-10.8707
Ы	-10.8708
ngkap	-10.8709
ើ	-10.871
▁Galicia	-10.8711
▁ಇ	-10.8713
kami	-10.8715
ош	-10.8716
▁جن	-10.8717
▁Cultura	-10.8718
▁anal	-10.8718
ው	-10.8721
kho	-10.8722
נים	-10.8722
▁lugar	-10.8722
ალ	-10.8723
▁Wat	-10.8724
▁know	-10.8725
jør	-10.8726
▁qi	-10.8729
yal	-10.8729
▁kok	-10.8731
▁store	-10.8731
vra	-10.8732
▁Page	-10.8739
ությունը	-10.874
SM	-10.874
▁Jean	-10.8741
면	-10.8742
uzi	-10.8742
byt	-10.8746
▁Lie	-10.8747
эм	-10.8747
▁Link	-10.8747
▁temp	-10.8748
▁67	-10.8748
ौ	-10.8748
▁vs	-10.875
ihin	-10.8751
eket	-10.8752
ას	-10.8752
menn	-10.8753
▁हो	-10.8754
lb	-10.8755
▁Game	-10.8755
▁realiz	-10.8756
▁period	-10.8757
▁למ	-10.8758
unni	-10.8758
▁tit	-10.8758
▁Not	-10.876
້	-10.8761
▁Fun	-10.8762
▁principal	-10.8763
က်	-10.8766
mica	-10.8769
CM	-10.8769
ಟ್	-10.877
gé	-10.877
زي	-10.8772
▁plu	-10.8773
산	-10.8775
▁тү	-10.8777
▁tule	-10.8777
Π	-10.8778
Ë	-10.8779
xan	-10.8779
ធ	-10.8782
şə	-10.8785
φορ	-10.8785
SL	-10.8785
▁12,	-10.8785
гар	-10.8785
ház	-10.8786
lica	-10.8788
▁Social	-10.8789
然	-10.8789
170	-10.8789
▁sme	-10.8789
ավոր	-10.879
▁ג	-10.8791
▁Но	-10.8792
▁zur	-10.8792
106	-10.8793
▁fast	-10.8795
▁đó	-10.8795
ਡ	-10.8796
ника	-10.8796
▁Mid	-10.8797
回	-10.8799
Ч	-10.8799
ಶ	-10.88
▁yi	-10.8801
▁Forum	-10.8802
▁Ná	-10.8805
зі	-10.8807
▁organiza	-10.8807
rop	-10.881
▁görə	-10.881
▁noch	-10.8812
▁Bah	-10.8814
CU	-10.8815
▁Lang	-10.8815
երի	-10.8816
▁toimi	-10.8819
gada	-10.8823
каза	-10.8824
eux	-10.8826
position	-10.8827
▁شد	-10.8829
▁dụng	-10.883
▁rend	-10.883
ਤੇ	-10.8831
BER	-10.8833
▁Gran	-10.8834
▁उ	-10.8834
ฟ	-10.8837
조	-10.8837
ෝ	-10.8837
▁project	-10.8838
dhë	-10.8841
SH	-10.8843
toj	-10.8844
及	-10.8844
▁buvo	-10.8846
▁કે	-10.885
એ	-10.8851
arte	-10.8853
▁62	-10.8856
quot	-10.8861
ће	-10.8862
▁Untuk	-10.8862
mēr	-10.8863
ňa	-10.8863
iwa	-10.8865
▁heb	-10.8865
ую	-10.8866
▁dzi	-10.8866
▁üle	-10.8867
▁adres	-10.8868
▁Island	-10.887
count	-10.8873
선	-10.8874
▁Kami	-10.8875
fec	-10.8878
iteit	-10.8883
▁кор	-10.8884
rif	-10.8889
▁access	-10.8889
▁constru	-10.8889
만	-10.8889
▁β	-10.8891
▁profil	-10.8891
kry	-10.8892
线	-10.8892
▁problema	-10.8893
▁99	-10.8893
Ge	-10.8895
경	-10.8895
igo	-10.8895
viz	-10.8896
וד	-10.8899
JI	-10.89
ზე	-10.8901
▁ame	-10.8903
jk	-10.8903
ában	-10.8904
▁Trump	-10.8904
уш	-10.8906
▁ته	-10.8907
▁call	-10.8908
▁kara	-10.891
lain	-10.8911
ډ	-10.8912
wah	-10.8913
▁1-	-10.8915
ों	-10.8915
iler	-10.8915
四	-10.8915
▁työ	-10.8915
mbra	-10.8916
PD	-10.8919
לה	-10.8919
▁solo	-10.8921
аг	-10.8924
నా	-10.8924
▁sang	-10.8925
maha	-10.8927
▁important	-10.8928
sök	-10.8929
▁Sko	-10.8929
אה	-10.8932
국	-10.8933
▁vie	-10.8933
hend	-10.8939
ální	-10.8939
læ	-10.894
▁מי	-10.894
▁III	-10.894
▁ito	-10.8941
Ver	-10.8941
▁FC	-10.8941
▁már	-10.8943
λη	-10.8944
▁Informa	-10.8947
▁በ	-10.8948
abad	-10.8949
ġ	-10.8953
▁bang	-10.8953
graph	-10.8954
▁soci	-10.8955
rás	-10.8955
querySelectorAll	-10.8956
▁etc	-10.8956
▁შე	-10.8957
▁ugu	-10.8957
ēja	-10.896
▁Open	-10.896
▁ngày	-10.896
päeva	-10.8962
▁rumah	-10.8962
more	-10.8964
menti	-10.8967
CAT	-10.8967
prend	-10.8968
ист	-10.897
▁ktoré	-10.8971
ingu	-10.8972
▁alebo	-10.8972
▁Ն	-10.8973
ərə	-10.8973
ürü	-10.8975
āju	-10.8975
ısı	-10.8977
720	-10.8977
eń	-10.8978
▁الن	-10.8978
ines	-10.8979
▁uy	-10.8979
aug	-10.8986
▁eða	-10.8986
ಭ	-10.8987
won	-10.8987
▁fé	-10.8988
▁tres	-10.8988
た	-10.8989
dil	-10.8991
Per	-10.8992
IF	-10.8992
થી	-10.8993
tric	-10.8997
ère	-10.8997
▁kry	-10.8997
સ્	-10.8999
lere	-10.8999
▁life	-10.9
▁över	-10.9
▁مل	-10.9001
▁Restaurant	-10.9003
▁Ah	-10.9006
cade	-10.9007
▁begin	-10.9008
рес	-10.9008
▁Color	-10.901
inə	-10.901
▁Fan	-10.9011
yun	-10.9014
type	-10.9016
▁వ	-10.9018
aldi	-10.9019
diri	-10.902
Δ	-10.9021
PH	-10.9024
▁kunnen	-10.9025
▁66	-10.9026
接	-10.9026
▁jedn	-10.9026
այն	-10.9027
▁Vil	-10.9027
æð	-10.9027
now	-10.9027
▁110	-10.9029
త్	-10.9029
▁deur	-10.903
▁Việt	-10.9032
poli	-10.9038
▁před	-10.9039
ạn	-10.9039
▁sale	-10.904
▁suo	-10.9045
ņ	-10.9045
▁Ви	-10.9046
adores	-10.9047
erek	-10.9048
▁nr	-10.905
▁kommun	-10.905
রি	-10.9052
▁Το	-10.9053
▁2003	-10.9053
yw	-10.9053
▁Dec	-10.9054
▁Amerika	-10.9058
ñe	-10.9059
▁lever	-10.9059
▁במ	-10.906
▁Rock	-10.906
tatu	-10.906
▁gew	-10.9063
▁dol	-10.9064
ELL	-10.9064
۰	-10.9064
ologia	-10.9065
▁69	-10.9065
▁пос	-10.9066
▁Tab	-10.9067
sive	-10.9067
ums	-10.9069
ZE	-10.907
▁Mah	-10.907
מת	-10.9075
lok	-10.9075
ilu	-10.9075
▁agen	-10.9076
čni	-10.9076
▁great	-10.9078
十	-10.9078
عل	-10.9078
▁ने	-10.9079
išk	-10.9079
ез	-10.9082
yje	-10.9082
▁εκ	-10.9082
更	-10.9082
▁전	-10.9082
▁може	-10.9083
▁både	-10.9085
▁zap	-10.9086
▁experience	-10.9087
ót	-10.9088
σκ	-10.9089
גי	-10.9092
▁bonus	-10.9092
ထ	-10.9092
▁guzti	-10.9093
tory	-10.9093
מח	-10.9094
▁Public	-10.9095
ذا	-10.9095
▁bị	-10.9095
▁naman	-10.9095
▁prac	-10.9097
ரி	-10.9098
]]	-10.9098
fj	-10.9099
▁financ	-10.9099
▁Office	-10.91
порт	-10.91
кор	-10.9106
▁Oo	-10.9107
▁National	-10.9107
▁miest	-10.9107
וי	-10.9107
date	-10.9108
▁Jum	-10.9109
ixa	-10.9109
▁där	-10.911
gara	-10.911
▁ਹੈ	-10.9111
▁limit	-10.9112
▁made	-10.9112
ungan	-10.9113
LS	-10.9113
▁ху	-10.9115
ະ	-10.9116
보	-10.9117
भ	-10.9118
ნ	-10.9119
ити	-10.912
流	-10.912
عب	-10.912
orden	-10.9121
selt	-10.9123
.09.20	-10.9127
▁mam	-10.9128
ခ	-10.9129
cja	-10.9129
▁ක	-10.9129
gues	-10.913
▁dun	-10.913
▁гр	-10.913
▁dugu	-10.913
AGA	-10.9133
▁ра	-10.9134
čin	-10.9134
▁Berg	-10.9141
▁regi	-10.9142
وت	-10.9142
čio	-10.9142
▁Win	-10.9142
▁مش	-10.9143
tsu	-10.9145
ugh	-10.9146
ার	-10.9147
ಡಿ	-10.9147
▁ವಿ	-10.9149
▁vet	-10.915
▁serie	-10.9151
▁must	-10.9152
▁yan	-10.9154
ujú	-10.9157
قی	-10.916
רת	-10.9164
ára	-10.9165
kirin	-10.9165
其	-10.9166
tava	-10.9168
rink	-10.9168
▁milion	-10.9168
سي	-10.9169
▁Shop	-10.917
ingar	-10.9171
▁Gold	-10.9172
tru	-10.9172
▁disa	-10.9172
程	-10.9173
တ္	-10.9173
▁خود	-10.9175
▁rad	-10.9175
hm	-10.9176
被	-10.918
ું	-10.9182
▁Naj	-10.9183
nza	-10.9186
kārt	-10.9187
ҳои	-10.9189
▁bà	-10.919
сте	-10.9193
▁mundo	-10.9193
נט	-10.9194
מר	-10.9196
▁אי	-10.9197
Ж	-10.9197
▁9,	-10.9199
▁vào	-10.9199
ču	-10.92
pek	-10.9201
kap	-10.9202
▁geen	-10.9203
▁Ele	-10.9203
prim	-10.9204
▁einem	-10.9206
dav	-10.9209
ոս	-10.9212
▁finns	-10.9216
▁ис	-10.9218
mien	-10.9218
110	-10.9218
landi	-10.9219
▁frem	-10.9219
▁Mos	-10.9219
bei	-10.922
alan	-10.922
数	-10.9223
FT	-10.9224
ров	-10.9224
▁Big	-10.9225
қы	-10.9227
▁cab	-10.9228
uge	-10.9231
مة	-10.9232
▁Се	-10.9232
▁potreb	-10.9233
▁sco	-10.9233
▁brand	-10.9234
▁(5)	-10.9234
▁Ly	-10.9235
mmen	-10.9235
իտ	-10.9236
serve	-10.9237
▁гар	-10.9237
zam	-10.9238
▁Een	-10.9238
bare	-10.9239
istan	-10.9239
▁waxaa	-10.9239
▁parë	-10.924
▁maz	-10.9241
δο	-10.9242
ദ്	-10.9243
jf	-10.9243
lep	-10.9243
вя	-10.9243
teria	-10.9243
UD	-10.9246
تم	-10.9247
ử	-10.9248
मि	-10.9248
▁হ	-10.9248
108	-10.9249
VI	-10.9249
▁Hei	-10.9249
děl	-10.9249
lgan	-10.9251
▁töö	-10.9251
▁popular	-10.9252
بی	-10.9253
רה	-10.9253
ió	-10.9253
nung	-10.9253
▁process	-10.9253
RY	-10.9255
кет	-10.9257
▁nok	-10.9263
▁Nh	-10.9265
▁kontrol	-10.9268
tige	-10.9269
▁năm	-10.927
▁Print	-10.927
šie	-10.9271
て	-10.9271
ை	-10.9272
▁turn	-10.9273
čno	-10.9274
ク	-10.9276
db	-10.9277
ester	-10.9277
пре	-10.9278
▁run	-10.9278
▁hot	-10.9281
lands	-10.9282
▁apie	-10.9283
px	-10.9283
▁Bun	-10.9288
▁LE	-10.9288
▁13,	-10.9288
ына	-10.9291
FF	-10.9292
广	-10.9294
▁εν	-10.9294
wiki	-10.9294
idan	-10.9295
mati	-10.9295
▁Biz	-10.9295
▁interna	-10.9297
LAN	-10.9298
▁व	-10.9298
▁such	-10.9299
▁ish	-10.9299
fas	-10.93
indu	-10.93
▁vind	-10.9302
illo	-10.9303
video	-10.9305
cky	-10.9305
▁68	-10.9305
sama	-10.9306
hle	-10.9307
Ad	-10.9307
▁Seg	-10.9308
ICA	-10.931
istas	-10.931
▁Wie	-10.931
▁every	-10.9312
ným	-10.9312
tuko	-10.9312
▁porta	-10.9316
FL	-10.9318
▁read	-10.9318
יס	-10.9318
▁đầu	-10.9319
유	-10.9319
▁έ	-10.932
▁sele	-10.9322
▁ata	-10.9323
rok	-10.9323
yah	-10.9324
mmel	-10.9324
/09/	-10.9325
▁membuat	-10.9326
სა	-10.9328
▁stil	-10.9328
kuntza	-10.9329
ttaa	-10.9329
▁bé	-10.9329
යි	-10.9332
▁PDF	-10.9333
▁dette	-10.9335
ကို	-10.9335
▁ovat	-10.9335
তি	-10.9336
richt	-10.9337
һ	-10.9337
▁disse	-10.9337
takse	-10.9337
RAN	-10.934
型	-10.934
▁대	-10.9342
▁ένα	-10.9342
ենք	-10.9342
▁case	-10.9346
▁stop	-10.9347
ല്‍	-10.9348
▁ideal	-10.935
▁typ	-10.935
▁durante	-10.9352
мә	-10.9353
ITA	-10.9353
НА	-10.9354
ить	-10.9357
arak	-10.9357
▁Amb	-10.9357
laki	-10.9358
▁badan	-10.9359
ээ	-10.936
▁teen	-10.9361
▁бул	-10.9361
FI	-10.9361
icos	-10.9363
лин	-10.9363
▁الش	-10.9364
ਖ	-10.9364
立	-10.9365
ამ	-10.9367
эд	-10.9367
▁function	-10.9368
▁88	-10.9368
႔	-10.9369
بار	-10.9371
场	-10.9372
▁Galaxy	-10.9373
▁egun	-10.9373
כו	-10.9374
▁Show	-10.9374
▁own	-10.9375
▁RO	-10.9375
Ú	-10.9377
play	-10.9377
ინ	-10.9378
ելու	-10.938
▁पर	-10.9381
▁momento	-10.9383
▁Kü	-10.9385
230	-10.9385
سه	-10.9387
▁august	-10.9388
ģi	-10.9389
▁Live	-10.9392
▁тр	-10.9393
label	-10.9394
▁sett	-10.9395
▁27.	-10.9396
room	-10.9396
jur	-10.9398
kład	-10.9398
ắc	-10.9398
pok	-10.9399
▁2017,	-10.9399
ъл	-10.9402
ελ	-10.9403
ете	-10.9403
ēm	-10.9403
niej	-10.9404
▁77	-10.9407
▁nun	-10.941
▁rast	-10.9412
▁jan	-10.9412
ਧ	-10.9412
器	-10.9412
пан	-10.9416
▁sản	-10.9416
pang	-10.9416
▁Tim	-10.9416
лас	-10.9417
▁sö	-10.9417
▁IT	-10.9418
Pri	-10.9418
vė	-10.9419
▁Hun	-10.942
تو	-10.9421
き	-10.9422
▁сп	-10.9422
טר	-10.9423
打	-10.9423
▁big	-10.9423
▁jsou	-10.9423
AJ	-10.9423
▁seva	-10.9426
▁մի	-10.9427
jt	-10.9427
▁rest	-10.9429
▁эт	-10.943
▁much	-10.9431
▁organis	-10.9433
▁number	-10.9434
ບ	-10.9437
rey	-10.944
تي	-10.9441
▁Kategori	-10.9442
ეს	-10.9442
▁نہیں	-10.9445
SU	-10.9446
mber	-10.9446
ото	-10.9447
jek	-10.9448
جل	-10.9449
▁darb	-10.9449
▁Ré	-10.945
▁fotografi	-10.945
▁hard	-10.945
egu	-10.9454
▁кол	-10.9456
νη	-10.9457
.....	-10.9458
▁KA	-10.9459
care	-10.9459
▁arte	-10.9459
▁inclu	-10.946
cional	-10.9461
▁email	-10.9462
лік	-10.9463
▁dass	-10.9463
▁kala	-10.9463
888	-10.9465
▁Bul	-10.9465
ỏ	-10.9466
ific	-10.9468
wit	-10.9472
tress	-10.9473
업	-10.9474
▁ekonomi	-10.9476
▁İl	-10.948
▁Če	-10.9481
liche	-10.9485
▁ಎ	-10.9488
ttle	-10.949
190	-10.949
下载	-10.9492
▁Cra	-10.9493
uter	-10.9495
stop	-10.9498
▁Business	-10.9499
着	-10.95
ıcı	-10.9501
▁Ini	-10.9502
kommen	-10.9502
1.4	-10.9504
hez	-10.9504
▁franc	-10.9506
pedi	-10.9507
▁mind	-10.9507
▁አ	-10.9507
სი	-10.9508
անց	-10.951
ক্ষ	-10.9514
rdi	-10.952
二	-10.9521
210	-10.9521
▁аб	-10.9522
ಳ	-10.9523
او	-10.9524
▁Sto	-10.9524
▁14,	-10.9524
രി	-10.9525
cast	-10.9526
▁sezon	-10.9527
▁Latvijas	-10.953
.08.20	-10.9532
马	-10.9532
§	-10.9532
omba	-10.9533
nă	-10.9534
ари	-10.9535
ød	-10.9535
റ്റ	-10.9536
▁(18	-10.9537
▁وا	-10.9537
▁fill	-10.9538
ਵਾ	-10.9538
ီ	-10.9539
ජ	-10.9539
ặ	-10.9539
ಸಿ	-10.954
▁аз	-10.9543
moc	-10.9543
kje	-10.9544
▁rá	-10.9544
▁די	-10.9552
ায়	-10.9554
0.5	-10.9554
-11	-10.9554
aliza	-10.9555
▁це	-10.9556
NT	-10.9557
UE	-10.9561
ြ	-10.9561
unga	-10.9562
gaan	-10.9562
(":	-10.9564
område	-10.9564
իս	-10.9564
ծ	-10.9565
ਬ	-10.9566
▁Form	-10.9567
sione	-10.9568
▁välja	-10.9568
ами	-10.9569
▁çox	-10.957
▁right	-10.957
▁human	-10.957
kter	-10.957
arios	-10.9571
kaan	-10.9571
laga	-10.9573
रि	-10.9573
▁Jen	-10.9573
▁natur	-10.9576
jut	-10.9577
▁Microsoft	-10.9578
وری	-10.9581
▁(6	-10.9582
▁kasuta	-10.9582
▁seda	-10.9584
shirt	-10.9585
▁Kim	-10.9587
ှ	-10.9587
IZ	-10.9587
ء	-10.9587
▁그	-10.9587
rien	-10.9588
▁Kara	-10.9588
bora	-10.959
▁France	-10.9591
zeit	-10.9591
▁standard	-10.9593
ອ	-10.9594
ണ്ട	-10.9595
BS	-10.9595
ایی	-10.9596
▁vasta	-10.9601
ફ	-10.9602
වා	-10.9603
▁studi	-10.9607
表	-10.9609
▁merupakan	-10.9609
ời	-10.9609
rug	-10.961
▁श	-10.9613
▁пере	-10.9616
▁Review	-10.9619
ыз	-10.962
ড	-10.962
TB	-10.9621
vul	-10.9621
før	-10.9623
ixo	-10.9623
ਜ਼	-10.9624
ници	-10.9624
larni	-10.9625
▁아	-10.9625
▁hó	-10.9625
dk	-10.9626
▁déc	-10.9626
▁hiện	-10.9626
tino	-10.9626
▁Malaysia	-10.9628
ії	-10.963
šana	-10.9631
त्	-10.9632
▁Kri	-10.9632
AAA	-10.9632
bag	-10.9637
▁ég	-10.9639
արտ	-10.9639
ūs	-10.964
mene	-10.9641
▁mult	-10.9642
▁mart	-10.9645
awan	-10.9645
tale	-10.9645
▁väl	-10.9646
ности	-10.9646
相	-10.9647
▁firma	-10.965
▁same	-10.9651
▁które	-10.9653
ilgan	-10.9654
れ	-10.9655
ικά	-10.966
▁Aug	-10.9661
ധ	-10.9661
RC	-10.9664
զ	-10.9665
▁Ent	-10.9666
stęp	-10.9666
anan	-10.9667
▁many	-10.9669
▁sup	-10.9669
▁Oct	-10.967
▁diese	-10.9672
kulu	-10.9672
▁Telefon	-10.9673
▁mehr	-10.9673
")	-10.9675
night	-10.9676
▁ਨੂੰ	-10.968
ිය	-10.9684
সে	-10.9685
▁Kit	-10.9685
▁Berlin	-10.9685
уда	-10.9685
▁Date	-10.9685
▁går	-10.9686
▁juu	-10.9686
▁Song	-10.9687
ration	-10.9687
▁Pala	-10.9687
▁دا	-10.9687
▁լ	-10.9688
нат	-10.9688
▁které	-10.9689
▁pola	-10.969
AND	-10.9691
еле	-10.9693
toja	-10.9694
▁try	-10.9694
▁format	-10.9695
ovo	-10.9695
used	-10.9695
▁ග	-10.9696
ებ	-10.9697
itos	-10.9698
▁24.	-10.9699
ብ	-10.9702
ρί	-10.9703
кы	-10.9704
cka	-10.9705
▁menye	-10.9705
▁само	-10.9705
për	-10.9706
baba	-10.9707
く	-10.9707
▁Ե	-10.9708
▁оп	-10.9708
diği	-10.9709
▁mesmo	-10.9709
סט	-10.971
бер	-10.971
▁mens	-10.971
unto	-10.971
▁Street	-10.9713
rant	-10.9714
▁չ	-10.9716
ható	-10.9717
▁kina	-10.9717
▁Ра	-10.9717
וג	-10.9717
▁kvalit	-10.9718
unan	-10.9719
lika	-10.9722
104	-10.9722
ரு	-10.9723
ంది	-10.9723
▁oyun	-10.9723
dzīv	-10.9724
tegi	-10.9724
રો	-10.9724
buka	-10.9724
▁mikro	-10.9725
王	-10.9725
eye	-10.9725
úc	-10.9725
êm	-10.9726
tine	-10.9729
▁tiek	-10.9729
mið	-10.9729
skriv	-10.973
球	-10.9731
gesch	-10.9731
شر	-10.9732
▁habit	-10.9734
情	-10.9735
▁yol	-10.9736
▁Eco	-10.9737
saysay	-10.9737
اہ	-10.9738
ovanie	-10.9741
سک	-10.9741
978	-10.9744
▁xo	-10.9744
▁Bakı	-10.9745
▁sve	-10.9745
▁سا	-10.9746
Ү	-10.9746
▁Jose	-10.9747
ık	-10.9748
ያ	-10.975
▁wij	-10.975
lada	-10.9751
lock	-10.9751
zwa	-10.9751
▁usu	-10.9752
▁aktiv	-10.9753
▁Main	-10.9754
▁Grand	-10.9755
ków	-10.9756
▁GB	-10.9757
450	-10.9758
▁einer	-10.9759
▁ҳа	-10.976
rado	-10.9761
▁kutoka	-10.9763
সি	-10.9763
ради	-10.9764
▁mutta	-10.9765
టి	-10.9765
▁һәм	-10.9765
▁gje	-10.9767
▁động	-10.977
▁import	-10.9771
▁marka	-10.9772
▁ilk	-10.9774
▁futbol	-10.9776
▁harus	-10.9777
BD	-10.9779
лай	-10.9779
위	-10.978
לא	-10.978
וש	-10.978
дор	-10.9781
▁எ	-10.9781
rett	-10.9782
əh	-10.9783
gü	-10.9786
કો	-10.9786
-17	-10.9787
▁etter	-10.9789
ales	-10.979
▁Arm	-10.9791
gere	-10.9793
ינ	-10.9794
▁publik	-10.9794
▁Has	-10.9795
եկ	-10.9795
zí	-10.9796
▁фа	-10.9797
▁dating	-10.9799
▁tekst	-10.9799
pär	-10.9802
áva	-10.9805
120	-10.9805
ière	-10.9806
sió	-10.9807
▁ומ	-10.9807
▁front	-10.9809
▁Spi	-10.981
▁એ	-10.981
▁beberapa	-10.981
vesti	-10.9811
sť	-10.9812
▁allt	-10.9812
▁Sat	-10.9814
stellen	-10.9814
rico	-10.9816
▁Ó	-10.9816
utus	-10.9816
už	-10.9818
▁ਜ	-10.9818
▁фи	-10.9819
CL	-10.9819
▁Ø	-10.9819
▁تع	-10.9822
▁check	-10.9824
▁muito	-10.9824
想	-10.9825
▁coa	-10.9825
▁Bus	-10.9826
vant	-10.9828
TP	-10.9831
ధ	-10.9831
▁ар	-10.9833
áš	-10.9838
hora	-10.9841
¡	-10.9843
kak	-10.9844
▁гу	-10.9846
9%	-10.9846
ີ	-10.9847
nimi	-10.9848
່	-10.9848
▁View	-10.9848
liku	-10.9848
mena	-10.9849
råd	-10.985
▁شده	-10.985
▁až	-10.9851
bele	-10.9851
יש	-10.9852
work	-10.9852
▁actual	-10.9853
temp	-10.9853
tav	-10.9854
▁pool	-10.9857
▁exc	-10.9859
fre	-10.986
ībā	-10.9862
يات	-10.9862
▁αν	-10.9862
/8	-10.9863
jun	-10.9864
கா	-10.9864
▁kv	-10.9865
druk	-10.9865
▁emp	-10.9865
лт	-10.9866
εύ	-10.9866
▁ગ	-10.9868
્	-10.9869
▁Kin	-10.9869
▁가	-10.987
▁gaz	-10.987
▁garanti	-10.9872
▁வ	-10.9872
▁Edi	-10.9873
▁Digital	-10.9874
1.6	-10.9875
▁these	-10.9877
▁arasında	-10.9877
væ	-10.9878
▁бас	-10.9879
cü	-10.9881
He	-10.9882
nosť	-10.9882
▁2018.	-10.9882
▁drejt	-10.9883
ँ	-10.9884
esso	-10.9884
hala	-10.9885
úl	-10.9885
▁வி	-10.9888
▁participa	-10.9889
lardan	-10.9889
▁ફ	-10.9889
куп	-10.989
lder	-10.9891
rata	-10.9891
שו	-10.9892
老	-10.9893
▁kontra	-10.9894
▁produktu	-10.9896
▁serta	-10.9897
▁ži	-10.9897
师	-10.9897
▁ری	-10.9898
crit	-10.99
به	-10.9901
省	-10.9901
logo	-10.9901
▁наш	-10.9903
▁Andre	-10.9904
▁狗万	-10.9905
твор	-10.9905
光	-10.9908
ARI	-10.9908
tatud	-10.9911
action	-10.9912
šanu	-10.9912
મે	-10.9912
所	-10.9912
មាន	-10.9913
ünü	-10.9916
facebook	-10.9918
▁world	-10.9918
【	-10.9919
▁fakt	-10.9923
ರಾ	-10.9924
ografi	-10.9925
يق	-10.9926
gja	-10.9927
▁च	-10.9928
▁smo	-10.993
▁čo	-10.9932
tec	-10.9932
▁সা	-10.9937
ске	-10.9939
国际	-10.9941
koop	-10.9942
ées	-10.9943
▁25.	-10.9944
ഷ	-10.9944
▁país	-10.9947
ර්	-10.9949
ref	-10.9949
▁yake	-10.995
ती	-10.995
page	-10.9952
lent	-10.9953
mate	-10.9956
fort	-10.9957
▁Nederland	-10.9959
▁Wil	-10.9959
छ	-10.996
......	-10.9962
ორ	-10.9962
նի	-10.9967
▁Key	-10.9968
▁masih	-10.9969
itev	-10.9969
▁28.	-10.997
сен	-10.9971
ılı	-10.9973
▁Bai	-10.9973
▁bed	-10.9974
wp	-10.9974
tasuna	-10.9974
ajn	-10.9975
▁price	-10.9977
▁Una	-10.9978
spor	-10.9979
▁però	-10.998
lā	-10.9981
Mu	-10.9982
▁perfect	-10.9986
ење	-10.9987
uq	-10.9988
guard	-10.9989
hab	-10.999
ως	-10.999
sht	-10.999
棋牌	-10.9992
цца	-10.9992
▁lig	-10.9995
front	-10.9996
▁pá	-10.9996
▁Pl	-10.9997
▁Info	-10.9998
▁laga	-11
tsa	-11.0003
ونه	-11.0005
rock	-11.0006
▁pole	-11.0006
pare	-11.0008
ила	-11.0014
▁nang	-11.0014
▁Auf	-11.0015
ết	-11.0017
▁lub	-11.0017
▁Բ	-11.0019
க்கு	-11.002
▁δεν	-11.0024
▁Sale	-11.0024
əsi	-11.0026
▁salah	-11.0027
▁kuma	-11.0028
inë	-11.0029
▁punt	-11.003
▁jour	-11.003
▁Pem	-11.003
▁ан	-11.003
▁record	-11.0032
tuk	-11.0032
▁Frank	-11.0033
อง	-11.0033
gni	-11.0035
▁Kata	-11.0035
گاه	-11.0036
bere	-11.0037
atge	-11.0038
▁University	-11.0038
ള	-11.0038
▁girl	-11.004
▁General	-11.0042
oria	-11.0044
وف	-11.0045
watch	-11.0045
vár	-11.0046
iera	-11.0047
▁כל	-11.0048
۵	-11.005
▁öz	-11.0051
ති	-11.0051
rati	-11.0052
ઇ	-11.0052
іль	-11.0056
▁jih	-11.0059
вид	-11.006
▁På	-11.0061
ನೆ	-11.0062
-14	-11.0063
近	-11.0065
▁suka	-11.0067
/2018	-11.0068
gha	-11.0069
ρώ	-11.0069
▁Archives	-11.007
য়ে	-11.0071
ҳи	-11.0074
▁Team	-11.0075
▁ایران	-11.0077
rama	-11.0077
▁ktorý	-11.0078
kasi	-11.0078
txa	-11.0078
ONG	-11.0078
τά	-11.0078
▁liber	-11.008
▁Festival	-11.0081
▁76	-11.0081
uoti	-11.0082
gres	-11.0082
өө	-11.0083
YO	-11.0083
spiel	-11.0088
可以	-11.0088
▁áll	-11.0089
▁mg	-11.0089
Shirt	-11.009
dot	-11.0096
mik	-11.0098
ατ	-11.0098
▁tako	-11.01
0.2	-11.0102
šķ	-11.0102
Th	-11.0106
bbi	-11.0106
ONE	-11.0107
안	-11.0108
▁hely	-11.0108
お	-11.0108
ố	-11.0112
IV	-11.0112
▁Gy	-11.0118
OC	-11.0118
▁ос	-11.0119
▁gå	-11.0119
▁Sand	-11.0122
▁29.	-11.0122
资	-11.0123
ML	-11.0123
▁gai	-11.0127
▁direkt	-11.0128
эг	-11.0128
zzi	-11.013
vend	-11.013
ELE	-11.0133
3.5	-11.0134
fær	-11.0134
ställ	-11.0136
anse	-11.0138
ົ	-11.0138
▁ան	-11.0139
▁97	-11.014
▁پا	-11.0145
gut	-11.0145
DP	-11.0146
เป็น	-11.0146
forma	-11.0147
eurs	-11.0148
door	-11.0148
rétt	-11.015
ார்	-11.015
五	-11.015
роб	-11.0152
▁પ્ર	-11.0154
▁Ft	-11.0154
▁nii	-11.0154
▁metod	-11.0154
ச	-11.0155
▁ҳам	-11.0157
కి	-11.0158
مار	-11.0158
▁Love	-11.016
客	-11.0162
}}	-11.0162
ści	-11.0164
niu	-11.0164
ভা	-11.0165
cine	-11.0169
▁газ	-11.0169
kg	-11.017
▁GR	-11.017
iba	-11.0171
▁බ	-11.0172
영	-11.0174
▁מו	-11.0174
ról	-11.0175
▁Bed	-11.0177
▁кү	-11.0178
रो	-11.018
CK	-11.018
▁Price	-11.0181
▁Vas	-11.0186
▁memiliki	-11.0188
porte	-11.019
ciu	-11.0191
▁puh	-11.0191
ADA	-11.0192
ület	-11.0192
شت	-11.0193
Par	-11.0193
īgi	-11.0195
▁leh	-11.0196
▁26.	-11.0197
скі	-11.0198
▁зна	-11.0198
อร์	-11.0199
uš	-11.0201
وار	-11.0202
▁questo	-11.0203
▁Uz	-11.0204
ināt	-11.0205
▁vun	-11.0206
itatea	-11.0206
ствен	-11.0206
phe	-11.0208
-16	-11.0208
▁Об	-11.0208
▁Gratis	-11.0209
년	-11.0209
нэ	-11.021
ою	-11.0211
cicl	-11.0212
ొ	-11.0212
▁kamu	-11.0213
•	-11.0213
▁nás	-11.0216
▁63	-11.0217
шо	-11.0218
gaz	-11.0218
▁celebra	-11.0218
ញ	-11.0219
lių	-11.0219
ही	-11.022
wani	-11.022
zorg	-11.0221
▁nella	-11.0222
,000.00	-11.0222
pf	-11.0223
city	-11.0226
גו	-11.0227
▁terra	-11.0227
연	-11.0228
▁fá	-11.0229
▁시	-11.023
ssä	-11.0231
rich	-11.0231
rul	-11.0232
▁Å	-11.0232
рон	-11.0234
trop	-11.0235
cje	-11.0235
2000	-11.0235
/19	-11.0236
вед	-11.0237
ček	-11.024
ено	-11.0241
skola	-11.0242
تے	-11.0244
▁dne	-11.0247
▁Pap	-11.0251
▁install	-11.0252
lite	-11.0252
▁familie	-11.0252
ơ	-11.0253
сп	-11.0254
▁ще	-11.0255
etik	-11.0255
dagi	-11.0255
▁perlu	-11.0256
rës	-11.0257
▁98	-11.0258
▁pow	-11.026
▁Sho	-11.0261
▁gw	-11.0262
uč	-11.0267
lərdə	-11.0271
ада	-11.0272
ения	-11.0272
▁report	-11.0273
kula	-11.0274
▁Loc	-11.0275
▁ਕਿ	-11.0276
kort	-11.0276
▁Nag	-11.0276
▁बा	-11.0277
1.3	-11.0277
minen	-11.0277
quer	-11.0278
ване	-11.0278
лог	-11.0278
▁vra	-11.0279
ANT	-11.028
▁deg	-11.028
▁Komp	-11.0283
ово	-11.0283
▁వి	-11.0283
ʼ	-11.0283
vej	-11.0284
బ	-11.0284
▁Bio	-11.0284
under	-11.0284
▁Life	-11.0286
tė	-11.0288
stein	-11.0288
maga	-11.0293
tais	-11.0293
mą	-11.0294
NN	-11.0294
əş	-11.0294
bec	-11.0294
▁lok	-11.0295
▁tej	-11.0295
layan	-11.0296
▁energi	-11.0297
▁aplica	-11.0297
▁како	-11.0297
▁Gö	-11.0297
▁ស	-11.0297
新闻网	-11.0298
▁line	-11.0298
roj	-11.03
ენ	-11.03
space	-11.03
sign	-11.03
▁Nem	-11.0301
▁یا	-11.0301
▁bola	-11.0301
әр	-11.0302
▁رس	-11.0302
▁Tin	-11.0302
▁Roman	-11.0302
▁AK	-11.0302
pena	-11.0304
ampa	-11.0305
bū	-11.0305
중	-11.0307
segu	-11.0308
▁Kau	-11.031
iamo	-11.0311
ให้	-11.0311
▁Michael	-11.0311
âm	-11.0312
tës	-11.0314
身	-11.0315
صد	-11.0316
▁gain	-11.0316
ీ	-11.0317
UV	-11.0317
лаш	-11.0317
▁Wir	-11.0318
各	-11.0319
otto	-11.0319
kuva	-11.0322
зар	-11.0324
بة	-11.0325
hli	-11.0326
做	-11.0326
בית	-11.0328
▁Harga	-11.0328
▁tart	-11.0328
tron	-11.0328
▁सं	-11.033
▁nivel	-11.0333
取	-11.0334
lės	-11.0334
계	-11.0335
▁President	-11.0336
▁사	-11.0336
▁Egy	-11.0339
▁84	-11.0341
க்	-11.0341
الي	-11.0342
ых	-11.0342
.[	-11.0342
SR	-11.0342
▁norm	-11.0343
▁key	-11.0344
999	-11.0345
▁الص	-11.0348
▁Kun	-11.0348
mö	-11.0349
▁lite	-11.0349
▁Stor	-11.0352
ény	-11.0353
▁روز	-11.0354
▁utili	-11.0354
aine	-11.0354
טו	-11.0355
▁qab	-11.0357
ούν	-11.036
ické	-11.036
交	-11.0362
▁пры	-11.0363
▁Sem	-11.0367
ίες	-11.0367
▁Wei	-11.0369
▁saja	-11.037
lista	-11.0374
▁Lake	-11.0375
খ	-11.0376
▁rek	-11.0381
▁List	-11.0381
חת	-11.0382
▁Soomaaliya	-11.0384
tasun	-11.0384
▁moi	-11.0385
▁fur	-11.0385
▁yıl	-11.0386
적	-11.0386
DER	-11.0387
zil	-11.0387
ndan	-11.0389
зна	-11.0391
ız	-11.0391
▁edib	-11.0391
నే	-11.0392
▁Për	-11.0396
Й	-11.0399
▁61	-11.04
itel	-11.04
▁یہ	-11.04
دل	-11.0401
return	-11.0401
▁casino	-11.0402
共	-11.0406
maat	-11.0408
ते	-11.041
▁בא	-11.0412
2007	-11.0413
λά	-11.0413
cl	-11.0414
azio	-11.0414
运	-11.0414
▁Hil	-11.0415
اں	-11.0415
▁Daniel	-11.0417
ffen	-11.0417
▁anmeldelser	-11.0418
sinde	-11.0418
бі	-11.0418
▁Prote	-11.0422
LY	-11.0424
jör	-11.0425
▁firm	-11.0426
▁Anna	-11.0427
לב	-11.0427
maks	-11.0428
pala	-11.0428
ණ	-11.0429
алар	-11.043
▁Κα	-11.0431
▁album	-11.0433
sident	-11.0434
skar	-11.0434
▁pur	-11.0434
▁Book	-11.0435
gata	-11.0437
▁Oli	-11.044
уб	-11.044
raga	-11.044
hör	-11.0441
▁tym	-11.0441
▁available	-11.0442
اپ	-11.0443
▁Ltd	-11.0444
sional	-11.0444
gjen	-11.0445
▁Би	-11.0446
ਲਾ	-11.0447
▁Rama	-11.0448
▁jika	-11.0449
ән	-11.045
dora	-11.0451
tega	-11.0451
▁Pop	-11.0451
▁TE	-11.0452
花	-11.0453
▁ком	-11.0455
▁করে	-11.0456
Un	-11.0456
Μ	-11.0456
▁cui	-11.0464
או	-11.0465
նա	-11.0467
▁jobb	-11.0468
মে	-11.0469
vät	-11.047
ifika	-11.047
▁Sloven	-11.0471
▁Comment	-11.0472
ಗೆ	-11.0474
▁professional	-11.0475
▁Feb	-11.0476
▁vide	-11.0476
▁jedno	-11.0477
päivä	-11.0479
▁hab	-11.0479
▁chỉ	-11.0479
læg	-11.048
▁point	-11.0482
lyn	-11.0482
endur	-11.0483
drž	-11.0484
▁font	-11.0486
▁кра	-11.0488
▁tipo	-11.0488
▁кам	-11.049
üt	-11.049
▁são	-11.0491
▁Mobil	-11.0491
cultura	-11.0491
‍	-11.0493
▁iba	-11.0495
دة	-11.0496
omis	-11.0496
teil	-11.0498
tol	-11.0498
zbekiston	-11.0499
utan	-11.05
▁Пре	-11.0501
▁দ	-11.0502
বি	-11.0502
▁comme	-11.0503
знач	-11.0504
▁ത	-11.0506
科	-11.0507
▁duen	-11.0507
кол	-11.0509
тро	-11.051
būt	-11.051
üz	-11.0511
▁should	-11.0511
管	-11.0511
LD	-11.0512
ális	-11.0512
মা	-11.0512
▁tad	-11.0512
▁institu	-11.0515
▁Water	-11.0515
לת	-11.0515
Or	-11.0516
▁फ	-11.052
μο	-11.0521
bd	-11.0521
эс	-11.0523
υρ	-11.0523
όλ	-11.0524
▁74	-11.0526
дов	-11.0526
ल्	-11.0529
▁tao	-11.053
▁Test	-11.053
ਰਾ	-11.053
ബ	-11.0531
ikki	-11.0531
▁Chu	-11.0532
▁jūs	-11.0533
imą	-11.0533
kond	-11.0539
وان	-11.054
ải	-11.054
ities	-11.054
▁room	-11.0541
рак	-11.0541
▁princip	-11.0542
vies	-11.0544
▁duten	-11.0544
yev	-11.0546
▁esi	-11.0546
lies	-11.0549
▁destina	-11.0549
▁զ	-11.0549
قي	-11.0551
치	-11.0551
装	-11.0551
dress	-11.0554
mot	-11.0556
▁هو	-11.0556
▁Ven	-11.0557
ох	-11.0558
▁thành	-11.0559
▁musi	-11.0559
cant	-11.0559
▁район	-11.056
▁ತ	-11.056
lè	-11.0564
▁Վ	-11.0564
▁spec	-11.0565
▁bare	-11.0568
trip	-11.0569
▁corre	-11.057
▁Sara	-11.0575
نج	-11.0578
▁Press	-11.0579
szak	-11.058
▁Mé	-11.0582
▁$1	-11.0582
ART	-11.0583
stell	-11.0583
illä	-11.0584
भा	-11.0586
audi	-11.0587
▁Roma	-11.0587
gawa	-11.0588
тин	-11.0588
▁PR	-11.0588
▁handi	-11.0589
halt	-11.0589
seks	-11.059
ikat	-11.0592
▁Ве	-11.0592
▁Voor	-11.0592
larına	-11.0595
čas	-11.0596
▁where	-11.0597
TX	-11.0598
amiento	-11.0598
▁mare	-11.0598
▁Ан	-11.06
▁Dra	-11.0604
此	-11.0608
▁polici	-11.0609
tyr	-11.0609
tü	-11.0609
دان	-11.0609
▁gibi	-11.061
kend	-11.0612
bau	-11.0612
ACT	-11.0614
gala	-11.0614
▁нај	-11.0616
elles	-11.0616
ነ	-11.0616
▁yil	-11.0617
▁Sof	-11.0618
KT	-11.0619
ppel	-11.0619
▁día	-11.0619
▁porno	-11.0619
ned	-11.062
mpion	-11.062
gust	-11.0622
larında	-11.0623
9.00	-11.0624
-13	-11.0624
▁Gaz	-11.0625
招聘	-11.0628
와	-11.0628
ښ	-11.0629
▁cent	-11.063
/2019	-11.063
kazi	-11.0631
film	-11.0632
▁wax	-11.0632
тур	-11.0632
ziona	-11.0633
dü	-11.0636
Õ	-11.0636
107	-11.0638
▁respons	-11.0639
▁Start	-11.064
▁verið	-11.0643
▁jeho	-11.0643
ера	-11.0644
▁خان	-11.0645
pti	-11.0646
TOR	-11.0646
aires	-11.0647
colo	-11.065
ება	-11.0652
▁industri	-11.0653
inum	-11.0654
culo	-11.0654
мент	-11.0654
తి	-11.0654
ران	-11.0654
esha	-11.0655
mentos	-11.0655
▁Dat	-11.0656
uze	-11.0659
▁нас	-11.0659
кар	-11.0659
▁fam	-11.066
νε	-11.066
eck	-11.0664
ះ	-11.0664
▁79	-11.0666
пов	-11.0668
▁Bot	-11.067
ních	-11.0672
સા	-11.0674
ът	-11.0674
▁King	-11.0674
▁জ	-11.0674
ڈی	-11.0676
▁cũng	-11.0677
▁ఈ	-11.068
ួ	-11.0681
πε	-11.0683
itor	-11.0683
▁కా	-11.0684
বা	-11.0685
ຕ	-11.0686
▁کل	-11.0688
bier	-11.0688
▁kadar	-11.069
శ	-11.0691
▁area	-11.0691
▁ү	-11.0692
▁hava	-11.0694
▁Artikel	-11.0694
על	-11.0695
EY	-11.0696
Ž	-11.0697
▁duhet	-11.0699
▁Sky	-11.07
ņu	-11.0701
▁dollar	-11.0705
▁जा	-11.0707
▁flu	-11.071
▁Metal	-11.0711
▁company	-11.0711
wl	-11.0711
▁fet	-11.0713
▁fot	-11.0713
ráð	-11.0714
ඩ	-11.0714
무	-11.0714
gift	-11.0716
▁raha	-11.0718
ыя	-11.072
dhe	-11.0721
▁educa	-11.0722
▁taga	-11.0722
▁ਨੇ	-11.0723
ロ	-11.0723
tors	-11.0724
▁festival	-11.0725
ове	-11.0725
收	-11.0726
já	-11.0728
ttä	-11.0728
elijk	-11.073
qq	-11.073
क्ष	-11.0731
гра	-11.0732
עו	-11.0733
▁Fla	-11.0733
▁klar	-11.0734
▁Road	-11.0734
apos	-11.0735
></	-11.0736
organ	-11.0736
5000	-11.0737
anca	-11.0738
த்து	-11.0738
MC	-11.074
xx	-11.074
▁mik	-11.074
**	-11.0741
dow	-11.0741
▁Ι	-11.0741
ões	-11.0741
▁23,	-11.0744
▁ndër	-11.0747
▁flere	-11.0747
怎么	-11.0747
pm	-11.0748
▁durch	-11.075
کو	-11.0751
Ј	-11.0752
സി	-11.0752
TR	-11.0754
håll	-11.0761
总	-11.0763
ади	-11.0763
▁jur	-11.0764
лары	-11.0764
vän	-11.0765
יע	-11.0766
דה	-11.0767
வி	-11.0767
▁roman	-11.0767
RK	-11.0767
▁simple	-11.0768
نو	-11.077
่น	-11.0771
▁klient	-11.0773
▁kost	-11.0773
үл	-11.0773
▁Pur	-11.0773
glia	-11.0774
ら	-11.0774
▁''	-11.0774
vind	-11.0775
▁juh	-11.0777
▁file	-11.0779
పా	-11.078
▁86	-11.078
▁haben	-11.0781
▁strategi	-11.0781
iset	-11.0784
▁Мар	-11.0784
▁ու	-11.0785
百	-11.0785
ပါ	-11.0785
▁Λ	-11.0786
▁Under	-11.0787
바	-11.0789
kiem	-11.0791
mais	-11.0794
சி	-11.0795
рен	-11.0795
leme	-11.0796
مو	-11.0796
angkan	-11.0798
▁Φ	-11.0799
▁Գ	-11.08
fran	-11.08
▁hil	-11.0801
▁disc	-11.0801
造	-11.0801
▁баш	-11.0802
زم	-11.0802
jár	-11.0804
ată	-11.0804
dala	-11.0806
maya	-11.0812
▁Milli	-11.0812
我们	-11.0813
▁Vä	-11.0814
▁vos	-11.0814
spre	-11.0817
ความ	-11.0818
ANI	-11.0818
▁System	-11.0818
ま	-11.0819
▁ikus	-11.0819
▁glas	-11.0821
▁ανα	-11.0823
▁Hier	-11.0825
elor	-11.0826
kunde	-11.0826
CIA	-11.0827
▁sot	-11.083
+1	-11.083
HT	-11.0833
▁համար	-11.0833
ŝ	-11.0834
▁sku	-11.0836
▁tyre	-11.0836
kę	-11.0838
ማ	-11.0838
ჩ	-11.0838
▁pli	-11.0841
▁kullan	-11.0841
▁nước	-11.0841
▁\	-11.0842
▁menggunakan	-11.0843
▁fara	-11.0843
ź	-11.0844
林	-11.0847
내	-11.0847
委	-11.0847
▁Sala	-11.0847
izado	-11.0848
强	-11.085
URL	-11.0851
게	-11.0854
tso	-11.0855
▁bax	-11.0856
จาก	-11.0856
cross	-11.0861
▁În	-11.0863
▁visi	-11.0865
▁pana	-11.0865
▁Thu	-11.0866
010	-11.0867
tý	-11.0868
▁Service	-11.087
▁Ку	-11.0872
τό	-11.0873
tong	-11.0874
لك	-11.0876
German	-11.0877
▁Så	-11.0878
▁ander	-11.0879
▁divers	-11.088
▁MAR	-11.0882
инг	-11.0882
▁kunt	-11.0883
SV	-11.0888
EI	-11.0889
▁bygg	-11.089
▁વિ	-11.089
стро	-11.0891
▁groot	-11.0893
▁visa	-11.0893
վում	-11.0894
lind	-11.0894
ік	-11.0896
لب	-11.0897
▁2002	-11.0899
rate	-11.0899
▁Rob	-11.0901
规	-11.0901
▁78	-11.0901
放	-11.0901
▁region	-11.0904
▁keli	-11.0905
رش	-11.0905
▁қо	-11.0906
шу	-11.0907
воз	-11.091
▁над	-11.091
▁map	-11.0912
▁style	-11.0913
leh	-11.0914
خر	-11.0915
ень	-11.0916
escu	-11.0917
idu	-11.0917
▁★	-11.0918
town	-11.092
▁edir	-11.092
ół	-11.0921
▁(7	-11.0922
▁stand	-11.0924
▁Kwa	-11.0924
▁oso	-11.0926
▁importante	-11.0926
▁sø	-11.0927
▁При	-11.0927
empat	-11.0927
▁szere	-11.0928
anın	-11.0929
קי	-11.093
pris	-11.093
صل	-11.093
ỗ	-11.093
иши	-11.0933
llu	-11.0933
▁št	-11.0933
ajā	-11.0933
үй	-11.0934
iño	-11.0934
LAR	-11.0934
실	-11.0935
ель	-11.0936
▁Rose	-11.0936
ио	-11.0936
sluit	-11.0938
▁کہا	-11.0938
风	-11.0939
▁Intel	-11.094
▁ஆ	-11.094
▁rama	-11.0942
▁será	-11.0942
▁న	-11.0942
▁Opera	-11.0943
RON	-11.0943
▁Hall	-11.0944
XX	-11.0945
▁Your	-11.0946
ăm	-11.0946
级	-11.0947
▁oss	-11.095
▁który	-11.0952
▁Log	-11.0952
ែ	-11.0953
24.	-11.0953
märk	-11.0954
lif	-11.0954
▁Institut	-11.0956
▁कर	-11.0957
AQ	-11.0958
▁KO	-11.0959
ίου	-11.096
Qu	-11.0963
ητ	-11.0968
pir	-11.097
کان	-11.0972
▁Ry	-11.0973
空	-11.0973
▁lähe	-11.0974
àng	-11.0974
ارت	-11.0975
提	-11.0976
▁gratuit	-11.0978
nico	-11.0981
owej	-11.0982
▁intens	-11.0985
清	-11.0985
eign	-11.0986
▁lle	-11.0987
middel	-11.0987
بط	-11.0989
чин	-11.0989
解	-11.0989
cun	-11.0991
vál	-11.0993
社	-11.0993
onder	-11.0993
▁hợp	-11.0994
シ	-11.0994
▁cao	-11.0995
▁também	-11.0996
▁yana	-11.0997
▁Merc	-11.0997
向	-11.0998
▁dahil	-11.0998
מל	-11.0998
pping	-11.0998
ठ	-11.0998
방	-11.0998
赛	-11.0998
sah	-11.1
▁group	-11.1
որդ	-11.1
ниот	-11.1001
▁মা	-11.1001
лиги	-11.1001
▁और	-11.1002
/6	-11.1003
▁mint	-11.1003
ncer	-11.1003
kro	-11.1004
感	-11.1006
▁գործ	-11.1006
▁cop	-11.1007
▁পা	-11.1007
rige	-11.1009
▁Nga	-11.101
▁ေ	-11.101
zal	-11.1012
یز	-11.1014
עה	-11.1014
ště	-11.1015
▁(6)	-11.1016
emos	-11.1016
▁výrob	-11.1016
ätt	-11.1019
▁ఎ	-11.1022
ızı	-11.1025
ții	-11.1026
▁मा	-11.1026
ադր	-11.1027
▁godt	-11.1027
atura	-11.1027
우	-11.1028
▁Ray	-11.1029
▁dunia	-11.1029
աշ	-11.1029
rung	-11.1029
elser	-11.1031
gai	-11.1031
▁göz	-11.1035
ád	-11.1035
▁aange	-11.1038
acqu	-11.1039
सी	-11.1039
ρό	-11.104
109	-11.1041
almente	-11.1041
ღ	-11.1041
▁size	-11.1041
▁יש	-11.1043
tulo	-11.1043
աբ	-11.1044
ڪ	-11.1045
乐	-11.1045
tish	-11.1045
کار	-11.1047
രാ	-11.1048
운	-11.1049
center	-11.1049
▁உ	-11.1053
▁menja	-11.1054
▁tir	-11.1057
انه	-11.1059
sının	-11.1061
usan	-11.1062
CR	-11.1063
гүй	-11.1063
PP	-11.1063
▁club	-11.1064
جي	-11.1064
ūn	-11.1066
▁AC	-11.1069
▁intr	-11.107
ої	-11.1071
בל	-11.1073
▁140	-11.1074
oog	-11.1077
okat	-11.1077
يس	-11.1077
▁AB	-11.1078
ൈ	-11.1079
ದು	-11.1079
▁ച	-11.1079
▁micro	-11.108
гов	-11.1082
▁olduğu	-11.1083
▁september	-11.1083
▁euros	-11.1084
▁στα	-11.1084
▁Els	-11.1085
RAM	-11.1086
cita	-11.1088
▁sebe	-11.1089
ступ	-11.1089
/7	-11.109
▁[[	-11.109
▁gest	-11.1091
sında	-11.1094
▁bá	-11.1095
žin	-11.1095
▁kim	-11.1096
▁onze	-11.1096
▁보	-11.11
德	-11.11
দের	-11.1101
▁gas	-11.1102
pí	-11.1102
▁sự	-11.1102
άσ	-11.1102
ൻ	-11.1104
생	-11.1104
LER	-11.1105
हि	-11.111
▁Га	-11.111
▁125	-11.1111
▁olla	-11.1111
amh	-11.1112
考	-11.1112
говор	-11.1114
AMA	-11.1115
▁bukan	-11.1116
عة	-11.1117
从	-11.1117
▁win	-11.112
abb	-11.1124
▁Ví	-11.1125
right	-11.1126
▁lại	-11.1126
Drive	-11.1128
▁pam	-11.1129
yong	-11.1129
hov	-11.1129
qay	-11.113
GGA	-11.1132
XL	-11.1132
OB	-11.1134
০	-11.1134
▁utiliza	-11.1135
▁shp	-11.114
owanie	-11.1141
▁св	-11.1143
▁liter	-11.1144
tään	-11.1145
▁grav	-11.1146
raš	-11.1146
▁days	-11.1147
▁سي	-11.1148
▁NE	-11.1149
▁prepara	-11.1151
查	-11.1151
▁иш	-11.1152
▁bio	-11.1152
▁print	-11.1154
ನ್ನ	-11.1156
▁unter	-11.1158
▁EL	-11.1159
▁ده	-11.1159
ativa	-11.1159
▁1.0	-11.116
vuo	-11.1162
北京	-11.1162
manda	-11.1162
135	-11.1164
rø	-11.1165
▁Tä	-11.1166
יך	-11.1168
mendu	-11.1169
▁sendiri	-11.1171
防	-11.1173
mog	-11.1174
▁domin	-11.1177
福	-11.1177
۴	-11.1177
lage	-11.1178
tzt	-11.1178
Type	-11.1179
▁també	-11.118
▁ә	-11.118
▁Maha	-11.1181
应	-11.1182
▁پو	-11.1182
▁Kay	-11.1182
▁comentari	-11.1182
хан	-11.1184
ित	-11.1186
格	-11.1186
ທ	-11.1186
σης	-11.1186
houd	-11.1188
▁Back	-11.1188
صر	-11.1188
▁cette	-11.1189
▁пи	-11.1189
ณ	-11.119
félag	-11.1191
▁profes	-11.1192
▁Work	-11.1194
ште	-11.1195
▁және	-11.1195
教	-11.1195
▁viol	-11.1197
▁cest	-11.1198
▁gada	-11.1198
局	-11.1199
िक	-11.1201
▁fog	-11.1202
游戏	-11.1203
▁kuch	-11.1204
್ಯಾ	-11.1205
Lu	-11.1205
▁aos	-11.1205
여	-11.1207
HR	-11.1208
▁Rp	-11.1208
jš	-11.1209
▁Pay	-11.1209
▁minden	-11.121
==	-11.1211
图	-11.1212
်	-11.1212
rika	-11.1213
▁president	-11.1218
()	-11.1219
▁distribu	-11.1221
▁Views	-11.1221
ถ	-11.1223
1.8	-11.1223
▁Ok	-11.1226
Pe	-11.1228
▁kuin	-11.1229
▁нь	-11.123
صور	-11.123
Man	-11.1233
▁drug	-11.1233
۳	-11.1234
கள்	-11.1234
▁বা	-11.1234
▁71	-11.1235
▁все	-11.1236
▁כי	-11.1236
▁sammen	-11.1237
▁voz	-11.1237
ದಲ್ಲಿ	-11.1237
ján	-11.1238
വാ	-11.1239
102	-11.1241
集	-11.1242
Â	-11.1242
▁Kosovës	-11.1243
▁Produ	-11.1244
ಲ್ಲ	-11.1244
ôn	-11.1245
got	-11.1246
[2]	-11.1247
võt	-11.1247
▁buat	-11.1251
▁Ski	-11.1253
pina	-11.1254
ಾಗ	-11.1256
▁job	-11.1257
1000	-11.1257
▁Ada	-11.1258
zett	-11.1258
▁Blu	-11.1259
ería	-11.1259
▁Ano	-11.126
▁jadi	-11.1262
▁DVD	-11.1263
MU	-11.1264
لس	-11.1265
тыр	-11.1265
▁שה	-11.1266
▁SU	-11.1267
லை	-11.1268
тик	-11.1269
▁light	-11.1271
ರೆ	-11.1272
తో	-11.1274
чка	-11.1274
iques	-11.1275
▁power	-11.1275
▁jsem	-11.1275
inho	-11.1276
▁tax	-11.1276
][	-11.1277
▁ime	-11.1277
款	-11.1277
ไม่	-11.1277
hom	-11.1278
/01	-11.1278
त्र	-11.1279
است	-11.1281
सा	-11.1281
quart	-11.1281
ผ	-11.1282
0.1	-11.1282
ött	-11.1284
ności	-11.1284
推	-11.1285
▁година	-11.1286
ант	-11.1287
zaj	-11.1289
ligen	-11.1289
カ	-11.129
staw	-11.1291
▁jetë	-11.1295
iana	-11.1295
▁नि	-11.1295
▁सा	-11.1296
▁Sau	-11.1296
▁ਗ	-11.1298
zone	-11.1299
▁ras	-11.1299
▁objekt	-11.13
gger	-11.13
pack	-11.13
ALA	-11.1303
▁ishte	-11.1305
ruh	-11.1308
▁anima	-11.1309
يب	-11.1311
▁SI	-11.1311
▁Euskal	-11.1312
▁realiza	-11.1313
ški	-11.1314
▁Reply	-11.1314
▁gla	-11.1316
▁können	-11.1317
מק	-11.1317
▁Audi	-11.1318
ând	-11.1318
160	-11.1319
101	-11.1319
▁mars	-11.1323
▁Mol	-11.1324
ganda	-11.1325
kw	-11.1325
103	-11.1326
PM	-11.1326
ël	-11.1326
дат	-11.1327
▁tapi	-11.1328
▁music	-11.1328
▁november	-11.133
اری	-11.133
ansa	-11.133
дың	-11.1331
▁PER	-11.1333
tér	-11.1333
▁Jakarta	-11.1334
cijos	-11.1335
ového	-11.1338
관	-11.1338
명	-11.1338
▁alat	-11.1339
▁fait	-11.1342
▁việc	-11.1343
ផ្	-11.1343
लाई	-11.1344
šti	-11.1344
MENT	-11.1344
rita	-11.1344
ంద	-11.1346
villa	-11.1347
▁ölkə	-11.1347
នេះ	-11.1348
▁skulle	-11.1349
jū	-11.1349
▁ц	-11.1352
▁Mala	-11.1352
▁شهر	-11.1355
ează	-11.1355
ראש	-11.1356
ILL	-11.1356
▁કર	-11.1359
▁мен	-11.1359
▁How	-11.1361
тери	-11.1361
רב	-11.1362
fanya	-11.1364
▁Christ	-11.1364
▁ау	-11.1364
▁2001	-11.1365
▁scen	-11.1365
▁puede	-11.1368
▁Code	-11.1368
lub	-11.1368
një	-11.1371
ybė	-11.1372
аб	-11.1373
▁sheegay	-11.1373
▁sign	-11.1374
▁services	-11.1378
▁adapt	-11.1379
ijas	-11.138
acak	-11.138
▁الله	-11.1382
▁wys	-11.1383
িত	-11.1384
પા	-11.1385
▁atas	-11.1386
pik	-11.1386
▁محمد	-11.1387
▁نم	-11.1387
▁musik	-11.1388
пар	-11.1389
▁nám	-11.1389
▁kimi	-11.1391
yı	-11.1391
ktu	-11.1391
Θ	-11.1391
کس	-11.1392
koht	-11.1392
key	-11.1394
shë	-11.1395
▁kombin	-11.1397
▁कि	-11.1397
ว่า	-11.1397
کھ	-11.1398
ðum	-11.1399
河	-11.1399
אות	-11.1401
▁vita	-11.1401
ონ	-11.1401
ālā	-11.1402
▁gerek	-11.1403
▁tant	-11.1403
▁Ras	-11.1403
аз	-11.1407
フ	-11.1409
पा	-11.1409
Art	-11.1409
თა	-11.1409
wor	-11.141
▁Ihre	-11.1412
▁major	-11.1412
سر	-11.1412
ıldı	-11.1414
xxx	-11.1414
لف	-11.1416
mah	-11.1416
▁fanta	-11.1417
种	-11.1417
ელ	-11.142
мин	-11.1421
faq	-11.1423
▁වි	-11.1425
ək	-11.1425
tiques	-11.143
ศ	-11.1431
ჯ	-11.1431
عم	-11.1431
bund	-11.1431
▁horas	-11.1431
▁học	-11.1432
EU	-11.1434
uyu	-11.1434
▁Administra	-11.1436
jde	-11.1436
▁bağlı	-11.1437
▁Tie	-11.1438
▁kör	-11.144
▁Ef	-11.1441
ация	-11.1444
基	-11.1444
leið	-11.1444
وع	-11.1445
▁új	-11.1445
kning	-11.1449
▁eman	-11.145
RP	-11.1451
dura	-11.1452
efni	-11.1452
联	-11.1457
خط	-11.1458
▁niin	-11.146
▁proti	-11.1461
ष	-11.1461
先	-11.1462
▁tour	-11.1463
ģ	-11.1463
.[1]	-11.1464
ško	-11.1467
▁Thai	-11.147
▁member	-11.147
voor	-11.147
▁Let	-11.1472
▁baada	-11.1473
▁وت	-11.1473
шка	-11.1473
▁melakukan	-11.1475
▁kind	-11.1476
▁rus	-11.1476
løs	-11.1478
DD	-11.1479
发展	-11.1479
办	-11.148
▁vur	-11.1481
▁kli	-11.1481
▁him	-11.1483
▁1,5	-11.1484
bü	-11.1484
▁sigur	-11.1485
▁Bis	-11.1489
ారు	-11.1489
ști	-11.1492
并	-11.1492
haya	-11.1492
▁qal	-11.1492
▁nett	-11.1493
▁hasta	-11.1494
▁FI	-11.1496
▁doen	-11.1497
▁County	-11.1498
cro	-11.1498
▁87	-11.15
▁permet	-11.1501
气	-11.1502
▁üz	-11.1502
▁vot	-11.1502
ämä	-11.1503
▁skol	-11.1504
kali	-11.1504
▁polic	-11.1505
كر	-11.1506
▁besar	-11.1506
▁Arab	-11.1509
घ	-11.151
את	-11.1511
bá	-11.1512
Я	-11.1514
バ	-11.1515
istic	-11.1515
▁aika	-11.1515
icio	-11.1516
paka	-11.1518
▁التي	-11.1519
▁fir	-11.1519
чен	-11.152
bouw	-11.1522
0.3	-11.1524
ayaan	-11.1524
ння	-11.1525
öh	-11.1525
▁Bin	-11.1525
▁Maar	-11.1526
▁Schuhe	-11.1527
KL	-11.1528
▁niya	-11.1528
OD	-11.153
чна	-11.1532
ныя	-11.1532
▁grand	-11.1533
▁عمل	-11.1534
syn	-11.1535
డ్	-11.1535
▁stá	-11.1536
▁který	-11.1537
コ	-11.1537
spel	-11.1538
▁Resort	-11.1539
hús	-11.1539
upp	-11.1541
שת	-11.1541
zenie	-11.1542
服务	-11.1542
155	-11.1542
▁(8	-11.1543
rako	-11.1544
▁Cro	-11.1544
fn	-11.1546
할	-11.1546
▁semana	-11.1547
▁elő	-11.1547
▁Roz	-11.1547
rite	-11.1547
▁Ки	-11.1548
ост	-11.1548
ান	-11.1548
▁máy	-11.1549
চ	-11.155
▁fort	-11.155
ể	-11.1551
▁Master	-11.1551
mı	-11.1552
▁Apa	-11.1552
γκ	-11.1552
▁oku	-11.1553
িক	-11.1557
atzeko	-11.1557
מש	-11.1557
▁یو	-11.1558
tsiooni	-11.1558
жу	-11.1558
▁sinh	-11.1559
治	-11.1559
▁что	-11.1559
્ય	-11.156
▁yara	-11.1561
▁presta	-11.1563
▁otro	-11.1563
ශ	-11.1564
tys	-11.1564
▁gud	-11.1566
▁million	-11.1566
행	-11.1568
valt	-11.1571
▁Sim	-11.1571
кат	-11.1572
opp	-11.1572
结	-11.1572
stof	-11.1573
▁им	-11.1576
▁Jar	-11.1578
parti	-11.1579
▁kép	-11.1581
▁מש	-11.1581
KK	-11.1582
▁ότι	-11.1582
▁ծ	-11.1583
▁leng	-11.1584
ား	-11.1584
党	-11.1586
iausi	-11.1587
▁كل	-11.1587
ика	-11.1587
▁petit	-11.1588
ativ	-11.1588
krat	-11.1591
▁Vý	-11.1591
▁Bei	-11.1592
კა	-11.1594
▁Movie	-11.1595
зор	-11.1595
еж	-11.1598
^	-11.1599
ਫ	-11.16
▁memper	-11.1602
úp	-11.1603
▁məlumat	-11.1604
▁Nä	-11.1605
但	-11.1605
лын	-11.1605
लि	-11.1605
▁мас	-11.1606
BT	-11.1606
▁uur	-11.1608
▁version	-11.161
▁Was	-11.1611
בח	-11.1611
lərinin	-11.1612
▁XX	-11.1615
్య	-11.1618
▁공	-11.1619
▁Angel	-11.1621
ең	-11.1621
▁favor	-11.1622
第	-11.1623
▁Glo	-11.1627
vég	-11.1627
dige	-11.1628
하는	-11.1629
▁Watch	-11.163
lice	-11.163
▁obat	-11.1631
▁Ар	-11.1635
hof	-11.1637
rrera	-11.1637
ពី	-11.1641
dara	-11.1641
heter	-11.1647
lni	-11.1648
▁pé	-11.1651
▁hra	-11.1652
▁gəl	-11.1652
▁particip	-11.1654
▁include	-11.1655
▁kesk	-11.1656
ferð	-11.1656
▁karşı	-11.1657
লি	-11.1658
bari	-11.1658
ิน	-11.1659
▁School	-11.166
▁logo	-11.1662
TRA	-11.1662
polis	-11.1662
▁basi	-11.1663
ție	-11.1664
▁jää	-11.1664
▁khách	-11.1664
teur	-11.1665
▁koko	-11.1665
▁watu	-11.1666
▁Dol	-11.1666
weyn	-11.1667
▁old	-11.1668
▁ili	-11.167
▁complet	-11.167
Book	-11.1671
መ	-11.1672
inden	-11.1672
оо	-11.1673
alia	-11.1673
rende	-11.1675
soft	-11.1676
rän	-11.1676
▁пе	-11.1677
▁zdrav	-11.1678
480	-11.168
حر	-11.168
▁bör	-11.1681
LM	-11.1682
ಗಳ	-11.1682
▁psi	-11.1682
▁Brand	-11.1683
▁Pic	-11.1684
▁zuten	-11.1685
ķ	-11.1687
biga	-11.1688
vara	-11.1688
▁às	-11.1689
▁arm	-11.169
НИ	-11.169
▁Pour	-11.1691
News	-11.1694
▁põ	-11.1695
▁zich	-11.1695
ồ	-11.1695
▁vaz	-11.1696
▁στη	-11.1697
▁leur	-11.1699
struct	-11.1699
▁parlament	-11.17
▁1.5	-11.1702
ച്ച	-11.1702
noma	-11.1704
hui	-11.1705
▁There	-11.1705
EF	-11.1708
ടി	-11.1708
▁Pir	-11.1708
企业	-11.1708
▁arra	-11.1711
▁Gün	-11.1712
▁tentang	-11.1714
▁និង	-11.1715
▁160	-11.1715
ト	-11.1715
▁تم	-11.1715
▁tsa	-11.1715
▁folk	-11.1716
áž	-11.1719
ILI	-11.1721
▁בש	-11.1722
рин	-11.1724
യാ	-11.1726
▁Ро	-11.1726
▁Ха	-11.1726
370	-11.1728
▁Asia	-11.1728
اك	-11.1731
ори	-11.1732
▁کرنے	-11.1732
مل	-11.1736
▁sens	-11.1738
▁komun	-11.1739
fant	-11.174
▁Tek	-11.174
▁Kro	-11.174
▁mode	-11.1742
▁শ	-11.1742
ojo	-11.1742
той	-11.1744
▁Türkiye	-11.1745
αί	-11.1747
UNI	-11.1748
РА	-11.1749
▁şe	-11.1749
១	-11.1749
/2017	-11.175
øv	-11.1751
וע	-11.1752
▁ख	-11.1752
▁sekä	-11.1752
▁explo	-11.1753
itan	-11.1754
▁Kui	-11.1754
▁Hay	-11.1755
גר	-11.1755
▁град	-11.1757
▁Baby	-11.1757
зем	-11.1758
▁software	-11.1759
ங்க	-11.176
ип	-11.1765
▁efekt	-11.1765
▁esper	-11.1765
▁yok	-11.1766
▁vaja	-11.1767
▁Emp	-11.1767
▁estat	-11.1772
▁több	-11.1773
▁під	-11.1774
urile	-11.1776
kool	-11.1776
ண	-11.1779
fest	-11.1779
CP	-11.178
ач	-11.178
ӯ	-11.1782
▁nå	-11.1784
users	-11.1786
▁still	-11.1786
▁Му	-11.1786
Ե	-11.1787
▁cru	-11.1788
ская	-11.1789
studio	-11.179
τική	-11.1793
▁baba	-11.1794
▁global	-11.1794
▁περι	-11.1795
ประ	-11.1795
▁inay	-11.1795
اض	-11.1796
ére	-11.1797
▁Eu	-11.1797
ký	-11.1799
▁الر	-11.18
▁Жа	-11.18
▁fix	-11.1803
ട്ട	-11.1804
èl	-11.1804
idagi	-11.1805
ponent	-11.1805
▁الخ	-11.1806
tien	-11.1807
ছে	-11.1808
gerð	-11.1809
▁radi	-11.181
şti	-11.1811
nö	-11.1813
至	-11.1813
stjórn	-11.1813
一个	-11.1814
▁SM	-11.1815
▁izle	-11.1816
▁indica	-11.1819
cev	-11.1819
▁tempat	-11.1821
ֆ	-11.1823
▁consum	-11.1823
qué	-11.1825
gune	-11.1826
zare	-11.1826
zol	-11.1826
▁phẩm	-11.1827
ஸ்	-11.1827
мов	-11.1827
▁tanto	-11.1828
▁egiten	-11.1828
▁бил	-11.1829
▁friend	-11.1829
ợ	-11.183
ossa	-11.1831
▁Instagram	-11.1832
▁Vá	-11.1832
▁bulun	-11.1832
▁comments	-11.1833
▁profesional	-11.1836
اخ	-11.1838
ımı	-11.1838
online	-11.184
▁gru	-11.1843
EZ	-11.1844
▁mao	-11.1846
▁एक	-11.1848
▁Vest	-11.1848
eiros	-11.1848
速	-11.185
▁אל	-11.1852
▁Dh	-11.1853
koak	-11.1853
▁yapı	-11.1854
CG	-11.1855
▁מת	-11.1857
▁share	-11.1857
ног	-11.1857
▁پیش	-11.1858
▁mirë	-11.1859
:"	-11.186
TY	-11.1861
ối	-11.1862
රු	-11.1862
arkan	-11.1862
іл	-11.1863
ácie	-11.1863
▁Original	-11.1864
▁spor	-11.1865
ować	-11.1865
עי	-11.1865
▁Servi	-11.1868
▁Cast	-11.1868
▁הח	-11.1868
TAN	-11.1868
▁baina	-11.187
GS	-11.1871
112	-11.1871
▁question	-11.1873
▁chính	-11.1873
ಕಾ	-11.1874
kkel	-11.1874
جا	-11.1876
FC	-11.1876
czne	-11.1877
jski	-11.1877
▁Imp	-11.1878
▁rob	-11.1879
▁wurde	-11.1879
šči	-11.188
žen	-11.1881
很	-11.1882
iano	-11.1884
рав	-11.1884
▁turist	-11.1884
▁finans	-11.1885
▁svoje	-11.1885
йт	-11.1886
rätt	-11.1888
גע	-11.1889
ského	-11.1889
WI	-11.189
issä	-11.1891
nnan	-11.1893
▁mynd	-11.1894
▁Jur	-11.1897
lý	-11.1898
▁vya	-11.19
τί	-11.1901
选	-11.1901
▁mengu	-11.1901
발	-11.1901
voer	-11.1902
▁radio	-11.1902
رت	-11.1902
тре	-11.1905
schuhe	-11.1907
Pol	-11.1907
оқ	-11.1907
▁used	-11.1907
மா	-11.1907
ਈ	-11.1908
Tra	-11.191
ница	-11.1912
ışı	-11.1913
tú	-11.1914
ジ	-11.1915
Ł	-11.1915
▁Gla	-11.1916
118	-11.1918
▁xəbər	-11.192
ATE	-11.1921
▁aiz	-11.1922
image	-11.1922
ഭ	-11.1923
ijs	-11.1928
hető	-11.1928
cup	-11.1928
▁(10	-11.1929
[3]	-11.1929
▁kinder	-11.193
ikke	-11.1932
АН	-11.1933
pé	-11.1933
gado	-11.1934
▁pēc	-11.1935
▁banda	-11.1936
▁спо	-11.1936
▁anni	-11.1937
▁իր	-11.1937
եք	-11.1937
▁vaik	-11.1939
▁hər	-11.1939
▁koos	-11.1941
▁Қ	-11.1941
월	-11.1943
▁бел	-11.1943
បាន	-11.1943
▁passa	-11.1944
▁buy	-11.1944
▁thông	-11.1945
rina	-11.1945
கி	-11.1945
ిన	-11.1947
교	-11.1948
әк	-11.1948
volg	-11.1952
ွ	-11.1952
▁ਸਿੰਘ	-11.1952
▁તે	-11.1953
ത്തി	-11.1954
sonder	-11.1955
હ	-11.1956
白	-11.1957
▁Pot	-11.1959
▁tiene	-11.196
▁finde	-11.196
克	-11.1962
য়া	-11.1963
▁centre	-11.1964
legen	-11.1965
ações	-11.1965
▁SH	-11.1966
▁nú	-11.1966
▁گیا	-11.1967
周	-11.1971
体育投注	-11.1971
ology	-11.1971
▁prav	-11.1971
жен	-11.1972
సి	-11.1973
▁Ferr	-11.1974
iyay	-11.1975
ដែល	-11.1976
Γ	-11.1979
▁waxa	-11.198
되	-11.198
station	-11.1981
ologie	-11.1982
▁lát	-11.1982
▁Haber	-11.1982
9%8	-11.1983
فو	-11.1984
uche	-11.1984
▁cro	-11.1985
ját	-11.1985
util	-11.1986
глед	-11.1986
ణ	-11.1986
▁как	-11.1986
▁central	-11.1991
▁Door	-11.1991
hled	-11.1992
డి	-11.1993
ក្នុង	-11.1994
רק	-11.1995
DB	-11.1995
▁talde	-11.1996
TAT	-11.1999
mart	-11.1999
ლა	-11.2
ונה	-11.2001
ছ	-11.2003
字	-11.2003
pho	-11.2003
▁käy	-11.2005
▁change	-11.2005
pokoj	-11.2006
!”	-11.2007
merk	-11.2008
ljiv	-11.2009
▁Time	-11.201
ldi	-11.2013
ۍ	-11.2013
▁maken	-11.2013
ška	-11.2013
म्	-11.2014
cli	-11.2017
▁bán	-11.2017
jumu	-11.2018
Ke	-11.2018
▁جس	-11.2019
ეთ	-11.2019
▁klik	-11.2021
kolo	-11.2022
▁prezident	-11.2022
▁agar	-11.2022
▁Nach	-11.2023
▁Gan	-11.2023
الی	-11.2024
riko	-11.2025
Ju	-11.2025
item	-11.2027
▁yg	-11.2028
GP	-11.2028
meti	-11.2029
prop	-11.2029
יום	-11.203
oğlu	-11.203
system	-11.2031
▁Gun	-11.2031
azioa	-11.2031
աք	-11.2032
uses	-11.2032
2006	-11.2032
şe	-11.2032
▁1.2	-11.2033
RD	-11.2033
▁бор	-11.2033
ková	-11.2034
▁Hindi	-11.2034
foto	-11.2035
ány	-11.2036
կա	-11.2036
ൽ	-11.2038
▁sob	-11.2039
false	-11.2039
max	-11.204
▁HO	-11.2041
整	-11.2042
లా	-11.2042
bé	-11.2042
quen	-11.2043
رج	-11.2044
inha	-11.2046
▁rezerv	-11.2047
▁مد	-11.2047
116	-11.2048
HS	-11.2048
ਰੀ	-11.2048
gov	-11.2049
니	-11.205
264	-11.2051
▁مج	-11.2051
ီး	-11.2054
▁funk	-11.2054
650	-11.2055
▁murah	-11.2055
▁نه	-11.2055
▁Ä	-11.2056
LV	-11.2056
▁Mul	-11.2056
Chi	-11.2059
čné	-11.2061
▁circ	-11.2061
чки	-11.2063
τερ	-11.2063
直	-11.2065
▁fest	-11.2065
▁innova	-11.2066
corre	-11.2066
ਹਾ	-11.2067
ვე	-11.2069
▁Mill	-11.2069
curso	-11.2071
▁მი	-11.2071
Gu	-11.2071
▁مق	-11.2072
果	-11.2074
▁prezent	-11.2076
▁marketing	-11.2077
▁platform	-11.2077
▁treball	-11.2078
▁Promo	-11.2079
▁decor	-11.2081
▁sina	-11.2081
ತ್	-11.2082
▁Smart	-11.2082
英	-11.2083
vär	-11.2083
پور	-11.2083
▁massage	-11.2085
-30	-11.209
ლებ	-11.209
цион	-11.2092
▁Meng	-11.2093
حل	-11.2094
FO	-11.2094
▁İş	-11.2096
۹	-11.2097
▁może	-11.2097
专	-11.2097
▁MU	-11.2097
GAT	-11.2097
ηση	-11.2097
څ	-11.2098
▁card	-11.2098
▁recept	-11.2098
DT	-11.2098
▁miss	-11.2099
▁nama	-11.2099
▁diren	-11.2099
LP	-11.2099
пас	-11.2101
▁нови	-11.2101
INI	-11.2102
λή	-11.2103
▁Tha	-11.2104
Item	-11.2106
▁sử	-11.2108
รับ	-11.211
▁kişi	-11.2111
niec	-11.2111
▁sca	-11.2117
lerde	-11.2119
laik	-11.2119
raad	-11.212
اط	-11.212
▁지	-11.212
▁familia	-11.2121
dun	-11.2121
▁Pred	-11.2122
TAR	-11.2123
那	-11.2126
目	-11.2126
▁daripada	-11.2127
▁oldu	-11.2128
том	-11.2129
▁yon	-11.213
▁Kad	-11.213
фо	-11.2131
вал	-11.2131
ırı	-11.2131
▁কা	-11.2131
ajú	-11.2131
charge	-11.2132
▁kha	-11.2132
▁Marc	-11.2132
OV	-11.2133
▁fall	-11.2134
3000	-11.2134
▁fle	-11.2135
▁januar	-11.2136
رة	-11.2136
▁shar	-11.2136
站	-11.2138
▁گو	-11.2139
受	-11.214
▁Sor	-11.2142
▁Ann	-11.2142
330	-11.2143
▁bot	-11.2143
▁Gj	-11.2143
ံ	-11.2144
280	-11.2146
শি	-11.2147
▁жыл	-11.2148
▁Bild	-11.2148
دم	-11.215
დე	-11.2151
ësi	-11.2151
arbejde	-11.2152
▁cart	-11.2152
នា	-11.2153
▁historia	-11.2155
чер	-11.2156
▁wake	-11.2157
исти	-11.2157
▁rdf	-11.2158
buat	-11.216
▁Dy	-11.2161
▁Tun	-11.2162
▁artikel	-11.2164
kko	-11.2165
▁sector	-11.2166
▁send	-11.2171
hí	-11.2173
▁život	-11.2175
▁quando	-11.2176
▁Pack	-11.2176
බ	-11.2176
ilan	-11.2177
如	-11.2178
▁past	-11.218
▁গ	-11.2182
mű	-11.2182
股	-11.2183
‬	-11.2183
战	-11.2183
▁até	-11.2184
▁Domin	-11.2185
ëm	-11.2189
voca	-11.219
▁investi	-11.2191
QUE	-11.2193
gång	-11.2193
haha	-11.2193
کن	-11.2193
▁porn	-11.2195
torial	-11.2196
ਿਆ	-11.2198
انو	-11.2199
గు	-11.2199
▁Cup	-11.22
▁Bud	-11.22
ACA	-11.2201
▁Mercedes	-11.2202
තු	-11.2202
ropa	-11.2205
нік	-11.2205
▁East	-11.2207
قة	-11.2208
YE	-11.2208
чет	-11.221
▁Nova	-11.2211
送	-11.2211
▁Tanzania	-11.2212
▁aplik	-11.2213
งาน	-11.2214
eerde	-11.2214
كم	-11.2215
什么	-11.2216
kó	-11.2219
Phone	-11.2219
▁đồng	-11.2219
rade	-11.2219
കു	-11.2219
▁Դ	-11.222
▁XL	-11.2221
▁인	-11.2227
ില്‍	-11.2227
▁hình	-11.2228
เก	-11.2229
');	-11.2229
াই	-11.2231
▁δι	-11.2231
▁school	-11.2231
▁Rosa	-11.2234
voz	-11.2235
hrad	-11.2236
mper	-11.2236
▁Amazon	-11.2237
▁predstav	-11.2239
ាយ	-11.2239
斯	-11.224
▁prakt	-11.224
ష	-11.2241
▁ava	-11.2242
න්න	-11.2245
RR	-11.2245
青	-11.2245
▁kuni	-11.2246
etto	-11.2247
PN	-11.2247
ridge	-11.2247
ập	-11.2249
▁hän	-11.2249
학	-11.225
нага	-11.225
جی	-11.225
▁pati	-11.2251
ENG	-11.2251
▁Bonus	-11.2252
վար	-11.2253
বার	-11.2253
ຊ	-11.226
kubwa	-11.226
▁stabil	-11.226
▁memba	-11.2261
▁Hard	-11.2262
ficient	-11.2262
精	-11.2264
▁Uhr	-11.2264
▁hơn	-11.2267
').	-11.2267
code	-11.2268
▁baie	-11.2271
ому	-11.2272
▁Rah	-11.2273
قر	-11.2275
▁Map	-11.2275
FS	-11.2275
PK	-11.2277
seb	-11.2278
kili	-11.2279
oci	-11.2279
ξε	-11.2281
дол	-11.2284
quin	-11.2286
在线	-11.2286
firma	-11.2287
▁mille	-11.2287
▁presidente	-11.2287
▁visita	-11.2288
larga	-11.2288
υπ	-11.2288
▁sampai	-11.2289
▁Dag	-11.229
pub	-11.229
▁Mobile	-11.229
▁grupo	-11.229
▁THE	-11.229
ულ	-11.2292
▁Catalunya	-11.2293
ωση	-11.2294
osť	-11.2294
1.0	-11.2298
▁Nacional	-11.2298
ků	-11.2298
▁porque	-11.2299
▁Indi	-11.23
▁permit	-11.2303
credit	-11.2304
▁aquesta	-11.2304
▁trường	-11.2304
word	-11.2304
▁upang	-11.2305
ât	-11.2305
▁yfir	-11.2305
IAN	-11.2305
ından	-11.2306
550	-11.2307
▁rész	-11.2307
▁кал	-11.2307
šanās	-11.2308
▁eerste	-11.2311
▁Lietuvos	-11.2312
▁rezultat	-11.2312
▁még	-11.2313
מים	-11.2314
▁Natur	-11.2314
følge	-11.2316
ဖ	-11.2317
▁forum	-11.2317
▁Published	-11.2317
▁hjá	-11.2318
▁එ	-11.2318
▁agent	-11.2318
erie	-11.2318
și	-11.2318
мін	-11.2319
кай	-11.2319
▁produc	-11.2319
▁tablet	-11.232
▁Eng	-11.2322
指	-11.2322
由	-11.2323
ಲಿ	-11.2324
▁živ	-11.2324
▁үз	-11.2325
гэ	-11.2328
▁Ran	-11.233
iški	-11.2332
jón	-11.2332
▁confi	-11.2334
ترین	-11.2335
▁ZA	-11.2337
อน	-11.2337
▁kole	-11.2337
▁bë	-11.2338
ář	-11.2338
મા	-11.2338
▁maxim	-11.2339
estra	-11.234
知	-11.2341
▁cerca	-11.2342
mund	-11.2342
LOG	-11.2343
biz	-11.2343
ေန	-11.2344
▁önce	-11.2345
▁image	-11.2346
ppu	-11.2346
▁Bab	-11.2346
registr	-11.2346
彩票	-11.2347
▁Our	-11.2347
114	-11.2348
XI	-11.2349
жы	-11.2349
▁head	-11.2349
▁lalu	-11.235
▁mok	-11.235
бү	-11.2351
분	-11.2351
/05/20	-11.2352
▁Nur	-11.2353
▁билан	-11.2354
ላ	-11.2356
▁شا	-11.2356
liste	-11.2356
服	-11.2356
solution	-11.2357
▁mostra	-11.2359
▁maior	-11.2359
▁þá	-11.236
нан	-11.236
▁Χ	-11.2363
▁Garden	-11.2363
▁bata	-11.2364
▁could	-11.2366
▁መ	-11.2366
ując	-11.2366
▁jos	-11.2368
▁csak	-11.2369
kira	-11.2369
sində	-11.237
▁hati	-11.237
iller	-11.237
ლო	-11.237
▁pró	-11.2372
ācijas	-11.2374
ယ္	-11.2375
tato	-11.2375
▁(20	-11.2376
ље	-11.2376
לים	-11.2379
pital	-11.238
пен	-11.238
bach	-11.2381
ект	-11.2382
京	-11.2385
CHE	-11.2385
▁League	-11.2385
▁Article	-11.2386
lepš	-11.2388
▁Zá	-11.239
▁alın	-11.239
İN	-11.2392
▁white	-11.2392
▁سن	-11.2392
▁Ord	-11.2392
cula	-11.2394
포	-11.2395
▁Sou	-11.2395
常	-11.2396
న్న	-11.2397
▁ас	-11.2397
eyn	-11.2399
▁mới	-11.24
▁Good	-11.24
ρω	-11.2401
▁Jon	-11.2403
▁Itali	-11.2403
sını	-11.2403
▁Minister	-11.2403
bæ	-11.2406
mach	-11.2406
App	-11.2407
رح	-11.2408
매	-11.241
λέ	-11.241
display	-11.2411
gari	-11.2414
լի	-11.2416
175	-11.2417
tip	-11.2417
▁شما	-11.2417
▁jej	-11.2418
هن	-11.2419
λογ	-11.242
aña	-11.2423
▁હ	-11.2423
ና	-11.2424
星	-11.2424
プ	-11.2429
尔	-11.2429
▁metro	-11.2429
具	-11.2429
adó	-11.243
ফ	-11.243
▁gjithë	-11.243
▁huis	-11.243
ítás	-11.2431
▁stud	-11.2431
وك	-11.2431
▁کن	-11.2432
う	-11.2432
▁1.1	-11.2432
TAL	-11.2433
ené	-11.2435
▁tê	-11.2435
trag	-11.2435
istu	-11.2435
▁Mp	-11.2435
ierung	-11.2437
fahr	-11.2437
优	-11.2439
加盟	-11.2439
گل	-11.2439
गा	-11.2439
▁(0	-11.2439
▁най	-11.2441
▁Spiel	-11.2444
재	-11.2444
лаб	-11.2445
古	-11.2446
▁Maka	-11.2446
▁પર	-11.2446
пад	-11.2447
ikus	-11.2448
▁kush	-11.2448
بات	-11.245
NET	-11.2451
▁muda	-11.2452
▁Bang	-11.2454
нт	-11.2454
▁Pass	-11.2457
សា	-11.2457
▁బ	-11.2458
ით	-11.2458
പി	-11.2459
▁São	-11.2461
δη	-11.2462
ყ	-11.2463
ಷ	-11.2463
▁בה	-11.2463
cient	-11.2464
▁síð	-11.2468
multiple	-11.2471
▁nieuwe	-11.2472
展	-11.2473
▁tho	-11.2473
diesel	-11.2473
▁#1	-11.2473
hulu	-11.2474
▁것	-11.2474
μέν	-11.2475
hall	-11.2475
בים	-11.2476
olla	-11.2477
larini	-11.2477
асы	-11.2477
slovensk	-11.2477
град	-11.2478
бір	-11.2478
9,00	-11.2478
ା	-11.2478
dale	-11.2478
▁organ	-11.2478
سو	-11.2479
です	-11.2479
ța	-11.248
jang	-11.248
▁Bau	-11.248
▁ingin	-11.2481
tuan	-11.2481
ാന	-11.2482
લે	-11.2482
▁seç	-11.2483
ಕೆ	-11.2483
119	-11.2483
talo	-11.2484
нова	-11.2484
">	-11.2485
män	-11.2486
▁എ	-11.2487
配	-11.2488
▁order	-11.2492
▁Add	-11.2493
txo	-11.2494
5.00	-11.2495
▁Make	-11.2496
ngga	-11.2496
▁vēl	-11.2496
ाइ	-11.2496
マ	-11.2498
▁¿	-11.2498
▁لم	-11.2499
▁success	-11.2501
ellä	-11.2501
яс	-11.2502
ėti	-11.2502
tré	-11.2503
wala	-11.2503
0.4	-11.2505
▁Shu	-11.2505
布	-11.2506
võ	-11.2507
мас	-11.2508
соб	-11.251
ült	-11.2512
▁logi	-11.2512
960	-11.2512
只	-11.2512
▁мі	-11.2513
▁hlav	-11.2513
▁Pel	-11.2514
▁ન	-11.2514
▁кў	-11.2515
▁Kinder	-11.2517
ונ	-11.2517
මා	-11.2517
▁dünya	-11.2518
▁çalış	-11.2519
yada	-11.252
▁zeuden	-11.252
дам	-11.2522
▁down	-11.2522
▁130	-11.2522
▁Prof	-11.2523
▁Ori	-11.2525
▁نام	-11.2526
▁Ли	-11.2526
超	-11.2527
▁require	-11.2528
▁hom	-11.2528
▁chiq	-11.2529
انت	-11.253
read	-11.253
▁found	-11.2531
▁exempl	-11.2532
▁clic	-11.2533
1.1	-11.2534
legt	-11.2534
▁900	-11.2535
քի	-11.2536
▁wada	-11.2537
▁bokep	-11.2538
院	-11.2538
sider	-11.2539
▁defini	-11.2539
▁Box	-11.254
well	-11.254
یو	-11.2541
ając	-11.2541
acions	-11.2541
edia	-11.2543
δε	-11.2546
nə	-11.2549
TTT	-11.2549
▁match	-11.255
▁view	-11.2551
čil	-11.2552
助	-11.2552
RM	-11.2553
▁TH	-11.2555
base	-11.2555
ನಾ	-11.2557
思	-11.2557
▁varia	-11.2558
tè	-11.2558
قل	-11.2559
bó	-11.256
▁sht	-11.2561
ഡ	-11.2561
сов	-11.2563
LL	-11.2564
▁rece	-11.2564
▁dalka	-11.2564
▁Baş	-11.2566
ධ	-11.2567
▁זה	-11.2568
▁volta	-11.2568
▁çık	-11.2568
fb	-11.2571
rė	-11.2571
вој	-11.2571
▁ফ	-11.2571
ブ	-11.2572
▁cs	-11.2572
▁wakati	-11.2573
▁Petr	-11.2573
kaj	-11.2576
läng	-11.2576
cular	-11.2578
bada	-11.2578
արդ	-11.2579
▁savu	-11.2582
дж	-11.2584
▁απ	-11.2585
Nr	-11.2585
▁ekip	-11.2585
biy	-11.2586
લી	-11.2586
ಕ್ಷ	-11.2587
166	-11.2588
▁lý	-11.2589
ıyla	-11.259
136	-11.2591
▁الد	-11.2592
.10.2	-11.2592
▁movie	-11.2593
robi	-11.2595
konna	-11.2596
▁iyi	-11.2596
证	-11.2596
technik	-11.2597
áció	-11.2598
業	-11.2598
ლ	-11.2599
▁Rio	-11.26
ischen	-11.26
qan	-11.26
window	-11.26
▁mejor	-11.2601
стер	-11.2602
▁aurre	-11.2603
▁Publicado	-11.2604
▁Terra	-11.2605
ິ	-11.2606
୍	-11.2606
ድ	-11.2606
▁Oh	-11.2607
ప్	-11.2607
▁મા	-11.2608
hľad	-11.2609
EV	-11.2609
ага	-11.2609
aggi	-11.2609
▁Classic	-11.261
əcək	-11.2611
▁Fle	-11.2611
οπ	-11.2611
rir	-11.2612
quel	-11.2613
mol	-11.2613
acağı	-11.2615
ஜ	-11.2616
០	-11.2616
▁свет	-11.2619
▁Rep	-11.2619
▁druh	-11.2619
۷	-11.2621
ॉ	-11.2621
▁través	-11.2621
▁septembr	-11.2622
▁before	-11.2622
务	-11.2623
▁essere	-11.2624
поч	-11.2626
4.0	-11.2628
verti	-11.2629
iyê	-11.2629
▁aller	-11.2629
eceği	-11.263
▁Kla	-11.263
ætt	-11.2631
ної	-11.2633
▁prefer	-11.2633
acji	-11.2634
ılması	-11.2635
́	-11.2636
ében	-11.2636
▁unsere	-11.2636
ள	-11.2637
ované	-11.2639
ವಿ	-11.264
equip	-11.2641
ать	-11.2641
▁onde	-11.2641
ээр	-11.2642
▁Hill	-11.2642
▁Special	-11.2643
拉	-11.2646
任	-11.2647
À	-11.2647
▁ajo	-11.2647
üş	-11.2649
视	-11.2651
澳门	-11.2651
▁Liga	-11.2652
ål	-11.2653
▁American	-11.2654
жо	-11.2656
ลา	-11.266
▁ਆ	-11.266
aldia	-11.2662
حق	-11.2665
145	-11.2665
лон	-11.2665
okra	-11.2666
▁komment	-11.2667
terapi	-11.2667
յանը	-11.2668
▁Nik	-11.2669
▁ജ	-11.267
▁director	-11.267
▁khu	-11.2671
▁Author	-11.2671
▁resultat	-11.2672
יב	-11.2674
kê	-11.2675
▁ഉ	-11.2675
eľ	-11.2675
して	-11.2676
▁Ни	-11.2676
agem	-11.2679
▁Juni	-11.2682
▁Royal	-11.2682
▁bodo	-11.2683
ĉ	-11.2684
宁	-11.2686
▁σας	-11.2687
▁pomoc	-11.2687
▁Studio	-11.2688
rimin	-11.2688
▁vastu	-11.2689
שא	-11.2689
料	-11.2691
▁הוא	-11.2691
▁different	-11.2691
ไป	-11.2692
aquest	-11.2693
comunica	-11.2695
▁jā	-11.2696
iyet	-11.2696
▁muka	-11.2697
मे	-11.2698
blad	-11.2699
▁jî	-11.2699
xin	-11.27
िया	-11.27
čiau	-11.2703
▁investiga	-11.2703
skri	-11.2705
ষ	-11.2706
▁Rap	-11.2707
▁fins	-11.2707
unter	-11.2709
jø	-11.271
vê	-11.271
টা	-11.2711
▁Somali	-11.2711
ული	-11.2712
▁cơ	-11.2713
לע	-11.2713
őr	-11.2713
ácia	-11.2714
δρ	-11.2715
biri	-11.2715
▁komen	-11.2715
▁μια	-11.2716
▁market	-11.2717
-01	-11.2717
זו	-11.272
ಉ	-11.2721
▁metal	-11.2721
ുന്ന	-11.2724
liyi	-11.2725
▁არ	-11.2726
ũ	-11.2726
▁söz	-11.2727
itti	-11.2727
END	-11.273
▁temps	-11.2731
117	-11.2732
kord	-11.2732
Sch	-11.2733
SER	-11.2733
▁nhân	-11.2734
sole	-11.2734
▁Су	-11.2735
或	-11.2737
▁Kong	-11.2737
▁жана	-11.2738
▁gut	-11.2738
▁gau	-11.2739
CB	-11.2741
▁memang	-11.2741
ି	-11.2742
▁även	-11.2744
ገ	-11.2747
거	-11.2747
bog	-11.275
▁nove	-11.275
znám	-11.275
nieuw	-11.2752
▁paš	-11.2753
▁respect	-11.2753
FP	-11.2753
лд	-11.2753
▁İs	-11.2755
▁düz	-11.2756
izz	-11.2756
۶	-11.2757
神	-11.2757
dür	-11.2758
ðið	-11.2758
يه	-11.2759
▁Golf	-11.276
▁Dalam	-11.2761
▁fue	-11.2761
torio	-11.2761
▁anterior	-11.2762
Nor	-11.2763
کا	-11.2764
ој	-11.2765
▁priv	-11.2766
▁Express	-11.2766
È	-11.2767
持	-11.2767
stva	-11.2769
▁تھا	-11.277
传	-11.2772
onia	-11.2772
اعت	-11.2772
2.1	-11.2772
▁individu	-11.2773
ఫ	-11.2774
▁CR	-11.2775
MG	-11.2775
▁Kultur	-11.2776
▁kaya	-11.2777
ର	-11.2777
▁Fal	-11.2778
▁uso	-11.2779
яв	-11.278
תר	-11.2781
▁William	-11.2782
בה	-11.2782
illi	-11.2782
ške	-11.2783
▁shop	-11.2785
Կ	-11.2786
ginn	-11.2787
营	-11.2787
▁legal	-11.2787
▁faire	-11.2787
២	-11.2787
stus	-11.2787
VIDEO	-11.2788
master	-11.2788
▁soll	-11.279
iña	-11.2791
▁Hari	-11.2791
▁gyven	-11.2793
");	-11.2793
▁proses	-11.2796
▁Kita	-11.2796
ግ	-11.2797
рия	-11.2801
▁qə	-11.2802
▁act	-11.2802
▁hore	-11.2803
нос	-11.2803
▁Hon	-11.2803
▁εξ	-11.2803
વી	-11.2804
▁Now	-11.2804
▁quả	-11.2804
еп	-11.2806
▁titul	-11.2806
ТА	-11.2807
▁empre	-11.2809
uvchi	-11.2811
téri	-11.2811
▁aba	-11.2811
▁Oktober	-11.2812
▁också	-11.2812
tzak	-11.2813
ции	-11.2814
džio	-11.2815
ავ	-11.2817
ຫ	-11.2817
րա	-11.2818
▁despre	-11.2819
▁recent	-11.282
שים	-11.282
▁Honda	-11.2821
්‍ර	-11.2821
▁Event	-11.2822
▁بود	-11.2824
▁ring	-11.2824
INE	-11.2825
ига	-11.2827
140	-11.2827
ከ	-11.2828
▁κατα	-11.2829
פת	-11.283
▁formul	-11.2831
інде	-11.2832
owania	-11.2835
grade	-11.2835
dî	-11.2837
ότητα	-11.2837
프	-11.2838
ญ	-11.2838
▁då	-11.2838
เด	-11.2839
тив	-11.2841
▁són	-11.2842
首	-11.2843
▁vald	-11.2843
124	-11.2843
▁led	-11.2844
▁Hit	-11.2845
间	-11.2847
▁הב	-11.2847
▁Run	-11.2848
option	-11.2849
gress	-11.285
лам	-11.285
▁estar	-11.2853
bc	-11.2856
▁melhor	-11.2856
ετε	-11.2856
▁Kamp	-11.2856
▁orta	-11.2856
ুল	-11.2858
৩	-11.2858
avad	-11.2859
▁boy	-11.2859
وش	-11.286
▁Entre	-11.2861
▁code	-11.2861
▁busca	-11.2861
▁aktivit	-11.2862
azı	-11.2862
크	-11.2863
▁possible	-11.2863
nič	-11.2866
ску	-11.2866
▁competi	-11.2868
▁Albert	-11.2868
▁TripAdvisor	-11.2868
▁BMW	-11.2869
▁atra	-11.2869
ARD	-11.2869
▁self	-11.287
▁rayon	-11.2871
▁chun	-11.2874
izar	-11.2874
▁μας	-11.2874
ುತ್ತ	-11.2876
DK	-11.2877
bord	-11.2877
ateur	-11.2877
SHI	-11.2879
▁jog	-11.288
130	-11.288
bing	-11.2882
কা	-11.2882
165	-11.2882
▁모	-11.2883
▁Mr	-11.2883
จะ	-11.2885
▁šal	-11.2886
▁cele	-11.2888
bina	-11.2889
фі	-11.289
▁bahwa	-11.289
▁centra	-11.2891
sız	-11.2891
več	-11.2892
▁بار	-11.2893
adora	-11.2893
▁Juan	-11.2893
▁Έ	-11.2893
tuak	-11.2894
▁kamera	-11.2895
mpli	-11.2896
▁Sti	-11.2897
▁Final	-11.2898
druž	-11.2898
▁στις	-11.2899
ides	-11.29
▁Sandal	-11.2901
מות	-11.2902
▁pir	-11.2902
▁facilit	-11.2903
144	-11.2904
系	-11.2904
луч	-11.2904
round	-11.2905
▁Pada	-11.2905
▁Haus	-11.2905
▁Africa	-11.2906
kura	-11.2906
▁Ин	-11.2907
σχ	-11.2908
true	-11.291
▁700	-11.291
4.5	-11.2911
▁FOR	-11.2911
ized	-11.2911
▁ditë	-11.2917
▁Arti	-11.2918
DV	-11.2918
政	-11.2919
▁hus	-11.2919
▁taip	-11.2923
ල්	-11.2924
两	-11.2924
▁quality	-11.2927
▁Hà	-11.2928
▁Apartment	-11.2928
نش	-11.2929
▁todas	-11.293
▁setiap	-11.293
ದ್	-11.2931
▁Jack	-11.2932
யா	-11.2934
Foto	-11.2934
▁bersama	-11.2935
▁առաջ	-11.2935
Մ	-11.2938
网址	-11.294
RL	-11.2942
ones	-11.2944
ighet	-11.2944
▁strán	-11.2945
▁បាន	-11.2945
▁src	-11.2946
ൊ	-11.295
jah	-11.2952
RIA	-11.2952
▁Miss	-11.2952
▁saab	-11.2954
▁ав	-11.2955
bona	-11.2955
▁Store	-11.2955
▁date	-11.2956
ือ	-11.2957
тэй	-11.2957
▁Cena	-11.2959
▁nær	-11.296
לות	-11.2961
čný	-11.2962
active	-11.2963
нен	-11.2963
头	-11.2965
▁Spring	-11.2966
pedia	-11.2966
сты	-11.2968
▁today	-11.2968
▁Ле	-11.2968
▁Premium	-11.2969
გან	-11.297
ผู้	-11.2971
▁sehingga	-11.2971
▁mycket	-11.2971
жат	-11.2971
▁Central	-11.2972
asse	-11.2973
bygg	-11.2974
▁Dengan	-11.2974
▁త	-11.2975
HAR	-11.2975
▁virus	-11.2975
▁esku	-11.2976
INT	-11.2977
гер	-11.2977
ục	-11.2977
DEN	-11.2978
▁ligger	-11.2979
चा	-11.2979
ulis	-11.2979
▁بد	-11.298
dry	-11.2983
्र	-11.2984
▁hold	-11.2984
үүл	-11.2986
זה	-11.2986
[4]	-11.2987
▁apart	-11.2987
▁ап	-11.2988
klaus	-11.2989
ból	-11.2989
iske	-11.299
עד	-11.2991
达	-11.2991
mány	-11.2992
fär	-11.2995
▁dah	-11.2995
▁think	-11.2996
호	-11.2997
ях	-11.2997
▁أو	-11.2998
▁הפ	-11.2999
完	-11.3001
▁hang	-11.3002
增	-11.3002
Deutsch	-11.3002
▁cách	-11.3003
▁keer	-11.3003
tën	-11.3003
ंग	-11.3004
shing	-11.3004
دې	-11.3004
ədə	-11.3005
▁Moto	-11.3006
▁kunne	-11.3008
comp	-11.3008
▁Porn	-11.3008
ūd	-11.3009
▁cấp	-11.301
价	-11.3012
▁phải	-11.3013
cole	-11.3014
▁SC	-11.3014
้น	-11.3014
270	-11.3015
▁Bill	-11.3016
ຄ	-11.3017
▁кои	-11.3018
ръ	-11.3018
▁ಸಂ	-11.3019
▁verður	-11.3019
lös	-11.3021
licht	-11.3024
رہ	-11.3026
tür	-11.3026
ratu	-11.3026
iyyə	-11.3027
▁amp	-11.3027
lič	-11.3027
ং	-11.3028
ภ	-11.3028
opera	-11.3028
tív	-11.303
▁sasa	-11.303
▁komunik	-11.303
▁Modern	-11.3031
ITE	-11.3032
Inter	-11.3032
▁moto	-11.3034
קט	-11.3034
▁Total	-11.3038
ረ	-11.3038
▁ਦਾ	-11.304
Ω	-11.304
կան	-11.304
сэн	-11.3041
ုိ	-11.3042
时间	-11.3045
吗	-11.3048
▁Centre	-11.3049
▁الو	-11.305
ತ್ತ	-11.305
owane	-11.3051
▁anys	-11.3051
ūk	-11.3051
产	-11.3051
essä	-11.3052
▁photo	-11.3052
▁sand	-11.3052
REN	-11.3053
▁Information	-11.3053
调	-11.3053
ання	-11.3054
ಿದೆ	-11.3054
▁Class	-11.3055
▁Ib	-11.3055
▁pagka	-11.3056
sına	-11.3057
OO	-11.3058
৪	-11.3059
MER	-11.3059
▁capac	-11.3061
205	-11.3062
▁disk	-11.3062
္	-11.3064
▁mudah	-11.3068
▁Dun	-11.3068
▁bija	-11.3068
▁Travel	-11.3068
▁proc	-11.3068
▁Lun	-11.3069
ETA	-11.3069
ৃ	-11.3069
chter	-11.3073
κλ	-11.3074
කා	-11.3075
soo	-11.3075
▁priva	-11.3075
tral	-11.3077
금	-11.308
▁Monte	-11.308
こ	-11.308
ță	-11.3081
▁Sul	-11.3082
222	-11.3082
▁End	-11.3083
▁DEL	-11.3084
ட்	-11.3084
adka	-11.3084
380	-11.3085
消	-11.3086
print	-11.3086
▁genera	-11.3088
▁Mate	-11.3088
bell	-11.309
▁Head	-11.309
wier	-11.309
بین	-11.3091
diyi	-11.3092
ದಿ	-11.3092
just	-11.3093
▁மு	-11.3094
aaaa	-11.3094
▁OP	-11.3095
င်	-11.3095
片	-11.3095
▁international	-11.3096
260	-11.3096
▁Dir	-11.3099
ថា	-11.3099
▁От	-11.31
פע	-11.3101
ınız	-11.3101
▁Matt	-11.3102
▁Line	-11.3102
▁isə	-11.3103
hul	-11.3106
▁seorang	-11.3106
修	-11.3107
▁Centro	-11.3107
▁transfer	-11.3109
ភ	-11.311
▁protest	-11.311
altres	-11.311
▁Bez	-11.3111
remo	-11.3111
▁judi	-11.3112
वि	-11.3112
tanda	-11.3113
skie	-11.3115
▁dėl	-11.3115
ించ	-11.3115
ĝo	-11.3116
IKA	-11.3116
error	-11.3117
tër	-11.3121
Қ	-11.3122
biet	-11.3125
нер	-11.3125
ruz	-11.3125
▁hii	-11.3126
龙	-11.3127
ский	-11.3128
átor	-11.3129
▁Site	-11.313
▁Rom	-11.313
prak	-11.3131
▁ත	-11.3132
包	-11.3132
نده	-11.3134
rog	-11.3134
раб	-11.3135
▁fine	-11.3135
▁PRE	-11.3136
ยา	-11.3137
UC	-11.3137
处	-11.3137
liwa	-11.3138
▁Պ	-11.3138
wol	-11.314
يع	-11.3141
▁bland	-11.3142
▁पा	-11.3142
投	-11.3142
miss	-11.3144
▁wali	-11.3144
180	-11.3144
verse	-11.3145
▁tuli	-11.3147
baya	-11.3147
વે	-11.315
ຍ	-11.315
▁Blanc	-11.315
▁Boy	-11.3151
cir	-11.3151
▁Xu	-11.3151
▁reklam	-11.3153
▁ndrysh	-11.3153
מד	-11.3157
标	-11.3158
▁Federa	-11.3158
জা	-11.316
सि	-11.316
▁asia	-11.3163
▁Ав	-11.3163
▁байна	-11.3165
▁Person	-11.3166
חדש	-11.3167
▁bə	-11.3168
▁kazi	-11.3168
告	-11.3169
head	-11.3169
pression	-11.317
қар	-11.3172
color	-11.3173
▁định	-11.3174
▁Global	-11.3175
trans	-11.3176
īgā	-11.3177
rius	-11.3177
▁individual	-11.3179
▁Stre	-11.3179
itud	-11.3179
یب	-11.3181
▁televi	-11.3182
▁SKU	-11.3183
▁360	-11.3184
ఉ	-11.3186
▁hadi	-11.3186
lín	-11.3186
นี้	-11.3187
גל	-11.3187
ident	-11.3188
álne	-11.3188
σο	-11.3189
حص	-11.3191
lief	-11.3192
гән	-11.3192
▁PP	-11.3192
فل	-11.3193
HER	-11.3195
nė	-11.3196
▁while	-11.3196
holder	-11.3199
▁Vila	-11.3199
▁cả	-11.3199
ről	-11.32
¿	-11.32
手机	-11.3201
ustu	-11.3204
lichen	-11.3206
eği	-11.3207
ының	-11.321
▁første	-11.321
ście	-11.3211
چھ	-11.3211
▁nasod	-11.3211
ają	-11.3211
shtë	-11.3213
OU	-11.3213
420	-11.3214
ტო	-11.3215
▁Mga	-11.3216
▁план	-11.3217
▁viel	-11.3218
కో	-11.3218
acaq	-11.322
▁cili	-11.3221
Mon	-11.3222
▁ਹੋ	-11.3222
час	-11.3223
▁Grup	-11.3227
ური	-11.3227
handling	-11.3228
▁contribu	-11.3228
▁paket	-11.3229
लो	-11.3229
▁memberikan	-11.323
kurs	-11.3232
úr	-11.3233
▁Hong	-11.3233
け	-11.3233
ranno	-11.3234
NK	-11.3236
▁Card	-11.3236
▁maha	-11.3238
jām	-11.3239
flu	-11.324
дзі	-11.3241
▁verdi	-11.3242
▁(7)	-11.3243
вор	-11.3243
▁regul	-11.3243
NZ	-11.3243
צר	-11.3243
▁valg	-11.3244
▁گا	-11.3246
▁waki	-11.3247
▁susi	-11.3247
▁Kenya	-11.3248
▁Projekt	-11.3249
▁הי	-11.3251
իմ	-11.3252
ΟΥ	-11.3252
ovej	-11.3253
信息	-11.3254
▁pertsona	-11.3254
▁punto	-11.3254
fólk	-11.3257
سب	-11.3257
225	-11.3257
▁libro	-11.3258
tract	-11.3258
kast	-11.3258
▁Prezident	-11.3259
▁vak	-11.3259
▁waktu	-11.326
▁Kontakt	-11.326
▁kasa	-11.326
exp	-11.326
JU	-11.326
▁Kop	-11.3261
▁alles	-11.3261
▁zelf	-11.3263
▁uitge	-11.3265
▁Ю	-11.3265
cf	-11.3265
/9	-11.3266
ونو	-11.3266
▁trata	-11.3267
▁құ	-11.3268
川	-11.3269
▁jual	-11.3269
▁AD	-11.327
127	-11.327
wek	-11.3271
▁Diesel	-11.3272
▁haber	-11.3273
▁Dor	-11.3273
mpak	-11.3274
cure	-11.3275
▁düş	-11.3275
▁teng	-11.3276
ίσ	-11.3276
istes	-11.3276
/07/20	-11.3278
▁tutti	-11.3279
▁vụ	-11.3279
entzia	-11.3283
nės	-11.3285
profit	-11.3286
ovaný	-11.3289
▁esco	-11.3292
▁chce	-11.3293
وو	-11.3293
feira	-11.3293
batan	-11.3294
palvelu	-11.3295
طل	-11.3295
נד	-11.3295
▁vairāk	-11.3296
rique	-11.3296
ווי	-11.3296
чно	-11.3297
ապ	-11.3297
тын	-11.3298
мес	-11.33
లే	-11.3301
▁وأ	-11.3301
नि	-11.3303
▁օր	-11.3303
ಹಿ	-11.3304
ינו	-11.3305
▁meget	-11.3306
kha	-11.3307
▁නි	-11.3307
▁taas	-11.3307
▁spraw	-11.3307
2.2	-11.3308
ðir	-11.3308
шир	-11.3309
▁zem	-11.331
kita	-11.3311
elsen	-11.3311
少	-11.3312
[/	-11.3312
යේ	-11.3312
▁kerana	-11.3313
бан	-11.3314
哪	-11.3317
CHA	-11.332
के	-11.3321
食	-11.3322
카	-11.3322
▁candidat	-11.3323
▁olduğunu	-11.3323
▁Somaliland	-11.3324
▁míst	-11.3324
▁mort	-11.3325
נג	-11.3326
جد	-11.3327
ėja	-11.3327
▁desta	-11.3328
ällä	-11.3328
▁rent	-11.3328
پر	-11.333
▁yön	-11.3332
▁také	-11.3333
ဝ	-11.3333
mista	-11.3334
fred	-11.3334
مبر	-11.3337
▁utan	-11.3338
▁süre	-11.3339
يز	-11.334
▁favorit	-11.3341
▁kendi	-11.3342
▁Sum	-11.3345
ετ	-11.3345
ಟ್ಟ	-11.3345
zka	-11.3347
▁Fund	-11.3348
▁Cum	-11.3349
▁vier	-11.335
azioni	-11.335
გი	-11.3354
ธ	-11.3354
러	-11.3355
тов	-11.3355
▁وہ	-11.3356
-21	-11.3356
007	-11.3358
▁lista	-11.3359
ਾਰ	-11.3359
▁gehiago	-11.336
etatik	-11.3363
ával	-11.3364
▁však	-11.3366
動	-11.3366
▁blue	-11.3366
ното	-11.3367
ária	-11.3367
riad	-11.3367
كن	-11.3368
سلام	-11.3368
ಳಿ	-11.3369
▁Sports	-11.337
▁حال	-11.337
▁czas	-11.337
199	-11.3371
▁Pad	-11.3373
▁mål	-11.3374
šā	-11.3374
▁kilo	-11.3375
მი	-11.3375
CN	-11.3376
▁101	-11.3377
▁appar	-11.3378
darb	-11.3379
ड़	-11.3379
schap	-11.3379
лож	-11.338
ghi	-11.3381
ក្	-11.3381
њи	-11.3381
▁(+	-11.3384
▁hvis	-11.3385
روس	-11.3385
ización	-11.3385
▁monta	-11.3385
ắn	-11.3385
▁będzie	-11.3387
▁thời	-11.3388
lið	-11.3389
дон	-11.339
ది	-11.339
▁Qo	-11.3391
亚	-11.3392
▁ਕਰ	-11.3393
▁civil	-11.3393
show	-11.3393
מן	-11.3394
▁elektron	-11.3394
razi	-11.3397
太	-11.3397
단	-11.3398
▁tôi	-11.3398
▁edit	-11.3398
Click	-11.34
+"	-11.3401
▁using	-11.3401
ղ	-11.3402
식	-11.3403
▁պատ	-11.3403
▁Deze	-11.3403
tour	-11.3404
pita	-11.3404
iskā	-11.3404
▁degli	-11.3404
iņš	-11.3405
출	-11.3408
▁Escort	-11.3408
让	-11.3408
▁podob	-11.3409
kár	-11.3409
▁Hä	-11.3409
ож	-11.3411
ಿದ್ದ	-11.3412
220	-11.3413
ں	-11.3413
արգ	-11.3414
▁Tagged	-11.3414
▁penge	-11.3415
▁szám	-11.3415
▁tend	-11.3416
ibili	-11.3418
autre	-11.3419
宝	-11.3419
ската	-11.3419
▁paling	-11.342
жан	-11.3423
▁segui	-11.3424
▁сайт	-11.3424
▁mau	-11.3425
kide	-11.3425
121	-11.3428
TRO	-11.3428
DM	-11.3428
hvi	-11.3429
▁lượng	-11.343
ícia	-11.3431
undi	-11.3431
ម្	-11.3431
▁στον	-11.3434
▁thì	-11.3434
▁сред	-11.3435
ራ	-11.3435
▁Sverige	-11.3435
▁moja	-11.3436
HL	-11.3436
جب	-11.3436
ہر	-11.3437
▁Pak	-11.3437
▁bord	-11.3437
▁būs	-11.3439
ਸੀ	-11.3442
ত্র	-11.3443
ดี	-11.3445
cens	-11.3447
ља	-11.3447
▁metu	-11.3448
Ru	-11.3448
▁Pia	-11.3448
رات	-11.3449
pata	-11.3449
BY	-11.3449
ん	-11.3451
メ	-11.3452
รา	-11.3454
▁mən	-11.3454
▁Dha	-11.3456
אמ	-11.3456
Ā	-11.3457
rząd	-11.3458
▁sklad	-11.3458
acion	-11.346
▁Paulo	-11.3462
ён	-11.3462
350	-11.3463
▁turi	-11.3463
timo	-11.3464
сту	-11.3465
▁Thi	-11.3466
▁Case	-11.3467
בק	-11.3467
sip	-11.3467
▁kõik	-11.3468
sburg	-11.3471
sége	-11.3471
tensi	-11.3471
▁Parlament	-11.3474
íocht	-11.3474
▁주	-11.3475
▁perfekt	-11.3475
Bar	-11.3476
▁Pun	-11.3476
▁Tip	-11.3476
▁Kab	-11.3477
▁then	-11.3478
teikt	-11.3479
▁José	-11.3479
▁billig	-11.348
▁explica	-11.3481
cov	-11.3482
▁presente	-11.3484
310	-11.3485
▁each	-11.3485
▁valmis	-11.3486
256	-11.3486
▁worm	-11.3487
1.9	-11.3489
▁lamp	-11.3492
▁assist	-11.3492
▁tinggi	-11.3493
▁Shar	-11.3493
ення	-11.3493
▁Ich	-11.3496
tiba	-11.3496
رک	-11.3496
станов	-11.3497
рд	-11.3497
ified	-11.3499
热	-11.35
ssy	-11.3502
▁mogelijk	-11.3503
lando	-11.3503
ျ	-11.3505
UI	-11.3506
ють	-11.3506
▁մասին	-11.3506
▁Mara	-11.3507
▁creat	-11.3507
▁drog	-11.3507
▁йил	-11.3508
və	-11.3508
施	-11.3511
govor	-11.3511
▁segundo	-11.3511
▁govern	-11.3512
▁ўз	-11.3513
Str	-11.3513
poved	-11.3514
▁Polo	-11.3515
ERA	-11.3516
saka	-11.3517
▁Manager	-11.3517
▁đề	-11.3518
roma	-11.3518
פור	-11.3519
тон	-11.3519
▁کړ	-11.352
▁Hem	-11.3522
praw	-11.3522
▁Kota	-11.3525
öll	-11.3526
▁convert	-11.3526
터	-11.3527
জন	-11.3528
▁Það	-11.3528
бли	-11.3528
▁өз	-11.353
whi	-11.3531
که	-11.3532
▁emo	-11.3532
பா	-11.3533
▁health	-11.3533
???	-11.3534
ตร	-11.3534
▁চ	-11.3538
▁family	-11.3539
rick	-11.354
dorf	-11.3541
▁kõ	-11.3542
בד	-11.3544
eň	-11.3544
ജ	-11.3544
▁Nar	-11.3545
▁пр	-11.3546
▁115	-11.3546
dze	-11.3547
ыг	-11.3547
▁relat	-11.3547
२	-11.3549
▁Adam	-11.355
mål	-11.355
▁пот	-11.355
անք	-11.355
▁automobil	-11.3551
MEN	-11.3551
רות	-11.3553
stone	-11.3553
▁side	-11.3555
▁sekali	-11.3555
▁sier	-11.3556
▁estado	-11.3557
ΙΑ	-11.3558
▁sido	-11.356
▁because	-11.356
цу	-11.3563
▁Thomas	-11.3566
ohen	-11.3566
ντ	-11.3566
▁Standard	-11.3567
trum	-11.3568
▁daw	-11.357
μη	-11.357
UZ	-11.3571
率	-11.3571
▁España	-11.3572
▁Wood	-11.3573
▁teatr	-11.3575
lusi	-11.3576
ക്ഷ	-11.3576
▁Material	-11.3577
LIN	-11.3578
▁stock	-11.3579
eath	-11.3579
jäl	-11.3581
یان	-11.3581
126	-11.3582
湖	-11.3582
ēšana	-11.3583
TTC	-11.3583
▁flo	-11.3584
ovanje	-11.3584
▁aukera	-11.3585
શ	-11.3585
▁host	-11.3586
בות	-11.359
sund	-11.3592
▁Kle	-11.3592
▁kerja	-11.3593
▁Rais	-11.3593
ưởng	-11.3593
▁elkar	-11.3593
ática	-11.3594
▁conven	-11.3595
muş	-11.3595
imus	-11.3596
ими	-11.3597
kové	-11.3597
▁był	-11.3598
ở	-11.36
▁teknik	-11.3601
ије	-11.3601
▁heel	-11.3603
▁sila	-11.3603
▁Micro	-11.3603
్యా	-11.3604
стат	-11.3604
τες	-11.3604
ታ	-11.3604
tól	-11.3605
▁significa	-11.3605
owego	-11.3605
하고	-11.3606
▁Bell	-11.3609
big	-11.3609
llinen	-11.3609
VR	-11.3609
▁καλ	-11.3609
▁dalla	-11.3612
▁diper	-11.3613
▁FOTO	-11.3614
eret	-11.3616
▁см	-11.3617
▁genom	-11.3618
வா	-11.3619
cking	-11.3619
ํ	-11.3619
▁сай	-11.362
ઉ	-11.362
▁üzrə	-11.3621
κτ	-11.3623
tool	-11.3625
▁Ultra	-11.3625
1200	-11.3626
екс	-11.3626
landı	-11.363
▁antara	-11.3631
▁mapa	-11.3631
▁siden	-11.3632
▁ingen	-11.3632
alue	-11.3635
liai	-11.3635
单	-11.3637
▁đi	-11.3637
pada	-11.3637
0.7	-11.3638
▁област	-11.3638
rën	-11.3638
▁doma	-11.3639
UNG	-11.3639
kü	-11.364
▁Sü	-11.3642
θεί	-11.3642
lihat	-11.3643
015	-11.3644
▁James	-11.3645
huis	-11.3648
影	-11.3648
innerHTML	-11.3648
時	-11.3648
ργ	-11.3648
▁הה	-11.3648
skej	-11.3649
▁būti	-11.3649
▁optim	-11.3649
▁kredit	-11.3652
因	-11.3653
▁Philip	-11.3654
666	-11.3656
777	-11.3656
مین	-11.3657
▁Με	-11.3657
▁alta	-11.3657
çu	-11.3658
▁Gud	-11.3658
▁тэ	-11.3659
▁Sistem	-11.3659
ခ်	-11.3659
▁George	-11.3661
5.0	-11.3662
ικής	-11.3664
▁keçir	-11.3664
▁demand	-11.3664
пі	-11.3666
▁así	-11.3666
▁month	-11.3668
imba	-11.3669
տեղ	-11.3669
siden	-11.367
▁lisa	-11.3672
lägg	-11.3674
εις	-11.3675
▁server	-11.3675
ром	-11.3676
360	-11.3676
▁Fort	-11.3676
кә	-11.3677
ائل	-11.3678
=1	-11.3678
▁Ross	-11.3679
loj	-11.3681
load	-11.3682
▁شر	-11.3683
▁Norge	-11.3683
ಗಳು	-11.3683
640	-11.3685
bruk	-11.3685
▁transform	-11.3686
데	-11.3687
ASI	-11.3689
āla	-11.369
▁Rai	-11.3692
tering	-11.3692
▁бўл	-11.3692
ແ	-11.3692
ਂ	-11.3693
ț	-11.3694
keskus	-11.3697
带	-11.3697
рус	-11.3698
Euro	-11.3698
▁לש	-11.3699
▁RM	-11.3701
▁JO	-11.3702
▁europe	-11.3703
condition	-11.3704
ický	-11.3704
liq	-11.3705
▁state	-11.3708
▁сер	-11.3708
acija	-11.3708
tamise	-11.3709
▁milimetro	-11.3709
larning	-11.3709
▁lehet	-11.371
čer	-11.371
▁επ	-11.3711
NH	-11.3711
ළ	-11.3712
նել	-11.3713
pende	-11.3714
▁бр	-11.3714
AAT	-11.3714
On	-11.3717
/04/20	-11.3719
▁technologi	-11.372
/03/20	-11.3721
chung	-11.3721
ខ	-11.3724
HAN	-11.3726
▁River	-11.3726
cela	-11.373
768	-11.3732
Ն	-11.3732
▁privat	-11.3733
▁posted	-11.3733
▁менен	-11.3733
ារ	-11.3734
▁Anal	-11.3734
▁सु	-11.3735
▁diplom	-11.3735
של	-11.3736
▁Como	-11.3736
云	-11.3737
hiri	-11.3738
pili	-11.3739
næ	-11.3739
▁Daar	-11.3739
▁cover	-11.374
дук	-11.3741
▁politic	-11.3742
iston	-11.3743
BM	-11.3745
▁KB	-11.3745
▁prof	-11.3745
▁Ար	-11.3746
▁search	-11.3747
OTO	-11.3748
管理	-11.3748
ələr	-11.3748
▁italian	-11.375
žel	-11.3751
chang	-11.3753
▁mér	-11.3754
ουμε	-11.3754
▁clo	-11.3754
▁הע	-11.3754
lük	-11.3755
▁Maz	-11.3756
KM	-11.3756
صح	-11.3756
▁Base	-11.3757
▁Ә	-11.3757
ious	-11.3758
▁Chat	-11.3759
ọc	-11.3762
سٹ	-11.3762
▁Old	-11.3763
قت	-11.3763
▁sabab	-11.3763
ಶ್	-11.3764
▁kenn	-11.3764
dět	-11.3765
당	-11.3765
▁muy	-11.3765
▁správ	-11.3767
▁sá	-11.3768
sett	-11.377
▁hanno	-11.3771
▁account	-11.3771
present	-11.3771
▁הנ	-11.3772
ети	-11.3773
▁around	-11.3774
▁кој	-11.3774
▁lider	-11.3775
ارة	-11.3775
▁mene	-11.3775
▁Ө	-11.3777
ẻ	-11.3778
▁Share	-11.3779
niem	-11.378
▁Roll	-11.378
▁***	-11.3781
৫	-11.3781
ferenc	-11.3781
нең	-11.3782
▁تج	-11.3783
КА	-11.3783
ます	-11.3785
America	-11.3785
شم	-11.3785
▁bilgi	-11.3786
▁Airport	-11.3786
石	-11.3787
▁vom	-11.3787
ņa	-11.3788
▁sõ	-11.3788
▁שמ	-11.3788
▁declara	-11.3789
ivat	-11.379
AAG	-11.3793
۸	-11.3793
ราคา	-11.3793
▁insan	-11.3793
misel	-11.3794
при	-11.3794
▁Well	-11.3795
כם	-11.3795
▁obchod	-11.3799
▁Will	-11.3799
elijke	-11.3799
নের	-11.3799
▁clar	-11.38
cado	-11.3801
ору	-11.3803
αστ	-11.3803
vět	-11.3803
타	-11.3804
▁الط	-11.3805
width	-11.3805
ường	-11.3806
3°	-11.3807
BN	-11.3807
▁Gü	-11.3808
▁viac	-11.3809
▁Cir	-11.3809
Ո	-11.3809
▁Control	-11.381
▁Jawa	-11.3812
▁glo	-11.3812
▁Flu	-11.3813
ета	-11.3813
▁libre	-11.3816
TL	-11.3816
▁timp	-11.3818
real	-11.3818
tî	-11.3818
▁হা	-11.3818
▁Stro	-11.3818
▁trá	-11.3819
umā	-11.382
▁audio	-11.3821
▁pasti	-11.3823
ninger	-11.3824
Հ	-11.3825
ッ	-11.3826
▁össze	-11.3826
▁zaidi	-11.3826
lú	-11.3827
ithe	-11.3827
▁Rub	-11.3829
▁metros	-11.3829
▁bring	-11.3831
yana	-11.3832
类	-11.3832
▁being	-11.3833
▁mida	-11.3833
hibi	-11.3835
▁tamén	-11.3836
ပ္	-11.3838
▁ĉi	-11.3839
▁été	-11.384
▁wala	-11.384
زا	-11.3841
▁gure	-11.3842
职	-11.3843
2°	-11.3843
1.5	-11.3843
TRI	-11.3843
ơi	-11.3843
▁παρ	-11.3844
komst	-11.3848
▁Room	-11.3848
оли	-11.3848
▁posta	-11.3848
▁tü	-11.3849
satz	-11.385
plant	-11.3851
▁Guar	-11.3854
▁expert	-11.3854
▁گفت	-11.3855
prov	-11.3857
▁kde	-11.3858
ům	-11.3859
▁пад	-11.3859
▁trình	-11.3861
▁minn	-11.3861
▁held	-11.3864
▁low	-11.3864
אנ	-11.3865
▁stað	-11.3865
▁viên	-11.3865
▁primeiro	-11.3866
▁Pres	-11.3866
zē	-11.3867
▁ಈ	-11.3867
▁sinn	-11.3867
▁Cri	-11.3867
▁lå	-11.3868
▁veril	-11.3868
▁năng	-11.3869
1.7	-11.387
සි	-11.3871
LES	-11.3872
▁Aquest	-11.3872
▁secret	-11.3872
▁škol	-11.3873
▁sitt	-11.3875
ћи	-11.3875
інің	-11.3879
▁pran	-11.388
ક્	-11.3881
ец	-11.3881
rill	-11.3882
▁dön	-11.3882
餐	-11.3883
▁scri	-11.3883
mali	-11.3884
▁mali	-11.3884
▁Local	-11.3885
Archiv	-11.3885
▁mendapatkan	-11.3885
▁Из	-11.3885
viv	-11.3886
▁suas	-11.3886
ọn	-11.3887
▁hef	-11.3889
umba	-11.3889
lərində	-11.389
bian	-11.3891
CZ	-11.3893
▁pensa	-11.3894
▁ketika	-11.3894
▁dagen	-11.3895
ื	-11.3897
▁herri	-11.3897
▁Dress	-11.3898
▁leik	-11.39
▁numero	-11.3901
öz	-11.3902
šet	-11.3903
ҳа	-11.3903
lərə	-11.3904
▁AT	-11.3907
▁tah	-11.3908
agne	-11.3908
▁large	-11.3908
▁update	-11.3909
▁sektor	-11.3911
سان	-11.3912
วัน	-11.3912
PG	-11.3912
CAA	-11.3913
▁Liber	-11.3914
öld	-11.3915
▁lehen	-11.3916
ключ	-11.3918
రం	-11.3919
▁50%	-11.3919
▁Го	-11.3919
fram	-11.392
τικό	-11.392
hän	-11.3921
139	-11.3921
▁miejsc	-11.3922
▁single	-11.3926
▁շ	-11.3927
▁close	-11.3928
▁between	-11.3928
skóla	-11.3929
віт	-11.3929
ACC	-11.3931
▁vetëm	-11.3934
▁تن	-11.3936
wir	-11.3937
ampi	-11.3938
gün	-11.3938
цыя	-11.3939
▁visu	-11.394
túr	-11.3941
▁hingga	-11.3942
255	-11.3942
нын	-11.3943
antar	-11.3945
ыс	-11.3946
▁Sign	-11.3946
850	-11.3947
лган	-11.3947
▁weiter	-11.3948
ního	-11.3948
▁très	-11.3948
195	-11.3951
trakt	-11.3951
реш	-11.3951
▁koncert	-11.3953
▁song	-11.3953
Name	-11.3953
▁rất	-11.3955
جو	-11.3955
▁Low	-11.3956
лег	-11.3956
▁nepa	-11.3958
ify	-11.3959
▁Lamp	-11.396
दि	-11.3961
DN	-11.3961
ország	-11.3962
posta	-11.3965
лив	-11.3966
▁Visit	-11.3968
іс	-11.397
cem	-11.397
ários	-11.3971
▁feel	-11.3972
hong	-11.3973
ക്ക്	-11.3974
KR	-11.3974
chat	-11.3976
▁À	-11.3978
▁спорт	-11.3979
έχ	-11.398
ţie	-11.3981
▁pois	-11.3982
▁osta	-11.3982
▁Japan	-11.3982
5.000	-11.3982
▁AND	-11.3983
fter	-11.3984
ξη	-11.3985
▁vähe	-11.3985
▁IV	-11.3986
toon	-11.3986
105	-11.3986
▁Boot	-11.3988
IVE	-11.3989
▁Activ	-11.3989
ề	-11.3989
▁Mais	-11.399
▁Elektro	-11.3991
کت	-11.3993
خی	-11.3993
ਨਾ	-11.3996
▁scho	-11.3996
체	-11.3996
▁enpresa	-11.3996
მო	-11.3997
▁nên	-11.3998
áin	-11.3998
فی	-11.4
▁complete	-11.4002
▁mooi	-11.4003
दी	-11.4004
Mail	-11.4004
balik	-11.4005
stava	-11.4005
ੜ	-11.4005
كي	-11.4006
▁než	-11.4006
003	-11.4007
▁Ла	-11.4008
▁Eks	-11.4009
лийн	-11.4009
GAA	-11.401
▁fare	-11.401
▁Ком	-11.4011
gate	-11.4012
▁daudz	-11.4012
tamente	-11.4013
▁Copyright	-11.4013
siga	-11.4015
λί	-11.4016
πλ	-11.4016
Ք	-11.4019
คุณ	-11.4019
▁điều	-11.402
▁gay	-11.402
ில்	-11.4021
▁Ак	-11.4023
гал	-11.4023
طالب	-11.4024
ાય	-11.4024
555	-11.4024
▁amely	-11.4024
tanga	-11.4026
министр	-11.4026
▁note	-11.4027
්‍ය	-11.4027
▁cad	-11.4027
공	-11.4029
ப்	-11.403
θηκε	-11.4031
მე	-11.4031
pru	-11.4031
tiği	-11.4032
▁monitor	-11.4032
ığı	-11.4032
ест	-11.4033
▁produto	-11.4033
▁paar	-11.4035
▁hum	-11.4036
СТ	-11.4037
isesti	-11.4039
ші	-11.4039
iging	-11.404
▁sayı	-11.4041
▁hartu	-11.4042
છ	-11.4042
ባ	-11.4042
ņem	-11.4043
▁maand	-11.4046
jóð	-11.4046
每	-11.4047
riya	-11.4047
teknologi	-11.4049
avimo	-11.405
point	-11.405
wali	-11.405
уваат	-11.405
▁деп	-11.4051
նում	-11.4052
▁maal	-11.4054
има	-11.4054
7°	-11.4055
▁ہیں۔	-11.4055
brug	-11.4055
▁Kali	-11.4055
UF	-11.4059
Die	-11.4061
bati	-11.4063
▁Series	-11.4063
▁beli	-11.4063
හි	-11.4064
▁follow	-11.4064
тары	-11.4065
OST	-11.4066
gelijk	-11.4066
यो	-11.4066
ongan	-11.4066
cult	-11.4068
▁staat	-11.4069
导	-11.407
qiq	-11.4071
management	-11.4071
▁mwaka	-11.4071
▁minister	-11.4072
có	-11.4073
յու	-11.4073
бри	-11.4076
차	-11.4076
±	-11.4077
注	-11.4077
酒店	-11.4077
сс	-11.4078
null	-11.4079
?”	-11.408
pras	-11.408
ям	-11.408
زن	-11.408
▁2,5	-11.408
PER	-11.4082
كا	-11.4082
baj	-11.4083
Elektr	-11.4083
لات	-11.4084
bic	-11.4087
▁kuru	-11.4088
▁hud	-11.4088
▁qarşı	-11.4089
▁menge	-11.4089
▁Abdul	-11.4091
▁customer	-11.4092
σα	-11.4092
лады	-11.4092
maksu	-11.4093
န်	-11.4094
spir	-11.4096
ėje	-11.4096
зда	-11.4098
▁millor	-11.4098
▁Yan	-11.4098
▁Fond	-11.4098
طر	-11.4099
րդ	-11.41
רך	-11.4101
▁Fit	-11.4102
▁350	-11.4102
MX	-11.4103
▁ಮಾಡ	-11.4105
▁Nahimutang	-11.4105
▁oktober	-11.4105
това	-11.4106
juma	-11.4107
ATI	-11.4107
▁hyvä	-11.4108
uploads	-11.4109
iksi	-11.4111
▁tego	-11.4111
VM	-11.4112
▁Teatr	-11.4112
rupa	-11.4113
今	-11.4115
▁tư	-11.4116
ූ	-11.4117
▁tarafından	-11.4117
▁algo	-11.4117
▁Yeni	-11.4118
▁Lab	-11.412
yib	-11.412
▁xuất	-11.4123
▁Transport	-11.4124
కా	-11.4125
હે	-11.4127
ਇ	-11.4127
▁mobile	-11.4127
google	-11.413
бал	-11.4131
abilir	-11.4132
▁Beste	-11.4132
ësh	-11.4133
▁flor	-11.4133
ിച്ച	-11.4135
фар	-11.4135
heng	-11.4137
▁Vai	-11.4139
▁next	-11.414
▁🙂	-11.4141
علي	-11.4141
▁игра	-11.4142
早	-11.4146
וט	-11.4146
υμ	-11.4148
▁tash	-11.4148
▁From	-11.4149
fond	-11.4149
jack	-11.4149
rust	-11.415
ћ	-11.415
%20	-11.415
▁Canada	-11.415
▁elektri	-11.415
▁105	-11.4151
●	-11.4152
0.8	-11.4152
▁LCD	-11.4152
▁kanssa	-11.4152
▁mano	-11.4156
اني	-11.4156
ադ	-11.4157
▁hey	-11.4158
WO	-11.4161
▁inicia	-11.4162
▁estis	-11.4162
▁2.5	-11.4163
/02/20	-11.4165
▁Ži	-11.4166
▁werd	-11.4166
▁thế	-11.4166
▁قو	-11.4167
▁Femme	-11.4168
▁Rak	-11.4169
야	-11.4169
атив	-11.4169
▁iç	-11.4171
▁LG	-11.4171
ют	-11.4171
▁updated	-11.4174
▁dituzte	-11.4174
▁revi	-11.4175
▁masyarakat	-11.4175
185	-11.4176
āji	-11.4176
▁Come	-11.4177
etty	-11.4178
▁krij	-11.4179
▁Inform	-11.4179
▁Australia	-11.418
電	-11.4181
youtube	-11.4181
▁andra	-11.4184
pool	-11.4186
ZO	-11.4186
dist	-11.4187
▁nime	-11.4188
▁taka	-11.4188
▁համ	-11.4189
ők	-11.4192
深	-11.4192
▁Öz	-11.4193
urinn	-11.4197
شه	-11.4201
οί	-11.4204
ઝ	-11.4204
▁Manchester	-11.4204
▁Är	-11.4207
▁recon	-11.4209
ológ	-11.4209
lát	-11.421
használ	-11.421
ๆ	-11.421
▁thực	-11.421
ျပ	-11.421
ồng	-11.421
ünd	-11.4211
حة	-11.4212
wanda	-11.4213
ונים	-11.4213
لق	-11.4214
▁այս	-11.4216
▁vitamin	-11.4217
رام	-11.4217
ув	-11.4219
▁Gui	-11.422
▁१	-11.4222
ంలో	-11.4222
▁luft	-11.4223
ţii	-11.4223
▁Ford	-11.4223
▁Qui	-11.4223
▁whaka	-11.4223
RG	-11.4224
▁каб	-11.4224
▁Histori	-11.4224
ņi	-11.4225
DF	-11.4225
loop	-11.4225
▁rasa	-11.4225
heden	-11.4226
▁tussen	-11.4226
-25	-11.4227
cover	-11.4227
▁pjesë	-11.4227
▁Esp	-11.423
כי	-11.423
▁selama	-11.423
=0	-11.4233
aars	-11.4233
▁fire	-11.4233
▁شود	-11.4234
Video	-11.4234
▁kini	-11.4235
LAS	-11.4238
iling	-11.4239
必	-11.424
eaza	-11.424
▁Hab	-11.4241
بع	-11.4241
▁tikai	-11.4242
▁سب	-11.4243
▁poč	-11.4243
ழ	-11.4243
ია	-11.4243
▁þú	-11.4244
물	-11.4245
▁Search	-11.4246
▁naše	-11.4248
▁Stan	-11.4248
vič	-11.4248
3.1	-11.4248
ína	-11.4248
128	-11.4249
Auto	-11.4249
bour	-11.4249
▁Lind	-11.4249
bû	-11.425
дей	-11.425
▁sebuah	-11.4251
тап	-11.4251
▁animal	-11.4251
strong	-11.4252
עות	-11.4255
▁ՀՀ	-11.4257
block	-11.4257
struktur	-11.4258
{{	-11.4259
▁cidade	-11.426
arbeit	-11.426
ոլ	-11.4261
ഴ	-11.4262
affi	-11.4262
▁level	-11.4263
intza	-11.4268
▁tips	-11.4271
▁^	-11.4272
▁menos	-11.4274
▁քաղաք	-11.4274
маг	-11.4275
▁Call	-11.4278
▁Fall	-11.4279
ბა	-11.4279
ēju	-11.428
సా	-11.4281
png	-11.4282
ttava	-11.4282
▁tijd	-11.4283
ക്കാ	-11.4284
μή	-11.4285
▁Mata	-11.4286
置	-11.4286
2005	-11.4286
ਮਾ	-11.4287
NES	-11.429
▁128	-11.4291
เล	-11.4292
ደ	-11.4292
ære	-11.4293
1°	-11.4293
▁Argent	-11.4293
గ్	-11.4296
õl	-11.4296
ಂಡ	-11.4297
▁menya	-11.4297
پل	-11.4298
▁nota	-11.4298
ữ	-11.4298
▁kjo	-11.4299
▁uch	-11.4299
▁procent	-11.43
থ	-11.4303
ənə	-11.4303
▁Əliyev	-11.4304
未	-11.4304
рә	-11.4304
▁ahaa	-11.4304
န္း	-11.4304
سع	-11.4304
▁learn	-11.4306
▁sedang	-11.4306
tamine	-11.4306
▁cùng	-11.4307
ضا	-11.4307
өг	-11.4307
184	-11.4307
▁Fashion	-11.431
▁Text	-11.431
▁primera	-11.431
รี	-11.4311
matic	-11.4311
undan	-11.4312
▁consider	-11.4313
TAS	-11.4314
से	-11.4314
GN	-11.4314
040	-11.4315
▁הס	-11.4316
▁Prze	-11.4317
KAN	-11.4317
сия	-11.4318
даги	-11.4319
▁cosa	-11.4321
六	-11.4321
וו	-11.4321
▁nə	-11.4322
▁руб	-11.4322
כן	-11.4324
óg	-11.4324
ASA	-11.4325
▁elektro	-11.4327
▁memor	-11.4332
▁risk	-11.4334
▁mama	-11.4334
ίκ	-11.4336
▁Rab	-11.4336
kým	-11.4337
лей	-11.4338
▁veliko	-11.434
یع	-11.434
求	-11.4341
ພ	-11.4341
ാണ്	-11.4341
▁DKK	-11.4342
▁Vent	-11.4342
▁dni	-11.4345
õr	-11.4345
ាប់	-11.4348
vlád	-11.4348
èn	-11.4349
ಕ್ಕೆ	-11.4349
താ	-11.435
观	-11.4351
erede	-11.4351
venir	-11.4351
elő	-11.4352
125	-11.4353
ਕੇ	-11.4353
▁Machine	-11.4353
▁Hur	-11.4353
2.0	-11.4354
פל	-11.4355
▁Wer	-11.4356
▁след	-11.4357
кам	-11.4358
▁יו	-11.4358
ờ	-11.4359
imų	-11.436
innen	-11.4361
TEN	-11.4362
▁auk	-11.4362
ème	-11.4363
▁කර	-11.4363
▁Washington	-11.4363
▁OF	-11.4363
▁verir	-11.4365
▁تک	-11.4366
ဒ	-11.4367
reiz	-11.4368
ਥ	-11.4369
▁þegar	-11.4369
vok	-11.4369
▁Brit	-11.4371
stick	-11.4371
що	-11.4371
итель	-11.4371
-24	-11.4372
ój	-11.4373
▁curso	-11.4373
▁Լ	-11.4373
▁kuna	-11.4374
ō	-11.4375
▁krye	-11.4375
ước	-11.4376
garri	-11.4376
نان	-11.4376
ئے	-11.4376
сад	-11.4376
צה	-11.4377
ORE	-11.4377
▁Korea	-11.4379
▁Hann	-11.4379
▁Hans	-11.438
fli	-11.4383
▁ඉ	-11.4384
▁nacional	-11.4388
ارد	-11.4389
kkur	-11.4389
▁등	-11.439
Ў	-11.4392
ทํา	-11.4392
▁arba	-11.4393
zicht	-11.4394
▁rug	-11.4395
158	-11.4396
ендә	-11.4396
lingen	-11.4397
ljub	-11.4398
강	-11.4398
队	-11.4398
▁̧	-11.44
▁Mich	-11.44
fizi	-11.4402
▁número	-11.4404
תה	-11.4406
ුව	-11.4407
▁tetapi	-11.4408
minister	-11.4408
mynd	-11.4412
ctic	-11.4414
▁Anne	-11.4417
▁Ever	-11.4418
▁garant	-11.4419
▁CAR	-11.4419
otta	-11.442
țe	-11.4421
▁Fest	-11.4422
333	-11.4423
wear	-11.4423
▁Govern	-11.4425
▁varie	-11.4425
▁айт	-11.4426
▁Vend	-11.4429
truk	-11.443
▁pembe	-11.443
ობ	-11.4431
▁Health	-11.4432
lust	-11.4432
▁حم	-11.4433
ின்	-11.4434
玩	-11.4434
提供	-11.4434
буд	-11.4436
▁έχει	-11.4437
▁הק	-11.4437
住	-11.444
ranje	-11.444
best	-11.444
▁време	-11.444
CHI	-11.4441
дир	-11.4444
Industri	-11.4445
wand	-11.4448
meye	-11.445
语	-11.4451
aith	-11.4451
▁panel	-11.4452
▁väga	-11.4452
શે	-11.4453
▁trend	-11.4453
340	-11.4453
▁larg	-11.4453
▁điện	-11.4454
till	-11.4455
▁Herri	-11.4456
▁10:00	-11.4457
▁continu	-11.4457
ёр	-11.4457
ارات	-11.4458
၀	-11.4458
▁220	-11.4458
ュ	-11.4458
▁december	-11.4458
ић	-11.446
▁mira	-11.446
قص	-11.4461
sex	-11.4461
actie	-11.4461
рас	-11.4462
002	-11.4463
ږ	-11.4463
1.00	-11.4463
157	-11.4464
lerine	-11.4464
.06.2	-11.4464
▁aussi	-11.4465
▁fung	-11.4466
▁ہی	-11.4467
1080	-11.4467
aidh	-11.4469
ѓ	-11.447
▁Zeit	-11.4471
▁(8)	-11.4472
suz	-11.4474
lær	-11.4479
cké	-11.4481
ము	-11.4481
ную	-11.4482
шен	-11.4482
▁instrument	-11.4482
íte	-11.4483
TK	-11.4483
/08/20	-11.4484
▁años	-11.4485
▁Jūs	-11.4487
ikh	-11.4487
വി	-11.4488
二手	-11.4488
▁reci	-11.4489
chtig	-11.4491
papa	-11.4491
ាក់	-11.4491
είτε	-11.4491
▁mac	-11.4492
craft	-11.4492
▁grund	-11.4494
▁систем	-11.4494
SON	-11.4494
inner	-11.4494
▁Cop	-11.4495
▁wame	-11.4495
όρ	-11.4495
DL	-11.4497
▁aktual	-11.4497
EUR	-11.4498
▁hou	-11.4499
已	-11.45
▁1999	-11.45
▁location	-11.4501
όσ	-11.4502
тель	-11.4503
▁Ві	-11.4505
引	-11.4506
▁vam	-11.4506
SAN	-11.4507
▁público	-11.4507
▁Antonio	-11.4508
ورد	-11.4508
8.00	-11.4508
иот	-11.4509
erial	-11.4509
▁nyt	-11.451
клад	-11.4511
画	-11.4512
▁Herren	-11.4513
ное	-11.4513
כות	-11.4515
ington	-11.4517
▁kwamba	-11.4518
δα	-11.4518
▁body	-11.4518
▁Stock	-11.4518
likuwa	-11.4519
ključ	-11.4519
է	-11.4519
தா	-11.452
figur	-11.4522
उ	-11.4523
▁rom	-11.4523
ៀ	-11.4524
爱	-11.4524
5°	-11.4524
onta	-11.4525
168	-11.4526
zwe	-11.4527
▁đá	-11.4527
תק	-11.4528
▁yazı	-11.4528
MAT	-11.4529
▁Simon	-11.4529
▁madh	-11.453
值	-11.453
ાં	-11.453
់	-11.4532
guer	-11.4532
screen	-11.4535
形	-11.4536
аси	-11.4536
▁دست	-11.4536
创	-11.4536
▁Wiki	-11.4539
▁hilo	-11.4539
töö	-11.4539
▁Unter	-11.4541
▁negara	-11.4541
илган	-11.4541
ரா	-11.4541
uß	-11.4541
▁Portugal	-11.4542
වෙ	-11.4542
▁ਅਤੇ	-11.4543
▁мин	-11.4544
▁mijn	-11.4545
Mod	-11.4546
▁Alex	-11.4546
▁filtr	-11.4547
▁суд	-11.4547
DES	-11.4547
▁Size	-11.4548
138	-11.4548
▁còn	-11.4548
效	-11.4548
▁své	-11.455
activitat	-11.4551
دہ	-11.4552
▁diverse	-11.4552
▁Buy	-11.4552
▁Karl	-11.4553
▁çek	-11.4555
ഫ	-11.4555
▁efect	-11.4556
த்தி	-11.4557
▁abi	-11.4558
lő	-11.456
▁terus	-11.456
uyện	-11.456
▁Թ	-11.4561
కొ	-11.4562
▁май	-11.4563
134	-11.4564
ស្រ	-11.4567
ēta	-11.4567
IDA	-11.4567
▁estre	-11.4569
▁Ис	-11.457
āli	-11.457
▁белән	-11.4573
▁hall	-11.4575
cente	-11.4575
nggal	-11.4576
ับ	-11.4577
جان	-11.4578
ษ	-11.4578
▁acu	-11.458
uksen	-11.4582
▁Masa	-11.4582
ιών	-11.4582
зер	-11.4584
▁sans	-11.4584
▁قرار	-11.4584
连	-11.4584
quí	-11.4585
quant	-11.4585
2.4	-11.4586
▁immer	-11.4586
▁Vene	-11.4587
internet	-11.4587
1,2	-11.4588
rier	-11.4589
ык	-11.459
▁ہوئے	-11.4591
бай	-11.4592
лага	-11.4592
kuru	-11.4593
หา	-11.4593
/11	-11.4594
іп	-11.4596
機	-11.4597
▁szerint	-11.4597
вър	-11.4597
▁sín	-11.4598
▁vores	-11.4598
जि	-11.4602
景	-11.4603
▁Santiago	-11.4603
čius	-11.4603
feito	-11.4603
ора	-11.4604
▁story	-11.4607
▁Ўзбекистон	-11.4609
▁ihr	-11.4609
國	-11.4609
▁Ort	-11.461
liek	-11.4611
fyl	-11.4613
129	-11.4613
positiv	-11.4614
VEN	-11.4616
▁chất	-11.4618
▁Mode	-11.4619
▁vám	-11.462
작	-11.4621
请	-11.4621
▁afge	-11.4621
STE	-11.4622
▁kohta	-11.4622
▁Sony	-11.4622
ják	-11.4623
כה	-11.4623
цыі	-11.4624
տր	-11.4624
بان	-11.4625
ujeme	-11.4626
▁jät	-11.4627
ပြ	-11.4629
mız	-11.463
ματ	-11.4631
owym	-11.4632
游	-11.4633
='	-11.4633
▁Portal	-11.4635
▁فی	-11.4635
llë	-11.4635
RF	-11.4636
▁nchini	-11.4637
▁ore	-11.4638
▁προσ	-11.4639
ክ	-11.4639
▁gjatë	-11.464
012	-11.464
issue	-11.464
▁toho	-11.4641
WW	-11.4641
unum	-11.4644
▁dva	-11.4644
▁nostre	-11.4645
IRA	-11.4646
▁celo	-11.4647
skab	-11.4647
▁גם	-11.4647
▁esto	-11.4648
▁нам	-11.4648
▁considera	-11.465
ddy	-11.465
ték	-11.465
样	-11.4651
▁Edition	-11.4651
parte	-11.4652
طب	-11.4655
ლე	-11.4655
▁орган	-11.4656
stol	-11.4656
室	-11.4656
ларга	-11.4657
▁3.0	-11.4658
UND	-11.4661
кла	-11.4661
กับ	-11.4662
เร	-11.4662
156	-11.4664
▁argi	-11.4665
ują	-11.4665
▁શ	-11.4666
loka	-11.4667
▁nila	-11.4668
▁Nel	-11.4668
เส	-11.4669
ЛА	-11.467
twitter	-11.467
ху	-11.467
dział	-11.4672
వే	-11.4672
▁kila	-11.4672
ống	-11.4674
▁Secret	-11.4677
154	-11.4679
נית	-11.4679
gran	-11.468
▁Vall	-11.4681
▁both	-11.4681
ply	-11.4681
▁tylko	-11.4682
GR	-11.4684
▁daug	-11.4688
ች	-11.4688
임	-11.4688
tott	-11.4689
▁Tə	-11.4689
0.6	-11.469
▁Dette	-11.4692
larla	-11.4692
рма	-11.4693
ovali	-11.4693
▁melalui	-11.4694
▁territori	-11.4695
▁proced	-11.4696
▁əsas	-11.4699
▁κατά	-11.4699
mpul	-11.47
ringer	-11.47
ृ	-11.47
士	-11.4701
▁manera	-11.4703
uring	-11.4703
חש	-11.4704
▁shir	-11.4705
IES	-11.4705
пра	-11.4706
ঙ্গ	-11.4706
vang	-11.4709
▁biasa	-11.471
ilməsi	-11.471
▁small	-11.471
▁Lig	-11.4711
ਏ	-11.4712
▁iespēja	-11.4712
▁bardzo	-11.4713
했다	-11.4713
eiß	-11.4713
યા	-11.4714
▁national	-11.4714
ថ	-11.4714
ၾက	-11.4714
▁Republik	-11.4714
été	-11.4715
ಂಬ	-11.4717
▁author	-11.4719
▁concert	-11.4719
сно	-11.4719
▁poate	-11.4719
ských	-11.472
ậ	-11.472
▁bildir	-11.472
▁있	-11.4721
sdóttir	-11.4721
ద్	-11.4723
matik	-11.4723
▁shqiptar	-11.4726
mysl	-11.4726
】【,】【	-11.4729
▁those	-11.473
▁hành	-11.4731
ħa	-11.4732
rück	-11.4733
βα	-11.4733
▁kwi	-11.4734
▁gaat	-11.4739
GEN	-11.4739
vand	-11.4739
▁food	-11.4741
atuko	-11.4741
▁Кар	-11.4741
apkan	-11.4742
liau	-11.4742
▁rapid	-11.4742
աթ	-11.4743
▁azal	-11.4743
巴	-11.4743
мор	-11.4744
feri	-11.4744
Pub	-11.4746
ભા	-11.4747
zott	-11.4748
▁wenn	-11.4748
▁paper	-11.4749
▁Stand	-11.4749
▁Att	-11.4749
▁protect	-11.4749
▁وزیر	-11.4749
▁Audio	-11.475
▁mij	-11.475
▁Christian	-11.4752
शा	-11.4752
αντ	-11.4754
校	-11.4755
▁İstanbul	-11.4756
215	-11.4756
คร	-11.4757
west	-11.4758
▁chúng	-11.4758
198	-11.4758
ంగా	-11.476
યો	-11.4761
给	-11.4762
だ	-11.4763
boj	-11.4766
0.9	-11.4767
IDE	-11.4767
▁negoci	-11.4768
香港	-11.4768
▁Dzi	-11.4768
▁allow	-11.4769
యా	-11.4773
omat	-11.4774
dong	-11.4774
149	-11.4774
žas	-11.4775
▁програм	-11.4775
الم	-11.4776
ндай	-11.4776
্ব	-11.4777
ιλ	-11.4778
▁priser	-11.478
码	-11.478
▁último	-11.478
050	-11.4781
▁हैं	-11.4781
▁Region	-11.4782
ائر	-11.4784
જા	-11.4786
▁infra	-11.4787
▁terug	-11.4787
▁hayo	-11.479
ново	-11.4791
▁Гр	-11.4791
atı	-11.4791
ardin	-11.4793
۱۳۹	-11.4793
▁suure	-11.4793
վա	-11.4794
440	-11.4794
▁Ста	-11.4796
375	-11.4796
ေတြ	-11.4799
自己	-11.4799
ัก	-11.4799
▁bērn	-11.48
▁Fire	-11.4802
▁minutes	-11.4802
töl	-11.4803
ification	-11.4803
节	-11.4804
ည္	-11.4804
파	-11.4805
صف	-11.4805
dığını	-11.4806
▁Techni	-11.4807
դր	-11.4807
علم	-11.4808
centrum	-11.4808
/12	-11.4809
转	-11.4811
ματα	-11.4811
▁büyük	-11.4811
▁Bou	-11.4811
▁Palm	-11.4813
▁robot	-11.4813
ALE	-11.4814
venue	-11.4815
▁pagal	-11.4815
▁marzo	-11.4816
ària	-11.4816
אחר	-11.4816
zë	-11.4817
▁Rang	-11.4818
kšt	-11.4819
▁modo	-11.4823
▁علی	-11.4824
▁faz	-11.4825
▁oficial	-11.4825
име	-11.4826
শা	-11.4826
բեր	-11.4827
275	-11.4828
әй	-11.4828
▁Hö	-11.4829
▁medio	-11.4829
排	-11.483
слав	-11.4832
▁Natural	-11.4832
Sport	-11.4833
tjie	-11.4835
лад	-11.4835
코	-11.4836
▁Israel	-11.4836
▁վեր	-11.4838
ıq	-11.4838
간	-11.484
▁baby	-11.4842
▁кара	-11.4843
cza	-11.4844
▁kalau	-11.4844
▁এক	-11.4844
▁naudo	-11.4844
▁Luk	-11.4846
Ğ	-11.4848
ονται	-11.4848
пор	-11.4848
moqda	-11.4849
▁fundit	-11.485
кой	-11.485
ева	-11.4852
طلب	-11.4853
▁Andrea	-11.4853
▁هر	-11.4854
▁dilakukan	-11.4855
▁música	-11.4855
oğu	-11.4858
▁Хо	-11.486
ಬ	-11.4861
Å	-11.4861
▁Carl	-11.4861
▁¤	-11.4865
ují	-11.4865
▁slut	-11.4866
τικά	-11.4866
beli	-11.4867
▁Font	-11.4868
-2017	-11.487
داری	-11.4871
legi	-11.4872
▁Kart	-11.4872
▁confirm	-11.4873
板	-11.4873
▁premier	-11.4876
עת	-11.4876
TAG	-11.4876
▁practic	-11.4879
иқ	-11.4879
3.2	-11.4879
øde	-11.4881
ற்ற	-11.4882
990	-11.4882
▁Pont	-11.4882
հայտ	-11.4883
child	-11.4883
▁ainda	-11.4883
▁conce	-11.4884
flow	-11.4884
duğu	-11.4885
ভ	-11.4889
üb	-11.4891
plek	-11.4892
usse	-11.4893
catalog	-11.4894
RIS	-11.4894
290	-11.4895
گرد	-11.4895
zbek	-11.4896
Star	-11.4899
▁lagun	-11.49
▁која	-11.4901
tín	-11.4901
deling	-11.4901
ិត	-11.4905
ќ	-11.4905
ancia	-11.4906
ussa	-11.4907
▁እ	-11.4907
▁ভ	-11.4908
ಪ್	-11.4909
ként	-11.4909
!!!!!	-11.491
[...]
