{
  "version": "1.0",
  "truncation": null,
  "padding": null,
  "added_tokens": [],
  "normalizer": {
    "type": "NFKC"
  },
  "pre_tokenizer": {
    "type": "Metaspace",
    "replacement": "▁",
    "prepend_scheme": "always",
    "split": true
  },
  "post_processor": {
    "type": "TemplateProcessing",
    "single": [
      {
        "SpecialToken": {
          "id": "<s>",
          "type_id": 0
        }
      },
      {
        "Sequence": {
          "id": "A",
          "type_id": 0
        }
      },
      {
        "SpecialToken": {
          "id": "</s>",
          "type_id": 0
        }
      }
    ],
    "pair": [
      {
        "Sequence": {
          "id": "A",
          "type_id": 0
        }
      },
      {
        "Sequence": {
          "id": "B",
          "type_id": 1
        }
      }
    ],
    "special_tokens": {
      "</s>": {
        "id": "</s>",
        "ids": [
          2
        ],
        "tokens": [
          "</s>"
        ]
      },
      "<s>": {
        "id": "<s>",
        "ids": [
          1
        ],
        "tokens": [
          "<s>"
        ]
      }
    }
  },
  "decoder": {
    "type": "Metaspace",
    "replacement": "▁",
    "prepend_scheme": "always",
    "split": true
  },
  "model": {
    "type": "Unigram",
    "unk_id": 0,
    "vocab": [
      [
        "<unk>",
        0.0
      ],
      [
        "<s>",
        0.0
      ],
      [
        "</s>",
        0.0
      ],
      [
        "<pad>",
        0.0
      ],
      [
        "▁",
        -3.080979824066162
      ],
      [
        ",",
        -3.831068515777588
      ],
      [
        ".",
        -3.9262921810150146
      ],
      [
        "s",
        -4.278947830200195
      ],
      [
        "a",
        -4.766549110412598
      ],
      [
        "e",
        -4.965479373931885
      ],
      [
        "i",
        -4.992642402648926
      ],
      [
        "t",
        -5.226917266845703
      ],
      [
        "-",
        -5.230408668518066
      ],
      [
        "▁de",
        -5.33316707611084
      ],
      [
        "o",
        -5.370382308959961
      ],
      [
        ":",
        -5.420121669769287
      ],
      [
        "▁a",
        -5.521803855895996
      ],
      [
        "u",
        -5.54892110824585
      ],
      [
        "n",
        -5.603695869445801
      ],
      [
        "y",
        -5.805844783782959
      ],
      [
        "en",
        -5.818813323974609
      ],
      [
        "d",
        -5.901422023773193
      ],
      [
        "▁-",
        -5.920167446136475
      ],
      [
        ")",
        -5.979176044464111
      ],
      [
        "▁(",
        -6.022067070007324
      ],
      [
        "m",
        -6.045407772064209
      ],
      [
        "r",
        -6.104465007781982
      ],
      [
        "er",
        -6.116976737976074
      ],
      [
        "k",
        -6.155489444732666
      ],
      [
        "▁in",
        -6.217093467712402
      ],
      [
        "an",
        -6.222075462341309
      ],
      [
        "/",
        -6.239638805389404
      ],
      [
        "▁e",
        -6.299455642700195
      ],
      [
        "▁i",
        -6.308804512023926
      ],
      [
        "▁na",
        -6.313090801239014
      ],
      [
        "▁la",
        -6.317770004272461
      ],
      [
        "in",
        -6.320312976837158
      ],
      [
        "te",
        -6.371037483215332
      ],
      [
        "▁en",
        -6.37659215927124
      ],
      [
        "g",
        -6.410362720489502
      ],
      [
        "h",
        -6.417989253997803
      ],
      [
        "z",
        -6.464393138885498
      ],
      [
        "▁A",
        -6.464673042297363
      ],
      [
        "na",
        -6.489346027374268
      ],
      [
        "ta",
        -6.4903459548950195
      ],
      [
        "es",
        -6.495739936828613
      ],
      [
        "'",
        -6.5242085456848145
      ],
      [
        "da",
        -6.528066635131836
      ],
      [
        "▁S",
        -6.532342433929443
      ],
      [
        "l",
        -6.544879913330078
      ],
      [
        "c",
        -6.548739433288574
      ],
      [
        "▁sa",
        -6.567980766296387
      ],
      [
        "ar",
        -6.574822425842285
      ],
      [
        "de",
        -6.5801825523376465
      ],
      [
        "le",
        -6.641019821166992
      ],
      [
        "b",
        -6.641743183135986
      ],
      [
        "ne",
        -6.643580436706543
      ],
      [
        "▁di",
        -6.645437717437744
      ],
      [
        "p",
        -6.6718363761901855
      ],
      [
        "▁|",
        -6.683463096618652
      ],
      [
        "’",
        -6.6963887214660645
      ],
      [
        "to",
        -6.7243757247924805
      ],
      [
        "▁o",
        -6.725440502166748
      ],
      [
        "▁se",
        -6.729856014251709
      ],
      [
        "ka",
        -6.746564865112305
      ],
      [
        "▁to",
        -6.746714115142822
      ],
      [
        "la",
        -6.748318195343018
      ],
      [
        "j",
        -6.8201584815979
      ],
      [
        "▁do",
        -6.834634780883789
      ],
      [
        "al",
        -6.850038528442383
      ],
      [
        "ni",
        -6.857361316680908
      ],
      [
        "re",
        -6.8576226234436035
      ],
      [
        "li",
        -6.882701396942139
      ],
      [
        "v",
        -6.884794235229492
      ],
      [
        "is",
        -6.908414840698242
      ],
      [
        "ing",
        -6.911973476409912
      ],
      [
        "▁da",
        -6.918056488037109
      ],
      [
        "f",
        -6.919427871704102
      ],
      [
        "ti",
        -6.922558784484863
      ],
      [
        "▁the",
        -6.952890872955322
      ],
      [
        "ed",
        -6.954295635223389
      ],
      [
        "...",
        -6.95957088470459
      ],
      [
        "et",
        -6.959649562835693
      ],
      [
        "▁v",
        -6.965521335601807
      ],
      [
        "as",
        -6.969790935516357
      ],
      [
        "x",
        -6.976903438568115
      ],
      [
        "ja",
        -6.978930950164795
      ],
      [
        "?",
        -7.003705978393555
      ],
      [
        "ko",
        -7.00493860244751
      ],
      [
        "si",
        -7.007646083831787
      ],
      [
        "it",
        -7.0112080574035645
      ],
      [
        "▁s",
        -7.024054050445557
      ],
      [
        "▁que",
        -7.029451370239258
      ],
      [
        "ma",
        -7.034585952758789
      ],
      [
        "▁d",
        -7.051575183868408
      ],
      [
        "at",
        -7.064222812652588
      ],
      [
        "▁–",
        -7.069840908050537
      ],
      [
        "!",
        -7.082377910614014
      ],
      [
        "se",
        -7.08634614944458
      ],
      [
        "w",
        -7.088428020477295
      ],
      [
        "S",
        -7.090696334838867
      ],
      [
        "▁un",
        -7.10724401473999
      ],
      [
        "▁1",
        -7.114440441131592
      ],
      [
        "▁M",
        -7.126460075378418
      ],
      [
        "os",
        -7.1334099769592285
      ],
      [
        "ra",
        -7.148963928222656
      ],
      [
        "ga",
        -7.154346942901611
      ],
      [
        "▁I",
        -7.1589741706848145
      ],
      [
        "▁of",
        -7.171131134033203
      ],
      [
        "▁l",
        -7.172512531280518
      ],
      [
        "no",
        -7.17494535446167
      ],
      [
        "\"",
        -7.175823211669922
      ],
      [
        "A",
        -7.176849842071533
      ],
      [
        "▁B",
        -7.178062438964844
      ],
      [
        "▁\"",
        -7.190052032470703
      ],
      [
        "ak",
        -7.196194171905518
      ],
      [
        "▁m",
        -7.207354545593262
      ],
      [
        "▁ka",
        -7.2123541831970215
      ],
      [
        "▁and",
        -7.2189555168151855
      ],
      [
        "ch",
        -7.229537010192871
      ],
      [
        "▁for",
        -7.234923839569092
      ],
      [
        "st",
        -7.239007949829102
      ],
      [
        "us",
        -7.239995002746582
      ],
      [
        "▁at",
        -7.240710258483887
      ],
      [
        "▁K",
        -7.242918968200684
      ],
      [
        "di",
        -7.253078937530518
      ],
      [
        "▁og",
        -7.258722305297852
      ],
      [
        "▁C",
        -7.27108907699585
      ],
      [
        "▁2",
        -7.272841930389404
      ],
      [
        "▁T",
        -7.28944206237793
      ],
      [
        "▁on",
        -7.2935709953308105
      ],
      [
        "▁si",
        -7.294090270996094
      ],
      [
        "▁z",
        -7.301944732666016
      ],
      [
        "▁is",
        -7.302299499511719
      ],
      [
        "me",
        -7.305204391479492
      ],
      [
        ";",
        -7.305416584014893
      ],
      [
        "on",
        -7.305783748626709
      ],
      [
        "ce",
        -7.30648136138916
      ],
      [
        "▁te",
        -7.308389186859131
      ],
      [
        "ur",
        -7.3130974769592285
      ],
      [
        "▁E",
        -7.314265251159668
      ],
      [
        "▁le",
        -7.321300506591797
      ],
      [
        "▁be",
        -7.324172019958496
      ],
      [
        "▁3",
        -7.331472873687744
      ],
      [
        "▁me",
        -7.342614650726318
      ],
      [
        "ve",
        -7.346003532409668
      ],
      [
        "ki",
        -7.347865104675293
      ],
      [
        "▁po",
        -7.348459720611572
      ],
      [
        "ir",
        -7.355825424194336
      ],
      [
        "sa",
        -7.357328414916992
      ],
      [
        "ri",
        -7.360376358032227
      ],
      [
        "▁“",
        -7.3757548332214355
      ],
      [
        "▁per",
        -7.375836372375488
      ],
      [
        "ke",
        -7.376398086547852
      ],
      [
        "lo",
        -7.391355037689209
      ],
      [
        "ge",
        -7.396125316619873
      ],
      [
        "mi",
        -7.397037982940674
      ],
      [
        "▁O",
        -7.406458377838135
      ],
      [
        "▁ja",
        -7.408881187438965
      ],
      [
        "B",
        -7.409955978393555
      ],
      [
        "do",
        -7.412743091583252
      ],
      [
        "▁на",
        -7.414942741394043
      ],
      [
        "▁za",
        -7.418122291564941
      ],
      [
        "▁je",
        -7.419957637786865
      ],
      [
        "D",
        -7.421456813812256
      ],
      [
        "▁no",
        -7.424680709838867
      ],
      [
        "C",
        -7.429708957672119
      ],
      [
        "id",
        -7.437353610992432
      ],
      [
        "2",
        -7.441939830780029
      ],
      [
        "il",
        -7.450553894042969
      ],
      [
        "_",
        -7.453376293182373
      ],
      [
        "▁D",
        -7.4605817794799805
      ],
      [
        "▁al",
        -7.466277599334717
      ],
      [
        "▁el",
        -7.470242023468018
      ],
      [
        "▁P",
        -7.471712589263916
      ],
      [
        "▁/",
        -7.473227024078369
      ],
      [
        "ba",
        -7.47435998916626
      ],
      [
        "ha",
        -7.477952480316162
      ],
      [
        "▁re",
        -7.482079029083252
      ],
      [
        "tu",
        -7.482230186462402
      ],
      [
        "3",
        -7.483779430389404
      ],
      [
        "va",
        -7.484948635101318
      ],
      [
        "▁ku",
        -7.48556661605835
      ],
      [
        "▁er",
        -7.490913391113281
      ],
      [
        "▁V",
        -7.491973400115967
      ],
      [
        "▁4",
        -7.505882740020752
      ],
      [
        "el",
        -7.505997180938721
      ],
      [
        "”",
        -7.513263702392578
      ],
      [
        "а",
        -7.514530658721924
      ],
      [
        "▁L",
        -7.525343418121338
      ],
      [
        "▁du",
        -7.525426387786865
      ],
      [
        "ci",
        -7.526238441467285
      ],
      [
        "▁ne",
        -7.527865409851074
      ],
      [
        "ku",
        -7.529111862182617
      ],
      [
        "je",
        -7.530058860778809
      ],
      [
        "▁die",
        -7.532571792602539
      ],
      [
        "ro",
        -7.534575462341309
      ],
      [
        "wa",
        -7.534633636474609
      ],
      [
        "▁H",
        -7.536182880401611
      ],
      [
        "▁të",
        -7.542951583862305
      ],
      [
        "q",
        -7.552009105682373
      ],
      [
        "ca",
        -7.552547931671143
      ],
      [
        "1",
        -7.578164577484131
      ],
      [
        "ul",
        -7.579896926879883
      ],
      [
        "и",
        -7.588572025299072
      ],
      [
        "F",
        -7.588677883148193
      ],
      [
        "▁van",
        -7.588998317718506
      ],
      [
        "▁G",
        -7.591426372528076
      ],
      [
        "com",
        -7.5968804359436035
      ],
      [
        "▁La",
        -7.598713397979736
      ],
      [
        "un",
        -7.6052327156066895
      ],
      [
        "K",
        -7.607001781463623
      ],
      [
        "kan",
        -7.6151580810546875
      ],
      [
        "▁pa",
        -7.615839958190918
      ],
      [
        "▁ya",
        -7.619916915893555
      ],
      [
        "▁con",
        -7.623851776123047
      ],
      [
        "í",
        -7.626520156860352
      ],
      [
        "▁k",
        -7.627315044403076
      ],
      [
        "▁10",
        -7.635231018066406
      ],
      [
        "um",
        -7.636363506317139
      ],
      [
        "E",
        -7.638805866241455
      ],
      [
        "▁N",
        -7.640618801116943
      ],
      [
        "▁F",
        -7.646824836730957
      ],
      [
        "am",
        -7.653064250946045
      ],
      [
        "▁De",
        -7.656372547149658
      ],
      [
        "T",
        -7.660707950592041
      ],
      [
        "ek",
        -7.668121814727783
      ],
      [
        "▁5",
        -7.668857574462891
      ],
      [
        "be",
        -7.669610977172852
      ],
      [
        "ten",
        -7.677888870239258
      ],
      [
        "em",
        -7.679869651794434
      ],
      [
        "▁ki",
        -7.687958717346191
      ],
      [
        "▁19",
        -7.695031642913818
      ],
      [
        "▁ve",
        -7.697371006011963
      ],
      [
        "▁u",
        -7.700981616973877
      ],
      [
        "ter",
        -7.701565742492676
      ],
      [
        "▁su",
        -7.710432529449463
      ],
      [
        "mo",
        -7.711328983306885
      ],
      [
        "ya",
        -7.715917587280273
      ],
      [
        "G",
        -7.720052719116211
      ],
      [
        "(",
        -7.722175598144531
      ],
      [
        "N",
        -7.72550630569458
      ],
      [
        "P",
        -7.73069953918457
      ],
      [
        "lar",
        -7.736416816711426
      ],
      [
        "é",
        -7.737342357635498
      ],
      [
        "▁R",
        -7.739681243896484
      ],
      [
        "or",
        -7.741552352905273
      ],
      [
        "ia",
        -7.743171215057373
      ],
      [
        "W",
        -7.7495951652526855
      ],
      [
        "zi",
        -7.753697872161865
      ],
      [
        "za",
        -7.7571120262146
      ],
      [
        "ng",
        -7.7574262619018555
      ],
      [
        "V",
        -7.757706165313721
      ],
      [
        "M",
        -7.758112907409668
      ],
      [
        "4",
        -7.7596611976623535
      ],
      [
        "ad",
        -7.759994029998779
      ],
      [
        "▁para",
        -7.768594741821289
      ],
      [
        "▁wa",
        -7.772988319396973
      ],
      [
        "co",
        -7.774079322814941
      ],
      [
        "▁an",
        -7.774162292480469
      ],
      [
        "▁ma",
        -7.77529764175415
      ],
      [
        "▁ha",
        -7.784451007843018
      ],
      [
        "▁dan",
        -7.789289951324463
      ],
      [
        "H",
        -7.792165279388428
      ],
      [
        "▁ke",
        -7.799131870269775
      ],
      [
        "▁ko",
        -7.805227756500244
      ],
      [
        "▁et",
        -7.808514595031738
      ],
      [
        "ی",
        -7.812690258026123
      ],
      [
        "▁U",
        -7.81334924697876
      ],
      [
        "▁ge",
        -7.820472717285156
      ],
      [
        "ho",
        -7.824488639831543
      ],
      [
        "vi",
        -7.825415134429932
      ],
      [
        "go",
        -7.828851222991943
      ],
      [
        "▁so",
        -7.829873085021973
      ],
      [
        "pa",
        -7.831489086151123
      ],
      [
        "▁yang",
        -7.83242654800415
      ],
      [
        "ly",
        -7.832547187805176
      ],
      [
        "的",
        -7.834042549133301
      ],
      [
        "▁del",
        -7.838225841522217
      ],
      [
        "gi",
        -7.844440937042236
      ],
      [
        "|",
        -7.847497463226318
      ],
      [
        "▁за",
        -7.855608940124512
      ],
      [
        "▁w",
        -7.859121322631836
      ],
      [
        "е",
        -7.869075775146484
      ],
      [
        "im",
        -7.871898174285889
      ],
      [
        "ie",
        -7.87736177444458
      ],
      [
        "▁y",
        -7.87799072265625
      ],
      [
        "O",
        -7.87897253036499
      ],
      [
        "▁b",
        -7.885160446166992
      ],
      [
        "du",
        -7.8924360275268555
      ],
      [
        "der",
        -7.8927178382873535
      ],
      [
        "▁ver",
        -7.893143653869629
      ],
      [
        "man",
        -7.893881320953369
      ],
      [
        "▁и",
        -7.898390293121338
      ],
      [
        "▁med",
        -7.899750232696533
      ],
      [
        "5",
        -7.902695655822754
      ],
      [
        "▁ng",
        -7.907481670379639
      ],
      [
        "▁ta",
        -7.907855033874512
      ],
      [
        "▁til",
        -7.914394855499268
      ],
      [
        "▁pe",
        -7.915912628173828
      ],
      [
        "т",
        -7.918087959289551
      ],
      [
        "://",
        -7.921015739440918
      ],
      [
        "м",
        -7.921806812286377
      ],
      [
        "▁op",
        -7.933462142944336
      ],
      [
        "▁på",
        -7.9360480308532715
      ],
      [
        "bo",
        -7.943873882293701
      ],
      [
        "▁by",
        -7.943941593170166
      ],
      [
        "den",
        -7.946475028991699
      ],
      [
        "▁Re",
        -7.948511600494385
      ],
      [
        "ver",
        -7.9571428298950195
      ],
      [
        "с",
        -7.95994234085083
      ],
      [
        "▁In",
        -7.9639363288879395
      ],
      [
        "ut",
        -7.970218181610107
      ],
      [
        "lu",
        -7.973321914672852
      ],
      [
        "▁6",
        -7.973827838897705
      ],
      [
        "we",
        -7.9767866134643555
      ],
      [
        "▁bo",
        -7.982641696929932
      ],
      [
        "po",
        -7.982744216918945
      ],
      [
        "▁t",
        -7.98462438583374
      ],
      [
        "ny",
        -7.988690376281738
      ],
      [
        "▁va",
        -7.99482536315918
      ],
      [
        "▁vi",
        -7.999773979187012
      ],
      [
        "▁Na",
        -8.00390338897705
      ],
      [
        "▁0",
        -8.009476661682129
      ],
      [
        "▁av",
        -8.013123512268066
      ],
      [
        "š",
        -8.013151168823242
      ],
      [
        "л",
        -8.015066146850586
      ],
      [
        "▁g",
        -8.019648551940918
      ],
      [
        "▁Le",
        -8.021921157836914
      ],
      [
        "у",
        -8.025378227233887
      ],
      [
        "]",
        -8.026985168457031
      ],
      [
        "на",
        -8.02768325805664
      ],
      [
        "6",
        -8.031975746154785
      ],
      [
        "▁as",
        -8.035886764526367
      ],
      [
        "▁#",
        -8.038233757019043
      ],
      [
        "▁ar",
        -8.038623809814453
      ],
      [
        "▁12",
        -8.039082527160645
      ],
      [
        "▁W",
        -8.042414665222168
      ],
      [
        "▁و",
        -8.04343032836914
      ],
      [
        "om",
        -8.043739318847656
      ],
      [
        "ā",
        -8.044979095458984
      ],
      [
        "8",
        -8.046351432800293
      ],
      [
        "nya",
        -8.049783706665039
      ],
      [
        "mu",
        -8.050848960876465
      ],
      [
        "▁pre",
        -8.052403450012207
      ],
      [
        "ju",
        -8.054238319396973
      ],
      [
        "▁20",
        -8.057251930236816
      ],
      [
        "ه",
        -8.058717727661133
      ],
      [
        "ina",
        -8.059298515319824
      ],
      [
        "jo",
        -8.060548782348633
      ],
      [
        "ä",
        -8.062324523925781
      ],
      [
        "0",
        -8.065367698669434
      ],
      [
        "▁Al",
        -8.068680763244629
      ],
      [
        "▁«",
        -8.069697380065918
      ],
      [
        "▁»",
        -8.071465492248535
      ],
      [
        "▁Se",
        -8.076131820678711
      ],
      [
        "7",
        -8.076175689697266
      ],
      [
        "th",
        -8.076988220214844
      ],
      [
        "▁8",
        -8.078072547912598
      ],
      [
        "▁het",
        -8.080953598022461
      ],
      [
        "▁në",
        -8.08182430267334
      ],
      [
        "▁в",
        -8.085869789123535
      ],
      [
        "ik",
        -8.087242126464844
      ],
      [
        "I",
        -8.08787727355957
      ],
      [
        "▁ir",
        -8.093660354614258
      ],
      [
        "ze",
        -8.095405578613281
      ],
      [
        "ка",
        -8.09549617767334
      ],
      [
        "he",
        -8.098716735839844
      ],
      [
        "▁om",
        -8.100139617919922
      ],
      [
        "▁ni",
        -8.10217571258545
      ],
      [
        "L",
        -8.102531433105469
      ],
      [
        "▁7",
        -8.104340553283691
      ],
      [
        "▁pro",
        -8.113149642944336
      ],
      [
        "▁som",
        -8.115582466125488
      ],
      [
        "н",
        -8.11816120147705
      ],
      [
        "á",
        -8.11992073059082
      ],
      [
        "ang",
        -8.119950294494629
      ],
      [
        "▁kan",
        -8.12209701538086
      ],
      [
        "▁h",
        -8.122787475585938
      ],
      [
        "▁15",
        -8.123495101928711
      ],
      [
        "ji",
        -8.12470817565918
      ],
      [
        "R",
        -8.124725341796875
      ],
      [
        "р",
        -8.125282287597656
      ],
      [
        "pe",
        -8.126361846923828
      ],
      [
        "gen",
        -8.126677513122559
      ],
      [
        "،",
        -8.128687858581543
      ],
      [
        "▁11",
        -8.13064956665039
      ],
      [
        "ler",
        -8.131954193115234
      ],
      [
        "lik",
        -8.13985538482666
      ],
      [
        "ни",
        -8.140582084655762
      ],
      [
        "▁The",
        -8.141386032104492
      ],
      [
        "д",
        -8.141407012939453
      ],
      [
        "ru",
        -8.145628929138184
      ],
      [
        "ty",
        -8.156976699829102
      ],
      [
        "9",
        -8.157754898071289
      ],
      [
        "▁eta",
        -8.158156394958496
      ],
      [
        "ck",
        -8.158905982971191
      ],
      [
        "=",
        -8.165231704711914
      ],
      [
        "▁der",
        -8.16699504852295
      ],
      [
        "▁es",
        -8.168378829956055
      ],
      [
        "▁ang",
        -8.16867446899414
      ],
      [
        "▁har",
        -8.170952796936035
      ],
      [
        "bi",
        -8.171372413635254
      ],
      [
        "。",
        -8.176462173461914
      ],
      [
        "▁bi",
        -8.180479049682617
      ],
      [
        "▁18",
        -8.185178756713867
      ],
      [
        "▁2019",
        -8.186543464660645
      ],
      [
        "▁li",
        -8.187313079833984
      ],
      [
        "hi",
        -8.18749713897705
      ],
      [
        "▁por",
        -8.191145896911621
      ],
      [
        "▁c",
        -8.193473815917969
      ],
      [
        "▁var",
        -8.19374942779541
      ],
      [
        "▁Sa",
        -8.200213432312012
      ],
      [
        "iz",
        -8.204867362976074
      ],
      [
        "▁Z",
        -8.205246925354004
      ],
      [
        "▁ber",
        -8.207228660583496
      ],
      [
        "ó",
        -8.210270881652832
      ],
      [
        "▁ba",
        -8.21422004699707
      ],
      [
        "я",
        -8.216541290283203
      ],
      [
        "vo",
        -8.218058586120605
      ],
      [
        "▁les",
        -8.218123435974121
      ],
      [
        "й",
        -8.21920108795166
      ],
      [
        "▁Ma",
        -8.22295093536377
      ],
      [
        "▁af",
        -8.224939346313477
      ],
      [
        "▁J",
        -8.22831916809082
      ],
      [
        "▁&",
        -8.228858947753906
      ],
      [
        "),",
        -8.229718208312988
      ],
      [
        "▁по",
        -8.231220245361328
      ],
      [
        "men",
        -8.23388957977295
      ],
      [
        "J",
        -8.233938217163086
      ],
      [
        "▁par",
        -8.235037803649902
      ],
      [
        "▁2018",
        -8.238908767700195
      ],
      [
        "▁il",
        -8.239680290222168
      ],
      [
        "▁bu",
        -8.244226455688477
      ],
      [
        "ž",
        -8.249429702758789
      ],
      [
        "та",
        -8.252776145935059
      ],
      [
        "ment",
        -8.256781578063965
      ],
      [
        "­",
        -8.257762908935547
      ],
      [
        "▁p",
        -8.258408546447754
      ],
      [
        "х",
        -8.260446548461914
      ],
      [
        "▁Vi",
        -8.26130485534668
      ],
      [
        "ot",
        -8.264312744140625
      ],
      [
        "▁och",
        -8.266107559204102
      ],
      [
        "▁2017",
        -8.26680850982666
      ],
      [
        "▁x",
        -8.267121315002441
      ],
      [
        "▁Be",
        -8.271928787231445
      ],
      [
        "▁á",
        -8.27198314666748
      ],
      [
        "ning",
        -8.272229194641113
      ],
      [
        "▁„",
        -8.272526741027832
      ],
      [
        "▁den",
        -8.273123741149902
      ],
      [
        "▁tu",
        -8.27369499206543
      ],
      [
        "к",
        -8.274455070495605
      ],
      [
        "▁:",
        -8.276335716247559
      ],
      [
        "ig",
        -8.277665138244629
      ],
      [
        "ud",
        -8.278264045715332
      ],
      [
        "▁9",
        -8.279858589172363
      ],
      [
        "▁mu",
        -8.280357360839844
      ],
      [
        "▁у",
        -8.284714698791504
      ],
      [
        "▁ra",
        -8.285075187683105
      ],
      [
        "ok",
        -8.288597106933594
      ],
      [
        "▁16",
        -8.291036605834961
      ],
      [
        "X",
        -8.291311264038086
      ],
      [
        "ol",
        -8.292673110961914
      ],
      [
        "ą",
        -8.293917655944824
      ],
      [
        "▁een",
        -8.294425010681152
      ],
      [
        "ste",
        -8.29800033569336
      ],
      [
        "»",
        -8.299577713012695
      ],
      [
        "so",
        -8.300995826721191
      ],
      [
        "bu",
        -8.302627563476562
      ],
      [
        "sta",
        -8.307085990905762
      ],
      [
        "▁od",
        -8.30867862701416
      ],
      [
        "ry",
        -8.310952186584473
      ],
      [
        "▁с",
        -8.311408042907715
      ],
      [
        "▁f",
        -8.312347412109375
      ],
      [
        "▁com",
        -8.318148612976074
      ],
      [
        "▁det",
        -8.320752143859863
      ],
      [
        "ven",
        -8.32177448272705
      ],
      [
        "ê",
        -8.322620391845703
      ],
      [
        "ov",
        -8.322629928588867
      ],
      [
        "▁Di",
        -8.326004981994629
      ],
      [
        "lan",
        -8.32941722869873
      ],
      [
        "Z",
        -8.331888198852539
      ],
      [
        "з",
        -8.336335182189941
      ],
      [
        "var",
        -8.33665657043457
      ],
      [
        "▁No",
        -8.340824127197266
      ],
      [
        ").",
        -8.343450546264648
      ],
      [
        "ky",
        -8.344630241394043
      ],
      [
        "Y",
        -8.345212936401367
      ],
      [
        "gu",
        -8.348523139953613
      ],
      [
        "▁14",
        -8.350099563598633
      ],
      [
        "▁cu",
        -8.350915908813477
      ],
      [
        "▁um",
        -8.351005554199219
      ],
      [
        "да",
        -8.352592468261719
      ],
      [
        "▁mo",
        -8.356317520141602
      ],
      [
        "fa",
        -8.356712341308594
      ],
      [
        "#",
        -8.360038757324219
      ],
      [
        "▁Po",
        -8.360323905944824
      ],
      [
        "▁men",
        -8.360579490661621
      ],
      [
        "▁co",
        -8.3610258102417
      ],
      [
        "▁13",
        -8.365252494812012
      ],
      [
        "▁për",
        -8.365817070007324
      ],
      [
        "zo",
        -8.367050170898438
      ],
      [
        "▁€",
        -8.368227005004883
      ],
      [
        "▁des",
        -8.368915557861328
      ],
      [
        "ai",
        -8.37238883972168
      ],
      [
        "、",
        -8.373534202575684
      ],
      [
        "▁17",
        -8.3749418258667
      ],
      [
        "▁[",
        -8.376200675964355
      ],
      [
        "ada",
        -8.37712287902832
      ],
      [
        "“",
        -8.378625869750977
      ],
      [
        "▁Ka",
        -8.378996849060059
      ],
      [
        "hu",
        -8.381218910217285
      ],
      [
        "tra",
        -8.381957054138184
      ],
      [
        "ш",
        -8.383370399475098
      ],
      [
        "▁To",
        -8.383584022521973
      ],
      [
        "pi",
        -8.385217666625977
      ],
      [
        "▁fa",
        -8.38652515411377
      ],
      [
        "tor",
        -8.38825511932373
      ],
      [
        "ber",
        -8.39227294921875
      ],
      [
        "▁>",
        -8.395159721374512
      ],
      [
        "▁ה",
        -8.398884773254395
      ],
      [
        "▁X",
        -8.40002155303955
      ],
      [
        "▁En",
        -8.402555465698242
      ],
      [
        "ú",
        -8.406235694885254
      ],
      [
        "dan",
        -8.413158416748047
      ],
      [
        "fi",
        -8.416403770446777
      ],
      [
        "▁að",
        -8.416876792907715
      ],
      [
        "ine",
        -8.41783618927002
      ],
      [
        "ę",
        -8.41923713684082
      ],
      [
        "▁met",
        -8.419758796691895
      ],
      [
        "▁ca",
        -8.419832229614258
      ],
      [
        "ita",
        -8.420282363891602
      ],
      [
        "▁ال",
        -8.42509651184082
      ],
      [
        "но",
        -8.426426887512207
      ],
      [
        "га",
        -8.426974296569824
      ],
      [
        "tur",
        -8.427899360656738
      ],
      [
        "+",
        -8.429055213928223
      ],
      [
        "ren",
        -8.431052207946777
      ],
      [
        "ă",
        -8.432967185974121
      ],
      [
        "ll",
        -8.433320999145508
      ],
      [
        "▁mi",
        -8.438611030578613
      ],
      [
        "ي",
        -8.43896770477295
      ],
      [
        "г",
        -8.439468383789062
      ],
      [
        "ի",
        -8.440510749816895
      ],
      [
        "ة",
        -8.440679550170898
      ],
      [
        "ers",
        -8.441336631774902
      ],
      [
        "▁2016",
        -8.441544532775879
      ],
      [
        "▁El",
        -8.444607734680176
      ],
      [
        "▁pri",
        -8.446048736572266
      ],
      [
        "▁ho",
        -8.446097373962402
      ],
      [
        "▁م",
        -8.448330879211426
      ],
      [
        "▁und",
        -8.450417518615723
      ],
      [
        "ken",
        -8.451162338256836
      ],
      [
        "▁...",
        -8.454631805419922
      ],
      [
        "▁à",
        -8.45593547821045
      ],
      [
        "né",
        -8.460177421569824
      ],
      [
        "▁bir",
        -8.46082592010498
      ],
      [
        "nu",
        -8.461288452148438
      ],
      [
        "▁n",
        -8.463214874267578
      ],
      [
        "ker",
        -8.463912010192871
      ],
      [
        "▁да",
        -8.465409278869629
      ],
      [
        "▁ob",
        -8.469569206237793
      ],
      [
        "▁man",
        -8.471552848815918
      ],
      [
        "ts",
        -8.473468780517578
      ],
      [
        "tar",
        -8.474063873291016
      ],
      [
        "▁í",
        -8.476709365844727
      ],
      [
        "▁Ta",
        -8.480019569396973
      ],
      [
        "▁Li",
        -8.482421875
      ],
      [
        "▁with",
        -8.482918739318848
      ],
      [
        "per",
        -8.48312759399414
      ],
      [
        "ní",
        -8.484265327453613
      ],
      [
        "▁nga",
        -8.485530853271484
      ],
      [
        "ç",
        -8.486222267150879
      ],
      [
        "о",
        -8.486526489257812
      ],
      [
        "ų",
        -8.487507820129395
      ],
      [
        "ч",
        -8.492769241333008
      ],
      [
        "ger",
        -8.492816925048828
      ],
      [
        "est",
        -8.49619197845459
      ],
      [
        "▁30",
        -8.496923446655273
      ],
      [
        "▁una",
        -8.499532699584961
      ],
      [
        "ana",
        -8.501676559448242
      ],
      [
        "sh",
        -8.508919715881348
      ],
      [
        "▁kon",
        -8.511796951293945
      ],
      [
        "io",
        -8.513951301574707
      ],
      [
        "10",
        -8.51618480682373
      ],
      [
        "ли",
        -8.520411491394043
      ],
      [
        "ла",
        -8.523053169250488
      ],
      [
        "ach",
        -8.523189544677734
      ],
      [
        "▁fi",
        -8.52518081665039
      ],
      [
        "wi",
        -8.527108192443848
      ],
      [
        "▁Ha",
        -8.52818775177002
      ],
      [
        "ung",
        -8.529011726379395
      ],
      [
        "ë",
        -8.529844284057617
      ],
      [
        "ation",
        -8.530558586120605
      ],
      [
        "U",
        -8.534590721130371
      ],
      [
        "▁dhe",
        -8.534744262695312
      ],
      [
        "▁Ko",
        -8.534807205200195
      ],
      [
        "▁An",
        -8.536460876464844
      ],
      [
        "ş",
        -8.538447380065918
      ],
      [
        "▁att",
        -8.541166305541992
      ],
      [
        "▁em",
        -8.54311466217041
      ],
      [
        "nie",
        -8.54732608795166
      ],
      [
        "▁'",
        -8.548314094543457
      ],
      [
        "в",
        -8.55033016204834
      ],
      [
        "▁Pa",
        -8.550642013549805
      ],
      [
        "▁ter",
        -8.550816535949707
      ],
      [
        "han",
        -8.553071975708008
      ],
      [
        "ə",
        -8.554081916809082
      ],
      [
        "ks",
        -8.555508613586426
      ],
      [
        "ari",
        -8.556992530822754
      ],
      [
        "▁you",
        -8.558099746704102
      ],
      [
        "▁21",
        -8.559581756591797
      ],
      [
        "ini",
        -8.565714836120605
      ],
      [
        "▁د",
        -8.568676948547363
      ],
      [
        "▁Ar",
        -8.570159912109375
      ],
      [
        "▁or",
        -8.570642471313477
      ],
      [
        "are",
        -8.57210922241211
      ],
      [
        "م",
        -8.572443008422852
      ],
      [
        "val",
        -8.57392406463623
      ],
      [
        "tion",
        -8.576245307922363
      ],
      [
        "▁é",
        -8.581972122192383
      ],
      [
        "ī",
        -8.585380554199219
      ],
      [
        "sk",
        -8.585395812988281
      ],
      [
        "uk",
        -8.586909294128418
      ],
      [
        "▁Co",
        -8.588035583496094
      ],
      [
        "▁ay",
        -8.589859008789062
      ],
      [
        "ran",
        -8.591512680053711
      ],
      [
        "ou",
        -8.592048645019531
      ],
      [
        "que",
        -8.593507766723633
      ],
      [
        "ات",
        -8.595049858093262
      ],
      [
        "19",
        -8.60299301147461
      ],
      [
        "min",
        -8.603358268737793
      ],
      [
        "ej",
        -8.605072021484375
      ],
      [
        "ж",
        -8.605076789855957
      ],
      [
        "nt",
        -8.606036186218262
      ],
      [
        "▁Mo",
        -8.609457015991211
      ],
      [
        "▁nu",
        -8.615360260009766
      ],
      [
        "▁Per",
        -8.615532875061035
      ],
      [
        "▁iz",
        -8.616142272949219
      ],
      [
        "ah",
        -8.616293907165527
      ],
      [
        "▁jo",
        -8.616643905639648
      ],
      [
        "▁22",
        -8.618223190307617
      ],
      [
        "ن",
        -8.619462013244629
      ],
      [
        "ہ",
        -8.620725631713867
      ],
      [
        "▁Ro",
        -8.624537467956543
      ],
      [
        "ton",
        -8.625890731811523
      ],
      [
        "▁Ne",
        -8.627666473388672
      ],
      [
        "ant",
        -8.628744125366211
      ],
      [
        "ا",
        -8.629507064819336
      ],
      [
        "▁Bo",
        -8.630738258361816
      ],
      [
        "▁24",
        -8.632109642028809
      ],
      [
        "ти",
        -8.633062362670898
      ],
      [
        "▁he",
        -8.63428783416748
      ],
      [
        "kin",
        -8.636366844177246
      ],
      [
        "б",
        -8.638372421264648
      ],
      [
        "▁din",
        -8.643071174621582
      ],
      [
        "не",
        -8.644145965576172
      ],
      [
        "▁nie",
        -8.647200584411621
      ],
      [
        "▁Y",
        -8.64769458770752
      ],
      [
        "▁sem",
        -8.648513793945312
      ],
      [
        "ben",
        -8.648600578308105
      ],
      [
        "sti",
        -8.6497220993042
      ],
      [
        "&",
        -8.650252342224121
      ],
      [
        "▁Mar",
        -8.651179313659668
      ],
      [
        "yo",
        -8.65195369720459
      ],
      [
        "ye",
        -8.653467178344727
      ],
      [
        "ska",
        -8.65360164642334
      ],
      [
        "su",
        -8.653688430786133
      ],
      [
        "▁Da",
        -8.657502174377441
      ],
      [
        ">",
        -8.658039093017578
      ],
      [
        "п",
        -8.658125877380371
      ],
      [
        "î",
        -8.659965515136719
      ],
      [
        "▁Ge",
        -8.661458969116211
      ],
      [
        "▁Ba",
        -8.665630340576172
      ],
      [
        "▁25",
        -8.667562484741211
      ],
      [
        "dy",
        -8.668070793151855
      ],
      [
        "▁се",
        -8.668428421020508
      ],
      [
        "▁ב",
        -8.669017791748047
      ],
      [
        "ð",
        -8.670496940612793
      ],
      [
        "ն",
        -8.671798706054688
      ],
      [
        "ت",
        -8.67253303527832
      ],
      [
        "15",
        -8.67259407043457
      ],
      [
        "ele",
        -8.673308372497559
      ],
      [
        "▁can",
        -8.674713134765625
      ],
      [
        "▁Do",
        -8.675814628601074
      ],
      [
        "www",
        -8.676024436950684
      ],
      [
        "▁az",
        -8.67604923248291
      ],
      [
        "à",
        -8.679474830627441
      ],
      [
        "▁С",
        -8.679479598999023
      ],
      [
        "sen",
        -8.67975902557373
      ],
      [
        "Q",
        -8.681100845336914
      ],
      [
        "ent",
        -8.682320594787598
      ],
      [
        "▁Si",
        -8.688104629516602
      ],
      [
        "au",
        -8.690141677856445
      ],
      [
        "let",
        -8.69045639038086
      ],
      [
        "▁2015",
        -8.692255020141602
      ],
      [
        "gar",
        -8.6967134475708
      ],
      [
        "res",
        -8.700430870056152
      ],
      [
        "‘",
        -8.700433731079102
      ],
      [
        "▁+",
        -8.700658798217773
      ],
      [
        "che",
        -8.703290939331055
      ],
      [
        "ite",
        -8.707011222839355
      ],
      [
        "▁lu",
        -8.707796096801758
      ],
      [
        "▁che",
        -8.709798812866211
      ],
      [
        "ва",
        -8.71179485321045
      ],
      [
        "cu",
        -8.712674140930176
      ],
      [
        "mas",
        -8.713191032409668
      ],
      [
        "ы",
        -8.715006828308105
      ],
      [
        "18",
        -8.718201637268066
      ],
      [
        "17",
        -8.71959114074707
      ],
      [
        "è",
        -8.720598220825195
      ],
      [
        "▁för",
        -8.72070598602295
      ],
      [
        "▁2020",
        -8.721376419067383
      ],
      [
        "▁pi",
        -8.722865104675293
      ],
      [
        "gan",
        -8.72415542602539
      ],
      [
        "fe",
        -8.726236343383789
      ],
      [
        "tel",
        -8.727112770080566
      ],
      [
        "▁voor",
        -8.72736930847168
      ],
      [
        "cha",
        -8.727895736694336
      ],
      [
        "by",
        -8.72919750213623
      ],
      [
        "tt",
        -8.729940414428711
      ],
      [
        "▁מ",
        -8.731356620788574
      ],
      [
        "ist",
        -8.731529235839844
      ],
      [
        "▁ri",
        -8.731793403625488
      ],
      [
        "▁és",
        -8.73179817199707
      ],
      [
        "▁‘",
        -8.7344331741333
      ],
      [
        "ab",
        -8.736532211303711
      ],
      [
        "▁Me",
        -8.737646102905273
      ],
      [
        "▁am",
        -8.738160133361816
      ],
      [
        "ez",
        -8.739104270935059
      ],
      [
        "▁ga",
        -8.739126205444336
      ],
      [
        "č",
        -8.740996360778809
      ],
      [
        "ili",
        -8.742547035217285
      ],
      [
        "▁lo",
        -8.743451118469238
      ],
      [
        "tal",
        -8.743814468383789
      ],
      [
        "land",
        -8.744623184204102
      ],
      [
        "ado",
        -8.744664192199707
      ],
      [
        "▁Ja",
        -8.744878768920898
      ],
      [
        "asi",
        -8.744977951049805
      ],
      [
        "tan",
        -8.745686531066895
      ],
      [
        "▁km",
        -8.745926856994629
      ],
      [
        "▁Bu",
        -8.746755599975586
      ],
      [
        "tas",
        -8.746822357177734
      ],
      [
        "ban",
        -8.748223304748535
      ],
      [
        "tre",
        -8.748939514160156
      ],
      [
        "tes",
        -8.751218795776367
      ],
      [
        "ма",
        -8.752029418945312
      ],
      [
        "▁کے",
        -8.756941795349121
      ],
      [
        "▁tak",
        -8.7576265335083
      ],
      [
        "▁•",
        -8.759760856628418
      ],
      [
        "د",
        -8.759875297546387
      ],
      [
        "▁tra",
        -8.761582374572754
      ],
      [
        "án",
        -8.76268196105957
      ],
      [
        "▁Te",
        -8.763574600219727
      ],
      [
        "chi",
        -8.763757705688477
      ],
      [
        "▁we",
        -8.764497756958008
      ],
      [
        "30",
        -8.772250175476074
      ],
      [
        "।",
        -8.772905349731445
      ],
      [
        "▁mga",
        -8.774791717529297
      ],
      [
        "mer",
        -8.777236938476562
      ],
      [
        "▁vy",
        -8.779525756835938
      ],
      [
        "12",
        -8.78079605102539
      ],
      [
        "isi",
        -8.781460762023926
      ],
      [
        "lle",
        -8.782827377319336
      ],
      [
        "20",
        -8.782934188842773
      ],
      [
        "ic",
        -8.785694122314453
      ],
      [
        "nd",
        -8.786229133605957
      ],
      [
        "era",
        -8.788565635681152
      ],
      [
        "▁не",
        -8.789913177490234
      ],
      [
        "▁Ver",
        -8.790085792541504
      ],
      [
        "ди",
        -8.792061805725098
      ],
      [
        "å",
        -8.792072296142578
      ],
      [
        "ali",
        -8.793896675109863
      ],
      [
        "16",
        -8.795648574829102
      ],
      [
        "▁з",
        -8.796809196472168
      ],
      [
        "▁os",
        -8.796882629394531
      ],
      [
        "len",
        -8.798263549804688
      ],
      [
        "ser",
        -8.798678398132324
      ],
      [
        "▁that",
        -8.802987098693848
      ],
      [
        "▁Su",
        -8.806059837341309
      ],
      [
        "mar",
        -8.806585311889648
      ],
      [
        "і",
        -8.808754920959473
      ],
      [
        "od",
        -8.808929443359375
      ],
      [
        "▁untuk",
        -8.809013366699219
      ],
      [
        "bar",
        -8.8104248046875
      ],
      [
        "▁ب",
        -8.811918258666992
      ],
      [
        "▁was",
        -8.811949729919434
      ],
      [
        "و",
        -8.814007759094238
      ],
      [
        "▁ce",
        -8.81645679473877
      ],
      [
        "net",
        -8.816673278808594
      ],
      [
        "▁Je",
        -8.81767463684082
      ],
      [
        "▁ini",
        -8.820006370544434
      ],
      [
        "ting",
        -8.821062088012695
      ],
      [
        "▁2014",
        -8.82182502746582
      ],
      [
        "▁dengan",
        -8.822868347167969
      ],
      [
        "▁Con",
        -8.823277473449707
      ],
      [
        "▁Pro",
        -8.823321342468262
      ],
      [
        "up",
        -8.823996543884277
      ],
      [
        "tik",
        -8.824036598205566
      ],
      [
        "kar",
        -8.824297904968262
      ],
      [
        "▁23",
        -8.825532913208008
      ],
      [
        "ere",
        -8.828556060791016
      ],
      [
        "▁în",
        -8.830381393432617
      ],
      [
        "les",
        -8.831259727478027
      ],
      [
        "aj",
        -8.831727027893066
      ],
      [
        "▁ro",
        -8.833039283752441
      ],
      [
        "▁Ke",
        -8.833165168762207
      ],
      [
        "ю",
        -8.834012031555176
      ],
      [
        "▁Pe",
        -8.834707260131836
      ],
      [
        "zu",
        -8.836716651916504
      ],
      [
        "ami",
        -8.836892127990723
      ],
      [
        "rá",
        -8.838976860046387
      ],
      [
        "ر",
        -8.841585159301758
      ],
      [
        "ika",
        -8.841707229614258
      ],
      [
        "▁So",
        -8.842453002929688
      ],
      [
        "des",
        -8.843313217163086
      ],
      [
        "ile",
        -8.848645210266113
      ],
      [
        "kon",
        -8.85017204284668
      ],
      [
        "ner",
        -8.851194381713867
      ],
      [
        "μ",
        -8.851733207702637
      ],
      [
        "tro",
        -8.852278709411621
      ],
      [
        "ción",
        -8.858640670776367
      ],
      [
        "ل",
        -8.860353469848633
      ],
      [
        "ron",
        -8.86042308807373
      ],
      [
        "▁are",
        -8.860479354858398
      ],
      [
        "ida",
        -8.860818862915039
      ],
      [
        "▁ser",
        -8.861637115478516
      ],
      [
        "son",
        -8.86269760131836
      ],
      [
        "ý",
        -8.865169525146484
      ],
      [
        "▁pas",
        -8.866687774658203
      ],
      [
        "▁hi",
        -8.866928100585938
      ],
      [
        "ap",
        -8.871101379394531
      ],
      [
        "▁r",
        -8.871658325195312
      ],
      [
        "dir",
        -8.871895790100098
      ],
      [
        "те",
        -8.871903419494629
      ],
      [
        "α",
        -8.872268676757812
      ],
      [
        "▁در",
        -8.873050689697266
      ],
      [
        "%",
        -8.874152183532715
      ],
      [
        "ster",
        -8.874303817749023
      ],
      [
        "ال",
        -8.874876976013184
      ],
      [
        "mp",
        -8.87547492980957
      ],
      [
        "ft",
        -8.875968933105469
      ],
      [
        "ко",
        -8.877029418945312
      ],
      [
        "14",
        -8.879164695739746
      ],
      [
        "▁min",
        -8.87998104095459
      ],
      [
        "س",
        -8.884353637695312
      ],
      [
        "न",
        -8.884404182434082
      ],
      [
        "▁ap",
        -8.884477615356445
      ],
      [
        "▁im",
        -8.884586334228516
      ],
      [
        "▁ju",
        -8.88479995727539
      ],
      [
        "ria",
        -8.88634204864502
      ],
      [
        "▁2013",
        -8.888679504394531
      ],
      [
        "▁her",
        -8.888712882995605
      ],
      [
        "▁کی",
        -8.888945579528809
      ],
      [
        "▁Ku",
        -8.888982772827148
      ],
      [
        "op",
        -8.889361381530762
      ],
      [
        "▁mai",
        -8.889747619628906
      ],
      [
        "eg",
        -8.890695571899414
      ],
      [
        "ista",
        -8.893265724182129
      ],
      [
        "ки",
        -8.893778800964355
      ],
      [
        "ál",
        -8.893794059753418
      ],
      [
        "las",
        -8.894115447998047
      ],
      [
        "lla",
        -8.895147323608398
      ],
      [
        "▁Ho",
        -8.89553451538086
      ],
      [
        "mm",
        -8.897051811218262
      ],
      [
        "ло",
        -8.897053718566895
      ],
      [
        "▁kwa",
        -8.897741317749023
      ],
      [
        "▁Ra",
        -8.899101257324219
      ],
      [
        "ра",
        -8.900422096252441
      ],
      [
        "ع",
        -8.904139518737793
      ],
      [
        "del",
        -8.906418800354004
      ],
      [
        "ը",
        -8.906678199768066
      ],
      [
        "▁Man",
        -8.908231735229492
      ],
      [
        "то",
        -8.90843677520752
      ],
      [
        "vu",
        -8.908698081970215
      ],
      [
        "11",
        -8.91111946105957
      ],
      [
        "uar",
        -8.912335395812988
      ],
      [
        "▁mit",
        -8.912614822387695
      ],
      [
        "▁pu",
        -8.915324211120605
      ],
      [
        "25",
        -8.915489196777344
      ],
      [
        "▁και",
        -8.91955280303955
      ],
      [
        "▁է",
        -8.921440124511719
      ],
      [
        "▁http",
        -8.921815872192383
      ],
      [
        "ion",
        -8.923773765563965
      ],
      [
        "▁är",
        -8.925050735473633
      ],
      [
        "ğ",
        -8.925518035888672
      ],
      [
        "▁ti",
        -8.926933288574219
      ],
      [
        "ara",
        -8.928203582763672
      ],
      [
        "▁ch",
        -8.929352760314941
      ],
      [
        "▁о",
        -8.929986000061035
      ],
      [
        "ag",
        -8.930490493774414
      ],
      [
        "▁со",
        -8.930785179138184
      ],
      [
        "13",
        -8.930789947509766
      ],
      [
        "▁Mi",
        -8.930830955505371
      ],
      [
        "С",
        -8.932124137878418
      ],
      [
        "lin",
        -8.932207107543945
      ],
      [
        "▁Bar",
        -8.932587623596191
      ],
      [
        "sz",
        -8.932771682739258
      ],
      [
        "▁2012",
        -8.936037063598633
      ],
      [
        "▁Home",
        -8.936529159545898
      ],
      [
        "aren",
        -8.93666934967041
      ],
      [
        "ні",
        -8.938111305236816
      ],
      [
        "ale",
        -8.9383544921875
      ],
      [
        "van",
        -8.9408597946167
      ],
      [
        "▁go",
        -8.942778587341309
      ],
      [
        "▁Du",
        -8.943562507629395
      ],
      [
        "ala",
        -8.94372844696045
      ],
      [
        "õ",
        -8.94675064086914
      ],
      [
        "▁pod",
        -8.947037696838379
      ],
      [
        "ية",
        -8.949551582336426
      ],
      [
        "▁الم",
        -8.952461242675781
      ],
      [
        "▁Mu",
        -8.953145980834961
      ],
      [
        "▁Wa",
        -8.954617500305176
      ],
      [
        "sel",
        -8.954754829406738
      ],
      [
        "от",
        -8.955371856689453
      ],
      [
        "ле",
        -8.956015586853027
      ],
      [
        "▁Er",
        -8.956598281860352
      ],
      [
        "▁Jo",
        -8.956865310668945
      ],
      [
        "ate",
        -8.958643913269043
      ],
      [
        "▁Za",
        -8.958876609802246
      ],
      [
        "ı",
        -8.961142539978027
      ],
      [
        "▁ל",
        -8.96320629119873
      ],
      [
        "ling",
        -8.968209266662598
      ],
      [
        "一",
        -8.969645500183105
      ],
      [
        "cz",
        -8.970741271972656
      ],
      [
        "org",
        -8.970805168151855
      ],
      [
        "▁во",
        -8.971232414245605
      ],
      [
        "▁до",
        -8.971263885498047
      ],
      [
        "ب",
        -8.971772193908691
      ],
      [
        "▁—",
        -8.972628593444824
      ],
      [
        "ib",
        -8.975306510925293
      ],
      [
        "▁over",
        -8.97674560546875
      ],
      [
        "▁Lo",
        -8.98027515411377
      ],
      [
        "az",
        -8.982388496398926
      ],
      [
        "lt",
        -8.983433723449707
      ],
      [
        "ર",
        -8.98381519317627
      ],
      [
        "▁aan",
        -8.984309196472168
      ],
      [
        "50",
        -8.984844207763672
      ],
      [
        "nes",
        -8.985044479370117
      ],
      [
        "▁А",
        -8.985236167907715
      ],
      [
        "sch",
        -8.98559856414795
      ],
      [
        "▁au",
        -8.986156463623047
      ],
      [
        "▁та",
        -8.986570358276367
      ],
      [
        "▁all",
        -8.987013816833496
      ],
      [
        "▁və",
        -8.989086151123047
      ],
      [
        "ske",
        -8.989968299865723
      ],
      [
        "▁من",
        -8.990167617797852
      ],
      [
        "র",
        -8.990753173828125
      ],
      [
        "af",
        -8.991599082946777
      ],
      [
        "▁amb",
        -8.994604110717773
      ],
      [
        "ում",
        -8.9954833984375
      ],
      [
        "▁Ni",
        -8.99763298034668
      ],
      [
        "ন",
        -8.998785972595215
      ],
      [
        "ná",
        -8.999805450439453
      ],
      [
        "ż",
        -9.001193046569824
      ],
      [
        "ları",
        -9.00367546081543
      ],
      [
        "ih",
        -9.004544258117676
      ],
      [
        "con",
        -9.005021095275879
      ],
      [
        "san",
        -9.009085655212402
      ],
      [
        "▁100",
        -9.009933471679688
      ],
      [
        "tin",
        -9.011170387268066
      ],
      [
        "ndo",
        -9.013249397277832
      ],
      [
        "▁Ri",
        -9.014578819274902
      ],
      [
        "▁sur",
        -9.014768600463867
      ],
      [
        "jen",
        -9.016134262084961
      ],
      [
        "▁fra",
        -9.019726753234863
      ],
      [
        "】【",
        -9.01993179321289
      ],
      [
        "ski",
        -9.022294998168945
      ],
      [
        "ку",
        -9.023763656616211
      ],
      [
        "ata",
        -9.02492618560791
      ],
      [
        "lig",
        -9.026354789733887
      ],
      [
        "Р",
        -9.026467323303223
      ],
      [
        "kt",
        -9.028091430664062
      ],
      [
        "uri",
        -9.028436660766602
      ],
      [
        "09",
        -9.028583526611328
      ],
      [
        "vis",
        -9.029046058654785
      ],
      [
        "cia",
        -9.030241966247559
      ],
      [
        "00",
        -9.03024959564209
      ],
      [
        "▁од",
        -9.030341148376465
      ],
      [
        "ong",
        -9.030426979064941
      ],
      [
        "ь",
        -9.0313081741333
      ],
      [
        "▁50",
        -9.03154468536377
      ],
      [
        "▁dat",
        -9.03276538848877
      ],
      [
        "▁mar",
        -9.032835960388184
      ],
      [
        "ici",
        -9.033583641052246
      ],
      [
        "▁oo",
        -9.034016609191895
      ],
      [
        "▁ت",
        -9.035301208496094
      ],
      [
        "ē",
        -9.035688400268555
      ],
      [
        "▁Car",
        -9.035865783691406
      ],
      [
        "dar",
        -9.03684139251709
      ],
      [
        "vin",
        -9.037054061889648
      ],
      [
        "ò",
        -9.038093566894531
      ],
      [
        "lı",
        -9.0381441116333
      ],
      [
        "▁online",
        -9.040315628051758
      ],
      [
        "▁Hotel",
        -9.041769981384277
      ],
      [
        "▁ze",
        -9.042619705200195
      ],
      [
        "ή",
        -9.04646110534668
      ],
      [
        "▁ci",
        -9.047715187072754
      ],
      [
        "nda",
        -9.04842472076416
      ],
      [
        "wo",
        -9.048503875732422
      ],
      [
        "▁ru",
        -9.050588607788086
      ],
      [
        "ри",
        -9.052367210388184
      ],
      [
        "ac",
        -9.052902221679688
      ],
      [
        "24",
        -9.053156852722168
      ],
      [
        "ה",
        -9.055465698242188
      ],
      [
        "▁your",
        -9.055891990661621
      ],
      [
        "ů",
        -9.056015968322754
      ],
      [
        "▁ny",
        -9.056879043579102
      ],
      [
        "ın",
        -9.058211326599121
      ],
      [
        "gy",
        -9.058236122131348
      ],
      [
        "ér",
        -9.058956146240234
      ],
      [
        "pen",
        -9.062115669250488
      ],
      [
        "ire",
        -9.06297779083252
      ],
      [
        "▁Bi",
        -9.064363479614258
      ],
      [
        "ان",
        -9.064805030822754
      ],
      [
        "▁from",
        -9.065452575683594
      ],
      [
        "ira",
        -9.066463470458984
      ],
      [
        "nar",
        -9.066862106323242
      ],
      [
        "▁به",
        -9.068330764770508
      ],
      [
        "▁са",
        -9.06889820098877
      ],
      [
        "end",
        -9.0697603225708
      ],
      [
        "fo",
        -9.071273803710938
      ],
      [
        "▁28",
        -9.07136344909668
      ],
      [
        "27",
        -9.071582794189453
      ],
      [
        "人",
        -9.071640968322754
      ],
      [
        "▁Tu",
        -9.07319450378418
      ],
      [
        "▁For",
        -9.076199531555176
      ],
      [
        "ο",
        -9.076753616333008
      ],
      [
        "大",
        -9.076798439025879
      ],
      [
        "nia",
        -9.077864646911621
      ],
      [
        "lat",
        -9.078214645385742
      ],
      [
        "able",
        -9.078417778015137
      ],
      [
        "ش",
        -9.080584526062012
      ],
      [
        "▁26",
        -9.08062744140625
      ],
      [
        "mos",
        -9.080950736999512
      ],
      [
        "ff",
        -9.081552505493164
      ],
      [
        "▁å",
        -9.081623077392578
      ],
      [
        "pan",
        -9.083115577697754
      ],
      [
        "이",
        -9.083352088928223
      ],
      [
        "▁gi",
        -9.083979606628418
      ],
      [
        "21",
        -9.088278770446777
      ],
      [
        "bra",
        -9.088900566101074
      ],
      [
        "▁Ki",
        -9.089238166809082
      ],
      [
        "▁mas",
        -9.090764999389648
      ],
      [
        "▁في",
        -9.091165542602539
      ],
      [
        "▁27",
        -9.091323852539062
      ],
      [
        "▁që",
        -9.091442108154297
      ],
      [
        "▁1.",
        -9.091825485229492
      ],
      [
        "ے",
        -9.093437194824219
      ],
      [
        "leri",
        -9.093887329101562
      ],
      [
        "▁ا",
        -9.095134735107422
      ],
      [
        "ار",
        -9.095354080200195
      ],
      [
        "▁میں",
        -9.095532417297363
      ],
      [
        "ल",
        -9.096942901611328
      ],
      [
        "▁it",
        -9.100237846374512
      ],
      [
        "ς",
        -9.101110458374023
      ],
      [
        "▁Fa",
        -9.101509094238281
      ],
      [
        "▁zu",
        -9.101737976074219
      ],
      [
        "ль",
        -9.101773262023926
      ],
      [
        "лі",
        -9.103832244873047
      ],
      [
        "ais",
        -9.103935241699219
      ],
      [
        "nde",
        -9.105020523071289
      ],
      [
        "▁ل",
        -9.10510540008545
      ],
      [
        "▁los",
        -9.105493545532227
      ],
      [
        "▁ji",
        -9.106441497802734
      ],
      [
        "▁pag",
        -9.107178688049316
      ],
      [
        "lah",
        -9.109478950500488
      ],
      [
        "ati",
        -9.109545707702637
      ],
      [
        "▁$",
        -9.11004638671875
      ],
      [
        "xi",
        -9.110190391540527
      ],
      [
        "▁ut",
        -9.110522270202637
      ],
      [
        "ep",
        -9.111442565917969
      ],
      [
        "▁Ti",
        -9.11304759979248
      ],
      [
        "ende",
        -9.11345100402832
      ],
      [
        "fer",
        -9.116805076599121
      ],
      [
        "▁tr",
        -9.11774730682373
      ],
      [
        "▁от",
        -9.118064880371094
      ],
      [
        "ure",
        -9.119897842407227
      ],
      [
        "▁ein",
        -9.119964599609375
      ],
      [
        "ü",
        -9.12136173248291
      ],
      [
        "ila",
        -9.121408462524414
      ],
      [
        "pu",
        -9.121940612792969
      ],
      [
        "ec",
        -9.123360633850098
      ],
      [
        "▁а",
        -9.123677253723145
      ],
      [
        "vel",
        -9.124030113220215
      ],
      [
        "▁He",
        -9.126359939575195
      ],
      [
        "uje",
        -9.127182006835938
      ],
      [
        "の",
        -9.12808609008789
      ],
      [
        "met",
        -9.129693984985352
      ],
      [
        "лар",
        -9.13311767578125
      ],
      [
        "gel",
        -9.133688926696777
      ],
      [
        "▁një",
        -9.133696556091309
      ],
      [
        "rik",
        -9.13558292388916
      ],
      [
        "ро",
        -9.139778137207031
      ],
      [
        "æ",
        -9.139908790588379
      ],
      [
        "nik",
        -9.14087200164795
      ],
      [
        "ά",
        -9.14133071899414
      ],
      [
        "ura",
        -9.141501426696777
      ],
      [
        "▁Men",
        -9.141523361206055
      ],
      [
        "▁We",
        -9.141683578491211
      ],
      [
        "mes",
        -9.14201831817627
      ],
      [
        "23",
        -9.142029762268066
      ],
      [
        "una",
        -9.14214038848877
      ],
      [
        "▁dos",
        -9.14238166809082
      ],
      [
        "29",
        -9.143811225891113
      ],
      [
        "▁uz",
        -9.14411735534668
      ],
      [
        "kom",
        -9.144170761108398
      ],
      [
        "▁2011",
        -9.145322799682617
      ],
      [
        "▁så",
        -9.145431518554688
      ],
      [
        "▁Un",
        -9.147380828857422
      ],
      [
        "iti",
        -9.148728370666504
      ],
      [
        "07",
        -9.149148941040039
      ],
      [
        "ј",
        -9.149311065673828
      ],
      [
        "▁е",
        -9.149858474731445
      ],
      [
        "чи",
        -9.151744842529297
      ],
      [
        "र",
        -9.152470588684082
      ],
      [
        "tä",
        -9.153234481811523
      ],
      [
        "for",
        -9.154128074645996
      ],
      [
        "▁fe",
        -9.154623985290527
      ],
      [
        "ob",
        -9.154692649841309
      ],
      [
        "26",
        -9.15517807006836
      ],
      [
        "22",
        -9.158244132995605
      ],
      [
        "br",
        -9.158441543579102
      ],
      [
        "ў",
        -9.158787727355957
      ],
      [
        "▁vo",
        -9.159269332885742
      ],
      [
        "ona",
        -9.159725189208984
      ],
      [
        "▁09",
        -9.159765243530273
      ],
      [
        "▁Die",
        -9.160564422607422
      ],
      [
        "▁von",
        -9.160862922668457
      ],
      [
        "ið",
        -9.161699295043945
      ],
      [
        "ino",
        -9.16270923614502
      ],
      [
        "▁pra",
        -9.164825439453125
      ],
      [
        "ón",
        -9.1652193069458
      ],
      [
        "ви",
        -9.165740013122559
      ],
      [
        "▁till",
        -9.16716480255127
      ],
      [
        "▁pie",
        -9.167596817016602
      ],
      [
        "▁ad",
        -9.1694917678833
      ],
      [
        "▁Go",
        -9.17155647277832
      ],
      [
        "▁О",
        -9.172121047973633
      ],
      [
        "lang",
        -9.173657417297363
      ],
      [
        "▁29",
        -9.17408275604248
      ],
      [
        "▁ei",
        -9.174686431884766
      ],
      [
        "ق",
        -9.17491340637207
      ],
      [
        "▁ن",
        -9.175346374511719
      ],
      [
        "fu",
        -9.176079750061035
      ],
      [
        "ν",
        -9.177313804626465
      ],
      [
        "▁post",
        -9.17849063873291
      ],
      [
        "par",
        -9.181290626525879
      ],
      [
        "ně",
        -9.181624412536621
      ],
      [
        "▁este",
        -9.182612419128418
      ],
      [
        "▁08",
        -9.183947563171387
      ],
      [
        "28",
        -9.185158729553223
      ],
      [
        "iga",
        -9.185283660888672
      ],
      [
        "▁sp",
        -9.185455322265625
      ],
      [
        "น",
        -9.185772895812988
      ],
      [
        "har",
        -9.186488151550293
      ],
      [
        "ô",
        -9.189499855041504
      ],
      [
        "▁my",
        -9.189539909362793
      ],
      [
        "ný",
        -9.190215110778809
      ],
      [
        "imi",
        -9.192370414733887
      ],
      [
        "▁das",
        -9.194999694824219
      ],
      [
        "▁Pre",
        -9.195008277893066
      ],
      [
        "▁У",
        -9.195588111877441
      ],
      [
        "bre",
        -9.196306228637695
      ],
      [
        "ру",
        -9.19657039642334
      ],
      [
        "ő",
        -9.197433471679688
      ],
      [
        "bor",
        -9.1975736618042
      ],
      [
        "▁kar",
        -9.197610855102539
      ],
      [
        "ст",
        -9.19764518737793
      ],
      [
        "▁Ca",
        -9.197949409484863
      ],
      [
        "qui",
        -9.198302268981934
      ],
      [
        "rat",
        -9.198999404907227
      ],
      [
        "▁ou",
        -9.199776649475098
      ],
      [
        "nin",
        -9.200130462646484
      ],
      [
        "де",
        -9.20060920715332
      ],
      [
        "▁Ber",
        -9.20141887664795
      ],
      [
        "▁St",
        -9.201529502868652
      ],
      [
        "ão",
        -9.201601028442383
      ],
      [
        "▁this",
        -9.201761245727539
      ],
      [
        "▁pen",
        -9.202279090881348
      ],
      [
        "▁Ve",
        -9.202396392822266
      ],
      [
        "ay",
        -9.20361614227295
      ],
      [
        "▁že",
        -9.20374584197998
      ],
      [
        "yan",
        -9.203895568847656
      ],
      [
        "ен",
        -9.206613540649414
      ],
      [
        "05",
        -9.207799911499023
      ],
      [
        "▁про",
        -9.208099365234375
      ],
      [
        "ise",
        -9.208694458007812
      ],
      [
        "ին",
        -9.209085464477539
      ],
      [
        "ex",
        -9.209654808044434
      ],
      [
        "cy",
        -9.211034774780273
      ],
      [
        ":00",
        -9.211065292358398
      ],
      [
        "ast",
        -9.211071014404297
      ],
      [
        "ი",
        -9.211518287658691
      ],
      [
        "ub",
        -9.211593627929688
      ],
      [
        "▁Lu",
        -9.212325096130371
      ],
      [
        "在",
        -9.212379455566406
      ],
      [
        "▁<",
        -9.212491989135742
      ],
      [
        "不",
        -9.212883949279785
      ],
      [
        "▁%",
        -9.214302062988281
      ],
      [
        "pro",
        -9.21453857421875
      ],
      [
        "Ma",
        -9.215516090393066
      ],
      [
        "iya",
        -9.217326164245605
      ],
      [
        "ian",
        -9.217979431152344
      ],
      [
        "▁th",
        -9.218022346496582
      ],
      [
        "my",
        -9.219687461853027
      ],
      [
        "▁dari",
        -9.221708297729492
      ],
      [
        "त",
        -9.223236083984375
      ],
      [
        "hr",
        -9.22341537475586
      ],
      [
        "▁mat",
        -9.224729537963867
      ],
      [
        "shi",
        -9.225340843200684
      ],
      [
        "sko",
        -9.225887298583984
      ],
      [
        "▁Ga",
        -9.226197242736816
      ],
      [
        "të",
        -9.227964401245117
      ],
      [
        "”,",
        -9.229585647583008
      ],
      [
        "▁non",
        -9.230353355407715
      ],
      [
        "dor",
        -9.23084545135498
      ],
      [
        "▁As",
        -9.230940818786621
      ],
      [
        "▁cho",
        -9.231582641601562
      ],
      [
        "ras",
        -9.232494354248047
      ],
      [
        "ama",
        -9.233927726745605
      ],
      [
        "▁tre",
        -9.233951568603516
      ],
      [
        "▁have",
        -9.236047744750977
      ],
      [
        "08",
        -9.236065864562988
      ],
      [
        "ity",
        -9.236350059509277
      ],
      [
        "▁como",
        -9.23672866821289
      ],
      [
        "ela",
        -9.23746395111084
      ],
      [
        "jar",
        -9.238595962524414
      ],
      [
        "\",",
        -9.238853454589844
      ],
      [
        "uta",
        -9.239165306091309
      ],
      [
        "▁gu",
        -9.240426063537598
      ],
      [
        "ł",
        -9.240500450134277
      ],
      [
        "▁bat",
        -9.241155624389648
      ],
      [
        "▁pour",
        -9.24129581451416
      ],
      [
        "°",
        -9.241647720336914
      ],
      [
        "01",
        -9.242888450622559
      ],
      [
        "▁Q",
        -9.243019104003906
      ],
      [
        "▁bil",
        -9.243043899536133
      ],
      [
        "ول",
        -9.243159294128418
      ],
      [
        "ção",
        -9.244314193725586
      ],
      [
        "ns",
        -9.247525215148926
      ],
      [
        "▁not",
        -9.248575210571289
      ],
      [
        "ən",
        -9.249844551086426
      ],
      [
        "tos",
        -9.250960350036621
      ],
      [
        "ды",
        -9.252406120300293
      ],
      [
        "mon",
        -9.25266170501709
      ],
      [
        "▁Es",
        -9.253132820129395
      ],
      [
        "rin",
        -9.255002975463867
      ],
      [
        "=\"",
        -9.255682945251465
      ],
      [
        "за",
        -9.255910873413086
      ],
      [
        "ს",
        -9.256146430969238
      ],
      [
        "是",
        -9.256315231323242
      ],
      [
        "ši",
        -9.257893562316895
      ],
      [
        "ys",
        -9.258342742919922
      ],
      [
        "ė",
        -9.25905704498291
      ],
      [
        "▁sta",
        -9.259490013122559
      ],
      [
        "η",
        -9.261221885681152
      ],
      [
        "din",
        -9.261442184448242
      ],
      [
        "bet",
        -9.261601448059082
      ],
      [
        "▁το",
        -9.261635780334473
      ],
      [
        "▁kr",
        -9.261664390563965
      ],
      [
        "ны",
        -9.26254940032959
      ],
      [
        "át",
        -9.26403522491455
      ],
      [
        "mit",
        -9.264751434326172
      ],
      [
        "ι",
        -9.265522003173828
      ],
      [
        "ми",
        -9.265554428100586
      ],
      [
        "age",
        -9.2658109664917
      ],
      [
        "iko",
        -9.267433166503906
      ],
      [
        "он",
        -9.267658233642578
      ],
      [
        "ف",
        -9.268031120300293
      ],
      [
        "▁Det",
        -9.268162727355957
      ],
      [
        "elle",
        -9.268259048461914
      ],
      [
        "ون",
        -9.268314361572266
      ],
      [
        "▁car",
        -9.268790245056152
      ],
      [
        "▁San",
        -9.269304275512695
      ],
      [
        "ero",
        -9.26978588104248
      ],
      [
        "▁han",
        -9.269871711730957
      ],
      [
        "ego",
        -9.271293640136719
      ],
      [
        "ար",
        -9.272285461425781
      ],
      [
        "zen",
        -9.273506164550781
      ],
      [
        "▁đ",
        -9.273937225341797
      ],
      [
        "ard",
        -9.274569511413574
      ],
      [
        "▁при",
        -9.275240898132324
      ],
      [
        "▁sy",
        -9.276357650756836
      ],
      [
        "ów",
        -9.27636432647705
      ],
      [
        "mat",
        -9.276564598083496
      ],
      [
        "▁·",
        -9.277263641357422
      ],
      [
        "*",
        -9.277639389038086
      ],
      [
        "ör",
        -9.278484344482422
      ],
      [
        "ide",
        -9.2799072265625
      ],
      [
        "dag",
        -9.280973434448242
      ],
      [
        "▁alle",
        -9.282892227172852
      ],
      [
        "ور",
        -9.284631729125977
      ],
      [
        "▁31",
        -9.285086631774902
      ],
      [
        "red",
        -9.28544807434082
      ],
      [
        "ک",
        -9.286246299743652
      ],
      [
        "dd",
        -9.286511421203613
      ],
      [
        "▁К",
        -9.287192344665527
      ],
      [
        "90",
        -9.288132667541504
      ],
      [
        "tek",
        -9.288302421569824
      ],
      [
        "rt",
        -9.289340019226074
      ],
      [
        "ите",
        -9.290193557739258
      ],
      [
        "ito",
        -9.291418075561523
      ],
      [
        "oj",
        -9.292024612426758
      ],
      [
        "▁40",
        -9.29282283782959
      ],
      [
        "45",
        -9.29354190826416
      ],
      [
        "▁meg",
        -9.293754577636719
      ],
      [
        "ರ",
        -9.294177055358887
      ],
      [
        "mal",
        -9.294646263122559
      ],
      [
        "sion",
        -9.294830322265625
      ],
      [
        "and",
        -9.29512882232666
      ],
      [
        "use",
        -9.296375274658203
      ],
      [
        "ु",
        -9.296608924865723
      ],
      [
        "ën",
        -9.298057556152344
      ],
      [
        "cie",
        -9.298150062561035
      ],
      [
        "▁(1)",
        -9.298590660095215
      ],
      [
        "▁Ang",
        -9.298962593078613
      ],
      [
        "kel",
        -9.299741744995117
      ],
      [
        "ps",
        -9.301568984985352
      ],
      [
        "▁hu",
        -9.30417251586914
      ],
      [
        "het",
        -9.304183006286621
      ],
      [
        "▁wy",
        -9.304304122924805
      ],
      [
        "wer",
        -9.304848670959473
      ],
      [
        "ό",
        -9.305078506469727
      ],
      [
        "nis",
        -9.305243492126465
      ],
      [
        "▁video",
        -9.306571006774902
      ],
      [
        "port",
        -9.308882713317871
      ],
      [
        "ов",
        -9.310086250305176
      ],
      [
        "də",
        -9.310754776000977
      ],
      [
        "if",
        -9.311043739318848
      ],
      [
        "ა",
        -9.312237739562988
      ],
      [
        "▁wat",
        -9.313036918640137
      ],
      [
        "40",
        -9.313580513000488
      ],
      [
        "ат",
        -9.313721656799316
      ],
      [
        "imo",
        -9.315228462219238
      ],
      [
        "نا",
        -9.315336227416992
      ],
      [
        "ene",
        -9.315451622009277
      ],
      [
        "▁کا",
        -9.315828323364258
      ],
      [
        "das",
        -9.316926956176758
      ],
      [
        "és",
        -9.316954612731934
      ],
      [
        "▁bet",
        -9.31792163848877
      ],
      [
        "ц",
        -9.317963600158691
      ],
      [
        "▁plan",
        -9.318190574645996
      ],
      [
        "▁sal",
        -9.318489074707031
      ],
      [
        "asa",
        -9.31973934173584
      ],
      [
        "ส",
        -9.31983757019043
      ],
      [
        "31",
        -9.320578575134277
      ],
      [
        "dal",
        -9.320600509643555
      ],
      [
        "ció",
        -9.321564674377441
      ],
      [
        "ան",
        -9.322466850280762
      ],
      [
        "ים",
        -9.322750091552734
      ],
      [
        "▁film",
        -9.323225021362305
      ],
      [
        "▁Gu",
        -9.325159072875977
      ],
      [
        "▁dalam",
        -9.325592041015625
      ],
      [
        "lé",
        -9.327549934387207
      ],
      [
        "one",
        -9.327996253967285
      ],
      [
        "ori",
        -9.328362464904785
      ],
      [
        "▁из",
        -9.328609466552734
      ],
      [
        "tter",
        -9.329483032226562
      ],
      [
        "▁Hu",
        -9.331278800964355
      ],
      [
        "有",
        -9.331912994384766
      ],
      [
        "中",
        -9.332009315490723
      ],
      [
        "ם",
        -9.332112312316895
      ],
      [
        "ros",
        -9.332408905029297
      ],
      [
        "▁sam",
        -9.333349227905273
      ],
      [
        "▁will",
        -9.334915161132812
      ],
      [
        "ola",
        -9.336548805236816
      ],
      [
        "ces",
        -9.33706283569336
      ],
      [
        "06",
        -9.338035583496094
      ],
      [
        "▁Т",
        -9.338224411010742
      ],
      [
        "▁Ch",
        -9.338644981384277
      ],
      [
        "tie",
        -9.338873863220215
      ],
      [
        "car",
        -9.339507102966309
      ],
      [
        "ef",
        -9.341290473937988
      ],
      [
        "▁vir",
        -9.341468811035156
      ],
      [
        "▁του",
        -9.341545104980469
      ],
      [
        "ند",
        -9.342118263244629
      ],
      [
        "▁أ",
        -9.343253135681152
      ],
      [
        "▁cm",
        -9.344138145446777
      ],
      [
        "▁On",
        -9.344837188720703
      ],
      [
        "@",
        -9.34518051147461
      ],
      [
        "ਰ",
        -9.345590591430664
      ],
      [
        "dos",
        -9.345794677734375
      ],
      [
        "年",
        -9.347358703613281
      ],
      [
        "03",
        -9.347420692443848
      ],
      [
        "▁qui",
        -9.347476959228516
      ],
      [
        "▁và",
        -9.347573280334473
      ],
      [
        "▁2010",
        -9.347640991210938
      ],
      [
        "bel",
        -9.34793472290039
      ],
      [
        "60",
        -9.348286628723145
      ],
      [
        "ên",
        -9.348806381225586
      ],
      [
        "▁07",
        -9.353057861328125
      ],
      [
        "ದ",
        -9.353327751159668
      ],
      [
        "▁się",
        -9.354219436645508
      ],
      [
        "ega",
        -9.354573249816895
      ],
      [
        "▁Il",
        -9.35505485534668
      ],
      [
        "ante",
        -9.355720520019531
      ],
      [
        "ld",
        -9.35633659362793
      ],
      [
        "nak",
        -9.356524467468262
      ],
      [
        "sin",
        -9.356788635253906
      ],
      [
        "▁Pi",
        -9.357946395874023
      ],
      [
        "ين",
        -9.35800552368164
      ],
      [
        "kor",
        -9.358473777770996
      ],
      [
        "▁ist",
        -9.358535766601562
      ],
      [
        "▁https",
        -9.359688758850098
      ],
      [
        "▁mag",
        -9.36042594909668
      ],
      [
        "pl",
        -9.360501289367676
      ],
      [
        "了",
        -9.36159896850586
      ],
      [
        "ça",
        -9.361882209777832
      ],
      [
        "▁DE",
        -9.361992835998535
      ],
      [
        "зи",
        -9.364006042480469
      ],
      [
        "ár",
        -9.36422061920166
      ],
      [
        "▁і",
        -9.36490535736084
      ],
      [
        "ima",
        -9.365239143371582
      ],
      [
        "lay",
        -9.365297317504883
      ],
      [
        "04",
        -9.365560531616211
      ],
      [
        "ар",
        -9.367313385009766
      ],
      [
        "▁bar",
        -9.367951393127441
      ],
      [
        "mb",
        -9.368732452392578
      ],
      [
        "[",
        -9.369013786315918
      ],
      [
        "▁sin",
        -9.369606971740723
      ],
      [
        "ix",
        -9.370182991027832
      ],
      [
        "96",
        -9.37149715423584
      ],
      [
        "eri",
        -9.371581077575684
      ],
      [
        "▁Gi",
        -9.372013092041016
      ],
      [
        "ket",
        -9.372404098510742
      ],
      [
        "▁کو",
        -9.372772216796875
      ],
      [
        "či",
        -9.373299598693848
      ],
      [
        "क",
        -9.373814582824707
      ],
      [
        "▁bal",
        -9.374756813049316
      ],
      [
        "ել",
        -9.374835968017578
      ],
      [
        "ø",
        -9.374974250793457
      ],
      [
        "▁к",
        -9.37514591217041
      ],
      [
        "$",
        -9.376585006713867
      ],
      [
        "ring",
        -9.3773775100708
      ],
      [
        "▁st",
        -9.377589225769043
      ],
      [
        "▁ez",
        -9.377660751342773
      ],
      [
        "kat",
        -9.378423690795898
      ],
      [
        "▁mal",
        -9.378798484802246
      ],
      [
        "rang",
        -9.379584312438965
      ],
      [
        "vol",
        -9.379755973815918
      ],
      [
        "än",
        -9.380461692810059
      ],
      [
        "▁dit",
        -9.380859375
      ],
      [
        "isa",
        -9.38092041015625
      ],
      [
        "▁של",
        -9.381134033203125
      ],
      [
        "▁Dr",
        -9.383373260498047
      ],
      [
        "▁els",
        -9.383991241455078
      ],
      [
        "yn",
        -9.385311126708984
      ],
      [
        "▁tur",
        -9.38580322265625
      ],
      [
        "▁ש",
        -9.386163711547852
      ],
      [
        "▁=",
        -9.386391639709473
      ],
      [
        "▁cha",
        -9.38642692565918
      ],
      [
        "tzen",
        -9.386457443237305
      ],
      [
        "▁Ci",
        -9.38646125793457
      ],
      [
        "ö",
        -9.386727333068848
      ],
      [
        "▁PM",
        -9.386754035949707
      ],
      [
        "tat",
        -9.38754940032959
      ],
      [
        "cer",
        -9.387662887573242
      ],
      [
        "ip",
        -9.388039588928223
      ],
      [
        "қ",
        -9.388164520263672
      ],
      [
        "ille",
        -9.388381958007812
      ],
      [
        "си",
        -9.38895034790039
      ],
      [
        "35",
        -9.390423774719238
      ],
      [
        "ves",
        -9.391056060791016
      ],
      [
        "▁*",
        -9.391069412231445
      ],
      [
        "▁kur",
        -9.391085624694824
      ],
      [
        "ты",
        -9.391523361206055
      ],
      [
        "ore",
        -9.39177131652832
      ],
      [
        "▁kom",
        -9.392017364501953
      ],
      [
        "▁më",
        -9.3932523727417
      ],
      [
        "▁į",
        -9.395686149597168
      ],
      [
        "▁nem",
        -9.39577579498291
      ],
      [
        "ба",
        -9.396183013916016
      ],
      [
        "의",
        -9.396306037902832
      ],
      [
        "▁پر",
        -9.397021293640137
      ],
      [
        "99",
        -9.397294998168945
      ],
      [
        "lari",
        -9.39773178100586
      ],
      [
        "▁care",
        -9.398159980773926
      ],
      [
        "İ",
        -9.398165702819824
      ],
      [
        "http",
        -9.398233413696289
      ],
      [
        "▁01",
        -9.398887634277344
      ],
      [
        "▁Par",
        -9.399539947509766
      ],
      [
        "са",
        -9.399935722351074
      ],
      [
        "▁Her",
        -9.400298118591309
      ],
      [
        "▁па",
        -9.401790618896484
      ],
      [
        "vy",
        -9.402447700500488
      ],
      [
        "sia",
        -9.402996063232422
      ],
      [
        "cho",
        -9.403321266174316
      ],
      [
        "wy",
        -9.40349006652832
      ],
      [
        "▁für",
        -9.404142379760742
      ],
      [
        "▁tal",
        -9.404752731323242
      ],
      [
        "▁pada",
        -9.40478515625
      ],
      [
        "mba",
        -9.405729293823242
      ],
      [
        "▁est",
        -9.407633781433105
      ],
      [
        "bil",
        -9.408546447753906
      ],
      [
        "▁Š",
        -9.409440040588379
      ],
      [
        "lim",
        -9.410041809082031
      ],
      [
        "▁Is",
        -9.41063117980957
      ],
      [
        "ens",
        -9.411609649658203
      ],
      [
        "▁mer",
        -9.41379451751709
      ],
      [
        "48",
        -9.415217399597168
      ],
      [
        "ం",
        -9.416925430297852
      ],
      [
        "▁Ju",
        -9.417759895324707
      ],
      [
        "▁ten",
        -9.418685913085938
      ],
      [
        "000",
        -9.419631004333496
      ],
      [
        "▁Tra",
        -9.419713020324707
      ],
      [
        "ě",
        -9.419747352600098
      ],
      [
        "▁Б",
        -9.420358657836914
      ],
      [
        "ua",
        -9.420952796936035
      ],
      [
        "▁Va",
        -9.421127319335938
      ],
      [
        "inn",
        -9.421540260314941
      ],
      [
        "स",
        -9.421911239624023
      ],
      [
        "ת",
        -9.422601699829102
      ],
      [
        "ز",
        -9.422654151916504
      ],
      [
        "og",
        -9.42271614074707
      ],
      [
        "▁Or",
        -9.42347240447998
      ],
      [
        "bl",
        -9.42354679107666
      ],
      [
        "κ",
        -9.423685073852539
      ],
      [
        "”.",
        -9.424094200134277
      ],
      [
        "ប",
        -9.42505931854248
      ],
      [
        "ell",
        -9.425171852111816
      ],
      [
        "ې",
        -9.425958633422852
      ],
      [
        "▁kun",
        -9.426947593688965
      ],
      [
        "log",
        -9.427309036254883
      ],
      [
        "kas",
        -9.42763900756836
      ],
      [
        "32",
        -9.427884101867676
      ],
      [
        "▁Nu",
        -9.428415298461914
      ],
      [
        "ación",
        -9.428417205810547
      ],
      [
        "jem",
        -9.42862319946289
      ],
      [
        "ram",
        -9.428926467895508
      ],
      [
        "▁Ru",
        -9.429545402526855
      ],
      [
        "ъ",
        -9.430132865905762
      ],
      [
        "▁Th",
        -9.430523872375488
      ],
      [
        "iem",
        -9.430756568908691
      ],
      [
        "cc",
        -9.431188583374023
      ],
      [
        "▁ab",
        -9.431419372558594
      ],
      [
        "▁uit",
        -9.432100296020508
      ],
      [
        "▁è",
        -9.432242393493652
      ],
      [
        "ня",
        -9.432459831237793
      ],
      [
        "ei",
        -9.4324951171875
      ],
      [
        "hat",
        -9.43269157409668
      ],
      [
        "sto",
        -9.432755470275879
      ],
      [
        "36",
        -9.433417320251465
      ],
      [
        "▁up",
        -9.433889389038086
      ],
      [
        "า",
        -9.435463905334473
      ],
      [
        "mente",
        -9.435980796813965
      ],
      [
        "US",
        -9.43636417388916
      ],
      [
        "89",
        -9.437939643859863
      ],
      [
        "vat",
        -9.438492774963379
      ],
      [
        "ча",
        -9.439560890197754
      ],
      [
        "én",
        -9.441431045532227
      ],
      [
        "ør",
        -9.441496849060059
      ],
      [
        "▁2.",
        -9.442731857299805
      ],
      [
        "▁has",
        -9.443599700927734
      ],
      [
        "ano",
        -9.444337844848633
      ],
      [
        "▁auto",
        -9.444504737854004
      ],
      [
        "gt",
        -9.444650650024414
      ],
      [
        "ата",
        -9.445137023925781
      ],
      [
        "93",
        -9.445164680480957
      ],
      [
        "lor",
        -9.44520092010498
      ],
      [
        "▁با",
        -9.446174621582031
      ],
      [
        "▁از",
        -9.44668197631836
      ],
      [
        "39",
        -9.446869850158691
      ],
      [
        "95",
        -9.447153091430664
      ],
      [
        "ר",
        -9.448052406311035
      ],
      [
        "line",
        -9.448535919189453
      ],
      [
        "49",
        -9.449335098266602
      ],
      [
        "▁son",
        -9.449649810791016
      ],
      [
        "rit",
        -9.450033187866211
      ],
      [
        "म",
        -9.450419425964355
      ],
      [
        "▁ikke",
        -9.450757026672363
      ],
      [
        "ң",
        -9.451322555541992
      ],
      [
        "bal",
        -9.452064514160156
      ],
      [
        "ව",
        -9.452069282531738
      ],
      [
        "tte",
        -9.4520845413208
      ],
      [
        "bb",
        -9.452754974365234
      ],
      [
        "▁Kon",
        -9.452893257141113
      ],
      [
        "sha",
        -9.453831672668457
      ],
      [
        "pat",
        -9.454062461853027
      ],
      [
        "ás",
        -9.454830169677734
      ],
      [
        "ül",
        -9.455121994018555
      ],
      [
        "bat",
        -9.455483436584473
      ],
      [
        "kur",
        -9.455530166625977
      ],
      [
        "че",
        -9.455639839172363
      ],
      [
        "ön",
        -9.455841064453125
      ],
      [
        "▁có",
        -9.45595645904541
      ],
      [
        "0%",
        -9.456490516662598
      ],
      [
        "▁kor",
        -9.456544876098633
      ],
      [
        "▁zo",
        -9.456628799438477
      ],
      [
        "illa",
        -9.456720352172852
      ],
      [
        "zer",
        -9.45722484588623
      ],
      [
        "خ",
        -9.459839820861816
      ],
      [
        "▁dia",
        -9.460367202758789
      ],
      [
        "▁pentru",
        -9.460453033447266
      ],
      [
        "го",
        -9.461167335510254
      ],
      [
        "▁val",
        -9.461173057556152
      ],
      [
        "gin",
        -9.461647033691406
      ],
      [
        "gg",
        -9.461831092834473
      ],
      [
        "дан",
        -9.462193489074707
      ],
      [
        "wan",
        -9.462489128112793
      ],
      [
        "եր",
        -9.463082313537598
      ],
      [
        "▁На",
        -9.463751792907715
      ],
      [
        "lä",
        -9.463787078857422
      ],
      [
        "ก",
        -9.463833808898926
      ],
      [
        "iki",
        -9.464371681213379
      ],
      [
        "▁qu",
        -9.46579647064209
      ],
      [
        "▁ў",
        -9.466065406799316
      ],
      [
        "▁06",
        -9.466590881347656
      ],
      [
        "ente",
        -9.467318534851074
      ],
      [
        "vad",
        -9.46977710723877
      ],
      [
        "ул",
        -9.470434188842773
      ],
      [
        "▁Fi",
        -9.470934867858887
      ],
      [
        "ну",
        -9.471075057983398
      ],
      [
        "ม",
        -9.47162914276123
      ],
      [
        "मा",
        -9.473922729492188
      ],
      [
        "ish",
        -9.476016998291016
      ],
      [
        "gra",
        -9.476024627685547
      ],
      [
        "rea",
        -9.480154991149902
      ],
      [
        "מ",
        -9.480159759521484
      ],
      [
        "▁Online",
        -9.480545043945312
      ],
      [
        "ato",
        -9.480634689331055
      ],
      [
        "ani",
        -9.481377601623535
      ],
      [
        "led",
        -9.481526374816895
      ],
      [
        "lie",
        -9.48346996307373
      ],
      [
        "ര",
        -9.485543251037598
      ],
      [
        "ties",
        -9.485859870910645
      ],
      [
        "ës",
        -9.486041069030762
      ],
      [
        "ret",
        -9.48621940612793
      ],
      [
        "▁να",
        -9.487260818481445
      ],
      [
        "91",
        -9.487373352050781
      ],
      [
        "tura",
        -9.48747444152832
      ],
      [
        "▁iš",
        -9.488061904907227
      ],
      [
        "ল",
        -9.48812484741211
      ],
      [
        "을",
        -9.488672256469727
      ],
      [
        "во",
        -9.489229202270508
      ],
      [
        "▁als",
        -9.489297866821289
      ],
      [
        "▁ah",
        -9.489423751831055
      ],
      [
        "té",
        -9.490160942077637
      ],
      [
        "▁News",
        -9.490438461303711
      ],
      [
        "uma",
        -9.49246597290039
      ],
      [
        "02",
        -9.493927955627441
      ],
      [
        "100",
        -9.49398136138916
      ],
      [
        "aya",
        -9.494856834411621
      ],
      [
        "▁Com",
        -9.49496841430664
      ],
      [
        "ło",
        -9.495048522949219
      ],
      [
        "ert",
        -9.4952974319458
      ],
      [
        "ice",
        -9.49655818939209
      ],
      [
        "uz",
        -9.497669219970703
      ],
      [
        "▁Д",
        -9.49890422821045
      ],
      [
        "ble",
        -9.49899673461914
      ],
      [
        "lər",
        -9.499086380004883
      ],
      [
        "ля",
        -9.500018119812012
      ],
      [
        "▁В",
        -9.500923156738281
      ],
      [
        "art",
        -9.501049041748047
      ],
      [
        "▁ма",
        -9.501503944396973
      ],
      [
        "χ",
        -9.501587867736816
      ],
      [
        "▁tro",
        -9.502184867858887
      ],
      [
        "▁vol",
        -9.502360343933105
      ],
      [
        "▁آ",
        -9.502591133117676
      ],
      [
        "38",
        -9.503437042236328
      ],
      [
        "nos",
        -9.504459381103516
      ],
      [
        "▁hal",
        -9.504657745361328
      ],
      [
        "▁Hi",
        -9.50467300415039
      ],
      [
        "tet",
        -9.50552749633789
      ],
      [
        "▁itu",
        -9.506562232971191
      ],
      [
        "oni",
        -9.506678581237793
      ],
      [
        "▁sz",
        -9.506731986999512
      ],
      [
        "ย",
        -9.507048606872559
      ],
      [
        "get",
        -9.507200241088867
      ],
      [
        "nek",
        -9.508149147033691
      ],
      [
        "ər",
        -9.50973892211914
      ],
      [
        "ica",
        -9.510295867919922
      ],
      [
        "▁ex",
        -9.510848999023438
      ],
      [
        "sten",
        -9.51090145111084
      ],
      [
        "vor",
        -9.510990142822266
      ],
      [
        "мо",
        -9.511070251464844
      ],
      [
        "اب",
        -9.511157989501953
      ],
      [
        "jan",
        -9.511297225952148
      ],
      [
        "▁ع",
        -9.511820793151855
      ],
      [
        "92",
        -9.51184368133545
      ],
      [
        "ست",
        -9.51246166229248
      ],
      [
        "rà",
        -9.513554573059082
      ],
      [
        "▁mis",
        -9.513639450073242
      ],
      [
        "▁við",
        -9.513670921325684
      ],
      [
        "vas",
        -9.515238761901855
      ],
      [
        "▁pat",
        -9.516258239746094
      ],
      [
        "ime",
        -9.516536712646484
      ],
      [
        "und",
        -9.516644477844238
      ],
      [
        "万",
        -9.517448425292969
      ],
      [
        "▁eller",
        -9.517645835876465
      ],
      [
        "tri",
        -9.518750190734863
      ],
      [
        "ś",
        -9.519098281860352
      ],
      [
        "▁ف",
        -9.51987075805664
      ],
      [
        "atu",
        -9.520379066467285
      ],
      [
        "94",
        -9.520462989807129
      ],
      [
        "ү",
        -9.520472526550293
      ],
      [
        "stra",
        -9.520512580871582
      ],
      [
        "zione",
        -9.520759582519531
      ],
      [
        "ži",
        -9.522017478942871
      ],
      [
        "网",
        -9.522140502929688
      ],
      [
        "ض",
        -9.52236270904541
      ],
      [
        "ล",
        -9.522832870483398
      ],
      [
        "▁kas",
        -9.523076057434082
      ],
      [
        "▁tot",
        -9.524235725402832
      ],
      [
        "▁akan",
        -9.52440357208252
      ],
      [
        "▁program",
        -9.525175094604492
      ],
      [
        "nen",
        -9.525469779968262
      ],
      [
        "34",
        -9.52550983428955
      ],
      [
        ":30",
        -9.526901245117188
      ],
      [
        "Re",
        -9.527176856994629
      ],
      [
        "ր",
        -9.527427673339844
      ],
      [
        "▁mais",
        -9.52824592590332
      ],
      [
        "uh",
        -9.528948783874512
      ],
      [
        "▁At",
        -9.529123306274414
      ],
      [
        "▁tan",
        -9.529757499694824
      ],
      [
        "▁AM",
        -9.529892921447754
      ],
      [
        "dra",
        -9.530735969543457
      ],
      [
        "▁Pu",
        -9.530881881713867
      ],
      [
        "▁pla",
        -9.531500816345215
      ],
      [
        "ct",
        -9.532732009887695
      ],
      [
        "\\",
        -9.532806396484375
      ],
      [
        "ich",
        -9.532986640930176
      ],
      [
        "อ",
        -9.533232688903809
      ],
      [
        "لی",
        -9.533432960510254
      ],
      [
        "ф",
        -9.53351879119873
      ],
      [
        "ului",
        -9.533573150634766
      ],
      [
        "▁tidak",
        -9.534566879272461
      ],
      [
        "83",
        -9.534878730773926
      ],
      [
        "tr",
        -9.534976959228516
      ],
      [
        "▁sk",
        -9.535796165466309
      ],
      [
        "γ",
        -9.535866737365723
      ],
      [
        "▁fel",
        -9.5361967086792
      ],
      [
        "۔",
        -9.53690242767334
      ],
      [
        "▁New",
        -9.537348747253418
      ],
      [
        "▁las",
        -9.538837432861328
      ],
      [
        "ει",
        -9.54030704498291
      ],
      [
        "▁{",
        -9.540379524230957
      ],
      [
        "▁chi",
        -9.540426254272461
      ],
      [
        "42",
        -9.540593147277832
      ],
      [
        "▁May",
        -9.540690422058105
      ],
      [
        "set",
        -9.541276931762695
      ],
      [
        "kal",
        -9.541467666625977
      ],
      [
        "ها",
        -9.541501998901367
      ],
      [
        "ք",
        -9.541694641113281
      ],
      [
        "▁60",
        -9.541919708251953
      ],
      [
        "por",
        -9.541990280151367
      ],
      [
        "▁Den",
        -9.54202938079834
      ],
      [
        "▁για",
        -9.542073249816895
      ],
      [
        "▁yo",
        -9.542346000671387
      ],
      [
        "ил",
        -9.542455673217773
      ],
      [
        "98",
        -9.542487144470215
      ],
      [
        "ava",
        -9.543314933776855
      ],
      [
        "▁Dan",
        -9.544205665588379
      ],
      [
        "ier",
        -9.544523239135742
      ],
      [
        "▁2009",
        -9.544825553894043
      ],
      [
        "tis",
        -9.545934677124023
      ],
      [
        "▁është",
        -9.545980453491211
      ],
      [
        "ме",
        -9.547603607177734
      ],
      [
        "▁می",
        -9.548588752746582
      ],
      [
        "新",
        -9.548605918884277
      ],
      [
        "`",
        -9.548666000366211
      ],
      [
        "▁lang",
        -9.548844337463379
      ],
      [
        "\".",
        -9.549116134643555
      ],
      [
        "▁?",
        -9.54952335357666
      ],
      [
        "dre",
        -9.549701690673828
      ],
      [
        "▁zijn",
        -9.550027847290039
      ],
      [
        "47",
        -9.550389289855957
      ],
      [
        "ակ",
        -9.5504150390625
      ],
      [
        "▁με",
        -9.550615310668945
      ],
      [
        "ค",
        -9.5510835647583
      ],
      [
        "кі",
        -9.551233291625977
      ],
      [
        "lə",
        -9.551641464233398
      ],
      [
        "ു",
        -9.552085876464844
      ],
      [
        "▁kl",
        -9.55247688293457
      ],
      [
        "65",
        -9.553034782409668
      ],
      [
        "▁ба",
        -9.553189277648926
      ],
      [
        "▁М",
        -9.553740501403809
      ],
      [
        "▁Am",
        -9.55380630493164
      ],
      [
        "▁της",
        -9.554058074951172
      ],
      [
        "ის",
        -9.554450035095215
      ],
      [
        "บ",
        -9.554519653320312
      ],
      [
        "ом",
        -9.55471134185791
      ],
      [
        "▁02",
        -9.555156707763672
      ],
      [
        "är",
        -9.555234909057617
      ],
      [
        "▁dar",
        -9.555680274963379
      ],
      [
        "33",
        -9.55615520477295
      ],
      [
        "ក",
        -9.556672096252441
      ],
      [
        "▁Ab",
        -9.557126998901367
      ],
      [
        "▁juga",
        -9.558259010314941
      ],
      [
        "▁tar",
        -9.558714866638184
      ],
      [
        "ן",
        -9.559401512145996
      ],
      [
        "int",
        -9.559494972229004
      ],
      [
        "▁ker",
        -9.55994701385498
      ],
      [
        "▁comp",
        -9.560535430908203
      ],
      [
        "θ",
        -9.560835838317871
      ],
      [
        "ական",
        -9.561344146728516
      ],
      [
        "kk",
        -9.561527252197266
      ],
      [
        "▁inter",
        -9.56177043914795
      ],
      [
        "her",
        -9.562023162841797
      ],
      [
        "hl",
        -9.562153816223145
      ],
      [
        "ře",
        -9.562679290771484
      ],
      [
        "97",
        -9.562744140625
      ],
      [
        "▁اور",
        -9.563882827758789
      ],
      [
        "י",
        -9.564542770385742
      ],
      [
        "ে",
        -9.56483268737793
      ],
      [
        "ре",
        -9.565032005310059
      ],
      [
        "pre",
        -9.56503677368164
      ],
      [
        "hen",
        -9.565366744995117
      ],
      [
        "는",
        -9.565815925598145
      ],
      [
        "А",
        -9.566028594970703
      ],
      [
        "▁И",
        -9.5662841796875
      ],
      [
        "▁05",
        -9.566323280334473
      ],
      [
        "gal",
        -9.56640338897705
      ],
      [
        "▁1,",
        -9.56845760345459
      ],
      [
        "ω",
        -9.570318222045898
      ],
      [
        "cht",
        -9.570857048034668
      ],
      [
        "▁nos",
        -9.572500228881836
      ],
      [
        "▁την",
        -9.572869300842285
      ],
      [
        "ту",
        -9.573083877563477
      ],
      [
        "ć",
        -9.573104858398438
      ],
      [
        "OS",
        -9.573528289794922
      ],
      [
        "▁Ter",
        -9.573678016662598
      ],
      [
        "In",
        -9.574068069458008
      ],
      [
        "▁sex",
        -9.574753761291504
      ],
      [
        "▁سے",
        -9.576263427734375
      ],
      [
        "▁ح",
        -9.5768461227417
      ],
      [
        "ג",
        -9.579208374023438
      ],
      [
        "▁س",
        -9.57940673828125
      ],
      [
        "▁uma",
        -9.579840660095215
      ],
      [
        "У",
        -9.580114364624023
      ],
      [
        "▁mm",
        -9.580657958984375
      ],
      [
        "lum",
        -9.580775260925293
      ],
      [
        "▁sen",
        -9.581280708312988
      ],
      [
        "vá",
        -9.581342697143555
      ],
      [
        "73",
        -9.581512451171875
      ],
      [
        "▁sobre",
        -9.581729888916016
      ],
      [
        "▁out",
        -9.581867218017578
      ],
      [
        "▁από",
        -9.5829439163208
      ],
      [
        "▁Az",
        -9.584542274475098
      ],
      [
        "ër",
        -9.584878921508789
      ],
      [
        "ры",
        -9.58556842803955
      ],
      [
        "ия",
        -9.586275100708008
      ],
      [
        "М",
        -9.58641529083252
      ],
      [
        "▁Fe",
        -9.586469650268555
      ],
      [
        "▁Post",
        -9.586655616760254
      ],
      [
        "cal",
        -9.587327003479004
      ],
      [
        "ци",
        -9.58769416809082
      ],
      [
        "ам",
        -9.588379859924316
      ],
      [
        "▁Val",
        -9.589371681213379
      ],
      [
        "日",
        -9.589818954467773
      ],
      [
        "tta",
        -9.590710639953613
      ],
      [
        "lis",
        -9.591071128845215
      ],
      [
        "▁Sch",
        -9.592416763305664
      ],
      [
        "https",
        -9.592793464660645
      ],
      [
        "ân",
        -9.593189239501953
      ],
      [
        "ando",
        -9.593257904052734
      ],
      [
        "▁ste",
        -9.59464168548584
      ],
      [
        "75",
        -9.595434188842773
      ],
      [
        "▁Đ",
        -9.595993995666504
      ],
      [
        "▁Ya",
        -9.596656799316406
      ],
      [
        "mis",
        -9.596830368041992
      ],
      [
        "▁By",
        -9.596981048583984
      ],
      [
        "上",
        -9.598077774047852
      ],
      [
        "ies",
        -9.598307609558105
      ],
      [
        "▁Har",
        -9.598806381225586
      ],
      [
        "aga",
        -9.599627494812012
      ],
      [
        "▁Pra",
        -9.599869728088379
      ],
      [
        "▁của",
        -9.599943161010742
      ],
      [
        "▁dé",
        -9.600491523742676
      ],
      [
        "К",
        -9.600493431091309
      ],
      [
        "ర్",
        -9.600865364074707
      ],
      [
        "€",
        -9.600996017456055
      ],
      [
        "▁roz",
        -9.601932525634766
      ],
      [
        "fin",
        -9.602170944213867
      ],
      [
        "64",
        -9.602261543273926
      ],
      [
        "kov",
        -9.603004455566406
      ],
      [
        "gun",
        -9.60329532623291
      ],
      [
        "qu",
        -9.603372573852539
      ],
      [
        "vid",
        -9.604456901550293
      ],
      [
        "OR",
        -9.604995727539062
      ],
      [
        "46",
        -9.605281829833984
      ],
      [
        "80",
        -9.605417251586914
      ],
      [
        "ше",
        -9.605585098266602
      ],
      [
        "82",
        -9.606133460998535
      ],
      [
        "ord",
        -9.606413841247559
      ],
      [
        "ं",
        -9.608122825622559
      ],
      [
        "ว",
        -9.609193801879883
      ],
      [
        "ем",
        -9.610280990600586
      ],
      [
        "▁egy",
        -9.610572814941406
      ],
      [
        "▁ee",
        -9.610626220703125
      ],
      [
        "▁ak",
        -9.610738754272461
      ],
      [
        "和",
        -9.610833168029785
      ],
      [
        "▁entre",
        -9.611116409301758
      ],
      [
        "los",
        -9.61129379272461
      ],
      [
        "को",
        -9.61146068572998
      ],
      [
        "81",
        -9.612979888916016
      ],
      [
        "▁fu",
        -9.613170623779297
      ],
      [
        "lon",
        -9.613495826721191
      ],
      [
        "▁Cu",
        -9.613927841186523
      ],
      [
        "▁ben",
        -9.61553955078125
      ],
      [
        "▁auf",
        -9.615543365478516
      ],
      [
        "ё",
        -9.615683555603027
      ],
      [
        "▁vil",
        -9.615693092346191
      ],
      [
        "ות",
        -9.61683177947998
      ],
      [
        "▁hor",
        -9.61708927154541
      ],
      [
        "zy",
        -9.617288589477539
      ],
      [
        "ür",
        -9.61773681640625
      ],
      [
        "70",
        -9.619466781616211
      ],
      [
        "▁už",
        -9.62021255493164
      ],
      [
        "ام",
        -9.62028694152832
      ],
      [
        "тар",
        -9.620877265930176
      ],
      [
        "▁π",
        -9.621200561523438
      ],
      [
        "pt",
        -9.621389389038086
      ],
      [
        "र्",
        -9.621661186218262
      ],
      [
        "▁tri",
        -9.621679306030273
      ],
      [
        "▁א",
        -9.621747970581055
      ],
      [
        "ris",
        -9.621891021728516
      ],
      [
        "ح",
        -9.621989250183105
      ],
      [
        "tir",
        -9.622723579406738
      ],
      [
        "dig",
        -9.622815132141113
      ],
      [
        "AN",
        -9.623113632202148
      ],
      [
        "▁www",
        -9.623705863952637
      ],
      [
        "▁03",
        -9.623775482177734
      ],
      [
        "59",
        -9.623920440673828
      ],
      [
        "▁ва",
        -9.626001358032227
      ],
      [
        "ham",
        -9.62694263458252
      ],
      [
        "nder",
        -9.62752628326416
      ],
      [
        "vé",
        -9.627556800842285
      ],
      [
        "ס",
        -9.62790584564209
      ],
      [
        "▁Kar",
        -9.628280639648438
      ],
      [
        "ance",
        -9.628485679626465
      ],
      [
        "ρ",
        -9.628527641296387
      ],
      [
        "all",
        -9.628674507141113
      ],
      [
        "rd",
        -9.629385948181152
      ],
      [
        "88",
        -9.629557609558105
      ],
      [
        "ى",
        -9.629920959472656
      ],
      [
        "dro",
        -9.630322456359863
      ],
      [
        "ator",
        -9.630378723144531
      ],
      [
        "▁sol",
        -9.631272315979004
      ],
      [
        "▁Ce",
        -9.631331443786621
      ],
      [
        "pp",
        -9.632347106933594
      ],
      [
        "▁Pen",
        -9.632521629333496
      ],
      [
        "▁esta",
        -9.633039474487305
      ],
      [
        "▁qa",
        -9.63316822052002
      ],
      [
        "ین",
        -9.633633613586426
      ],
      [
        "би",
        -9.633731842041016
      ],
      [
        "▁kal",
        -9.634108543395996
      ],
      [
        "െ",
        -9.63476848602295
      ],
      [
        "وں",
        -9.635189056396484
      ],
      [
        "eb",
        -9.63535213470459
      ],
      [
        "▁об",
        -9.635910034179688
      ],
      [
        "ө",
        -9.636604309082031
      ],
      [
        "ła",
        -9.637589454650879
      ],
      [
        "uf",
        -9.63766860961914
      ],
      [
        "▁ol",
        -9.638134002685547
      ],
      [
        "via",
        -9.639322280883789
      ],
      [
        "ement",
        -9.6398286819458
      ],
      [
        "angan",
        -9.640110969543457
      ],
      [
        "φ",
        -9.641517639160156
      ],
      [
        "ය",
        -9.641705513000488
      ],
      [
        "უ",
        -9.64171028137207
      ],
      [
        "zar",
        -9.642511367797852
      ],
      [
        "ර",
        -9.642524719238281
      ],
      [
        "ವ",
        -9.642809867858887
      ],
      [
        "ал",
        -9.643653869628906
      ],
      [
        "rum",
        -9.64416790008545
      ],
      [
        "▁Can",
        -9.644940376281738
      ],
      [
        "▁ná",
        -9.645174980163574
      ],
      [
        "сти",
        -9.64564323425293
      ],
      [
        "pis",
        -9.64621639251709
      ],
      [
        "hy",
        -9.64624309539795
      ],
      [
        "▁della",
        -9.64673900604248
      ],
      [
        "ť",
        -9.647076606750488
      ],
      [
        "▁iyo",
        -9.647176742553711
      ],
      [
        "▁more",
        -9.647237777709961
      ],
      [
        "ке",
        -9.647346496582031
      ],
      [
        "cio",
        -9.647546768188477
      ],
      [
        "iste",
        -9.648123741149902
      ],
      [
        "ley",
        -9.64865493774414
      ],
      [
        "dia",
        -9.64874267578125
      ],
      [
        "leg",
        -9.649641990661621
      ],
      [
        "▁hotel",
        -9.65007495880127
      ],
      [
        "▁Chi",
        -9.650541305541992
      ],
      [
        "inen",
        -9.650626182556152
      ],
      [
        "▁All",
        -9.650735855102539
      ],
      [
        "stu",
        -9.651464462280273
      ],
      [
        "the",
        -9.651564598083496
      ],
      [
        "▁pres",
        -9.651946067810059
      ],
      [
        "41",
        -9.652799606323242
      ],
      [
        "▁ale",
        -9.653334617614746
      ],
      [
        "▁may",
        -9.653932571411133
      ],
      [
        "Б",
        -9.654497146606445
      ],
      [
        "ction",
        -9.654935836791992
      ],
      [
        "▁má",
        -9.655508995056152
      ],
      [
        "▁Gra",
        -9.655584335327148
      ],
      [
        "ط",
        -9.656045913696289
      ],
      [
        "▁uu",
        -9.65613079071045
      ],
      [
        "រ",
        -9.65632438659668
      ],
      [
        "▁upp",
        -9.656797409057617
      ],
      [
        "ա",
        -9.657320976257324
      ],
      [
        "ding",
        -9.657533645629883
      ],
      [
        "▁اس",
        -9.657718658447266
      ],
      [
        "▁Sie",
        -9.658535957336426
      ],
      [
        "▁vis",
        -9.658722877502441
      ],
      [
        "▁une",
        -9.658822059631348
      ],
      [
        "▁@",
        -9.659435272216797
      ],
      [
        "of",
        -9.660154342651367
      ],
      [
        "▁kad",
        -9.660225868225098
      ],
      [
        "rí",
        -9.661399841308594
      ],
      [
        "že",
        -9.661666870117188
      ],
      [
        "▁3.",
        -9.661989212036133
      ],
      [
        "rah",
        -9.66229248046875
      ],
      [
        "▁П",
        -9.66229248046875
      ],
      [
        "τ",
        -9.662635803222656
      ],
      [
        "ган",
        -9.663076400756836
      ],
      [
        "ora",
        -9.66393756866455
      ],
      [
        "EL",
        -9.664437294006348
      ],
      [
        "mak",
        -9.66490364074707
      ],
      [
        "▁ook",
        -9.667613983154297
      ],
      [
        "▁پ",
        -9.667648315429688
      ],
      [
        "ве",
        -9.667872428894043
      ],
      [
        "▁under",
        -9.668050765991211
      ],
      [
        "▁Ac",
        -9.668468475341797
      ],
      [
        "▁Ak",
        -9.668585777282715
      ],
      [
        "ví",
        -9.668705940246582
      ],
      [
        "bri",
        -9.669462203979492
      ],
      [
        "58",
        -9.669591903686523
      ],
      [
        "54",
        -9.670219421386719
      ],
      [
        "can",
        -9.670315742492676
      ],
      [
        "ige",
        -9.670345306396484
      ],
      [
        "pon",
        -9.671496391296387
      ],
      [
        "иш",
        -9.671857833862305
      ],
      [
        "ev",
        -9.671953201293945
      ],
      [
        "ssa",
        -9.672983169555664
      ],
      [
        "گ",
        -9.673822402954102
      ],
      [
        "▁fin",
        -9.673840522766113
      ],
      [
        "usi",
        -9.675863265991211
      ],
      [
        "ร",
        -9.67590618133545
      ],
      [
        "43",
        -9.67615795135498
      ],
      [
        "ج",
        -9.676309585571289
      ],
      [
        "ذ",
        -9.67635726928711
      ],
      [
        "ਲ",
        -9.676400184631348
      ],
      [
        "▁dans",
        -9.676934242248535
      ],
      [
        "▁mes",
        -9.677462577819824
      ],
      [
        "▁İ",
        -9.679145812988281
      ],
      [
        "▁Sta",
        -9.681297302246094
      ],
      [
        "에",
        -9.68144416809082
      ],
      [
        "AL",
        -9.68157958984375
      ],
      [
        "sse",
        -9.681802749633789
      ],
      [
        "▁bij",
        -9.68213176727295
      ],
      [
        "▁را",
        -9.683111190795898
      ],
      [
        "▁vai",
        -9.683852195739746
      ],
      [
        "▁Cor",
        -9.683927536010742
      ],
      [
        "cher",
        -9.68616008758545
      ],
      [
        "ત",
        -9.686528205871582
      ],
      [
        "Д",
        -9.687381744384766
      ],
      [
        "ms",
        -9.687828063964844
      ],
      [
        "اد",
        -9.688246726989746
      ],
      [
        "nas",
        -9.689061164855957
      ],
      [
        "37",
        -9.689828872680664
      ],
      [
        "▁fo",
        -9.689839363098145
      ],
      [
        "اء",
        -9.689915657043457
      ],
      [
        "qa",
        -9.69055461883545
      ],
      [
        "ե",
        -9.690610885620117
      ],
      [
        "57",
        -9.69084358215332
      ],
      [
        "num",
        -9.69157886505127
      ],
      [
        "▁și",
        -9.69225788116455
      ],
      [
        "ո",
        -9.693279266357422
      ],
      [
        "yr",
        -9.693306922912598
      ],
      [
        "▁pos",
        -9.693355560302734
      ],
      [
        "lama",
        -9.693775177001953
      ],
      [
        "▁pot",
        -9.693900108337402
      ],
      [
        "ો",
        -9.693901062011719
      ],
      [
        "▁mil",
        -9.694256782531738
      ],
      [
        "gang",
        -9.694558143615723
      ],
      [
        "cs",
        -9.696332931518555
      ],
      [
        "86",
        -9.696518898010254
      ],
      [
        "▁cre",
        -9.696911811828613
      ],
      [
        "ਨ",
        -9.697188377380371
      ],
      [
        "ther",
        -9.69731616973877
      ],
      [
        "▁oli",
        -9.69785213470459
      ],
      [
        "av",
        -9.698151588439941
      ],
      [
        "▁По",
        -9.6984281539917
      ],
      [
        "ले",
        -9.698467254638672
      ],
      [
        "ύ",
        -9.69896411895752
      ],
      [
        "տ",
        -9.69974422454834
      ],
      [
        "▁Air",
        -9.702728271484375
      ],
      [
        "υ",
        -9.70310115814209
      ],
      [
        "▁ו",
        -9.703217506408691
      ],
      [
        "▁→",
        -9.703349113464355
      ],
      [
        "mbo",
        -9.703571319580078
      ],
      [
        "▁Sam",
        -9.703852653503418
      ],
      [
        "▁04",
        -9.704070091247559
      ],
      [
        "uni",
        -9.704169273376465
      ],
      [
        "ర",
        -9.704364776611328
      ],
      [
        "tud",
        -9.704848289489746
      ],
      [
        "ോ",
        -9.705367088317871
      ],
      [
        "▁time",
        -9.705526351928711
      ],
      [
        "ted",
        -9.7058744430542
      ],
      [
        "nom",
        -9.70634937286377
      ],
      [
        "▁naj",
        -9.706626892089844
      ],
      [
        "če",
        -9.706791877746582
      ],
      [
        "▁foto",
        -9.706944465637207
      ],
      [
        "ಯ",
        -9.707801818847656
      ],
      [
        "▁کر",
        -9.708293914794922
      ],
      [
        "war",
        -9.708443641662598
      ],
      [
        "▁internet",
        -9.70926284790039
      ],
      [
        "ב",
        -9.711912155151367
      ],
      [
        "55",
        -9.712193489074707
      ],
      [
        "▁то",
        -9.712287902832031
      ],
      [
        "iv",
        -9.712708473205566
      ],
      [
        "adi",
        -9.713135719299316
      ],
      [
        "eta",
        -9.713448524475098
      ],
      [
        "ico",
        -9.714044570922852
      ],
      [
        "▁dag",
        -9.714680671691895
      ],
      [
        "â",
        -9.715371131896973
      ],
      [
        "မ",
        -9.715914726257324
      ],
      [
        "▁ش",
        -9.716432571411133
      ],
      [
        "ug",
        -9.716543197631836
      ],
      [
        "им",
        -9.716544151306152
      ],
      [
        "Т",
        -9.717166900634766
      ],
      [
        "63",
        -9.717290878295898
      ],
      [
        "市",
        -9.717851638793945
      ],
      [
        "▁је",
        -9.719090461730957
      ],
      [
        "vil",
        -9.71909236907959
      ],
      [
        "β",
        -9.719964981079102
      ],
      [
        "në",
        -9.720425605773926
      ],
      [
        "ง",
        -9.720955848693848
      ],
      [
        "nh",
        -9.72166919708252
      ],
      [
        "ാ",
        -9.721711158752441
      ],
      [
        "ー",
        -9.721744537353516
      ],
      [
        "ró",
        -9.722118377685547
      ],
      [
        "lak",
        -9.722856521606445
      ],
      [
        "ের",
        -9.723100662231445
      ],
      [
        "44",
        -9.723250389099121
      ],
      [
        "ги",
        -9.723665237426758
      ],
      [
        "▁için",
        -9.723814010620117
      ],
      [
        "53",
        -9.724767684936523
      ],
      [
        "▁là",
        -9.725663185119629
      ],
      [
        "itu",
        -9.72640323638916
      ],
      [
        "▁dem",
        -9.726637840270996
      ],
      [
        "▁pr",
        -9.726658821105957
      ],
      [
        "сто",
        -9.726850509643555
      ],
      [
        "ด",
        -9.727070808410645
      ],
      [
        "▁Ben",
        -9.727213859558105
      ],
      [
        "▁Para",
        -9.727676391601562
      ],
      [
        "nih",
        -9.728269577026367
      ],
      [
        "69",
        -9.72883415222168
      ],
      [
        "La",
        -9.729226112365723
      ],
      [
        "85",
        -9.729287147521973
      ],
      [
        "dik",
        -9.729401588439941
      ],
      [
        "ин",
        -9.729496002197266
      ],
      [
        "▁су",
        -9.73009204864502
      ],
      [
        "▁Posted",
        -9.730252265930176
      ],
      [
        "▁š",
        -9.730313301086426
      ],
      [
        "lit",
        -9.73064136505127
      ],
      [
        "ија",
        -9.731693267822266
      ],
      [
        "mə",
        -9.731751441955566
      ],
      [
        "79",
        -9.732922554016113
      ],
      [
        "ని",
        -9.73332691192627
      ],
      [
        "iri",
        -9.733673095703125
      ],
      [
        "pas",
        -9.733769416809082
      ],
      [
        "મ",
        -9.733834266662598
      ],
      [
        "▁Cha",
        -9.733980178833008
      ],
      [
        "тер",
        -9.734175682067871
      ],
      [
        "ски",
        -9.73465347290039
      ],
      [
        "▁seg",
        -9.736083030700684
      ],
      [
        "▁inte",
        -9.736190795898438
      ],
      [
        "gon",
        -9.736364364624023
      ],
      [
        "ий",
        -9.736430168151855
      ],
      [
        "61",
        -9.736656188964844
      ],
      [
        "title",
        -9.73747444152832
      ],
      [
        "stro",
        -9.737582206726074
      ],
      [
        "ো",
        -9.737772941589355
      ],
      [
        "ер",
        -9.73780345916748
      ],
      [
        "nov",
        -9.739043235778809
      ],
      [
        "ust",
        -9.739052772521973
      ],
      [
        "gre",
        -9.740324974060059
      ],
      [
        "stan",
        -9.740362167358398
      ],
      [
        "gas",
        -9.740777969360352
      ],
      [
        "lov",
        -9.74162769317627
      ],
      [
        "▁kita",
        -9.742063522338867
      ],
      [
        "▁dis",
        -9.742382049560547
      ],
      [
        "▁seu",
        -9.742510795593262
      ],
      [
        "ન",
        -9.742717742919922
      ],
      [
        "ত",
        -9.743480682373047
      ],
      [
        "▁Video",
        -9.74363899230957
      ],
      [
        "dur",
        -9.743681907653809
      ],
      [
        "68",
        -9.744300842285156
      ],
      [
        "▁far",
        -9.744364738464355
      ],
      [
        "യ",
        -9.744670867919922
      ],
      [
        "ings",
        -9.744718551635742
      ],
      [
        "ге",
        -9.74539852142334
      ],
      [
        "2019",
        -9.746195793151855
      ],
      [
        "▁ج",
        -9.746403694152832
      ],
      [
        "87",
        -9.746700286865234
      ],
      [
        "ε",
        -9.746711730957031
      ],
      [
        "ના",
        -9.747152328491211
      ],
      [
        "▁Fo",
        -9.747268676757812
      ],
      [
        "ksi",
        -9.748103141784668
      ],
      [
        "mine",
        -9.748819351196289
      ],
      [
        "▁את",
        -9.74894905090332
      ],
      [
        "ల",
        -9.74896240234375
      ],
      [
        "\",\"",
        -9.75039005279541
      ],
      [
        "51",
        -9.750405311584473
      ],
      [
        "ক",
        -9.750712394714355
      ],
      [
        "nej",
        -9.750730514526367
      ],
      [
        "▁bei",
        -9.750883102416992
      ],
      [
        "74",
        -9.751087188720703
      ],
      [
        "nte",
        -9.751169204711914
      ],
      [
        "ados",
        -9.751197814941406
      ],
      [
        "xa",
        -9.751252174377441
      ],
      [
        "lá",
        -9.751435279846191
      ],
      [
        "И",
        -9.751969337463379
      ],
      [
        "▁hy",
        -9.75228500366211
      ],
      [
        "▁með",
        -9.752888679504395
      ],
      [
        "iden",
        -9.752958297729492
      ],
      [
        "ет",
        -9.753060340881348
      ],
      [
        "▁Pri",
        -9.753353118896484
      ],
      [
        "▁نے",
        -9.753643989562988
      ],
      [
        "▁tai",
        -9.753788948059082
      ],
      [
        "ша",
        -9.75406551361084
      ],
      [
        "א",
        -9.754429817199707
      ],
      [
        "ով",
        -9.754841804504395
      ],
      [
        "į",
        -9.754886627197266
      ],
      [
        "고",
        -9.755451202392578
      ],
      [
        "ort",
        -9.755918502807617
      ],
      [
        "zin",
        -9.756183624267578
      ],
      [
        "IN",
        -9.756657600402832
      ],
      [
        "े",
        -9.75683879852295
      ],
      [
        "ssen",
        -9.757325172424316
      ],
      [
        "▁Pas",
        -9.757425308227539
      ],
      [
        "kun",
        -9.757519721984863
      ],
      [
        "cm",
        -9.757877349853516
      ],
      [
        "ល",
        -9.758334159851074
      ],
      [
        "72",
        -9.758770942687988
      ],
      [
        "О",
        -9.758846282958984
      ],
      [
        "▁Os",
        -9.75886058807373
      ],
      [
        "kla",
        -9.758994102478027
      ],
      [
        "▁web",
        -9.759047508239746
      ],
      [
        "tus",
        -9.759089469909668
      ],
      [
        "▁ме",
        -9.759485244750977
      ],
      [
        "–",
        -9.759849548339844
      ],
      [
        "▁Av",
        -9.760814666748047
      ],
      [
        "ym",
        -9.762261390686035
      ],
      [
        "غ",
        -9.762304306030273
      ],
      [
        "dır",
        -9.762395858764648
      ],
      [
        "oli",
        -9.762449264526367
      ],
      [
        "▁ved",
        -9.762589454650879
      ],
      [
        "พ",
        -9.762679100036621
      ],
      [
        "berg",
        -9.762818336486816
      ],
      [
        "▁Kan",
        -9.763014793395996
      ],
      [
        "出",
        -9.763020515441895
      ],
      [
        "▁vý",
        -9.76318073272705
      ],
      [
        "ك",
        -9.763550758361816
      ],
      [
        "▁kat",
        -9.763927459716797
      ],
      [
        "▁Mon",
        -9.76395034790039
      ],
      [
        "▁Por",
        -9.76403522491455
      ],
      [
        "ans",
        -9.764840126037598
      ],
      [
        "84",
        -9.765623092651367
      ],
      [
        "ම",
        -9.765986442565918
      ],
      [
        "כ",
        -9.766012191772461
      ],
      [
        "ute",
        -9.76614761352539
      ],
      [
        "56",
        -9.766341209411621
      ],
      [
        "vet",
        -9.767173767089844
      ],
      [
        "▁parte",
        -9.767208099365234
      ],
      [
        "sam",
        -9.767256736755371
      ],
      [
        "▁200",
        -9.768083572387695
      ],
      [
        "▁Vo",
        -9.768193244934082
      ],
      [
        "king",
        -9.769014358520508
      ],
      [
        "usta",
        -9.769158363342285
      ],
      [
        "ан",
        -9.769217491149902
      ],
      [
        "се",
        -9.770184516906738
      ],
      [
        "ká",
        -9.770218849182129
      ],
      [
        "ів",
        -9.771343231201172
      ],
      [
        "▁forma",
        -9.771978378295898
      ],
      [
        "iza",
        -9.772294998168945
      ],
      [
        "-2",
        -9.772499084472656
      ],
      [
        "ação",
        -9.772697448730469
      ],
      [
        "hin",
        -9.772698402404785
      ],
      [
        "▁де",
        -9.773244857788086
      ],
      [
        "来",
        -9.773862838745117
      ],
      [
        "encia",
        -9.774168968200684
      ],
      [
        "▁ph",
        -9.774197578430176
      ],
      [
        "jet",
        -9.774203300476074
      ],
      [
        "до",
        -9.7747802734375
      ],
      [
        "ín",
        -9.774972915649414
      ],
      [
        "▁80",
        -9.775408744812012
      ],
      [
        "lag",
        -9.775449752807617
      ],
      [
        "▁Der",
        -9.775636672973633
      ],
      [
        "ית",
        -9.775646209716797
      ],
      [
        "TA",
        -9.775832176208496
      ],
      [
        "▁Sal",
        -9.776126861572266
      ],
      [
        "2,",
        -9.776148796081543
      ],
      [
        "▁ac",
        -9.776384353637695
      ],
      [
        "ọ",
        -9.776713371276855
      ],
      [
        "ць",
        -9.777615547180176
      ],
      [
        "▁nuk",
        -9.777789115905762
      ],
      [
        "zio",
        -9.777945518493652
      ],
      [
        "ា",
        -9.778435707092285
      ],
      [
        "λ",
        -9.778549194335938
      ],
      [
        "chen",
        -9.778801918029785
      ],
      [
        "ට",
        -9.779048919677734
      ],
      [
        "ур",
        -9.779372215270996
      ],
      [
        "▁Ad",
        -9.779791831970215
      ],
      [
        "ella",
        -9.78001880645752
      ],
      [
        "ette",
        -9.780191421508789
      ],
      [
        "Г",
        -9.780463218688965
      ],
      [
        "▁Ex",
        -9.780852317810059
      ],
      [
        "▁mem",
        -9.781082153320312
      ],
      [
        "▁şi",
        -9.78150463104248
      ],
      [
        "لا",
        -9.781684875488281
      ],
      [
        "ید",
        -9.781771659851074
      ],
      [
        "ста",
        -9.782079696655273
      ],
      [
        "แ",
        -9.782625198364258
      ],
      [
        "sp",
        -9.782901763916016
      ],
      [
        "66",
        -9.783187866210938
      ],
      [
        "▁Wi",
        -9.783365249633789
      ],
      [
        "▁hogy",
        -9.783516883850098
      ],
      [
        "ટ",
        -9.784035682678223
      ],
      [
        "·",
        -9.784092903137207
      ],
      [
        "gur",
        -9.784600257873535
      ],
      [
        "lam",
        -9.784831047058105
      ],
      [
        "व",
        -9.785507202148438
      ],
      [
        "▁War",
        -9.785579681396484
      ],
      [
        "une",
        -9.78580379486084
      ],
      [
        "ല",
        -9.786152839660645
      ],
      [
        "▁وال",
        -9.7861909866333
      ],
      [
        "rar",
        -9.7862548828125
      ],
      [
        "62",
        -9.78637409210205
      ],
      [
        "▁}",
        -9.786429405212402
      ],
      [
        "sar",
        -9.786649703979492
      ],
      [
        "▁TV",
        -9.787025451660156
      ],
      [
        "▁Bal",
        -9.787108421325684
      ],
      [
        "php",
        -9.787552833557129
      ],
      [
        "ike",
        -9.787568092346191
      ],
      [
        "▁sub",
        -9.787717819213867
      ],
      [
        "▁aj",
        -9.787921905517578
      ],
      [
        "ade",
        -9.788576126098633
      ],
      [
        "raz",
        -9.788772583007812
      ],
      [
        "hod",
        -9.789255142211914
      ],
      [
        "xe",
        -9.789752960205078
      ],
      [
        "rak",
        -9.789938926696777
      ],
      [
        "द",
        -9.790395736694336
      ],
      [
        "ence",
        -9.7905912399292
      ],
      [
        "szt",
        -9.790742874145508
      ],
      [
        "2018",
        -9.790748596191406
      ],
      [
        "ор",
        -9.790822982788086
      ],
      [
        "▁Jan",
        -9.79094123840332
      ],
      [
        "َ",
        -9.791297912597656
      ],
      [
        "▁best",
        -9.791837692260742
      ],
      [
        "bit",
        -9.79277229309082
      ],
      [
        "mor",
        -9.792819023132324
      ],
      [
        "lí",
        -9.792941093444824
      ],
      [
        "ət",
        -9.793503761291504
      ],
      [
        "▁pred",
        -9.793647766113281
      ],
      [
        "tori",
        -9.793956756591797
      ],
      [
        "IS",
        -9.794296264648438
      ],
      [
        "▁katika",
        -9.794391632080078
      ],
      [
        "▁կ",
        -9.794770240783691
      ],
      [
        "▁بر",
        -9.795374870300293
      ],
      [
        "▁м",
        -9.795947074890137
      ],
      [
        "ple",
        -9.795997619628906
      ],
      [
        "▁but",
        -9.796051025390625
      ],
      [
        "П",
        -9.796716690063477
      ],
      [
        "▁It",
        -9.796813011169434
      ],
      [
        "▁అ",
        -9.797001838684082
      ],
      [
        "▁baş",
        -9.797101974487305
      ],
      [
        "다",
        -9.797481536865234
      ],
      [
        "lega",
        -9.797669410705566
      ],
      [
        "ट",
        -9.798100471496582
      ],
      [
        "▁است",
        -9.798422813415527
      ],
      [
        "thi",
        -9.798951148986816
      ],
      [
        "way",
        -9.799386024475098
      ],
      [
        "lia",
        -9.80024528503418
      ],
      [
        "ٹ",
        -9.800418853759766
      ],
      [
        "▁او",
        -9.801283836364746
      ],
      [
        "▁2008",
        -9.801376342773438
      ],
      [
        "μα",
        -9.802268028259277
      ],
      [
        "▁Ob",
        -9.802301406860352
      ],
      [
        "ी",
        -9.802376747131348
      ],
      [
        "rov",
        -9.80262279510498
      ],
      [
        "▁ada",
        -9.802862167358398
      ],
      [
        "▁Г",
        -9.803203582763672
      ],
      [
        "til",
        -9.803704261779785
      ],
      [
        "cí",
        -9.804826736450195
      ],
      [
        "▁j",
        -9.805091857910156
      ],
      [
        "ស",
        -9.805132865905762
      ],
      [
        "▁եւ",
        -9.805879592895508
      ],
      [
        "▁alla",
        -9.806078910827637
      ],
      [
        "ló",
        -9.806340217590332
      ],
      [
        "ел",
        -9.806693077087402
      ],
      [
        "▁Ка",
        -9.806937217712402
      ],
      [
        "ص",
        -9.806970596313477
      ],
      [
        "ә",
        -9.807031631469727
      ],
      [
        "pel",
        -9.807490348815918
      ],
      [
        "▁х",
        -9.807671546936035
      ],
      [
        "▁ska",
        -9.808042526245117
      ],
      [
        "▁soo",
        -9.808067321777344
      ],
      [
        "Pa",
        -9.808093070983887
      ],
      [
        "▁jeg",
        -9.809208869934082
      ],
      [
        "ט",
        -9.809593200683594
      ],
      [
        "会",
        -9.810105323791504
      ],
      [
        "dien",
        -9.810680389404297
      ],
      [
        "▁д",
        -9.811966896057129
      ],
      [
        "▁Gar",
        -9.81208324432373
      ],
      [
        "▁come",
        -9.812196731567383
      ],
      [
        "ম",
        -9.812250137329102
      ],
      [
        "▁don",
        -9.812948226928711
      ],
      [
        "mail",
        -9.81449031829834
      ],
      [
        "ा",
        -9.81462287902832
      ],
      [
        "▁pan",
        -9.814764976501465
      ],
      [
        "▁zi",
        -9.814971923828125
      ],
      [
        "ño",
        -9.815000534057617
      ],
      [
        "iva",
        -9.815089225769043
      ],
      [
        "스",
        -9.815146446228027
      ],
      [
        "dom",
        -9.81541919708252
      ],
      [
        "്",
        -9.815581321716309
      ],
      [
        "fr",
        -9.815604209899902
      ],
      [
        "▁agus",
        -9.815888404846191
      ],
      [
        "پ",
        -9.815983772277832
      ],
      [
        "idade",
        -9.81618595123291
      ],
      [
        "▁jag",
        -9.816645622253418
      ],
      [
        "▁Qu",
        -9.816787719726562
      ],
      [
        "▁500",
        -9.816800117492676
      ],
      [
        "▁ré",
        -9.8178071975708
      ],
      [
        "tak",
        -9.818384170532227
      ],
      [
        "GA",
        -9.819077491760254
      ],
      [
        "▁Α",
        -9.819083213806152
      ],
      [
        "▁Van",
        -9.819318771362305
      ],
      [
        "▁reg",
        -9.819435119628906
      ],
      [
        "▁My",
        -9.81997299194336
      ],
      [
        "▁să",
        -9.820082664489746
      ],
      [
        "ht",
        -9.82078742980957
      ],
      [
        "▁our",
        -9.822386741638184
      ],
      [
        "▁bra",
        -9.822409629821777
      ],
      [
        "anda",
        -9.822678565979004
      ],
      [
        "▁sig",
        -9.822678565979004
      ],
      [
        "tum",
        -9.824429512023926
      ],
      [
        "ҳ",
        -9.82448959350586
      ],
      [
        "ien",
        -9.82458782196045
      ],
      [
        "vent",
        -9.825060844421387
      ],
      [
        "ija",
        -9.825274467468262
      ],
      [
        "▁ان",
        -9.825411796569824
      ],
      [
        "▁му",
        -9.825791358947754
      ],
      [
        "ਤ",
        -9.825820922851562
      ],
      [
        "awa",
        -9.825865745544434
      ],
      [
        "▁Ма",
        -9.825886726379395
      ],
      [
        "▁air",
        -9.825992584228516
      ],
      [
        "▁col",
        -9.825996398925781
      ],
      [
        "tag",
        -9.826141357421875
      ],
      [
        "▁sau",
        -9.826262474060059
      ],
      [
        "▁Ser",
        -9.826386451721191
      ],
      [
        "ო",
        -9.826397895812988
      ],
      [
        "ו",
        -9.827147483825684
      ],
      [
        "76",
        -9.82718276977539
      ],
      [
        "sie",
        -9.8273344039917
      ],
      [
        "ей",
        -9.827682495117188
      ],
      [
        "ré",
        -9.828746795654297
      ],
      [
        "▁жа",
        -9.828813552856445
      ],
      [
        "yon",
        -9.829412460327148
      ],
      [
        "ete",
        -9.829803466796875
      ],
      [
        "ска",
        -9.829938888549805
      ],
      [
        "cul",
        -9.830282211303711
      ],
      [
        "▁blog",
        -9.830314636230469
      ],
      [
        "far",
        -9.830322265625
      ],
      [
        "lic",
        -9.83103084564209
      ],
      [
        "▁war",
        -9.83106517791748
      ],
      [
        "▁ao",
        -9.831439018249512
      ],
      [
        "cat",
        -9.83224868774414
      ],
      [
        "71",
        -9.832600593566895
      ],
      [
        "▁cor",
        -9.832886695861816
      ],
      [
        "lek",
        -9.832913398742676
      ],
      [
        "का",
        -9.833093643188477
      ],
      [
        "に",
        -9.833100318908691
      ],
      [
        "apa",
        -9.83322525024414
      ],
      [
        "mel",
        -9.833320617675781
      ],
      [
        "ու",
        -9.834512710571289
      ],
      [
        "მ",
        -9.834744453430176
      ],
      [
        "▁anda",
        -9.83504867553711
      ],
      [
        "жа",
        -9.835439682006836
      ],
      [
        "put",
        -9.835657119750977
      ],
      [
        "eli",
        -9.835665702819824
      ],
      [
        "▁Tur",
        -9.836000442504883
      ],
      [
        "▁э",
        -9.836377143859863
      ],
      [
        "ક",
        -9.836772918701172
      ],
      [
        "inta",
        -9.836790084838867
      ],
      [
        "▁Tr",
        -9.83733081817627
      ],
      [
        "ын",
        -9.837510108947754
      ],
      [
        "▁gra",
        -9.837621688842773
      ],
      [
        "▁За",
        -9.83772087097168
      ],
      [
        "▁meng",
        -9.838037490844727
      ],
      [
        "tele",
        -9.83837604522705
      ],
      [
        "▁Des",
        -9.838504791259766
      ],
      [
        "্",
        -9.839218139648438
      ],
      [
        "ই",
        -9.840002059936523
      ],
      [
        "▁अ",
        -9.840088844299316
      ],
      [
        "tul",
        -9.840317726135254
      ],
      [
        "nan",
        -9.841254234313965
      ],
      [
        "û",
        -9.841503143310547
      ],
      [
        "▁пре",
        -9.841585159301758
      ],
      [
        "اس",
        -9.843644142150879
      ],
      [
        "▁Π",
        -9.843794822692871
      ],
      [
        "ór",
        -9.843937873840332
      ],
      [
        "form",
        -9.844278335571289
      ],
      [
        "sal",
        -9.844423294067383
      ],
      [
        "가",
        -9.845269203186035
      ],
      [
        ");",
        -9.845328330993652
      ],
      [
        "ové",
        -9.845553398132324
      ],
      [
        "▁ہے",
        -9.847013473510742
      ],
      [
        "▁gel",
        -9.847264289855957
      ],
      [
        "▁Ş",
        -9.8478364944458
      ],
      [
        "enda",
        -9.848213195800781
      ],
      [
        "ува",
        -9.848685264587402
      ],
      [
        "▁tem",
        -9.84879207611084
      ],
      [
        "▁Е",
        -9.849008560180664
      ],
      [
        "ctor",
        -9.849331855773926
      ],
      [
        "bol",
        -9.84976577758789
      ],
      [
        "ering",
        -9.84981918334961
      ],
      [
        "ев",
        -9.849843978881836
      ],
      [
        "este",
        -9.850008964538574
      ],
      [
        "500",
        -9.850568771362305
      ],
      [
        "tó",
        -9.850757598876953
      ],
      [
        "ins",
        -9.850823402404785
      ],
      [
        "77",
        -9.850852012634277
      ],
      [
        "jas",
        -9.850971221923828
      ],
      [
        "tí",
        -9.8517427444458
      ],
      [
        "▁په",
        -9.851746559143066
      ],
      [
        "ido",
        -9.85197925567627
      ],
      [
        "▁kap",
        -9.852088928222656
      ],
      [
        "▁door",
        -9.85278034210205
      ],
      [
        "ח",
        -9.852822303771973
      ],
      [
        "ా",
        -9.853066444396973
      ],
      [
        "▁Pol",
        -9.853130340576172
      ],
      [
        "▁This",
        -9.853330612182617
      ],
      [
        "▁раз",
        -9.853344917297363
      ],
      [
        "ša",
        -9.853517532348633
      ],
      [
        "到",
        -9.853864669799805
      ],
      [
        "lip",
        -9.85397720336914
      ],
      [
        "▁br",
        -9.853987693786621
      ],
      [
        "ador",
        -9.854286193847656
      ],
      [
        "▁আ",
        -9.854379653930664
      ],
      [
        "▁top",
        -9.854765892028809
      ],
      [
        "家",
        -9.854813575744629
      ],
      [
        "▁raz",
        -9.85516357421875
      ],
      [
        "▁zá",
        -9.855406761169434
      ],
      [
        "▁Les",
        -9.856159210205078
      ],
      [
        "ges",
        -9.856246948242188
      ],
      [
        "▁You",
        -9.856297492980957
      ],
      [
        "yd",
        -9.856650352478027
      ],
      [
        "ου",
        -9.857139587402344
      ],
      [
        "nal",
        -9.857599258422852
      ],
      [
        "▁ud",
        -9.85830307006836
      ],
      [
        "lap",
        -9.858753204345703
      ],
      [
        "tti",
        -9.858842849731445
      ],
      [
        "html",
        -9.859060287475586
      ],
      [
        "ที่",
        -9.859482765197754
      ],
      [
        "ម",
        -9.85966968536377
      ],
      [
        "▁90",
        -9.859829902648926
      ],
      [
        "лу",
        -9.860158920288086
      ],
      [
        "▁خ",
        -9.860502243041992
      ],
      [
        "න",
        -9.860528945922852
      ],
      [
        "data",
        -9.860859870910645
      ],
      [
        "▁Op",
        -9.861148834228516
      ],
      [
        "aan",
        -9.861353874206543
      ],
      [
        "લ",
        -9.861468315124512
      ],
      [
        "高",
        -9.862080574035645
      ],
      [
        "jpg",
        -9.862395286560059
      ],
      [
        "▁cap",
        -9.862591743469238
      ],
      [
        "tic",
        -9.86273193359375
      ],
      [
        "52",
        -9.862791061401367
      ],
      [
        "rod",
        -9.86315631866455
      ],
      [
        "ต",
        -9.86335563659668
      ],
      [
        "pla",
        -9.864392280578613
      ],
      [
        "ās",
        -9.864611625671387
      ],
      [
        "▁Mal",
        -9.86495304107666
      ],
      [
        "月",
        -9.865240097045898
      ],
      [
        "▁Auto",
        -9.865616798400879
      ],
      [
        "uka",
        -9.866072654724121
      ],
      [
        "jer",
        -9.866166114807129
      ],
      [
        "tá",
        -9.867079734802246
      ],
      [
        "etan",
        -9.867108345031738
      ],
      [
        "գ",
        -9.867351531982422
      ],
      [
        "▁Sp",
        -9.86768913269043
      ],
      [
        "ний",
        -9.867704391479492
      ],
      [
        "▁bez",
        -9.867731094360352
      ],
      [
        "pun",
        -9.867924690246582
      ],
      [
        "▁ali",
        -9.867945671081543
      ],
      [
        "ți",
        -9.869497299194336
      ],
      [
        "67",
        -9.869796752929688
      ],
      [
        "mme",
        -9.869810104370117
      ],
      [
        "▁Um",
        -9.870111465454102
      ],
      [
        "dz",
        -9.870234489440918
      ],
      [
        "▁jak",
        -9.870335578918457
      ],
      [
        "olo",
        -9.870643615722656
      ],
      [
        "ಾ",
        -9.870655059814453
      ],
      [
        "▁beste",
        -9.870803833007812
      ],
      [
        "▁این",
        -9.870869636535645
      ],
      [
        "жи",
        -9.871474266052246
      ],
      [
        "▁го",
        -9.87149715423584
      ],
      [
        "▁Ε",
        -9.871623992919922
      ],
      [
        "▁jest",
        -9.87181282043457
      ],
      [
        "ía",
        -9.872238159179688
      ],
      [
        "▁các",
        -9.872251510620117
      ],
      [
        "▁ви",
        -9.872349739074707
      ],
      [
        "rë",
        -9.872978210449219
      ],
      [
        "Se",
        -9.873153686523438
      ],
      [
        "▁atau",
        -9.873180389404297
      ],
      [
        "▁kaj",
        -9.873309135437012
      ],
      [
        "▁के",
        -9.873392105102539
      ],
      [
        "ır",
        -9.873434066772461
      ],
      [
        "ရ",
        -9.873889923095703
      ],
      [
        "issa",
        -9.874367713928223
      ],
      [
        "ம்",
        -9.874496459960938
      ],
      [
        "▁kuwa",
        -9.87453842163086
      ],
      [
        "▁pun",
        -9.874939918518066
      ],
      [
        "▁gan",
        -9.875091552734375
      ],
      [
        "▁û",
        -9.87575626373291
      ],
      [
        "78",
        -9.87629222869873
      ],
      [
        "ight",
        -9.87639331817627
      ],
      [
        "nic",
        -9.876510620117188
      ],
      [
        "▁Ç",
        -9.876693725585938
      ],
      [
        "це",
        -9.876940727233887
      ],
      [
        "▁wo",
        -9.877622604370117
      ],
      [
        "ು",
        -9.877632141113281
      ],
      [
        "ೇ",
        -9.877923965454102
      ],
      [
        "ların",
        -9.879377365112305
      ],
      [
        "ls",
        -9.87956714630127
      ],
      [
        "mento",
        -9.8798828125
      ],
      [
        "ét",
        -9.879990577697754
      ],
      [
        "app",
        -9.88003158569336
      ],
      [
        "ES",
        -9.880834579467773
      ],
      [
        "▁70",
        -9.880953788757324
      ],
      [
        "bas",
        -9.881463050842285
      ],
      [
        "LO",
        -9.881669998168945
      ],
      [
        "ری",
        -9.881690979003906
      ],
      [
        "თ",
        -9.881739616394043
      ],
      [
        "▁parti",
        -9.881954193115234
      ],
      [
        "▁Ph",
        -9.882073402404785
      ],
      [
        "hor",
        -9.882280349731445
      ],
      [
        "pos",
        -9.88233757019043
      ],
      [
        "▁ayaa",
        -9.882555961608887
      ],
      [
        "▁qo",
        -9.883167266845703
      ],
      [
        "tions",
        -9.883721351623535
      ],
      [
        "▁Σ",
        -9.885153770446777
      ],
      [
        "dri",
        -9.885425567626953
      ],
      [
        "▁gre",
        -9.886137008666992
      ],
      [
        "小",
        -9.886548042297363
      ],
      [
        "স",
        -9.8867826461792
      ],
      [
        "ца",
        -9.887803077697754
      ],
      [
        "wal",
        -9.887889862060547
      ],
      [
        "ға",
        -9.888760566711426
      ],
      [
        "asta",
        -9.88908863067627
      ],
      [
        "ụ",
        -9.889120101928711
      ],
      [
        "aha",
        -9.889228820800781
      ],
      [
        "▁bisa",
        -9.889229774475098
      ],
      [
        "öl",
        -9.889431953430176
      ],
      [
        "▁Top",
        -9.889450073242188
      ],
      [
        "ON",
        -9.88947582244873
      ],
      [
        "▁35",
        -9.890044212341309
      ],
      [
        "yi",
        -9.890290260314941
      ],
      [
        "వ",
        -9.890623092651367
      ],
      [
        "לי",
        -9.890739440917969
      ],
      [
        "որ",
        -9.891839027404785
      ],
      [
        "ün",
        -9.89207649230957
      ],
      [
        "▁niet",
        -9.8931245803833
      ],
      [
        "▁და",
        -9.893167495727539
      ],
      [
        "▁model",
        -9.893266677856445
      ],
      [
        "▁ett",
        -9.893623352050781
      ],
      [
        "ೆ",
        -9.893701553344727
      ],
      [
        "zon",
        -9.893770217895508
      ],
      [
        "▁(1",
        -9.894026756286621
      ],
      [
        "▁ako",
        -9.894182205200195
      ],
      [
        "imin",
        -9.89426040649414
      ],
      [
        "▁Em",
        -9.89443588256836
      ],
      [
        "▁tek",
        -9.894734382629395
      ],
      [
        "ahan",
        -9.894974708557129
      ],
      [
        "▁gy",
        -9.895124435424805
      ],
      [
        "vers",
        -9.895753860473633
      ],
      [
        "▁המ",
        -9.895827293395996
      ],
      [
        "▁gen",
        -9.89618968963623
      ],
      [
        "isti",
        -9.896463394165039
      ],
      [
        "기",
        -9.896766662597656
      ],
      [
        "Н",
        -9.897388458251953
      ],
      [
        "▁més",
        -9.898412704467773
      ],
      [
        "ја",
        -9.898427963256836
      ],
      [
        "▁365",
        -9.898816108703613
      ],
      [
        "ων",
        -9.899212837219238
      ],
      [
        "вер",
        -9.899568557739258
      ],
      [
        "hal",
        -9.89985179901123
      ],
      [
        "kle",
        -9.900357246398926
      ],
      [
        "▁г",
        -9.90039348602295
      ],
      [
        "▁sha",
        -9.900707244873047
      ],
      [
        "▁sh",
        -9.902219772338867
      ],
      [
        "▁pm",
        -9.902464866638184
      ],
      [
        "TI",
        -9.90257740020752
      ],
      [
        "વા",
        -9.903094291687012
      ],
      [
        "ová",
        -9.903342247009277
      ],
      [
        "▁32",
        -9.903514862060547
      ],
      [
        "리",
        -9.90456485748291
      ],
      [
        "պ",
        -9.904728889465332
      ],
      [
        "▁skal",
        -9.905285835266113
      ],
      [
        "чы",
        -9.90555477142334
      ],
      [
        "ū",
        -9.90562629699707
      ],
      [
        "▁Anda",
        -9.905682563781738
      ],
      [
        "-19",
        -9.905800819396973
      ],
      [
        "ব",
        -9.905900955200195
      ],
      [
        "▁vor",
        -9.905938148498535
      ],
      [
        "bli",
        -9.906152725219727
      ],
      [
        "▁على",
        -9.90637493133545
      ],
      [
        "ատ",
        -9.907343864440918
      ],
      [
        "Le",
        -9.908671379089355
      ],
      [
        "▁plus",
        -9.908764839172363
      ],
      [
        "nud",
        -9.909528732299805
      ],
      [
        "▁gar",
        -9.90961742401123
      ],
      [
        "index",
        -9.91018295288086
      ],
      [
        "īt",
        -9.910286903381348
      ],
      [
        "ने",
        -9.910392761230469
      ],
      [
        "ді",
        -9.911347389221191
      ],
      [
        "ί",
        -9.911372184753418
      ],
      [
        "uan",
        -9.911815643310547
      ],
      [
        "▁lan",
        -9.911971092224121
      ],
      [
        "자",
        -9.912022590637207
      ],
      [
        "▁های",
        -9.912155151367188
      ],
      [
        "ל",
        -9.913019180297852
      ],
      [
        "نی",
        -9.91348648071289
      ],
      [
        "ე",
        -9.913617134094238
      ],
      [
        "dat",
        -9.913725852966309
      ],
      [
        "用",
        -9.914212226867676
      ],
      [
        "▁fyrir",
        -9.914266586303711
      ],
      [
        "▁που",
        -9.915352821350098
      ],
      [
        "tzeko",
        -9.91541862487793
      ],
      [
        "▁4.",
        -9.915593147277832
      ],
      [
        "-1",
        -9.916291236877441
      ],
      [
        "മ",
        -9.916428565979004
      ],
      [
        "స్",
        -9.917098999023438
      ],
      [
        "▁tam",
        -9.917366027832031
      ],
      [
        "ių",
        -9.91749095916748
      ],
      [
        "ী",
        -9.918158531188965
      ],
      [
        "мен",
        -9.918192863464355
      ],
      [
        "▁us",
        -9.918364524841309
      ],
      [
        "дар",
        -9.918931007385254
      ],
      [
        "▁maar",
        -9.919525146484375
      ],
      [
        "EN",
        -9.919692993164062
      ],
      [
        "▁super",
        -9.919724464416504
      ],
      [
        "ության",
        -9.92007827758789
      ],
      [
        "pri",
        -9.920146942138672
      ],
      [
        "▁Black",
        -9.920741081237793
      ],
      [
        "В",
        -9.921086311340332
      ],
      [
        "▁adalah",
        -9.921403884887695
      ],
      [
        "ING",
        -9.92158031463623
      ],
      [
        "prav",
        -9.921629905700684
      ],
      [
        "še",
        -9.921724319458008
      ],
      [
        "є",
        -9.921876907348633
      ],
      [
        "ે",
        -9.922043800354004
      ],
      [
        "rom",
        -9.922377586364746
      ],
      [
        "ري",
        -9.922708511352539
      ],
      [
        "▁së",
        -9.923039436340332
      ],
      [
        "은",
        -9.923052787780762
      ],
      [
        "pin",
        -9.923065185546875
      ],
      [
        "▁fer",
        -9.923212051391602
      ],
      [
        "ийн",
        -9.92374324798584
      ],
      [
        "lus",
        -9.924999237060547
      ],
      [
        "▁pin",
        -9.92515754699707
      ],
      [
        "det",
        -9.925627708435059
      ],
      [
        "بر",
        -9.925629615783691
      ],
      [
        "▁бу",
        -9.925863265991211
      ],
      [
        "▁(2)",
        -9.926217079162598
      ],
      [
        "tz",
        -9.926352500915527
      ],
      [
        "▁And",
        -9.926728248596191
      ],
      [
        "վ",
        -9.92678165435791
      ],
      [
        "ши",
        -9.926788330078125
      ],
      [
        "dzi",
        -9.927117347717285
      ],
      [
        "▁fil",
        -9.927284240722656
      ],
      [
        "De",
        -9.92737865447998
      ],
      [
        "▁Foto",
        -9.927399635314941
      ],
      [
        "▁hat",
        -9.92786693572998
      ],
      [
        "сы",
        -9.927939414978027
      ],
      [
        "LE",
        -9.928070068359375
      ],
      [
        "▁bor",
        -9.928350448608398
      ],
      [
        "лан",
        -9.928811073303223
      ],
      [
        "▁бол",
        -9.928851127624512
      ],
      [
        "llo",
        -9.929010391235352
      ],
      [
        "▁dal",
        -9.929085731506348
      ],
      [
        "են",
        -9.929104804992676
      ],
      [
        "bie",
        -9.929143905639648
      ],
      [
        "bin",
        -9.929311752319336
      ],
      [
        "া",
        -9.929823875427246
      ],
      [
        "为",
        -9.929938316345215
      ],
      [
        "гу",
        -9.930177688598633
      ],
      [
        "ू",
        -9.930649757385254
      ],
      [
        "ু",
        -9.931035041809082
      ],
      [
        "▁pak",
        -9.931206703186035
      ],
      [
        "lli",
        -9.931560516357422
      ],
      [
        "eng",
        -9.931726455688477
      ],
      [
        "idad",
        -9.932380676269531
      ],
      [
        "2016",
        -9.932486534118652
      ],
      [
        "му",
        -9.932755470275879
      ],
      [
        "amento",
        -9.933945655822754
      ],
      [
        "ture",
        -9.934085845947266
      ],
      [
        "▁Á",
        -9.934428215026855
      ],
      [
        "qi",
        -9.934709548950195
      ],
      [
        "▁Art",
        -9.934728622436523
      ],
      [
        "ří",
        -9.934968948364258
      ],
      [
        "ду",
        -9.934998512268066
      ],
      [
        "ці",
        -9.93513011932373
      ],
      [
        "pie",
        -9.93560791015625
      ],
      [
        "▁مع",
        -9.936400413513184
      ],
      [
        "inin",
        -9.93663501739502
      ],
      [
        "▁final",
        -9.93697738647461
      ],
      [
        "թ",
        -9.93741512298584
      ],
      [
        "don",
        -9.937495231628418
      ],
      [
        "pur",
        -9.937684059143066
      ],
      [
        "▁ag",
        -9.938255310058594
      ],
      [
        "地",
        -9.938665390014648
      ],
      [
        "eve",
        -9.939252853393555
      ],
      [
        "▁45",
        -9.939597129821777
      ],
      [
        "gr",
        -9.93980884552002
      ],
      [
        "▁Sha",
        -9.939865112304688
      ],
      [
        "ος",
        -9.94001293182373
      ],
      [
        "ες",
        -9.940035820007324
      ],
      [
        "ral",
        -9.94056224822998
      ],
      [
        "yl",
        -9.940617561340332
      ],
      [
        "ो",
        -9.940629959106445
      ],
      [
        "प",
        -9.94066047668457
      ],
      [
        "נו",
        -9.940696716308594
      ],
      [
        "mek",
        -9.941047668457031
      ],
      [
        "эн",
        -9.94131851196289
      ],
      [
        "gor",
        -9.94144058227539
      ],
      [
        "ena",
        -9.941957473754883
      ],
      [
        "dem",
        -9.942337036132812
      ],
      [
        "ս",
        -9.942402839660645
      ],
      [
        "rie",
        -9.942755699157715
      ],
      [
        "IL",
        -9.943243980407715
      ],
      [
        "▁real",
        -9.94332504272461
      ],
      [
        "day",
        -9.943402290344238
      ],
      [
        "ін",
        -9.943765640258789
      ],
      [
        "ල",
        -9.944171905517578
      ],
      [
        "▁бо",
        -9.944270133972168
      ],
      [
        "tom",
        -9.944884300231934
      ],
      [
        "IT",
        -9.944902420043945
      ],
      [
        "▁más",
        -9.944992065429688
      ],
      [
        "uti",
        -9.945357322692871
      ],
      [
        "из",
        -9.94555377960205
      ],
      [
        "stav",
        -9.945579528808594
      ],
      [
        "▁Free",
        -9.946520805358887
      ],
      [
        "生",
        -9.94668960571289
      ],
      [
        "▁mod",
        -9.947032928466797
      ],
      [
        "Ð",
        -9.947221755981445
      ],
      [
        "ಲ",
        -9.94738483428955
      ],
      [
        "▁Bra",
        -9.947723388671875
      ],
      [
        "▁ق",
        -9.947864532470703
      ],
      [
        "▁Zi",
        -9.947949409484863
      ],
      [
        "mbi",
        -9.948179244995117
      ],
      [
        "ış",
        -9.948351860046387
      ],
      [
        "ន",
        -9.94919204711914
      ],
      [
        "ary",
        -9.949626922607422
      ],
      [
        "aba",
        -9.949711799621582
      ],
      [
        "oi",
        -9.950030326843262
      ],
      [
        "ım",
        -9.950105667114258
      ],
      [
        "enie",
        -9.950139045715332
      ],
      [
        "లు",
        -9.95018196105957
      ],
      [
        "▁sou",
        -9.950685501098633
      ],
      [
        "post",
        -9.951000213623047
      ],
      [
        "▁được",
        -9.951652526855469
      ],
      [
        "▁ब",
        -9.95173168182373
      ],
      [
        "માં",
        -9.951905250549316
      ],
      [
        "▁Č",
        -9.951935768127441
      ],
      [
        "lich",
        -9.952085494995117
      ],
      [
        "▁nag",
        -9.952115058898926
      ],
      [
        "eiro",
        -9.952262878417969
      ],
      [
        "umi",
        -9.952754020690918
      ],
      [
        "pil",
        -9.952978134155273
      ],
      [
        "UN",
        -9.95323657989502
      ],
      [
        "ikan",
        -9.953320503234863
      ],
      [
        "도",
        -9.953390121459961
      ],
      [
        "▁Sh",
        -9.954376220703125
      ],
      [
        "tay",
        -9.954411506652832
      ],
      [
        "anta",
        -9.955146789550781
      ],
      [
        "▁não",
        -9.955150604248047
      ],
      [
        "umu",
        -9.9553861618042
      ],
      [
        "▁мо",
        -9.955503463745117
      ],
      [
        "▁år",
        -9.955916404724121
      ],
      [
        "צ",
        -9.956045150756836
      ],
      [
        "pad",
        -9.956687927246094
      ],
      [
        "ande",
        -9.956889152526855
      ],
      [
        "▁ре",
        -9.957269668579102
      ],
      [
        "έ",
        -9.957467079162598
      ],
      [
        "ova",
        -9.958401679992676
      ],
      [
        "한",
        -9.958439826965332
      ],
      [
        "zor",
        -9.958634376525879
      ],
      [
        "▁EUR",
        -9.958918571472168
      ],
      [
        "ត",
        -9.959026336669922
      ],
      [
        "tem",
        -9.959062576293945
      ],
      [
        "တ",
        -9.959844589233398
      ],
      [
        "▁Sen",
        -9.960041999816895
      ],
      [
        "ን",
        -9.960951805114746
      ],
      [
        "▁על",
        -9.96107292175293
      ],
      [
        "ư",
        -9.961798667907715
      ],
      [
        "по",
        -9.962339401245117
      ],
      [
        "▁spo",
        -9.96235466003418
      ],
      [
        "TO",
        -9.962358474731445
      ],
      [
        "-4",
        -9.962578773498535
      ],
      [
        "ých",
        -9.96288013458252
      ],
      [
        "nica",
        -9.963170051574707
      ],
      [
        "▁free",
        -9.963257789611816
      ],
      [
        "rk",
        -9.964010238647461
      ],
      [
        "▁about",
        -9.964460372924805
      ],
      [
        "▁euro",
        -9.965097427368164
      ],
      [
        "ث",
        -9.965188026428223
      ],
      [
        "▁just",
        -9.965407371520996
      ],
      [
        "▁kol",
        -9.965533256530762
      ],
      [
        "ੀ",
        -9.965559005737305
      ],
      [
        "нд",
        -9.965832710266113
      ],
      [
        "Е",
        -9.96614933013916
      ],
      [
        "▁mü",
        -9.966723442077637
      ],
      [
        "▁ú",
        -9.967365264892578
      ],
      [
        "ច",
        -9.967501640319824
      ],
      [
        "▁waar",
        -9.967666625976562
      ],
      [
        "ок",
        -9.967672348022461
      ],
      [
        "▁ai",
        -9.968036651611328
      ],
      [
        "اف",
        -9.969114303588867
      ],
      [
        "mus",
        -9.969563484191895
      ],
      [
        "▁Ny",
        -9.969564437866211
      ],
      [
        "▁کہ",
        -9.970179557800293
      ],
      [
        "ની",
        -9.970444679260254
      ],
      [
        "ေ",
        -9.970870018005371
      ],
      [
        "bah",
        -9.971183776855469
      ],
      [
        "▁Ur",
        -9.971396446228027
      ],
      [
        "ləri",
        -9.972219467163086
      ],
      [
        "pr",
        -9.972651481628418
      ],
      [
        "지",
        -9.97282886505127
      ],
      [
        "行",
        -9.973047256469727
      ],
      [
        "య",
        -9.973505973815918
      ],
      [
        "▁fram",
        -9.973749160766602
      ],
      [
        "ario",
        -9.973822593688965
      ],
      [
        "sson",
        -9.97383975982666
      ],
      [
        "ã",
        -9.974289894104004
      ],
      [
        "gli",
        -9.974381446838379
      ],
      [
        "▁для",
        -9.974434852600098
      ],
      [
        "па",
        -9.97457218170166
      ],
      [
        "▁via",
        -9.974786758422852
      ],
      [
        "وم",
        -9.975573539733887
      ],
      [
        "▁wie",
        -9.975809097290039
      ],
      [
        "hol",
        -9.975829124450684
      ],
      [
        "▁Х",
        -9.975842475891113
      ],
      [
        "ία",
        -9.976344108581543
      ],
      [
        "nut",
        -9.97707462310791
      ],
      [
        "ಂ",
        -9.977120399475098
      ],
      [
        "ði",
        -9.97727108001709
      ],
      [
        "τα",
        -9.97745132446289
      ],
      [
        "çi",
        -9.977532386779785
      ],
      [
        "▁dapat",
        -9.977790832519531
      ],
      [
        "eren",
        -9.978104591369629
      ],
      [
        "▁trans",
        -9.978177070617676
      ],
      [
        "ද",
        -9.979814529418945
      ],
      [
        "▁Au",
        -9.980000495910645
      ],
      [
        "ह",
        -9.980233192443848
      ],
      [
        "ர",
        -9.980422973632812
      ],
      [
        "Al",
        -9.980611801147461
      ],
      [
        "ੇ",
        -9.980841636657715
      ],
      [
        "vit",
        -9.98155403137207
      ],
      [
        "udi",
        -9.981770515441895
      ],
      [
        "!!",
        -9.981864929199219
      ],
      [
        "ова",
        -9.9819917678833
      ],
      [
        "▁new",
        -9.982234001159668
      ],
      [
        "ET",
        -9.982475280761719
      ],
      [
        "BA",
        -9.98299789428711
      ],
      [
        "ạ",
        -9.98301887512207
      ],
      [
        "▁public",
        -9.983267784118652
      ],
      [
        "ना",
        -9.983333587646484
      ],
      [
        "āk",
        -9.983353614807129
      ],
      [
        "▁vel",
        -9.983805656433105
      ],
      [
        "▁res",
        -9.984484672546387
      ],
      [
        "ד",
        -9.98471736907959
      ],
      [
        "iku",
        -9.984807014465332
      ],
      [
        "ň",
        -9.985023498535156
      ],
      [
        "▁või",
        -9.985239028930664
      ],
      [
        "5%",
        -9.985347747802734
      ],
      [
        "▁aus",
        -9.98538875579834
      ],
      [
        "lem",
        -9.986119270324707
      ],
      [
        "న",
        -9.986225128173828
      ],
      [
        "ació",
        -9.986226081848145
      ],
      [
        "nych",
        -9.98641586303711
      ],
      [
        "▁ग",
        -9.986416816711426
      ],
      [
        "mir",
        -9.98702621459961
      ],
      [
        "▁Ein",
        -9.987687110900879
      ],
      [
        "ean",
        -9.987829208374023
      ],
      [
        "nosti",
        -9.989107131958008
      ],
      [
        "▁ama",
        -9.989232063293457
      ],
      [
        "▁cel",
        -9.989584922790527
      ],
      [
        "▁alt",
        -9.98987102508545
      ],
      [
        "ons",
        -9.990442276000977
      ],
      [
        "stri",
        -9.99051284790039
      ],
      [
        "▁Mas",
        -9.990673065185547
      ],
      [
        "▁Next",
        -9.990893363952637
      ],
      [
        "esti",
        -9.991199493408203
      ],
      [
        "nta",
        -9.991281509399414
      ],
      [
        "▁2007",
        -9.992249488830566
      ],
      [
        "ID",
        -9.993313789367676
      ],
      [
        "▁հ",
        -9.993671417236328
      ],
      [
        "mmer",
        -9.993693351745605
      ],
      [
        "dı",
        -9.994359016418457
      ],
      [
        "▁let",
        -9.994856834411621
      ],
      [
        "DA",
        -9.995190620422363
      ],
      [
        "sim",
        -9.995351791381836
      ],
      [
        "▁Nor",
        -9.995617866516113
      ],
      [
        "▁ת",
        -9.995779991149902
      ],
      [
        "▁telefon",
        -9.996575355529785
      ],
      [
        "stru",
        -9.997316360473633
      ],
      [
        "365",
        -9.99752426147461
      ],
      [
        "▁Ф",
        -9.997668266296387
      ],
      [
        "200",
        -9.99855899810791
      ],
      [
        "Л",
        -9.998679161071777
      ],
      [
        "▁би",
        -9.999014854431152
      ],
      [
        "▁आ",
        -9.999703407287598
      ],
      [
        "▁Ze",
        -10.000000953674316
      ],
      [
        "▁data",
        -10.000097274780273
      ],
      [
        "▁ye",
        -10.000104904174805
      ],
      [
        "▁ich",
        -10.0001859664917
      ],
      [
        "ār",
        -10.000199317932129
      ],
      [
        "ţi",
        -10.0004301071167
      ],
      [
        "же",
        -10.000614166259766
      ],
      [
        "աց",
        -10.000664710998535
      ],
      [
        "ats",
        -10.001608848571777
      ],
      [
        "로",
        -10.001890182495117
      ],
      [
        "▁projekt",
        -10.001896858215332
      ],
      [
        "′",
        -10.001940727233887
      ],
      [
        "itat",
        -10.002039909362793
      ],
      [
        "ζ",
        -10.003097534179688
      ],
      [
        "ved",
        -10.003314971923828
      ],
      [
        "amp",
        -10.003390312194824
      ],
      [
        "vě",
        -10.003657341003418
      ],
      [
        "tive",
        -10.003925323486328
      ],
      [
        "▁gr",
        -10.004069328308105
      ],
      [
        "下",
        -10.004301071166992
      ],
      [
        "我",
        -10.004338264465332
      ],
      [
        "▁ug",
        -10.004651069641113
      ],
      [
        "yen",
        -10.005125999450684
      ],
      [
        "▁gal",
        -10.005256652832031
      ],
      [
        "▁app",
        -10.005522727966309
      ],
      [
        "בי",
        -10.005595207214355
      ],
      [
        "天",
        -10.005839347839355
      ],
      [
        "dzie",
        -10.006058692932129
      ],
      [
        "αν",
        -10.006241798400879
      ],
      [
        "aja",
        -10.006290435791016
      ],
      [
        "יה",
        -10.006482124328613
      ],
      [
        "▁dr",
        -10.0067720413208
      ],
      [
        "ах",
        -10.006921768188477
      ],
      [
        "Ba",
        -10.006991386413574
      ],
      [
        "یا",
        -10.0075101852417
      ],
      [
        "cion",
        -10.008031845092773
      ],
      [
        "mise",
        -10.008191108703613
      ],
      [
        "▁design",
        -10.008450508117676
      ],
      [
        "▁ann",
        -10.008587837219238
      ],
      [
        "-3",
        -10.009408950805664
      ],
      [
        "▁his",
        -10.010466575622559
      ],
      [
        "bla",
        -10.010683059692383
      ],
      [
        "▁Et",
        -10.011716842651367
      ],
      [
        "▁tə",
        -10.011731147766113
      ],
      [
        "ท",
        -10.012100219726562
      ],
      [
        "ux",
        -10.012252807617188
      ],
      [
        "dio",
        -10.012309074401855
      ],
      [
        "э",
        -10.012404441833496
      ],
      [
        "ਿ",
        -10.012617111206055
      ],
      [
        "бе",
        -10.01282024383545
      ],
      [
        "ey",
        -10.012989044189453
      ],
      [
        "ิ",
        -10.013059616088867
      ],
      [
        "▁Zu",
        -10.013761520385742
      ],
      [
        "π",
        -10.014101028442383
      ],
      [
        "ਸ",
        -10.014124870300293
      ],
      [
        "▁נ",
        -10.014307022094727
      ],
      [
        "▁Ö",
        -10.01463508605957
      ],
      [
        "ז",
        -10.015121459960938
      ],
      [
        "iye",
        -10.015289306640625
      ],
      [
        "pot",
        -10.015573501586914
      ],
      [
        "で",
        -10.015707969665527
      ],
      [
        "▁vin",
        -10.016037940979004
      ],
      [
        "ол",
        -10.016410827636719
      ],
      [
        "nost",
        -10.017358779907227
      ],
      [
        "RA",
        -10.017447471618652
      ],
      [
        "▁که",
        -10.017629623413086
      ],
      [
        "mann",
        -10.017643928527832
      ],
      [
        "ಗ",
        -10.017877578735352
      ],
      [
        "bur",
        -10.018210411071777
      ],
      [
        "▁Facebook",
        -10.018694877624512
      ],
      [
        "oz",
        -10.018936157226562
      ],
      [
        "eti",
        -10.019017219543457
      ],
      [
        "EM",
        -10.019190788269043
      ],
      [
        "бо",
        -10.01927375793457
      ],
      [
        "ಕ",
        -10.019440650939941
      ],
      [
        "OL",
        -10.019723892211914
      ],
      [
        "sty",
        -10.019813537597656
      ],
      [
        "క",
        -10.0217924118042
      ],
      [
        "rij",
        -10.021991729736328
      ],
      [
        "ש",
        -10.022480010986328
      ],
      [
        "elt",
        -10.022858619689941
      ],
      [
        "▁test",
        -10.023205757141113
      ],
      [
        "▁под",
        -10.023628234863281
      ],
      [
        "ി",
        -10.023727416992188
      ],
      [
        "▁вы",
        -10.024154663085938
      ],
      [
        "▁σε",
        -10.025064468383789
      ],
      [
        "lige",
        -10.025262832641602
      ],
      [
        "MA",
        -10.025398254394531
      ],
      [
        "tua",
        -10.025400161743164
      ],
      [
        "▁б",
        -10.025896072387695
      ],
      [
        "를",
        -10.025900840759277
      ],
      [
        "ช",
        -10.02627944946289
      ],
      [
        "kke",
        -10.026406288146973
      ],
      [
        "vir",
        -10.026580810546875
      ],
      [
        "▁ö",
        -10.026728630065918
      ],
      [
        "▁tik",
        -10.02674388885498
      ],
      [
        "▁xa",
        -10.0275239944458
      ],
      [
        "▁Tar",
        -10.027765274047852
      ],
      [
        "ما",
        -10.027976989746094
      ],
      [
        "′′",
        -10.028265953063965
      ],
      [
        "ង",
        -10.028875350952148
      ],
      [
        "эр",
        -10.029423713684082
      ],
      [
        "▁foi",
        -10.029633522033691
      ],
      [
        "▁bes",
        -10.029810905456543
      ],
      [
        "▁ile",
        -10.029816627502441
      ],
      [
        "▁izan",
        -10.030035972595215
      ],
      [
        "ป",
        -10.030115127563477
      ],
      [
        "▁00",
        -10.030502319335938
      ],
      [
        "ʻ",
        -10.030539512634277
      ],
      [
        "▁000",
        -10.031230926513672
      ],
      [
        "▁era",
        -10.031350135803223
      ],
      [
        "vr",
        -10.031429290771484
      ],
      [
        "rio",
        -10.031632423400879
      ],
      [
        "لي",
        -10.0316801071167
      ],
      [
        "を",
        -10.031792640686035
      ],
      [
        "рт",
        -10.032431602478027
      ],
      [
        "▁η",
        -10.032876968383789
      ],
      [
        "▁she",
        -10.033119201660156
      ],
      [
        "分",
        -10.034110069274902
      ],
      [
        "cur",
        -10.03426742553711
      ],
      [
        "رو",
        -10.034310340881348
      ],
      [
        "RO",
        -10.034331321716309
      ],
      [
        "▁form",
        -10.034425735473633
      ],
      [
        "առ",
        -10.034439086914062
      ],
      [
        "andi",
        -10.034804344177246
      ],
      [
        "▁help",
        -10.0349760055542
      ],
      [
        "▁aku",
        -10.035093307495117
      ],
      [
        "▁star",
        -10.035309791564941
      ],
      [
        "ulu",
        -10.035356521606445
      ],
      [
        "yar",
        -10.036157608032227
      ],
      [
        "Á",
        -10.03648853302002
      ],
      [
        "▁Mat",
        -10.03684139251709
      ],
      [
        "tten",
        -10.03717041015625
      ],
      [
        "일",
        -10.0372896194458
      ],
      [
        "ം",
        -10.03742504119873
      ],
      [
        "▁kui",
        -10.037697792053223
      ],
      [
        "eur",
        -10.037923812866211
      ],
      [
        "teri",
        -10.038803100585938
      ],
      [
        "▁στο",
        -10.039113998413086
      ],
      [
        "ous",
        -10.039328575134277
      ],
      [
        "ēt",
        -10.039581298828125
      ],
      [
        "▁blo",
        -10.040003776550293
      ],
      [
        "tivo",
        -10.040160179138184
      ],
      [
        "▁sú",
        -10.040288925170898
      ],
      [
        "▁Col",
        -10.040467262268066
      ],
      [
        "چ",
        -10.040484428405762
      ],
      [
        "ხ",
        -10.040523529052734
      ],
      [
        "out",
        -10.040721893310547
      ],
      [
        "▁Poli",
        -10.040815353393555
      ],
      [
        "▁ban",
        -10.040945053100586
      ],
      [
        "▁cal",
        -10.040975570678711
      ],
      [
        "▁nog",
        -10.041097640991211
      ],
      [
        "cre",
        -10.041863441467285
      ],
      [
        "ndi",
        -10.041940689086914
      ],
      [
        "nem",
        -10.042163848876953
      ],
      [
        "▁Red",
        -10.042633056640625
      ],
      [
        "▁Hor",
        -10.043174743652344
      ],
      [
        "8%",
        -10.043375015258789
      ],
      [
        "ula",
        -10.043465614318848
      ],
      [
        "ит",
        -10.04403018951416
      ],
      [
        "AP",
        -10.044299125671387
      ],
      [
        "ost",
        -10.044759750366211
      ],
      [
        "▁bak",
        -10.044795989990234
      ],
      [
        "▁որ",
        -10.045427322387695
      ],
      [
        "ರ್",
        -10.04548168182373
      ],
      [
        "ര്‍",
        -10.045549392700195
      ],
      [
        "ુ",
        -10.04572582244873
      ],
      [
        "стан",
        -10.046399116516113
      ],
      [
        "▁olan",
        -10.04672908782959
      ],
      [
        "သ",
        -10.046858787536621
      ],
      [
        "jó",
        -10.046879768371582
      ],
      [
        "nger",
        -10.047083854675293
      ],
      [
        "▁Sport",
        -10.047348976135254
      ],
      [
        "▁imp",
        -10.048478126525879
      ],
      [
        "य",
        -10.049114227294922
      ],
      [
        "AM",
        -10.049727439880371
      ],
      [
        "▁trong",
        -10.049859046936035
      ],
      [
        "ää",
        -10.05049991607666
      ],
      [
        "ual",
        -10.0507230758667
      ],
      [
        "▁τα",
        -10.050772666931152
      ],
      [
        "▁الت",
        -10.051143646240234
      ],
      [
        "pet",
        -10.051348686218262
      ],
      [
        "ší",
        -10.051370620727539
      ],
      [
        "ھ",
        -10.052002906799316
      ],
      [
        "ਕ",
        -10.052199363708496
      ],
      [
        "▁saat",
        -10.05225658416748
      ],
      [
        "essa",
        -10.052675247192383
      ],
      [
        "▁ي",
        -10.052690505981445
      ],
      [
        "▁poz",
        -10.053841590881348
      ],
      [
        "▁sich",
        -10.054078102111816
      ],
      [
        "гі",
        -10.054165840148926
      ],
      [
        "med",
        -10.054186820983887
      ],
      [
        "▁dira",
        -10.05443000793457
      ],
      [
        "▁că",
        -10.054444313049316
      ],
      [
        "▁pul",
        -10.05494213104248
      ],
      [
        "▁san",
        -10.055005073547363
      ],
      [
        "hir",
        -10.055105209350586
      ],
      [
        "anti",
        -10.055423736572266
      ],
      [
        "сь",
        -10.055741310119629
      ],
      [
        "rem",
        -10.056000709533691
      ],
      [
        "gle",
        -10.056350708007812
      ],
      [
        "ù",
        -10.056442260742188
      ],
      [
        "ظ",
        -10.056998252868652
      ],
      [
        "კ",
        -10.05767822265625
      ],
      [
        "ui",
        -10.058120727539062
      ],
      [
        "gue",
        -10.058277130126953
      ],
      [
        "▁sch",
        -10.05856704711914
      ],
      [
        "ís",
        -10.058798789978027
      ],
      [
        "▁City",
        -10.059103012084961
      ],
      [
        "ού",
        -10.059386253356934
      ],
      [
        "▁với",
        -10.059433937072754
      ],
      [
        "aka",
        -10.059613227844238
      ],
      [
        "تی",
        -10.059736251831055
      ],
      [
        "uda",
        -10.059981346130371
      ],
      [
        "が",
        -10.060257911682129
      ],
      [
        "ול",
        -10.060422897338867
      ],
      [
        "gat",
        -10.060564041137695
      ],
      [
        "▁hem",
        -10.060564041137695
      ],
      [
        "公",
        -10.06153678894043
      ],
      [
        "▁ham",
        -10.062029838562012
      ],
      [
        "ון",
        -10.062189102172852
      ],
      [
        "▁nas",
        -10.06220817565918
      ],
      [
        "▁Mag",
        -10.062615394592285
      ],
      [
        "ray",
        -10.062743186950684
      ],
      [
        "▁Het",
        -10.062883377075195
      ],
      [
        "ए",
        -10.063301086425781
      ],
      [
        "▁kes",
        -10.063434600830078
      ],
      [
        "sky",
        -10.063583374023438
      ],
      [
        "▁eine",
        -10.063857078552246
      ],
      [
        "ných",
        -10.06389045715332
      ],
      [
        "金",
        -10.064569473266602
      ],
      [
        "bul",
        -10.064672470092773
      ],
      [
        "▁Download",
        -10.065079689025879
      ],
      [
        "য়",
        -10.065181732177734
      ],
      [
        "က",
        -10.065238952636719
      ],
      [
        "▁unha",
        -10.065364837646484
      ],
      [
        "tö",
        -10.06562328338623
      ],
      [
        "្",
        -10.065862655639648
      ],
      [
        "▁அ",
        -10.066106796264648
      ],
      [
        "▁स",
        -10.066608428955078
      ],
      [
        "▁ole",
        -10.06706428527832
      ],
      [
        "dí",
        -10.067145347595215
      ],
      [
        "▁כ",
        -10.067341804504395
      ],
      [
        "σ",
        -10.067766189575195
      ],
      [
        "ં",
        -10.067850112915039
      ],
      [
        "ման",
        -10.068066596984863
      ],
      [
        "▁Af",
        -10.068113327026367
      ],
      [
        "iş",
        -10.068225860595703
      ],
      [
        "▁ilə",
        -10.068353652954102
      ],
      [
        "ता",
        -10.068598747253418
      ],
      [
        "▁لل",
        -10.069061279296875
      ],
      [
        "▁Р",
        -10.069190979003906
      ],
      [
        "gia",
        -10.069392204284668
      ],
      [
        "kum",
        -10.069469451904297
      ],
      [
        "▁kami",
        -10.069592475891113
      ],
      [
        "▁(19",
        -10.06982135772705
      ],
      [
        "0.00",
        -10.07002067565918
      ],
      [
        "dis",
        -10.070058822631836
      ],
      [
        "uga",
        -10.070167541503906
      ],
      [
        "▁Zo",
        -10.07036304473877
      ],
      [
        "ज",
        -10.070563316345215
      ],
      [
        "ame",
        -10.070748329162598
      ],
      [
        "▁Wo",
        -10.071053504943848
      ],
      [
        "2017",
        -10.071154594421387
      ],
      [
        "▁local",
        -10.071216583251953
      ],
      [
        "▁Bre",
        -10.071754455566406
      ],
      [
        "િ",
        -10.072091102600098
      ],
      [
        "ക",
        -10.072318077087402
      ],
      [
        "न्",
        -10.07247257232666
      ],
      [
        "ml",
        -10.07269287109375
      ],
      [
        "成",
        -10.072897911071777
      ],
      [
        "▁str",
        -10.073594093322754
      ],
      [
        "▁Fu",
        -10.073600769042969
      ],
      [
        "së",
        -10.073729515075684
      ],
      [
        "▁છે",
        -10.073742866516113
      ],
      [
        "▁ik",
        -10.074108123779297
      ],
      [
        "▁Super",
        -10.07446575164795
      ],
      [
        "ì",
        -10.07473087310791
      ],
      [
        "мер",
        -10.075174331665039
      ],
      [
        "hur",
        -10.075684547424316
      ],
      [
        "▁:)",
        -10.076080322265625
      ],
      [
        "ful",
        -10.076217651367188
      ],
      [
        "▁අ",
        -10.076245307922363
      ],
      [
        "▁sport",
        -10.076513290405273
      ],
      [
        "▁Min",
        -10.07658863067627
      ],
      [
        "AG",
        -10.076602935791016
      ],
      [
        "ët",
        -10.077058792114258
      ],
      [
        "การ",
        -10.077392578125
      ],
      [
        "kus",
        -10.077762603759766
      ],
      [
        "ją",
        -10.078043937683105
      ],
      [
        ",\"",
        -10.078059196472168
      ],
      [
        "шы",
        -10.078293800354004
      ],
      [
        "kul",
        -10.0785493850708
      ],
      [
        "ների",
        -10.079534530639648
      ],
      [
        "tina",
        -10.079805374145508
      ],
      [
        "▁З",
        -10.080110549926758
      ],
      [
        "▁social",
        -10.080216407775879
      ],
      [
        "ман",
        -10.080368995666504
      ],
      [
        "▁see",
        -10.080523490905762
      ],
      [
        "ха",
        -10.080574989318848
      ],
      [
        "Po",
        -10.080706596374512
      ],
      [
        "ving",
        -10.081001281738281
      ],
      [
        "▁part",
        -10.081125259399414
      ],
      [
        "▁mor",
        -10.081137657165527
      ],
      [
        "cial",
        -10.081971168518066
      ],
      [
        "ン",
        -10.082141876220703
      ],
      [
        "2)",
        -10.082357406616211
      ],
      [
        "▁loo",
        -10.082650184631348
      ],
      [
        "▁grup",
        -10.082681655883789
      ],
      [
        "aria",
        -10.082891464233398
      ],
      [
        "▁ما",
        -10.083012580871582
      ],
      [
        "kr",
        -10.0830659866333
      ],
      [
        "好",
        -10.08316421508789
      ],
      [
        "amente",
        -10.083183288574219
      ],
      [
        "▁had",
        -10.08327579498291
      ],
      [
        "ник",
        -10.083344459533691
      ],
      [
        "ран",
        -10.08338451385498
      ],
      [
        "▁Park",
        -10.08380126953125
      ],
      [
        "lab",
        -10.08463191986084
      ],
      [
        "ть",
        -10.084640502929688
      ],
      [
        "▁hand",
        -10.084790229797363
      ],
      [
        "år",
        -10.085094451904297
      ],
      [
        "▁Ban",
        -10.085397720336914
      ],
      [
        "oko",
        -10.085763931274414
      ],
      [
        "േ",
        -10.085834503173828
      ],
      [
        "▁36",
        -10.086817741394043
      ],
      [
        "▁É",
        -10.08694076538086
      ],
      [
        "ball",
        -10.0870361328125
      ],
      [
        "▁spe",
        -10.087183952331543
      ],
      [
        "▁net",
        -10.08736801147461
      ],
      [
        "أ",
        -10.087420463562012
      ],
      [
        "▁yn",
        -10.08765983581543
      ],
      [
        "▁også",
        -10.087677955627441
      ],
      [
        "وا",
        -10.088022232055664
      ],
      [
        "റ",
        -10.08836841583252
      ],
      [
        "fic",
        -10.088520050048828
      ],
      [
        "▁ж",
        -10.088964462280273
      ],
      [
        "ак",
        -10.089138984680176
      ],
      [
        "2014",
        -10.089214324951172
      ],
      [
        "lad",
        -10.089737892150879
      ],
      [
        "zna",
        -10.089781761169434
      ],
      [
        "tă",
        -10.090085983276367
      ],
      [
        "▁մ",
        -10.090254783630371
      ],
      [
        "▁სა",
        -10.09084701538086
      ],
      [
        "heid",
        -10.090849876403809
      ],
      [
        "hay",
        -10.09087085723877
      ],
      [
        "SE",
        -10.091050148010254
      ],
      [
        "nika",
        -10.091059684753418
      ],
      [
        "▁oleh",
        -10.09140396118164
      ],
      [
        "ży",
        -10.091622352600098
      ],
      [
        "uj",
        -10.091714859008789
      ],
      [
        "esta",
        -10.09177303314209
      ],
      [
        "▁Kor",
        -10.091829299926758
      ],
      [
        "▁Ш",
        -10.092219352722168
      ],
      [
        "Co",
        -10.092350959777832
      ],
      [
        "hon",
        -10.09286117553711
      ],
      [
        "UM",
        -10.0929594039917
      ],
      [
        "لو",
        -10.093073844909668
      ],
      [
        "că",
        -10.093513488769531
      ],
      [
        "bir",
        -10.093830108642578
      ],
      [
        "isha",
        -10.094023704528809
      ],
      [
        "else",
        -10.094271659851074
      ],
      [
        "AR",
        -10.094487190246582
      ],
      [
        "▁mon",
        -10.094614028930664
      ],
      [
        "run",
        -10.094925880432129
      ],
      [
        "▁word",
        -10.094926834106445
      ],
      [
        "▁wi",
        -10.095023155212402
      ],
      [
        "ια",
        -10.095268249511719
      ],
      [
        "су",
        -10.095282554626465
      ],
      [
        "▁yer",
        -10.095314979553223
      ],
      [
        "▁like",
        -10.095335960388184
      ],
      [
        "лик",
        -10.095439910888672
      ],
      [
        "▁get",
        -10.095489501953125
      ],
      [
        "тор",
        -10.095705032348633
      ],
      [
[...]
